<s>
<pad>
</s>
<unk>
<mask>
!
#
$
%
&
(
)
*
+
,
-
.
/
0
1
2
3
4
5
6
7
8
9
:
;
=
?
@
A
B
C
D
E
F
G
H
I
J
K
L
M
N
O
P
Q
R
S
T
U
V
W
X
Y
Z
\
_
`
a
b
c
d
e
f
g
h
i
j
k
l
m
n
o
p
q
r
s
t
u
v
w
x
y
z
{
}
~
¡
£
©
®
²
¼
½
¾
À
Á
Â
Ã
Å
É
Ê
Ì
Í
Ó
Ô
Ù
Ú
Ý
à
á
â
ã
ä
ç
è
é
ê
ë
ì
í
ï
ñ
ò
ó
ô
õ
ö
ø
ù
ú
ü
ý
ā
Ă
ă
ć
Č
Đ
đ
ē
Ĩ
ĩ
Ť
ũ
Ơ
ơ
Ư
ư
́
̣
̀
́
ย
ร
อ
่
Ạ
ạ
Ả
ả
Ấ
ấ
Ầ
ầ
Ẩ
ẩ
ẫ
Ậ
ậ
Ắ
ắ
ằ
ẳ
ẵ
ặ
ẹ
Ẻ
ẻ
ẽ
Ế
ế
ề
Ể
ể
ễ
Ệ
ệ
Ỉ
ỉ
Ị
ị
Ọ
ọ
ỏ
Ố
ố
Ồ
ồ
Ổ
ổ
Ỗ
ỗ
Ộ
ộ
Ớ
ớ
Ờ
ờ
Ở
ở
ỡ
ợ
Ụ
ụ
Ủ
ủ
Ứ
ứ
Ừ
ừ
Ử
ử
Ữ
ữ
Ự
ự
ỳ
Ỵ
ỵ
ỷ
ỹ
–
—
…
€
你
葱
送
ｃ
##i
##m
##l
##u
##c
##t
##a
##o
##n
##y
##ế
##s
##r
##d
##j
##e
##w
##ư
##ớ
##ừ
##v
##8
##0
##x
##ê
##k
##b
##g
##h
##â
##ở
##z
##ọ
##p
##ự
##f
##ơ
##ụ
##C
##A
##P
##T
##H
##ô
##À
##N
##9
##ề
##ể
##ì
##ù
##6
##R
##F
##S
##2
##ã
##ú
##ố
##ệ
##ẩ
##D
##á
##ó
##ắ
##ỏ
##ộ
##ậ
##ị
##ủ
##q
##5
##E
##M
##L
##ă
##G
##B
##í
##ạ
##ũ
##é
##ẫ
##ợ
##à
##7
##ầ
##O
##ý
##ỷ
##4
##ử
##Ô
##õ
##è
##ĩ
##ấ
##1
##Ư
##U
##ờ
##ữ
##I
##ỳ
##V
##W
##ổ
##đ
##ả
##ỉ
##3
##Ử
##ò
##ẹ
##ằ
##ứ
##Ổ
##ồ
##ỹ
##Q
##X
##Ộ
##ẳ
##ç
##J
##ø
##ỡ
##ẽ
##ặ
##ö
##Á
##ẵ
##ỵ
##Y
##ễ
##Z
##ñ
##ẻ
##K
##ä
##ć
##ỗ
##Ể
##Â
##Ớ
##Ù
##Ơ
##Ệ
##É
##Ắ
##Đ
##Ì
##Ó
##Ă
##Ứ
##Ố
##Ã
##ü
##ë
##Ự
##ï
##Ẻ
##Ĩ
##Ầ
##ย
##Ữ
##Ạ
##ā
##Ờ
##Ê
##Ú
##ｃ
##ē
##Ậ
##Ở
##Ỉ
##Ụ
##Ỵ
##Ế
##Ť
##Ấ
##Ị
##Ọ
##ร
##ng
th
the
ch
##er
nh
##nd
##at
tr
##ou
##nh
##os
##on
kh
to
##en
##es
##ing
##an
ng
##or
là
qu
##ôi
##ot
ap
apos
##al
of
và
##ed
##ar
in
and
##is
ph
##ác
##re
##ột
##it
##in
tôi
gi
##ông
một
có
##úng
that
##om
##ay
##ên
##as
##ic
##le
##iệ
##ững
##ời
you
quot
##ới
##ll
những
wh
chúng
củ
của
##ow
ta
##iế
##ất
##ly
is
##et
##ve
##ạn
##ut
##ong
##ion
we
it
##ch
các
nà
be
##iề
không
re
Th
##ượ
ha
nó
##ent
##ười
đó
##iều
người
##ct
bạn
##se
##ại
on
##ld
##uy
ngh
trong
thể
##st
And
##ược
này
đã
##ur
##id
được
như
##ang
##ây
họ
this
##ình
ra
##ig
##am
cho
với
st
do
##au
##im
Và
sự
##ce
for
##ver
##op
##ere
li
##ần
mà
##ải
làm
##ke
con
##ir
was
##ol
##ằng
an
##ith
để
##ực
về
sẽ
pr
##ấy
cả
Ch
##ái
are
##ally
##iể
##ân
##th
with
ho
##uố
##ật
##iên
##iết
điều
have
##ad
thế
lo
##ter
##ầu
##od
ab
go
they
can
se
##em
##ến
từ
khi
##ành
##ống
##ation
##ướ
##ơn
as
Tôi
##ear
nói
##out
so
##ao
##ht
##ết
sh
##inh
##iện
wor
So
##ức
nă
what
đến
com
##il
##ould
##ính
##ill
phải
##ra
##iệc
at
##est
about
##ant
ne
##ườ
rằng
##ul
Nh
##ess
me
not
vào
The
gì
đang
##àn
##ường
việc
##ers
fr
##ước
lại
##ản
##ận
##ust
thấy
all
nghĩ
độ
rất
cách
##el
ex
di
hơn
##ag
##âu
nhiều
my
##ùng
##ight
som
##ài
##ươ
pe
khác
##ore
thực
##ac
##iến
đầu
##ậy
or
##ương
đây
We
##ople
học
##ok
there
##um
##ối
##ạo
##ổi
##ọi
##ist
chỉ
like
##ate
##art
##ếu
công
people
trên
It
de
he
cái
##anh
one
vì
nào
biết
##ies
from
Chúng
##ity
chuy
đề
ma
##ble
##át
##ung
##àng
##iệu
##us
##00
năm
##ff
kn
##ũng
đi
our
us
##ind
bec
##ia
##uốn
thứ
##ơi
pro
but
##and
dụ
thành
##ộc
##ect
##ắt
al
out
##ink
##un
số
##ause
##ery
##áng
just
cũng
te
##pp
nhà
##rou
sp
Như
know
##uộc
##ie
##ive
##all
bị
##ure
them
thing
kho
quan
##ain
##ci
##ập
muốn
##ồi
But
##her
##ort
##úc
##ởi
##ich
these
up
sa
if
mình
##ữa
##og
who
think
nhưng
very
nhất
##ích
get
Nhưng
##one
tạo
##ưở
##ưởng
động
giới
chính
##ặt
by
year
nên
tim
pl
when
vậy
##gh
act
Wh
your
more
im
some
going
##ày
##ền
int
##ine
see
##òn
lớ
##ấn
##êu
##our
because
##ắc
hình
su
##ện
##ame
had
##iểu
##ỏi
giờ
hiện
##ost
##ưa
sống
##ap
tiế
would
tại
nếu
nhận
mọi
##king
how
##ose
ever
##ượng
en
##ast
##act
their
Tr
##ìn
thu
quy
cuộc
##iz
were
cần
hay
tố
which
##ack
tự
##ặc
look
##ually
thì
want
really
##ide
ve
##ội
##hi
##ab
comp
đị
##ence
##ôn
tất
##ọng
ông
##ous
way
le
##òng
ấy
bởi
##ai
##án
tới
đồ
theo
##ment
##ard
bắt
##ẫn
cứ
tin
##ans
còn
nhìn
##iểm
##ob
lớn
##hing
world
##ven
cùng
bằng
sau
cảm
##áo
##iển
tế
You
dụng
thật
lên
anh
câu
ag
bản
em
In
exp
##ảng
mu
time
bu
thời
sao
##ther
##iv
chuyện
trở
here
then
qua
say
##iệm
ngày
nhân
cơ
##reat
per
has
bộ
##ace
This
sinh
##ăn
##ions
##ỗi
every
lu
##ục
##ìm
năng
don
man
actually
##ạt
sử
trước
phát
nước
đổi
Nó
##iệt
into
un
fe
##ild
##ánh
toàn
could
phần
##ud
##age
nơi
will
##áy
work
##ach
gia
##oc
thông
dự
tìm
nhau
years
thay
mới
did
##nder
now
vấn
định
Now
other
##ri
##fe
hệ
things
##itt
trường
nhiên
tính
Đây
where
##ách
trình
tu
cl
mạ
tốt
##âm
tưởng
than
kết
##ical
They
somet
##ăng
##ấu
vật
ar
##ãy
##ảo
##ge
tw
##ấp
diff
##ảy
hàng
lý
##ep
happ
co
make
hỏi
need
##oun
##ứng
##ue
any
##ro
Bạn
no
##ợp
am
##ry
res
máy
ảnh
##ạc
been
##út
hợp
##so
Đó
imp
##ome
##ice
mặt
##irst
##ắn
tiếp
start
hành
said
##ite
nữa
kinh
##ory
part
gian
thức
hội
##alk
vị
##own
tuy
thiết
##pt
chiế
rồi
##orm
xem
two
liệu
##ves
over
cô
inter
trọng
##ass
##ree
dis
right
something
thích
hoá
phá
##ào
##ound
##ễn
##are
##ount
##ệnh
##if
##ea
đồng
##round
back
giải
much
differ
call
##sel
##ens
first
##ber
##iêu
new
##ồn
hai
##ving
##ell
trẻ
lượng
##ắng
##ple
ai
thường
bất
those
vài
đo
đều
she
##olog
also
Một
tiên
##ater
##ign
đối
ac
sáng
po
##ộng
##ển
cont
life
got
hiểu
Kh
quá
id
nay
tâm
##qu
loại
giống
lần
Vì
lot
kind
##ittle
cứu
##vel
bao
bệnh
thống
##ịch
##ốc
##cent
under
little
##ru
bet
##way
##ult
viên
##ody
##ảm
##oss
his
chang
That
##ated
##ents
##ệt
mo
most
##êm
day
nghệ
##iền
điểm
nghĩa
ngo
gọi
Có
##pl
##ick
nhỏ
only
Vậy
##co
her
even
##ations
##able
What
Họ
##ght
bl
##ood
##ank
đưa
tương
hoàn
xu
##ict
ad
##ám
nghiệm
des
10
gr
may
bo
quả
tác
đường
vẫn
##ade
many
Ng
##uc
gen
take
xảy
##ăm
different
good
show
##rough
chiếc
sy
nguy
thuật
##ew
19
dùng
biệt
He
##int
##ẳng
đại
hoặc
hum
##ec
real
20
bên
##ance
từng
##ph
St
dân
vi
##ase
##ão
triển
##uyền
chuyển
lúc
##iệp
##ọn
diễn
Điều
##ial
through
##ish
around
##ord
does
trị
Những
quyết
##other
##ừng
cố
cao
nghe
##ning
##úp
##ath
ăn
##ark
down
There
##cess
comm
being
dạ
tuyệt
##uốc
mỗi
pre
tổ
cầu
khoảng
##uối
talk
Nếu
lực
off
kế
khu
chất
tell
##form
phụ
##ip
##ary
000
lời
put
use
giáo
##ợi
giúp
đất
giá
##óng
##blem
ơn
##ắp
##ầm
##rain
sc
##ful
thou
trung
problem
##ứa
chủ
##wn
##ower
wr
bảo
br
##ors
nữ
inc
sm
tiến
hết
phòng
ll
##xt
happen
##ưới
tình
##ject
chưa
nghiên
##lect
##tern
mang
xuất
##ether
##ướng
##ual
##ẩm
fact
Well
xe
phí
count
same
liên
##ép
phân
ro
Anh
##end
tranh
bài
##ak
khó
đơn
##ting
não
truyền
tập
##ib
tuổi
đúng
điện
phương
##ile
bình
##ars
##ậu
##ert
##day
đặt
##urn
##av
try
tượng
come
tay
big
biến
Khi
##stem
##ian
pers
tiền
three
hear
giữa
yêu
If
##ub
dec
sản
##ress
fl
##ét
tiếng
##ons
doing
cr
find
hãy
##ible
great
##ved
##ạnh
##ft
ngay
tho
sur
khả
##ặp
trả
bé
##ne
khoa
##ED
Không
##chn
cá
percent
thú
ty
##ically
lấy
bỏ
##we
##ces
hu
##igh
human
##ửa
##ric
##self
gần
stud
xã
hoạt
called
brain
quest
##fter
chu
well
200
child
chiến
ind
thị
##ating
đáng
system
sách
##iver
Trong
long
lear
let
own
chí
##ire
phẩm
##ics
thân
pháp
hiệu
Ph
Sh
cuối
techn
##ates
đời
inv
why
made
chơi
soci
##ition
sim
##ail
##ren
##mer
bel
Các
##thing
mất
TED
minh
sức
build
##ology
##ọc
##illion
wom
end
kể
##ẩn
##ious
##ẫu
rem
Mỹ
##red
##fore
again
should
mạnh
col
import
##ks
nghiệp
ngoài
##ool
dẫn
khí
ít
##óm
underst
##be
##óc
hel
creat
đấy
lập
tài
mô
ins
##ize
exper
car
loài
##ừa
kỳ
bức
tinh
##ậm
Gi
Thank
la
luôn
person
change
dựng
xây
##ấm
trí
op
##les
##olut
tiêu
##ities
phố
tên
bas
##uống
sch
cộng
vô
văn
today
##uyết
âm
chứng
##con
cụ
feel
didn
##ope
thought
important
tử
##ise
##ầy
##nds
old
after
ev
hướng
##te
ba
##ys
nhạc
ask
mean
idea
sci
thử
Hãy
ob
viết
bố
cour
đâu
chức
nguyên
kiến
last
quốc
giả
started
ứng
##ạm
vời
##ull
exam
rel
trans
chọn
##ty
giản
quyền
power
gl
đặc
chế
##az
##ese
understand
tư
help
##als
chết
suy
##body
bào
mạng
went
##iếm
##ạch
its
##gan
cấp
dr
story
bà
##ôm
triệu
vụ
How
##ạp
tăng
inst
ngu
##ough
thần
##ave
##pr
nền
##ẹp
before
design
##ork
đạo
lẽ
might
đứa
belie
interest
play
##kes
prod
pol
art
sĩ
khỏi
màu
him
tra
never
cons
đánh
course
mẹ
give
school
sl
##ular
better
##ather
gặp
tháng
##ắm
turn
dưới
Thế
kid
found
still
fam
able
bit
chút
New
##atch
##ists
xuống
##ility
##ction
point
##ix
##ily
##ồng
imag
gắng
##erm
learn
##âng
few
##ience
When
##oth
phép
##ween
khá
##velop
chia
nhóm
quanh
dịch
mở
##ock
bay
came
app
khiến
vực
xác
##ata
Af
commun
dữ
Bây
án
next
##ãi
tog
cell
together
duy
##erg
thêm
tham
ke
trò
##iss
another
each
mức
thuyết
nhanh
Ho
quay
100
comple
love
ext
30
##ited
dạng
##alth
gây
develop
cực
rõ
đàn
between
mod
##ward
min
vọng
high
##ense
question
num
##ized
cre
mon
nguồn
ago
vùng
cảnh
bây
dù
##read
đẹp
att
sort
báo
ví
tục
four
word
ser
giác
##pe
place
xa
chắc
##meric
sát
rec
Americ
càng
pat
93
dễ
data
##iness
bi
đủ
used
cent
##êng
##ied
##ings
grow
cây
trang
fo
##ness
met
nhớ
phía
50
phim
91
chú
##oney
too
##ets
biểu
hưởng
##áu
hôm
##ures
mom
vide
##ways
##ote
đoạn
vu
chị
Al
##air
plan
15
chẳng
women
vũ
Do
kì
kiểm
med
trái
water
example
fin
##iêng
thương
str
Bec
Quốc
##formation
##lic
read
Ông
dài
light
tre
vòng
##cept
##conom
luận
ngữ
done
##ale
phản
Because
ed
live
##ism
đôi
form
Trung
par
gra
seco
spe
less
##ạy
Is
##cy
looking
small
đầy
doesn
##ins
dục
technology
wanted
lợi
##ative
eff
expl
mus
##orn
produ
kia
##ựa
giảm
##ah
thậm
beh
##ằm
thuốc
gener
always
econom
kiếm
##ont
##alking
believe
vừa
Un
##oy
chân
##selves
tích
money
##ands
thư
trăm
##ably
thôi
video
children
partic
comput
My
##ưỡ
care
hộ
As
đình
##ck
##iếu
hạn
run
working
bước
dem
giao
bus
##àu
##ps
##ational
lệ
lai
reas
teach
poss
Người
##per
rob
đô
whole
far
sâu
Tại
away
book
hy
ent
hand
ear
gh
môi
tỉ
toán
project
cam
guy
hard
Intern
mind
trải
trời
##atter
##iềm
eng
tồn
##ụp
information
el
home
move
An
diện
sư
chi
nat
country
rộng
##ond
doll
phục
giữ
Bởi
thanh
##ead
trying
food
dành
kids
nối
reg
create
frie
địa
đoán
lòng
##ever
health
lar
resp
##ural
thuộc
##uốt
five
riêng
##io
##ries
tạp
##ram
##ird
million
sợ
mắt
đứng
mục
nổi
##gg
phủ
dạy
lã
vệ
nghi
##led
##nect
thí
lead
vẻ
sai
##olution
đạt
using
means
conf
căn
thúc
Internet
kỹ
vis
luật
sẻ
tối
open
##ines
sk
mẫu
xung
supp
##its
lịch
pict
sub
##ten
process
Go
sing
ánh
inf
##aces
become
##ina
robot
bàn
đọc
##bo
space
acc
second
fut
maybe
##ặng
organ
lớp
Cảm
##ruct
One
kỷ
##ạng
trụ
elect
##ories
making
pub
yếu
thinking
##ments
cap
She
took
anim
##cer
khắp
amp
##kay
compan
Ind
##sw
everything
vui
trông
khoẻ
future
12
social
tiết
##ran
chương
energ
##ier
ngồi
chạy
best
##iew
fun
sol
gái
##aut
quite
says
pass
pop
##ues
phút
cậu
trợ
prob
cuốn
##àm
##ention
number
mối
head
##ake
đá
lang
sắc
buổi
##wh
##ượt
chắn
For
##ouse
hầu
univer
suốt
enough
left
grou
##iting
##alf
##earch
Afric
Sau
##vern
answ
cle
kiện
biển
lives
##ety
energy
trúc
comes
prog
mù
chung
ké
war
##uff
##eas
body
getting
##ific
pret
ngôn
##imes
##ember
Why
##alle
month
No
mua
doanh
pres
These
wo
Qu
beg
Ar
Phi
kiểu
##ital
Tất
Vâng
##ices
York
##ced
web
Jo
##ogra
cửa
##èo
fu
aut
men
vận
##vir
set
##cial
times
glob
cánh
khám
sở
ngạc
moment
xúc
xét
room
ban
lâu
ràng
sound
sense
##vers
govern
tuần
happened
thoại
bán
##ưu
##der
countries
makes
minut
hiểm
18
##ross
##reen
probably
hồi
job
connect
dollars
Let
contr
##viron
without
es
top
##cover
cấu
talking
##ner
keep
business
phot
##ủng
nhiệm
dist
40
pie
interesting
##uring
music
##ưỡng
hour
##idd
##hip
val
phức
##land
thiên
beaut
seem
research
cou
half
kích
red
add
ey
reason
cung
stre
##rib
##ĩnh
##ott
nằm
told
experience
chụp
nhập
chuyên
##ee
educ
##ốt
cur
wee
environ
pretty
da
bóng
hist
science
cult
matter
##ior
else
ngôi
##ger
young
kẻ
thái
such
cạnh
det
stand
phys
across
##uyện
prot
simple
opp
##ex
##ữu
allow
nam
độc
polit
băng
##ided
viện
Br
side
##ately
cells
langu
wonder
All
hạnh
hữu
sign
##man
gu
chứ
##ếp
saw
stuff
hoà
chỗ
ngành
##ertain
case
living
##ograph
##ash
dung
##ảnh
eas
mor
trưởng
stop
mark
vo
##ient
##uyên
ways
asked
Here
vẽ
khủng
model
thập
##ortun
ích
đa
##ẵn
scient
family
inside
##lf
##ling
building
dep
suc
##gs
cor
##ỏng
air
hope
list
##ov
anything
Xin
def
prof
chuẩn
Con
bác
quý
bad
##ẩy
phúc
bring
ghi
##ality
Cô
vir
thiếu
##ince
happens
##llow
chịu
lab
later
Thật
25
##ters
##where
##ốn
##ửi
goes
bre
hề
coming
lắng
xanh
ref
hoạ
answer
tấm
char
while
##ilt
##ulation
sẵn
tệ
spea
level
global
niệm
pain
##att
wrong
rest
Nên
##ộn
particular
tức
nhiêu
phạm
Can
heart
single
Sự
khăn
xin
environment
tái
watch
đau
yet
##ón
trai
sắp
gir
hơi
áp
problems
Cái
##br
##úi
##iter
##aps
fig
lạ
Giờ
##ences
mach
Thực
mặc
sit
chống
prop
class
lạc
##ene
pos
thất
effect
days
test
##uôi
##arth
having
billion
##ying
loc
##aw
thous
control
cải
mong
seen
dựa
mã
châu
dev
đóng
complete
begin
##most
cha
someone
xử
myself
words
public
Or
six
##ization
##aterial
certain
lựa
trực
mem
often
mar
##ivid
saying
đội
amaz
game
##ron
bánh
walk
hậu
cổ
within
At
tổng
term
girl
ideas
computer
city
looked
To
kill
nhi
khổ
##itive
remember
nội
self
tí
khắc
whether
possible
picture
mật
sure
vượt
nhu
community
product
##úa
tỷ
xấu
##ants
Ever
tầm
chăm
dần
ẩn
fil
gửi
once
toà
##til
nothing
ret
##lish
language
Làm
both
##row
hứng
##side
thiện
Africa
material
sw
true
cost
face
hạt
##ưng
exact
mag
age
Earth
Okay
cond
Để
ca
ướ
##istan
##ury
Ấn
individ
danh
lưu
##ret
night
##par
iss
almost
works
news
##ering
##alleng
##less
chiều
nhiệt
trạng
spend
equ
sang
##rect
entire
lãnh
đột
##ush
amazing
aw
dầu
##ike
free
incred
niềm
##ton
##iddle
beautif
net
exc
##aper
##ready
##get
##pect
challeng
basically
individual
tội
##oph
heard
group
nghèo
ngoại
imagine
nhiễ
nạn
##ield
discover
On
ass
cận
##ndred
##atic
##ime
full
##ồm
##ern
built
past
ung
order
decided
Pr
kính
chữa
looks
aff
xo
already
##ones
##ives
history
đấu
##ream
Châu
engine
dấu
##ages
Độ
che
đẩy
##ats
friends
tool
experim
nỗi
##NA
##imate
government
Fr
contin
United
Goog
success
Oh
pay
share
adv
11
##osed
stories
##eah
hundred
kéo
hát
wa
train
thách
##outh
inn
collect
##ely
thủ
ngủ
##ider
đen
##line
##vious
##ental
follow
piece
mil
khách
couple
tắc
beautiful
ngược
wasn
Chr
sec
result
months
Every
Le
giấy
##aster
education
Lo
lí
large
program
80
phi
nuôi
##ional
ris
view
taking
huge
minutes
foc
deep
ước
Google
bại
became
Tây
rad
##ivity
shar
until
##bers
##hn
##ỉnh
##iếp
chữ
dra
quản
const
soát
universe
though
society
cra
lỗi
##ined
everybody
complex
nửa
cử
lĩnh
tiện
##up
##ision
sex
must
mắc
##work
incre
woman
mơ
quick
hoạch
##ract
front
learned
fund
themselves
##ape
planet
focus
dương
gồm
team
##etic
##ames
##ired
China
nhiễm
##dd
##bon
tốc
created
exactly
##ony
60
Be
chim
khiển
##ange
States
##ians
##ẩu
##omes
rep
sóc
tả
cancer
cắt
gó
##õi
gets
behav
##ane
Mọi
mic
law
hại
Tuy
##med
##sy
giết
completely
house
##ik
thẳng
American
##era
struct
happening
study
ter
khối
quen
state
bày
dây
tàu
##oud
quân
đông
##iễn
knew
clear
hours
lưới
##thers
prov
Pe
name
đích
##cul
chiếu
del
đức
questions
nhờ
##áp
third
John
thấp
somebody
dòng
mê
shows
Chỉ
nature
Re
bầu
cư
cười
lái
ngờ
places
199
Ngh
niên
đêm
thi
isn
kinds
bab
itself
##ential
spec
đổ
dàng
non
phóng
av
khai
hỗ
sàng
##icult
against
chấp
ourselves
rối
xếp
##ặn
ngắn
abs
bốn
Eng
gốc
meet
line
ones
difference
May
song
tận
everyone
##itting
God
Mar
##ral
phong
##els
gấp
listen
nông
đu
đem
##ising
##ease
##ogn
opportun
market
đỡ
##xy
Then
speak
DNA
Với
others
##que
bạo
##cle
giây
hold
Car
bí
lắm
since
expect
##ption
Eur
kỉ
sân
neur
object
close
students
explain
HI
innov
mother
trách
gắn
gave
mess
##ator
##omet
worked
sometimes
indust
invest
relations
Tw
cáo
vai
##ann
##olved
##ability
cân
hồ
##istic
##ler
trừ
ant
##acter
company
India
meas
difficult
Rồi
dru
pot
##ode
cut
fail
rather
đợi
aud
mass
won
##enn
##ney
typ
film
HIV
ngàn
##urs
tôn
##èn
America
phẫu
##ầng
couldn
disease
##ples
thousands
hài
thụ
##rem
coll
interact
surpr
bott
xuyên
##haps
deal
ill
land
##lud
##ibly
dig
miss
thơ
##ots
hoa
based
buy
nhảy
##ature
step
liter
fear
lau
sens
##ination
rev
chuyến
happy
dừng
siêu
amount
learning
cir
norm
##gest
repr
##illions
outside
arch
16
cau
changed
powerful
century
##sych
Em
oil
figure
kĩ
##itut
takes
nghị
màn
death
along
emot
##ribut
Am
ký
##ium
##rew
##uss
ident
lao
wind
systems
early
tầng
giai
population
behavior
Some
đảm
##elt
##lt
##ency
impro
tải
ảo
black
##book
ele
fly
##ented
appro
grand
hấp
##ases
pred
species
turns
machine
Mo
Nam
##ides
least
instead
##wards
Ge
##ming
##ken
Cho
during
jour
mot
phổ
short
##ured
guys
##app
##not
##ison
##unch
90
cal
yourself
14
middle
khởi
treat
democ
Se
nhắc
ngăn
lots
viol
500
eat
tù
##ement
chỉnh
extra
fre
rừng
animals
protect
OK
##erv
##ply
##ót
##ident
##ither
poor
realized
easy
bom
##ients
culture
góc
paper
##jor
Afgh
fall
##ẳn
thải
khái
##leep
201
tem
var
given
##cc
recent
image
mole
hút
arg
natural
70
##fect
Cal
dream
hands
seven
##astic
perform
needed
behind
hộp
nghiêm
Âu
Được
##ully
Dav
luyện
món
##ama
##verage
##uck
kê
psych
ổn
##ped
math
simply
needs
khuôn
du
##ife
exist
personal
Afghan
father
##itch
giàu
tín
13
Ta
cập
lá
chuột
Còn
lim
ru
economic
friend
eyes
Ví
field
trad
doct
direct
già
colle
finally
môn
##ềm
pract
coi
Europe
low
liệt
ngân
major
leave
TV
fac
đỏ
stat
companies
Har
đám
stay
disc
tấn
phận
##room
tuyến
support
thắng
##itions
feet
pattern
local
felt
lan
##osp
##inary
##apt
sun
##zy
intern
media
##ledge
sour
##hor
trao
tai
obvious
area
turned
political
17
key
Hoa
break
jo
size
Chúa
serv
đảo
##ts
##orth
##ows
access
huỷ
value
nặng
ple
##ills
##ological
common
oper
hẳn
##ially
##ma
chứa
Trái
famil
strong
People
dậy
eight
mềm
##òi
quang
record
Câu
Just
Rob
vân
##cing
taken
cannot
fight
##face
chem
spent
seeing
perhaps
communic
beginning
##bor
nóng
##idence
prote
Co
mấy
##by
moving
David
sent
##inal
leg
emb
resour
##avor
Bắc
Wor
##ọt
phù
extrem
vac
orig
parts
longer
Công
Not
near
cháu
mạch
foot
Yeah
chóng
present
mẽ
mult
win
ống
##ịp
##iếng
reach
quyển
growth
leaders
mùa
Sp
buộc
điển
##yl
##rought
carbon
Hiện
dưỡng
máu
sóng
##gr
thiệu
trùng
week
Iran
ground
hạ
hãi
##ms
##fully
##ently
perfect
surv
draw
##ấc
khán
linh
photograph
wonderful
quickly
cũ
rời
sơ
##ipp
thảo
began
##50
desc
chủng
Ai
Man
đe
scale
event
Ad
dõi
uống
điên
##ived
box
includ
Cl
arr
cool
##ivers
Kỳ
Từ
tồi
tảng
chờ
Yes
green
lộ
##vent
##cious
parents
terms
loạn
Nhà
ess
lầm
##itect
impact
special
absolut
Bl
lost
vững
requ
##anger
buồn
##ried
đáp
bang
##gn
enc
Col
civ
mắn
pick
##ley
##eter
##uth
Bra
Liệu
##asc
##cif
sửa
##ales
##aged
góp
vers
##hood
thưởng
tot
anal
knowledge
travel
Afghanistan
De
cities
Char
known
write
consum
experiment
21
lồ
oce
risk
Rất
tường
tránh
198
khổng
repres
bene
Vào
send
insp
morning
miễn
sum
tried
##arch
khoản
images
camera
Thứ
đói
##rael
ong
occ
##mb
##old
##ument
dead
##ards
virus
Mỗi
Our
lạnh
đèn
##cu
chàng
##ilar
##ustain
feed
Israel
##bs
dest
##ised
mái
ủng
##acy
tổn
recogn
approach
World
bảng
born
obs
situ
cơn
trắng
##ively
meaning
average
lẫn
tộc
spread
architect
300
mảnh
##ites
conv
##cially
color
opt
rút
sleep
đỉnh
##eal
##ister
##ops
reality
weeks
English
opportunity
diệu
rele
attention
núi
sitting
tờ
Đúng
Đông
##ted
##ớm
##go
online
intr
feeling
growing
caus
wouldn
##iving
Ngày
Ne
cu
either
tiểu
##fer
##ana
phỏng
sho
whatever
##iction
##ression
đào
##ators
##ateg
##ny
economy
eye
bề
squ
##to
trì
giving
Chin
changes
produc
respons
brought
fast
favor
giọng
comb
##racy
tốn
interested
specif
books
##ggest
Bà
Ken
With
bar
cy
yes
ấn
##iger
stage
suggest
##izing
áo
##ror
trận
##ibility
By
hảo
trồng
quên
giỏi
physical
profess
Cam
##ùa
##ances
press
##ades
consider
developed
ice
rơi
stress
die
blue
modern
Right
fire
ti
quảng
ability
##ump
sudd
animal
tools
sudden
Hồi
cỡ
hi
kim
mãi
##ya
##ico
##opy
##ains
seems
voice
gone
hosp
chạm
Face
har
priv
soft
cầm
dark
hon
pur
sustain
sever
worth
text
##ploy
oxy
khuẩn
smart
univers
South
bật
chó
##iti
##chie
conc
realize
Sc
bền
vốn
##ared
##omen
Chính
super
affect
24
đương
phấn
nghìn
sil
sánh
##lu
##ouch
issue
Im
hôn
kí
tiềm
developing
numbers
lương
##yn
##ware
chấm
wrote
running
structure
pull
##eth
nghỉ
khoá
challenge
Don
Năm
hot
nice
post
Đại
vàng
climate
thank
chiếm
scientists
mời
##lict
hoảng
main
creating
playing
webs
incredible
Facebook
nắm
##eed
khích
poll
understanding
micr
bottom
hiển
vợ
##ught
##ID
starting
tradition
Chinese
bữa
ge
path
ngừng
phối
forward
humans
writing
civil
benef
hor
hào
lửa
save
road
audience
vỡ
điệu
##ein
làng
girls
Ira
vĩ
xương
đừng
enter
thịt
Sch
hổ
millions
tách
aren
##ensive
crit
ghế
##bit
tri
quần
network
lay
solution
##ặm
knows
Bill
dường
nổ
##ique
##he
##ero
chuỗi
relig
Mich
white
convers
neigh
tele
changing
##plic
literally
biên
kịch
chảy
khẩu
alone
blood
197
camp
fem
sn
sót
##ug
##uce
##ove
stra
blog
##pecially
bra
đằng
truth
anyone
slow
center
dri
wall
concept
areas
Trên
email
mov
rul
sớm
gió
##str
##idge
##anda
Where
##iforn
telling
baby
innovation
rate
##son
gives
loạt
thoát
guess
Californ
Mc
dim
games
##iet
force
##ada
development
protein
vill
##ev
chậm
chồng
khứ
khuy
asking
conflict
depend
Par
dĩ
##lo
##ala
##chan
prom
experi
polic
solve
predict
sạch
##ãn
##ẹn
phone
##ased
soon
suff
Trước
type
generation
California
tàn
tắt
vol
##ban
##obody
##ept
##ologies
patient
patients
hundreds
giấc
sounds
Mex
Vấn
##la
##arr
peace
imm
showed
discovered
bè
lặp
##ứt
theory
nghề
##irth
transform
vacc
gợi
suất
avail
normal
er
mũ
##por
##ellig
measure
Hay
touch
##ham
##ựng
emp
trust
quỹ
##entially
##usion
peri
produce
Lond
phê
pictures
curr
Iraq
okay
son
movement
subject
especially
industry
Cách
##asing
compet
incredibly
ocean
London
Dan
ang
bed
lỗ
lối
ur
trưng
plant
similar
materials
fundam
potential
iP
ngại
##umb
Chris
Christ
Com
sông
tán
túi
##ói
nhé
talked
surface
serious
teachers
##yond
trại
lif
sell
Ab
Ha
bur
cars
##port
trữ
defin
relationship
website
Cám
##zil
nguyện
##IDS
dặm
##aur
##illi
Who
##abor
Ste
ball
kiệm
thước
##osing
haven
lea
Brazil
achie
rich
##use
chance
viễn
involved
visual
resources
absolutely
400
Pau
đăng
table
##ival
Nói
evolution
appear
source
Ed
est
hit
##ored
##isions
##ask
##lex
hang
intellig
##ify
function
issues
West
cờ
##ouble
shape
div
né
Đầu
happiness
##assion
groups
journey
Me
danger
sỹ
##stein
cover
period
Việc
bụ
birth
cà
pu
##li
##osph
kháng
among
detail
đuổi
AIDS
bơi
nâng
sat
##pid
##esh
rece
Kho
available
ult
##uct
##ext
beyond
sold
tiny
##akes
flow
schools
general
street
Geor
Sw
ast
vỏ
##oon
##ged
##ìa
nhắn
react
stru
##ilities
neg
necess
technologies
vision
kém
message
democracy
fur
##oor
Inst
ghép
Ba
Su
thăm
##oming
choice
prin
##ưỡi
miles
situation
dimens
3D
fair
##ered
phiên
##itter
sốt
tend
meth
electric
device
rules
cú
rẻ
thở
##let
##augh
safe
designed
recently
breat
wish
##iar
thảm
sea
##ươi
khoảnh
activ
boy
slide
medic
projects
cause
quality
lived
##eles
deg
##une
Brit
revolution
lặng
tàng
##ech
##ãng
##ĩa
nhật
##ara
##ett
##rab
drop
nỗ
tụ
vết
walking
Đất
##ges
##ishing
##ires
thoả
account
minute
digital
bọn
tô
##ox
##head
grad
institut
individuals
First
War
sáu
nhẹ
##oms
hoang
##odies
##antly
likely
becomes
##roll
putting
xoay
Là
Sm
lọc
##oring
Thu
Nhật
map
office
tells
memory
Jap
San
Was
hùng
led
##SA
tròn
shif
cross
bờ
##more
tru
trống
bigger
drive
After
gt
mob
điệp
died
196
##eck
creative
medical
passion
terri
Japan
Hai
mechan
arm
evidence
deliver
Maybe
Mexico
East
lt
nine
sand
##fort
##arily
search
except
action
conscious
reasons
Bản
ưu
##agn
ready
clean
secret
Of
đẳng
##ned
##eel
##itiz
##ster
##ously
teacher
mùi
results
Look
improve
Lúc
North
code
lục
đế
##oo
##ford
ngẫu
##cient
compassion
voi
drug
đam
doạ
print
emerg
blind
cris
positive
Are
bò
tan
tar
##erence
towards
lành
everywhere
unf
##road
attack
crazy
Bộ
lính
##oid
phil
##medi
favorite
lose
##ky
##ngth
violence
cart
đựng
threat
##edom
##lly
taught
prim
starts
basic
particip
software
bird
##DP
thừa
##estern
##aring
thuận
screen
income
##olutions
scientific
bacter
hop
##light
thác
##urt
waste
Theo
##ustr
##ished
biggest
examples
author
Canada
certainly
report
rác
##onse
##oles
thuỷ
Ngay
minds
Act
GDP
cấy
trial
onto
door
##ude
đoàn
further
mis
mount
##imb
moved
##ips
transl
moral
obviously
Cuối
Pl
Pal
citiz
faster
trích
##edia
##rage
##izations
context
flu
##others
computers
progress
particularly
extraord
introd
AD
ec
##wor
thang
chặt
##ores
meant
##ruction
showing
graph
nhuận
neighbor
Je
din
oh
rock
##urity
content
communities
connected
dam
huy
national
Đức
đạp
##nal
##ping
thr
apart
giảng
họp
choose
##ube
electr
##sh
track
##iversity
Kenya
Nào
lược
miếng
##iber
##view
##zz
nhựa
expert
student
indeed
speed
response
lãng
magic
Cậu
af
cãi
rid
##ays
forest
##olf
##ườn
cloud
adm
decisions
150
region
radio
surprising
represent
specific
Even
Tod
link
lắp
tật
Đừng
##men
##col
##ging
khấu
##ims
##ucle
solar
hospital
several
Cuộc
Ob
##ground
##for
thai
chặn
log
drugs
totally
Mà
ce
hung
ko
giám
##ander
brains
Ben
dom
fill
fish
##cis
##0s
chào
worse
ngoái
societ
Arab
En
Most
lễ
mừng
##osh
rain
stick
remark
carry
Hoặc
Fran
fix
kil
yên
đòi
##éo
ngang
##ald
prison
strateg
wait
Ang
diệt
fant
huống
nobody
##lin
##of
##nch
thận
##oken
immedi
##ified
infect
detect
virt
watching
assum
Twitter
collabor
Cũng
mại
mây
mine
pin
thao
cản
wants
##ressed
jobs
grew
hương
mental
##atory
##verty
Chẳng
shown
spir
training
chemical
Per
corn
dị
push
sổ
notice
##place
ended
largest
influ
allowed
CO
Ein
nucle
đống
##how
chép
perspect
return
circ
bodies
cát
san
sợi
vong
đùa
##put
thấu
##icle
Thay
decision
studies
finan
skin
character
position
including
village
method
bank
fasc
vú
##dom
thù
tràn
##ief
anybody
adult
trees
labor
continue
objects
discuss
multi
suddenly
Einstein
Bang
cặp
fine
cứng
##soci
##ologist
temper
movie
Ag
cám
pan
tỏ
ám
##IT
activity
unc
buildings
farm
named
ign
mập
nhằm
##ought
##itary
separ
##agine
employ
##ocks
tuyên
poverty
Americans
eventually
crisis
Fl
mực
wife
Đối
##yr
phiếu
##inct
Nhiều
deb
luck
##itten
clos
traditional
Washing
nan
##oke
##ring
clin
##ellow
finding
effic
truly
Bar
Hy
Rich
et
súng
swe
##ớn
##èm
nhịp
2000
khía
artist
forms
killed
conditions
excited
conversation
Dù
bối
bắn
cong
hiếm
mist
sụp
##aid
##oint
##ners
##ớt
chán
##erve
trào
##oub
doc
org
##istics
saving
plants
##rial
cook
anymore
Isl
supposed
tiêm
ADN
Washington
gas
##vision
shap
##ulate
Any
capt
African
signific
products
engineering
extremely
purp
Paul
George
##aughter
Today
Cong
hà
kêu
mét
solutions
tá
##cape
##ael
accept
effort
robots
politics
Mẹ
hig
móc
##cise
##aking
ngọn
##amm
alive
exciting
provide
service
kept
lừa
wild
##ậc
khung
goal
##rap
##ulf
manag
disapp
##ossible
role
Pháp
##rene
points
##erman
sorts
skills
allows
thousand
college
Bằng
Like
Niger
cases
dối
liền
pack
óc
##joy
triết
weight
hoàng
Which
complic
reading
publish
models
freedom
Your
gỗ
hè
jud
page
##sect
##vert
béo
machines
listening
extraordinary
societies
higher
Big
Về
bal
côn
cục
late
lower
##ua
##iced
##ượu
above
##emic
##pped
series
determ
đua
mathem
doctor
Charles
CO2
Dar
Gra
Mus
Western
mưa
##ớp
##gery
##ze
##pan
thờ
##enced
ann
loved
University
princi
căng
sus
thầy
star
smell
Phải
afford
successful
families
##osphere
strugg
fascin
Liên
bổ
bunch
cat
khảo
Thom
##ids
slight
calcul
Imagine
fundamental
bậc
hối
đập
##come
##aly
Thái
rand
concer
##hips
expensive
mạc
thoải
capital
policy
45
Gu
lũ
lands
nấm
port
ngưỡng
##ained
anywhere
impossible
Phần
distribut
reflect
effective
##cules
neurons
MIT
Wik
cry
lad
mỏ
pound
tur
chốt
board
familiar
Adam
ác
chối
##ica
plastic
enjoy
famous
colleag
critical
rise
rượu
sou
táo
thuyền
##ffic
genetic
syn
huấn
funny
types
straight
##iation
##ủi
actual
somewhere
roll
2008
Phil
demon
earth
larger
respect
swim
continu
doctors
Francis
Aust
City
ran
nhũng
trầm
##aries
##rep
##rection
hack
##amp
usually
##unk
upon
cold
glass
ghét
pieces
hỗn
patterns
recognize
El
Lu
Sẽ
Tom
mir
site
vâng
raise
becoming
##ogen
##ript
talks
greater
teaching
treatment
philos
Dr
Jul
Pak
mì
##lier
seconds
launch
describ
Michael
perspective
bảy
ly
sam
ức
##PS
Those
rights
written
hyd
##attle
magn
security
increasing
citizens
Ex
biện
eth
tiss
##uit
##win
shark
somehow
unique
organization
female
khuyến
random
35
##gen
##ami
fore
willing
genes
standing
networ
molecules
Thuỵ
spirit
demonstr
Pakistan
nút
đắt
cháy
truy
##uments
legs
##ribe
smaller
tỉnh
beauty
corru
complicated
Hôm
cỏ
yeah
##bur
trib
ngón
##igr
store
associ
##ounter
dollar
painting
shared
version
Mark
hắn
hồn
throw
phán
##amic
sect
##ologists
contribut
sym
respond
##ortunately
optim
financial
Somet
hous
inh
xứng
##cies
##af
##yle
##ball
thọ
##iding
pros
##eless
uses
gene
fold
healthy
Thomas
fa
mạo
##rop
##back
##gar
trick
##itation
express
decades
older
organizations
costs
increase
babies
Two
Sao
Te
sal
túc
##bb
thiểu
##lebr
##iring
##iling
Nhìn
##rof
humanity
connection
levels
Frank
achieve
bacteria
App
card
gọn
săn
##oll
##fact
thả
phen
forth
##epend
beings
essentially
mũi
dangerous
GPS
bread
mix
trứng
khát
##orrow
giận
##acity
##thern
party
cụt
xoá
performance
please
##reprene
bông
cỗ
dinh
pen
##aign
##ợt
thạch
chair
##ining
##key
mai
hero
scan
final
speech
practice
current
Hầu
Mặt
PM
##ros
##ey
##za
##eren
##atically
khiếp
##itor
##ulner
##ela
##ffee
alg
desp
throughout
surgery
remind
Robert
remarkable
immediately
dày
rủi
tia
##RI
thiệp
##owd
##verse
hole
comfort
##unt
thuê
creativity
environmental
From
architecture
electricity
mobile
23
Green
Ma
cust
dad
fit
nấu
rắc
xong
đắn
##und
##right
##word
##oty
tax
##ute
##istry
spect
controll
belief
police
biology
speaking
condition
fantastic
Gl
NA
binh
cột
hước
lộn
mộ
mò
nation
Đã
đốc
##iqu
##lant
##na
thánh
##oses
teen
unl
evolved
##ission
production
electron
standard
aware
75
Cent
His
Mart
bột
bãi
kẹ
mal
mát
match
mention
nơ
park
##egr
##ùi
##ener
##itude
giành
diagn
resist
address
following
massive
private
honest
television
nut
tóc
đốt
check
truyện
ngũ
stars
##erson
interview
offic
##ception
entreprene
earlier
Another
propert
clearly
laugh
encou
urban
Haiti
600
Lan
Sim
răng
xưa
đài
##ỗng
chẩn
phó
##sequ
price
##cience
veh
##berg
understood
strange
walked
challenges
waiting
2010
international
services
square
99
dọc
##iệng
stri
thuần
##uced
useful
apply
autom
celebr
German
Los
ax
bạc
huyết
rưỡi
vict
trade
race
sequ
##rian
helped
career
oppos
military
emotional
Nigeria
fra
miền
task
##res
chừng
##ises
##ches
popular
intelligence
Di
Lý
gương
tặng
đĩa
##ýt
whose
##imately
##though
direction
spaces
##udd
coffee
cốt
surround
himself
Indian
histor
cultural
sexual
Harv
purpose
slightly
22
James
bó
eating
hiến
van
xâm
ấm
nhấn
choices
##oper
##acking
therefore
classroom
experiments
focused
ném
medicine
neighborhood
phenomen
Ber
Ban
Talk
fash
gay
lines
vườn
Đôi
nhỉ
ngài
driving
central
iPh
Sam
dance
daughter
ir
male
weren
xạ
##aff
##oh
##wood
trộn
##edd
##arm
##arian
##rees
##reet
wealth
dog
##cond
khóc
decide
creates
values
motiv
destro
Richard
Aud
National
Tổ
base
hus
lẻ
vulner
##ratic
quê
states
forget
worry
invent
##board
physics
etc
cẩn
dai
fat
range
wood
##iest
##my
##cope
##rim
insect
select
shot
tuỳ
adapt
highly
complexity
meeting
vaccine
nuclear
Harvard
Mars
catch
dính
hall
nho
##iếc
lights
physic
sharing
inspired
summer
networks
Cơ
La
miệng
rào
đớn
shop
decade
invented
drink
instance
##isms
photo
bắc
tạm
ver
##rast
thẩm
chai
##ancy
inj
ste
##ceed
##iles
##ago
tuệ
answers
##eases
spending
campaign
temperature
fashion
Gh
ahead
gather
hẹn
miêu
##ystem
##kn
town
đón
enorm
differences
transport
tree
streets
profound
survive
sustainable
##load
cốc
copy
gà
lỏng
mẩu
##ees
ngầm
phổi
boys
Giáo
capacity
laws
occur
target
birds
Ah
Dere
Great
Middle
bord
dying
tò
đáy
##ef
nhạy
##olve
worst
active
194
greatest
explore
sky
custom
Bu
Mr
Take
cand
gent
hiệp
sad
đậu
##ngu
##atives
beat
symb
brings
instr
artists
vuông
password
shares
identity
various
pleas
Many
analy
gradu
Times
bạch
fing
hạng
lão
ơi
trem
wheel
Chắc
##raid
frame
click
diseases
prevent
floor
thoảng
2007
TEDx
breast
causes
husb
Alex
Cả
Her
Mĩ
Min
cường
narr
paid
tây
wis
##ios
##gy
trôi
##eness
##orith
Thời
##ams
liber
##ables
prepar
##ended
Giống
flying
terrible
afraid
Austral
Cực
Have
ing
kiên
mut
rô
##iers
quái
Think
Chuyện
##thetic
##odes
noticed
##azz
communicate
disappear
published
iPhone
Nor
dàn
doub
lapt
rồ
zero
thợ
weap
consequ
hoại
knowing
##athy
commer
dram
scientist
rule
directly
Smith
Obama
algorith
hằng
loss
nét
vast
đố
##iot
trắc
##orry
quán
Thậm
independ
##rench
related
traffic
strength
Instead
mathemat
Gab
Lad
Sah
gala
hứa
nướng
tóm
chấn
trạm
reve
##used
integr
leo
twice
industrial
missing
experiences
Darwin
NASA
lây
đảng
##uction
##fl
trouble
ngã
quét
giường
giày
##lyn
bốt
relative
supply
journal
leadership
##cule
brand
Paris
Steve
Wikip
corruption
Fin
Mal
ngựa
appl
applic
##reg
##vey
atm
Web
##aining
compon
##rif
##itted
##elling
mostly
possibly
stopped
members
##heim
institutions
closer
Kinh
Russ
aid
rough
xí
chăng
##ato
khô
##ened
##ino
gift
divers
##aging
displ
Hey
below
basis
##idden
devices
emotion
join
đeo
produced
foreign
gentle
Ok
broad
den
jump
kèm
lưng
pig
ron
tens
##iety
##rom
##ẻo
##empt
tuyết
conference
autism
colleagues
Martin
##rastruct
Wikipedia
Cùng
II
King
Lần
dyn
mẻ
vắc
##wise
##ẫm
##anced
##amin
forces
note
##izes
##ording
moments
fuel
photos
reduce
mãn
opportunities
molecule
philosoph
tissue
Kết
bound
tĩnh
Đến
##ole
tiếc
novel
played
correct
airpl
switch
micro
avoid
communication
đếm
Francisco
Did
Jer
Res
Sun
Would
mèo
##vant
##bu
##ening
##icking
Nhân
amb
hearing
crowd
feels
helping
bringing
Amaz
Second
bụng
Derek
CE
Jon
Nob
burn
dán
gun
lung
ninh
wide
##ufact
trăng
tor
##rel
fort
##irt
pengu
agree
Khán
##othes
infrastruct
passed
programs
mission
original
oxygen
Park
dò
hô
hỏng
joy
tám
##ụt
##ẫy
seed
##bert
poet
block
##ricult
attract
hyp
accur
gói
##ervation
nearly
British
consciousness
Again
Musl
opposite
Bất
Des
Na
dã
faces
lăn
##PA
##icon
ham
stem
##cell
forg
##aced
ord
held
YouT
manufact
studying
2009
visit
addition
##attan
structures
religion
degrees
significant
Nobel
Jack
Pat
bought
##toc
##20
khuyên
tom
quà
muse
Stan
insight
Art
relationships
emotions
majority
puzz
shift
husband
YouTube
##tocin
36
French
batter
gỡ
hư
mouth
tiệc
vinh
ép
##mp
##och
##gal
therap
trần
giấu
recon
##ocking
importantly
Bab
Lat
Mont
cop
cru
hom
lôi
mờ
thói
toile
##ota
##itz
forever
##add
anyway
demand
engage
Nghệ
failure
necessary
lucky
Manh
Ros
cự
dứt
lề
lệnh
tung
##edic
##ason
hair
##urch
Trans
Street
broken
cụm
Hoá
valu
fully
advant
total
benefits
Actually
tremend
Hội
Tal
cogn
gã
lâm
mos
rare
tị
vote
##mm
##me
##off
##ka
##zen
##ùm
chìm
trốn
ngon
phiền
##inc
##icles
##ils
##artment
heo
although
##riage
differently
prefer
parad
easily
entirely
kênh
require
benefit
Audience
wisdom
Mon
Tor
bão
core
dư
lặn
tour
vot
##ests
background
grown
Nga
imagination
lesson
lãm
accom
restaur
magaz
Carol
argument
Angeles
museum
Manhattan
Ac
Bo
Cứ
Over
gõ
lack
va
đực
##ij
##mber
##van
##ked
##hy
##30
##osystem
khao
##esome
ngọt
##aria
giơ
ancient
heat
##iable
buôn
brilli
studio
invis
colors
events
metap
edge
leading
cheap
corner
turning
enormous
symbol
atmosphere
Good
Mor
Mặc
Rập
US
pet
##com
##ront
chick
thuế
bud
cla
cooper
##roke
flight
However
matters
##ography
equal
deeply
window
grandm
statistics
responsible
pressure
mountain
efficient
##heimer
27
Dĩ
Gia
ble
cất
dao
lunch
mệnh
pair
round
sick
Úc
Điển
##mar
##zheimer
thăng
quí
##edy
gián
rapid
Vài
khoan
workers
##itely
crime
2005
##ysis
Alzheimer
newsp
describe
ecosystem
unlike
Amazon
Peter
bul
bone
hố
mamm
sàn
##iff
##ray
##ợn
trưa
##inate
reward
recover
##ướt
Trường
agricult
European
shoot
oxytocin
School
suffering
cúm
landscape
diversity
Eric
Pro
Rw
fab
hàm
mort
##ius
thổi
##encies
##emen
##ulous
##ulations
##pper
spot
expand
contact
governments
distance
##pected
definition
received
Palest
fascinating
infrastructure
More
Tur
bận
bếp
dáng
golf
none
sữa
tân
xinh
##here
trend
##arter
##reci
##itable
wear
##ula
exer
sport
##phone
letter
politic
dreams
Bas
Hig
Haw
Les
See
bag
bùng
lõi
tun
tươi
##tle
##wide
##vest
bees
raised
ship
users
justice
##oston
gotten
##rupt
offer
##aker
researchers
250
effects
Once
interaction
illness
fighting
extreme
responsibility
negative
breath
Japanese
hydr
sector
Sometimes
Gần
Hans
dược
epid
mid
nor
chann
##oran
làn
##icago
repe
##ượn
prior
proud
Chicago
heav
altern
Học
shouldn
regular
Joe
marketing
legal
embra
shoes
bụi
strategy
document
destroy
Australia
26
Bao
Boston
Mu
Tiếp
cấm
dan
ep
host
nảy
rét
sung
tast
tough
##iel
##ropy
khỉ
ngắm
quát
##irl
shel
compared
childhood
remote
creatures
seemed
Everybody
adults
balance
despite
95
MRI
egg
hải
hate
pian
tal
tắm
##uge
##ộm
thẻ
##otic
phì
habit
##ida
##thes
##unte
intu
##obal
tuý
climb
attempt
parent
Asia
sưu
cycle
logic
Mic
liều
lường
mill
sac
tủ
##equ
quant
##urd
shock
##ellect
plat
veget
managed
meters
voices
collective
terror
typical
bomb
perfectly
Charl
volunte
Swed
dinner
laptop
Bal
MT
Sil
Tony
Wow
Willi
cưới
double
lướt
master
ray
tum
ưa
##yc
##rict
##val
##onom
##cel
##ears
defe
muỗi
##ucks
##athan
bridge
thịnh
Thanks
biological
##ographic
paint
married
illustr
element
frequ
internet
versus
Khoảng
farmers
faith
Bức
Bài
Fe
Gates
Sing
lông
rãi
sơn
wire
##ih
##cript
tháp
khôn
giant
replace
Thiên
stuck
thinks
intellect
##eph
brother
simpl
transm
chúa
equip
circu
drawing
convin
Apple
tremendous
cognitive
Jan
Jim
Lin
Van
nở
yellow
thùng
nhẫn
trượt
##anth
concent
gold
aspect
saf
Trời
calls
previous
creation
possibility
subst
easier
discovery
holding
failed
insects
##gypt
commercial
invisible
Rwanda
Cộng
thính
thám
thỉnh
nhắm
trục
ngập
ngốc
quote
##uries
##emy
##ille
diet
##apers
thua
genome
cred
install
artific
names
corpor
figured
motor
limited
essential
kín
dimensional
experts
advantage
800
Fre
Ox
billions
cort
hidden
nốt
odd
rout
ten
tướng
##ơm
châm
pha
phú
giam
##aser
weird
nàng
stim
notion
##eline
desire
helps
leads
languages
watched
England
investment
antib
fairly
Gabby
equipment
categ
due
dám
fol
rat
xóm
##rit
##water
##ha
quãng
appr
shut
##antic
fresh
hell
everyday
unex
partners
Star
precise
studied
Does
##ification
feedback
necessarily
concentr
Bố
Del
Egypt
Hum
Viện
cừ
dắt
homes
river
tick
##gin
##erly
khớp
incent
phạt
tail
##ulpt
##atell
##pping
empt
interp
sculpt
facts
opin
designer
appreci
planning
keeping
succeed
harm
kilomet
influence
daily
65
Hen
Hơn
Pol
Rep
Very
cậy
gar
mouse
mothers
nắng
thiệt
phái
##igu
##apse
clock
moves
planets
leader
auth
businesses
neuros
investig
cuộn
leaving
circum
houses
platform
700
Could
Mad
Mand
bong
gard
iron
tit
tông
##oom
##oft
##pes
tháo
toả
##inated
wearing
rau
##ads
asse
Ngo
20th
commit
opening
opened
accident
capable
depression
surprise
argue
degree
struggle
Gand
Wall
gấu
hầm
lat
mạn
sister
satell
##cular
##ta
##tain
nhãn
trà
##aling
##entally
##essed
meat
expression
moon
surge
invited
highest
finished
Brown
awesome
followed
radical
university
damage
electrical
increasingly
metaphor
Higgs
Dis
Gal
Tes
band
cưỡng
dãy
king
losing
nọ
pock
vở
Ôi
đuôi
##ye
##rum
khơi
inch
Thông
liked
##ogram
tuyển
##connect
grav
begins
conduct
trained
resource
survival
universal
Bon
Bình
Hệ
Mah
Tương
Will
bê
ton
##rie
chước
Thành
##thal
sugar
clip
2004
prototy
markets
constantly
surprised
experienced
separate
comfortable
mosqu
magazine
piano
Này
Tin
Yet
bon
bớt
cac
counter
gap
lò
lát
rung
rural
sorry
đâm
##vention
thô
chìa
nhở
Chủ
##ession
điêu
##acters
thuẫn
worldwide
noise
disord
##ints
##ibilities
2006
##inson
characters
origami
competition
Congo
associated
Dương
Es
Rio
Tự
ath
battle
grain
thưa
chở
##owing
Thử
##idents
ranh
##amb
##uls
##ushing
muộn
hệt
grade
195
believed
##issions
heads
killing
suggests
professional
ultimately
dimensions
susp
concerned
described
phenomenon
weapons
airplane
Latin
28
32
Bur
Each
Ham
Rom
Tas
Tiếng
dry
diction
horm
lùi
mệt
purs
chục
##lymp
##enty
##celer
Cha
tech
perception
##ildren
advert
letters
1000
strang
charge
##onym
elements
driven
organs
shapes
pounds
brilliant
Bro
Dem
Số
hòn
lạm
mỹ
##iat
##bble
##rete
Chiến
hoả
mak
maint
compare
agre
perce
fellow
adop
Ngài
root
##aked
##ublic
flo
2003
belong
##cked
harder
courage
stream
normally
identify
soldiers
astron
filled
virtual
CA
Hà
Mục
Olymp
Rem
Ser
bút
date
holes
nợ
đồi
ồn
##hold
##zing
thôn
chip
##osm
ngực
que
phẳng
##inist
##ette
Nha
aging
grid
puts
factory
Howard
Hoả
vua
finish
economics
marriage
engineers
cutting
digit
facing
pollut
empower
multiple
artificial
Cập
Ice
Ke
Yemen
bọ
cởi
gánh
múa
sứ
đới
##ươn
##ít
theater
trấn
khúc
##alu
##ita
##iration
##olves
exhi
user
arms
implic
partner
acceler
1950
indic
transformation
generations
skill
##bridge
construction
operating
analysis
slowly
leaves
Flor
CEO
valuable
safety
Henry
Bảo
Day
Koran
Tu
Women
dots
kịp
mấu
rom
sight
##vis
##nding
##urb
##ulated
##ager
sốc
hasn
manage
fell
coast
acad
desert
according
election
Quan
setting
curious
paying
review
caused
religious
lifet
details
cartoon
distribution
ordinary
toilet
Micros
unexpected
mỏi
rễ
vải
##cop
##cra
##ộp
##atures
tow
inform
##itness
whom
weather
station
##izza
crim
videos
organic
2011
considered
currently
Khoa
passionate
tomorrow
Bush
Lib
hãng
pil
##cks
##cles
##ax
##rat
##gment
khôi
quad
##itals
##owers
nghiện
stup
##opri
Chiếc
exch
##elly
scene
duyệt
extract
attach
explor
120
wondering
testing
chemistry
sentence
employees
clinical
sympt
official
property
appropri
Tasman
33
Dự
Hàng
Kar
Ug
cow
cối
era
hưu
manh
ráp
##car
##aj
##pher
thâm
##osis
##oster
reform
nghịch
While
bubble
closed
ngoan
smile
transpar
musical
equival
collection
lawy
steps
caught
##ipping
seriously
terrif
unfortunately
##iques
consequences
Brian
Det
Ford
Hình
Long
Ple
Tốt
gan
god
hồng
hurt
lưỡng
##ratch
nhặt
khẳng
khiếm
##asion
##icious
repl
Thổ
##opher
asks
shad
##oca
otherwise
##rove
interface
scar
bright
##iban
##neath
feelings
article
cultures
refuge
awful
engineer
Loại
##itute
civilization
horse
walls
entrepreneurs
pleasure
empty
mosquit
stupid
Life
Mac
Sub
Tan
cosm
ju
lật
mâu
pages
vây
tha
nhiếp
phones
##irm
Their
frustr
##cipl
hadn
địch
unp
unless
humor
colon
plane
treated
organized
##alley
Toàn
Everything
limit
origin
photographs
cuồng
specifically
Cambridge
malaria
penguins
Stanford
Bệnh
Hu
fed
hip
hẹp
jazz
laser
pal
sắt
tall
ves
##lands
##uel
##ris
chain
##eral
reci
Thượng
##urally
dol
liqu
soil
peak
alt
whenever
ide
vibr
phím
khói
fourth
regret
Arist
signal
construct
Nghe
grandf
consumption
microb
negot
sweet
sharks
vehicle
Ghana
convinced
Oxford
cacbon
Microsoft
Bob
Come
Hiệp
Jose
LED
Rõ
Tim
Vi
fal
migr
rập
rắn
vươn
##hol
##zan
chart
##arah
bear
Three
##ume
##ension
pregn
fewer
solid
president
Quá
expected
democratic
molecular
analog
sending
released
professor
concl
affected
driver
empathy
covered
reaction
##yrus
controlled
narrative
ingred
grandmother
Bank
Jes
Tình
fan
fle
hun
mảng
nerv
teles
đáo
đàm
##iors
##cil
##én
khuyết
##areness
rein
dogs
##ướp
##ested
myst
myth
spoke
##ensity
underneath
importance
warm
profit
deeper
practical
##ipped
arrived
21st
pollen
printing
algorithms
display
battery
politicians
Uganda
equivalent
Aristot
Ap
FG
High
Lee
Mat
SW
Tên
eld
gam
gối
ride
rửa
đẻ
##lle
##uary
##oons
quiet
##asse
tang
##urance
stood
abst
##illing
##agh
##ateful
spl
khoái
saved
sup
đoan
contain
scen
techniques
thoughts
solving
hopefully
define
refer
location
Atlant
circle
sources
producing
honor
micros
gender
intelligent
infected
launched
cừu
vessel
Josh
Os
Ro
Red
Sl
cạn
cere
ga
pizza
rational
soph
tần
##care
##oved
##bel
##ga
##gent
##ằn
##atar
qual
weak
lift
##terday
manip
uns
contract
blocks
grass
Steph
brief
chín
players
bits
singing
warming
awareness
1990
psychology
absolute
promise
Abra
birthday
debate
soul
independent
relatively
gentlemen
Taliban
heavy
circumst
lifetime
liquid
Bắt
Kore
cướp
dải
dạo
dâm
dẻo
fiction
gain
mồi
nations
sạn
##mas
##nam
##ycle
tox
inner
phr
##itarian
##ini
##lement
##sey
chocol
staff
forced
libr
màng
worried
dial
##abol
emissions
calling
acqu
invention
appar
mush
entropy
processes
organisms
picked
hospitals
1960
Center
budget
Please
nervous
Bên
Ju
Máy
Nan
Port
lận
nô
nurs
pure
rhy
vẹn
đạn
##yan
##set
##kins
##zed
##Talk
##òm
trân
##itan
Thiết
anx
##acle
prove
uncle
dish
Ngân
goods
193
2001
TEDTalk
transition
arts
foundation
metal
treo
lệch
confidence
Gold
connections
repair
buying
motion
argu
status
requires
emerging
lady
hacker
victims
channel
false
85
Dân
Gr
Mill
Tiến
Us
Wal
bow
bath
bơm
cắm
dot
hem
lect
lợn
sides
ut
đạc
##cut
tracking
toward
qui
##icip
##etics
##aus
shame
notes
##umber
poem
technical
evil
designers
effectively
Amy
stronger
##grad
Islam
management
principle
spectrum
encoura
vulnerable
dynamic
epidemic
intellectual
folks
Florida
##craft
dolph
Bol
Coca
Found
Nord
Tex
Vir
cắp
lờ
lic
south
vĩnh
##met
##wich
##vi
##ụng
trip
##inations
island
lie
##irty
đền
plus
quyên
##ardo
ideal
roof
flat
Holly
minim
serve
engaged
topic
signals
defined
Pres
Lego
risks
convention
release
relevant
Neander
selling
satis
Jeff
mistakes
Germany
newspaper
mortality
exercise
grandfather
Abraham
Gree
Hàn
Kn
Law
Part
bắp
bọc
ille
jail
kiệt
nose
north
ren
rig
uy
und
##mon
##jo
##well
##AR
nhàng
##osition
##ingly
##eda
##sters
khiêu
##anted
##ulin
##agen
height
buýt
unus
tuân
disp
State
##athers
lessons
memories
Scott
khuynh
Daniel
trials
Congress
kẹt
kẹo
restaurant
claim
Aristotle
Texas
29
Hi
Kể
Lar
Last
Nơi
Ray
Since
bia
dọn
huyền
lấp
mòn
rates
xám
Âm
##cl
##cap
chúc
nhầm
whe
isol
##vember
lies
##thur
sem
exists
##agers
coal
Stud
remain
patent
medium
possibilities
##gged
advent
bottle
eleph
existing
silence
definitely
estab
doubt
Sahara
roughly
forgot
Charlie
kilometers
Brook
sophistic
Bi
Sat
nề
ox
đỗ
đai
##tar
thắc
init
giãn
former
seat
##estic
##acles
actions
tựa
twe
Stew
##ressive
flash
Phụ
personally
transpl
carefully
added
protection
falling
proteins
profession
layer
error
introduced
principles
dramatic
poetry
chicken
alternative
William
credit
interpret
chocolate
Eve
Four
cave
hã
lũng
mồ
mười
nar
nav
pip
sen
ske
vé
vay
vent
wave
##uk
##den
##bes
##ễu
##erves
trú
Chà
sees
##ulating
compar
length
poly
Rev
explains
amounts
reprod
occup
meaningful
depends
lifest
inher
encourage
candid
fortun
hydrogen
cortex
Bay
Cyrus
DV
Gulf
Jew
Kev
Mình
Tra
Ven
cương
cents
dở
lơ
mọc
mỏng
nit
vỗ
wars
##gets
thổ
thằng
thép
chăn
##encing
inev
##omb
##lying
item
##cend
##opard
##ola
##oking
plans
ens
##izon
agg
##eak
scared
factor
flower
designing
interests
generate
particles
sites
anti
dealing
subjects
mentioned
reveal
components
cựu
Sweden
circumstances
mushroom
31
Bos
Count
Lạp
Mike
Nước
Op
Som
bill
dat
dốc
nát
nêu
pour
vượng
wine
Đa
Đị
đợt
##cest
chose
khéo
ngừa
inequ
replic
##entic
shall
fright
##abil
compl
grateful
boat
191
2050
ends
player
bike
environments
advice
Tuyệt
innovative
typically
variety
fields
internal
Black
entertain
##porary
Britain
participate
introduce
##iberia
carrying
ignor
sequence
Tổng
mathematics
accurate
Muslim
rapidly
opinion
gravity
Democ
55
Den
Hải
Rock
bá
dũng
hôi
lượt
rit
sôi
vang
##ien
##BM
##aters
##ari
##rey
##asters
##ican
goals
##ums
worlds
unit
disaster
discipl
##ternal
percentage
polio
economies
##whel
label
constant
Nghiên
senses
sensitive
privile
fundamentally
estim
aston
capture
announ
earthqu
sample
border
graduate
framework
Mandela
unusual
37
CD
Kim
Kir
Syr
Science
bù
mỉ
member
pun
rẽ
ring
row
tons
witness
xôi
Điểm
Đồng
##iency
##DA
chợ
##eras
##ena
pho
##icing
##etically
##uther
reverse
Andrew
ancest
##agement
##umn
intense
##rovers
overwhel
thoái
##aze
consist
explan
runs
regard
confront
animation
##rane
clever
autonom
Bron
wondered
##lessly
funding
messages
##itchen
operate
Scot
movies
primary
authority
mountains
ridic
forests
nano
concern
swimming
##known
instrument
galaxy
applied
sports
abstract
Norden
Da
ED
Lou
Sinh
Ty
Wats
bỗng
dense
gall
hide
hạch
mat
mur
nản
option
rot
##tit
##wa
##EC
##ũi
##ờng
##ati
phác
##ctic
##ament
##imp
mày
hoài
atoms
##uses
spin
suit
##abled
##roit
##ucing
insulin
string
economists
regions
Indones
refr
teams
films
elev
joined
combine
concrete
critic
Comm
nén
hoping
##force
passwords
philosophy
manufacturing
accompl
tumor
assemb
exchange
Detroit
Hollywood
navig
Watson
Eas
Gore
Girl
Mil
Ram
bách
dội
fake
mere
voc
xăng
##mers
##ville
##bles
##point
##MA
thick
thầm
chả
trau
trật
##oug
##iture
##ston
##idi
steel
pray
section
mail
##inder
teeth
however
factors
##print
recyc
centuries
##gging
Quý
Arthur
contrast
Only
increased
##elson
collapse
sunlight
winter
traveling
oceans
destruction
obser
barri
yesterday
vaccines
sandwich
domin
collaboration
chemicals
discussion
Islamic
mirror
Rosling
Singap
Stephen
rhyth
ritual
Syria
Bác
Cop
Dep
Eth
Hel
Jac
Mel
Power
Tem
Time
Wolf
bin
bấy
fif
gác
loud
tiễn
võ
wake
đẽ
##aven
##qually
##ẳm
rebu
nghiệt
##igm
loop
neut
acting
##ansas
Inter
Health
##ending
chua
Phương
computing
movements
solved
poster
productive
Carl
trừu
behavioral
violent
facial
operation
Cola
combination
conversations
dinos
cooking
Grand
portra
resistance
transportation
prepared
Russia
xíu
fabric
antibiot
Iceland
Foundation
Indonesia
Singapore
Air
Give
Gener
Jenn
Other
Sk
Zeal
bìa
flex
hụt
lắc
muối
mile
nụ
đà
##bre
##bors
##pear
##TC
##eding
bee
##agram
##abilities
##rible
resil
##ifying
adj
bold
##pha
owners
Shakes
processing
##ographer
devil
cổng
challenging
assign
milk
Love
behaviors
fears
include
consumer
cyber
severe
1970
clouds
##burg
##burgh
verb
applications
Design
Project
sacrif
President
Bronx
Shakespear
Bre
Bel
Lang
Nelson
Pac
Sal
Sant
Sand
cock
ought
tank
xích
##cast
##rition
thẳm
##err
##ora
##orter
##alia
input
tap
reven
Thánh
stere
##imeter
##olving
comment
##illed
frank
proced
##andon
##ogue
##ictor
desk
19th
offers
writer
storyt
instinct
##pring
centers
Also
generally
busy
bombs
ruồi
encounter
represents
convince
snow
##arrass
Institute
mechanism
Perhaps
shaped
entrepreneur
agriculture
eggs
##ihad
sophisticated
lifestyle
DVD
Boy
Cor
Nobody
Sir
Vị
bare
cure
hóc
lúa
mộng
súc
ốc
##mad
##lation
ther
trộm
giặt
##chair
##ctions
##amine
stands
steal
##opia
wash
anonym
Chile
##adic
soạn
##iled
orch
##umped
maps
Trẻ
##reenh
obst
vụn
metabol
parking
cameras
##box
department
radiation
literature
stayed
inspiration
situations
harvest
sustainability
transformed
burning
mistake
samples
axis
hypothes
therapy
Carolina
circuit
Gandhi
appropriate
illegal
Stewart
earthquake
Zealand
Shakespeare
Jay
Lew
Pole
Victor
bes
bướ
gũi
greenh
hits
mad
mươi
pitch
rũ
unh
ván
xưởng
xướng
Đi
ốm
##mark
##lines
##gie
##BC
chợt
##eron
##oto
##cher
reject
Chào
frog
tea
##ortion
somewh
##obi
thanks
##ifer
prem
flag
2002
technique
plays
formed
Island
Yorker
signs
devast
walks
tím
Prize
collecting
potentially
identical
Coll
embarrass
boxes
options
pulled
neighbors
McC
immune
hunger
laboratory
determine
ladies
spiritual
borders
dancing
satellite
negoti
Joseph
Virgin
##titles
somewhat
48
Du
Ky
Lấy
Mag
Muse
Ron
Roy
Tưởng
Vo
broke
dict
dedic
equally
hét
km
lam
mer
mượn
sets
wise
ếch
##ae
##wl
##pet
##ủa
##BI
thin
chẽ
tráng
##esity
ngẫm
phase
whist
wel
reh
stock
season
shell
mel
độn
exec
khoáng
suic
##abet
unknown
controvers
download
survey
instruct
Hoà
globe
physically
allowing
tests
memor
advanced
collected
Everyone
closely
interactive
existence
joke
Blue
horrible
Christmas
ultimate
flowers
properties
vehicles
##know
wheelchair
puzzle
Lester
embrace
January
garden
tonight
astronom
romantic
establish
Museum
Hom
Id
Ol
bic
bẩn
cược
cống
dỗ
furn
lân
mim
males
tê
đệ
##ca
##roph
##via
##xies
trig
trán
quặc
##arant
tape
beach
##stream
nhường
conver
anth
Chị
asp
##oked
outc
nhào
acts
quyến
implement
overall
diss
acknow
desper
##chnology
keeps
distinct
painful
Nghĩa
illusion
arguments
viruses
spreading
mainly
activities
admit
Laden
pocket
implications
symptoms
superm
Joshua
transplant
Revolution
46
Cr
IBM
Ku
Met
Mary
NG
River
Sept
bám
bấm
foss
fert
gest
hò
kitchen
lánh
lying
ment
mến
nồng
pushing
upper
wings
Điện
##nic
##eon
##NC
nhạt
##asks
##lete
##ched
style
gìn
##iev
perman
##ounds
##ologically
pool
underwater
adoles
1900
command
Giá
Giọng
obesity
polar
Newton
handle
elim
healthcare
Qua
stret
continent
advance
waves
Leon
Before
explained
measuring
roads
conflicts
divide
attacks
uncom
Montana
lều
Transcript
##riend
Subtitles
pregnant
conclusion
Kevin
entertainment
September
Bh
Cur
Gen
Get
Hell
Jord
Jane
Kenn
Miss
Sec
Ted
Tam
Wil
ben
cup
hiếp
pill
rush
rỗng
sô
sáo
sét
sắm
vit
xỉ
ôm
##mit
##over
##nel
##nia
##ras
##rid
##ja
##ênh
##aron
##isters
beet
##keep
Che
##tery
fro
##usive
spoken
##ivi
clust
implant
contem
##plom
brothers
transfer
designs
Ann
regener
classes
mãnh
largely
providing
ruột
records
reaching
reached
required
obsessed
Next
suffer
About
dropped
heroes
surrounded
galaxies
intuitive
incentives
authentic
prototype
advertising
pollution
astonishing
Bern
Cần
Mur
Pop
boring
cài
ears
lùng
mổ
ub
Đấy
##ux
##cers
##xim
##hr
thấm
chôn
nhện
truck
##ano
inject
phun
##stand
storm
liver
##agos
##rous
intention
##abin
luỹ
sheep
Nguyên
##ords
insurance
opera
finance
generated
presence
younger
tested
Loài
songs
collaps
limits
faced
recorded
causing
angry
breathe
mechanical
assume
uncertain
Anyway
judge
##iosity
mathematical
Palestine
Basically
Silicon
exhib
mystery
phrase
conventional
frankly
greenhouse
38
Med
Qa
Walk
cous
der
dress
kick
lồng
papers
rub
rating
tent
vạch
##rors
##hh
##MS
##OL
thung
##orus
giọt
likes
Cháu
##ila
##illa
##umps
##000
button
outcome
theme
##obs
agencies
blank
xuân
192
lets
remove
olds
bias
grab
careful
naturally
visible
Quỹ
educational
signed
marath
retire
deaths
protected
religions
volume
struck
apartment
aftern
methods
efficiency
continued
tribe
housing
diagnosed
fingers
latest
athlet
strangers
academic
Jesus
nurses
antibiotics
Qaeda
Five
Had
List
Lak
Mom
Net
Rad
Tay
Valley
Wright
Zimb
cọ
cast
lỡ
ped
passe
rã
vờ
xăm
##eo
##fish
##field
##BA
##ín
thượng
chọc
##erry
triệt
##ingu
pharm
whales
##ione
##ching
raw
##ima
logo
shake
Nhĩ
diox
##acing
knee
alb
plate
wherever
club
clothes
##eps
gray
offered
surf
evalu
News
Union
engagement
hearts
classic
Peace
1999
interactions
sensors
windows
performing
##ylon
Clint
1980
angle
huynh
fascinated
frag
customers
Research
tort
taste
Delhi
Republic
Ngoài
maintain
Tanzan
hãm
murder
Eastern
rhythm
rebuild
outcomes
passeng
44
Av
BJ
Budd
Cle
Cons
Cont
Fellow
Han
Hill
Jill
Rand
Sn
Sĩ
Sus
Sarah
Tư
bóc
cards
hur
lăng
léo
mi
móng
na
tivi
vert
vòi
##cal
##oot
##ooth
chằm
initi
phosph
dop
dozen
##ault
##opath
prost
diplom
heaven
##usions
spring
White
##hile
agend
Int
whereas
interconnect
acid
##icted
scratch
Giải
drives
conserv
Antar
functions
coral
breaking
figures
cheaper
absor
neuron
2012
embedd
traveled
hotel
concepts
evolutionary
contribute
prosper
teenagers
historical
vulnerability
selection
Alexander
Finally
component
Disney
dictionary
criminal
shadow
narrow
datab
refriger
Lewis
furniture
NGO
Bell
Cá
GG
House
Mer
Matt
Si
Sol
Sức
Six
Sier
Tre
Viet
WK
gor
gut
đc
ẩm
##mates
##matic
##war
##house
##pare
chrom
church
tro
quạ
##aran
##isher
##utan
##iday
raising
load
##okes
deploy
proof
tựu
leap
##veness
worker
happier
vịnh
surve
technological
relate
explos
behave
infin
guarant
reference
equation
France
funded
poorest
existed
receive
translate
Arabic
distributed
Simon
application
volunteers
precisely
Human
commitment
ingredients
library
Brooklyn
ignorance
Scotland
Wolfram
frozen
afternoon
Vietnam
Bible
CP
Hung
Nick
Nathan
Rog
Rome
Ten
Tác
Turn
cod
mỳ
vứt
yield
zoom
ái
Đo
Đảng
##oing
##nik
##ration
##gers
##ơng
chớp
##atr
trillion
toler
quarter
##itors
##asm
##tered
abandon
khiêm
##ague
##oky
##inda
##aint
plenty
lui
nowhere
tuỷ
tube
evening
##phere
bran
flood
crash
chuông
invite
column
imaging
kìa
Unf
robotic
populations
district
disturb
curve
depth
airport
assist
##aneously
speaker
practices
statement
Columb
feeding
combined
touched
achieved
##etti
army
Play
hungry
fixed
captured
tribes
Central
##resp
occurred
dramatically
journalist
seeds
Hawai
appreciate
Bonn
split
license
inequality
fifth
embedded
chromos
Bước
Bert
Far
Fort
JH
Jones
Pet
aim
bốc
dang
lưỡi
nếp
xà
Đường
##time
##aurs
##zler
ngẩn
##inction
##omm
##lem
whale
Thường
Thưa
đóm
##stone
ate
exh
enemy
wanting
luồng
##ription
needle
herself
smoke
remains
##openh
extent
extinct
attribut
paras
subs
elections
rooms
surely
nhiễu
successfully
innoc
increases
Johnny
Really
##anny
Moore
director
accessible
photography
1984
Julian
optimistic
Parkinson
destroyed
pilot
võng
Virginia
execut
fossil
dopamine
Unfortunately
86
Aut
Dian
Ev
Men
Mir
Squ
Tah
Uy
Văn
bồi
dịp
gạch
kiêng
tight
ug
ven
##lobal
##ule
##cence
##case
##di
##HA
##Global
thắt
chap
champ
##onna
ngưng
##inating
tack
##stage
stations
Chưa
hoành
abund
##illy
melt
##usal
ages
bull
đoạt
flies
removed
oldest
conservation
imagined
engaging
standards
charity
advoc
Leban
craft
Beij
household
meetings
expectations
anticip
occasion
villages
eradic
iPod
appears
Luật
aspects
surgeon
Teszler
disorder
makers
Tasmanian
tweet
Ethi
72
Aug
Copenh
Jud
Sur
Syl
Xem
ah
bể
gậy
icon
jihad
sọ
Đơn
đúc
đuối
ấu
##yard
##rol
##bits
nhóc
tries
ngớ
##iny
##oman
##utch
weigh
Thì
Thêm
peer
spinal
khoăn
##izab
tuỵ
2030
score
decline
##onscious
TEDGlobal
evolve
instant
Alpha
##airs
đôla
Argent
proto
provided
footprint
consume
inspiring
silent
Christian
divided
delivered
reported
banks
savings
Elizab
describes
celebrate
instruments
finger
Giai
unlikely
Palestin
exploration
mosquito
toxic
bicycle
Tanzania
Copenhagen
Elizabeth
Ell
Econom
Free
Line
Mod
Mother
Nature
Qatar
Up
Wa
boss
coc
hat
hận
hít
kiss
len
mỡ
pace
rỉ
xé
zone
Đứa
đậm
##iveness
##cking
##cue
##while
chos
##inals
rely
Children
hoãn
##ado
Trở
unt
imper
blow
boom
genius
scary
##aks
Phát
court
slides
lovely
biom
International
accum
presented
Quay
morality
defense
classical
rising
nonp
speakers
##anna
ants
missed
Moz
##appy
winning
concert
conclud
appeared
functional
breathing
printed
debt
efforts
crying
Julia
demonstrate
paintings
injury
Muslims
Olympic
telescope
anxiety
hemis
suicide
marathon
dioxide
agenda
Sierra
chosen
350
Hir
Hành
Hall
Hợp
June
Kr
Nico
Ush
Vật
bones
canh
cake
enh
sed
tiệm
vả
wra
Động
##onds
##ym
##bage
##ât
##ẽn
##ngue
chest
##erom
nhủ
ngột
##otion
##ali
pherom
nàn
beer
##struct
##igar
##ulse
##agger
myster
orbit
outs
sphere
placed
intent
seek
comprom
feature
##berry
sheet
flour
finds
drone
instantly
appeal
exploring
ghê
connecting
musicians
properly
measured
sensory
Moon
130
Nothing
represented
Camp
privacy
hổng
females
##hammad
amongst
institution
shifting
cartoons
participants
fluid
thrown
linked
rainfor
ignore
clinic
beliefs
algorithm
Saharan
Jerusal
recovery
Muhammad
talent
neuroscience
agreed
scenar
utter
satisf
EDI
orchest
Clinton
nonprof
Jerusalem
96
Bud
Cra
Doug
OEC
Ross
Việt
băn
bầy
cens
density
file
fool
gom
gãy
lens
py
ric
vội
yo
điền
##lings
##east
##bra
##CA
##ửng
nhánh
##atom
quỷ
##isy
giật
youth
##uyến
nghẽn
##anging
##auc
##aust
Chú
neither
external
chuyền
##izoph
perm
units
##rix
coach
coord
reson
rescue
##ptions
##iform
Khá
##cohol
granted
##ava
decre
Phot
Phòng
schol
powered
drill
drones
imagery
grows
robust
curiosity
failing
##ennis
##apping
presentation
essence
consumers
##mbur
combat
##adesh
depending
anger
Steven
pupp
surprisingly
hackers
hydro
irr
halluc
boundaries
paradigm
cooperation
northern
corporate
sculpture
title
Remember
microscope
unclear
explanation
Sylvia
OECD
42
Broad
Màu
Nat
UC
bẩm
cord
cats
dough
gel
lô
pione
sle
till
tied
vất
vital
ương
##lies
##vy
##vas
##bru
##fast
##RA
##erd
##erable
apple
##ares
phô
##iters
gien
##omp
##leton
Through
stun
stroke
##aud
##imal
prime
hoan
##ements
shocking
##ulum
Nhờ
spell
spark
##ournal
emer
##ache
underground
committed
giáp
script
letting
Should
involves
Giả
schizoph
minor
minister
monkey
organize
capita
correl
restore
proper
chaos
cafe
Leone
80s
expectancy
friendly
football
recognition
policies
balloon
Super
rocket
Benj
sticks
returned
affordable
struggling
synthes
Something
resistant
neighborhoods
motivation
shopping
copyright
##flies
Babylon
adopt
floating
flew
vessels
dolphins
##capes
elephant
Bosnia
dinosaurs
Pacific
Leonardo
Zimbab
AK
Has
Hắn
Lab
Mos
Math
Sử
Sky
bồ
bẻ
coun
dại
dign
dệt
fulf
firm
mầm
nom
súp
sales
tatt
tasks
xi
##lan
##nes
##rome
##bed
##bul
##PTC
thiêng
chày
trúng
##ani
##anes
##organ
##oton
##aled
##isa
##isons
tam
bears
hambur
##uration
stable
stages
##imet
locked
meg
orient
orange
##using
usual
alcohol
spr
actor
##abul
features
contains
flip
crops
##irect
Show
ending
carried
personality
meter
foods
Indeed
distant
researcher
##otton
depressed
corresp
protecting
falls
Space
recognized
sleeping
produces
Sund
improvement
##coln
characteristics
separated
cryst
Greenland
controlling
nutri
automatically
baseball
đốm
crucial
Lincoln
apparently
Venice
ridiculous
General
adjust
Santa
Voice
anthrop
permanent
uncomfort
album
ugly
Ethiopia
Ushah
richer
Zimbabwe
98
AR
Dub
Fred
Gil
Out
Sáu
cas
fishing
fathers
hông
honey
lột
nets
rạp
sướng
tùng
tears
vặt
vòm
wip
xứ
xách
Đặc
đụng
##lor
##pest
##LA
nhị
trash
##inger
ngư
ink
phiêu
nón
##keley
##adays
dies
diam
diverse
plain
yours
enzy
##iza
bubb
unbel
##achel
overcome
disrupt
blo
Shir
colony
môt
phốt
afterwards
##aza
Hoàn
Albert
paralle
paraly
explo
muscles
Arctic
musician
guide
xoắn
cheese
continues
holds
explaining
interacting
improved
Geographic
70s
directions
impacts
Israeli
architects
intrigu
textbook
entered
##plicity
searching
strategies
electronic
Jonathan
agricultural
trends
wireless
attached
transparency
Apoll
Matth
ensure
Somalia
dominant
Department
barely
August
uncomfortable
Ushahidi
parallel
Cap
Hong
Mount
Nền
Never
Po
Que
SS
Tính
Tun
Vẫn
east
fet
gee
gonna
nu
pump
rộn
rìa
sin
tịch
uốn
vương
Đạo
##life
##een
##hry
nhấp
##otter
whis
##iders
rap
##igan
##opa
Church
##adel
abuse
##ema
aside
neural
##essor
meal
##usi
output
upload
enable
##astics
agency
##roid
Khan
##phia
prepare
brown
##uba
helic
creature
glac
mining
served
recomm
lighting
demo
ghé
visited
suppose
subtle
Indust
Quân
escape
curric
painted
controls
filter
equality
secure
provides
delight
identified
140
psychological
psychiat
Colle
Colomb
##archy
silicon
McD
dependent
predictions
burst
estimate
emergency
administ
Bangl
disappoint
calculate
mixed
laughing
Berkeley
dynam
homeless
repeat
lawyers
##aghetti
Neanderthal
renew
##opardy
stereoty
vitamin
protocell
##PTCHA
64
Ach
Ig
Kam
Laur
Norm
Não
Oct
Sa
Toky
aes
biếm
cigar
dập
fusion
hái
kề
lê
lọ
mice
mốc
ooh
tôm
tired
veter
wing
wand
##mble
##down
thắn
thốt
khen
khan
khùng
toy
ngụ
##inburgh
##oma
##asure
##etical
Third
stone
stack
##iment
cảng
##eman
atom
##agon
##acular
##iab
spaghetti
plot
enth
##gend
prec
cáp
shoulder
laid
opens
treating
confident
globally
185
stops
killer
productivity
views
drag
Marc
sensor
tempt
legis
Sput
Cameron
purch
drivers
##laim
iPad
Edinburgh
##liament
virtually
assumptions
colleague
soup
ethnic
demonstration
tricks
chairs
electronics
drinking
repeated
defend
Starb
elderly
Korea
lecture
##azeera
Copern
trigger
uncertainty
Columbia
Argentina
unbeliev
Tokyo
AM
Bet
Ear
Luther
Nữ
Number
Quy
SO
Win
bực
búa
fung
gai
hal
hitting
kệ
kẽ
kem
kẹp
rays
đinh
ủi
##iac
##uits
##ếch
##rr
##rog
##rence
##bl
##front
thumb
chóc
chief
traged
trucks
##osal
##anish
##orous
##arters
inches
##itous
củng
##ctica
##urse
##amas
##amie
stores
loves
##estation
excell
dive
diagram
diabet
nhàm
khoai
sav
##aire
emph
sửng
closing
dism
##icks
##phones
Stage
offs
##akers
persu
thoáng
##negie
chíp
Phật
monitor
Alice
farmer
accidents
187
reduced
educated
Everest
assets
crack
Marco
Carnegie
improv
grandpar
limb
staying
strongly
recording
footage
3000
suggesting
darkness
lifes
detailed
activist
translation
ceiling
collaborative
Philadel
prosthetic
favel
nutrition
victim
Minister
liberal
disappeared
rarely
quantum
vegetables
##viol
inevitable
resilience
sacrifice
therm
instructions
đệm
Kennedy
phosphorus
Antarctica
Roger
Hawaii
Square
schizophren
helicop
Sputnik
Starbucks
diabetes
Philadelphia
47
41
Back
DJ
Dur
Dad
Hol
Hun
Jazeera
Mùa
Ni
Nin
None
Nair
Nike
Ooh
Sel
Sud
Tạo
Tell
UN
Yves
borrow
dồn
drove
gạt
hol
lin
lions
mớ
mép
picking
rỡ
sits
sườn
sulf
session
tăm
xen
xộn
ào
##las
##west
##kward
##bby
##zu
chướng
trag
trùm
##osure
##enly
##esse
##arre
phe
phơi
##reh
render
##ura
choáng
doors
##oli
##olic
prices
##raction
neat
##usse
knock
butt
compelling
leather
exposed
##udes
clar
parties
vịt
scores
roots
huýt
obl
extend
hyper
earn
Anas
pretend
begun
governance
redef
reduction
magical
awkward
##ophone
drawn
thơm
eleg
Coke
sentences
civic
Within
affects
1970s
immun
links
pushed
influenced
scanner
physicist
gathering
insights
Turk
Febru
category
hormone
hormones
unpre
Atlanta
initial
professionals
senior
anonymous
dedicated
fertil
Jordan
passenger
Benjamin
Sunday
Apollo
Tunis
February
43
900
BR
Fried
Kì
Kelly
Mitch
Medic
NL
Penn
Rằng
Rose
Rick
Sen
Vô
dust
dirty
gre
gear
hill
hàn
hier
je
pink
powers
rỗi
tống
tạng
wound
wider
wired
Đỏ
đom
##list
##ued
##aves
##dam
##wind
##viet
##kg
##bie
##ía
##IA
thiền
nhét
triều
trèo
##ingo
ngục
##asa
##uten
##children
reef
Tháng
##opatch
anes
##through
shirt
Soviet
outer
##allow
##ogether
sauce
bug
lux
underlying
##pled
##coop
Ngôi
persist
##rency
relax
highlight
serving
recru
muscle
healthier
openness
skull
organism
probability
distract
elsewhere
Toà
sexy
1998
improving
psychopath
facility
supported
keyboard
legit
photographed
##ventions
spreads
suggested
telephone
bedroom
ultra
soldier
crossing
Jeopardy
dịu
judgment
determined
philosopher
Global
frequency
odds
garage
Tesla
dialogue
Nanopatch
forgotten
privilege
Tempest
ownership
revenue
bướm
welcome
ubiqu
Lebanon
pyram
dignity
curriculum
College
Colombia
Acc
FO
Fed
Gar
Ivan
Make
Prof
Scient
Tài
Vol
Water
Watch
cub
dê
hé
mưu
nurt
râu
rats
rèn
silly
túng
âu
##tt
##yer
##ses
##wen
##kin
##fall
chances
trọn
khẩn
ngừ
phiến
gieo
##asp
recept
Anderson
rail
##amed
conven
convert
##olas
prize
##raints
##ulu
Italy
Whether
##apagos
clients
backwards
Khu
grat
gram
##uces
prev
scream
brut
simplicity
drum
founded
Isn
hardly
sket
passing
Army
180
adding
protest
labs
##aws
Organ
reth
focusing
Johnson
nonviol
Movember
violin
eaten
breakthrough
arrive
specialized
ongoing
fastest
smartphone
pulling
layers
Michigan
Warren
delivery
translated
citizen
graphic
Obvious
accepted
packed
ethical
optimism
expressions
Russian
additional
paradox
Galapagos
suspended
perceive
##copes
colonies
microbes
wheat
ancestors
hypothesis
supermark
grandparents
FOX
97
AO
Cru
Er
Hon
IM
Kansas
Mass
PH
Rachel
Sy
Siberia
SMS
Ter
Tit
Under
Vũ
Wo
bat
banh
bars
bón
cath
fires
hâm
hire
hưng
ion
mall
nurse
tẩy
vần
wid
wedd
đục
##ni
##ding
##ớc
##xual
##gu
##pass
##ẹo
theor
trễ
trop
toys
##ester
##itate
##lets
##uts
choosing
##cember
##emics
##employ
comedy
maxim
##unction
spots
##aine
enables
##astroph
##izz
##obile
tubes
disag
genetically
precious
smarter
smooth
##arsh
decl
owned
##ails
remained
Giới
bask
transcend
glad
helpful
traits
##weeney
Joel
fuels
settle
answered
globalization
located
assess
trains
programming
viewer
chimpan
industries
160
statist
breakfast
Spanish
includes
December
observ
texting
silver
promote
targets
philanth
miserable
representation
documents
catastroph
synthetic
reminded
irre
integrated
attractive
restaurants
shooting
circuits
categories
kingdom
disorders
lawyer
refugees
originally
adventure
items
Bhutan
retirement
Listen
Lakota
Susan
prosperity
Beijing
hamburger
Bangladesh
58
52
74
CS
Dave
Less
Nep
Oak
Rod
Tế
Tib
Uh
Xô
Yout
ain
bộc
biz
cồn
dơi
dẹp
dressed
fought
gang
les
pand
pause
sink
vớ
vạn
vọt
xay
Ít
Đột
đòn
##maker
##tô
##ếm
##rary
##va
##har
##zens
##fly
##ụi
##úm
##ịt
##EA
##ấng
chips
trừng
##onald
phồng
##itudes
cóc
##utical
bell
dozens
##raph
##estion
fruit
##umes
##eryl
upd
plastics
exped
buồng
##iva
##eping
resolution
poison
mood
Ngược
190
offices
smiling
##rics
involve
insist
consult
Hoàng
extension
monit
attitude
##airo
edges
Ash
engines
chiêm
confused
publ
warning
woke
Arizon
photographer
reducing
weeke
opposed
proposed
proportion
remembered
experimental
radi
sharp
Beach
1995
objective
difficulty
Emily
Emma
grandchildren
calories
Seattle
facilities
operations
Iranian
##venth
Without
harness
universities
suffered
peaceful
Christopher
burden
##aska
hanging
primarily
domestic
immediate
infection
suspect
tissues
diagnosis
Berlin
Samuel
physician
Build
analyze
Norway
fortune
Jackson
Acad
habitat
substance
routine
##osterone
refugee
frustrated
federal
Địa
merely
procedure
nonprofit
emerge
Sudan
Obviously
bizarre
Arizona
CN
Cour
Cath
Die
Elect
Fif
Fox
Half
Luc
Mot
Mama
Mumb
RS
Sáng
Sweeney
Vent
bồn
cert
fib
mate
native
nodes
naked
rốt
sisters
tear
vắng
vẩn
ôtô
đè
##iences
##uous
##cou
##town
##night
##yal
##rot
##rich
##bing
chay
nha
##oust
##onic
ngợi
ngửi
##orious
quit
##isc
pháo
##itage
##asy
##icial
tag
##eton
nghiêng
##keys
shine
whatso
mycel
healing
ours
alien
ups
actors
compos
##aceutical
uniform
unemploy
intervention
Ngu
writers
incor
incident
factories
pointing
completed
crew
attend
generous
regime
125
headlines
preserve
Arch
##cedented
funds
##otted
profile
testosterone
##awatt
retina
ướt
Princ
engineered
1996
1990s
Maya
investors
cute
landed
Somebody
Seb
discrim
Robot
legacy
drawings
Clay
array
arrang
inspire
enterpr
##uctive
##aughters
mobility
Jean
##forward
Islands
manager
managers
Grace
southern
Philip
magnetic
despair
taxi
spectacular
preparing
weapon
Ladies
penguin
voting
tunnel
pursuit
CAPTCHA
transparent
Atlantic
Larry
isolated
accomplish
assembly
portrait
Jennifer
##keepers
pharmaceutical
conservative
infinite
innocent
Wait
conclude
paralyzed
emphas
unprecedented
rethink
Nepal
Youtube
Mumbai
whatsoever
Princeton
34
54
77
Aaron
Bốn
CC
ES
IP
Ire
Journal
Lại
Put
Pret
Sad
Same
Sudd
Wi
bát
bind
bother
bưu
bẫy
dưa
firing
kìm
lone
lamp
nâu
nuốt
nerve
punch
tip
wet
watt
waters
xảo
Ước
ấp
##oven
##ship
##walk
##bar
##pro
##ES
thạo
threw
thèm
chì
##ndrome
##ounder
tooth
tongue
ngây
##oral
phthal
##icer
tao
##uty
recess
##ượm
onstage
strain
Chương
shr
meals
##umin
dece
deaf
upset
##inea
##ober
expans
donor
clay
armed
amate
interf
interrupt
disabled
##icked
blame
Stone
commod
##ibati
crop
bỏng
remaining
articles
mini
recall
biote
economist
elected
headed
Saudi
Quả
banjo
valid
currency
aircraft
figuring
freely
Friday
60s
delay
thirds
1994
March
Margar
audio
##reme
##itution
description
##ascular
summ
observe
observation
responses
McK
leaf
Edward
printer
accounts
secrets
mindset
panels
annoy
capitalism
straightforward
inhab
wealthy
widely
mammals
fabulous
expanding
intuition
Bali
illustrate
previously
route
FGM
briefly
TEDTalks
Jefferson
skept
County
Kiribati
matrix
Hello
Taylor
fragile
bubbles
October
ubiquitous
Ireland
68
Bot
Cairo
Dra
Hot
Mạch
Nations
Od
Oce
Post
Ryan
SA
Tai
Wind
award
bến
bust
bẩy
cay
cabin
dear
dose
dâng
fits
fiber
hiding
ki
lit
nạp
nerd
od
pile
rực
tơ
tảo
tune
xế
Đương
đắm
##ias
##mony
##low
##aise
##yon
##ek
##ìu
##ốp
chiên
chron
chùm
nhồi
##oning
##ancing
ngươi
quận
##eday
phế
##inity
##inarily
##ller
beating
##idential
##igation
stability
conce
##irling
lock
##oded
##rah
##istor
outd
plug
Trông
thuỳ
Young
nowadays
##rip
arrow
##epher
gotta
blowing
##ighter
Giáng
schem
slums
Alan
formula
hardware
elite
Anth
robotics
##allet
##ashed
virút
excit
xoáy
Beeth
deliber
bottles
90s
performed
personalized
request
microphone
horiz
triang
predicted
immigr
Stef
mechanisms
emerged
threatened
domain
panc
unconscious
ignored
clinics
miracle
folding
profoundly
Northern
broadcast
denial
ambigu
Secondly
Jonas
##201
##itzer
claims
newspapers
ecosystems
shelter
terrorism
stimul
Romo
terrifying
qualities
arguing
bathroom
Jewish
discipline
announced
overwhelming
autonomous
flexible
Vịnh
rehabil
collapsed
vertical
database
Skype
tragedy
basket
Academy
Suddenly
Margaret
Beethoven
Cầu
DP
DAR
Himal
Lời
Lịch
Lớn
Map
Old
Pu
Quyền
SR
Tối
Ur
Val
Vương
XL
batt
cộ
cyl
diều
duck
daughters
junk
nín
pir
rice
sque
tone
uỷ
xơ
yog
át
Đế
##iance
##ties
##hai
thiếp
chec
nhã
nhộn
##onia
khiếu
##alian
##icus
Thôi
Things
habits
dood
washing
soi
Social
comments
##ili
##ilty
Nhóm
degrad
spons
intim
seeking
suck
##izer
##izers
agent
percept
luân
partly
##eller
##pless
ads
Ngôn
realizing
##phony
viêm
wrest
smoking
Shang
simult
TED201
caring
believes
biologists
##onto
Until
careg
hybr
homework
register
guard
charming
speaks
positions
nhuộm
Leg
terrain
Nghĩ
Europa
treatments
temporary
variation
supporting
communications
nearby
##ylac
beneath
Camb
posted
geomet
1975
brave
experiencing
errors
##hamed
Compan
dimension
activate
exception
prisoners
circles
Graham
rolling
glasses
Teach
salt
surrounding
Jersey
puzzles
Turkey
authors
neuroscient
ceremony
Lawrence
comparison
candidate
fortunate
punish
navigate
storytelling
devastating
Lesterland
Homo
athletes
interconnected
guarantee
Đoạn
hemisphere
Craig
Mathem
Industrial
McDonald
Nairobi
Mitchell
Titus
excitement
Himalay
53
82
AV
Aur
Abs
Aye
Cụ
Dutch
Kiến
Li
Len
Mell
Read
Rives
Sou
Sure
Sea
Sorry
Tìm
Ut
USA
Vin
bure
bite
bored
gate
gộp
hân
hub
jelly
lội
lậu
sir
sùng
util
xô
xá
xả
Đáng
##lves
##aving
##pace
##power
##press
thắp
chat
##erved
trinh
trội
##osaur
khăng
##itating
gig
##icient
##lli
nghiền
##aming
stored
Chad
##ading
##aded
selves
asleep
shipping
##racies
##atever
##usiness
butter
tends
Whatever
perpet
##riel
##geous
backyard
genetics
1930
Str
Stand
khuất
brush
flavor
crimes
crows
Pho
sciences
courses
artistic
kidney
seroton
Alaska
demands
caps
presents
sett
guerr
proph
memb
marine
Toán
radically
structural
listened
innovations
##ometown
democracies
embod
Dean
Develop
Whereas
flowing
Swiss
tendency
gradually
threats
hopes
Plato
damn
##puter
significantly
bổng
reminds
consequence
reveals
##bule
burned
bags
shelf
volunteer
transmit
ratio
garbage
perceived
rituals
obstacles
besides
Kyoto
Oliver
Murray
exhibition
NGOs
Diana
tackle
scenario
recommend
schizophrenia
linear
wedding
CNN
Catholic
mycelium
##epherd
450
78
CL
Eli
Food
Fib
Gay
Hind
Home
Kính
Katr
Mall
Oreg
Pap
Sup
Tob
Tiền
Uk
Ze
bế
cai
dỡ
dent
dil
gập
gases
lượm
mọt
oy
ri
ria
rope
rocks
sếp
sói
via
Ánh
ân
Đan
##uh
##ti
##tim
##rir
##rate
##rus
##bell
##bec
##gments
##RNA
##IS
nhăn
trêu
##enix
ngô
ngộ
##leg
Thống
##idges
Chất
shrim
Sobule
neoc
##essions
##agan
deals
spill
spont
khoán
safer
yourselves
intensive
##apor
##asty
##abad
lean
manual
unable
clot
twist
covers
resolve
interventions
disconnect
contag
Khả
##quis
lottery
groc
genu
Stock
##rained
brows
owner
socially
##tech
pointed
keo
monkeys
##peech
##licit
editor
forming
##cycl
November
educate
marker
nights
Prot
constraints
failures
improvis
traditions
Coast
survived
arrested
approaches
architectural
colored
cuả
mainstream
##ugal
McG
compete
competitive
buried
divor
astero
reactions
expertise
Peru
purposes
mathematic
Guinea
continuing
throwing
1945
graduated
Jerry
reconstruct
Toronto
symbols
Hawking
climbing
corporations
ticket
satellites
agreement
Keith
mosquitos
recipe
hunting
Using
wheels
barrier
barriers
acknowled
adolescent
cousin
surfaces
Bertie
compromise
nutrients
Dubai
wandering
enthusi
tragic
Diego
Ocean
Shanghai
Cambod
serotonin
Oregon
##timore
57
Aw
Ast
Aim
BM
Bọn
Case
FDA
FBI
Gall
Hop
Hear
Kiểu
Little
Lord
Lake
MG
Mas
Mới
PC
Pen
Pan
Ve
aug
bới
cash
cẩu
drought
hả
hán
hors
hẻo
mac
oct
rổ
rải
rivers
sảnh
vẫy
wond
wrap
Đưa
đan
##mat
##mill
##uum
##tz
##hop
##Women
thylac
trương
triv
##osity
khe
khâu
khép
khốn
giế
static
prol
pride
##illance
diver
##umble
##inker
sake
compreh
buck
manif
clue
syndrome
offering
endanger
insane
drown
artwork
traject
patents
Doha
readers
particle
demos
Govern
##boo
cultiv
guid
restrict
girlf
kills
condoms
1992
investing
measures
potato
audiences
illum
lanes
breaks
included
1980s
worthy
affecting
silk
promot
immense
division
##liest
##eshold
blindness
reports
graphics
threshold
strategic
Anyone
package
calculations
Julie
magnific
Franklin
teenager
interviews
officer
applying
historic
bóp
candy
independence
microRNA
pairs
installed
Freedom
Ngoại
pockets
dictionaries
tower
Tasmania
gods
analogy
Louis
##impse
Melinda
neutral
whistle
stretch
##rasound
clusters
contemporary
prostate
abandoned
chapter
mysterious
unbelievable
FOXO
pandemic
Court
##couver
Sebast
Katrina
genuine
endangered
84
Bir
Bart
Band
Bru
Bah
Cố
Dam
Full
Gary
Gene
Gwen
Jama
Lear
Light
Media
Nich
Naz
Py
RG
TS
Treat
Vene
Xu
Xã
aer
brib
cotton
fate
gained
hometown
lách
lượn
nest
nap
nãy
sỏi
ts
tale
vặn
xài
đàng
đun
##mart
##lers
##rates
##worth
##vin
##êt
##ki
##fa
##fred
##AS
##Point
##N1
thề
chặng
chốn
nhí
##nders
troub
khốc
ngơi
##orestation
##alore
vàn
phôi
##itar
##ashing
##owitz
##section
racing
##opo
##kel
##ira
anatom
prisons
Chu
##thals
loving
soap
shy
neck
mapping
proven
spider
spray
khoang
buff
bucks
##ocity
tua
happily
rescu
impr
##enses
sheets
deserve
mayor
genoc
2020
scaff
##neys
obese
gluc
glimpse
foundations
strict
##insky
Asian
subway
infant
capabilities
Ark
autistic
connects
topics
dawn
physi
stopping
profits
locations
beautifully
collectively
Beau
1997
typing
fallen
Cloud
Def
destiny
##ference
Abu
tụt
mechanics
bacterial
ecological
##coli
##oshop
Bangalore
panel
determines
reflection
responding
teenage
classrooms
pigs
guns
cooperate
bullet
parenting
sacred
shocked
Baltimore
elementary
simplest
transmission
Vancouver
maker
officials
juice
palm
July
fortunately
Định
estimates
bùn
PowerPoint
mimic
desperately
Walker
Buddh
Treasure
explosion
rainforest
scholars
correspond
excellent
lifespan
##oliath
pyramid
Professor
Oakland
Nguồn
shrimp
Aimee
augment
giếng
scaffold
Ath
Bảy
Creat
Cảnh
Dường
Dưới
Fer
Gord
Gaza
Kle
Kong
Liberia
Mid
Mau
Mach
Pre
Rh
Rory
Rec
Sher
Tâm
Titan
YR
awe
bội
dys
dumb
fi
hăng
hàu
jew
lứa
lửng
nuối
nắp
nếm
rò
rang
rip
rặng
sib
sized
ties
vách
wires
Đô
đọng
##log
##lusive
##uate
##top
##tail
##xter
##gence
##hall
##hran
##foot
##nge
chess
##erk
nhược
trace
trail
##onac
khiết
##esign
ngắt
ngào
quạt
##reate
tact
Thú
Thí
đãi
rape
##aman
##vere
liêng
conqu
convey
##irts
Chim
Child
loa
sew
shit
Nhạc
##aga
heal
##ffe
align
##unes
sail
intro
enabled
Truyền
##acks
đồn
agents
explicit
muôn
##ocol
cliff
coinc
ambit
overl
overse
##asses
##seless
acids
blah
boost
##phal
Stirling
criter
simulation
builds
reliable
mẹo
stranger
format
demographic
camps
visually
momentum
banking
188
1800
signature
##manuel
Connect
breeding
propag
marry
marvel
challenged
invested
vari
psychologist
Coch
##bye
surviv
deadly
cycles
immort
transforming
covering
methane
medication
primitive
damaged
electrodes
riding
representative
sweat
wildlife
smells
landscapes
portion
corrupt
Tehran
achievement
scanning
honestly
nuts
sexuality
injured
stepped
gathered
analyt
ingen
airplanes
lungs
Williams
simpler
concentration
surgeons
bênh
##ulses
exhibit
telescopes
reinvent
manipulate
Neanderthals
Saturn
initially
candidates
aggressive
Open
replicate
cyberc
controversial
gesture
gorgeous
occasionally
wrapped
orchestra
hallucinations
Queen
supermarket
expansion
Phoenix
Fibonac
Fibonacci
Băng
Both
Cuba
Dor
Dick
Gard
Greg
Ir
LH
LOL
Mô
Mong
Mấy
Mối
Mộc
Panth
Peps
Potter
Rather
Suy
Sara
TB
Tenn
Woo
Yale
dời
dâu
eur
germ
hiếu
jumped
lấn
ni
nạ
om
rose
rệt
suối
sons
sale
tát
tie
váy
Đàn
##away
##nut
##rats
##wr
##ko
##zer
##MED
##ỉa
toa
##orage
quăng
offe
##reens
reass
rewards
##sex
##stan
##urday
raises
stom
stead
stake
staring
##iro
Chern
##adian
abilities
seal
##outs
worms
##raine
someday
Its
##hire
compound
leverage
##mental
##obyl
unst
workforce
##occoli
clues
interven
ngoạn
##pling
grasp
bond
boots
realistic
##phan
##otherap
counting
##aken
findings
chui
chuộng
carries
lake
believing
cellular
keys
extinction
mode
mines
Ali
Alfred
grace
grabb
bush
handed
infl
infer
passes
Quảng
contrary
404
interestingly
redesign
##ribly
##ographical
badly
proposal
##ushed
discovering
Prince
cheat
110
deepest
##aneous
Reg
Mario
approved
MoMA
psychologists
Harry
Harlem
suggestion
harbor
Billy
Michel
brands
competing
defining
appearance
institutional
consciously
participation
Plan
Palm
detection
Wiki
contribution
Technology
interviewed
strike
fraction
historically
physicists
gentleman
tomato
cruel
blend
channels
talents
##thesia
millimeter
tumors
Gando
conducted
pursue
courageous
CAD
replaced
altitude
Saturday
nitric
mushrooms
recycled
bombsight
Victoria
unhappy
embarrassing
Secret
Radio
disturbing
intriguing
Matthew
legislation
SOPA
helicopter
##zuela
luxury
horizont
cylinder
simultaneously
hybrid
Southern
##cyclop
magnificent
Venezuela
ambitious
criteria
Chernobyl
00
94
Bor
Bow
Ca
Ele
Est
Gô
Goliath
Kế
Môi
Nic
Off
PI
Poll
Say
Vide
Xây
Yo
bills
cán
cắn
ft
fis
fancy
gaps
hated
nứt
ol
oven
pills
tước
tạc
ward
êm
ôi
Đồ
đứt
ỏi
##lock
##like
##cure
##ju
##kind
##bling
##hand
##ụa
##Speech
##IC
theories
cham
chuối
##erals
nhạo
nhát
khử
##oration
quỵ
phích
##icit
##utation
revel
raped
##igma
Chữ
Chân
##theless
##emies
soc
##artz
decent
##ffiti
outrage
upside
##aste
Inc
##ocke
##rypt
impression
pole
genomes
syring
realm
downtown
prevention
flows
humanitarian
systematically
TEDMED
remix
helium
helpless
lawn
instruction
extended
reclaim
biologist
Almost
Although
planned
grave
graffiti
projections
hardest
capability
Africans
proger
warri
reasonable
guilty
viral
answering
marg
freezing
messy
prediction
##apped
democrat
tempor
Caltech
statistic
vacuum
Color
versions
Neil
fireflies
Scratch
websites
horizon
straw
truths
immers
Meyer
dropping
authorities
tracks
##ibera
Barack
annual
enjoyed
Philipp
continuous
fragment
motivated
fatal
customer
pigeon
batteries
regularly
epis
succeeded
assemble
grains
astronaut
Olympics
limitations
dolphin
minimum
venture
Oprah
frightening
labeled
overwhelmed
concerns
established
beetles
troops
surveillance
Palestinian
FreeSpeech
Mozart
permission
stunning
counsel
Norman
aesthetic
##iability
Copernicus
offspring
expedition
##osaurus
neocort
trajectory
genocide
76
Apr
Business
Càng
Dol
During
Ext
Fa
Fire
Haz
Kal
Mond
Moses
Run
Soph
Uỷ
Ult
bribe
cọc
cube
dồi
dirt
hở
hired
hipp
jet
jam
jaw
kiềm
lót
nin
nerves
sứa
tớ
wow
wins
yards
đạm
##moud
##lar
##aver
##oos
##rent
##eng
thốn
chạp
##eros
##atem
trói
##oux
##ona
##oned
ngả
##arin
inex
inmates
##real
##itra
##inter
bend
beef
Thần
Thương
hacking
##urable
stabil
storage
prose
Chuyến
##ador
khinh
shout
shaking
##ules
##elines
##oko
span
##orted
actively
Whit
aged
uncon
##rier
twins
amino
disasters
##ift
##ques
##ruption
heritage
gramm
shower
##ecd
Stop
scales
##ibo
##iley
systematic
##iverse
Phía
technically
involving
TEDWomen
relation
understands
artic
cello
modest
minus
highway
bio
##aha
computational
entry
earliest
viscer
supplies
inflation
passive
heading
Archie
189
186
seemingly
##ilton
propose
caves
paste
cheating
secular
fundra
Being
expecting
investments
##annah
cuts
illusions
winds
Move
Gehry
joint
##grade
summar
cua
civilizations
##evity
volc
Mexican
planted
Educ
periods
##lihood
medicines
Small
compassionate
authoritarian
extraordinarily
logical
dominated
assumed
assumption
Anybody
judgments
##zees
Guard
Guatem
randomly
associate
##faction
##untu
striking
destroying
physicians
Buổi
narratives
doubled
therapies
voted
substant
incentive
sculptures
opinions
Mahmoud
Essex
empowered
terrified
constructed
1930s
encouraged
encouraging
reproduce
inevit
vocal
traumatic
observed
Langley
bench
Bonnie
Tahrir
abundance
iconic
Gilbert
glacier
dynamics
hierarchy
Tibet
monitoring
discrimination
Pretty
lonely
recession
Odys
rehabilitation
Absolut
bureauc
clothing
Bruce
glucose
Pepsi
Tennesse
##otherapy
April
Dolby
39
67
Age
Agn
Cuốn
Dai
Fil
Hiệu
Ill
Kay
Kibera
Mi
MP
MR
Mạng
MBA
Năng
NBA
Ott
Pear
Viết
Yêu
bam
boun
cạo
cưỡi
dào
dump
găng
lọt
nến
nặc
node
nộp
rh
rong
rớt
sờ
sod
tẻ
vướng
vivid
xốp
Đâu
đính
đốn
##iate
##crib
##tes
##oves
##yd
##do
##jev
##ez
##eem
##hen
thỏ
thừng
chật
chọi
nhấc
quẩn
##eds
ine
phàn
##itu
##itative
giàn
##omin
##asive
Thị
stair
doo
##imag
forb
##verb
##opus
##olen
##olum
hoi
shatter
ships
Solly
##ươc
##acre
orang
##oks
##umented
likelihood
Italian
spare
##cip
enemies
##aby
##reatic
manner
unse
client
arbit
##roch
impressive
disability
kindness
##conds
herd
realization
Start
broccoli
##nee
##weight
longevity
TEDsters
##iously
##redd
carc
cares
nguội
apps
vít
meditation
formal
generic
computation
farms
sưởi
##irds
solo
##mann
easiest
proposition
amazed
selfish
discoveries
Online
advances
ngủi
namely
Someone
motors
calm
Seven
Justin
vacation
multip
winner
cooling
Brand
1989
approaching
intrins
favorites
universes
superst
horrif
campus
blogs
touching
receiving
ultrasound
safely
##elescope
##ettes
Thuật
cleaning
##sterdam
attacked
electrons
Arabia
remarkably
detector
temperatures
Music
calculated
magnet
inhib
penis
Similar
phenomena
wooden
injuries
jumping
correctly
switched
manufactur
Stanley
toilets
accompan
USD
documentary
millenn
frequently
replacement
installation
partnership
adopted
Serge
Tuổi
informed
criminals
ingredient
container
scenes
Oscar
lectures
Greek
Greece
ventil
Denis
regardless
portraits
assignment
Brend
rejected
acknowledge
beetle
Turns
tolerance
UCLA
tattoo
##abulary
favelas
Organization
nonviolent
chimpanzees
incorpor
improvisation
stomach
PIPA
progeria
Guatemala
Tennessee
AG
BP
Bil
Căn
Của
DD
Dal
Dig
Down
Diet
Eight
Evan
Git
Hope
Hmm
IQ
INC
Jake
Kos
Kent
Kate
Kep
Kids
Lama
Mười
Nỗi
Nik
Pic
Row
Shi
Sri
Sleep
Spring
Tarah
Vỗ
Voy
ZK
bì
bời
bọt
cớ
cằn
eB
founder
gắt
hut
jan
kg
mask
mesh
roles
tiệt
useless
vã
vel
vary
valley
xấp
yeast
ôn
ắc
##lvan
##tained
##roc
##ệch
##ET
thus
thiêu
chốc
##erent
##eries
toast
ngạo
apples
phớt
##itated
##lend
##leans
Thủ
Thỉnh
Thula
hao
stolen
##olitan
##adium
loan
loose
seas
shepherd
Soci
##illas
##estone
frames
diving
##agu
Weibo
##umara
##istory
knife
alike
khoác
intact
Trí
lex
exposure
workplace
##aches
coverage
overhead
disg
##eav
##ensus
accent
beta
screw
Phong
beloved
basking
sched
artif
trapped
consp
attitudes
biod
50s
strings
generating
generosity
subt
Joey
addiction
daf
Orleans
march
tít
follows
programmers
##sylvan
territ
Maria
Carib
##ometer
Twenty
##enny
filmmaker
calc
##ucky
origins
Spain
obsession
squared
professors
entering
feminist
predictable
empath
lifel
Switzer
Supp
shifts
crossed
unfold
Environ
kilogram
fantasy
infections
corners
significance
tribal
honesty
worrying
occurring
Ahmed
pleasant
Ministry
boundary
ambul
360
Toraj
Cứu
politician
priorit
mastery
##ritic
Egyptian
##ambia
belongs
##copic
Karl
ideology
tangible
acquired
Miller
bowl
Biosphere
estimated
confronted
autonomy
accomplished
vocabulary
verbal
Maryland
eliminate
Wilson
##standing
refrigerator
chromosomes
elegant
Pennsylvan
Mathematic
jellyfish
grocery
Hopkins
girlfriend
Sebastian
Nicholas
rescued
Arkansas
overseas
Pantheon
##cyclopedia
Kepler
Tarahumara
Switzerland
Pennsylvania
05
Buy
Biết
Báo
Dịch
Dennis
Hard
Kỹ
Lyn
Limb
Pin
Psych
RNA
Twe
Telescope
Wol
Xe
Yellow
aunt
bỉ
cưa
cass
cope
dens
dẳng
dating
dưng
eco
fer
fract
gạo
gớm
hen
háo
heter
lon
lists
lụa
mị
mìn
mild
pad
rìu
tuộc
tiger
vựng
vùi
zones
điếu
Ảo
##mate
##makers
##lav
##ui
##ugg
##oors
##rh
##rest
##de
##ww
##wan
##vation
##xi
##ba
##gon
##gia
##gency
##zo
##pire
##ún
##EG
##12
thảy
chains
nhúng
nhục
##atz
trệ
trá
tràng
##enberg
ngọc
##orough
##otte
apolog
vành
phanh
giáng
##omi
##asso
##icut
tables
islands
##storm
##igen
##aul
wasted
anten
Chúc
##thetics
loyal
cancers
canvas
shots
##ulative
##arts
##arten
depr
mapped
##ffect
knees
alter
altered
##ogy
plates
intended
intensity
##actic
Trò
lever
unle
ampl
impl
sheer
underest
blocking
##anka
Still
khuếch
##fulness
bridges
##erto
##weg
##ighters
##bean
helmet
obso
developers
smallest
ghen
regulations
config
visions
passions
Saul
Joh
researching
couch
depos
deforestation
##awi
retail
condom
##rett
equations
amazingly
Prob
Beat
Nghị
Carter
literacy
sensing
norms
2013
variable
practicing
1986
occurs
destination
convicted
producers
texture
##ynth
paths
measurements
urge
Whoa
activated
unfair
threatening
thrive
magician
sanitation
panic
congestion
documented
managing
reflected
responded
Max
parks
diagnost
automobile
axit
preparation
Norweg
laptops
integrate
journalists
tension
philosophical
attracted
accuracy
embracing
quantities
platforms
Browne
Keep
symptom
isolation
Studio
oxide
interpretation
Tranh
privileged
consistent
Type
spinning
elevator
cocktail
procedures
metabolism
melting
aspir
mentor
adolescence
regenerate
authenticity
pedest
Intel
Sioux
branches
chromosome
puppet
Tunisia
odor
Anthony
Stefan
pancreatic
squee
embodied
Cambodia
octopus
jewel
siblings
Connecticut
Cochrane
Video
Absolutely
##jevo
Dalai
calculation
59
66
83
AT
Add
Bỏ
Cây
Cục
Cape
CIA
Dun
HP
Hosp
Jason
Ow
Pers
Pitt
Pale
Public
Ru
Russe
SB
Sum
Spe
Tar
Tập
Tso
Tóm
Together
Way
Wang
cành
cage
cable
dy
dare
drew
fisher
hurd
jack
kiều
láng
lụt
mác
méo
mentally
nộ
nới
porn
pulse
rank
rib
sands
sizes
tở
tid
vắt
west
đặn
##mond
##moor
##uing
##uity
##under
##uana
##aque
##oes
##ximately
##ker
##bao
##bled
##hal
##zero
##200
##ũa
##ợm
##OS
##ẹt
thread
chinh
chích
nhại
nhức
nhọn
##atical
##atops
##esa
##orph
##orters
##alin
##arly
##itory
##inent
##inery
##asking
củi
##etts
welf
rever
Thirty
Andy
##urf
##urning
choàng
stadium
##aun
##itha
seventh
##emon
##emical
comic
fruits
excess
exagger
usage
proc
alph
sperm
##iece
bypass
##osexual
Try
Trang
comparing
##obe
buồm
donors
unn
##achus
##itty
coat
resem
##plete
underm
mold
blur
bless
blink
blown
boats
commission
scans
counted
##ighth
longest
Phục
endeav
remitt
##redict
cared
##teen
relief
transit
famously
planes
reader
edit
explores
teaches
earning
subm
processed
streams
##otto
Brad
charged
Canadian
awake
friendship
pays
Leo
delicious
Johns
Rezero
absence
masses
massively
archive
Amsterdam
calend
lowest
operated
communicating
Deep
consuming
consumed
squares
stressed
purple
Donald
geo
pathways
blogger
emails
Parliament
sufficient
erotic
Christians
richest
activists
tụng
shifted
exceptions
graphs
apartments
##colm
collaborate
perspectives
discussions
reflects
rolled
ethic
symp
Glass
laughed
celebrity
woods
selected
beaten
preventing
mutations
##flix
Malcolm
emotionally
accurately
Naj
forgive
museums
budgets
dancers
talented
vegetable
illustrates
Jimmy
Linux
Freud
Freeman
Bono
Roman
1950s
towel
cosmic
altru
regrets
##holm
gamma
argued
satisfaction
elephants
pipeline
Bayes
Country
Helen
entrepreneurial
metabolic
astronomers
Netflix
##inguish
diplomacy
Hungary
pheromones
Photoshop
irrational
Broadmoor
casual
enzyme
stereotypes
Achill
Wonder
observations
publishing
Aurora
membrane
trivial
cybercrim
Sarajevo
visceral
Voyager
Society
artifact
biodiversity
Mathematica
obsolete
Russell
Best
Bach
Civ
Coun
Dec
Diễn
Fall
Hit
IK
Kiva
Lau
Mao
NO
Nội
Oxy
Pa
Pran
Sai
Sex
Scoop
TH
Từng
Tạp
Vụ
Virt
Wood
aqu
bự
bore
bats
binary
cào
cows
hunt
jar
jung
kit
kép
lười
loses
lingu
mit
mông
nực
nud
nấc
patch
pants
piles
pestic
rode
sương
tiles
vỉa
ăng
đươc
##iated
##mun
##len
##cale
##rin
##rod
##rated
##kh
##bow
##born
##fting
##ốm
##EF
##õm
##ỳnh
thối
nhốt
##atories
##atma
traces
toạ
toes
toll
quầy
##arians
phả
##inational
##icill
beep
Andre
chop
choir
##verts
##oples
liêu
primate
Chết
seats
sovere
shops
Nhất
meets
##usty
exotic
exquis
diễu
##umbs
hey
proceed
spo
##ieve
khoe
thinkers
intang
intric
envel
enlight
envision
##aba
##ouses
expon
expressed
mud
bugs
buzz
unw
unve
uncover
arter
arise
resur
impair
overlo
interior
##iful
##berty
##elled
##ologic
undergo
undergrad
gross
screens
##orship
decides
flaw
index
Phân
Shah
TED200
shoulders
creator
carp
relates
drops
drunk
creep
parag
parach
explored
Ass
demograph
farming
minded
subur
organizing
##ifications
Quần
connectivity
reasoning
curves
##geries
sidewalk
guitar
posters
publicly
marrow
swallow
Frie
hugely
cracks
sexually
mustache
terribly
1993
landing
Sean
temple
Robinson
embry
Notice
multinational
arrest
1988
releases
Neur
blogging
trusted
balls
visualize
estate
functioning
accounting
hopeless
filling
##lining
infectious
virtue
##sociation
luckily
closest
Barb
enjoying
Luke
Luân
miracles
Except
sections
contributed
salad
mixing
taxes
catching
mutual
integration
Transition
voters
##ijuana
bulb
priority
remotely
terrorists
Charlotte
golden
stimulation
concentrated
Mahatma
Tuần
romance
Libya
reforms
unpredict
weakness
lifted
Juan
anxious
Walmart
Party
Jews
frightened
recycling
##break
negotiate
controversy
Security
cousins
torture
initiative
exhaust
pheromone
Natural
minority
administration
veterans
According
Building
ESG
inhabit
geometry
Stockholm
tsun
Monday
inevitably
Agnes
staircase
##olumines
disgust
ambulance
welfare
##achusetts
Council
sovereign
envelope
56
750
89
Ara
Bever
Buff
Dựa
Gill
Grou
Gap
Hal
Huck
JR
Jen
Jamie
KB
Lượng
Lòng
Lead
Minh
Mard
Mull
MBI
Nar
Nether
Niềm
Pur
Pil
Pasc
Point
Rub
System
TD
Tới
Tinh
Tel
Tấm
Viv
Wales
ao
báu
cum
cav
cúi
dạn
eats
estr
fence
fired
gán
gục
gầy
gốm
kiếp
lúng
lén
mater
merg
nick
rảnh
rùa
tạ
von
vag
xẻ
Đặt
Đào
đắng
đầm
ớt
##mod
##mail
##minder
##core
##corn
##nov
##dad
##dog
##ji
##eu
##vable
##vascular
##km
##horn
##py
##pread
##fur
##fus
##ụn
##NG
thy
chà
chổ
chase
chênh
##eration
nháy
##atan
##anas
##alie
inse
phiện
##inas
##owan
##eting
belly
Thư
Thấy
Thail
nóc
##seus
##amil
stigma
mài
pron
hook
##oding
##oduct
sends
shining
Nhận
Nhiệm
peers
peoples
##umann
suýt
##active
Trắng
Tricer
##hio
compens
compounds
leopard
Inside
perf
perse
##udice
##ocative
clips
##roç
residents
impress
##iflu
##bercul
acoust
contamin
##velt
##ankton
xuôi
deserves
grades
synch
Heather
20s
##ipcar
incom
crank
surgeries
huỳnh
lethal
Shar
endless
Giao
relatives
nevertheless
conscience
slip
slaughter
famine
server
biolumines
centimeter
behalf
projection
regul
confer
ski
submit
passage
headline
presidential
Arm
##version
distances
eastern
depart
##ovo
Const
refuse
Canyon
##awa
swing
rises
##ddy
gót
1991
expectation
innovate
fails
sensation
revolutions
alongside
##idespread
Geoff
dreamed
stays
Cooper
winners
experimenting
risky
1985
feeds
optical
shoe
stressful
supercom
femin
strand
##umbling
visualization
Mean
Baxter
seaf
emergence
hoped
introduction
ecology
detected
orgasm
Elvis
networking
demonstrated
folds
folded
penicill
matched
opposition
Indiana
adapted
adaptation
targeted
analyzed
Lady
crowds
torn
USDA
mammogram
defeat
antibodies
harmony
suspicious
Karen
scarce
Osama
Grant
pouring
Democratic
mỉa
##stonia
observing
Tamiflu
contempl
storms
absorb
deployed
Bonnet
parasite
abundant
Economist
slept
textbooks
cigarette
fungi
dismiss
clarity
anesthesia
recruit
brutal
cathed
philanthropy
weekend
shrink
DARPA
Himalayas
Papua
browser
Bahamas
Gordon
Garden
Office
warrior
neocortex
Guardian
Odysseus
INCRA
Beverly
Gapminder
Netherlands
Pascal
Thailand
Triceratops
##berculosis
synchron
penicillin
71
Bí
Bồ
Biểu
Berg
Cass
Critic
Cynth
Data
EEG
Fi
Fair
Guy
Hor
Hiển
Hẳn
JK
Jere
Jess
Kin
Lanka
MM
Mức
Mub
Nav
PA
Pass
Pier
Ra
Redd
Siêu
Spl
Sadd
Ti
Tỉ
Wel
Wide
Xanh
au
bệ
côi
căm
cattle
dome
fans
gal
hức
los
lãi
rod
rồng
sộ
sấu
tut
tide
tennis
vice
widespread
xì
xổ
xào
đười
điểu
ươi
##mes
##cia
##awn
##oe
##oir
##rist
##êc
##bot
##burn
##bian
##gas
##hou
##hea
##fold
##CO
thỉ
thản
chk
chảo
chéo
##erving
ngâm
##oric
quấn
##alities
##arak
##inable
giầy
##omagn
##owder
##chi
##erey
lips
conj
anecd
Chi
worm
##acon
##oker
deception
heating
alert
alarm
alumin
spat
spong
##ogens
intimate
##asts
Troy
##izational
Information
export
mankind
feat
tuberculosis
##ifically
##eaks
contained
Khối
##quarters
##centure
ngoặt
##icket
Head
Stein
scann
incar
counts
##aki
##ibri
##iances
fluct
bén
##bees
evapor
glow
glorious
trait
consensus
slower
kidding
imagining
serves
patience
metals
Alt
generates
compute
##pson
tỉa
Anne
regulation
##ranny
Nov
presum
18th
distinction
##ortune
scientifically
default
breed
refused
charities
charges
machinery
sixth
Att
caf
excuse
##ophob
radar
constitut
cửu
delic
Real
circul
pleased
operates
chemist
Bloom
picks
approached
cups
Kenyan
iceberg
postc
geography
conceptual
subjective
puberty
neglect
revolutionary
improvements
participating
##cises
kilos
assuming
discussing
shaping
captain
calculating
reflective
continuously
demonstrates
symmet
salary
pencil
strikes
celebrated
Diam
Diff
inventor
Marshall
halls
transported
Gabriel
Malays
displays
Kingdom
philosophers
hypoth
Naomi
Monterey
copies
votes
Accenture
tuned
priorities
heavily
Swedish
1957
accelerate
microblog
Viking
myths
Korean
dishes
poems
oxi
Democracy
Rockett
announce
mỉm
witnessed
gallon
revenues
stealing
premise
dictators
implemented
rubber
mixt
naive
branch
attributes
anticipate
Judy
Modern
Hirsh
utterly
decrease
disruptive
bloody
exploit
renewable
Hunter
Massachusetts
disagree
statistical
irrele
lesbian
enterprise
scheme
yoga
intimacy
Mellon
Ukraine
Casey
horses
LHC
syringe
grammar
bamboo
territory
Caribbean
Probably
tởm
Civil
Hitler
IKEA
Virtual
estrogen
Cynthia
Mubarak
88
AC
Aid
Bare
Burn
BBC
Code
Danny
Ec
Fortunately
Fund
Ger
Gor
H5
History
Jup
Java
Kas
Kap
LG
Mở
Mắt
Mob
Oz
Others
Pent
Pra
Pri
Pav
Rain
Riley
Sống
Toy
Vis
Zet
cm
cúng
cày
cưng
ego
mầu
mant
mộc
mánh
mature
marsh
nic
pit
pix
rậm
sáp
tý
tòi
vầy
wives
western
xáo
xót
xịt
Áo
Ăn
Đời
Đài
đự
đỗi
điếc
##ikes
##mare
##mph
##uation
##coming
##sburgh
##rig
##rill
##rick
##rance
##gl
##hors
##fig
##ơc
##ùn
##MRI
##IP
thorough
nham
trips
ngự
quấy
quarters
##oted
##iser
##isol
giục
##omed
##omics
beam
reb
reun
Thầy
##idering
rac
##igg
##amps
sty
Chen
loads
lobby
ashamed
sock
##esty
##eland
pean
##acious
##umi
debr
proved
probe
bịt
timing
##osevelt
Triều
Truth
legend
Ins
maneu
clitor
interd
disput
Khó
Khác
##ickr
descend
101
goodbye
Stat
Stay
Therefore
preach
scroll
countless
##ubble
deck
decor
##ressing
greatly
Phill
Phys
insert
Giám
evolving
examine
##azo
drama
nguỵ
slope
##ergy
minerals
numer
reck
formation
Association
##pshire
##pera
handy
elabor
regional
processor
##boards
spacecraft
secondary
Indians
pops
Noah
banned
escal
401
valve
addict
educating
youngest
protocol
Brother
guards
##ashy
virut
##brush
Too
filmed
retrof
##rowing
nightmare
equity
Pros
xoa
continents
chimps
digging
Empire
approximately
Molly
5000
freak
2015
existential
ruins
trading
Robb
Cohen
Death
recognizing
chóp
beneficial
critically
telecom
1979
1973
drift
##strong
promised
Comp
achieving
fairness
accountability
1965
screening
Actor
misunder
##works
electromagn
##oshima
nucleus
returns
discussed
employment
Flickr
Barn
acceptance
balanced
princip
catad
ladder
describing
cardiac
penet
##owden
##untary
Glad
matches
addressing
strip
motivate
adaptive
injust
losses
strengths
integrity
notebook
novelty
365
##incl
requirements
cooperative
blew
mammography
expanded
exercises
epidemics
tastes
shelves
cortisol
folk
tickets
appreciation
Hampshire
informal
Roosevelt
cerebr
rigid
dispers
Evelyn
revealed
1918
##forcement
trauma
Jacob
Interest
cockro
beside
bướu
Royal
merit
gestures
tenth
rãnh
coding
subsid
champions
advocate
Ellen
cocaine
Hiroshima
Nicole
enhance
fulfilling
fetus
disappointed
precision
##frontal
buttons
Friedman
Medicine
screaming
IMF
theoretical
tropical
catastrophic
fibers
chronic
checking
perceptions
Vinci
Development
Gayla
oyster
contagious
divorce
asteroid
wonders
anatomy
Buddhist
Machine
steady
horizontal
chamber
fundraising
Education
Illino
MP3
multiply
Similarly
Sergey
Bilbao
Kosovo
Picasso
eBay
antenna
Hospital
Pittsburgh
Rufus
parachute
tsunami
Meanwhile
Malaysia
H5N1
Jupiter
Toyota
Aqu
Biển
Bánh
Cart
Cost
Capt
Dữ
DI
Danh
Find
Gửi
Hem
Hav
Ka
Kend
Las
MO
MW
Mất
Mik
Mann
NI
Night
Pia
Poor
Song
Sách
Save
Suốt
Top
Tạng
Terence
Ung
Von
Verm
Zipcar
aort
arous
bơ
bôi
bầm
dì
ease
erect
gym
hốc
lầy
mating
nail
nasty
pose
pne
piss
powder
rà
uh
vôi
vác
viền
ware
xâu
xắn
Đôn
##uan
##cam
##taining
##aa
##yg
##rant
##rust
##jan
##eer
##wick
##bone
##gi
##gical
##hot
##zzy
##HO
##ER
chải
chiết
chồn
chasing
chén
##erness
nhôm
trớ
trap
trỗi
triễn
##nhe
khống
token
##oter
##alysis
##inators
giun
##utes
##char
revers
haun
##ctar
##uri
rains
##aug
##aught
##iments
##olar
Chop
loans
##oder
abroad
##embers
shed
Soon
nectar
##eling
pecul
orb
##okie
##umen
##umor
mand
##ureka
##ogan
whoever
Trust
True
##abel
worldview
Inf
Invest
expense
unimag
##ocal
##riages
cloth
sometime
happiest
noisy
impulse
overnight
dispar
##ifies
##plex
kinderg
##veland
##icken
##coal
boards
Ngành
goodness
##integr
humility
202
Station
Step
prefrontal
scal
scra
problematic
incub
##ileo
deciding
declining
flesh
crushed
indirect
Phố
Phản
insur
Giữa
thoughtful
glue
playful
playground
consent
consol
considering
slice
Whenever
##othy
duyên
recur
biased
moms
Isa
Ask
Asp
handful
ghim
ghost
responds
##iolet
##iovascular
skys
singers
Quí
couples
politically
labels
globalized
locom
locally
##aware
equals
ordered
viewed
mustard
Beh
reputation
Recent
##quez
neurological
laund
Emmanuel
treaty
facult
Cold
draws
1982
occas
sustained
chói
pulls
posture
horror
angles
Georgia
asth
tụi
1962
unfortun
primates
reporting
thrilled
speeds
sticky
prisoner
sanct
sanitary
characteristic
laboratories
determination
annivers
mirrors
Expl
ethics
optimal
prospect
algae
victory
Talks
inventors
sadness
analyzing
mutation
therapist
magazines
Lesters
attempts
convincing
Linus
concentrate
investigation
Madag
irony
ironic
Galileo
bonob
empowering
empowerment
accelerating
skilled
replacing
shadows
toxins
semi
tweets
skeleton
occupy
inherent
inherently
complain
Help
instincts
encountered
memorial
Riverside
ratings
athletic
surveys
columns
intentions
censorship
correlation
oriented
wiped
administr
repeatedly
thermal
legitimate
Motor
phthalate
punishment
settled
Supreme
Pyth
##opoly
Defense
Klein
propaganda
episode
volcano
Ottoman
unseen
arbitrary
Denisov
apologize
Norwegian
cybercriminals
jungle
intangible
impaired
demographics
Barbara
unpredictable
Gillian
Reddit
aluminum
incarcer
irrelevant
Barefoot
clitoris
cerebral
Illinois
DIY
pneum
peculiar
Around
Bé
Bear
Balk
Cy
Corn
Der
Dàn
Dùng
Eb
Event
Fab
Fortune
Gan
Gam
HC
Hạt
Hud
Hurt
Jar
Kẻ
Kid
Kerry
Kabul
Ly
Lind
Lạt
Luck
Labor
Lisa
Mak
Money
Nô
Ola
Ohio
Pach
Pict
RO
RW
Sở
Sang
Sene
Serv
Sincl
Tử
Til
Text
Work
Wired
Xét
Year
Zero
bành
bàng
báng
bip
dấn
duration
duty
eighth
fame
foster
gật
gains
hid
lou
lap
lately
lẫy
nai
ov
owe
pity
pulses
sập
tột
vá
vũng
việt
viable
xy
Đêm
Đám
đắc
ập
##mi
##mudd
##cow
##oit
##oac
##norm
##nick
##rine
##rne
##jah
##xon
##bab
##gill
##zơ
##zes
##zone
##pers
##function
##CC
##AA
##TO
##ềng
##RC
##RN
thủng
chằng
chord
nhượng
##ndane
##oul
##onie
##esar
##inging
##ington
##anor
##anic
ngước
ngặt
##oren
quáng
##aro
phông
##inid
##inema
giềng
##ayer
rect
ster
stare
stones
stamp
sticking
steak
##imi
##verted
##erend
##olis
Chờ
Chứng
Cheryl
holy
hollow
hobby
goat
##ationally
shore
##ilia
meerk
##elo
heh
hect
##iables
alle
##ogh
##ouri
encyclopedia
Trừ
Trị
Trade
leak
expose
mundane
clim
clicking
##ryn
backed
##ignant
Khí
Khal
blu
adul
advers
grant
bonds
nguyệt
preval
khuấy
##ipe
wrink
brainstorm
Sheryl
socio
##yson
obtained
drilling
##prints
kidn
appet
patri
1500
Doct
parliament
behold
ghề
Anton
regulate
confusing
visiting
subc
headquarters
woo
distinguish
standpoint
Brothers
morph
marks
corrid
charcoal
Cancer
meme
returning
swam
asset
payments
Everywhere
constrained
crap
innovators
##ennett
Amanda
identities
identifying
predator
##appiness
variables
argues
Davis
facil
Harris
supportive
170
Justice
multiverse
reaches
Clonie
##ascar
travels
1983
##ustainable
destruct
colorful
Neumann
barrel
Byrne
texts
nicely
triple
Michoac
snake
slowing
##ieties
##chanical
promising
transformative
empire
##umbled
mobil
1960s
translator
rockets
representing
societal
collaborators
Perry
separation
Hyder
etic
accepting
judges
Darfur
struggled
rolls
magnets
magnitude
Exxon
sectors
contributions
symphony
tricky
cardiovascular
heroic
reminder
conditioning
checklist
automatic
sequences
phenomenal
steam
steep
campaigns
enormously
1949
Minnes
Finan
gifts
broader
Wouldn
CERN
mouths
Baby
copying
##addy
accommod
Morgan
petals
Much
climbed
frequencies
stimulate
harmful
Report
investigate
gravit
prototypes
##ulsion
Hamlet
##onymous
Serra
pregnancy
quietly
Know
Knight
Scottish
polymer
reproduction
aggreg
gallery
Jacques
Sandy
storyteller
Collider
dictator
converted
implanted
Hadron
tortured
Buddha
Clearly
Consider
hurts
tightly
champion
weighs
imperative
biomaterial
accumulate
Mozamb
appealing
satisfying
##vasive
Moscow
tattoos
##imeters
diameter
bloop
atomic
1858
Self
legitim
convenient
gratitude
assessment
Venter
interfaces
biotechnology
annoying
Windows
basketball
Companies
neuroscientist
guerrillas
Hindu
adolescents
Heart
thylacine
Bandura
intervene
soccer
Colorado
Philippines
Faiza
prosecut
velocity
Toraja
Najmudd
Jeremy
Splashy
Welcome
debris
injustice
NIH
kindergarten
unfortunate
anniversary
Madagascar
Eventually
Senegal
Sinclair
Minnesota
Najmuddin
62
73
92
Ax
ABC
Bin
Bion
Ball
Bea
Call
Cult
Dễ
Dod
Dew
Direct
Et
Fem
Fear
Fant
Field
Farm
Hannah
IC
Ko
Kind
Kurd
Low
Lực
Lai
Lock
Maps
Nad
Pi
Pants
Sar
Sac
Sisy
Tức
Tiêu
Tám
Tầm
Tower
Wild
bã
bass
bunk
cẩm
còi
cried
dread
ech
fMRI
greet
gaining
hiên
jokes
kỵ
lion
lanh
mao
mặn
nồi
náo
sẹo
tản
tặc
toss
tưới
tips
vuốt
viếng
wolves
xở
yard
đậy
đắp
Ảnh
##uch
##city
##oxy
##nish
##sch
##ria
##eing
##violet
##kut
##zi
##piece
##ựu
##TS
##In
thẹn
thumbs
##erate
nhai
nhọc
##atra
##atible
trù
trơn
##onies
quẳng
##iscover
phình
##omy
##asant
##icse
##ician
##lear
reo
Thách
##stairs
rabb
##ammed
stir
stagger
##aux
forcing
##olo
##ols
##oline
prô
Chicken
hoc
##adow
##adus
lobe
seam
seals
seaw
shorter
diarr
dilem
##agra
##umental
##istically
deer
##ffin
##andal
alar
##ieu
bịch
##cials
##ourse
suôn
##aph
Trib
##abb
composition
unint
##ocation
##ocracy
##rik
coin
coch
##rovir
noises
impose
##assive
##ounded
newly
Ngươi
genital
realities
preced
precip
##akh
##onsense
surgical
indoor
indoors
invitation
TEDster
##bee
carrot
Giấc
meanings
courts
gluten
bitter
Holl
30s
modified
questioning
cream
monster
recycle
explode
farther
earned
Anim
confined
suburb
Goering
animations
funeral
Quite
webcam
menu
sounded
escap
educators
protests
Allen
hopeful
profitable
filters
retreat
##lessness
equipped
lít
viewing
frontier
reporter
structured
Rebec
Reagan
literal
##iumph
##ussion
approval
Choir
shortly
poorly
2014
dreaming
practically
discl
##ospher
##aptop
17th
joining
Robicse
fights
nearest
Iranians
surviving
Clar
Blog
Blair
sums
WorldW
squid
superior
##luid
pathway
Schw
sneak
promises
measurement
Danish
planting
Paula
Suf
##heads
delivering
emerges
misery
translating
introducing
admire
representatives
Encel
detecting
sweeping
Nigerian
cataly
portray
respected
Luôn
##ogenic
lymph
willingness
##ropolitan
Tele
cardboard
axes
sequencing
stepping
journalism
Malawi
applies
displaced
denied
avoiding
copper
petition
flights
tuna
illnesses
alternatives
documenting
dancer
hostile
##irlwind
attempted
kilometer
gardens
Ess
athlete
float
indicate
coastal
reviewed
cartoonist
pilots
terrific
scarcity
juven
ideals
vibrating
migration
elders
qualified
phrases
acquire
Denmark
CDC
consistently
Commun
assembled
neutr
dinosaur
flexibility
beekeepers
resilient
Langu
tanks
##castle
washed
Collins
Duol
desperate
Missouri
Medical
derived
Cleveland
parasites
households
eradication
flourish
resonance
protocells
temptation
purchase
improvise
sulfur
redefine
ultraviolet
Scientists
nurture
maximum
update
unemployed
Architect
amateur
amateurs
Botsw
battles
doodling
bucket
variations
ingenuity
##nutrition
grabbed
rhet
##cribed
Brenda
Kentucky
conspir
diagnostic
pedestrian
alphabet
endeavor
remittances
arteries
Armstrong
Jessica
thỉu
Zetas
elaborate
Havard
Hyderabad
Mozambique
Sisyph
dilemma
Rebecca
Robicsek
Enceladus
63
Bit
Bàn
Beth
Bagh
Cổ
Cross
DM
Dòng
Dry
End
Eames
Eiff
Estonia
Erik
Got
Gowan
Hack
Hồng
Husse
ID
Istan
Joy
Kw
Kant
Kalu
Lên
Lập
Linda
Mt
Mess
Nấm
NSA
Oops
Rou
Roll
Raj
SI
Sản
Sag
Sug
Test
Tide
Tech
Tulu
Vận
Vua
Wr
astr
cul
cỗi
câm
cues
cement
codes
dấy
drain
dates
doses
eureka
fir
fighters
gồ
gôn
gầm
gosh
hươ
hắc
hèn
jun
kị
kiêu
lố
lộng
lane
má
mum
mast
masters
nang
ròng
rách
sạc
sụt
scoop
sessions
vv
vig
vect
vicious
ín
ầm
##iens
##metic
##uates
##cons
##net
##din
##judice
##eid
##wall
##ưởi
##bro
##pite
##pox
##fare
##fire
##friend
##ML
##US
thình
chổi
chanh
nhẽ
##atin
trỏ
triumph
##esters
##anch
##anol
ngần
ngợp
##otent
##edge
inade
##isan
phu
phao
##iner
giang
##ications
##lla
beats
Thung
##state
họng
stew
stairs
forec
liễu
##iratory
##olph
Chia
Chap
coma
##anting
neo
##uster
##eli
##elf
##acent
orth
##ieber
##cium
##iche
suey
Trưởng
veil
vending
##arded
Inuit
donated
unch
unite
##ittee
arc
diffusion
##roots
resid
##irstream
interrog
intersection
##assy
acres
poets
contest
##plus
blessed
adequ
desires
Nguy
##ecess
Sting
##arks
##onsin
##chnya
induced
owns
invasive
insult
carpet
Giff
basement
afterward
bazơ
lasting
transact
transistor
lẽo
schooling
slum
##issipp
Hoff
Hoạt
developments
numb
bikes
bioch
biologically
Alger
Dolly
tread
careers
entrance
Anna
##gger
confir
confirm
singer
Sheila
energetic
Forget
Saunders
presc
contrad
addressed
morally
modeling
sucks
deficit
Conference
brew
posed
certainty
marriages
remembering
assure
chef
waking
waited
frontal
provocative
marketplace
Cargill
oiled
predators
calcium
freed
protective
personalities
chemotherapy
##grass
Advent
specialist
specialists
1987
recognizes
combinations
Imp
##etheless
hotter
conception
transformations
Having
ballot
Brazilian
Paulo
esteem
periodic
reactor
1968
armor
primal
introduces
##shmi
influences
circulation
employed
employee
wilderness
packaging
starvation
catal
association
##afi
##chester
towns
1948
1940
Mrs
candle
breasts
liberals
mutil
novels
Despite
reconcil
##meister
Caroline
##hyd
symbolic
bleeding
rewarded
recovered
millise
##onomic
Feyn
Janine
motorcy
categor
shuttle
partnerships
Doesn
Polit
##iatric
##holders
queen
settings
Libby
appropriately
frustration
Hundred
migrate
charts
Jesse
microscopic
Slow
acquis
Nano
purely
roofs
minimal
##ARS
Large
Students
Brooks
Venus
nitr
##breaking
obstacle
hypotheses
frogs
embarrassed
Magic
supermassive
Mississipp
benign
rushed
Chechnya
clubs
evaluate
Aviv
heavens
databases
Farmer
crafts
imperfect
rainforests
Budrus
Broadway
Throughout
adoption
Shirley
geeks
rendering
jeans
reefs
receptor
sketch
statistically
unemployment
Sadly
ambiguity
caregivers
Toby
spontaneously
mathematicians
prolifer
comprehensive
guidance
Jamaica
Nazi
Prego
coincidence
survivors
euro
Secretary
temporal
Whitacre
carcin
accompanied
janitor
Suppose
creepy
paragraph
Marduk
Vivian
incomplete
supercomputer
cathedral
Cassini
Saddam
spatial
Altos
Diamond
mixture
Hirshhorn
Kaplan
đựơc
laundry
faculty
Luckily
Financial
seawater
Duolingo
Botswana
Baghdad
Eiffel
Gowanus
Hussein
Istanbul
Kaluza
Sagmeister
inadequ
Mississippi
49
Award
Bị
Bat
Biến
Bond
Birds
Cười
Cao
Cars
Cities
DH
Fly
Game
Germ
Grey
Hạ
Hát
Hills
Happy
Jans
Jobs
Kỷ
Knee
Lur
Live
Lạy
Lunch
Must
Main
NF
Nice
Pas
Pine
Pope
ST
Sit
Sue
Sắp
Sony
Tiên
Town
Tạm
Vill
Vel
Vùng
Vòng
Yah
bú
bent
baker
cob
cinema
dè
dum
dash
eternal
fest
gặm
jury
kar
kèn
lag
lạy
lump
lapse
lemon
mĩ
miên
mường
mock
nòng
nấng
ok
oun
owl
pies
piv
pav
pension
rọi
rạc
rạng
rẩy
ranging
sừng
tứ
turt
wre
wander
xói
Đội
Đợi
đút
Ứng
##lam
##lider
##uated
##ups
##take
##sc
##eor
##wear
##vo
##vance
##bal
##bag
##bus
##bach
##brew
##zsch
##ều
##DR
##OC
thà
thêu
thạc
chore
nhô
nhấm
trút
khờ
##enment
##esis
quo
##otes
apoc
##alone
##arium
##isive
phẫn
##inished
giễu
##omon
tags
##eted
##utu
##utter
rew
Tho
Thanh
Thuốc
Thuyết
haired
##enter
##stal
Android
##idt
##angle
starch
##imedia
praise
Chống
loé
##ods
abalone
cann
sofa
worship
comed
##raw
##uled
##ulously
Nhớ
noticing
allies
heated
maf
##inky
##uns
tender
##iely
bịp
##cile
plu
intend
enab
enforcement
Trinid
thuở
##hib
compr
##venue
buông
##ivia
donation
manages
unity
fever
##acht
##occ
##riet
##feller
coh
##roat
reserves
impressed
startling
##eable
backs
Khủng
##ictions
adren
grim
grams
hump
humble
##ishn
prey
prejudice
offsh
scram
##endo
##ibl
##iba
##avin
decomp
fled
##fts
surplus
##ricane
indul
indigen
Phượng
remembers
reluct
Newcastle
imaginary
learns
cellul
Holy
metric
finishing
reads
##ceptible
editors
grape
Isabel
smallpox
##ahn
demol
buses
projected
regain
confusion
organizational
animated
Force
progression
Quản
Ariely
182
coumar
halfway
culturally
Brun
wonderfully
listed
Canal
chaotic
retired
spends
##getown
##ophys
payment
League
radius
##iki
nonverb
avatar
absurd
Marx
Euro
potent
collagen
surprises
sensit
varieties
performs
psycho
limestone
directed
##borg
Working
Climate
requests
experimentation
releasing
responsibilities
professions
pressing
honored
sustaining
entertaining
Schwar
arena
laying
khuya
dependence
policing
sooner
empir
urgent
Whole
4000
Pauling
Meg
Meet
Georgetown
##lett
wishes
boyfriend
cleaner
progressive
dining
virtues
collaborator
gasoline
acceptable
calculus
uniquely
contributing
##ropri
##rofluid
malnutrition
matching
parked
diagnose
##ersonal
sequenced
Samanth
fashioned
disappears
industrialized
xít
deny
ambition
hammer
visitors
valued
preference
preferences
requirement
backgrounds
chickens
grandmothers
mammal
mortg
midst
epic
routes
Polar
Poland
Police
bonus
Especially
athe
rooted
accelerated
CEOs
sighted
attachment
entrepreneurship
taller
recip
recipes
altogether
negotiation
referred
libraries
Boltz
Greeks
pipe
inherited
shallow
Democrats
disciplines
Typ
suitcase
Command
Milky
praying
Otherwise
McChry
negotiating
melody
astronomy
ubuntu
injection
Republicans
Hany
Humanity
assistance
dangers
exhilar
executive
mysteries
Campaign
coordination
##organic
megawatt
orientation
Freder
whisper
cigarettes
knocked
distracted
sketches
declared
philanthrop
Fifty
Lucy
certific
strains
deceased
summary
immigrants
##worthy
augmented
Midwest
dysfunction
tactics
unstable
fiscal
margins
astronauts
summarize
Pearl
Digital
Nikola
kilograms
configuration
jewelry
Owens
calendar
artifacts
Pranav
exquisite
intricate
swallowed
##roça
seafood
hypothetical
principal
Interestingly
Recently
destructive
staggering
WorldWide
Essentially
hươu
Giffords
Feynman
Trinidad
indigenous
coumarin
Samantha
Boltzmann
McChrystal
650
79
Aires
Airstream
Bờ
Bóng
Bund
CH
Cơn
Cash
Celine
Dây
Dầu
Dấu
Dead
Dyson
Eat
Fore
Fast
Gib
Granny
Gogh
HS
Hou
Hod
Hers
Hob
Hipp
Ing
Ian
JM
JY
Jung
Kan
Kích
Kite
Kath
Lion
Lim
Lâm
Lots
Lagos
Mê
Mã
Mun
Mày
Mead
Miễn
Maur
Mission
Madd
Nông
Nell
Nửa
Nix
Native
Oft
PR
Pay
Pinker
Rel
Ridge
Rocke
Sally
Sach
Seth
Tôn
Tuc
Tues
UE
Use
Vila
Wy
Wisc
Yor
Yug
bos
bần
bru
bumps
cõi
dẫu
dwell
eg
fog
fade
faint
gởi
grip
hunch
kite
las
lined
miệt
nôi
nôn
nặn
ozone
pic
pel
pale
rent
rành
rạch
rings
rụng
sỡ
sải
sảy
sấm
tales
uter
vóc
voy
wages
wallet
zo
ze
Đứng
đê
điềm
đẫm
đấng
##iy
##master
##lim
##can
##cor
##cock
##tr
##tent
##oS
##name
##nels
##rd
##rical
##drop
##vold
##vada
##kar
##bly
##hops
##pit
##pur
##Ar
##AL
##Tunes
##SM
chee
chệch
nhổ
##atus
##ativity
trâu
tract
trọt
troll
##osia
toaster
##enos
##enstein
quiz
inorganic
##inn
##inator
##aya
quotes
##owler
Tham
##idal
races
##vering
##irable
##olia
anom
##ithmetic
Chaz
Chạy
Chev
hoo
hoạn
hooked
##ady
##adition
lover
##terol
abused
canxi
sole
worries
comics
##oulder
Nhiên
Theod
##ersburg
frugal
exit
thereby
##ista
##istine
deple
decept
heel
##ection
justify
spear
spills
##ieval
##alling
themes
bye
##ource
enters
Trăng
thunder
##abi
##abama
compressed
##ivable
cơm
unrel
unequ
fee
feas
##ocate
##ocaust
coined
amen
##pta
overweight
intersect
##eaking
backup
##ensively
##berto
Khad
blues
##ankind
xuẩn
##ictional
nguyền
##intu
##economic
Stories
Stalin
precon
scatter
writes
county
##ilever
flock
thoa
cáu
huh
humanities
Shack
##bey
lazy
basics
glory
gloves
traff
consists
founding
##issance
developer
attor
attraction
metan
Alban
Alabama
Alberto
lightning
economically
Uncle
Myhr
##psy
handling
skip
suppress
companion
12th
##aution
passport
popping
Quix
bananas
40s
rediscover
addicted
reasonably
Brent
refined
watches
##bright
##artheid
Tox
ướp
pasted
Prime
successes
programmed
dragged
constitu
cracked
planetary
repet
##annica
##ennium
filming
collision
illiter
landf
calo
poorer
Taj
rupe
Harvey
175
##borough
presenting
Spider
##yloid
survives
##ipper
Club
cooler
encrypt
Dev
Nevada
producer
Rights
polls
traditionally
geographic
pathology
lays
1976
strands
McM
angels
Eden
Mechanical
##liers
Such
medications
Britannica
accountable
Warner
##rolled
bacterium
fluores
admitted
nuclei
multipl
Barry
cookies
packaged
Gupta
reflecting
turb
Luận
mirac
Juliet
launching
##igruten
expressive
checked
laughter
urbanization
6000
historian
inventions
drinks
verge
Buenos
sadly
analyst
fingert
preventable
Finance
applause
Sunni
crowded
blocked
orders
manufacture
demanding
paradise
Boys
efficiently
Hansen
habitats
vegetarian
frequent
installations
appreciated
##ventional
battlefield
Burma
advertis
strangely
floors
digitally
reviews
explorers
cosmos
frustrating
recipr
microbial
conclusions
grassroots
apparent
Usually
Bolt
minimize
Laramie
hãnh
occupation
poured
ignorant
ringing
explanations
elevated
Girls
Skid
stereo
commentary
circuitry
Duke
Ronald
Jordans
transferred
kicked
evaluation
murdered
rebuilding
Control
Randolph
Snow
Vietnamese
Petersburg
attribute
eradicate
##rolux
flourishing
satisfy
Rossy
scholar
pioneers
Hasan
fulfill
crystal
crystall
wipe
Alberta
intrigued
Matthieu
uploaded
Between
favela
relaxed
convenience
Syrian
747
weekends
routinely
RSW
emphasis
Wii
commodities
biotech
skeptical
kiêm
outdoor
deliberate
triangle
ambiguous
degraded
wrestling
Company
Utah
Tobago
disconnected
McGon
mathematician
acknowledged
Maslow
cultivate
potatoes
Treating
scholarship
trailer
explicitly
immortality
analytics
WikiL
Eleanor
olive
revelation
Sophia
Ultimately
articulate
Movement
manufacturers
DDT
lexic
mịn
Beatles
unnecess
sympathy
Achilles
boreal
pesticides
cumulative
nickname
pronoun
loser
electromagnetic
Gladwell
Costa
MOOC
Chopin
pneumonia
Derart
Hudson
Hurtigruten
Jarrett
diarrhea
Schwartz
Bitco
reconciliation
nitrogen
inadequate
mafia
offshore
Nixon
Rockefeller
Tucson
Tuesday
Wisconsin
Myhrvold
61
AI
Aung
Azer
Bán
Brain
Fur
Gould
Hab
Honey
IV
Iron
Ign
JE
Jur
Kiểm
LA
Land
Later
Lower
Laptop
Mời
Made
Mister
Nation
Nine
Nap
O2
Por
Pick
Ren
Rah
Rup
Rumi
Sin
Tệ
TG
Tỷ
Tiểu
TNC
Tijuana
Tumor
Ver
Wars
Xếp
XDR
Zach
bục
bạt
bail
bump
cables
dẫm
font
fault
gy
gò
ger
gáy
gri
gào
hind
horn
hilar
kin
kang
lẩn
mau
mội
măng
mút
mash
nonsense
ow
pul
pac
pumps
rưởi
sút
sco
tể
tú
tilt
wiring
xông
yum
Đạt
Ẩn
Ừm
##iphan
##mal
##min
##lus
##tw
##oa
##oving
##ns
##yll
##eons
##wid
##kim
##kers
##bery
##bai
##boy
##phing
##PL
##SE
##BS
theft
cher
chắt
chew
nhún
##atural
##atient
##osoph
##oni
ngách
##orse
##oria
quỳ
quật
##otal
##otive
##alt
inqu
inert
phai
##ito
##itations
giòn
tagged
bending
Thức
Thập
##uyển
nghênh
stagn
stole
dod
##cending
Chế
Chand
##advant
loà
##odka
abd
abnorm
cane
seize
shred
wore
##race
##raged
friction
fraud
##acities
orphan
heck
##iah
outl
##inkering
##unky
sabb
##ogle
timber
timeline
plankton
suits
envy
Trọng
Tradition
compact
##anson
embody
expands
##ivals
donate
donations
unth
fees
##ached
##occo
##ocamp
artery
arithmetic
##epr
anytime
noble
resolved
##ptic
disadvant
##ounding
backward
firsthand
acute
contra
contents
Khái
Khách
moist
blob
10th
gran
Hebrew
##ecies
realizes
commands
scrib
scaling
inclusive
smugg
##lection
##ibles
thoi
##weil
Shake
Shaw
##beat
inspect
evident
##azar
slaver
slogan
kidneys
communal
communist
extensive
recreate
biode
15th
finite
trek
editing
param
paralysis
grabs
exploded
Unlike
dement
entities
camels
subsequ
submar
secondly
##cerpt
popped
Forbes
Noel
Arts
Joan
fuzzy
autobi
banana
photon
reduces
curator
mattered
Conf
environmentally
proport
poses
effectiveness
testim
publication
Orkut
retain
individually
issued
exclud
cheated
innate
followers
Lev
programmer
viewers
focal
##ractable
terawatt
providers
delivers
specim
Engine
bíp
##enna
bottlen
landm
identification
predatory
##mingham
duỗi
directors
breakdown
commonly
operator
Robin
legally
obscure
eyebr
worthwhile
affection
microc
civilians
1978
1974
snaps
snakes
McL
developmental
volumes
voluntary
beds
Computer
divine
Instagram
Suu
crosses
Palin
meantime
Jeh
tracked
detectors
bankers
Agency
nanos
Barbie
Hyper
Philips
tribute
associations
expressing
##ependence
Major
officers
axít
surroundings
1947
Buồn
liberty
commercials
##iotic
independently
reconst
reconnect
reconcile
mosque
##mmm
Torosaurus
metaphors
Morocco
Turbo
embraced
Silver
transmitted
corporation
concentrations
Humans
titles
accidentally
counterp
pollutants
indicators
replied
Huh
ideological
vibrant
manipulation
Millennium
rigorous
claimed
pipes
Blackberry
adjacent
harvesting
premature
McCain
Kyi
mimics
Kuwa
eliminating
pillars
Bernard
Republican
Snowden
loaded
Nathaniel
flooding
districts
airports
assistant
scenarios
pioneer
corresponds
crystals
Shirky
Poet
whiskey
fungus
Ninety
sulfide
persistent
receptors
prevail
Honor
disagre
Uhm
Electrolux
certified
##proof
phthalates
pirate
guerrilla
spontaneous
macro
manifest
drowning
Learning
physiology
Titanic
overlap
immortal
Planet
Bowl
outrageous
hippocamp
inexp
stabilize
forbid
superstar
seasons
prioritize
squeeze
jacket
##munications
disgusting
departments
scanned
marshm
cockroach
Captain
aorta
unimaginable
##erendip
subconscious
gravitational
Language
conspiracy
Sisyphus
catalog
Luria
unequal
Derartu
Azerbai
sabbatical
slavery
Azerbaijan
Ald
Austr
Bj
Bog
Bai
Bue
Cat
Cis
Cir
Dist
Dak
Dror
Dhar
Either
Fle
Fam
Form
Fah
Fold
Ferr
Fowler
GC
Gri
Ground
Gell
Hos
Hur
Hiến
Hand
Hands
Hatz
HAL
Ix
IT
JO
Jor
Jet
Kur
Kros
KIP
Liz
Lea
Lick
Lợi
Liber
Local
MA
Mang
Màn
Mind
Mee
Master
Millions
Making
MAS
Mitra
NR
Near
Opp
Porter
RA
Rest
Ragu
SM
Sever
Suther
TE
Umar
Vas
Vik
Vald
Vui
Wu
Wong
Wag
WHO
Zur
Zambia
awards
bô
bands
biếng
dorm
dốt
dental
dude
dazz
fictional
gân
gru
hời
hint
hats
hills
iTunes
jur
lith
lakes
lẫm
lighter
mun
mocking
nọc
pa
por
pest
pist
pup
paj
rán
rows
sie
serm
sane
serendip
văng
vãn
vascular
wets
xén
Đánh
đũa
ảm
##ioc
##iologist
##lif
##lusion
##olyn
##nis
##yk
##sor
##rared
##dale
##jad
##ean
##vald
##gel
##gate
##hak
##hasa
##zee
##zka
##fr
##Card
##ôc
##Sh
##DF
##ợc
thục
chen
chunk
chửng
##erin
nhì
nhảm
##aton
##atics
trunk
##oslav
ngửa
##otub
apartheid
##isch
##iscipl
##reation
##itiba
##inates
##ayan
##icians
##eters
##etto
##uton
beans
Thể
Tháp
haz
##lder
##stock
Andes
##uru
##anged
##igal
##iginal
choles
stated
stakes
storing
stocks
##opian
##opathy
lip
lied
##olit
##olulu
priest
Chức
Chọn
Chip
hood
loops
##odops
canopy
##emia
ash
soy
shirts
worn
##ilocks
##rand
##rack
##ulates
Nhiếp
##elle
exceed
excerpt
##ights
delete
alge
alpha
outbreak
spher
spoo
spores
saves
plum
plung
sued
composed
##ousands
pervasive
luẩn
union
##ilding
##achi
##ocratic
##oczka
arose
##gender
coher
amyloid
resort
resign
reserv
reserve
partially
intergal
discon
disruption
##sels
##ensed
##ello
##ellers
acre
pond
Khmer
underp
Thatcher
103
booth
humankind
##ials
##ishna
##arko
scope
scaled
brow
brick
bricks
incon
incomes
smiles
##xtin
##aku
##erts
decode
flap
flipping
crust
chuồng
Shredd
inviting
simulate
removing
Giê
lasts
relie
transd
transgender
glowing
vụng
instances
##atherine
extro
##althy
ministers
biof
biosphere
Alain
Doanh
medal
strat
strokes
formats
parabol
##atively
behaving
generator
Unilever
##oyd
possess
sưng
respiratory
##ggy
accused
Index
kén
Arn
181
oppon
Bring
Allan
AlloS
signing
guilt
airline
defines
Conc
virgin
refers
charism
restoration
Ornish
marking
Atkins
files
freeway
exclusive
cheer
governmental
continually
payoff
dragging
constitution
crawl
incremental
focuses
reply
provider
Engel
Marie
Carolyn
##annes
collar
buys
literary
feared
sensible
Emb
##itutes
Mohamed
calor
templ
variability
##ucker
limitation
Europeans
statue
##borazo
descript
Adm
arrog
Debor
2100
1981
inspir
Israelis
relevance
pressures
consideration
firef
smartest
superpower
posts
pollination
Irag
##held
1972
1977
slowed
centered
##sonian
predicting
availability
sonic
urgency
richness
Edison
functionality
##esha
receives
revolutionize
1969
1963
searches
Looking
crises
miscon
thrilling
##shine
Ent
rainfall
Angela
pinpoint
Percy
circular
methodology
Richards
cooked
cookie
supposedly
balcon
balancing
##zeiro
susceptible
Guess
distribute
sync
Austin
citizenship
ethanol
speeches
Greenville
malware
Simpson
automated
celebration
celebrating
irres
inventing
fatty
selective
steer
steering
husbands
Alexis
liberation
Australian
revealing
branded
roughness
gifted
Okina
Resnick
burns
joyful
##cellular
forgiveness
Jackie
Patel
Patrick
Latinh
copied
Monkey
bulbs
terrorist
##ycles
Fez
simplistic
hello
investigating
Mandarin
##ulsive
1953
pursuing
maintaining
digitize
deserts
extracted
explorer
Karachi
cosmology
##zanne
reinfor
references
Portugal
Goldilocks
Usain
utility
flatten
uyên
adventures
comparable
reproductive
billboard
ancestor
criticized
criticism
prayer
sandwiches
Airport
desktop
Victorian
##marks
devastated
memorable
distinctive
Kuz
eliminated
Curitiba
cluster
Annie
regenerative
Popcorn
Lakshmi
pharmac
passengers
Solar
Hungarian
##atrice
depths
executed
Evans
anticipated
eradicated
iPods
hatred
satisfied
Budap
Mountain
Mountains
delighted
psychiatric
Kamen
Lauren
veteran
Marcus
legisl
Copernican
Earle
Durga
Holocaust
UNIC
holiday
oblig
obliv
Senate
nurturing
breakthroughs
Cruzeiro
Honolulu
tropics
maximize
transcendence
CSF
Rodrig
gangs
involvement
insisted
publisher
arrangement
IPCC
commodity
arrows
stimulus
Valent
checks
registered
Legos
butterflies
##uhan
Vegas
illumination
promoting
improb
strictly
Creative
Rhode
Chimborazo
introverts
Esther
Nicolas
fragmented
ninth
substantial
Daily
intrinsic
horrific
millennia
lifelike
Yellowstone
ATM
Palextin
overlooked
Buffett
Pilot
vagina
##amiliar
conferences
cafeter
postcards
Different
Visual
mantra
maneuver
Robbins
Kaaba
gymn
asthma
Makoko
sterile
bluepr
juvenile
rhetoric
Message
Sugata
adequate
Hoffman
motorcycle
Hundreds
Germans
Sachs
Yugoslav
lasers
McGonigal
WikiLeaks
dementia
Kuwait
hippocampus
Austria
Drori
Krosoczka
KIPP
Licklider
Sutherland
Valdez
cholesterol
algebra
intergalactic
Shreddies
AlloSphere
UNICEF
51
Az
Ail
Aich
Bord
Cut
Cánh
Certain
Curt
Crim
DC
Dạ
DU
Dừng
Drew
Delt
Days
Ebert
Effect
FI
Foster
Foot
Gross
Hỏi
Hạnh
Hero
Hunt
Iow
JS
Job
Jihad
Ki
Koh
Lựa
Mem
Match
Malth
Marth
Mills
Nir
Nancy
OM
Occ
Pink
Pall
Pack
Patt
Pto
Pimp
PET
Ran
Ric
Ret
Rica
Rita
SP
SK
Ses
Side
Spr
Saf
Sending
TM
Tul
Vợ
Vẻ
Viễn
Want
Woman
bot
cật
cội
cease
cops
dặn
dye
dumped
daun
fission
gau
gad
gặt
goss
hót
hiring
hằn
lent
lầu
lốc
mour
mates
nung
náu
naught
pear
pess
pets
packing
rệ
rộ
ripp
ripped
rụi
sên
sục
sảo
sought
sụn
tấu
túp
tense
toug
vow
váng
wi
zip
zoo
zoning
út
Độc
đấm
##iology
##mel
##lah
##lishing
##upp
##uci
##ciss
##cats
##tin
##ocial
##national
##sa
##sight
##run
##rists
##ridge
##wling
##bour
##giving
##pot
##CK
##PI
##TH
##Hz
##ỏm
##EP
##ẵng
thê
thiển
chững
chiêu
nhút
##oufl
##esy
##anc
ngơ
ngó
ngất
ngấm
##ority
##alo
oftent
##arse
##isure
phồn
##rez
##inner
giở
giông
##omer
##omic
##asma
##icy
##llip
##owatt
##uting
##uters
reuse
Thurs
##idel
##idental
raft
racial
##igers
stain
stab
stumbled
##opran
livel
prag
prone
Chồng
Chụp
Change
Chuyển
##thood
hoán
hoóc
##adema
loang
loãng
logging
##emost
asphal
##eard
sober
Soc
##ilion
##ilibri
mega
exile
diary
knit
outward
spiders
bịa
khoả
khoanh
khoát
upgrade
sap
thinker
plaster
plaque
acted
Whirlwind
intest
intractable
##apa
enrich
##astically
theirs
Tri
Triển
##izable
compress
leisure
agrees
bund
unple
united
unaware
##ripp
tuôn
clash
clapping
cloned
##ounters
##roves
noi
overd
##assador
dissect
disabilities
rightly
##ignific
acry
Khám
kindly
undercover
##icky
blows
blobs
grind
boiling
##ucer
1920
Heh
viêc
##ishman
downstairs
##formed
scour
scare
wrist
##xtap
##avors
hears
crow
croc
crude
cricket
humane
humanoid
Phiên
Short
belt
endow
creators
carbo
carbs
Giữ
Given
evolves
meanwhile
lasted
exams
relational
relativity
##prop
sling
slate
slaves
founders
bites
appoint
cellphone
keen
10000
questioned
monk
monument
Along
Already
Allend
medieval
parap
Univers
projector
elites
Anonymous
countryside
regimes
larv
Going
infrared
accord
##ographing
distorted
coup
coupled
eyew
histories
deter
proton
protesters
marked
paints
restor
##apses
posit
##mostat
Orwell
workshop
equator
equilibri
freeze
Program
toolbox
Frans
11th
collections
Loan
programm
draft
craving
funders
##ikh
provin
antid
audition
auditor
dealt
digest
missions
16th
windmill
Somehow
Moi
shortage
Sevent
varied
traded
practiced
statements
sourced
178
joins
##making
Robbie
beginnings
footprints
multit
carbonate
Claus
arrives
##asca
##cuse
conviction
responsive
cyc
cymat
considerably
severely
pollinators
civilian
telephones
sniff
brakes
emailed
guesses
prompt
trusting
competitors
Comput
Haidt
receiver
fairy
graders
Smart
cleaned
secretly
unfinished
participated
neighboring
Energy
##ofi
collaborating
financially
closet
sweats
Westerners
sushi
suspected
calculators
turbul
Adams
##fficient
respects
Exp
Exact
Excuse
Pakistani
##igrade
optimize
heroin
spectr
unlock
standardized
officially
spaceship
surrounds
220
hallway
nhoi
nhoáng
verbs
Ahmad
skyd
instrumental
clicks
Norse
vastly
Darwinian
Finland
atmospher
##rified
Didn
Against
advantages
tremendously
tours
Morning
chicks
bullets
Prov
tunnels
midnight
epiphan
quantitative
bombed
illustration
apprent
investigative
ironically
conductor
counterintu
implication
transformational
academics
juxtap
vibrate
vibrations
LEDs
Viagra
hunter
elder
unsustainable
apparatus
semester
occupied
##waves
assigned
Believe
instinctively
Siri
thermostat
unhe
negotiations
stockp
astronomical
fertility
wingsuit
##keeper
intentional
Hillary
vertically
conservatives
guaranteed
Player
Forty
hemispher
fooled
resonate
synthesis
synthesize
council
firmly
nutrient
anthropology
anthropologist
diamond
enzymes
sinister
Igbo
aesthetics
Quyển
Winter
kẽm
persuade
Hunting
rendered
fertilizer
cubic
ngừơi
prevented
nonviolence
Erin
settlement
updated
toothbrush
Taiwan
cabinet
deliberately
triangles
broadcasting
neuroscientists
Vincent
Awesome
Gallery
thylacines
restricted
Birmingham
Geneva
imprison
Ferris
survivor
Irắc
inferior
uncont
bureaucratic
bounce
##abyte
intrinsically
incorporate
Eighty
Hopefully
schedule
denser
implants
underestimate
undergraduate
suburbs
Arabs
persever
Bergen
racism
Compassion
warehouse
Balkans
Laboratory
louder
socioeconomic
Michoacán
cochlear
Holland
catalyst
Rouge
stewards
Algeria
treadmill
milliseconds
acquisition
Yahoo
ounce
enabling
cellulose
Bruno
sensitivity
exhilarating
Often
boson
fingertips
hilarious
unthink
McLuhan
marshmallow
Zurich
##isciplinary
inspirational
Budapest
improbable
Ailen
Aicha
Delta
Iowa
Malthus
Martha
Ptole
pessim
tougher
oftentimes
Thursday
unpleasant
Allende
equilibrium
cymatics
counterintuitive
03
2D
Bess
Bose
Bảng
Bage
Bass
Bapt
Botton
Cave
Cup
Cesar
Dần
Dum
Dall
Dog
Dance
Diver
Ep
Equ
Ecu
Eddy
FE
Fas
Fest
Fild
Fern
Fey
Gì
Gut
Gian
G20
Gambia
Hồ
Hang
Hart
Hutch
Hubble
IN
Jaw
Ker
Kat
Kông
Kool
Kerm
LM
Ler
Lars
Locke
Loren
Luton
Ms
Mam
Masters
Maine
Nổ
Nina
Nino
Oper
Pam
PSA
Pesa
Rail
RCA
Sỹ
Sard
Search
Sẵn
Sala
Saint
SARS
Tái
Tội
Tab
Tree
Tốc
Tak
Tàu
Tuyên
Terry
Tụi
UNA
Vây
Viên
Vac
Vượt
Wool
Woff
Xa
Yay
Yếu
ais
aims
bid
cel
cab
cater
cush
casc
cợt
dép
dunes
gaga
hỉnh
hints
ib
lình
lóng
latter
lbs
lining
mites
nại
ness
nạt
nách
nấp
núm
ply
pore
rợ
râm
rắm
rẫy
si
sành
sủa
sopran
vet
vấp
vệt
vague
wounds
xao
yelling
Đề
Đủ
Đang
Đấu
Đốc
đả
đong
đùi
##ihood
##cli
##tan
##trovir
##aes
##nity
##nals
##nets
##rans
##eau
##vet
##vity
##vory
##xin
##ku
##kina
##kley
##kheim
##bart
##bird
##greg
##hic
##pse
##fers
##St
##SS
##Script
##ẩng
##LS
##LU
##ỡi
thầu
thét
thuyên
thera
chậu
chộp
##atile
trou
##osion
##onal
tops
##ench
##enza
##enburg
ngời
##orp
##orfer
quir
apt
##aler
##aline
##aren
##isel
##icides
quoted
whip
weaker
##chw
reim
Thousands
##ento
##sea
##semble
##stru
##urman
##angel
##igue
##igman
##amer
stink
Vàng
forage
forens
forese
forged
liking
livest
wasting
##olate
anch
prince
Chứ
Challeng
Chìa
Chín
lovers
goats
shade
shipped
##ilized
##anti
##antom
##ulator
##ulgar
Nhanh
Nhiệt
notions
fridge
##agne
##uman
dele
dengue
hex
proving
##ected
outwe
##unn
teo
spam
spite
spouse
spike
khoé
plotted
intol
sug
##asting
veins
compost
##ousy
leaks
##aipur
tiniest
exposing
##ivation
luồn
unm
##uda
##aching
ammon
residential
imposed
imposing
partial
vịn
overt
disk
disintegr
backp
##ateral
ponds
idiot
undert
underway
##rubs
Heads
Heidi
humid
commons
commander
commute
preview
##iper
##ipotent
scandal
incomp
smashed
royal
##ibi
flick
flipped
flaws
crater
crunch
##fty
surre
surrog
hug
wells
systemic
lett
##iretrovir
Phim
Phóng
Sheph
invasion
enduring
endlessly
remed
##redit
Giac
transnational
powerless
##azine
polite
slave
slices
slash
slime
##ilyn
##ermat
##othe
Hold
develops
modify
creations
attacking
attended
serial
servers
##peut
placebo
fond
Alisa
##airy
##aires
planner
Doyle
strive
edited
gravel
entity
handwr
nghiã
singular
##boat
accidental
##rann
##ierce
warmer
warfare
monthly
preserving
roommate
governed
184
183
adds
voic
depict
Conn
refine
painter
memes
marries
Atala
killings
filed
condem
##retched
assured
assault
waist
waving
milimet
##uprof
reporters
thirdly
Reed
nonetheless
Marian
Marilyn
listener
neurologic
antiretrovir
auditory
##ennial
typed
1600
grandd
Namib
##appropri
treaties
extraction
protects
bombers
performer
performances
dug
ruin
Harbor
Harold
Harriet
discou
supports
Cookie
extremists
grounded
Manju
Adv
Yesterday
essay
Brah
experimenter
meaningless
Neither
suggestions
firefly
superf
superher
Impro
Donna
Schul
snap
ruled
Parad
Parik
predictive
similarly
sells
definitions
balloons
Edwards
Swapt
Suzanne
activism
institute
passionately
mechanically
exceptional
miscar
translates
Palmer
progressively
Enron
fixing
virtuous
assumes
Agar
Barcel
sweep
determining
starving
respectful
Tomorrow
lyrics
randomness
salmon
Frankie
achievements
breadwin
PMTC
230
taxp
controller
interviewing
strips
stripped
##eddy
selectively
campaigning
Dereck
graduates
Minority
Smithsonian
Russians
tensions
Sunitha
Nauy
Artist
Babbage
homosexual
Monster
Monica
Torvald
Boeing
##ija
cheaply
USB
bleed
rewarding
epit
epoxy
attempting
##urdo
##urdy
vegetation
bombing
Tonya
defending
Feki
##criptions
cognitively
Egyptians
succeeding
neurosur
7000
Madrid
conductive
Eskim
1954
Burkina
belonging
streaming
towers
Library
peaks
migrant
mythology
displayed
containers
Slick
manipulated
Portland
Golden
Goldman
Milly
Walt
Walter
dotcom
Knowing
Particip
rigged
heights
seminal
establishing
inherit
replicating
complained
gratefulness
Kirk
gallons
navigation
Milk
Milan
dominance
Temple
Jenny
##cheri
rejection
Maggie
shells
converting
permanently
stretched
Janeiro
Tamil
Tamara
intuitively
Berners
collapses
rubble
##hhh
1926
Radcli
pediatric
Randi
initiatives
Antarctic
Merced
explosions
coded
Author
Diane
Evil
Miranda
chapters
Beijerin
anticipation
puppets
Natalie
gelatin
Hasbro
ARES
diesel
nuanced
##otterdam
glaciers
psychiatrist
##gendorfer
Better
Betty
helicopters
Durkheim
Niels
Seligman
UNES
immunity
Turkish
fertilizers
greed
gratification
prevents
chimpanzee
catastrophe
Fifteen
Motors
composer
attendance
enterprises
ESP
interrupted
skeptic
Dracore
Hotmail
nerdy
outdated
Oldenburg
intimid
wrestle
gigantic
contagion
asteroids
enthusiastic
enthusiasm
BMW
guidelines
Jamaican
physiological
1800s
reinventing
euros
blended
fischeri
marginal
Meyerowitz
shouting
substantially
Film
soda
orangutan
Dietrich
lifelong
Tweet
ferment
underestim
Johannes
fishermen
submitted
casualties
exponentially
resurrect
Friend
Neuros
Ruby
maternal
bioluminescent
Kinsey
Pierre
tutor
DemocracyOS
Ecosia
JavaScript
##rillo
thoroughly
reunion
peanut
Phillips
Prospera
telecommunications
erectus
orbiting
Aspen
locomotion
Behind
bonobo
Python
Fabian
Picture
ROV
Service
bipolar
corridors
Morgana
biomaterials
Axis
Fields
Kurdistan
echo
alarming
suburbia
Clarke
Sufi
firms
vector
biochem
prescription
wreck
reluctant
Meggendorfer
Houston
picnic
Khadija
attorney
Quixote
encrypted
McMurdo
MOOCs
nanoscale
reconstruction
NRK
lithium
browse
transducer
Engelbart
descriptions
Kuznets
oblivious
Curtis
OMG
daunting
gossip
rệp
livelihood
acrylic
larvae
antidote
auditorium
multitasking
Exactly
unhealthy
unthinkable
Bageye
Fildes
Salaam
ibuprof
therapeut
reimagine
livestock
ammonia
Barcelona
PMTCT
Torvalds
Radcliffe
Beijerinck
UNESCO
Dracorex
ibuprofen
3G
Action
Ages
BC
Bed
Bren
Bio
Bene
BAS
Bulgar
Cú
Cas
Cauc
Coust
Cựu
DR
Dow
Dear
Dạng
EL
Eco
Easter
Erez
Fis
Gever
Gray
Horn
Jam
Jared
Kem
Kick
Karm
Kobe
LB
Lễ
Lem
Living
Món
Magn
Mistry
Mmm
NY
Nạn
Nok
Nash
PTS
Quyết
Rid
Raise
Sông
Set
São
Stern
Sivers
Sounds
SOL
SEA
Tus
Table
Talking
Turing
Um
Ub
Vai
Vườn
Wire
aah
bung
bog
bri
bumble
bibl
cỏi
cue
cồng
cặn
dế
dow
dạt
dằn
dairy
fitting
fills
fierce
geck
gaze
hust
hóm
hatch
hives
harsh
jars
lư
lở
mm
mans
mồm
nể
nod
ome
qúi
rou
rầu
rầm
rider
sar
sings
tire
tipping
vạt
vượn
vapor
wage
www
zeros
Án
Đảo
đễ
đần
đước
ươm
##mia
##math
##ls
##lie
##lap
##lass
##lov
##lera
##laug
##uble
##cm
##curity
##tion
##aic
##yu
##sen
##rob
##du
##dy
##dney
##jin
##eb
##western
##wright
##bi
##gens
##gement
##han
##zweil
##frog
##TA
##Hub
##Sec
##BT
##ém
##II
##nger
throat
chập
chánh
chèo
chèn
chót
##atis
##atông
trơ
trướng
trump
##oulli
##onchi
khánh
tomb
##enet
##enance
ngà
ngõ
ngóc
ngòi
ngợm
ngẩng
##orable
##orio
quar
quart
quặng
aph
apes
##alan
##arity
inability
##isd
phiệt
##inia
##inance
##inative
##initely
##asis
##icke
##leum
##etter
##chest
##changing
reign
rebel
Though
##stick
##anges
rage
ramp
cholera
stam
foraging
##opon
##opes
##oping
##oplin
##oprene
##opedic
##opolit
mào
conform
##olith
prizes
Chung
Chuyên
##ader
##adder
loanh
##terior
google
semen
sealed
##ems
shredd
whatnot
##ilage
Nhu
Nhịp
##elve
##elah
dials
##acer
##ateau
maj
knives
proves
alleg
outp
outf
##unks
teap
spine
spotted
spikes
bypr
plut
##ghar
##apting
##oseconds
enfor
Trình
compli
##ousing
levers
leaked
eman
Innov
expo
unac
unified
##udge
##ocar
##ndering
whereby
twin
coins
needing
needles
##roids
impulses
disin
disson
disprop
##ellar
betting
##ulture
moons
##play
bliss
adapting
grief
boot
##uccess
differentiate
##intosh
##phery
##phua
Store
##ordial
preh
offensive
brig
incons
##xty
##aka
##akery
persons
decon
decisive
flown
indef
technologists
invaded
womb
endurance
insignific
carr
Giúp
baseline
##tein
relies
suyễn
drople
instability
mighty
poles
sliced
imaginations
Hole
moderate
monsters
fours
biases
metrics
metropolitan
##otechnology
waterfall
lightweight
##aleen
graves
demoral
##perial
entit
camel
engulf
##ggie
confuse
openly
subd
animate
solves
headache
preservation
Quest
##idding
valves
curtain
deterg
Brin
guest
stuffed
corals
reflex
restored
restoring
proposing
devised
maratông
terminal
swap
costly
workshops
excuses
##pective
##ophony
pasting
Prog
Product
payload
wax
collects
secre
resulted
Leh
frontiers
Beyond
reperto
microw
##iker
##iked
cleared
Reich
Nghi
aviation
Mayan
Carroça
neurot
##ometers
##annon
measurable
filmmakers
missile
##ltan
Choice
journals
shortcut
calib
violation
violated
extracellular
freaking
psychotic
limbs
ruộng
internationally
embark
embroid
presentations
multid
multimedia
##ylum
grounds
groundbreaking
photographic
Close
Claes
arriving
Block
encoded
Deb
consumes
destined
optic
##tedly
shook
combining
bluegrass
textile
smartphones
concussion
240
Imperial
##ynthetic
pollinate
microp
geographical
##uga
guessed
##look
promotion
predicts
peacekeepers
transforms
vaccinated
erosion
touches
periphery
Iraqi
urges
ballast
visuals
tablet
appearing
hangs
dividing
Khoảnh
visionary
Sughar
searched
cleaners
unfamiliar
cartilage
primordial
mounted
damaging
thrust
thriving
electrode
speeding
Enter
Enri
Enlight
rainbow
kilowatt
pushes
influenza
nanotub
efficacy
congrat
##aidan
Anything
publishers
slightest
calculator
portable
synapses
continuum
Tommy
sampling
demonstrating
throws
##backs
Techn
Frankenstein
##ulnerability
##versely
##unta
Glenn
Simple
automotive
tradeoff
fragr
Berry
iPhones
motivations
motivates
verse
lawsuit
customization
pleasures
##iosis
integrating
Oklah
broadly
fueled
Desert
Patent
puzzling
reconfig
crux
cruise
homem
demanded
hairs
tourist
Books
USC
bulk
contacts
contacted
wearable
repeating
toughest
shelters
##obalt
Thanksgiving
wirelessly
simplify
Madison
Discover
prototyping
fellows
adopting
Seriously
gridlock
digitized
acceleration
Libăng
scarf
Macintosh
analogies
gaming
gamers
cereal
contracts
souls
channelrh
##ausible
Islamist
encourages
Bolivia
illeg
Fourth
skelet
punct
rotating
Jacobs
Sandberg
anonymity
madness
flags
devastation
whistling
rehears
triggers
dissent
Crick
Bernoulli
refrigerators
Solomon
goro
guts
leapfrog
yields
tolerant
tolerate
floods
crashes
Autom
Autonom
Tahltan
venom
concerts
seduction
foolish
decreased
irrigation
slee
correlated
sprint
geek
renewables
Laura
unbelievably
##rrrr
crackers
limbic
holistic
obligation
psychopaths
psychopathic
railroad
widow
##guard
CSI
tearing
incidentally
arranged
arrangements
accomplishment
emphasize
interfere
miniature
PostSec
doodle
sponsored
perceptual
caregiver
Teacher
Reader
prophet
Eliot
Ukrain
oysters
Gallup
droughts
wondrous
drowned
Government
genuinely
aerial
bribes
troubling
Recording
conquer
sewage
ingenious
Mongolia
offend
offenders
grabbing
Pollock
Incred
immersed
hippie
vividly
ineffect
shattered
##rochemical
manufacturer
ventilation
Environment
Environmental
Lynn
heterosexual
unleash
Speed
##urfing
undermine
altruism
carpenter
Friends
exhausted
inhabitants
Group
Leaders
insecure
feminism
anecdote
sponge
fluctu
delicate
symmetry
pixels
legendary
numerous
catadore
Kendall
pissed
scalable
sanctuary
incarceration
adulthood
wrinkles
Doctor
accommodate
legitimacy
Cultural
Fantastic
DMCA
junior
scooped
NFL
##balance
##zschild
apocaly
Schwarzschild
Polaroid
Commandments
Frederick
certificate
Toxo
illiterate
landfill
rupees
miraculous
unnecessary
Further
TNCs
kangar
Chandler
testimony
inexpensive
Ixaren
Kurzweil
dazzling
municip
wetsuit
stratosphere
Sesame
Tulley
gauge
Socrates
Universal
deterior
Seventy
Huntington
Wofford
soprano
outweigh
Shephelah
Namibia
Improv
Swaptree
Cousteau
PTSD
Ubuntu
##chestra
shredded
byproduct
Innovation
disproportion
repertoire
embroidery
nanotubes
Oklahoma
PostSecret
09
04
4chan
4Sh
Ak
Aus
Avel
Abor
Ariel
Avenue
BB
Bau
Bấy
Bad
Bull
Bee
Bike
Buck
Bacon
Bennett
Bieber
Boulder
CR
CB
Ced
Cod
Cron
Catherine
Dh
Dink
Diction
EP
Elyn
FN
FM
Fight
Fish
Ferg
Fisher
GN
Gle
Gol
Gọi
Gấp
Grove
Grier
H1
Hỗ
Hood
Hướng
Hama
Histor
Happiness
IG
Jr
JN
JB
Jak
Joplin
Kare
Kins
Kiev
Link
Lip
Lạnh
Loth
Laman
Lazar
Mw
MS
Mes
Mông
Mai
Mẫu
Maz
Mush
Mason
Migu
Mizz
Mobile
Maidan
Nou
Nab
Nope
Pot
Ped
Pom
Pew
PRI
Punta
Ral
Rao
Rap
Rừng
Roth
Ree
Roch
Rabin
Rule
RIS
Ratan
Rotterdam
Slo
Sval
Sarko
Tớ
Tờ
Tat
Tân
Tàng
Tata
Tracy
Uru
VM
Vừa
Vulnerability
Wes
Wis
Wad
Ward
Wash
Watt
Wald
Wael
Wounded
Winky
XML
Yun
Yoch
Years
Zull
Zapp
Zabb
bở
bark
bừa
batch
bald
cuc
cada
cripp
dó
dí
dar
dated
dune
danced
eag
eager
fences
gỉ
gum
ganh
gãi
gently
gears
gyrus
hũ
hes
icons
jets
jeal
jams
jumps
kings
lust
lộc
lacking
lava
lõm
mas
masks
nè
nỉ
nour
nost
noun
nests
oà
pod
pork
pier
pads
penny
rust
rùng
rữa
răn
rót
riot
rơm
sò
til
tợn
túm
tinker
umb
vơ
viv
vồng
vớt
ya
đă
Ổn
##mo
##lad
##lia
##lined
##cus
##cott
##table
##afe
##oi
##yce
##yles
##sler
##rut
##ril
##jac
##journal
##eur
##watch
##vets
##vana
##80
##kw
##kowitz
##bard
##bish
##bread
##gic
##graph
##hem
##haus
##houses
##zac
##pable
##fel
##felt
##Ch
##HD
##ôla
##FO
##BO
##Bath
##és
##ỡn
##ẻm
thây
thềm
chưng
nhen
nhan
nhối
nhung
nhót
##ndt
##atable
trũng
##oshi
tong
##encia
##eson
##ingle
quây
##alam
##alach
##alah
##arial
inappropri
phước
##reas
##renhe
##inous
giỏ
##ombo
##ayers
##asth
##icated
##lements
##lls
whaling
taboo
##ete
##etary
##utiful
##cht
##cha
##chant
##chel
nành
bearing
rear
rearr
reception
relying
reorgan
rebell
Thằng
Thai
##entiful
##sem
onset
##stood
##steps
##urated
##idays
##anga
raging
##igate
##amous
##aments
stitch
stacking
##imét
##imps
foremost
##ereen
Chả
Chỗ
Chủng
Chuck
Chih
##thet
withd
lobes
goá
socks
Sok
năn
##iliation
##ravel
##raib
##rawl
##esta
##estig
##estial
##ante
neon
Nhảy
meadow
##elope
diêm
##ươm
pepper
Webb
##istors
maid
##uson
##ussels
knot
knocking
##andro
##ppers
sprawl
##ieces
##alled
upwards
##ogl
whoa
plur
placing
plentiful
##ourcing
suite
suited
##ameen
enact
##astrous
Trục
##idepress
##abasca
compass
leash
##obiles
##venient
unravel
##itte
twenty
diffuse
##roe
##roir
interference
intertw
##assa
dissection
diseng
disastrous
##arez
##ells
poetic
containing
underdog
##rup
##odynam
##places
##ickly
blamed
bladder
##anks
xua
desal
desks
grilled
boil
boils
##ucking
differential
syll
humili
##phem
Stu
##nings
downstream
scrut
brink
rooft
##aved
##avior
##iano
flute
flashing
flutes
cray
greatness
chuồn
longing
Shin
Shame
Shereen
technician
creatively
caram
carved
Giảm
opaque
bases
##yss
examining
powerfully
understandable
nguời
conserve
appalling
##issors
monopoly
patron
biography
growers
Aless
Alley
waterfront
finest
Beck
readily
lightbul
paran
lesser
##insula
exploding
possessions
##peror
bookst
elusive
##ramento
confession
skies
submers
##tenberg
##tenborough
electoral
capacities
Sheena
##ranium
solitary
headphones
Forer
warn
preserved
fuse
governors
1850
photographing
distill
distort
distress
##otta
educator
##geren
youngsters
oppression
Brussels
guided
guga
##ographically
depressing
succ
defect
2500
hearted
heartbeat
classification
##awton
devotion
margin
marched
Attenborough
Toonchi
nhuần
retinal
swear
costing
caffe
##parov
##ophis
assert
Print
advis
collector
resulting
Bees
Behar
Beatrice
##ika
##iken
terroir
province
provoke
Reuters
speculation
Mayor
holders
Carmen
Carrillo
neuro
antidepress
pots
typew
fearless
archety
Among
grandma
predomin
Moham
Seng
Seoul
2016
Calcut
handsome
duplic
13th
limiting
practition
TVs
discrete
discarded
sunshine
173
joints
plea
commonplace
strongest
chemists
Cox
Cole
extremes
vacant
Spock
Speaking
weekly
photographers
Manchester
Adrian
coolest
impacting
impacted
Blu
Blanc
encounters
Coler
Colombo
versa
Depp
shoved
shoots
barbec
cyn
cycl
cyborg
firemen
harass
universally
Scrab
superp
posting
guessing
conflicting
depended
soundscape
erase
competitions
similarities
##illiard
visualizing
Edith
##lexic
##liu
Georges
reacting
Warcraft
1967
Northwest
##oooo
emergent
blindly
positively
attacker
threatens
participatory
##lights
Palo
fluent
ADHD
ecst
##world
Jeanny
admired
Benoit
dominate
Frances
Angola
Angelo
positioning
clinically
mistaken
wildly
Likewise
judging
smelling
smelled
concerning
enjoyment
geneticist
continuity
Austen
ranking
##unker
Lux
forehead
##burst
Market
prosthes
salaries
Appalach
Greene
customs
Glas
NATO
Hispan
addresses
999
automation
automobiles
historians
irreg
wealthier
verify
Ghraib
lawsuits
beatbox
symbiosis
graduation
Herbie
##amsala
liberated
mutant
##odesk
disappearing
strengthen
Mali
Malaria
Webster
##ochond
Montreal
cognition
Acumen
Boom
Book
brilliance
exerc
shipyard
hosts
bombard
Swedes
defeated
illustrated
Singer
##ihil
artificially
stimulated
antibody
ratios
##haas
Starck
incentiv
interpre
investigations
titled
bandwid
conducting
Mahab
1959
Burger
Hamburg
strangeness
perceiving
Serb
implicit
indication
indicating
indicates
Florence
sights
cartoonists
##axe
extracts
extracting
cowork
colonial
Huang
Hugh
palette
constructive
Bobby
hunters
reinforce
Apophis
Matty
Oslo
lifts
manipulating
unsafe
Stephan
nursing
Grameen
Milliken
Bolte
Partners
disposal
adventur
interpreted
pipelines
aggression
Somali
datas
replication
1910
Kiran
witnessing
confrontation
rotate
Commons
Easy
rhythms
fifty
Interval
Skyl
cyberatt
Designer
Belg
Salman
Salinas
cockpit
spirituality
Magazine
whistles
suicidal
downloaded
memorize
Homer
Idol
aspire
desperation
466
mentality
pools
Kenneth
Wilkins
##ximity
injected
intentionally
exhibitions
derive
blanket
1929
casting
hurry
prostitution
Disneyland
Trek
deployment
infinitely
crashed
disturbed
Bertrand
execution
executives
Autodesk
champagne
tackling
melted
advocating
advocacy
Lebanese
crafted
Palestinians
mosquitoes
Economics
bossy
kissing
Campuch
Douglas
stunned
spells
scripts
Moskowitz
ARN
Dublin
casually
honeybees
diamonds
nugg
Churchill
delightful
Ache
Kamal
Kamkw
Laurie
Safe
kềnh
stacks
precurs
defenders
triggered
Early
1879
improvising
nutritional
##lasma
clarify
redefining
BRCK
Medicines
wounded
Cruz
Erick
Sydney
##guay
settlements
##flyer
monitored
Ashdown
suspects
composite
incorrect
bothered
watts
toothp
delayed
McKay
SAT
pancreas
unconsciously
Pugh
Puerto
yogurt
degradation
butterfly
Standard
Foods
dentist
Panama
manifestation
Governments
Bartok
napot
nhím
troubled
Cloudburst
Athabasca
Klee
Maui
analytical
Dorothy
Gregory
revelations
Hazleton
inefficient
forbidden
ventilated
vãnh
lexicon
Ahmedabad
cassette
loyalty
deprivation
Wangari
ribbon
blessing
Bradley
Paolo
exponential
suburban
embryonic
Mullins
thyroid
acoustic
contaminated
bioluminescence
Geoffrey
recruitment
Passage
TiV
##ophobia
dictatorship
Burns
Kasparov
LGBT
Prius
dispute
dispersed
antennae
Vermeer
disparate
incubator
indirectly
Isaac
occasional
Gamble
Pachyce
rectangle
meerkats
Khalil
appetite
Antonio
Beautiful
Dewey
Kohn
Kindle
Pierson
Sacramento
prôtein
seamlessly
escaped
Architecture
DryBath
Rajasth
orthopedic
confirmed
proliferation
Pasht
Village
##screen
comprised
adrenaline
empirical
mortgage
recipient
dysfunctional
Bundy
Kiteflyer
Meadow
Maddie
Nellie
Cheval
Shackleton
trafficked
Albania
turbines
Bitcoin
Jurvets
##minster
moisture
HyperCard
disagreement
District
Dakota
Dharamsala
Fahrenhe
Hosni
Hatzalah
Meegeren
Wagner
plummet
Arnold
Okinawa
Certainly
Crimer
crocod
restorative
skydiving
atmospheric
epiphany
pessimistic
Baptist
Faso
Kerala
Koolhaas
Kermit
Railway
celestial
plywood
backpack
surrender
surrogate
antiretroviral
Caucas
Karmapa
Ridley
SOLE
briqu
gecko
teapot
microproc
channelrhodops
ineffective
4Shbab
Avelile
Ferguson
H1N1
IGF
Kinshasa
Lothar
Lazarus
Mushroom
Miguel
Mizzone
Ralph
RISD
Svalbard
Sarkozy
Uruguay
Yunus
Yochai
Zullinger
Zabbaleen
##odynamics
caffeine
Mohammed
Calcutta
Scrabble
bandwidth
Campuchia
Pachycephal
Rajasthan
Jurvetson
Fahrenheit
01
330
550
Ari
BK
Bong
Bầu
Bữa
Born
Barr
Bati
Cu
CT
Cage
Cấp
Cub
Cond
Citi
Citiz
DB
Div
Dru
Dark
Daw
Dream
Daddy
EG
EPA
Fat
Fut
Fine
Fitz
Ga
G8
GW
Ghi
Giving
Gala
Growing
Hơi
Hock
Hutu
JU
Jazz
Kí
Kill
Kia
Kaz
Kings
Kaf
KPI
LP
Lí
Lũ
Lối
Lud
Lắng
Liter
Lớp
Lotto
Mây
Mack
Mild
Mãi
Meth
Maker
Non
Name
Núi
Oil
Offic
PP
Pou
Pain
Past
Page
Pool
Person
Rau
Rag
Rud
Rốt
Rena
Rift
SH
Sie
Sound
Spect
Success
Tạ
Tiện
Tuyết
UA
UV
Vit
Worm
Word
Xia
Xuyên
aur
bol
bise
bùa
bùm
bimet
cer
cords
dơ
ded
dặt
dub
dull
dried
dances
etern
fount
faked
gle
gàng
gro
groom
gợn
guru
gurdy
hers
hive
hạc
hốt
huyện
héo
hòm
jum
kits
kett
lẹ
ling
lồi
mes
mùng
mart
mách
mắng
moth
mism
messe
motto
nob
obey
pH
pine
pave
penn
psh
punk
puls
paus
poker
rên
ration
rick
rèm
rợn
rushing
sững
sầu
sồi
scent
sorrow
té
ted
tant
tigers
uý
uranium
vể
vic
valle
wob
wakes
xiết
yến
úp
đên
đùng
ắp
ừm
##iks
##mouth
##lest
##cas
##cro
##cuss
##cribe
##aism
##nie
##niv
##sis
##rock
##riter
##rma
##dala
##jec
##woman
##var
##vian
##kig
##band
##gow
##gone
##hed
##hole
##pon
##pill
##peak
##fed
##CN
##City
##Space
##MU
##78
##42
##ổng
thorn
thòi
chừ
chur
chần
chao
chũng
chuộc
chalk
chừa
chatter
chém
##erative
##erator
nhàn
nhứng
nhầy
nháp
nhúm
nhõm
trờ
tròng
trăn
trance
trillions
##osa
##oscope
##onian
khay
khắt
toái
##inge
ngỡ
ngầu
ngượng
ngạt
##orum
##orient
quorum
apathy
##alm
##aris
##isen
phỉ
phách
##itis
##inav
giời
gira
##asia
##icans
wholes
##etooth
##utans
##chu
##check
beard
rept
reju
Thi
Thưởng
hail
##entin
##semb
##uyễn
rao
rav
rab
##igs
##amy
##amination
##amorous
stap
stark
stats
stigm
dock
##imited
##ceived
forum
##opl
##opic
##opsy
##oppy
##irrel
##olan
Cham
Chơi
##ths
##thest
hooc
gogg
cans
segreg
asylum
##htaking
shores
Sox
##ilst
##ilitating
noted
notation
nghĩnh
dip
##agall
pend
##acies
oral
##istribut
##arta
maze
##uscript
usd
proximity
##andinav
outlines
##unci
teens
##ppy
spokes
##ciating
##ciences
plural
plumb
actress
Whew
imitate
intimately
seeks
sucked
enlist
##astric
Trải
Trách
##hift
compelled
compatible
league
##aik
##obin
saus
agon
emulate
emitted
expend
buc
##reates
perme
mania
manuscript
une
unre
unic
##agell
##ocrates
Nowadays
##rika
tuột
tucked
clut
clich
cloning
ark
arises
coer
amyg
##icelli
overest
intermedi
##assum
displace
disbel
dischar
dissem
##ifiable
##ensible
##enspace
newest
##ellows
poo
poke
contamination
Khơ
Khắp
undersea
##ruciating
betray
##ults
changer
moi
daylight
daycare
blunt
blaming
adage
desirable
Ngồi
##ecy
##ecca
Stress
Strat
##ishes
##order
##othermal
##athai
##athetic
downs
committee
scru
scissors
incap
incidence
incidents
##akis
##avi
##avic
crest
crammed
##ricia
Phép
Phẫu
Shelf
simulated
Gió
laze
personnel
##ndson
aftermath
bait
lastly
examined
transistors
glands
##ganistan
drank
vụt
##prod
slot
slows
imaginative
##ermaid
Afganistan
Hoạ
extr
questionn
attending
##peace
biêt
centigrade
metast
Alison
Doing
##ceptions
edition
grapp
MySpace
runners
hyena
Anatom
regist
##rams
skier
suppressed
pictured
Goose
##ranes
populated
headaches
warrant
pretending
Armen
auto
setup
espress
protons
Allison
guides
markers
correction
defriend
pains
resting
heartfelt
proposes
devour
devoted
Orig
termites
##rowd
sword
swept
swoll
magically
awak
excav
excruciating
assass
ordering
Prop
Prickly
affirm
affairs
Fraser
paycheck
Lean
Legend
risking
viewpoint
crab
crave
complexities
repos
republic
microf
clearer
provoking
##culus
##icultural
Marcel
đuợc
holder
messaging
Twin
Twain
antique
difficulties
audacious
interacted
fearful
archives
archae
165
Embra
blackboard
##books
Moving
1400
Seventh
papercut
performers
psyche
Taking
ruined
facade
discount
suns
sunny
sunset
Robots
communicates
extremist
footsteps
perfection
Clark
Claron
arrival
banging
encode
encoder
Bragg
Worldchanging
optics
barbar
pressed
fireman
Southeast
Scandinav
supernov
silently
##ouched
polling
geological
civilized
Schlaug
snob
drifting
dimin
khứu
policemen
policeman
suffers
soundscapes
vaccin
trustworthy
angel
Compar
Comedy
Compare
seriousness
Haas
definitive
evolutionarily
divides
dangerously
astounding
reacted
reactive
necessity
breathtaking
wished
crossword
armies
threaten
Plus
contexts
contextual
##working
diner
thrived
admin
linking
logistics
rainwater
kilo
spiral
influential
temperate
Agricult
employing
debates
closes
congress
capturing
packs
starve
smelly
struggles
bổn
capitalist
pounding
enjoyable
##ilingual
Greenpeace
unlimited
axe
forgetting
photojournal
customized
clicked
Heritage
liberating
doubts
##flow
appliances
bounds
correctness
Jonny
infrastructures
Patricia
puzzled
Transpar
Board
##iji
brilliantly
Goodbye
##comed
rounded
##ifferent
Moreover
Higg
hostility
millimeters
intellectually
substances
dieting
credible
motorb
8000
oddly
stimulating
tailed
investigated
gardening
titan
metaphorical
Chaos
maintenance
belonged
queue
Yemeni
desertification
smiley
scares
palms
tallest
vibration
constructions
Vienna
migrants
fleet
mystic
warmth
tango
Osorio
dialect
1938
unders
nều
flashes
seniors
nitơ
flowering
replicated
complaining
Blackawton
Rockwell
consistency
regarded
Daisy
galleries
rotates
Commission
recycl
observer
rebuilt
neutron
Carlton
Generation
assignments
sacrifices
storytellers
premium
Collusion
embarrassment
merge
thinner
welcomed
establishment
mimicking
beaches
converts
aspiration
implementation
mentoring
1900s
Getting
pillow
Chekh
collapsing
rubbish
castle
pedal
murderer
prosperous
refrigeration
Sixth
flooded
melts
bulldo
Judge
Judaism
Survey
fingerprint
Model
accumulated
accumulating
enhances
enhanced
wrapping
algorithmic
nonprofits
census
lenses
coordinated
hallucination
spelled
sparked
anthropologists
Queens
fetuses
psychiatrists
dynamically
stereotype
Normally
dragon
purchases
purchasing
savanna
savvy
thermo
borrowed
immunization
Tunisian
Senior
greedy
hierarch
pyramids
Federal
Federation
Volvo
railway
Khuôn
supermarkets
Ern
declined
bells
Electric
Journalist
wetlands
##uminous
annoyed
Hotel
sponsor
TED2010
TED2011
Legadema
interconnectedness
Liu
Ready
Surely
utilize
utilitarian
perpetual
membranes
riots
browsing
divorced
Peninsula
prolong
microRNAs
whistlebl
Nazis
bribery
spraying
alignment
reassuring
stakeholders
Borges
lawns
democratization
temporarily
immersion
Extreme
ninja
unconventional
summarized
empathize
cassava
aspirations
Dunlap
hurdle
exaggerated
proclaim
jargon
linguistic
Andrea
spoil
enlightened
undergoing
undergraduates
flawed
Assange
Jenkins
regulatory
skiing
feminine
shrinking
PAC
featured
Novoc
presumably
##ophobic
catadores
penetrate
arousal
##giene
##oteric
haunted
Infinity
consolation
recurrent
occasions
administrators
Denisovans
Cornell
prevalent
aggregate
Femin
hockey
unintended
courtship
disclosure
Telecom
Hacker
freedoms
mutilation
carcinogens
Carson
Velcro
festival
karate
pavilion
Thoả
cannib
comedian
tenderness
unrelated
scattered
reciprocity
fulfillment
Sinai
Traditional
biodegrad
subsequently
Poetry
Leave
Several
jurisd
siege
hazard
reservations
calorie
template
cafeteria
Yugoslavia
##idelity
sobering
eyewitness
programmable
Computers
perseverance
Ptolemy
caterpill
sugars
Parikrma
Nokia
inconsist
deconstruct
Progress
Lehman
microwave
neurotrans
##ugaad
Enriquez
Enlightenment
fragrance
Aboriginal
Cronin
cucumber
##oglobin
bookstore
typewriter
Coleridge
superpowers
Glasgow
irregular
exercising
Belgium
TiVo
Barricelli
Batiuk
Mildred
Renaissance
bisexual
valleys
##kigai
churches
rejuven
stigmat
goggles
amygdala
disbelief
swollen
supernova
Chekhov
AB
Aber
Aah
Ahn
Bỉ
Bam
Bism
Bels
Bann
Box
Bỗng
Ballet
Bumble
Bunker
Ce
Cải
Cust
Cac
Cast
Cell
Cửa
Cran
Casa
DO
Dool
Dise
Dale
Dana
Dyn
Dennett
Daph
Eg
Egan
Edd
Fide
Feel
Gã
GV
Gur
Gang
Gag
Goran
GBM
Genspace
H2
HL
Hằng
Hết
Hog
Hour
Hiểu
Hep
Hậu
Herm
Halle
Hanna
Il
ISA
Ibra
JT
JF
Jal
Jun
Jody
JPL
Kĩ
Kart
Kism
Kitchen
Koko
Kofi
Lé
Lẽ
Lith
Lah
Lenn
Laf
Limp
Lima
MC
MD
Mul
Morm
Mons
Mash
Mena
Milton
Magell
Mecca
Mermaid
NH
Om
Ommm
Pand
Purs
Punk
PBS
Rot
Ras
Rang
Rout
Rice
Rons
Ranger
Rico
Remen
RIA
Renny
Sợ
SU
SJ
Son
Sem
Sank
Sav
Swe
Sốt
Sash
Szy
Sears
Sym
Sagan
Tù
TO
Tse
Tang
Tường
Tung
Tiger
Tamm
Tuts
Tinkering
Uz
UK
Uri
Vẫy
Vibri
Wid
Were
Witness
Words
Wurman
Xác
YB
Yos
Yep
Zen
Zig
Zone
Zucker
aver
airst
aids
aversion
bod
bum
bun
bro
bury
bleep
ballet
bidding
ced
cun
ding
dut
dere
dừa
dermat
eo
fitted
faul
fidelity
gù
gates
gẫu
gamb
hê
hột
hiều
hence
hiền
hitch
hùm
icy
ikigai
kung
kites
lự
lol
lun
lỏi
lảng
lóc
litter
luyến
lụi
lốp
lún
mó
máng
mòng
malle
nương
nẹp
pse
pap
pater
porous
rally
rud
rầy
ridd
ridge
rival
sé
sid
siết
sệt
sank
sọc
tul
tằm
tides
ticking
ul
uất
vs
vò
vas
vant
vói
vẹt
wigg
wretched
Đổi
Đọc
Đẹp
đờ
đái
ưng
##ii
##iary
##iott
##iots
##mies
##lon
##lom
##lawa
##uper
##cur
##copy
##côla
##oop
##ook
##oys
##nacle
##nesty
##sson
##ré
##dul
##eh
##eat
##ehy
##wal
##wired
##waters
##visions
##kman
##kirts
##bac
##birds
##hl
##his
##him
##zim
##po
##pre
##pical
##pont
##pret
##fol
##Afe
##PO
##FC
##25
##D4
##DER
##LM
##Bot
##ĩu
##IM
##ễm
##ngal
thớ
thon
thẩn
thirty
chồi
chĩa
chorus
nhả
nhẹn
nhuyễn
trit
trặc
##nham
##oso
##onen
##onim
##onary
khong
khét
toe
todd
tobac
##enz
nga
ngỏ
ngùng
quĩ
quarks
##oting
##otine
##edict
##arius
inad
inward
inversion
##isb
##isp
##isner
phà
phases
##itic
##itol
##omfort
##aying
##icion
##icist
##owell
tab
taped
tails
##etown
##uter
##uted
iteration
cácbon
bean
beasts
reint
reCA
Thrun
Thaler
haw
##ldt
nghiến
nghẹn
##station
Anders
đãng
##amics
chooses
stif
stance
stared
stamps
dove
##imol
##immer
conve
conco
##iry
wast
pricing
Chat
Chan
Chau
Chàng
Chair
lobb
##odox
##odiac
abusive
goose
seiz
sevent
segment
##emite
soar
soils
##aoh
##htub
sha
shack
shak
shave
shield
shocks
shiny
shalt
##ilogy
##illary
##estant
##antu
nec
neph
notorious
frater
fried
framed
alliance
##eliness
##elbr
exacer
diets
##agging
peel
peek
##acs
##acama
orph
Wei
##arty
##arted
heels
knob
usable
##inders
proxy
proverb
##andan
albe
aliens
outlet
outlets
##una
spy
spor
##orts
upward
upright
uptake
sails
##ogo
##ogene
pled
plumes
Whites
imbalance
inte
intens
##aphor
Trại
Trân
Trận
Tránh
Trạm
##acked
##ideen
veiled
##abs
##abe
##ablan
lend
##obic
##venia
emission
Ines
Invis
expenses
##reated
luỵ
donkey
feather
feathers
##uds
workplaces
##achim
##riDER
clocks
arth
twent
coil
coated
##ryption
resh
reset
resident
reserved
overboard
##reek
##bergh
acumen
poop
poignant
conting
contempt
Khiến
Khung
idle
underlies
blast
deserved
desolate
102
105
booming
bonding
Ngọn
##inted
humbling
##eca
Stars
Styg
##nington
committing
preocc
prelim
offline
phụng
scars
scrap
bron
brine
##orska
inclusion
smash
smiled
rooster
##akley
##avan
flush
crush
criti
crashing
thoạt
surpass
##cester
2000s
PhD
Phổ
Phar
Phúc
Shim
Shell
Sharing
Shawn
invade
invites
sociologist
simulator
builders
Thankfully
baking
##yses
examination
relay
glove
drums
##pres
##prising
playwright
slang
slap
imagines
##issa
complement
extending
modem
modules
monks
seren
##people
recline
Americas
meta
meteor
911
videot
Alto
Alright
156
medit
edX
formald
grapes
Iss
Ishi
##ahl
##ahaha
behaves
Mycop
Myesha
##ckx
demob
possession
hygiene
entries
handled
Answ
Animal
skins
suppression
subset
infring
infamous
futures
organizers
trụi
amput
129
1200
energies
soluble
warps
Noir
Quỷ
Question
Joachim
soundt
sounding
governor
esoteric
photons
distraction
redund
redistribut
cured
curled
detrim
Bros
Allah
void
defy
profiles
Conan
Conne
virg
charter
charitable
Cannes
propulsion
classified
locate
devise
Ord
marijuana
Atacama
killers
retros
materialistic
swings
excites
exclus
Prin
Pray
experimented
Frost
advancing
Leib
Left
##berspace
craz
crawling
increments
quicker
teamwork
teammates
Pepper
delusion
delta
Reuther
absent
Marrow
Marriage
Marvin
marketed
neurop
##ometric
##ometti
massage
thụt
collide
arche
Amb
Amjad
improves
145
Sequ
freaked
##identally
psychotherapy
duplex
rug
doctrine
colleges
Haring
discourse
discomfort
sunfl
sourcing
177
joys
##owski
##maer
##borne
embassy
Worcester
extremism
##ippers
Management
Adri
arrange
impactful
specialize
Blake
Blakley
encryption
knowledgeable
summed
summon
##mborska
situated
Negr
squirrel
combust
combines
barbed
cyberspace
Bye
Camero
Camden
considerable
hij
privat
softly
darkest
worthless
##chief
Scrubs
Image
hotels
hotdog
micromet
vợt
geopolit
pathogens
benefited
snipp
straps
strapped
ruling
McAfe
villagers
Paraly
Paravic
dĩa
vaccination
competence
bedside
Christina
Christakis
Coming
Abdul
burger
leaking
Edm
hangers
saturated
##uctions
printers
tended
tendencies
activation
accounted
##oxic
1966
1964
secretary
participant
misuse
Plat
##shed
cloudy
admiration
##uclear
logically
Benedict
Bennington
Ensler
fixated
fantas
Perfect
influencing
characterized
uncles
ignoring
employer
debating
debilitating
mistrust
judged
mathematically
Musica
ports
boarding
synag
roller
ranch
hacked
Tombo
ethically
randomized
foreground
optimist
##afa
expresses
penal
Maathai
fitness
controllers
Glac
Berkley
Banjo
motivating
Audio
Ghonim
transporting
targeting
Aha
TEDxS
Miner
wiser
liberties
mutually
revenge
branding
Finn
applaud
pigeons
switching
Amazing
Parker
Babies
Babble
##adda
preferred
##vani
invisibility
Morris
grandmaster
lunches
##iffen
Prozac
spotlight
Turin
Basit
Basque
Leslie
Hanson
proudly
hosting
tasted
pianist
intuitions
quantify
Baloch
MTV
Silence
##ycin
##ihar
Vanier
substitute
freshwater
circumc
Mandelbr
latitude
Galen
Galvani
Mahal
Willy
Willie
mosques
##amba
1958
1956
Hamas
Hamilton
Roma
Brohi
maintained
CAO
lifetimes
##craper
towels
exchanging
Karol
cowboy
##carina
Taniy
frustrations
humorous
Timothy
flee
mystical
gamble
abstraction
splitting
referring
Road
Koreans
dialed
1932
Goldstein
arguably
Walters
bowling
bathe
jails
uyển
undoub
semic
Studs
sophistication
Biology
formerly
transplants
Kevlar
Bosch
compliment
1919
Democrat
Denver
announcing
CDs
punished
##ranean
Louise
Tyler
criticize
navigating
thickness
Depression
Melbour
Carlos
Grandma
antibiotic
Airbus
Skerry
Loveg
Break
Salt
Sandel
Corpor
barefoot
Kymaer
Royce
welcoming
instructor
memorized
Olson
convergence
Kuiper
Metaphor
##NCCO
advancement
Leonard
Curiosity
sôcôla
##jaim
regeneration
astonishingly
injecting
1928
Mommy
Zimbardo
fragments
442
Avaz
Avatar
Conserv
Randy
Susana
Intellig
scratching
Merckx
Siem
Sixty
CPhi
Romeo
Fargo
aimed
attributed
bullying
weighed
Elliott
Economic
kisses
biomass
Krist
enhancing
outskirts
Campbell
coaches
pioneering
nominate
sprink
Shirin
exploitation
Augustine
Capitol
Capetown
psychiatry
bursts
disappointing
##iably
enthr
tempting
tempted
halal
diagrams
Niall
Ninth
borrowing
tragically
awkwardness
BRD4
hillside
highlights
recruited
distractions
spreadshe
Volta
cubes
brutality
protesting
Cruise
Teresa
bathtub
Lessig
Tibbits
lesion
expeditions
1904
consultants
Fifth
uniforms
Robotics
tunneling
pharmaceuticals
deceive
summaries
McKean
skeptics
683
SAMS
SANCCO
awarded
busted
conceivable
immigration
immigrant
stimuli
Mapendo
Mellody
hubris
settling
prophecy
embodiment
Gayle
dentists
dilig
##uhuh
leaning
editorial
Panel
restrictions
immensely
Barton
Damon
Fuller
Treatment
napkin
troubles
aligned
marvelous
LOLcats
germs
niêm
inflate
inflamm
horizontally
sociable
Incre
counseling
stabilized
1890
dumping
##ydia
orangutans
magnetism
Brendan
GitHub
janitors
scheduled
empathic
Hardy
densities
ferrofluid
loneliness
altering
Persian
Summer
reverber
excessive
exaggeration
undermining
commissioned
unveil
unveils
embryo
Jennings
Pilots
compensate
dismissed
Guys
Horowitz
##oirs
evaporate
constitutional
Bloomberg
announcement
Pentagon
Prag
styles
socket
peanuts
preacher
drifted
misunderstood
Kendal
Miko
aroused
##nheim
insurgency
skyscraper
Lindbergh
hidro
ovarian
meerkat
Khalida
prevalence
Bionicle
dreadful
stirring
##akhstan
Joyce
Rolls
SING
transactions
Jansky
Mustafa
dashboard
plugged
cohes
nonverbals
Typically
philanthropic
Hippocrates
Kathryn
Wyoming
cheek
anomaly
feasible
preconceived
fluorescent
pronounced
Napster
cherish
inquiry
abdomen
abnormal
contracept
parameters
submarines
autobiographical
proportional
excluded
landmines
microcredit
snapshot
counterparts
Bueller
Fleming
Hurricane
Nearly
Wujec
mockingbird
pajamas
sermons
spheres
coherent
charismatic
balcony
Effects
Pallotta
Patton
Springs
asphalt
sapiens
carbohyd
spectrogram
apprentice
juxtaposition
stewardship
Dallas
Fernand
Pamela
UNAIDS
aisle
##chwitz
deleted
Giacometti
granddaughter
Schulz
Paradise
miscarriage
Participant
Mercedes
Nielsen
Bulgaria
Casablan
Kemp
unaccept
dissonance
subdiv
detergent
secrecy
homemade
fluctuations
kangaroo
Auschwitz
Buckminster
Cedars
Dhabi
GNH
Gleeson
Lamanites
Noujaim
Slovenia
Wislawa
Zappos
nostal
inappropriate
intertwined
desalination
scrutiny
Bluetooth
cynical
Stephanie
dataset
cyberattacks
Kamkwamba
toothpaste
Caucasus
Galaxy
Kazakhstan
Wormwood
wholesale
microfinance
administer
Agriculture
Transparency
recyclable
Novocure
Belsh
Bannister
Bumblebee
Daphne
HLV
Hepburn
ISAF
Kismet
Limpopo
Mormon
Pandora
Ronson
RIAA
Szymborska
Symphony
Uzbe
Vibrio
Yosemite
faulty
pseud
vantage
tritium
tobacco
inadvert
reintrod
##imoloch
nephew
exacerb
orphans
albeit
Invisible
Stygimoloch
preoccup
preliminary
Mycoplasma
exclusively
Cameroon
McAfee
Paravicini
Mandelbrot
Taniyama
Melbourne
SANCCOB
Casablanca
07
4D
87
9000
Ay
Aj
AA
Ain
Aren
AAA
Bời
Bure
Body
Based
Cow
Cad
Cung
Côn
Cảng
Cav
Copy
Cabin
Dom
Dop
Dil
Dục
Doc
Dãy
Dusty
Ey
Ez
Fo
Fir
Flight
Gun
Gour
Grab
Grim
Hôn
Húp
Hưng
Hitch
Hua
Haha
Jugaad
Kib
Key
LI
LX
Led
Lest
Lương
Liver
Mực
Muốn
Mine
Mult
Miền
Mank
Mys
Meas
Mảnh
Mua
Migr
Minsky
NP
Nổi
Nint
Nath
Nak
Ong
OED
Opera
PG
Press
Pizza
Pione
RP
Rital
Rex
Rony
SC
Sid
Sân
Sine
Sap
Saxe
Sciences
Tz
Tol
Train
Vệ
Vạn
Wed
Wine
XI
Yuc
Zac
Zaire
bái
bêu
bỏi
bừng
bặm
bứt
bacon
bakery
bilingual
cò
cough
cerv
caution
dột
dur
dật
dess
dìm
dual
dỏm
eu
euth
eaves
fist
fus
fuss
gô
gàn
gaz
gara
gẫy
ginger
gasses
há
hed
hic
hắt
hott
hides
hớt
jog
két
kines
kỉnh
lả
lum
lure
latt
liếc
lumber
liters
lousy
mí
mậu
nấy
nem
nach
nĩa
nylon
nicer
ot
oan
oily
oops
puff
pony
pudd
pests
pumped
rar
rạn
rut
ròi
rủa
rusty
rés
sá
sỉ
sài
sặc
tễ
tect
tuốt
tót
vest
vine
vét
vênh
vodka
wiz
wolf
wicked
xê
yawn
ạt
##liness
##lied
##cd
##cet
##crap
##cils
##tains
##avers
##ois
##oqu
##oise
##ooney
##nost
##natural
##rad
##rons
##rating
##rines
##rush
##wig
##with
##ừm
##voc
##êin
##bons
##bio
##gis
##gman
##gral
##galy
##hard
##haz
##zers
##pm
##pits
##far
##found
##fried
##TT
##Fadd
##Me
##OW
##45
##õng
thự
thong
thàng
thun
thirst
thigh
theaters
thesis
chê
chường
chửi
chùi
##erie
##erting
nhãng
nhòm
##atur
trề
tren
trành
trồi
trach
kha
khố
##enberry
##esian
##esium
##inges
ngấy
ngàng
ngứa
ngạch
ngáp
quệ
quark
apex
##edes
inoc
##isin
##iscu
phết
phantom
##rell
giũ
giăng
giấm
giants
giùm
##asw
##length
tabo
##etch
##etric
##etah
##utz
##ution
##utton
wears
weave
beast
begging
rejo
reintegr
Them
haul
onc
##lde
##lded
nghếch
##step
##starter
##urg
##idation
##igible
##igms
stung
stub
dodo
##auna
fork
forge
forger
forwards
forgery
forums
liars
connot
conventions
wasp
##olars
##oleros
pra
prere
prair
prestig
Chem
Chagall
withstand
lollip
##tering
abol
abortion
cance
seized
shaman
comr
##ilot
##ilight
##iller
##raint
##esting
##antically
##ulo
##ulk
##ulent
frown
framing
exem
extern
dire
Weiffen
##okers
##istical
deci
dexter
degrade
maim
maize
knocks
prohib
outst
outliers
outraged
##unal
spins
Butler
plague
plasma
imitation
someplace
intra
##inee
##ources
suitable
##aped
envelop
enlar
enrolled
enzim
Trần
Trồng
##izens
vend
##abena
lev
leaps
##anship
agnost
emperor
Incon
Invent
muội
buddy
##ivate
##ivism
quake
perc
hass
manic
manure
unions
unpl
unreal
uninter
willful
##ocent
##ocus
##ocene
otherness
##rians
clap
claws
cliche
arist
twists
##epage
coating
coaut
makeup
needless
##uez
nood
amin
reside
reservation
Đóng
impending
##pton
overh
overf
overst
overcon
interl
interstate
interplay
##assis
disl
disgu
dislike
##ifi
##ifier
backstage
##ensing
newborn
ack
acron
acrome
pointer
Kháng
Khai
kinder
underwear
daytime
ngoạc
bloss
xui
adore
gras
booms
Ngắn
Ngựa
genomic
##intend
humiliation
205
##athrin
scrot
writ
brute
##ertime
##avore
flame
flips
cries
surreal
##weed
##week
hull
wellness
childish
##irection
Phyll
Pholeros
Share
Shepherd
invitations
sociologists
simulations
builder
endure
removes
coli
##beater
helix
insan
insulation
carrier
Giác
##concel
evils
bake
obtain
relent
glaze
glamorous
politely
considers
sled
slammed
turnover
pointless
communism
##erger
modifying
highways
crease
monuments
monolith
attain
recap
recons
recomb
bioc
biễu
centric
centimeters
50th
Alb
158
mediated
treasure
formulation
grandson
##aho
##ahili
economical
Unless
thưc
runway
runner
possessed
hype
handheld
camoufl
hardwired
mindful
Ancient
chiêc
healthiest
##ggers
visits
skied
skyr
supplement
suppliers
subord
infants
inflict
infused
solitude
trợn
##eastern
presidents
woven
Quên
Archer
Yorkers
menstru
momentous
makeshift
1812
Letters
vali
eyed
eyel
curl
curved
cursor
##gerald
Brilli
guests
##ortunity
depicted
deputy
cores
corros
defic
defenses
refres
charging
##iterranean
propos
classify
classmates
posing
locavore
devote
devoid
Orange
Orchestra
marching
retaining
retrie
##rows
swar
swims
freezes
Prison
Pradesh
Fresh
collectors
Leop
teamed
provoked
nhờn
Nghịch
Nghiệp
nonin
##iculture
songwr
Godin
Marla
messing
##annel
dealer
misses
buyer
revis
revol
deathbed
Amnesty
##iums
predisp
Mole
journeys
motel
violate
eaters
freaks
protections
bomber
paperwork
Afghans
handsh
duct
136
1300
Harb
sunphua
recorders
sentenced
sentiments
Spir
Speak
##yla
##gras
##grown
Mania
Adela
Clooney
requiring
pickle
##cifically
analyses
summit
obsc
obsess
sleeps
causality
Need
squish
favorable
barb
barric
stresses
harp
darker
universals
universality
Scar
superv
superintend
##lujah
postp
microseconds
geographically
benefiting
critics
networked
Billie
conversion
telegraph
snack
snuck
bloggers
ruler
McN
McFadd
prominent
volatile
Mexicans
empires
competed
seller
burial
Steel
##asket
Meat
birthplace
receivers
generalize
Swahili
activates
dropout
gradual
Thuỷ
armpits
blinded
carts
translations
fluids
##shot
##shell
admission
##cola
Enough
rainy
sticker
Angeline
nucleic
circled
positioned
banker
bankrupt
fascination
separating
employers
Flint
nanotechnology
Hyd
cooks
effortlessly
packets
Gravity
annihil
fundamentalists
portfol
synes
respectable
swimmer
sampled
Exper
Excell
Express
Markus
Appro
mixes
Maeda
diagnoses
starsh
Lancet
Simply
celebrates
sequel
##uddy
Berlow
irrit
lẻo
vulnerabilities
fatigue
nhoà
fashionable
1941
graduating
TEDxC
TEDxB
##azzar
doubling
foreigner
Okoll
broadband
fueling
switches
Resources
ambassador
burnt
torch
seeded
hypert
manufactured
homeland
preferably
paradigms
Torah
Access
cheapest
Moral
recovering
shooter
mortal
sporting
Basin
hydrocar
##orani
Mujah
##thesis
volunteering
volunteered
masterpiece
illustrations
safest
credibility
unexpl
tickle
interpersonal
sculptural
commitments
##riends
1952
headset
Romantic
pursued
##iatur
agreements
fellowship
CAT
##holder
queens
finishes
polluted
Keyn
accelerometer
indicated
Tuỳ
academy
##asionally
brightest
limitless
ideally
Bobo
Viol
migrated
analogous
microscopes
Naná
hemo
encouragement
Student
oxal
wavelength
comparisons
lengths
occupying
lifestyles
inequity
disciplinary
witnesses
ancestral
regarding
ridicule
ridiculously
abstractions
rotten
elevators
Committee
mailbox
Ethel
Powerpoint
Icelandic
##breaks
instinctive
DVDs
Boyle
anonymously
harvested
premier
Voices
dedication
wisely
rehab
seasonal
execute
surveyed
Ident
Idaho
implementing
mentors
commanders
commandment
stretching
Curr
Current
Genomics
Cheese
Annan
Bernie
Popular
Mediterranean
dressing
kicks
Listening
Network
evaluating
fragility
Clean
hurting
hurricane
prostitutes
diplomats
absorbed
absorbing
##warf
Playstation
aiming
Eva
venue
cocon
untold
accumulation
concluded
seductive
outsource
coaching
coordinate
coordinates
pioneered
emerald
fulfilled
##nesday
##organisms
megaf
nhịn
enzym
bubbling
Capgras
geeky
bursting
ethnicity
halved
dismant
persuaded
persuasive
413
neatly
persistence
Honest
consulting
consultant
harnessing
binds
##project
validated
Dragon
arrowheads
overwhelmingly
Urban
battling
Teaching
Teachers
saltwater
Himalaya
chatting
Developing
Hindi
Protection
reconstructed
acknowledging
trivia
comprehension
Birke
Chuột
corresponding
scaffolding
Athe
Creativity
Rhodes
dyslexic
fiery
ripe
tactile
conquered
overlapping
Irish
LHQ
ominous
graceful
redesigning
##rypton
democratized
episodes
counselor
Extrem
Running
##engine
volcanic
benchmark
bureaucracy
##abytes
Pinot
fractal
##restrial
Johanna
Specifically
Target
hurdy
ranks
resemble
resembles
calendars
Laurel
Oxytocin
aquarium
mitigate
mitochond
pesticide
TED2008
sidewalks
weaknesses
sovereignty
Purple
compensation
perfume
impressions
Constitution
tornado
contemplating
Navy
Pierpont
##houette
conjunction
exporting
constitutes
neglected
Pavlov
nicotine
interdependence
disputes
reckless
Barnett
tenths
subsidies
championships
reversed
mandate
disparity
Isaiah
Asperger
skyscrap
locomot
Behavior
bonobos
Denisovan
DIYbio
alleged
allevi
adversity
brainstorms
Doctors
barrels
Director
Nadia
rabbi
escaping
Kwabena
unchanged
residue
mutilated
Jansen
Sitopia
turtle
turtles
##bags
##ishnan
##ophysics
nonverbal
psychoan
atheist
Foreign
Relig
egos
voyage
##corrh
Theodore
deceptive
intersections
repetition
repetitive
Rupal
##osophist
dodge
disadvantage
granular
specimen
eyebrows
Jehane
Bogota
Family
GCSE
Jetman
Opportunity
Vasconcel
spoofer
plunged
discontin
opponents
markings
Embassy
arrogant
misconception
irrespective
gymnosophist
Nirvana
Occasionally
botan
lentils
mourn
pragmatic
intestine
Shortly
paraphr
positives
provinces
cycling
hemispheres
Divergence
Ecuador
Sardinia
troublem
forensic
Challenge
lettuce
superficial
taxpayers
neurosurge
Eskimo
skepticism
underestimated
Neuroscient
Benefield
BASE
Nashville
Tuscan
bumblebees
biblical
trumpet
##oponte
brigade
insignificant
carrots
entitled
sleeve
Incredible
Leadership
Dictionary
Linked
podium
pluripotent
practitioners
barbecue
prostheses
interpreting
coworkers
precursor
briquettes
channelrhodopsin
BKT
Cuban
Future
Fitzgerald
Hockenberry
Poupon
bimetal
eternity
mismatch
messenger
rabbit
staple
segregated
Whewell
expenditure
bucardo
intermediate
Stratford
espresso
Scandinavia
titanium
whistleblowers
Celebr
Ibrahim
MDG
Tutsi
Zuckerberg
cunning
paternity
##ehyde
toddler
integral
serenity
soundtrack
virgins
Negroponte
combustion
Paralymp
synagogue
Glacier
Balochistan
undoubtedly
Lovegrove
Siemens
contraceptives
Belshazzar
Gourley
Huaorani
LXD
Mankoff
Nintendo
Ritalin
Wednesday
Yucatan
hottest
résum
taboos
Weiffenbach
Inconvenient
overconf
acronym
acromegaly
Phyllis
skyrock
Brilliant
Adelaide
superintendent
Mujahideen
skyscrapers
Vasconcelos
1kg
A4
AJ
Ale
Aub
Apar
Arem
Ayl
AID
Avi
Aston
AOL
Biên
Bod
Bag
Bast
Bách
Bắn
Bran
Bott
Batt
Birth
Bald
Boub
Bami
Boh
Bamb
Bubble
Bazo
Bryn
Bihar
Cay
Core
Cause
Cab
Card
Cấu
Cro
Care
Cẩn
Cels
Cris
CNC
Creek
Dion
Dược
Dart
Due
Dass
Dea
Dụng
Damas
Domin
DEP
Dishman
EU
Ely
Eise
Emanuel
Fel
Fact
Fark
Fellows
GI
Gir
Gấu
Gee
Gats
Gaga
Gmail
Ganson
Hả
Het
Hài
Hale
Hữu
Houd
Hamm
Herman
Hilton
Hỡi
IU
IRC
JQ
Jou
Jain
Jins
Jaipur
Kang
Kil
Kra
Kand
Kun
Kall
Kai
Kirst
Kell
Kru
Kew
Kane
Klin
Kyle
Keller
Kitty
Kiki
Krypton
Ll
Lã
Lệ
Lam
Lies
Loy
Luce
Lula
Lemon
Mé
MI
Mow
Mật
Miến
Mies
Mous
Mừng
Mend
Matter
Mental
Mug
Mises
Ny
NT
Nig
Niết
Nag
Nằm
Neph
Nye
NBC
Nacht
Oc
OS
Ost
Ooo
Ocarina
Pos
Pis
Pere
Pab
Pors
Push
Plex
Pogue
PDF
P25
RE
Rust
Rast
Rào
Rồng
Rider
Rama
Rượu
Ritz
Súng
Sort
Sab
Sign
Sợi
Sak
Sửa
Sinal
Saks
Siza
Soren
Synthetic
Ts
TW
Tiết
Tate
Tort
Tăng
Term
Tier
Tik
Tầng
Tana
Tandon
TMS
Tzu
Ud
Vod
Vọng
Vern
Vander
Vusi
Vaux
Vodka
Vishna
WW
Won
Went
Wave
Worth
WIT
Wyss
Xc
Xen
Yent
Yann
Yami
ZF
Zak
Zulu
auction
akin
bạ
bợ
bẽ
bree
búp
bows
bingo
bợm
cad
cúc
cog
cited
càm
dể
dả
dich
dared
dãn
daring
dwind
dingo
dotted
eject
egal
ejac
ephem
fải
fare
fiddle
fats
fused
gour
gừng
hơ
hủ
hast
huyên
hãn
hedge
hẻm
ivory
jaws
kicking
lổ
lới
lur
lig
lọi
lăm
lùa
lìa
lyr
lùn
lựu
mè
mop
múc
mẫn
mite
mars
masse
mịt
nê
nắn
nớt
nít
oo
os
oliu
panh
pious
pals
pins
pores
ppm
rể
rum
rated
rup
rented
ruth
rude
ridden
rocking
ripping
rationally
rivals
sor
sấy
sine
sán
sins
sọt
saint
tã
ting
tet
tết
táng
tuốc
tuối
tires
tẹo
vê
vơi
vữa
vảy
vừng
wack
witty
wiki
xk
xù
xới
xửa
xiếc
xẻo
zomb
ĐH
Đá
Đằng
Đàng
đơ
Ơn
ắt
##iang
##ieth
##ml
##mor
##mets
##lian
##ugan
##uah
##card
##cuff
##tic
##ais
##aqu
##aways
##oC
##oard
##note
##nier
##namic
##nipe
##yar
##yans
##yath
##rive
##rise
##rals
##rising
##rison
##dp
##dream
##deen
##just
##jord
##jav
##jolf
##eers
##eous
##evelop
##ezz
##wing
##went
##wives
##vol
##vetic
##vented
##vika
##kav
##kaf
##bid
##birth
##got
##gated
##gram
##gulation
##gli
##gassum
##zel
##zels
##pa
##pop
##pert
##paper
##pired
##fin
##fam
##flo
##fires
##fund
##CR
##CLU
##P2
##PJ
##TV
##Tech
##ND
##NY
##NES
##64
##Fi
##SF
##Sense
##ár
##áz
##qo
##Ex
##EB
##LL
##49
##14
##đi
##KO
##ngar
thò
throve
thât
thali
chir
chầm
churn
chuốt
chòi
chòm
chunky
nhằng
nhái
nhám
nheo
##ndy
##atre
##atury
traps
troph
truce
##nhill
##nhower
##osy
##ono
toan
toát
##enas
##enjin
##ingway
##anim
##anmar
ngáy
ngấu
ngỗng
##oro
##orial
quác
quậy
quads
##otional
##edical
##aram
##arayan
inks
inund
##isi
phật
phầm
phàm
phẩu
##rex
##rella
##itant
##inis
##inth
##inem
##inence
##inness
##inement
giũa
giỡn
cóng
##ayel
##asai
##asper
##icular
##lev
##lemm
whiz
whims
whilst
##oween
tapes
tadp
##utations
##ongru
##chen
##chio
##change
##chatz
beaver
reimag
Thơ
Thore
Thum
Thus
Thấu
Thảm
Thought
Thwa
hacks
##enth
##secut
nghê
nghén
nghẹt
##stones
##sticks
##urer
##idan
##angi
ram
raced
raping
##igator
##amorph
##amycin
chops
stero
stroll
stutter
stellar
doable
##imo
##iman
liu
##kee
##kelf
consecut
##iri
##irut
wastes
##olaus
pristine
cảu
Ches
Chấm
Check
Chief
Champ
Chemical
Champs
Chateau
hovering
##aders
##adors
loát
loaf
##terpret
goi
canoe
##emed
##emaw
##emba
soot
socola
shor
shines
shaved
##inhab
wors
Sole
comet
##raf
##raging
##estyle
##ulian
##essors
notable
fries
franch
##usters
##ustomed
alloc
alliances
allocate
##elp
##elow
##elley
##elkar
diab
diapers
dilemm
##agua
peac
Weber
Wendy
##oka
##okov
##umed
##umar
##istol
deleg
hepar
##bley
##ffen
##ffith
butch
##andi
##andy
##anderson
alibi
outbreaks
##ppets
spit
splend
sparse
##allows
khoét
##ciful
##heral
##ichu
uprising
sailing
sailed
##ogical
wholly
plausible
Trả
Triết
Trying
Trilogy
quyện
veg
##abric
compiling
compuls
legged
##ardi
##ardless
##answ
##vena
emits
emitting
Inn
expos
muffin
bully
perip
unin
unto
uneth
uninhab
unansw
##ilda
##itta
clog
coy
##roly
##roleum
nozz
amuse
imped
impover
impatient
startup
partisan
overc
overs
overcoming
interc
interv
interrel
##asson
disco
discer
disfig
disorient
righting
righteous
##enson
firstly
##berries
ponder
Khaled
underwent
bets
##odynamic
moan
daydream
ngoặc
##ickers
bla
blade
blades
bloom
adverse
desired
104
boiled
Ngà
Ngữ
Ngạc
##uca
genomics
##eworm
Hex
Heer
Heff
humming
##ecks
207
203
Stux
commem
prep
offense
khuỷ
scum
bred
brass
brighter
incont
incongru
smack
factual
floss
flavors
##onsible
cran
crate
crown
crony
##neo
##nevar
##wey
brainwaves
induce
Phel
Shree
Shank
Shaff
Sharm
Shuk
Shhh
Shady
technologist
invol
invading
TEDY
remake
remedy
remorse
coltan
khít
Giov
evac
evangel
reliability
transcript
beforehand
believer
polish
trawl
slipped
Newark
##atchi
##atched
learner
append
##atah
extensively
ministry
mineral
miniatur
questionable
monarchy
atten
sorted
recre
bioh
biophony
biopsy
centrif
Albright
Alisch
planners
median
medina
formulate
parody
parable
graft
##insic
##inska
Myanmar
##cker
##cken
workings
robbery
hyster
handcuff
projecting
hardworking
engra
Ant
regulated
visibility
supporters
##itsha
Gooch
infilt
##boja
accustomed
electrified
ampute
amphib
companions
Independence
futureless
##rani
funnel
passively
numbered
headphone
headwind
cleans
warp
warmed
pretzels
prescribed
Quentin
Aron
Ardu
Jolly
autumn
photoc
protagon
opposing
oppressed
Brits
Brisb
guồng
##ographs
morals
modeled
depress
##ovic
##ovah
badge
256
25000
charm
restraints
propensity
##arthy
billionth
billionaire
devils
Orville
##ronic
Atatur
filing
swine
swarm
##retion
nightmar
##usharam
awry
##ophan
Prom
Prod
Promet
Pratury
cheetah
friendships
Googlers
payback
shareholders
117
1100
waiter
mili
milestone
Levy
Leyla
Lois
crabs
cracking
crappy
sexes
mustaches
increment
Beirut
cancerous
clearance
deluge
Johnston
Ref
Reinh
Rebel
Reyk
Nghèo
babys
avian
Marl
Marine
marketer
marketers
Carrie
bít
objectives
messed
##anni
antelope
##acteria
pottery
audible
##otsman
buyers
laureate
sensations
sensual
revolving
162
1650
Emil
Emory
Amen
motives
shortest
14th
frees
Caled
Calvin
132
135
operational
recordings
RoboC
Coal
Coop
multicultural
Spino
Species
##ylus
drawer
drawers
Manya
Adolf
Clare
cooled
specialization
Blo
Blind
Blank
Bliss
Blaise
encl
Coles
Colin
picky
##ascus
travelers
Deqo
Charm
Charley
##going
shove
eyeball
squat
squirt
barren
modernity
modernism
hospice
texted
textures
Southam
Scalia
supernatural
249
Imag
##ynch
##ethe
##ethyl
thankfully
Schae
Schrod
Scholars
tripled
layered
conversational
snip
emailing
##strom
McE
dependency
Parag
Parents
Parusharam
predictability
vaccinate
currents
Danone
urch
similarity
Comb
lifting
Abdi
Haven
Steffen
leaven
tablets
divinity
Meng
Mega
births
pups
Khoẻ
Swaz
Swartz
Swenson
Institut
Suz
Suarez
safeguard
degener
Britlin
##etta
accountants
Smits
Sanj
##ecker
blindfold
Area
unfor
##llywood
doorstep
misd
mounting
translators
Place
Plains
ecl
ecologically
contentious
riders
radioactive
specificity
Todd
hospitality
##forest
Benz
Encyclopedia
Mostly
##aldine
Angel
spirits
Perony
skinny
panicked
separately
Flow
Flip
Barón
Barani
Barcia
Hypp
sweating
captures
thousandth
weights
complications
Bigelow
lowered
determin
Daria
Graves
starlight
afforded
affordability
capitalists
policymakers
turmo
familiarity
plasticity
Philosoph
Austrian
colder
Luis
Tomas
Drop
Michaela
magnesium
##uitous
demonstrations
prosthetics
fax
Team
##eyaw
Robertson
Maasai
daddy
##undi
malign
nơron
resisted
nutshell
Lanza
996
stripes
celebrities
coffeehouse
Bercken
centralized
Samboja
irresp
##condition
selecting
catches
Ghemaw
1944
candles
symbiotic
preventive
TEDxP
TEDxR
TEDxM
Hercules
liberate
Australians
commercially
##renched
trafficking
foreigners
denomin
avoidance
ambient
##PASS
Patient
##ochs
Rosa
Rosalie
valuing
##incere
Monty
Torre
touring
tourism
Accept
petrol
cooperating
rounds
mammalian
Schools
Proct
Basil
Hawkins
bagg
tunes
tuning
negatively
breathed
epidem
documentation
260
Baobab
epile
hostage
tasting
habitable
millig
MTA
MTT
mastered
Singing
transmitting
Janet
Vannevar
##antham
Oxfam
shuts
freshman
Delle
Delaware
Humph
Humbo
tailor
succeeds
Polish
Reporter
garment
Madh
Wallace
latent
bandages
##yengar
bonuses
suspend
suspense
suspicion
Burg
Burton
Burundi
advertise
Brooke
Rembra
Keats
indicator
##visor
academia
informative
piled
pilgr
coward
MacAr
grandfathers
migrating
fleeting
hunted
reinterpret
Rookie
qualify
grasses
circumstance
acquiring
Juanderson
Portal
nursery
1939
transitional
repairability
bathed
quieter
intellectuals
licenses
licensed
minimally
Jeffrey
Abrahams
Knop
heightened
dispens
Raymond
isolate
coalition
Steward
narciss
polymers
Travel
billboards
1912
1915
##arias
disciplined
astonished
cleverly
Scotch
Dawn
Louie
murm
rotation
rotting
##ECT
reframe
elevate
assembling
Ramsey
vocational
traumat
Copper
Helvetic
Jacqu
Jaclyn
Grandin
Skinner
Designers
Santee
Sandor
Sandra
inputs
tapeworm
commenting
snowfl
Boyd
pitches
pitched
unhappiness
McCarthy
Duflo
dictate
dictated
dedicate
lamps
Homaro
Ideas
bicycles
dissolve
dissatis
transplantation
Crock
Metropolitan
fossils
commandments
uncommon
xỉn
##mitters
##keeping
clustering
Murugan
Population
380
deriv
tentacles
blankets
1920s
marathons
surfing
Newsweek
Avril
Consum
Hancock
Hillis
Randall
initiate
initiated
diplomat
diplomatic
interconnections
acidification
absorbs
Merz
Siyath
Treo
gorilla
explosives
Đoán
Columbus
Hawaiian
Pete
innocence
Juliana
Mira
venues
advocates
Argentine
Elliot
Moderator
bosses
imperial
geniuses
biomim
biomedical
Halloween
Krista
Krishna
compromised
appealed
fluidity
clinicians
censored
externalities
decreasing
Photography
Photographer
Stevens
##aude
sparks
sparkling
correlations
Babylonian
Labs
nomadic
hamburgers
springs
sprinter
adjusted
rapamycin
uploading
recommended
Industry
Saima
precaution
SOC
Winston
Winnipe
chiefs
tragedies
excellence
persuading
1875
thermodynamics
schizophrenic
Duran
Hunts
holidays
redefined
elegans
immunized
Turkmen
Frieda
Rosey
greens
##IAC
anesthet
highlighted
recruiting
skulls
FedEx
Garone
Scientific
cubs
ngừoi
brutally
FOXP2
IMPASS
Understand
catheter
width
##izzly
observable
Rodney
sinking
1908
radiologists
harnessed
Luca
accomplishments
544
WiFi
deceived
Botox
cabinets
conceive
outdoors
Anthrop
pirates
sponsors
TED2012
Legacy
826
Ayelet
Cụm
hubs
perpetr
Standford
recommendations
Eliasson
Superman
dilute
Protestant
Astron
Velde
divergence
illuminating
promotes
promoted
aerodynamic
spiderwe
buffet
buffalo
augmentation
scaffolds
Gordian
Shermer
introverted
1880
1885
Doris
steadily
Michelin
Borane
Borneo
Bowery
syringes
democratize
Philippe
Kalenjin
##laration
Whitney
Miami
carcasses
horrified
inhibited
millennium
subtract
unfolding
Tweets
##uggets
##zoin
deprived
unleashed
deposit
depositing
diagnostics
Dunbar
Paley
Sumatra
hurdles
pornography
ranked
tidy
unnatural
molding
Declaration
Pranitha
Woods
linguists
nudge
rodeo
exquisitely
enlightenment
unwanted
uncovered
hopelessness
Leadbeater
Rubin
merging
merged
thyself
pronunci
Heatherwick
slaughtered
Kinect
rodent
anecdotes
Headwaters
scanners
circulatory
postcard
symmetrical
Gerhard
Geraldine
Moby
Rainforest
pixel
descended
descendants
decorated
inserted
recklessness
addictive
protocols
retrofitting
Robben
notebooks
meritocratic
Aquarius
Hemingway
Mikko
haunting
scraping
recurring
Explor
volcanoes
incarcerated
CyAr
Ebola
Lyne
Pictures
Sangu
Tilson
adulter
kidnapped
corridor
mobilize
Dodi
Etete
ICU
Lowline
greeted
preceding
sneakers
neutrality
neutrino
SIM
Wrong
culpr
vigil
##USC
forecast
Chapman
Chaplin
residual
Nguyen
transaction
contradictions
brewing
Adventists
Impossible
Political
Batman
STriDER
pivotal
##lamation
rewilding
plugging
humpback
##ishnu
indulge
demolition
atheists
Herschel
Ingrid
Lionel
Limor
Munroe
bruises
pellets
uterus
anomal
spearhead
feasibility
Tajfel
1759
fluorescence
multiplied
multiplayer
Porco
Rupert
bailout
gyre
owning
pacak
inertia
scribble
Confuci
Levine
specimens
Engineering
bottleneck
eyebrow
Jehovah
Majora
Bjorn
Bailey
Cisco
Cirque
Griffin
Griffith
Handel
Handspring
Jorge
RAM
TEEB
serendipity
resigned
underpin
transgendered
extroverts
Debora
Deborah
Rodrigo
Rodriguez
blueprint
blueprints
FILM
Heroes
Jobrani
Kohler
naughty
##melon
##potting
##THX
bundle
appointment
turbulence
FEED
Festival
Guttenberg
Hutchison
INK
Jawbone
Leroy
Larsson
humidity
handwriting
condemned
breadwinners
homosexuality
marginalized
Johannesburg
livelihoods
therapeutic
Brené
Kickstarter
NYU
Sethi
bogg
router
sargassum
plutocracy
indefinitely
droplet
Questions
calibrated
multidisciplinary
Discovery
illegally
rehearsal
Autonomy
Kareem
Mairead
Nabokov
Pedro
PRISM
Roche
Tatum
Wadah
cadaver
umbrella
syllab
Stuart
paranoid
submersible
antidepressants
predominantly
ecstasy
Francesca
Hispanic
Serbia
adventurous
Skylar
46664
Safeway
Baptiste
Pachycephalosaurus
Kílian
Personally
aurochs
tantal
plumbing
agonizing
displacement
Anatomage
repository
papercutting
underside
Ernest
neurotransmitters
rejuvenation
Aberdeen
Castle
Eddi
Gagarin
Hallelujah
JFK
Lahore
Mashelkar
Magellanic
TOR
malleable
séc
tulip
chorusing
reCAPTCHA
shaky
fraternal
contingent
bronze
critique
Pharaoh
meteorite
formaldehyde
privatization
Karolinska
Intelligence
Increasing
Summerwear
Pragmatic
unacceptable
inadvertently
Bureau
Hitchcock
Lestari
Sinek
Winehouse
lattice
otaku
trachoma
exempl
decipher
overfishing
writings
reconsider
swarms
Leopold
handshake
McFadden
portfolio
starshade
Okolloh
hemozoin
alleviate
##corrhiza
paraphrase
troublemaker
Neuroscientist
Tuscany
LinkedIn
Aubrey
Aparna
Aremeyaw
Aylward
AIDG
Bouba
Bazooka
Brynjolf
Celsius
Crisis
Dartmouth
Damasio
DEPTHX
Eisenhower
Gatsby
JQ1
Joubert
Jinsop
Lloyd
Mowgli
Moussa
Nyad
Nigel
Nephites
Nachtwey
Ockelf
Ostrow
Sakkaf
Sinaloa
Vauxhall
WITNES
Yentl
egalitarian
lyrical
rupi
xkcd
##uahua
##ezza
##CLUB
##ayelitsha
Thoreau
Thwaites
dilemmas
heparin
peripheral
unethical
Shaffi
Sharmeen
Giovanni
amputees
Brisbane
Ataturk
Reykjav
Spinoza
Baraniuk
turmoil
Ghemawat
Rembrandt
MacArthur
Helvetica
Muruganantham
Siyathemba
Winnipeg
FILMCLUB
Brynjolfsson
Ockelford
WITNESS
4th
69
81
Astr
Aval
BA
Ble
Bac
Bia
Biệt
Bip
Bãi
Bird
Bake
Bless
BRI
Biff
Cs
Cà
Cử
Cờ
Cắt
Cary
Cầm
Cool
Cerv
Cobalt
Crowd
Cuddy
Din
Dust
Dame
Dob
Dạy
DRC
Dicke
EM
Eag
Eye
FB
Fal
Fra
Ful
Gs
GM
Gây
Gái
Gust
Gặp
Góc
Goth
Grow
Games
HD
Hence
Hán
Hea
Hert
Hann
Hãng
Hij
Hulk
Ike
Jee
Jump
Kiều
Kob
Kidd
Lic
Linh
Lil
Lâu
Lose
Lạc
Lão
Lĩnh
Lying
Liqu
Mis
Mut
Might
Môn
Móc
Mèo
Mothers
Mund
Motion
Nt
Nàng
Ot
Opt
PV
Pike
Pune
Pette
Personal
Ry
Rối
Race
Răn
Round
Riêng
Rush
Rube
Raven
Ske
Sơn
Sâu
Sung
Send
Sustainable
TA
TT
Tô
Tid
Tao
Tour
Tồn
Tỉnh
Teddy
UM
Uran
UFO
View
Vision
Veter
Wat
Walking
Wake
Wern
Wafi
WOW
Xo
Xử
Xong
Xương
Ye
Yang
Zem
Zodiac
avenue
bớ
bấp
bồng
bale
bèn
backing
càn
còng
cro
cẳng
cuốc
cures
cằm
curing
cott
dos
dice
dộng
diệp
dãi
dìu
dwarf
eul
erupt
euda
fidd
ferry
fauc
faded
favors
fudge
fucking
gở
gon
gột
gin
gly
gắm
gọt
gyn
gulf
gathers
gươm
gastric
hấn
holog
húp
hike
hói
hợt
hudd
iO
joking
krill
lữ
lid
lặt
lamin
lươn
mú
mig
mẩn
mama
mute
mẫm
mason
murd
mụn
nần
nao
nức
nòi
nua
noses
nẻo
nails
niche
nagging
oi
oasis
pes
ping
pens
pouch
rọc
ratt
rides
sảng
sâm
sào
sầm
sincere
tầu
tơi
tìn
tether
tier
tasking
tinkering
teddy
vin
vom
vint
verm
vouch
wit
wool
wield
wug
xỏ
xiên
xãy
xóc
yaw
zinc
ôxy
ùn
Đau
Điên
Điệu
Đầy
Đỉnh
Đáp
đay
đành
đung
đít
Ấy
ắng
##iam
##iao
##iose
##ián
##ipt
##iates
##môn
##mite
##mother
##manship
##long
##uke
##unds
##uels
##uaries
##cion
##cine
##catch
##caster
##tor
##tec
##tale
##oided
##nan
##nith
##nter
##nation
##nival
##yah
##ymm
##sus
##rost
##rime
##rarian
##dess
##die
##jet
##elect
##ehr
##eenth
##wed
##was
##wart
##wife
##wIn
##vre
##xes
##xed
##kids
##bos
##bound
##bber
##bott
##buster
##gun
##glow
##hun
##hoo
##harm
##hoff
##zene
##pent
##page
##pipe
##fied
##House
##99
##29
##EO
##íu
##10
##Up
##Ind
##VA
##Qu
##ngill
thâu
thán
thặng
thảnh
thớt
thee
chy
chon
chin
cháo
chạc
chuck
chlor
chùn
chassis
##erance
nhỡ
nhừng
nhói
##atal
trc
trổ
tran
triền
##oult
##onics
khẽ
toi
##enching
##eskind
##anet
##anam
##ancies
##anza
##orously
##orrh
quas
query
quai
##otam
##otism
##oturf
##alry
##alini
##arat
##aras
##arently
inbox
##isk
phất
phiếm
phoned
##reach
##itat
##itos
##itates
##itters
##inite
##inese
##insey
##omers
##ashi
##aspor
##ication
##leys
quoting
quotation
taps
tapping
isoprene
##uto
##utilized
weed
itch
##child
nài
beers
bends
beams
##iềng
reel
reper
reared
reusing
Ther
Thất
Thích
Thiệt
Thảo
Thuyền
Thịt
##sell
onion
oneness
##ldom
##stic
##stop
Andres
##urious
##idos
rapp
rapt
rapper
##amish
##amins
choking
chopped
choked
stool
doom
doomed
##imil
##image
##imental
##cends
foragers
##opolitan
##opotam
liêm
liken
lipid
wasichu
ank
##ithia
Chó
Chí
Chiều
Chán
Chừng
Changing
Chocol
Channel
hobb
loét
##odeling
canals
seab
seated
seating
seism
seams
ascending
asymm
##outproject
##ilon
##ilateral
##illus
##rait
##rable
##rawn
atroc
##ulas
##ulite
##ulars
notices
notwith
alligator
exert
exterior
pee
peaked
##orecept
##acial
##acency
Wealth
##istence
##istocene
##artic
##artner
##artisan
delet
deemed
heals
heats
##user
knots
knuck
outstanding
outlook
outgoing
outreach
##unct
tease
##roud
spears
##aines
##ortium
##iches
upro
##ogues
yearly
yearning
plow
plots
plaza
Whale
##ours
sue
suông
enjo
##asted
##actor
Triệu
Trích
Trầm
Trạch
##acker
compression
compartment
##mented
##obo
##vens
agile
agrarian
emit
muông
timely
##reating
unim
unpr
unites
feud
##uded
willpower
##achers
##riers
##rious
##riarch
##feld
tub
clones
clinging
clathrin
thanking
arctic
twink
twitch
tweak
twelve
##ouni
amber
Đói
impart
imposs
imperson
tuyền
overly
overload
inters
interfer
##assic
disqu
##ounts
backdrop
##selage
poised
poachers
contested
contours
gothic
Khẩu
Khuyến
##quet
underb
underutilized
##rugg
##ultures
evenly
xuồng
grump
geneal
differentiated
humbled
##phy
##phen
##phonies
Sty
Stem
##athed
commuting
scored
scoring
mangrove
mangroves
roi
roost
##akenly
persists
##resses
flapping
crum
crane
crushing
tyranny
##weiser
huý
humanize
20000
childbirth
indisc
Phổi
Shea
techno
technologically
invas
##ailing
TEDA
TEDInd
remov
reminis
##redited
cola
coloss
imported
heli
carb
carve
cargo
carriage
Giơ
persona
opium
schema
afterlife
afterglow
evid
evoke
baff
relating
reliably
transitions
transfers
powering
glu
glor
glows
gloom
##azed
drastically
nguệch
slid
bitch
pointill
imaginable
learners
##isson
completing
modular
highs
mono
monog
monitors
monetary
seri
recal
recreation
recuper
patented
biog
biologic
biennial
Always
medd
watercol
waterproof
readings
treas
treats
edible
lively
parrot
generators
##ontology
Unt
Universe
Assemb
teachings
##perform
farthest
entang
ghiếc
mindfulness
engages
elation
elastic
elbow
eloqu
Anil
##onduct
openings
skim
skyl
supplied
submer
Gov
Goals
inference
##bole
capillary
Sheikh
animator
amputation
socializing
energized
funerals
probable
Forest
Arc
Aria
webpage
fuselage
banal
##versive
esp
photoshop
photorecept
redevelop
curse
curable
cultured
detached
protêin
Bright
Bristol
sideways
##ographers
insideoutproject
coronary
listing
Convention
Conversely
lateral
25th
refram
leveled
globaloney
restless
heartbreak
heartbreaking
##broken
propeller
##awak
marble
marital
marches
##ronics
retrovir
bothers
swell
swift
costumes
condensed
awa
individuality
##ernan
Prote
Pruss
Pringle
affair
afflu
Frog
advised
112
114
waits
Loves
constitute
constraint
crafting
##ractical
Begin
chimp
microfluid
housework
terrestrial
clearing
provisions
mênh
avoided
Marge
listeners
Carbon
neurologist
objection
innovating
antith
antiqu
antagon
audacity
landmark
laundering
laureates
sensibility
normality
reprogram
Emdin
approxim
Geert
motions
shortcom
calam
treatable
violently
violinist
fallacy
fallibility
temples
tempo
Calcul
psychic
psychologically
maths
duh
personalization
eyesight
tradem
Harford
discard
sunk
sunf
servant
##orthand
chemically
sentencing
originated
multif
Spiel
perfected
arrays
greener
greening
encomp
Collect
Braille
Character
risked
inspires
mornings
summers
deadline
30000
##itesh
convictions
opted
##opsies
causal
shoo
shovel
Camera
cỡi
harmed
harming
purity
textiles
Southwest
Scud
supervision
silic
##luse
Immedi
thanked
pollute
geologists
pathogenic
entertained
Schacht
televisions
##plication
bloodstream
bloodshed
1971
camping
##ugu
braking
brack
drip
##string
dependencies
promiscu
peacefully
immoral
erasing
Iraqis
angst
bedrock
plantation
Common
Complete
Abbey
Abbott
burg
burrow
ballroom
intelligently
divisions
Mech
pund
vỏn
negl
Baehr
##lette
##iaries
activating
##ettner
accountant
Smol
crossroad
truỵ
sandstone
searchable
##agnosed
prints
crisp
##oids
##oidal
screened
wasteful
mindsets
doorway
furthermore
miser
misdi
Pluto
progressing
progressed
ecologist
Jeep
thrill
tracker
admitting
domains
Enjoy
Angry
##linear
Percent
circus
circling
sanity
discusses
multiplication
separates
debut
mistakenly
cookbook
accepts
wildest
judicial
Grail
stares
catap
Thompson
Guide
portal
Wikile
crypt
boardroom
synonymous
coldest
Julián
sameness
Markham
contributes
symphonies
##ropolis
salute
##bbing
Apparently
##ependent
breadth
##repreneurs
chairman
comforting
comfortably
spectros
NAS
nationally
##lantic
teeny
Century
malarial
nơtr
nutrit
laughs
urbanism
stripping
automate
sequester
irred
dogmas
motivators
destroys
lẻn
adaptations
adaptable
catcher
gatherers
Ahh
skyline
Built
Buettner
gentler
sadd
pleasurable
tremor
clicker
TEDxUSC
breastfe
mutates
commerce
##regor
membership
photosyn
novelist
Resist
##buch
ambitions
torque
torrent
missionary
dòm
hypnot
ordinarily
Patients
##ochrom
therapists
crucially
homage
Streetview
Talithia
tịt
lacked
petri
petrochemical
petroleum
blender
blending
shootings
Rwandan
##pperware
trending
Lesley
hosted
MRIs
tuýp
quantity
bombings
Balinese
Silk
paintbrush
replacements
installing
shutter
freshmen
emptied
interpenet
harmless
Polio
Couldn
Madoff
titans
metaphorically
Disorder
conducts
counteract
suspension
floats
streamed
Olympus
digitization
accelerator
Tupperware
reviewing
Libeskind
Longden
cosmopolitan
juicy
colonized
altitudes
vibrational
constructing
sweetness
cacbonat
solidarity
displaying
Highway
gamer
Slut
ceremon
##named
librarians
Juilliard
rhyme
1933
Goldberg
repairing
Grad
Islamism
idealism
idealistic
renamed
undo
claiming
flashy
Fourteen
ensuring
Bosn
##ienne
estimation
earthquakes
ancestry
intensely
consisted
ridiculed
thicker
prayers
observers
dominating
loudly
sacrificed
Breaking
Correct
washes
orchid
madly
##eronaut
Collabor
negotiated
merch
##wln
Ide
dissolved
Ladenism
transplanting
Metro
Metrics
wingspan
polarization
Newtonian
stretches
Genome
pillar
intentioned
dioxit
albums
440
Conservation
Contrary
Random
##opathic
diploma
troop
infinity
Nicklen
Turner
yielded
Đoàn
Farther
Petra
parasitic
fossilized
Evolution
meltdown
tweeting
Christianity
Qatari
Waal
untapped
untouched
sediment
outsourcing
orchestras
Budweiser
censor
fooling
doughnut
scriptures
synthesized
megabyte
exploiting
Nevertheless
Poverty
Polyn
pumping
whispers
stereotypical
##imentary
##blood
dismay
persuasion
improvised
Holiness
Ninos
buttock
hyperbole
fertilize
Medicare
Senator
anesthes
Garrett
Garnie
Waterhouse
nurtured
railways
IMU
Rachelle
Terror
bathing
malls
widening
theorist
smoothly
transcendent
irrever
581
CSP
poisonous
insisting
composers
rethinking
binding
upsetting
summertime
nerds
##iasis
chronically
##istoric
schemes
horizons
bathrooms
DARwIn
DARwln
Older
battal
TED2013
caregiving
geometric
Reading
boredom
gateway
Strange
capsule
##ISE
Protect
reconstructing
##matism
Governor
girlfriends
illuminate
Damn
Damascus
Learn
nesting
Chuỗi
Chuẩn
buffer
Buddhas
Athens
ranges
##topl
tactical
coincidentally
boosting
variant
variants
cybercrime
reassure
gracefully
bushes
Regardless
WikiHouse
cruelty
chambers
reclaimed
warriors
statistician
straws
strawberry
immersive
neocortical
Kalash
Ultra
pasteuri
shattering
oranges
Starting
incorporating
Sleepy
loosely
subtly
unfolds
Limbaugh
Psychologist
mildly
amplify
retailers
aspirational
squeezing
fisherman
revered
blurry
blinking
commissioner
remittance
sufficiently
altruist
aquatic
nudges
proceeds
buzzing
resurrection
TED2006
Aravena
Narciss
insecurity
perfum
persecut
##roças
Constitu
mammograms
contemplate
Horse
losers
tutoring
spongy
featuring
Steinberg
fluctuation
evaporates
breeders
Attia
cafes
delicacy
microblogging
##glass
lobbyists
Phillip
misunderstand
misunderstanding
Jacobson
cockroaches
nailed
orbital
2025
asthmatic
sanctity
complaints
Cyber
Ganđi
Services
Tillett
bipartisan
hollowed
hectares
brainstorming
patriarch
distinguishes
facilitate
facilitated
steeped
conveniently
Beauty
Culture
Sacred
bunker
greeting
tossed
genitalium
precipice
culm
contradiction
Adventist
Politics
lemonade
comedians
adrenalin
scrambled
demolished
mortgages
recipients
megawatts
Hodgman
utero
cheeks
solely
depleted
deceptively
unreliable
preconceptions
constituency
admittedly
advertisement
lexicographer
lexicographical
gripped
horns
kinetic
shredder
outlaw
smuggled
submarine
autobiography
proportions
exclude
prevailing
Ferrari
Mastery
grueling
inconven
relieved
extrovert
biofabric
biofuels
opponent
arrogance
firefight
Entrepreneurs
reinforces
obliged
Valenti
Ricard
gadget
gadgets
imprisoned
imprisonment
Operations
cushions
cascade
quirky
foreseeable
intolerable
incompatible
voicem
Advanced
superhero
superheroes
pediatrician
Authority
biochemistry
Fischer
fiercely
tirelessly
đễnh
enforced
compliance
prehistoric
Nghiêm
congratulations
tradeoffs
skeletal
Ukraina
municipal
byproducts
Fighting
piercing
rebellion
withdraw
rooftops
crayons
caramel
succumb
assertive
archetype
incentivize
Hughes
LGBTQ
Pashtun
crocodile
Citizen
Killings
Literally
Method
Siegel
UAE
ceramics
dubious
fountains
jumbo
pavement
pshoo
tedious
vicinity
##cussions
giraffe
pendulum
coercion
incapable
##productive
questionnaire
Gooseberry
Embrace
prolonged
caterpillar
Bismark
Disease
Lithuan
Widder
airstrip
gambling
riddled
ulcer
lobbied
seizures
necroph
proverbial
pledged
##prisingly
retrospect
micrometeor
geopolitical
fantasies
semiconduct
Corporation
Copyright
Follow
NPR
Sidney
cervical
euph
eavesdrop
fusiform
hiccu
[...]
