{
    "<s>": 0,
    "<pad>": 1,
    "</s>": 2,
    "<unk>": 3,
    "<mask>": 4,
    "!": 5,
    "\"": 6,
    "#": 7,
    "$": 8,
    "%": 9,
    "&": 10,
    "'": 11,
    "(": 12,
    ")": 13,
    "*": 14,
    "+": 15,
    ",": 16,
    "-": 17,
    ".": 18,
    "/": 19,
    "0": 20,
    "1": 21,
    "2": 22,
    "3": 23,
    "4": 24,
    "5": 25,
    "6": 26,
    "7": 27,
    "8": 28,
    "9": 29,
    ":": 30,
    ";": 31,
    "<": 32,
    "=": 33,
    ">": 34,
    "?": 35,
    "@": 36,
    "A": 37,
    "B": 38,
    "C": 39,
    "D": 40,
    "E": 41,
    "F": 42,
    "G": 43,
    "H": 44,
    "I": 45,
    "J": 46,
    "K": 47,
    "L": 48,
    "M": 49,
    "N": 50,
    "O": 51,
    "P": 52,
    "Q": 53,
    "R": 54,
    "S": 55,
    "T": 56,
    "U": 57,
    "V": 58,
    "W": 59,
    "X": 60,
    "Y": 61,
    "Z": 62,
    "[": 63,
    "\\": 64,
    "]": 65,
    "^": 66,
    "_": 67,
    "`": 68,
    "a": 69,
    "b": 70,
    "c": 71,
    "d": 72,
    "e": 73,
    "f": 74,
    "g": 75,
    "h": 76,
    "i": 77,
    "j": 78,
    "k": 79,
    "l": 80,
    "m": 81,
    "n": 82,
    "o": 83,
    "p": 84,
    "q": 85,
    "r": 86,
    "s": 87,
    "t": 88,
    "u": 89,
    "v": 90,
    "w": 91,
    "x": 92,
    "y": 93,
    "z": 94,
    "{": 95,
    "|": 96,
    "}": 97,
    "~": 98,
    "¡": 99,
    "¢": 100,
    "£": 101,
    "¤": 102,
    "¥": 103,
    "¦": 104,
    "§": 105,
    "¨": 106,
    "©": 107,
    "ª": 108,
    "«": 109,
    "¬": 110,
    "®": 111,
    "¯": 112,
    "°": 113,
    "±": 114,
    "²": 115,
    "³": 116,
    "´": 117,
    "µ": 118,
    "¶": 119,
    "·": 120,
    "¸": 121,
    "¹": 122,
    "º": 123,
    "»": 124,
    "¼": 125,
    "½": 126,
    "¾": 127,
    "¿": 128,
    "À": 129,
    "Á": 130,
    "Â": 131,
    "Ã": 132,
    "Ä": 133,
    "Å": 134,
    "Æ": 135,
    "Ç": 136,
    "È": 137,
    "É": 138,
    "Ê": 139,
    "Ë": 140,
    "Ì": 141,
    "Í": 142,
    "Î": 143,
    "Ï": 144,
    "Ð": 145,
    "Ñ": 146,
    "Ò": 147,
    "Ó": 148,
    "Ô": 149,
    "Õ": 150,
    "Ö": 151,
    "×": 152,
    "Ø": 153,
    "Ù": 154,
    "Ú": 155,
    "Û": 156,
    "Ü": 157,
    "Ý": 158,
    "Þ": 159,
    "ß": 160,
    "à": 161,
    "á": 162,
    "â": 163,
    "ã": 164,
    "ä": 165,
    "å": 166,
    "æ": 167,
    "ç": 168,
    "è": 169,
    "é": 170,
    "ê": 171,
    "ë": 172,
    "ì": 173,
    "í": 174,
    "î": 175,
    "ï": 176,
    "ð": 177,
    "ñ": 178,
    "ò": 179,
    "ó": 180,
    "ô": 181,
    "õ": 182,
    "ö": 183,
    "÷": 184,
    "ø": 185,
    "ù": 186,
    "ú": 187,
    "û": 188,
    "ü": 189,
    "ý": 190,
    "þ": 191,
    "ÿ": 192,
    "Ā": 193,
    "ā": 194,
    "Ă": 195,
    "ă": 196,
    "Ą": 197,
    "ą": 198,
    "Ć": 199,
    "ć": 200,
    "Ĉ": 201,
    "ĉ": 202,
    "Ċ": 203,
    "ċ": 204,
    "Č": 205,
    "č": 206,
    "Ď": 207,
    "ď": 208,
    "Đ": 209,
    "đ": 210,
    "Ē": 211,
    "ē": 212,
    "Ĕ": 213,
    "ĕ": 214,
    "Ė": 215,
    "ė": 216,
    "Ę": 217,
    "ę": 218,
    "Ě": 219,
    "ě": 220,
    "Ĝ": 221,
    "ĝ": 222,
    "Ğ": 223,
    "ğ": 224,
    "Ġ": 225,
    "ġ": 226,
    "Ģ": 227,
    "ģ": 228,
    "Ĥ": 229,
    "ĥ": 230,
    "Ħ": 231,
    "ħ": 232,
    "Ĩ": 233,
    "ĩ": 234,
    "Ī": 235,
    "ī": 236,
    "Ĭ": 237,
    "ĭ": 238,
    "Į": 239,
    "į": 240,
    "İ": 241,
    "ı": 242,
    "Ĳ": 243,
    "ĳ": 244,
    "Ĵ": 245,
    "ĵ": 246,
    "Ķ": 247,
    "ķ": 248,
    "ĸ": 249,
    "Ĺ": 250,
    "ĺ": 251,
    "Ļ": 252,
    "ļ": 253,
    "Ľ": 254,
    "ľ": 255,
    "Ŀ": 256,
    "ŀ": 257,
    "Ł": 258,
    "ł": 259,
    "Ń": 260,
    "Ġt": 261,
    "Ġth": 262,
    "Ġa": 263,
    "in": 264,
    "Ġ,": 265,
    "Ġw": 266,
    "Ġthe": 267,
    "re": 268,
    "Ġ.": 269,
    "Ġo": 270,
    "Ġs": 271,
    "at": 272,
    "nd": 273,
    "er": 274,
    "ou": 275,
    "Ġc": 276,
    "is": 277,
    "it": 278,
    "Ġ&": 279,
    "os": 280,
    "Ġb": 281,
    "ing": 282,
    "Ġm": 283,
    "en": 284,
    "ap": 285,
    "Ġh": 286,
    "on": 287,
    "Ġto": 288,
    "Ġp": 289,
    "Ġf": 290,
    "es": 291,
    "an": 292,
    "apos": 293,
    "Ġd": 294,
    "or": 295,
    "Ġof": 296,
    "al": 297,
    "Ġin": 298,
    "Ġand": 299,
    "ed": 300,
    "Ġl": 301,
    "ar": 302,
    "ot": 303,
    "Ġy": 304,
    "Ġthat": 305,
    "om": 306,
    "Ġg": 307,
    "as": 308,
    "ic": 309,
    "le": 310,
    "ĠI": 311,
    "ve": 312,
    "Ġyou": 313,
    "ll": 314,
    "Ġn": 315,
    "Ġwe": 316,
    "Ġwh": 317,
    "ow": 318,
    "Ġe": 319,
    "us": 320,
    "Ġis": 321,
    "ly": 322,
    "Ġbe": 323,
    "ut": 324,
    "ion": 325,
    "Ġit": 326,
    "et": 327,
    "Ġre": 328,
    "ent": 329,
    "qu": 330,
    "ct": 331,
    "Ġon": 332,
    "ld": 333,
    "ver": 334,
    "ay": 335,
    "id": 336,
    "Th": 337,
    "And": 338,
    "Ġha": 339,
    "im": 340,
    "Ġthis": 341,
    "ur": 342,
    "ig": 343,
    "Ġst": 344,
    "ch": 345,
    "ere": 346,
    "quot": 347,
    "ro": 348,
    "ke": 349,
    "Ġfor": 350,
    "ce": 351,
    "if": 352,
    "se": 353,
    "Ġwas": 354,
    "am": 355,
    "ir": 356,
    "op": 357,
    "ith": 358,
    "Ġan": 359,
    "Ġdo": 360,
    "st": 361,
    "Ġare": 362,
    "ol": 363,
    "ally": 364,
    "Ġwith": 365,
    "th": 366,
    "Ġhave": 367,
    "ra": 368,
    "Ġab": 369,
    "Ġgo": 370,
    "Ġu": 371,
    "Ġthey": 372,
    "Ġse": 373,
    "Ġcan": 374,
    "Ġk": 375,
    "ation": 376,
    "out": 377,
    "Ġas": 378,
    "--": 379,
    "ht": 380,
    "Ġ--": 381,
    "Ġli": 382,
    "Ġsh": 383,
    "Ġwor": 384,
    "ad": 385,
    "So": 386,
    "Ġwhat": 387,
    "Ġ?": 388,
    "Ġhe": 389,
    "od": 390,
    "Ġcom": 391,
    "ould": 392,
    "Ġme": 393,
    "ill": 394,
    "very": 395,
    "Ġne": 396,
    "Ġabout": 397,
    "Ġat": 398,
    "ge": 399,
    "ter": 400,
    "ant": 401,
    "Ġnot": 402,
    "ul": 403,
    "il": 404,
    "Ġso": 405,
    "ore": 406,
    "The": 407,
    "Ġfr": 408,
    "Ġall": 409,
    "ust": 410,
    "ers": 411,
    "Ġj": 412,
    "Ġex": 413,
    "Ġch": 414,
    "Ġde": 415,
    "Ġr": 416,
    "Ġus": 417,
    "Ġmy": 418,
    "ight": 419,
    "Ġsom": 420,
    "Ġpro": 421,
    "Ġpe": 422,
    "ear": 423,
    "art": 424,
    "Ġor": 425,
    "ople": 426,
    "ess": 427,
    "We": 428,
    "Ġthere": 429,
    "Ġcon": 430,
    "ck": 431,
    "Ġpeople": 432,
    "ate": 433,
    "Ġlike": 434,
    "um": 435,
    "ure": 436,
    "ies": 437,
    "ok": 438,
    "ive": 439,
    "Ġone": 440,
    "Ġfrom": 441,
    "ist": 442,
    "est": 443,
    "ity": 444,
    "nt": 445,
    "Ġlo": 446,
    "ble": 447,
    "Ġma": 448,
    "Ġkn": 449,
    "Ġour": 450,
    "use": 451,
    "Ġbec": 452,
    "Ġv": 453,
    "Ġbut": 454,
    "ind": 455,
    "Ġte": 456,
    "Ġout": 457,
    "ect": 458,
    "rou": 459,
    "ĠA": 460,
    "ink": 461,
    "Ġal": 462,
    "all": 463,
    "Ġ:": 464,
    "un": 465,
    "Ġint": 466,
    "ause": 467,
    "Ġjust": 468,
    "It": 469,
    "ide": 470,
    "and": 471,
    "Ġknow": 472,
    "Ġsp": 473,
    "Ġthing": 474,
    "Ġthem": 475,
    "ie": 476,
    "Ġtr": 477,
    "ĠS": 478,
    "But": 479,
    "her": 480,
    "Ġthese": 481,
    "Ġsee": 482,
    "Ġif": 483,
    "ort": 484,
    "ci": 485,
    "Ġup": 486,
    "Ġwho": 487,
    "Ġthink": 488,
    "Ġvery": 489,
    "Ġget": 490,
    "el": 491,
    "ich": 492,
    "Ġby": 493,
    "one": 494,
    "Ġwhen": 495,
    "ain": 496,
    "Ġpl": 497,
    "Ġact": 498,
    "Ġmore": 499,
    "Ġyour": 500,
    "iv": 501,
    "ĠC": 502,
    "Ġsome": 503,
    "Wh": 504,
    "Ġgoing": 505,
    "Ġ1": 506,
    "Ġim": 507,
    "Ġyear": 508,
    "Ġbecause": 509,
    "em": 510,
    "Ġhad": 511,
    "our": 512,
    "Ġsa": 513,
    "Ġwould": 514,
    "Ġwere": 515,
    "ĠM": 516,
    "og": 517,
    "ost": 518,
    "ame": 519,
    "Ġhow": 520,
    "ine": 521,
    "Ġtheir": 522,
    "Ġtim": 523,
    "ose": 524,
    "ast": 525,
    "ment": 526,
    "Ġwhich": 527,
    "Ġwork": 528,
    "Ġsu": 529,
    "Ġwant": 530,
    "Ġreally": 531,
    "Ġlook": 532,
    "ually": 533,
    "iz": 534,
    "are": 535,
    "Ġcomp": 536,
    "00": 537,
    "gh": 538,
    "act": 539,
    "ard": 540,
    "reat": 541,
    "ous": 542,
    "Ġway": 543,
    "ack": 544,
    "Ġen": 545,
    "Ġta": 546,
    "Ġworld": 547,
    "hing": 548,
    "ab": 549,
    "Ġle": 550,
    "You": 551,
    "ans": 552,
    "ag": 553,
    "Ġexp": 554,
    "ther": 555,
    "Ġhere": 556,
    "Ġtime": 557,
    "ong": 558,
    "Ġthen": 559,
    "ĠB": 560,
    "pp": 561,
    "Ġhas": 562,
    "This": 563,
    "Ġevery": 564,
    "ions": 565,
    "Ġsay": 566,
    "Ġper": 567,
    "app": 568,
    "alk": 569,
    "Ġactually": 570,
    "Ġdon": 571,
    "age": 572,
    "Ġman": 573,
    "Ġqu": 574,
    "Ġinto": 575,
    "Ġev": 576,
    "Ġcould": 577,
    "ud": 578,
    "ace": 579,
    "ence": 580,
    "res": 581,
    "Ġwill": 582,
    "ild": 583,
    "Ġfe": 584,
    "ĠH": 585,
    "Ġyears": 586,
    "Ġdid": 587,
    "Ġnow": 588,
    "Now": 589,
    "Ġother": 590,
    "Ġthings": 591,
    "ach": 592,
    "itt": 593,
    "Ġag": 594,
    "Ġwhere": 595,
    "iff": 596,
    "nder": 597,
    "ĠT": 598,
    "ĠG": 599,
    "Ġsomet": 600,
    "They": 601,
    "Ġno": 602,
    "ical": 603,
    "ff": 604,
    "ice": 605,
    "Ġmake": 606,
    "Ġdiff": 607,
    "Ġhapp": 608,
    "Ġneed": 609,
    "Ġun": 610,
    "Ġany": 611,
    "Ġthan": 612,
    "Ġtw": 613,
    "ĠE": 614,
    "Ġcl": 615,
    "Ġpr": 616,
    "Ġbeen": 617,
    "ĠP": 618,
    "pt": 619,
    "ĠD": 620,
    "so": 621,
    "Ġimp": 622,
    "Ġsaid": 623,
    "irst": 624,
    "ome": 625,
    "Ġstart": 626,
    "ia": 627,
    "Ġ2": 628,
    "Ġar": 629,
    "Ġpart": 630,
    "red": 631,
    "ife": 632,
    "ory": 633,
    "ry": 634,
    "ree": 635,
    "ĠN": 636,
    "ip": 637,
    "Ġover": 638,
    "Ġsomething": 639,
    "Ġco": 640,
    "Ġtwo": 641,
    "Ġbu": 642,
    "ite": 643,
    "orm": 644,
    "Ġright": 645,
    "uch": 646,
    "own": 647,
    "Ġdis": 648,
    "ount": 649,
    "ang": 650,
    "ass": 651,
    "round": 652,
    "Ġback": 653,
    "Ġmuch": 654,
    "ign": 655,
    "ep": 656,
    "Ġdiffere": 657,
    "ib": 658,
    "ound": 659,
    "Ġfirst": 660,
    "Ġshe": 661,
    "Ġnew": 662,
    "sel": 663,
    "Ġcall": 664,
    "ens": 665,
    "Ġtalk": 666,
    "ac": 667,
    "Ġthose": 668,
    "ue": 669,
    "Ġpo": 670,
    "Ġalso": 671,
    "rain": 672,
    "olog": 673,
    "Ġmo": 674,
    "Ġspe": 675,
    "Ġgot": 676,
    "ater": 677,
    "ves": 678,
    "cent": 679,
    "lo": 680,
    "Ġro": 681,
    "ĠL": 682,
    "ght": 683,
    "Ġlife": 684,
    "ple": 685,
    "king": 686,
    "ult": 687,
    "Ġcont": 688,
    "ittle": 689,
    "Ġlot": 690,
    "Ġkind": 691,
    "Ġlittle": 692,
    "Ġac": 693,
    "vel": 694,
    "way": 695,
    "Ġbet": 696,
    "Ġunder": 697,
    "ody": 698,
    "Ġhis": 699,
    "That": 700,
    "ber": 701,
    "oss": 702,
    "Ġmost": 703,
    "Ġph": 704,
    "ru": 705,
    "ving": 706,
    "Ġam": 707,
    "Ġfo": 708,
    "In": 709,
    "ell": 710,
    "Ġres": 711,
    "Ġday": 712,
    "ĠR": 713,
    "ated": 714,
    "Ġonly": 715,
    "Ġher": 716,
    "able": 717,
    "Ġeven": 718,
    "ations": 719,
    "What": 720,
    "ial": 721,
    "Ġdes": 722,
    "co": 723,
    "Ġad": 724,
    "ict": 725,
    "Ġbo": 726,
    "Ġmany": 727,
    "Ġtake": 728,
    "Ġdifferent": 729,
    "ĠF": 730,
    "rough": 731,
    "Ġ;": 732,
    "Ġgood": 733,
    "ĠW": 734,
    "Ġsy": 735,
    "ank": 736,
    "ire": 737,
    "du": 738,
    "ick": 739,
    "Ġshow": 740,
    "Ġreal": 741,
    "Ġhum": 742,
    "Ġem": 743,
    "Ġide": 744,
    "ance": 745,
    "ase": 746,
    "Ġaround": 747,
    "Ġthrough": 748,
    "other": 749,
    "cess": 750,
    "int": 751,
    "Ġgr": 752,
    "Ġdoes": 753,
    "Ġcomm": 754,
    "ak": 755,
    "ning": 756,
    "There": 757,
    "Ġpre": 758,
    "ish": 759,
    "ĠO": 760,
    "ents": 761,
    "Ġtell": 762,
    "form": 763,
    "ĠJ": 764,
    "Ġoff": 765,
    "Ġdown": 766,
    "ms": 767,
    "ange": 768,
    "Ġbeing": 769,
    "ath": 770,
    "Ġput": 771,
    "ress": 772,
    "Ġwr": 773,
    "Ġuse": 774,
    "Ġproble": 775,
    "ade": 776,
    "ible": 777,
    "Ġthou": 778,
    "ful": 779,
    "wn": 780,
    "Ġhappen": 781,
    "Ġsm": 782,
    "ors": 783,
    "ether": 784,
    "xt": 785,
    "ary": 786,
    "Ġinc": 787,
    "les": 788,
    "ark": 789,
    "Ġfact": 790,
    "ject": 791,
    "Ġsame": 792,
    "day": 793,
    "ual": 794,
    "ĠU": 795,
    "Ġcount": 796,
    "Well": 797,
    "lect": 798,
    "ord": 799,
    "iver": 800,
    "Ġsc": 801,
    "ne": 802,
    "Ġbr": 803,
    "ower": 804,
    "Ġcome": 805,
    "Ġtry": 806,
    "ces": 807,
    "Ġmay": 808,
    "stem": 809,
    "Ġbig": 810,
    "ys": 811,
    "ting": 812,
    "Ġgen": 813,
    "ile": 814,
    "urn": 815,
    "Ġpers": 816,
    "Ġthree": 817,
    "ars": 818,
    "tern": 819,
    "per": 820,
    "Ġdoing": 821,
    "Ġdec": 822,
    "ved": 823,
    "Ġfind": 824,
    "chn": 825,
    "Ġgreat": 826,
    "ons": 827,
    "Ġsur": 828,
    "Ġexper": 829,
    "ically": 830,
    "te": 831,
    "self": 832,
    "Ġpercent": 833,
    "Ġhuman": 834,
    "fter": 835,
    "cial": 836,
    "nds": 837,
    "Ġquest": 838,
    "Ġwell": 839,
    "Ġchild": 840,
    "be": 841,
    "fore": 842,
    "Ġtra": 843,
    "Ġbrain": 844,
    "Ġsystem": 845,
    "we": 846,
    "ics": 847,
    "ied": 848,
    "Ġapp": 849,
    "ĠCh": 850,
    "Ġlear": 851,
    "Ġlet": 852,
    "Ġtechn": 853,
    "body": 854,
    "Ġown": 855,
    "Ġstud": 856,
    "Ġcalled": 857,
    "Ġwhy": 858,
    "Ġsim": 859,
    "ating": 860,
    "Ġind": 861,
    "thing": 862,
    "ian": 863,
    "Ġra": 864,
    "ition": 865,
    "igh": 866,
    "Ġcr": 867,
    "Ġmade": 868,
    "illion": 869,
    "ology": 870,
    "Ġinv": 871,
    "Ġbl": 872,
    "av": 873,
    "Ġbuild": 874,
    "Ġbel": 875,
    "ren": 876,
    "Ġgu": 877,
    "Ġwom": 878,
    "Ġagain": 879,
    "ates": 880,
    "Ġrem": 881,
    "ric": 882,
    "Ġshould": 883,
    "ious": 884,
    "Ġcol": 885,
    "Ġimport": 886,
    "mer": 887,
    "Ġunderst": 888,
    "Ġask": 889,
    "If": 890,
    "Ġcreat": 891,
    "Ġlong": 892,
    "con": 893,
    "lp": 894,
    "ize": 895,
    "Thank": 896,
    "ĠK": 897,
    "ities": 898,
    "olut": 899,
    "Ġchange": 900,
    "He": 901,
    "ty": 902,
    "Ġtoday": 903,
    "Ġend": 904,
    "Ġperson": 905,
    "Ġins": 906,
    "pe": 907,
    "Ġfeel": 908,
    "ub": 909,
    "lic": 910,
    "Ġdidn": 911,
    "cho": 912,
    "Ġthought": 913,
    "Ġimportant": 914,
    "Ġafter": 915,
    "ail": 916,
    "he": 917,
    "Ġidea": 918,
    "Ġmean": 919,
    "Ġfl": 920,
    "amp": 921,
    "Ġcour": 922,
    "ise": 923,
    "ew": 924,
    "ft": 925,
    "Ġsci": 926,
    "Ġob": 927,
    "Ġ3": 928,
    "Ġlast": 929,
    "Ġhelp": 930,
    "Ġstarted": 931,
    "chool": 932,
    "erest": 933,
    "Ġunderstand": 934,
    "Ġtrans": 935,
    "Ġwent": 936,
    "Ġbas": 937,
    "ĠIt": 938,
    "ull": 939,
    "Ġits": 940,
    "Ġinst": 941,
    "ope": 942,
    "Ġproblem": 943,
    "Ġbelie": 944,
    "Ġstory": 945,
    "ily": 946,
    "ese": 947,
    "Ġke": 948,
    "Ġbefore": 949,
    "kes": 950,
    "Ġmight": 951,
    "Ġrel": 952,
    "Ġcar": 953,
    "Ġdesign": 954,
    "Ġdr": 955,
    "ough": 956,
    "gan": 957,
    "ave": 958,
    "als": 959,
    "Ġpower": 960,
    "ob": 961,
    "Ġplay": 962,
    "Ġnever": 963,
    "Ġprodu": 964,
    "Ġinterest": 965,
    "Ġpol": 966,
    "Ġhim": 967,
    "ec": 968,
    "000": 969,
    "Ġbetter": 970,
    "ular": 971,
    "Ġcourse": 972,
    "Ġinter": 973,
    "Ġgive": 974,
    "Ġart": 975,
    "und": 976,
    "Ġstill": 977,
    "Ġturn": 978,
    "Ġable": 979,
    "Ġkid": 980,
    "Ġschool": 981,
    "Ġcons": 982,
    "Ġfam": 983,
    "Ġfound": 984,
    "old": 985,
    "ists": 986,
    "ction": 987,
    "Ġpoint": 988,
    "ert": 989,
    "ility": 990,
    "Ġent": 991,
    "Ġfew": 992,
    "Ġimag": 993,
    "Ġlearn": 994,
    "Ġbit": 995,
    "Ġcommun": 996,
    "When": 997,
    "ven": 998,
    "ience": 999,
    "Ġcame": 1000,
    "oc": 1001,
    "ix": 1002,
    "ĠAnd": 1003,
    "Ġnext": 1004,
    "velop": 1005,
    "Ġ&#": 1006,
    "Ġtog": 1007,
    "Ġtogether": 1008,
    "ween": 1009,
    "ather": 1010,
    "Ġstr": 1011,
    "atch": 1012,
    "ĠThe": 1013,
    "Ġanother": 1014,
    "ng": 1015,
    "ĠY": 1016,
    "Ġeach": 1017,
    "pl": 1018,
    "ness": 1019,
    "oth": 1020,
    "ĠSt": 1021,
    "Ġexam": 1022,
    "erg": 1023,
    "Ġcell": 1024,
    "ĠIn": 1025,
    "Ġdat": 1026,
    "Ġcomple": 1027,
    "Ġlove": 1028,
    "Ġquestion": 1029,
    "Ġbetween": 1030,
    "uc": 1031,
    "ited": 1032,
    "ense": 1033,
    "alth": 1034,
    "read": 1035,
    "Ġdevelop": 1036,
    "ized": 1037,
    "Ġhigh": 1038,
    "Ġnum": 1039,
    "Ġago": 1040,
    "Ġsl": 1041,
    "Ġsort": 1042,
    "Ġmod": 1043,
    "arch": 1044,
    "az": 1045,
    "ward": 1046,
    "Ġcre": 1047,
    "Ġ10": 1048,
    "Ġplace": 1049,
    "iss": 1050,
    "Ġword": 1051,
    "Ġused": 1052,
    "ork": 1053,
    "Ġmin": 1054,
    "Ġmon": 1055,
    "Ġ19": 1056,
    "iness": 1057,
    "Ġpat": 1058,
    "Ġdata": 1059,
    "cy": 1060,
    "ings": 1061,
    "meric": 1062,
    "ph": 1063,
    "Ġfour": 1064,
    "ures": 1065,
    "ways": 1066,
    "Ġgra": 1067,
    "Ġ20": 1068,
    "Ġext": 1069,
    "Ġgrow": 1070,
    "Ġser": 1071,
    "oney": 1072,
    "Ġtoo": 1073,
    "Ġexample": 1074,
    "Ġmed": 1075,
    "Ġmom": 1076,
    "Ġatt": 1077,
    "Ġwomen": 1078,
    "Ġplan": 1079,
    "aph": 1080,
    "formation": 1081,
    "Ġfin": 1082,
    "Ġlight": 1083,
    "ĠYou": 1084,
    "Ġla": 1085,
    "ood": 1086,
    "ecause": 1087,
    "ered": 1088,
    "ced": 1089,
    "ific": 1090,
    "Ġold": 1091,
    "Ġmet": 1092,
    "Ġop": 1093,
    "Ġwater": 1094,
    "Ġdone": 1095,
    "conom": 1096,
    "Ġread": 1097,
    "cept": 1098,
    "Ġtechnology": 1099,
    "Ġlive": 1100,
    "Ġcare": 1101,
    "Ġdoesn": 1102,
    "ĠWe": 1103,
    "Ġsmall": 1104,
    "Ġless": 1105,
    "Ġwanted": 1106,
    "cond": 1107,
    "ĠAmeric": 1108,
    "ets": 1109,
    "ative": 1110,
    "ah": 1111,
    "Ġmus": 1112,
    "ger": 1113,
    "Ġchang": 1114,
    "Ġlooking": 1115,
    "Ġbelieve": 1116,
    "Ġalways": 1117,
    "Ġbeh": 1118,
    "Ġrec": 1119,
    "ably": 1120,
    "ale": 1121,
    "selves": 1122,
    "Ġcent": 1123,
    "Ġed": 1124,
    "Ġmoney": 1125,
    "Ġpartic": 1126,
    "Ġchildren": 1127,
    "Ġeff": 1128,
    "Ġever": 1129,
    "ands": 1130,
    "Ġgiv": 1131,
    "Ġeconom": 1132,
    "ĠAf": 1133,
    "Ġgener": 1134,
    "Ġcomput": 1135,
    "Ġworking": 1136,
    "Ġposs": 1137,
    "Ġexpl": 1138,
    "Ġrep": 1139,
    "Ġreas": 1140,
    "Ġwhole": 1141,
    "Ġteach": 1142,
    "Ġbus": 1143,
    "Ġfar": 1144,
    "Ġbook": 1145,
    "Ġ5": 1146,
    "Ġter": 1147,
    "Ġaway": 1148,
    "Ġinformation": 1149,
    "Ġproject": 1150,
    "Ġhard": 1151,
    "Ġear": 1152,
    "Ġcountry": 1153,
    "ational": 1154,
    "Ġhome": 1155,
    "Ġmove": 1156,
    "Ġtrying": 1157,
    "led": 1158,
    "Because": 1159,
    "Ġnat": 1160,
    "Ġdem": 1161,
    "Ġkids": 1162,
    "Ġcreate": 1163,
    "nce": 1164,
    "Ġel": 1165,
    "Ġ4": 1166,
    "Ġmind": 1167,
    "vers": 1168,
    "Ġhealth": 1169,
    "Ġrun": 1170,
    "Ġlar": 1171,
    "Ġfood": 1172,
    "Ġresp": 1173,
    "air": 1174,
    "Ġreg": 1175,
    "ural": 1176,
    "ries": 1177,
    "hip": 1178,
    "ote": 1179,
    "Ġstu": 1180,
    "olution": 1181,
    "Ġbi": 1182,
    "cer": 1183,
    "Ġfrie": 1184,
    "ird": 1185,
    "Ġmillion": 1186,
    "ism": 1187,
    "Ġmeans": 1188,
    "Ġusing": 1189,
    "Ġeng": 1190,
    "nect": 1191,
    "wh": 1192,
    "Ġlead": 1193,
    "Ġfive": 1194,
    "atter": 1195,
    "ments": 1196,
    "gr": 1197,
    "ED": 1198,
    "ont": 1199,
    "ract": 1200,
    "ident": 1201,
    "Ġprocess": 1202,
    "pr": 1203,
    "Ġsupp": 1204,
    "Ġsing": 1205,
    "Ġcou": 1206,
    "Ġpict": 1207,
    "Ġhand": 1208,
    "Ġbecome": 1209,
    "Ġsub": 1210,
    "gg": 1211,
    "Ġsk": 1212,
    "Ġfun": 1213,
    "ines": 1214,
    "Ġvis": 1215,
    "Ġpass": 1216,
    "Ġopen": 1217,
    "ins": 1218,
    "its": 1219,
    "ories": 1220,
    "ruct": 1221,
    "Ġmaybe": 1222,
    "Ġfut": 1223,
    "Ġconf": 1224,
    "Ġtook": 1225,
    "Ġspace": 1226,
    "Ġacc": 1227,
    "Ġdoll": 1228,
    "aut": 1229,
    "Ġinf": 1230,
    "ten": 1231,
    "Ġsecond": 1232,
    "Ġthinking": 1233,
    "vern": 1234,
    "iron": 1235,
    "Ġpub": 1236,
    "Ġeverything": 1237,
    "Ġshare": 1238,
    "Ġcor": 1239,
    "Ġanim": 1240,
    "Ġwalk": 1241,
    "Ġcompan": 1242,
    "aces": 1243,
    "Ġfuture": 1244,
    "rib": 1245,
    "Ġcap": 1246,
    "Ġorgan": 1247,
    "ond": 1248,
    "Ġbest": 1249,
    "Ġform": 1250,
    "sw": 1251,
    "Ġenerg": 1252,
    "Ġsays": 1253,
    "Ġquite": 1254,
    "ues": 1255,
    "roup": 1256,
    "ention": 1257,
    "Ġprob": 1258,
    "iew": 1259,
    "ĠUn": 1260,
    "Ġ!": 1261,
    "ogr": 1262,
    "ivers": 1263,
    "Ġcontro": 1264,
    "Ġsocial": 1265,
    "Ġnumber": 1266,
    "Ġsoci": 1267,
    "iting": 1268,
    "ake": 1269,
    "Ġsol": 1270,
    "alf": 1271,
    "Ġelect": 1272,
    "ek": 1273,
    "Ġenough": 1274,
    "Ġleft": 1275,
    "Ġlives": 1276,
    "Ġansw": 1277,
    "Ġhead": 1278,
    "lob": 1279,
    "Ġpop": 1280,
    "Ġcomes": 1281,
    "ertain": 1282,
    "How": 1283,
    "Ġgetting": 1284,
    "ĠSo": 1285,
    "ety": 1286,
    "ner": 1287,
    "ouse": 1288,
    "Ġcle": 1289,
    "Why": 1290,
    "Ġbeg": 1291,
    "kay": 1292,
    "Ġmaking": 1293,
    "Ġenergy": 1294,
    "arr": 1295,
    "Ġgroup": 1296,
    "ĠV": 1297,
    "Ġgovern": 1298,
    "Ġpres": 1299,
    "ices": 1300,
    "These": 1301,
    "irl": 1302,
    "ĠAfric": 1303,
    "ital": 1304,
    "Ġbody": 1305,
    "Ġtimes": 1306,
    "cus": 1307,
    "ever": 1308,
    "ier": 1309,
    "Ġmonth": 1310,
    "Ġset": 1311,
    "Ġhappened": 1312,
    "Ġroom": 1313,
    "Ġenv": 1314,
    "Ġsense": 1315,
    "ying": 1316,
    "Ġmoment": 1317,
    "Ġrese": 1318,
    "Ġval": 1319,
    "Ġaut": 1320,
    "reen": 1321,
    "Ġmakes": 1322,
    "Ġspec": 1323,
    "Ġwithout": 1324,
    "Ġprobably": 1325,
    "Ġsound": 1326,
    "Ġjob": 1327,
    "Ġtalking": 1328,
    "Ġcountries": 1329,
    "Ġcho": 1330,
    "tty": 1331,
    "imes": 1332,
    "Ġconnect": 1333,
    "ĠChin": 1334,
    "ross": 1335,
    "Ġinteresting": 1336,
    "Ġpie": 1337,
    "ĠTED": 1338,
    "Ġkeep": 1339,
    "Ġbusiness": 1340,
    "Ġdollars": 1341,
    "ĠWhat": 1342,
    "ts": 1343,
    "Ġtop": 1344,
    "uring": 1345,
    "Ġbeaut": 1346,
    "Ġphot": 1347,
    "Ġdef": 1348,
    "ior": 1349,
    "Ġwar": 1350,
    "idd": 1351,
    "Ġmusic": 1352,
    "Ġtold": 1353,
    "Ġresearch": 1354,
    "Ġdist": 1355,
    "Ġexperience": 1356,
    "angu": 1357,
    "Ġreason": 1358,
    "aps": 1359,
    "io": 1360,
    "Ġty": 1361,
    "Ġhist": 1362,
    "Ġadd": 1363,
    "Ġpretty": 1364,
    "Ġenviron": 1365,
    "Ġsimple": 1366,
    "Ġyoung": 1367,
    "Ġminut": 1368,
    "One": 1369,
    "Ġcur": 1370,
    "lobal": 1371,
    "Ġelse": 1372,
    "Ġeduc": 1373,
    "My": 1374,
    "Ġcult": 1375,
    "Ġphys": 1376,
    "ient": 1377,
    "Ġopp": 1378,
    "Ġey": 1379,
    "Ġsaw": 1380,
    "Ġacross": 1381,
    "Ġscience": 1382,
    "Ġallow": 1383,
    "Ġvide": 1384,
    "Ġsuch": 1385,
    "Ġ200": 1386,
    "ided": 1387,
    "Ġstand": 1388,
    "Ġpolit": 1389,
    "Ġwo": 1390,
    "ately": 1391,
    "Ġcells": 1392,
    "Ġdet": 1393,
    "ĠInd": 1394,
    "93": 1395,
    "Ġmatter": 1396,
    "ead": 1397,
    "Ġmen": 1398,
    "Ġhalf": 1399,
    "Ġlangu": 1400,
    "Ġasked": 1401,
    "Ġcase": 1402,
    "Ġsign": 1403,
    "Ġeas": 1404,
    "Ġstuff": 1405,
    "91": 1406,
    "Ġside": 1407,
    "Ġstop": 1408,
    "Ġliving": 1409,
    "Ġways": 1410,
    "bo": 1411,
    "der": 1412,
    "ember": 1413,
    "Ġprot": 1414,
    "Ġfamily": 1415,
    "Ġinside": 1416,
    "Ġmor": 1417,
    "Ġscient": 1418,
    "Ġhour": 1419,
    "Ġanything": 1420,
    "Ġweek": 1421,
    "Ġhope": 1422,
    "Ġlist": 1423,
    "Ġbuilding": 1424,
    "Ġmodel": 1425,
    "work": 1426,
    "man": 1427,
    "llow": 1428,
    "ortun": 1429,
    "Ġhappens": 1430,
    "ograph": 1431,
    "Ġmem": 1432,
    "Ġbring": 1433,
    "gs": 1434,
    "Ġlater": 1435,
    "Ġbad": 1436,
    "ality": 1437,
    "Ġgoes": 1438,
    "Ġcoming": 1439,
    "ince": 1440,
    "ught": 1441,
    "Ġwrong": 1442,
    "where": 1443,
    "end": 1444,
    "Ġwhile": 1445,
    "ulation": 1446,
    "Ġrest": 1447,
    "ime": 1448,
    "Ġparticular": 1449,
    "Ġchar": 1450,
    "Ġsingle": 1451,
    "lf": 1452,
    "ream": 1453,
    "Ġsuc": 1454,
    "Ġpain": 1455,
    "ĠNew": 1456,
    "She": 1457,
    "Ġwatch": 1458,
    "Ġlab": 1459,
    "ĠHe": 1460,
    "Ġmark": 1461,
    "Ġyet": 1462,
    "Ġglobal": 1463,
    "Ġref": 1464,
    "ilt": 1465,
    "Ġproblems": 1466,
    "ott": 1467,
    "Ġenvironment": 1468,
    "most": 1469,
    "Ġair": 1470,
    "Ġbre": 1471,
    "For": 1472,
    "uge": 1473,
    "iter": 1474,
    "ivid": 1475,
    "Ġfig": 1476,
    "Ġgirl": 1477,
    "Ġdays": 1478,
    "Ġage": 1479,
    "Ġhaving": 1480,
    "Ġprof": 1481,
    "orn": 1482,
    "Ġequ": 1483,
    "Ġbegin": 1484,
    "arent": 1485,
    "Ġwonder": 1486,
    "Ġsit": 1487,
    "Ġheart": 1488,
    "Ġcomplete": 1489,
    "Ġwords": 1490,
    "Ġcontrol": 1491,
    "Ġthous": 1492,
    "Ġmyself": 1493,
    "Ġmach": 1494,
    "Ġbillion": 1495,
    "Ġseen": 1496,
    "Ġsomeone": 1497,
    "less": 1498,
    "Ġcertain": 1499,
    "Ġeffect": 1500,
    "Ġlevel": 1501,
    "Ġanswer": 1502,
    "ape": 1503,
    "ash": 1504,
    "Ġpublic": 1505,
    "aterial": 1506,
    "ots": 1507,
    "Ġwithin": 1508,
    "eng": 1509,
    "ization": 1510,
    "As": 1511,
    "Ġoften": 1512,
    "Ġlooked": 1513,
    "Ġamaz": 1514,
    "Ġhear": 1515,
    "Ġsaying": 1516,
    "Ġloc": 1517,
    "Ġsix": 1518,
    "no": 1519,
    "Ġpicture": 1520,
    "Ġideas": 1521,
    "Ġrob": 1522,
    "ike": 1523,
    "itive": 1524,
    "Ġcommunity": 1525,
    "Ġcity": 1526,
    "Ġboth": 1527,
    "Ġsure": 1528,
    "Ġtest": 1529,
    "Ġwhether": 1530,
    "Ġself": 1531,
    "Ġproduct": 1532,
    "Ġpossible": 1533,
    "Ġkill": 1534,
    "Ġvideo": 1535,
    "ters": 1536,
    "med": 1537,
    "Ġnothing": 1538,
    "Ġcomputer": 1539,
    "Ġfore": 1540,
    "gram": 1541,
    "Ġdev": 1542,
    "ling": 1543,
    "arth": 1544,
    "Ġonce": 1545,
    "lish": 1546,
    "Ġblo": 1547,
    "iverse": 1548,
    "Ġlanguage": 1549,
    "Ġexact": 1550,
    "Ġmag": 1551,
    "up": 1552,
    "Ġtrue": 1553,
    "side": 1554,
    "Ġclass": 1555,
    "ants": 1556,
    "Ġpos": 1557,
    "unch": 1558,
    "Ġdise": 1559,
    "ĠIs": 1560,
    "Ġunt": 1561,
    "Ġ30": 1562,
    "Let": 1563,
    "Ġindivid": 1564,
    "aper": 1565,
    "Ġfil": 1566,
    "rop": 1567,
    "Here": 1568,
    "Ġmaterial": 1569,
    "ee": 1570,
    "Ġalmost": 1571,
    "rem": 1572,
    "Ġpar": 1573,
    "Ġnight": 1574,
    "Ġcond": 1575,
    "ering": 1576,
    "Ġworks": 1577,
    "Ġiss": 1578,
    "Ġnews": 1579,
    "pect": 1580,
    "ases": 1581,
    "Ġentire": 1582,
    "Ġche": 1583,
    "Ġremember": 1584,
    "ready": 1585,
    "Ġamazing": 1586,
    "Ġsw": 1587,
    "ĠAfrica": 1588,
    "Ġchall": 1589,
    "Ġbeautif": 1590,
    "ury": 1591,
    "Ġgovernment": 1592,
    "Ġheard": 1593,
    "ene": 1594,
    "Ġbasically": 1595,
    "Ġindividual": 1596,
    "Ġface": 1597,
    "undred": 1598,
    "iddle": 1599,
    "ware": 1600,
    "Ġincred": 1601,
    "Ġdisco": 1602,
    "Ġspend": 1603,
    "ĠEarth": 1604,
    "de": 1605,
    "ex": 1606,
    "Ġcost": 1607,
    "Ġdecided": 1608,
    "Ġhistory": 1609,
    "Ġgl": 1610,
    "ely": 1611,
    "Ġalready": 1612,
    "Ġlooks": 1613,
    "Ġimagine": 1614,
    "Ġtreat": 1615,
    "Ġass": 1616,
    "get": 1617,
    "Ġexc": 1618,
    "Ġaff": 1619,
    "Ġfull": 1620,
    "Ġtool": 1621,
    "Ġ50": 1622,
    "ĠWell": 1623,
    "ĠIntern": 1624,
    "uck": 1625,
    "Ġguy": 1626,
    "Ġfriends": 1627,
    "Ġpast": 1628,
    "ustr": 1629,
    "ives": 1630,
    "imate": 1631,
    "ages": 1632,
    "Ġbuilt": 1633,
    "Ġexperim": 1634,
    "ock": 1635,
    "Ġprogram": 1636,
    "Ġwa": 1637,
    "osed": 1638,
    "Ġhundred": 1639,
    "Ġcollect": 1640,
    "ired": 1641,
    "Ġnet": 1642,
    "Ġret": 1643,
    "Ġstories": 1644,
    "Ġcontin": 1645,
    "Ġadv": 1646,
    "Ġsuccess": 1647,
    "Ġpiece": 1648,
    "atic": 1649,
    "Ġdire": 1650,
    "ken": 1651,
    "ny": 1652,
    "vious": 1653,
    "Ġfollow": 1654,
    "Ġcouple": 1655,
    "ĠUnited": 1656,
    "Ġfigure": 1657,
    "Ġ6": 1658,
    "Ġpay": 1659,
    "Ġstate": 1660,
    "Ġwasn": 1661,
    "Ġmonths": 1662,
    "Ġbeautiful": 1663,
    "Ġorder": 1664,
    "ield": 1665,
    "Ġ15": 1666,
    "Ġresult": 1667,
    "to": 1668,
    "bs": 1669,
    "cing": 1670,
    "âĢ": 1671,
    "Ġlarge": 1672,
    "Ġeducation": 1673,
    "ĠâĢ": 1674,
    "Ġbecame": 1675,
    "Ġminutes": 1676,
    "land": 1677,
    "Ġca": 1678,
    "ional": 1679,
    "Ġsec": 1680,
    "Ġ9": 1681,
    "Ġhuge": 1682,
    "Ġfree": 1683,
    "ivity": 1684,
    "Ġtaking": 1685,
    "Ġuntil": 1686,
    "bers": 1687,
    "Ġtrain": 1688,
    "Ġdeep": 1689,
    "ret": 1690,
    "Ġconst": 1691,
    "ĠHow": 1692,
    "Ġthough": 1693,
    "ined": 1694,
    "Ġview": 1695,
    "Ġsociety": 1696,
    "ising": 1697,
    "Ġeverybody": 1698,
    "Ġuniverse": 1699,
    "br": 1700,
    "ĠThis": 1701,
    "Ġ7": 1702,
    "Ġincre": 1703,
    "Ġwoman": 1704,
    "Ġlearned": 1705,
    "Ġengine": 1706,
    "ames": 1707,
    "ision": 1708,
    "Ġthemselves": 1709,
    "line": 1710,
    "Ġmust": 1711,
    "Ġdra": 1712,
    "aster": 1713,
    "ush": 1714,
    "Ġquick": 1715,
    "Ġ8": 1716,
    "omes": 1717,
    "etic": 1718,
    "Ġteam": 1719,
    "Ġfront": 1720,
    "Ġcomplex": 1721,
    "ĠThey": 1722,
    "Ġdi": 1723,
    "Ġplanet": 1724,
    "Ġexactly": 1725,
    "ians": 1726,
    "Ġjo": 1727,
    "Ġgets": 1728,
    "Ġappro": 1729,
    "ental": 1730,
    "ĠInternet": 1731,
    "Ġ100": 1732,
    "ared": 1733,
    "Ġspeak": 1734,
    "aking": 1735,
    "Ġcreated": 1736,
    "ĠStates": 1737,
    "Ġmil": 1738,
    "Ġhouse": 1739,
    "Ġinno": 1740,
    "Ġknew": 1741,
    "Ġfocus": 1742,
    "Ġfund": 1743,
    "Ġstudy": 1744,
    "Ġcompletely": 1745,
    "Ġcancer": 1746,
    "Ġhappening": 1747,
    "sy": 1748,
    "Ġvir": 1749,
    "Ġbehav": 1750,
    "outh": 1751,
    "Ġsex": 1752,
    "ĠâĢĶ": 1753,
    "Ġstruct": 1754,
    "Ġsomebody": 1755,
    "ats": 1756,
    "ane": 1757,
    "thers": 1758,
    "..": 1759,
    "All": 1760,
    "Ġkinds": 1761,
    "Ġhours": 1762,
    "Ġname": 1763,
    "Ġquestions": 1764,
    "Ġitself": 1765,
    "Ġvo": 1766,
    "Ġplaces": 1767,
    "Ġlaw": 1768,
    "Ġisn": 1769,
    "Ġprov": 1770,
    "Ġcra": 1771,
    "Ġagainst": 1772,
    "Ġnature": 1773,
    "dd": 1774,
    "eah": 1775,
    "ien": 1776,
    "cul": 1777,
    "icult": 1778,
    "Ġourselves": 1779,
    "ability": 1780,
    "Ġlisten": 1781,
    "Ġdep": 1782,
    "iqu": 1783,
    "ron": 1784,
    "Ġav": 1785,
    "Ġemp": 1786,
    "Ġbab": 1787,
    "Ġgame": 1788,
    "Ġshows": 1789,
    "Ġmeet": 1790,
    "itting": 1791,
    "Ġve": 1792,
    "Ġones": 1793,
    "Ġabs": 1794,
    "Ġeveryone": 1795,
    "Ġsince": 1796,
    "Ġdifference": 1797,
    "cle": 1798,
    "gest": 1799,
    "ĠThat": 1800,
    "aw": 1801,
    "Ġ...": 1802,
    "Ġmother": 1803,
    "Then": 1804,
    "Ġmess": 1805,
    "Ġgave": 1806,
    "Ġopportun": 1807,
    "ones": 1808,
    "Ġothers": 1809,
    "ogn": 1810,
    "Ġsometimes": 1811,
    "ĠChina": 1812,
    "Ġclose": 1813,
    "Ġobject": 1814,
    "Ġparent": 1815,
    "Ġworked": 1816,
    "vation": 1817,
    "Ġclear": 1818,
    "Ġhold": 1819,
    "ute": 1820,
    "istic": 1821,
    "row": 1822,
    "Ġexpect": 1823,
    "Ġstudents": 1824,
    "ption": 1825,
    "att": 1826,
    "Ġline": 1827,
    "olved": 1828,
    "acter": 1829,
    "ĠNo": 1830,
    "Ġexplain": 1831,
    "Ġfail": 1832,
    "asure": 1833,
    "Ġris": 1834,
    "Ġinvest": 1835,
    "ients": 1836,
    "ming": 1837,
    "Ġdifficult": 1838,
    "Ġrelations": 1839,
    "Ġcompany": 1840,
    "Ġwon": 1841,
    "iol": 1842,
    "Ġthird": 1843,
    "Ġrather": 1844,
    "Ġaud": 1845,
    "ator": 1846,
    "ern": 1847,
    "Ġdru": 1848,
    "haps": 1849,
    "Ġcouldn": 1850,
    "Ġrad": 1851,
    "ature": 1852,
    "Ġinteract": 1853,
    "lud": 1854,
    "Ġbott": 1855,
    "Ġthousands": 1856,
    "Ġmass": 1857,
    "ctor": 1858,
    "Ġneur": 1859,
    "ĠAr": 1860,
    "Ġdisease": 1861,
    "Ġdeal": 1862,
    "Ġsurpr": 1863,
    "ination": 1864,
    "Ġsimp": 1865,
    "urs": 1866,
    "Ġstep": 1867,
    "Ġimpro": 1868,
    "Ġnetwork": 1869,
    "cc": 1870,
    "ential": 1871,
    "ibly": 1872,
    "Ġmiss": 1873,
    "Ġpot": 1874,
    "Ġoutside": 1875,
    "Ġnorm": 1876,
    "ider": 1877,
    "ĠAmerican": 1878,
    "Ġtyp": 1879,
    "Ġill": 1880,
    "omet": 1881,
    "Ġda": 1882,
    "Ġhappy": 1883,
    "Ġamount": 1884,
    "Ġchanged": 1885,
    "iversity": 1886,
    "ks": 1887,
    "Ġident": 1888,
    "Ġoil": 1889,
    "illions": 1890,
    "Ġalong": 1891,
    "Ġtakes": 1892,
    "Ġland": 1893,
    "Ġlearning": 1894,
    "aring": 1895,
    "Ġcoll": 1896,
    "Ġliter": 1897,
    "Ġdeath": 1898,
    "Ġpowerful": 1899,
    "ĠAmerica": 1900,
    "Ġarch": 1901,
    "oh": 1902,
    "Ġcir": 1903,
    "ĠEng": 1904,
    "Ġdel": 1905,
    "ump": 1906,
    "elt": 1907,
    "Ġemot": 1908,
    "Ġsystems": 1909,
    "Ġearly": 1910,
    "Ġpopulation": 1911,
    "ĠIndia": 1912,
    "Ġmarket": 1913,
    "Ġwind": 1914,
    "ĠBr": 1915,
    "ĠGod": 1916,
    "Ġturns": 1917,
    "ĠBut": 1918,
    "Ġrev": 1919,
    "Ġblack": 1920,
    "Ġbehavior": 1921,
    "Ġsens": 1922,
    "ĠThank": 1923,
    "Ġpresent": 1924,
    "Ġleast": 1925,
    "Ġlots": 1926,
    "not": 1927,
    "Ġmic": 1928,
    "Ġduring": 1929,
    "Ġguys": 1930,
    "Ġmot": 1931,
    "Ġinstead": 1932,
    "Ġgrand": 1933,
    "Ġspecies": 1934,
    "Ġculture": 1935,
    "Every": 1936,
    "Ġpred": 1937,
    "Ġshort": 1938,
    "Ġjour": 1939,
    "Ġele": 1940,
    "ift": 1941,
    "ĠEur": 1942,
    "Ġmachine": 1943,
    "Ġz": 1944,
    "Ġfly": 1945,
    "Ġfear": 1946,
    "Ġanimals": 1947,
    "wards": 1948,
    "Ġmiddle": 1949,
    "ither": 1950,
    "fect": 1951,
    "Ġrealized": 1952,
    "vered": 1953,
    "Ġgiven": 1954,
    "Ġpaper": 1955,
    "ased": 1956,
    "Ġeat": 1957,
    "Ġdemoc": 1958,
    "Ġeasy": 1959,
    "sych": 1960,
    "Ġoper": 1961,
    "Ġgreen": 1962,
    "Ġhands": 1963,
    "Ġstre": 1964,
    "ĠYork": 1965,
    "Ġextra": 1966,
    "Ġdig": 1967,
    "Ġrecent": 1968,
    "Ġyourself": 1969,
    "ran": 1970,
    "Ġfre": 1971,
    "Ġfall": 1972,
    "Ġimage": 1973,
    "verage": 1974,
    "Ġprotect": 1975,
    "Ġarg": 1976,
    "jor": 1977,
    "Ġes": 1978,
    "ery": 1979,
    "Ġvar": 1980,
    "ony": 1981,
    "Or": 1982,
    "Ġbehind": 1983,
    "Ġnatural": 1984,
    "Ġcut": 1985,
    "Ġdream": 1986,
    "Ġneeded": 1987,
    "ides": 1988,
    "Ġsaf": 1989,
    "astic": 1990,
    "Ġmole": 1991,
    "ully": 1992,
    "Ġcolle": 1993,
    "Ġsimply": 1994,
    "leep": 1995,
    "Ġant": 1996,
    "ium": 1997,
    "Ġmath": 1998,
    "ove": 1999,
    "Ġneeds": 2000,
    "ĠWh": 2001,
    "Ġfight": 2002,
    "Ġlow": 2003,
    "Ġfather": 2004,
    "Ġexist": 2005,
    "Ġpersonal": 2006,
    "Ġfinally": 2007,
    "Ġeyes": 2008,
    "era": 2009,
    "Ġpract": 2010,
    "Ġseven": 2011,
    "ĠGo": 2012,
    "Ġrelationship": 2013,
    "year": 2014,
    "Ġfelt": 2015,
    "Ġnon": 2016,
    "room": 2017,
    "ĠSh": 2018,
    "Ġhy": 2019,
    "Ġfield": 2020,
    "ode": 2021,
    "ĠAl": 2022,
    "Ġleave": 2023,
    "face": 2024,
    "Ġstay": 2025,
    "Ġcompanies": 2026,
    "Ġred": 2027,
    "Ġcentury": 2028,
    "Ġtem": 2029,
    "Ġ12": 2030,
    "ledge": 2031,
    "Ġlocal": 2032,
    "Ġbro": 2033,
    "Ġmajor": 2034,
    "Ġtrad": 2035,
    "Ġsupport": 2036,
    "oes": 2037,
    "oph": 2038,
    "els": 2039,
    "Ġeconomic": 2040,
    "Ġterr": 2041,
    "inary": 2042,
    "osp": 2043,
    "Ġperform": 2044,
    "Ġserv": 2045,
    "itions": 2046,
    "Ġarea": 2047,
    "Ġaccess": 2048,
    "ney": 2049,
    "Ġmedia": 2050,
    "rew": 2051,
    "Ġchem": 2052,
    "Ġpolitical": 2053,
    "Ġobvious": 2054,
    "Ġturned": 2055,
    "ison": 2056,
    "ource": 2057,
    "ĠEurope": 2058,
    "ially": 2059,
    "Ġcommon": 2060,
    "Ġsun": 2061,
    "Ġple": 2062,
    "Ġcommunic": 2063,
    "Some": 2064,
    "Ġsent": 2065,
    "Ġlim": 2066,
    "rodu": 2067,
    "cious": 2068,
    "Ġsuper": 2069,
    "avor": 2070,
    "Ġbeginning": 2071,
    "vent": 2072,
    "ived": 2073,
    "Ġtaken": 2074,
    "Ġperhaps": 2075,
    "Ġ40": 2076,
    "Ġvalue": 2077,
    "eople": 2078,
    "Ġseeing": 2079,
    "Ġfamil": 2080,
    "Ġfriend": 2081,
    "idence": 2082,
    "Ġcannot": 2083,
    "ological": 2084,
    "Ġphotograph": 2085,
    "Ġbreak": 2086,
    "Ġpsych": 2087,
    "Ġspent": 2088,
    "Ġemb": 2089,
    "Ġrecord": 2090,
    "NA": 2091,
    "Ġtre": 2092,
    "ows": 2093,
    "Ġmoving": 2094,
    "Ġkey": 2095,
    "Ġpattern": 2096,
    "Ġextrem": 2097,
    "cr": 2098,
    "orth": 2099,
    "ument": 2100,
    "Ġviol": 2101,
    "Ġstrong": 2102,
    "ipp": 2103,
    "ook": 2104,
    "Ġlonger": 2105,
    "inal": 2106,
    "Ġmult": 2107,
    "ills": 2108,
    "Ġparts": 2109,
    "Ġbegan": 2110,
    "rought": 2111,
    "No": 2112,
    "Ġperfect": 2113,
    "Ġleaders": 2114,
    "Ġleg": 2115,
    "Ġeight": 2116,
    "Ġ18": 2117,
    "Ġsurv": 2118,
    "fully": 2119,
    "Ġwonderful": 2120,
    "Ġquickly": 2121,
    "gen": 2122,
    "Ġspecial": 2123,
    "ĠOh": 2124,
    "Ġdraw": 2125,
    "ule": 2126,
    "unt": 2127,
    "iving": 2128,
    "Ġreach": 2129,
    "Ġinclud": 2130,
    "Ġgrowth": 2131,
    "Ġcal": 2132,
    "Ġground": 2133,
    "Ġevent": 2134,
    "lt": 2135,
    "Ġsize": 2136,
    "ources": 2137,
    "ĠWhy": 2138,
    "itch": 2139,
    "uth": 2140,
    "Ġexperiment": 2141,
    "Ġabsolut": 2142,
    "Ġparents": 2143,
    "crib": 2144,
    "Ġrequ": 2145,
    "Ġterms": 2146,
    "Ġfilm": 2147,
    "mb": 2148,
    "port": 2149,
    "Ġess": 2150,
    "Ġpick": 2151,
    "Ġwrite": 2152,
    "At": 2153,
    "hood": 2154,
    "ole": 2155,
    "Ġlost": 2156,
    "Ġenc": 2157,
    "Ġsqu": 2158,
    "Ġcam": 2159,
    "ung": 2160,
    "Ġcool": 2161,
    "Ġtot": 2162,
    "itect": 2163,
    "Ġsend": 2164,
    "Ġnear": 2165,
    "Ġrepres": 2166,
    "Ġvers": 2167,
    "Ġwin": 2168,
    "Ġcy": 2169,
    "Ġimages": 2170,
    "Ġimpact": 2171,
    "Ġbox": 2172,
    "Ġmorning": 2173,
    "oy": 2174,
    "Ġbuy": 2175,
    "Ġrobot": 2176,
    "Ġcities": 2177,
    "Ġtravel": 2178,
    "Ġtried": 2179,
    "Ġanal": 2180,
    "ler": 2181,
    "Ġoce": 2182,
    "Ġge": 2183,
    "rom": 2184,
    "oud": 2185,
    "Ġknowledge": 2186,
    "by": 2187,
    "ilar": 2188,
    "ustain": 2189,
    "bor": 2190,
    "rent": 2191,
    "Ġocc": 2192,
    "cially": 2193,
    "Ġpoor": 2194,
    "On": 2195,
    "Ġaverage": 2196,
    "Ġciv": 2197,
    "ised": 2198,
    "Ġdead": 2199,
    "ively": 2200,
    "Ġbene": 2201,
    "ateg": 2202,
    "Ġspread": 2203,
    "Ġinsp": 2204,
    "ribut": 2205,
    "eed": 2206,
    "Ġrecogn": 2207,
    "Ġapproach": 2208,
    "ales": 2209,
    "Ġconv": 2210,
    "Ġfeed": 2211,
    "Ġobs": 2212,
    "Ġattention": 2213,
    "Ġweeks": 2214,
    "sh": 2215,
    "Ġconsum": 2216,
    "Ġsitu": 2217,
    "Ġreality": 2218,
    "Ġfeeling": 2219,
    "zy": 2220,
    "Ġcomb": 2221,
    "Ġmeasure": 2222,
    "Ġcaus": 2223,
    "Ġopportunity": 2224,
    "Ġrisk": 2225,
    "Ġarchitect": 2226,
    "cl": 2227,
    "Ġsitting": 2228,
    "ards": 2229,
    "Ġmeaning": 2230,
    "Ġsum": 2231,
    "Ġsleep": 2232,
    "Ġcamp": 2233,
    "itut": 2234,
    "Ġrele": 2235,
    "Ġchanges": 2236,
    "Ġdirect": 2237,
    "Ġeither": 2238,
    "Ġwouldn": 2239,
    "ression": 2240,
    "Ġap": 2241,
    "enge": 2242,
    "Ġyes": 2243,
    "Ġwhatever": 2244,
    "iction": 2245,
    "Ġauth": 2246,
    "Ġborn": 2247,
    "Ġflo": 2248,
    "Ġdest": 2249,
    "izing": 2250,
    "ton": 2251,
    "Ġopt": 2252,
    "ators": 2253,
    "Ġbrought": 2254,
    "ĠDNA": 2255,
    "ĠEnglish": 2256,
    "Ġfast": 2257,
    "Ġdie": 2258,
    "cks": 2259,
    "Okay": 2260,
    "Ġhosp": 2261,
    "aged": 2262,
    "acy": 2263,
    "Ġgiving": 2264,
    "ggest": 2265,
    "orld": 2266,
    "Ġorig": 2267,
    "Ġsuggest": 2268,
    "ibility": 2269,
    "Ġbased": 2270,
    "Ġeconomy": 2271,
    "Ġrespons": 2272,
    "iny": 2273,
    "apt": 2274,
    "ored": 2275,
    "anger": 2276,
    "Ġinterested": 2277,
    "Ġphysical": 2278,
    "Ġstructure": 2279,
    "ances": 2280,
    "Ġseems": 2281,
    "Ġtools": 2282,
    "Ġvoice": 2283,
    "ĠTh": 2284,
    "erm": 2285,
    "Ġgrowing": 2286,
    "Ġprofess": 2287,
    "com": 2288,
    "Ġstage": 2289,
    "Ġanimal": 2290,
    "dden": 2291,
    "ext": 2292,
    "Ġice": 2293,
    "Ġgone": 2294,
    "Ġability": 2295,
    "Ġsudden": 2296,
    "Ġ25": 2297,
    "Ġfavor": 2298,
    "Ġste": 2299,
    "Ġstat": 2300,
    "xy": 2301,
    "loy": 2302,
    "Ġindust": 2303,
    "Ġdeveloped": 2304,
    "Ġmodern": 2305,
    "Ġbooks": 2306,
    "Ġcirc": 2307,
    "Ġpress": 2308,
    "Ġpriv": 2309,
    "Ġblue": 2310,
    "Ġfac": 2311,
    "racy": 2312,
    "Ġsoft": 2313,
    "ĠAs": 2314,
    "Ġknown": 2315,
    "Ġnumbers": 2316,
    "Ġaffect": 2317,
    "ouch": 2318,
    "Ġfire": 2319,
    "Ġeye": 2320,
    "An": 2321,
    "Ġdark": 2322,
    "Ġrealize": 2323,
    "Ġ/": 2324,
    "ann": 2325,
    "asc": 2326,
    "Ġchallenge": 2327,
    "ev": 2328,
    "ug": 2329,
    "Ġredu": 2330,
    "Ġmain": 2331,
    "Ġwrote": 2332,
    "People": 2333,
    "Ġaw": 2334,
    "Ġhar": 2335,
    "urb": 2336,
    "Ġtext": 2337,
    "ains": 2338,
    "ged": 2339,
    "Ġpull": 2340,
    "Ġfoot": 2341,
    "Ġsmart": 2342,
    "Ġrunning": 2343,
    "Ġissue": 2344,
    "To": 2345,
    "Ġvac": 2346,
    "Ġdescrib": 2347,
    "Ġinvent": 2348,
    "Ġdeveloping": 2349,
    "Ġscientists": 2350,
    "Ġcrit": 2351,
    "lict": 2352,
    "Ġthank": 2353,
    "Ġstarting": 2354,
    "Ġscale": 2355,
    "Ġcreating": 2356,
    "Ġincredible": 2357,
    "Ġbottom": 2358,
    "ites": 2359,
    "Ġsave": 2360,
    "Ġclimate": 2361,
    "Ġunderstanding": 2362,
    "Ġaudience": 2363,
    "of": 2364,
    "Ġsustain": 2365,
    "amples": 2366,
    "Ġpur": 2367,
    "Ġnice": 2368,
    "Ġonline": 2369,
    "Ġhumans": 2370,
    "Ġtradition": 2371,
    "Ġpost": 2372,
    "Ġpath": 2373,
    "chie": 2374,
    "Ġpoll": 2375,
    "Ġroad": 2376,
    "Ġwriting": 2377,
    "ai": 2378,
    "ral": 2379,
    "Ġhor": 2380,
    "Ġaren": 2381,
    "ĠChr": 2382,
    "Ġcolor": 2383,
    "Ġcivil": 2384,
    "oon": 2385,
    "ister": 2386,
    "Ġknows": 2387,
    "Our": 2388,
    "bon": 2389,
    "Ġmillions": 2390,
    "ensive": 2391,
    "pecially": 2392,
    "Ġgirls": 2393,
    "Ġblood": 2394,
    "Ġalone": 2395,
    "Ġplaying": 2396,
    "vert": 2397,
    "Ġneigh": 2398,
    "Ġconvers": 2399,
    "Ġsolution": 2400,
    "ĠIf": 2401,
    "amed": 2402,
    "ĠChinese": 2403,
    "Ġbenef": 2404,
    "Ġhot": 2405,
    "Ġseem": 2406,
    "ĠCan": 2407,
    "Ġanyone": 2408,
    "Ġintern": 2409,
    "Ġtele": 2410,
    "Ġliterally": 2411,
    "gress": 2412,
    "omen": 2413,
    "Ġpatients": 2414,
    "Ġsong": 2415,
    "Ġareas": 2416,
    "Ġtelling": 2417,
    "Ġrelig": 2418,
    "Ġslow": 2419,
    "Ġrul": 2420,
    "Ġtruth": 2421,
    "Ġmov": 2422,
    "Ġguess": 2423,
    "Ġdevelopment": 2424,
    "ik": 2425,
    "icy": 2426,
    "Ġrate": 2427,
    "Ġconcept": 2428,
    "Ġgives": 2429,
    "Ġtype": 2430,
    "Ġhundreds": 2431,
    "Ġinnovation": 2432,
    "lu": 2433,
    "Ġhon": 2434,
    "Ġfem": 2435,
    "Ġasking": 2436,
    "Ġpatient": 2437,
    "Ġbaby": 2438,
    "ĠThere": 2439,
    "Ġwall": 2440,
    "Ġbra": 2441,
    "Ġforward": 2442,
    "Ġsoon": 2443,
    "istan": 2444,
    "Ġpredict": 2445,
    "por": 2446,
    "par": 2447,
    "erence": 2448,
    "Ġworth": 2449,
    "Ġprop": 2450,
    "Ġprom": 2451,
    "Ġexperien": 2452,
    "Ġdeg": 2453,
    "Ġdepe": 2454,
    "Ġvill": 2455,
    "Ġphone": 2456,
    "ĠWorld": 2457,
    "Ġtechnolog": 2458,
    "Ġsolve": 2459,
    "iet": 2460,
    "Ġer": 2461,
    "Ġlif": 2462,
    "let": 2463,
    "Ġwhite": 2464,
    "Ġsuff": 2465,
    "Ġtransform": 2466,
    "ique": 2467,
    "Ġavail": 2468,
    "Ġnormal": 2469,
    "oll": 2470,
    "Ġgeneration": 2471,
    "Ġsounds": 2472,
    "Ġespecially": 2473,
    "Ġtheory": 2474,
    "Ġsil": 2475,
    "Ġcop": 2476,
    "Ġtrust": 2477,
    "Ġimm": 2478,
    "Ġshowed": 2479,
    "Ġdiscovered": 2480,
    "erv": 2481,
    "Ġmar": 2482,
    "entially": 2483,
    "Ġforce": 2484,
    "Ġpeace": 2485,
    "ified": 2486,
    "Ġarr": 2487,
    "Ġrepresent": 2488,
    "osing": 2489,
    "Ġfa": 2490,
    "irth": 2491,
    "ellig": 2492,
    "Ġproduce": 2493,
    "Ġcenter": 2494,
    "Ġpictures": 2495,
    "Ġast": 2496,
    "asing": 2497,
    "Ġevolution": 2498,
    "Ġcurrent": 2499,
    "book": 2500,
    "Ġvol": 2501,
    "Ġchanging": 2502,
    "Ġchalleng": 2503,
    "ences": 2504,
    "usion": 2505,
    "Ġproper": 2506,
    "Ġfeet": 2507,
    "Ġsubject": 2508,
    "Ġfundam": 2509,
    "Ġindustry": 2510,
    "Not": 2511,
    "ĠSouth": 2512,
    "Ġtalked": 2513,
    "Ġsimilar": 2514,
    "Ġmovement": 2515,
    "Is": 2516,
    "go": 2517,
    "ĠZ": 2518,
    "Ġstra": 2519,
    "Ġchoice": 2520,
    "yond": 2521,
    "Ġtouch": 2522,
    "isions": 2523,
    "Ġbed": 2524,
    "ĠAn": 2525,
    "Ġplant": 2526,
    "Ġincredibly": 2527,
    "Ġpotential": 2528,
    "Ġocean": 2529,
    "chan": 2530,
    "ify": 2531,
    "Ġserious": 2532,
    "Ġmaterials": 2533,
    "Ġokay": 2534,
    "Ġcars": 2535,
    "Ġbur": 2536,
    "ley": 2537,
    "Ġcompet": 2538,
    "ĠLe": 2539,
    "iod": 2540,
    "Ġgames": 2541,
    "Ġhaven": 2542,
    "imens": 2543,
    "Ġteachers": 2544,
    "ogle": 2545,
    "Ġsurface": 2546,
    "Ġabsolutely": 2547,
    "iant": 2548,
    "Ġsn": 2549,
    "Ġchance": 2550,
    "Ġachie": 2551,
    "abor": 2552,
    "Ġresources": 2553,
    "Ġinvolved": 2554,
    "Ġissues": 2555,
    "Ġconflict": 2556,
    "ilities": 2557,
    "Ġmedic": 2558,
    "Ġdefin": 2559,
    "Ġball": 2560,
    "Ġult": 2561,
    "Ġtable": 2562,
    "assion": 2563,
    "Ġtrack": 2564,
    "ina": 2565,
    "Ġsell": 2566,
    "ival": 2567,
    "Ġfunction": 2568,
    "Ġdetail": 2569,
    "Ġjourney": 2570,
    "Ġtiny": 2571,
    "Ġmarr": 2572,
    "Ġshape": 2573,
    "Ġperiod": 2574,
    "Ġhappiness": 2575,
    "ĠPh": 2576,
    "Ġamong": 2577,
    "ĠFr": 2578,
    "Ġavailable": 2579,
    "yr": 2580,
    "Ġsat": 2581,
    "Ġbeyond": 2582,
    "Ġschools": 2583,
    "Ġgeneral": 2584,
    "like": 2585,
    "Ġson": 2586,
    "Ġlay": 2587,
    "Ġcarbon": 2588,
    "Ġgroups": 2589,
    "ohn": 2590,
    "Ġmicro": 2591,
    "bit": 2592,
    "pre": 2593,
    "Ġhit": 2594,
    "Ġdanger": 2595,
    "Ġnecess": 2596,
    "Ġtechnologies": 2597,
    "ency": 2598,
    "Ġrece": 2599,
    "Ġstru": 2600,
    "ades": 2601,
    "Ġlikely": 2602,
    "Ġintellig": 2603,
    "head": 2604,
    "Ġattack": 2605,
    "Ġvisual": 2606,
    "put": 2607,
    "Ġbirth": 2608,
    "oring": 2609,
    "Ġsold": 2610,
    "Ġprin": 2611,
    "Ġmessage": 2612,
    "Ġest": 2613,
    "Ġbreat": 2614,
    "Ġfur": 2615,
    "Ġprojects": 2616,
    "Ġdevice": 2617,
    "Ġrecently": 2618,
    "Ġsituation": 2619,
    "Ġfu": 2620,
    "Ġdou": 2621,
    "Ġtend": 2622,
    "Ġflow": 2623,
    "Ġvision": 2624,
    "Ġ60": 2625,
    "Ġdemocracy": 2626,
    "Ġstreet": 2627,
    "Ġrules": 2628,
    "oid": 2629,
    "ishing": 2630,
    "Ġrich": 2631,
    "ĠMy": 2632,
    "Do": 2633,
    "Ġcit": 2634,
    "Ġflu": 2635,
    "Ġaccount": 2636,
    "Ġ80": 2637,
    "By": 2638,
    "light": 2639,
    "Ġwish": 2640,
    "Ġcause": 2641,
    "Ġreact": 2642,
    "Ġbecomes": 2643,
    "Ġmeth": 2644,
    "Ġelectric": 2645,
    "Ġdigital": 2646,
    "Just": 2647,
    "Ġsea": 2648,
    "Ġ11": 2649,
    "Ġlea": 2650,
    "Ġindividuals": 2651,
    "iar": 2652,
    "Ġmap": 2653,
    "Ġfair": 2654,
    "Ġdied": 2655,
    "arily": 2656,
    "odies": 2657,
    "Ġneg": 2658,
    "Ġtells": 2659,
    "Ġoffice": 2660,
    "Ġputting": 2661,
    "Ġwalking": 2662,
    "cuss": 2663,
    "Ġmiles": 2664,
    "Ġrevolution": 2665,
    "ned": 2666,
    "osph": 2667,
    "Ġemerg": 2668,
    "Ġmedical": 2669,
    "str": 2670,
    "Ġboy": 2671,
    "Ġdrive": 2672,
    "Ġmemory": 2673,
    "Ch": 2674,
    "uit": 2675,
    "Ġnine": 2676,
    "aybe": 2677,
    "Ġactiv": 2678,
    "ressed": 2679,
    "Ġbigger": 2680,
    "Ġcross": 2681,
    "Ġcommunities": 2682,
    "ĠGoogle": 2683,
    "uly": 2684,
    "yn": 2685,
    "apan": 2686,
    "Ġdiv": 2687,
    "ĠBe": 2688,
    "Ġevidence": 2689,
    "Ġcreative": 2690,
    "Ġpassion": 2691,
    "fort": 2692,
    "edom": 2693,
    "Ġmechan": 2694,
    "ips": 2695,
    "rage": 2696,
    "Ġparticip": 2697,
    "Ġcitiz": 2698,
    "ges": 2699,
    "ask": 2700,
    "ama": 2701,
    "Ġexcept": 2702,
    "Ġaction": 2703,
    "ously": 2704,
    "Ġarm": 2705,
    "Ġdesigned": 2706,
    "Ġreasons": 2707,
    "Ġcrazy": 2708,
    "ires": 2709,
    "ma": 2710,
    "oke": 2711,
    "Ġce": 2712,
    "eter": 2713,
    "Ġcompassion": 2714,
    "Ġmob": 2715,
    "Ġsearch": 2716,
    "Ġready": 2717,
    "Ġresults": 2718,
    "cient": 2719,
    "Ġstarts": 2720,
    "ĠWest": 2721,
    "akes": 2722,
    "Ġcris": 2723,
    "Ġimprove": 2724,
    "St": 2725,
    "pan": 2726,
    "Ġtowards": 2727,
    "Ġlose": 2728,
    "antly": 2729,
    "une": 2730,
    "Ġeverywhere": 2731,
    "Ġblind": 2732,
    "Ġinstitut": 2733,
    "Ġclean": 2734,
    "Ġtar": 2735,
    "Ġaware": 2736,
    "Ġwaste": 2737,
    "Ġlived": 2738,
    "agn": 2739,
    "Ġbasic": 2740,
    "Ġteacher": 2741,
    "Ġdrug": 2742,
    "more": 2743,
    "Ġrid": 2744,
    "ished": 2745,
    "ĠJapan": 2746,
    "Ġconscious": 2747,
    "Ġfavorite": 2748,
    "Ġsoftware": 2749,
    "IV": 2750,
    "how": 2751,
    "Ġbacter": 2752,
    "oming": 2753,
    "ores": 2754,
    "Ġprim": 2755,
    "Ġphil": 2756,
    "ĠYes": 2757,
    "Ġcomputers": 2758,
    "Ġcertainly": 2759,
    "medi": 2760,
    "With": 2761,
    "Ġmis": 2762,
    "onse": 2763,
    "Ġfaster": 2764,
    "Ġtaught": 2765,
    "Ġunf": 2766,
    "Ġbiggest": 2767,
    "ted": 2768,
    "Ġrain": 2769,
    "Ġcart": 2770,
    "Ġbird": 2771,
    "Ġled": 2772,
    "Ġonto": 2773,
    "olutions": 2774,
    "Ġchoose": 2775,
    "Ġscientific": 2776,
    "Ġcamera": 2777,
    "view": 2778,
    "Ġlt": 2779,
    "oms": 2780,
    "Ġgt": 2781,
    "ctors": 2782,
    "Ġexamples": 2783,
    "Ġintrodu": 2784,
    "ĠOkay": 2785,
    "Ġdecisions": 2786,
    "Ġcode": 2787,
    "Ġpu": 2788,
    "Ġtrial": 2789,
    "ĠSe": 2790,
    "Ġprint": 2791,
    "Ġscreen": 2792,
    "estern": 2793,
    "Ġsever": 2794,
    "ruction": 2795,
    "Ġminds": 2796,
    "Ġmagic": 2797,
    "Ġobviously": 2798,
    "Ġhospital": 2799,
    "Ġneighbor": 2800,
    "ĠNow": 2801,
    "Ġmist": 2802,
    "Ġep": 2803,
    "Ġmeant": 2804,
    "Ġquality": 2805,
    "ude": 2806,
    "Ġmoved": 2807,
    "Ġshowing": 2808,
    "Ġtransl": 2809,
    "Ġreport": 2810,
    "Ġmoral": 2811,
    "Ġparticularly": 2812,
    "Ġextraord": 2813,
    "Ġviolence": 2814,
    "Ġencou": 2815,
    "Ġfurther": 2816,
    "ech": 2817,
    "Ġfish": 2818,
    "ala": 2819,
    "urity": 2820,
    "Ġprogress": 2821,
    "izations": 2822,
    "Ġcontent": 2823,
    "Ġmolec": 2824,
    "Ġapart": 2825,
    "umb": 2826,
    "ured": 2827,
    "Ġcontext": 2828,
    "Ġadm": 2829,
    "Ġaf": 2830,
    "Ġdin": 2831,
    "ĠHIV": 2832,
    "Ġgraph": 2833,
    "Ġconsider": 2834,
    "ground": 2835,
    "oot": 2836,
    "Ġmount": 2837,
    "rab": 2838,
    "ĠTV": 2839,
    "Ġstudent": 2840,
    "Ġindeed": 2841,
    "Ġsafe": 2842,
    "Ġthreat": 2843,
    "Ġnational": 2844,
    "Ġdoor": 2845,
    "Ġresponse": 2846,
    "Ġchemical": 2847,
    "come": 2848,
    "amm": 2849,
    "ĠPr": 2850,
    "Ġsolar": 2851,
    "Ġconnected": 2852,
    "Ġsurprising": 2853,
    "Ġseveral": 2854,
    "Al": 2855,
    "ners": 2856,
    "nces": 2857,
    "eth": 2858,
    "Ġworse": 2859,
    "ĠSw": 2860,
    "ĠEast": 2861,
    "Ġprison": 2862,
    "Ġbrains": 2863,
    "Ġregion": 2864,
    "Ġtotally": 2865,
    "Ġauthor": 2866,
    "ging": 2867,
    "rast": 2868,
    "wo": 2869,
    "Ġfix": 2870,
    "Ġwhe": 2871,
    "Ġforest": 2872,
    "Ġdrugs": 2873,
    "Ġvacc": 2874,
    "After": 2875,
    "Ġcloud": 2876,
    "Ġsociet": 2877,
    "Ġpositive": 2878,
    "nal": 2879,
    "Ġsand": 2880,
    "Ġgrew": 2881,
    "ims": 2882,
    "Ġnobody": 2883,
    "others": 2884,
    "Ġec": 2885,
    "verty": 2886,
    "tend": 2887,
    "Ġwatching": 2888,
    "Ġvirus": 2889,
    "ĠBrit": 2890,
    "Ġfant": 2891,
    "ĠDe": 2892,
    "conds": 2893,
    "ued": 2894,
    "Ġbar": 2895,
    "Ġadult": 2896,
    "Ġremark": 2897,
    "Ġstrateg": 2898,
    "Ġwait": 2899,
    "Ġvirt": 2900,
    "Ġther": 2901,
    "Ġswe": 2902,
    "Ġdam": 2903,
    "Ġwebs": 2904,
    "ĠJohn": 2905,
    "ucle": 2906,
    "Ġassum": 2907,
    "Ġcollabor": 2908,
    "Ġmine": 2909,
    "Ġpush": 2910,
    "Ġfill": 2911,
    "Ġshown": 2912,
    "Ġimmedi": 2913,
    "Ġwants": 2914,
    "Ġperspect": 2915,
    "Ġdecision": 2916,
    "Ġcarry": 2917,
    "Ġ199": 2918,
    "Ġfinan": 2919,
    "Ġinfect": 2920,
    "Ġjobs": 2921,
    "Ġallowed": 2922,
    "Maybe": 2923,
    "atory": 2924,
    "Ġstick": 2925,
    "Ġspir": 2926,
    "Ġdiscuss": 2927,
    "place": 2928,
    "Ġcharacter": 2929,
    "Ġincluding": 2930,
    "Ġmethod": 2931,
    "Ġfasc": 2932,
    "ays": 2933,
    "ops": 2934,
    "Ġnotice": 2935,
    "Ġconc": 2936,
    "Ġanybody": 2937,
    "ĠAfgh": 2938,
    "Ġdetect": 2939,
    "Ġobjects": 2940,
    "dom": 2941,
    "Ġbodies": 2942,
    "Ġmental": 2943,
    "Ġdom": 2944,
    "ief": 2945,
    "agine": 2946,
    "Ġrock": 2947,
    "Ġappear": 2948,
    "ĠYeah": 2949,
    "Ġskin": 2950,
    "Ġinflu": 2951,
    "Ġreturn": 2952,
    "Ġtraining": 2953,
    "Ġtrees": 2954,
    "ped": 2955,
    "Ġbank": 2956,
    "iger": 2957,
    "oles": 2958,
    "Ġclos": 2959,
    "Ġpoverty": 2960,
    "Ġposition": 2961,
    "Ġsuddenly": 2962,
    "Ġmovie": 2963,
    "Ġvillage": 2964,
    "Can": 2965,
    "iers": 2966,
    "idge": 2967,
    "Ġ16": 2968,
    "itten": 2969,
    "ffic": 2970,
    "Ġunivers": 2971,
    "Ġstudies": 2972,
    "Ġbuildings": 2973,
    "Ġcapt": 2974,
    "Ġcontinue": 2975,
    "Ġfreedom": 2976,
    "ought": 2977,
    "Ġbal": 2978,
    "Ġactivity": 2979,
    "soci": 2980,
    "licated": 2981,
    "Ġlargest": 2982,
    "Ġminute": 2983,
    "ughter": 2984,
    "Ġeventually": 2985,
    "50": 2986,
    "Im": 2987,
    "men": 2988,
    "Ġwife": 2989,
    "Ġcases": 2990,
    "Ġbom": 2991,
    "Ġnamed": 2992,
    "urt": 2993,
    "Ġjud": 2994,
    "istics": 2995,
    "Ġtruly": 2996,
    "Ġ14": 2997,
    "Ġfarm": 2998,
    "Ġsupposed": 2999,
    "Ġcrisis": 3000,
    "ror": 3001,
    "Ġign": 3002,
    "inct": 3003,
    "Ġfine": 3004,
    "eless": 3005,
    "ĠNorth": 3006,
    "Ġpolitics": 3007,
    "Ġconversation": 3008,
    "Even": 3009,
    "Ġstress": 3010,
    "Ġsepar": 3011,
    "Ġproducts": 3012,
    "Ġtemper": 3013,
    "Ġtraditional": 3014,
    "Ġdepend": 3015,
    "ros": 3016,
    "ining": 3017,
    "erve": 3018,
    "Ġpan": 3019,
    "Ġluck": 3020,
    "icle": 3021,
    "Ġforms": 3022,
    "ĠShe": 3023,
    "Ġanymore": 3024,
    "avid": 3025,
    "Ġkept": 3026,
    "Ġkilled": 3027,
    "Ġexcited": 3028,
    "ĠAfghan": 3029,
    "ring": 3030,
    "ero": 3031,
    "itary": 3032,
    "Ġnucle": 3033,
    "Ġdeb": 3034,
    "Ġprote": 3035,
    "Ġaccept": 3036,
    "Ġincome": 3037,
    "Ġ201": 3038,
    "Ġspecific": 3039,
    "Ġconditions": 3040,
    "for": 3041,
    "Ġsource": 3042,
    "Ġnarr": 3043,
    "Ġplants": 3044,
    "ologist": 3045,
    "Ġspeed": 3046,
    "ossible": 3047,
    "Ġsyn": 3048,
    "Ġended": 3049,
    "Ġeffort": 3050,
    "Ġextremely": 3051,
    "Ġsolutions": 3052,
    "Ġrole": 3053,
    "Ġartist": 3054,
    "Ġpoints": 3055,
    "Ġsignific": 3056,
    "Ġ90": 3057,
    "zz": 3058,
    "enn": 3059,
    "Ġhop": 3060,
    "Ġpack": 3061,
    "oday": 3062,
    "ulate": 3063,
    "Ġclin": 3064,
    "Ġearl": 3065,
    "ĠAfrican": 3066,
    "Ġallows": 3067,
    "Ġlabor": 3068,
    "Ġsecret": 3069,
    "Ġprovide": 3070,
    "Ġlistening": 3071,
    "aid": 3072,
    "cise": 3073,
    "igher": 3074,
    "Ġdoctor": 3075,
    "Ġgoal": 3076,
    "Ġrap": 3077,
    "Ġalive": 3078,
    "cip": 3079,
    "ĠCal": 3080,
    "Ġfinding": 3081,
    "Ġexciting": 3082,
    "Most": 3083,
    "aur": 3084,
    "Ġi": 3085,
    "sect": 3086,
    "ĠAt": 3087,
    "Ġenj": 3088,
    "Ġdisapp": 3089,
    "Ġsorts": 3090,
    "Ġskills": 3091,
    "Ġemploy": 3092,
    "Ġcollege": 3093,
    "Ġsocieties": 3094,
    "here": 3095,
    "ube": 3096,
    "Ġtrou": 3097,
    "Ġcolleag": 3098,
    "Ġextraordinary": 3099,
    "Ġfascin": 3100,
    "Ġwild": 3101,
    "Ġoxy": 3102,
    "Ġhigher": 3103,
    "Ġlate": 3104,
    "Ġlink": 3105,
    "useum": 3106,
    "ĠCar": 3107,
    "Ġsurger": 3108,
    "Ġpublish": 3109,
    "Ġthousand": 3110,
    "Ġmathem": 3111,
    "Ġservice": 3112,
    "First": 3113,
    "fr": 3114,
    "Ġsch": 3115,
    "Ġweight": 3116,
    "Ġabove": 3117,
    "Ġloved": 3118,
    "ĠOK": 3119,
    "Ġsuccessful": 3120,
    "cape": 3121,
    "iation": 3122,
    "Ġdoc": 3123,
    "ĠArab": 3124,
    "Ġimpossible": 3125,
    "Ġcook": 3126,
    "Ġengage": 3127,
    "Ġafford": 3128,
    "Ġpurp": 3129,
    "Ġstrugg": 3130,
    "Ġcitizens": 3131,
    "ees": 3132,
    "Ġbunch": 3133,
    "any": 3134,
    "iest": 3135,
    "Ġ13": 3136,
    "Ġsmell": 3137,
    "Ġreading": 3138,
    "Ġcorre": 3139,
    "Ġmodels": 3140,
    "Ġfamilies": 3141,
    "ĠChrist": 3142,
    "cies": 3143,
    "Ġlower": 3144,
    "Ġanywhere": 3145,
    "Ġdeterm": 3146,
    "Ġcalcul": 3147,
    "Ġfundamental": 3148,
    "yl": 3149,
    "Ġlands": 3150,
    "ster": 3151,
    "Ġusually": 3152,
    "Ġconcer": 3153,
    "Ġrand": 3154,
    "Ġpolicy": 3155,
    "Ġslight": 3156,
    "Ġlarger": 3157,
    "Ġmachines": 3158,
    "ĠIsl": 3159,
    "Ġneurons": 3160,
    "iven": 3161,
    "Ġexpensive": 3162,
    "Ġcapital": 3163,
    "Ġrobots": 3164,
    "Of": 3165,
    "Ġeffic": 3166,
    "Ġfamiliar": 3167,
    "Ġstraight": 3168,
    "iti": 3169,
    "Ġbecoming": 3170,
    "ĠGe": 3171,
    "ĠWestern": 3172,
    "Ġpieces": 3173,
    "Ġ70": 3174,
    "Ġtypes": 3175,
    "Ġcritical": 3176,
    "Ġsou": 3177,
    "ained": 3178,
    "Ġ17": 3179,
    "Ġfamous": 3180,
    "Ġfunny": 3181,
    "osphere": 3182,
    "oint": 3183,
    "Ġthr": 3184,
    "Ġcry": 3185,
    "Ġlad": 3186,
    "Ġdoctors": 3187,
    "Ġupon": 3188,
    "Ġplastic": 3189,
    "Ġactual": 3190,
    "Ġsomewhere": 3191,
    "Ġsaving": 3192,
    "Ġwilling": 3193,
    "Ġcold": 3194,
    "Ġgenetic": 3195,
    "Ġraise": 3196,
    "Ġseries": 3197,
    "Ġreflect": 3198,
    "Ġswim": 3199,
    "cules": 3200,
    "Ġperspective": 3201,
    "Ġrandom": 3202,
    "Ġdrop": 3203,
    "aries": 3204,
    "lex": 3205,
    "Ġseconds": 3206,
    "ĠAm": 3207,
    "ĠAll": 3208,
    "Ġsomehow": 3209,
    "Ġcomplicated": 3210,
    "Ġtalks": 3211,
    "Ġdemon": 3212,
    "Ġrespect": 3213,
    "ĠUniversity": 3214,
    "Ġcheck": 3215,
    "Ġpatterns": 3216,
    "Ġrecognize": 3217,
    "Ġphilos": 3218,
    "fer": 3219,
    "la": 3220,
    "ana": 3221,
    "Ġstore": 3222,
    "Ġjump": 3223,
    "unk": 3224,
    "Ġroll": 3225,
    "ellow": 3226,
    "Ġwritten": 3227,
    "Ġgreater": 3228,
    "Ġearth": 3229,
    "Ġmagn": 3230,
    "Ġglass": 3231,
    "Ġtreatment": 3232,
    "Ġmir": 3233,
    "rael": 3234,
    "ĠBra": 3235,
    "ĠRe": 3236,
    "ĠWar": 3237,
    "Ġstrange": 3238,
    "Ġlaunch": 3239,
    "Ġexplore": 3240,
    "ustrial": 3241,
    "Ġincrease": 3242,
    "Ġsquare": 3243,
    "Ġfinancial": 3244,
    "erman": 3245,
    "ises": 3246,
    "iced": 3247,
    "Ġshap": 3248,
    "Ġmanage": 3249,
    "Ġrights": 3250,
    "ĠAmericans": 3251,
    "Ġteaching": 3252,
    "Ġchoices": 3253,
    "Today": 3254,
    "egr": 3255,
    "fact": 3256,
    "time": 3257,
    "Ġquot": 3258,
    "Ġcard": 3259,
    "imb": 3260,
    "rof": 3261,
    "Ġboard": 3262,
    "Ġscr": 3263,
    "Ġshared": 3264,
    "Ġeffective": 3265,
    "Ġversion": 3266,
    "urban": 3267,
    "Ġspirit": 3268,
    "back": 3269,
    "Ġtiss": 3270,
    "Ġpage": 3271,
    "Ġfra": 3272,
    "amic": 3273,
    "Ġshark": 3274,
    "Ġrise": 3275,
    "Ġtrick": 3276,
    "Ġmolecules": 3277,
    "ball": 3278,
    "vision": 3279,
    "Ġsite": 3280,
    "Ġpen": 3281,
    "uments": 3282,
    "Ġlegs": 3283,
    "Ġolder": 3284,
    "Ġsmaller": 3285,
    "Ġbeauty": 3286,
    "Ġsecurity": 3287,
    "Ġbacteria": 3288,
    "Ġdemonstr": 3289,
    "Ġsus": 3290,
    "Ġcat": 3291,
    "Ġgas": 3292,
    "ently": 3293,
    "Ġtrib": 3294,
    "Ġprep": 3295,
    "Ġdecades": 3296,
    "Ġhumanity": 3297,
    "Ġstanding": 3298,
    "Ġpainting": 3299,
    "Ġcosts": 3300,
    "Ġplease": 3301,
    "Ġoptim": 3302,
    "Ġfemale": 3303,
    "bb": 3304,
    "Ġthrow": 3305,
    "Ġmal": 3306,
    "Ġhous": 3307,
    "Ġport": 3308,
    "omm": 3309,
    "Ġang": 3310,
    "Ġheav": 3311,
    "ĠLet": 3312,
    "Ġhealthy": 3313,
    "Ġrespond": 3314,
    "Ġconnection": 3315,
    "ortunately": 3316,
    "Ġdiscover": 3317,
    "Ġincreasing": 3318,
    "Ġwebsite": 3319,
    "Imagine": 3320,
    "Se": 3321,
    "iring": 3322,
    "Ġkil": 3323,
    "Ġassoci": 3324,
    "Ġuses": 3325,
    "ĠHar": 3326,
    "ĠDo": 3327,
    "epend": 3328,
    "ounds": 3329,
    "Ġbeings": 3330,
    "Ġgenes": 3331,
    "Ġ198": 3332,
    "Ġinnov": 3333,
    "Ġachieve": 3334,
    "ĠX": 3335,
    "rest": 3336,
    "uss": 3337,
    "Ġstar": 3338,
    "ulf": 3339,
    "iling": 3340,
    "Ġran": 3341,
    "aging": 3342,
    "Ġexpress": 3343,
    "Ġorganizations": 3344,
    "Ġlevels": 3345,
    "Ġbabies": 3346,
    "Ġcomfort": 3347,
    "Ġdesp": 3348,
    "Ġsym": 3349,
    "Ġorganization": 3350,
    "Ġengineering": 3351,
    "Ġservices": 3352,
    "Ġessentially": 3353,
    "aff": 3354,
    "itation": 3355,
    "imp": 3356,
    "Ġforth": 3357,
    "Ġspeech": 3358,
    "Ġcreativity": 3359,
    "ĠKen": 3360,
    "Ġcorru": 3361,
    "Ġdistribut": 3362,
    "Ġpractice": 3363,
    "repre": 3364,
    "atically": 3365,
    "Ġbread": 3366,
    "lebr": 3367,
    "ĠIran": 3368,
    "acity": 3369,
    "Ġremind": 3370,
    "Ġdangerous": 3371,
    "reprene": 3372,
    "Ġcust": 3373,
    "ables": 3374,
    "Ġpros": 3375,
    "Ġthroughout": 3376,
    "Ġfinal": 3377,
    "ĠAfghanistan": 3378,
    "ray": 3379,
    "Ġfit": 3380,
    "aly": 3381,
    "Ġeth": 3382,
    "thern": 3383,
    "Ġmobile": 3384,
    "Ġimmediately": 3385,
    "Ġsurgery": 3386,
    "aign": 3387,
    "ping": 3388,
    "ugh": 3389,
    "Ġnation": 3390,
    "Ġalg": 3391,
    "Ġevolved": 3392,
    "Ġenvironmental": 3393,
    "ĠIsrael": 3394,
    "Ġelectricity": 3395,
    "Ġfantastic": 3396,
    "Ġremarkable": 3397,
    "Ġmention": 3398,
    "Ġdro": 3399,
    "sequ": 3400,
    "Ġsequ": 3401,
    "Ġvict": 3402,
    "Where": 3403,
    "Ġbelief": 3404,
    "Ġpolice": 3405,
    "Ġbiology": 3406,
    "Ġwalked": 3407,
    "Ġstandard": 3408,
    "Ġdiagn": 3409,
    "Ġchallenges": 3410,
    "Ġearlier": 3411,
    "itude": 3412,
    "Ġpark": 3413,
    "Ġet": 3414,
    "imately": 3415,
    "Ġcoff": 3416,
    "Ġoffic": 3417,
    "Ġblock": 3418,
    "Ġarchitecture": 3419,
    "Ġmedicine": 3420,
    "nter": 3421,
    "Ġurban": 3422,
    "Ġmatch": 3423,
    "Ġhole": 3424,
    "orrow": 3425,
    "arian": 3426,
    "Ġwhose": 3427,
    "ids": 3428,
    "Ġchair": 3429,
    "Ġpopular": 3430,
    "Ġtelevision": 3431,
    "word": 3432,
    "itor": 3433,
    "Ġdad": 3434,
    "ulner": 3435,
    "ĠMan": 3436,
    "Ġunique": 3437,
    "Ġ21": 3438,
    "Ġphen": 3439,
    "Ġrace": 3440,
    "Ġproduction": 3441,
    "Ġinterview": 3442,
    "Ġoppos": 3443,
    "Ġcondition": 3444,
    "Ġfollowing": 3445,
    "Ġclearly": 3446,
    "Ġinternational": 3447,
    "Ġhonest": 3448,
    "Ġcover": 3449,
    "ologists": 3450,
    "ĠRight": 3451,
    "Ġapply": 3452,
    "Ġunderstood": 3453,
    "Ġhelped": 3454,
    "Ġaddress": 3455,
    "Ġcelebr": 3456,
    "Ġenjoy": 3457,
    "Any": 3458,
    "Be": 3459,
    "son": 3460,
    "Ġtur": 3461,
    "Ġsal": 3462,
    "oty": 3463,
    "ĠGerman": 3464,
    "Ġprice": 3465,
    "Ġtrade": 3466,
    "Ġcareer": 3467,
    "Ġwaiting": 3468,
    "Ġprivate": 3469,
    "aul": 3470,
    "eral": 3471,
    "owd": 3472,
    "igr": 3473,
    "Ġstars": 3474,
    "Ġshock": 3475,
    "Ġshift": 3476,
    "ement": 3477,
    "ĠOr": 3478,
    "Ġuseful": 3479,
    "Ġhimself": 3480,
    "ception": 3481,
    "Ġmilitary": 3482,
    "Ġveh": 3483,
    "attle": 3484,
    "Ġmassive": 3485,
    "Ġemotional": 3486,
    "Ġperformance": 3487,
    "Ġtask": 3488,
    "Ġmix": 3489,
    "Ġnut": 3490,
    "iding": 3491,
    "Ġworry": 3492,
    "ĠCity": 3493,
    "Ġspeaking": 3494,
    "bert": 3495,
    "Ġsurround": 3496,
    "Ġentreprene": 3497,
    "Ġautom": 3498,
    "Ġsummer": 3499,
    "Ġcoffee": 3500,
    "Ġweb": 3501,
    "Ġforget": 3502,
    "the": 3503,
    "though": 3504,
    "Ġtherefore": 3505,
    "istry": 3506,
    "resh": 3507,
    "Ġemail": 3508,
    "Ġprevent": 3509,
    "Ġsky": 3510,
    "Ġhistor": 3511,
    "Ġcomplexity": 3512,
    "Ġsexual": 3513,
    "Ġmotiv": 3514,
    "Ġintelligence": 3515,
    "Ġphenomen": 3516,
    "Ġir": 3517,
    "ĠWhen": 3518,
    "Ġmale": 3519,
    "used": 3520,
    "raq": 3521,
    "Ġspect": 3522,
    "Ġspaces": 3523,
    "ĠMar": 3524,
    "ĠBl": 3525,
    "udd": 3526,
    "Ġcreates": 3527,
    "board": 3528,
    "Ġclassroom": 3529,
    "Ġexperiments": 3530,
    "Ġmultip": 3531,
    "Ġneighborhood": 3532,
    "isms": 3533,
    "Ġhus": 3534,
    "rad": 3535,
    "Ġexh": 3536,
    "cience": 3537,
    "Ġweren": 3538,
    "ĠFace": 3539,
    "Ġinstance": 3540,
    "Ġvalues": 3541,
    "Ġphysic": 3542,
    "ashion": 3543,
    "Ġmeeting": 3544,
    "Ġslightly": 3545,
    "Somet": 3546,
    "oe": 3547,
    "Ġahead": 3548,
    "Ġwood": 3549,
    "rees": 3550,
    "Ġlines": 3551,
    "Those": 3552,
    "imin": 3553,
    "anda": 3554,
    "Which": 3555,
    "ĠDavid": 3556,
    "Ġfold": 3557,
    "Ġdecide": 3558,
    "Ġgradu": 3559,
    "Ġlights": 3560,
    "Ġidentity": 3561,
    "uing": 3562,
    "Ġyeah": 3563,
    "Ġwealth": 3564,
    "Ġselect": 3565,
    "Ġworst": 3566,
    "Ġvulner": 3567,
    "ĠSp": 3568,
    "ĠSte": 3569,
    "Ġslide": 3570,
    "Ġcentral": 3571,
    "Ġphoto": 3572,
    "Ġphysics": 3573,
    "Ġdirection": 3574,
    "Ġradio": 3575,
    "Another": 3576,
    "af": 3577,
    "iate": 3578,
    "Ġinsect": 3579,
    "Ġstates": 3580,
    "ĠDon": 3581,
    "Ġ24": 3582,
    "rench": 3583,
    "Ġdrink": 3584,
    "Ġhighly": 3585,
    "ission": 3586,
    "Ġnetworks": 3587,
    "Ġdestro": 3588,
    "ID": 3589,
    "Right": 3590,
    "Ġhall": 3591,
    "Ġdance": 3592,
    "Ġdog": 3593,
    "olve": 3594,
    "ĠLond": 3595,
    "Ġ197": 3596,
    "Ġdaughter": 3597,
    "ĠQ": 3598,
    "oses": 3599,
    "aling": 3600,
    "ĠIraq": 3601,
    "Ġeating": 3602,
    "ceed": 3603,
    "stead": 3604,
    "Ġenorm": 3605,
    "Ġtransport": 3606,
    "Ġanswers": 3607,
    "Ġcultural": 3608,
    "Ġfocused": 3609,
    "Ġnuclear": 3610,
    "Ġpurpose": 3611,
    "ĠLondon": 3612,
    "iot": 3613,
    "off": 3614,
    "yle": 3615,
    "Ġ$": 3616,
    "ening": 3617,
    "ams": 3618,
    "Ġintegr": 3619,
    "Ġdifferences": 3620,
    "lications": 3621,
    "Ġprofound": 3622,
    "Ġspending": 3623,
    "Ġcampaign": 3624,
    "Ġinvented": 3625,
    "Ġcustom": 3626,
    "atives": 3627,
    "Ġbase": 3628,
    "Ġdying": 3629,
    "Ġinj": 3630,
    "cell": 3631,
    "Ġann": 3632,
    "Ġshop": 3633,
    "Ġord": 3634,
    "Ġlog": 3635,
    "ĠAustr": 3636,
    "Ġparty": 3637,
    "Ġbrings": 3638,
    "Ġdecade": 3639,
    "exic": 3640,
    "Ġlaws": 3641,
    "Ġsurvive": 3642,
    "Ġtemperature": 3643,
    "Ġtrouble": 3644,
    "ĠFacebook": 3645,
    "ried": 3646,
    "uct": 3647,
    "Ġtree": 3648,
    "Ġoh": 3649,
    "Ġshot": 3650,
    "Ġnoticed": 3651,
    "Ġrange": 3652,
    "ĠCl": 3653,
    "apped": 3654,
    "ibr": 3655,
    "load": 3656,
    "Ġboys": 3657,
    "order": 3658,
    "Ġgreatest": 3659,
    "Ġdriving": 3660,
    "Ġstreets": 3661,
    "Ġvarious": 3662,
    "Ġinspired": 3663,
    "Ġtarget": 3664,
    "Ġbirds": 3665,
    "ratic": 3666,
    "Ġsad": 3667,
    "Ġcand": 3668,
    "Ġcatch": 3669,
    "ened": 3670,
    "ste": 3671,
    "raid": 3672,
    "Ġconsequ": 3673,
    "Ġteen": 3674,
    "ĠAd": 3675,
    "Ġartists": 3676,
    "Ġshares": 3677,
    "Ġoccur": 3678,
    "Ġhusb": 3679,
    "cope": 3680,
    "ystem": 3681,
    "Ġtrem": 3682,
    "Ġgent": 3683,
    "ĠMus": 3684,
    "Ġadapt": 3685,
    "Ġterm": 3686,
    "Ġdiseases": 3687,
    "Ġanaly": 3688,
    "Ġafraid": 3689,
    "ĠiP": 3690,
    "gth": 3691,
    "Ġtown": 3692,
    "ancy": 3693,
    "orge": 3694,
    "Ġstren": 3695,
    "oper": 3696,
    "adem": 3697,
    "antic": 3698,
    "ĠMiddle": 3699,
    "Ġresist": 3700,
    "Ġsymb": 3701,
    "Ġinstr": 3702,
    "Ġelectr": 3703,
    "Ġstopped": 3704,
    "Ġbreast": 3705,
    "Ġprograms": 3706,
    "Ġterrible": 3707,
    "Ġcauses": 3708,
    "Ġdocument": 3709,
    "Ġetc": 3710,
    "ox": 3711,
    "Ġmut": 3712,
    "Ġloss": 3713,
    "arm": 3714,
    "iforn": 3715,
    "iles": 3716,
    "Ġvast": 3717,
    "Ġcommunicate": 3718,
    "mic": 3719,
    "wise": 3720,
    "Ġver": 3721,
    "Ġwis": 3722,
    "Ġfing": 3723,
    "Ġdimens": 3724,
    "orith": 3725,
    "Ġactive": 3726,
    "itted": 3727,
    "Ġdram": 3728,
    "Ġlaugh": 3729,
    "Ġ500": 3730,
    "ĠIndian": 3731,
    "ĠCaliforn": 3732,
    "Ġstrength": 3733,
    "ya": 3734,
    "Ġfat": 3735,
    "orry": 3736,
    "Ġweap": 3737,
    "ett": 3738,
    "key": 3739,
    "Ġframe": 3740,
    "Ġrule": 3741,
    "ĠMexic": 3742,
    "ĠBecause": 3743,
    "Ġcapacity": 3744,
    "Ġscientist": 3745,
    "Ġdirectly": 3746,
    "Ġcolleagues": 3747,
    "Ġpublished": 3748,
    "Ġmathemat": 3749,
    "ax": 3750,
    "na": 3751,
    "ze": 3752,
    "Ġpaid": 3753,
    "Ġgala": 3754,
    "thetic": 3755,
    "ĠMc": 3756,
    "ĠPar": 3757,
    "Ġdispl": 3758,
    "Ġblog": 3759,
    "Ġrelative": 3760,
    "Ġvari": 3761,
    "Ġsustainable": 3762,
    "Ġcloser": 3763,
    "Ġalgorith": 3764,
    "Ġing": 3765,
    "alia": 3766,
    "ille": 3767,
    "Ġknowing": 3768,
    "ĠCong": 3769,
    "Ġtax": 3770,
    "Ġtwice": 3771,
    "Ġcommer": 3772,
    "Ġtraffic": 3773,
    "Ġcrowd": 3774,
    "Ġmissing": 3775,
    "Ġjournal": 3776,
    "Ġflying": 3777,
    "Ġfloor": 3778,
    "Ġexperiences": 3779,
    "ĠCalifornia": 3780,
    "Ġut": 3781,
    "edia": 3782,
    "ashing": 3783,
    "ĠCent": 3784,
    "ĠCol": 3785,
    "ĠMr": 3786,
    "Ġmostly": 3787,
    "ĠOne": 3788,
    "phone": 3789,
    "Ġpossibly": 3790,
    "Ġsupply": 3791,
    "Ġelectron": 3792,
    "Ġphotos": 3793,
    "Ġbroad": 3794,
    "Ġleadership": 3795,
    "Ġdoub": 3796,
    "edd": 3797,
    "Ġbeat": 3798,
    "Ġatm": 3799,
    "empt": 3800,
    "Ġcompon": 3801,
    "Ġindepend": 3802,
    "engu": 3803,
    "Ġforeign": 3804,
    "Ġinstitutions": 3805,
    "Like": 3806,
    "Sh": 3807,
    "gy": 3808,
    "zil": 3809,
    "Ġtens": 3810,
    "Ġaid": 3811,
    "Ġreve": 3812,
    "ĠSc": 3813,
    "Ġunc": 3814,
    "Ġbelow": 3815,
    "Ġbasis": 3816,
    "Ġconference": 3817,
    "Ġmembers": 3818,
    "Ġdevices": 3819,
    "Ġjoin": 3820,
    "Ġdeliver": 3821,
    "Ġemotion": 3822,
    "Ġcommunication": 3823,
    "Ġgentle": 3824,
    "DP": 3825,
    "gain": 3826,
    "ios": 3827,
    "now": 3828,
    "itter": 3829,
    "Ġdyn": 3830,
    "Ġlack": 3831,
    "Ġforces": 3832,
    "Ġrough": 3833,
    "Ġproduced": 3834,
    "Ġmoments": 3835,
    "Ġcontroll": 3836,
    "Ġautism": 3837,
    "idden": 3838,
    "Ġbringing": 3839,
    "Ġairpl": 3840,
    "Ġopportunities": 3841,
    "Ġreduce": 3842,
    "Ġphilosoph": 3843,
    "SA": 3844,
    "fl": 3845,
    "ufact": 3846,
    "anced": 3847,
    "izes": 3848,
    "Ġzero": 3849,
    "Ġnearly": 3850,
    "Ġmolecule": 3851,
    "rastruct": 3852,
    "Ġwheel": 3853,
    "IDS": 3854,
    "ipt": 3855,
    "Ġban": 3856,
    "Ġpig": 3857,
    "Ġfort": 3858,
    "Ġnovel": 3859,
    "Ġrare": 3860,
    "Ġplayed": 3861,
    "Ġhearing": 3862,
    "Ġstructures": 3863,
    "Ġavoid": 3864,
    "Ġtissue": 3865,
    "Ġcorruption": 3866,
    "Ġopposite": 3867,
    "atr": 3868,
    "Ġhang": 3869,
    "Ġfro": 3870,
    "Ġhack": 3871,
    "Ġsharing": 3872,
    "Ġnote": 3873,
    "Ġagree": 3874,
    "ĠChar": 3875,
    "Ġfeels": 3876,
    "Ġhelping": 3877,
    "Ġswitch": 3878,
    "iage": 3879,
    "osh": 3880,
    "Ġpengu": 3881,
    "Ġfashion": 3882,
    "iber": 3883,
    "Ġpoet": 3884,
    "ĠFor": 3885,
    "athy": 3886,
    "othes": 3887,
    "Ġpassed": 3888,
    "Ġinfrastruct": 3889,
    "Ġjoy": 3890,
    "Ġmission": 3891,
    "Ġoriginal": 3892,
    "Ġbrand": 3893,
    "Ġpuzz": 3894,
    "sc": 3895,
    "ervation": 3896,
    "Ġgun": 3897,
    "Ġrecon": 3898,
    "Who": 3899,
    "Ġmanufact": 3900,
    "ĠTw": 3901,
    "ĠDr": 3902,
    "ording": 3903,
    "Ġstudying": 3904,
    "ricult": 3905,
    "Ġattract": 3906,
    "Ġaddition": 3907,
    "Ġgrandm": 3908,
    "Ġvolunt": 3909,
    "stein": 3910,
    "Ġhusband": 3911,
    "Look": 3912,
    "Ġtom": 3913,
    "Ġfaces": 3914,
    "Ġstem": 3915,
    "Ġseed": 3916,
    "Ġliber": 3917,
    "artment": 3918,
    "Ġamb": 3919,
    "Ġscan": 3920,
    "Ġinsight": 3921,
    "Ġvisit": 3922,
    "Ġaccur": 3923,
    "Ġsignificant": 3924,
    "ĠBrazil": 3925,
    "Two": 3926,
    "Ġbought": 3927,
    "Ġden": 3928,
    "ches": 3929,
    "Ġforg": 3930,
    "antage": 3931,
    "Ġorg": 3932,
    "ĠRuss": 3933,
    "Ġsurve": 3934,
    "Ġcolors": 3935,
    "Ġeasily": 3936,
    "Ġforever": 3937,
    "Ġmagaz": 3938,
    "Ġfailure": 3939,
    "Ġemotions": 3940,
    "Ġrelationships": 3941,
    "Ġreligion": 3942,
    "Ġdegrees": 3943,
    "Ġfuel": 3944,
    "Ġconsciousness": 3945,
    "Ġoxygen": 3946,
    "Many": 3947,
    "icking": 3948,
    "ada": 3949,
    "ils": 3950,
    "Instead": 3951,
    "Ġappl": 3952,
    "Ġimportantly": 3953,
    "Ġpassword": 3954,
    "Ġtotal": 3955,
    "Ġnecessary": 3956,
    "Ġtherap": 3957,
    "Ġcommercial": 3958,
    "Ġreb": 3959,
    "Ġreco": 3960,
    "ctually": 3961,
    "ĠTr": 3962,
    "Ġanyway": 3963,
    "aced": 3964,
    "elling": 3965,
    "Ġimagination": 3966,
    "Ġgovernments": 3967,
    "Ġfully": 3968,
    "Ġrequire": 3969,
    "Ġcorrect": 3970,
    "Ġtremend": 3971,
    "ky": 3972,
    "oo": 3973,
    "osqu": 3974,
    "aria": 3975,
    "Ġvote": 3976,
    "ĠAIDS": 3977,
    "ander": 3978,
    "ĠPl": 3979,
    "Ġcrime": 3980,
    "Ġconsid": 3981,
    "Ġentirely": 3982,
    "Ġargument": 3983,
    "Ġbroken": 3984,
    "Ġbenefits": 3985,
    "Ġlucky": 3986,
    "Ġturning": 3987,
    "Ġatmosphere": 3988,
    "From": 3989,
    "gn": 3990,
    "hand": 3991,
    "wide": 3992,
    "Ġwide": 3993,
    "oun": 3994,
    "Ġcru": 3995,
    "Ġcogn": 3996,
    "Ġmouth": 3997,
    "amb": 3998,
    "ears": 3999,
    "Ġalthough": 4000,
    "ager": 4001,
    "udience": 4002,
    "ĠNational": 4003,
    "Ġdifferently": 4004,
    "aker": 4005,
    "Ġ300": 4006,
    "Ġlesson": 4007,
    "Ġhyd": 4008,
    "Ġstatistics": 4009,
    "Ġenormous": 4010,
    "Ġwisdom": 4011,
    "Don": 4012,
    "lim": 4013,
    "Ġsick": 4014,
    "Ġbatter": 4015,
    "Ġmuseum": 4016,
    "Ġhom": 4017,
    "edic": 4018,
    "icles": 4019,
    "Ġhair": 4020,
    "Ġancient": 4021,
    "Ġmeas": 4022,
    "Ġvot": 4023,
    "ĠPro": 4024,
    "Ġbackground": 4025,
    "Ġoffer": 4026,
    "Ġbrill": 4027,
    "Ġindustrial": 4028,
    "Ġcorner": 4029,
    "Ġrestaur": 4030,
    "pected": 4031,
    "Ġdeeply": 4032,
    "Ġmajority": 4033,
    "Yes": 4034,
    "vest": 4035,
    "zen": 4036,
    "Ġcore": 4037,
    "osystem": 4038,
    "apers": 4039,
    "vere": 4040,
    "Ġheat": 4041,
    "ĠMe": 4042,
    "Ġevents": 4043,
    "Ġcla": 4044,
    "Ġgrown": 4045,
    "Ġmatters": 4046,
    "Ġparad": 4047,
    "Ġwindow": 4048,
    "Ġsymbol": 4049,
    "isible": 4050,
    "Think": 4051,
    "roll": 4052,
    "ifically": 4053,
    "ifying": 4054,
    "irt": 4055,
    "roud": 4056,
    "Ġjustice": 4057,
    "aining": 4058,
    "Ġunlike": 4059,
    "ĠNor": 4060,
    "Ġcooper": 4061,
    "ĠFrench": 4062,
    "ysis": 4063,
    "Ġmetaph": 4064,
    "Ġdemand": 4065,
    "Ġleading": 4066,
    "Ġequal": 4067,
    "Ġcheap": 4068,
    "Ġresponsible": 4069,
    "Ġpressure": 4070,
    "Ġdescribe": 4071,
    "Ġsuffering": 4072,
    "Ġmountain": 4073,
    "Ġrapid": 4074,
    "Ġfascinating": 4075,
    "based": 4076,
    "gar": 4077,
    "reet": 4078,
    "Ġble": 4079,
    "Ġburn": 4080,
    "Ġlunch": 4081,
    "icon": 4082,
    "urd": 4083,
    "Ġstream": 4084,
    "Ġheld": 4085,
    "Ġchick": 4086,
    "ĠCon": 4087,
    "agers": 4088,
    "itely": 4089,
    "Ġ196": 4090,
    "Ġnewsp": 4091,
    "Ġhyp": 4092,
    "Ġecosystem": 4093,
    "Ġlandscape": 4094,
    "house": 4095,
    "Ġpet": 4096,
    "Ġdiversity": 4097,
    "Ġshoot": 4098,
    "ulous": 4099,
    "ĠMich": 4100,
    "Ġworkers": 4101,
    "Ġagricult": 4102,
    "Ġcontact": 4103,
    "Ġamp": 4104,
    "Ġfighting": 4105,
    "Ġbreath": 4106,
    "equ": 4107,
    "gal": 4108,
    "hy": 4109,
    "li": 4110,
    "vant": 4111,
    "vity": 4112,
    "win": 4113,
    "water": 4114,
    "Ġbone": 4115,
    "Ġbud": 4116,
    "Ġmamm": 4117,
    "Ġnone": 4118,
    "Ġreward": 4119,
    "ulations": 4120,
    "Ġaltern": 4121,
    "ĠHere": 4122,
    "lock": 4123,
    "Ġflight": 4124,
    "Ġinteraction": 4125,
    "ĠWhere": 4126,
    "Ġextreme": 4127,
    "Ġbenefit": 4128,
    "Ġreceived": 4129,
    "ĠBritish": 4130,
    "Ġinfrastructure": 4131,
    "Yeah": 4132,
    "ha": 4133,
    "tle": 4134,
    "Ġtast": 4135,
    "Ġmid": 4136,
    "Ġtor": 4137,
    "Ġfab": 4138,
    "icians": 4139,
    "Ġrepe": 4140,
    "Ġsport": 4141,
    "Ġexpand": 4142,
    "Ġ400": 4143,
    "Ġaccident": 4144,
    "Ġdreams": 4145,
    "Ġembra": 4146,
    "Ġdespite": 4147,
    "Ġtough": 4148,
    "reci": 4149,
    "Ġcateg": 4150,
    "Ġbul": 4151,
    "Ġmort": 4152,
    "Ġmosqu": 4153,
    "Ġproud": 4154,
    "Ġbees": 4155,
    "verse": 4156,
    "Ġship": 4157,
    "erson": 4158,
    "Ġusers": 4159,
    "Ġgotten": 4160,
    "orders": 4161,
    "Ġchildhood": 4162,
    "Ġshouldn": 4163,
    "Ġregular": 4164,
    "However": 4165,
    "Ġresearchers": 4166,
    "ography": 4167,
    "ĠHey": 4168,
    "Ġvoices": 4169,
    "Ġillustr": 4170,
    "Ġresponsibility": 4171,
    "Ġadults": 4172,
    "Your": 4173,
    "mark": 4174,
    "itable": 4175,
    "Ġbag": 4176,
    "Ġbound": 4177,
    "Ġpair": 4178,
    "Ġgift": 4179,
    "Ġsector": 4180,
    "Ġshoes": 4181,
    "Ġspot": 4182,
    "Ġtrip": 4183,
    "Ġseemed": 4184,
    "Ġremote": 4185,
    "Ġeffects": 4186,
    "Ġtypical": 4187,
    "Ġillness": 4188,
    "ipped": 4189,
    "Ġlegal": 4190,
    "Ġstrategy": 4191,
    "Ġbalance": 4192,
    "Ġdestroy": 4193,
    "Are": 4194,
    "ked": 4195,
    "encies": 4196,
    "ica": 4197,
    "Ġnor": 4198,
    "thes": 4199,
    "Ġrout": 4200,
    "ĠSm": 4201,
    "ellect": 4202,
    "Ġcompared": 4203,
    "Ġbrother": 4204,
    "Ġcreatures": 4205,
    "Ġcollective": 4206,
    "Ġperfectly": 4207,
    "Ġdefinition": 4208,
    "ĠJapanese": 4209,
    "ford": 4210,
    "kn": 4211,
    "mp": 4212,
    "Ġhate": 4213,
    "Ġgay": 4214,
    "Ġwear": 4215,
    "Ġegg": 4216,
    "Ġhabit": 4217,
    "urch": 4218,
    "term": 4219,
    "Ġexer": 4220,
    "ĠSan": 4221,
    "ĠMars": 4222,
    "Ġclimb": 4223,
    "Ġprior": 4224,
    "Ġappe": 4225,
    "Ġattempt": 4226,
    "ĠEuropean": 4227,
    "Ġprotein": 4228,
    "Ġhost": 4229,
    "Ġplat": 4230,
    "ĠMin": 4231,
    "Ġquant": 4232,
    "ĠPal": 4233,
    "Ġcontribut": 4234,
    "ĠRo": 4235,
    "Ġraised": 4236,
    "connect": 4237,
    "Ġpresident": 4238,
    "Ġeasier": 4239,
    "Ġveget": 4240,
    "ĠAsia": 4241,
    "Ġmarried": 4242,
    "Ġepide": 4243,
    "Ġdinner": 4244,
    "Ġdomin": 4245,
    "Ġtum": 4246,
    "esome": 4247,
    "esign": 4248,
    "Ġdan": 4249,
    "Ġgiant": 4250,
    "Ġintellect": 4251,
    "Ġmanaged": 4252,
    "ĠHa": 4253,
    "Ġunex": 4254,
    "iable": 4255,
    "Ġrelated": 4256,
    "Ġmeters": 4257,
    "Ġstuck": 4258,
    "Ġelement": 4259,
    "Ġterror": 4260,
    "Ġdrawing": 4261,
    "Ġversus": 4262,
    "Ġconvin": 4263,
    "Ġfaith": 4264,
    "Ġnegative": 4265,
    "Ġfarmers": 4266,
    "gypt": 4267,
    "Ġvolunte": 4268,
    "Ġtal": 4269,
    "Ġyellow": 4270,
    "Ġweird": 4271,
    "Ġreplace": 4272,
    "Ġconcent": 4273,
    "Ġalt": 4274,
    "Ġtruck": 4275,
    "Ġthinks": 4276,
    "ĠBill": 4277,
    "pped": 4278,
    "ĠEvery": 4279,
    "rupt": 4280,
    "Ġexperts": 4281,
    "Ġtransm": 4282,
    "Ġpossibility": 4283,
    "Ġbiological": 4284,
    "Ġpaint": 4285,
    "Ġequip": 4286,
    "Ġfailed": 4287,
    "Ġantib": 4288,
    "Ġtremendous": 4289,
    "Ġcognitive": 4290,
    "Oh": 4291,
    "my": 4292,
    "Ġwond": 4293,
    "reg": 4294,
    "Ġsister": 4295,
    "arter": 4296,
    "uries": 4297,
    "Ġgold": 4298,
    "Ġaspect": 4299,
    "ĠGDP": 4300,
    "Ġcalls": 4301,
    "Ġprevious": 4302,
    "ĠJust": 4303,
    "Ġenter": 4304,
    "Ġcorpor": 4305,
    "Ġdistance": 4306,
    "Ġadvantage": 4307,
    "Ġfigured": 4308,
    "Ġcycle": 4309,
    "imensional": 4310,
    "ĠSwed": 4311,
    "Ġefficient": 4312,
    "Ġinsects": 4313,
    "Ġbrilliant": 4314,
    "Over": 4315,
    "mon": 4316,
    "uild": 4317,
    "val": 4318,
    "Ġcred": 4319,
    "Ġbillions": 4320,
    "ctions": 4321,
    "Ġstim": 4322,
    "Ġund": 4323,
    "ĠAre": 4324,
    "Ġintu": 4325,
    "Ġeveryday": 4326,
    "Ġdesire": 4327,
    "Ġcommit": 4328,
    "Ġgenome": 4329,
    "Ġletter": 4330,
    "Ġsimpl": 4331,
    "Ġinvisible": 4332,
    "Ġhelps": 4333,
    "Ġartific": 4334,
    "Ġplanning": 4335,
    "ification": 4336,
    "Ġdiscovery": 4337,
    "Ġdiet": 4338,
    "Ġfrequ": 4339,
    "Ġlimited": 4340,
    "Ġdouble": 4341,
    "Ġquote": 4342,
    "Re": 4343,
    "hab": 4344,
    "rict": 4345,
    "Ġhidden": 4346,
    "Ġfol": 4347,
    "Ġdue": 4348,
    "Ġnames": 4349,
    "Ġshel": 4350,
    "Ġhell": 4351,
    "Ġnotion": 4352,
    "Ġchann": 4353,
    "Ġround": 4354,
    "cket": 4355,
    "ĠEgypt": 4356,
    "Ġsurge": 4357,
    "Ġstudied": 4358,
    "Ġinstall": 4359,
    "Ġopin": 4360,
    "Ġleads": 4361,
    "Ġleader": 4362,
    "Ġlanguages": 4363,
    "Ġwatched": 4364,
    "Ġholding": 4365,
    "Ġinvestment": 4366,
    "Ġessential": 4367,
    "Ġnecessarily": 4368,
    "Ġfairly": 4369,
    "Ġbomb": 4370,
    "Second": 4371,
    "Ġconcentr": 4372,
    "Ġequipment": 4373,
    "au": 4374,
    "dimensional": 4375,
    "hold": 4376,
    "Ġtun": 4377,
    "Ġtour": 4378,
    "Ġwire": 4379,
    "Ġhomes": 4380,
    "Ġfresh": 4381,
    "ason": 4382,
    "Ġshut": 4383,
    "ĠMo": 4384,
    "Ġpartners": 4385,
    "Ġempt": 4386,
    "Ġentertain": 4387,
    "Ġsubst": 4388,
    "Ġsucceed": 4389,
    "Ġdaily": 4390,
    "ipping": 4391,
    "Ġfeedback": 4392,
    "IT": 4393,
    "inc": 4394,
    "ulpt": 4395,
    "Ġriver": 4396,
    "atell": 4397,
    "oking": 4398,
    "apping": 4399,
    "ĠDan": 4400,
    "Ġfacts": 4401,
    "Ġsculpt": 4402,
    "Ġbridge": 4403,
    "Ġexpert": 4404,
    "Ġcreation": 4405,
    "Ġopened": 4406,
    "Ġbusinesses": 4407,
    "Ġfollowed": 4408,
    "Ġmotor": 4409,
    "ĠChris": 4410,
    "Ġinfluence": 4411,
    "Ġhouses": 4412,
    "Ġplatform": 4413,
    "ius": 4414,
    "Ġmothers": 4415,
    "Ġincent": 4416,
    "otic": 4417,
    "entally": 4418,
    "Ġrat": 4419,
    "ĠGu": 4420,
    "Ġmoves": 4421,
    "Ġdesigner": 4422,
    "Ġplanets": 4423,
    "Ġedge": 4424,
    "Ġdollar": 4425,
    "Ġinvestig": 4426,
    "Ġneuros": 4427,
    "Ġcircum": 4428,
    "Ġultimately": 4429,
    "Ġleaving": 4430,
    "Ġstruggle": 4431,
    "His": 4432,
    "cles": 4433,
    "lin": 4434,
    "pid": 4435,
    "Ġtick": 4436,
    "inally": 4437,
    "itute": 4438,
    "Ġmill": 4439,
    "Ġlosing": 4440,
    "rogen": 4441,
    "throp": 4442,
    "Ġmeat": 4443,
    "ortex": 4444,
    "Ġdisc": 4445,
    "ibilities": 4446,
    "Ġappreci": 4447,
    "Ġinvited": 4448,
    "Ġbegins": 4449,
    "Ġkeeping": 4450,
    "Ġdepression": 4451,
    "Ġsurprise": 4452,
    "Ġargue": 4453,
    "Ġdamage": 4454,
    "Ġcomfortable": 4455,
    "known": 4456,
    "Actually": 4457,
    "cop": 4458,
    "me": 4459,
    "mber": 4460,
    "Ġsatell": 4461,
    "isco": 4462,
    "Ġmouse": 4463,
    "apse": 4464,
    "omy": 4465,
    "Ġgar": 4466,
    "Ġwearing": 4467,
    "owing": 4468,
    "Ġcompare": 4469,
    "Ġfellow": 4470,
    "ĠGreat": 4471,
    "ĠEd": 4472,
    "Ġclick": 4473,
    "ĠNe": 4474,
    "Ġdisp": 4475,
    "ĠLook": 4476,
    "ĠFran": 4477,
    "Ġprecise": 4478,
    "Ġhighest": 4479,
    "Ġfinished": 4480,
    "Ġaccom": 4481,
    "Ġconstantly": 4482,
    "Ġradical": 4483,
    "Ġsurvival": 4484,
    "Ġincreasingly": 4485,
    "Ġelectrical": 4486,
    "Ġmagazine": 4487,
    "ef": 4488,
    "Ġiron": 4489,
    "rete": 4490,
    "ener": 4491,
    "ara": 4492,
    "Ġglo": 4493,
    "ami": 4494,
    "Ġliked": 4495,
    "anted": 4496,
    "ĠMay": 4497,
    "ĠBig": 4498,
    "Ġuniversity": 4499,
    "print": 4500,
    "Ġcapable": 4501,
    "Ġexperienced": 4502,
    "Ġvaccine": 4503,
    "Sometimes": 4504,
    "ĠMexico": 4505,
    "Ġmetaphor": 4506,
    "Again": 4507,
    "Ġur": 4508,
    "instein": 4509,
    "Ġodd": 4510,
    "Ġsorry": 4511,
    "Ġmaster": 4512,
    "anes": 4513,
    "Ġrural": 4514,
    "essed": 4515,
    "ession": 4516,
    "cked": 4517,
    "Ġresource": 4518,
    "Ġprototy": 4519,
    "Ġmarkets": 4520,
    "Ġ150": 4521,
    "Ġsurprised": 4522,
    "Ġharm": 4523,
    "Ġprincip": 4524,
    "Ġuniversal": 4525,
    "Ġseparate": 4526,
    "Ġnutr": 4527,
    "ĠAustralia": 4528,
    "ĠTwitter": 4529,
    "Once": 4530,
    "ij": 4531,
    "Ġbattle": 4532,
    "Ġgap": 4533,
    "Ġgather": 4534,
    "idents": 4535,
    "illed": 4536,
    "ĠAb": 4537,
    "ĠSchool": 4538,
    "acters": 4539,
    "Ġworldwide": 4540,
    "Ġperce": 4541,
    "Ġnoise": 4542,
    "Ġmoon": 4543,
    "ĠWashing": 4544,
    "Ġbright": 4545,
    "Ġletters": 4546,
    "Ġbelieved": 4547,
    "ocol": 4548,
    "Ġgrad": 4549,
    "Ġcounter": 4550,
    "Ġcharacters": 4551,
    "Ġkilling": 4552,
    "Ġsuggests": 4553,
    "Ġdescribed": 4554,
    "Ġcompetition": 4555,
    "Ġassociated": 4556,
    "Ġphenomenon": 4557,
    "vention": 4558,
    "inist": 4559,
    "enty": 4560,
    "celer": 4561,
    "Ġsugar": 4562,
    "forest": 4563,
    "Ġbelong": 4564,
    "issions": 4565,
    "Ġgenerations": 4566,
    "iques": 4567,
    "Ġprofessional": 4568,
    "Ġhorr": 4569,
    "Ġdegree": 4570,
    "Ġconcerned": 4571,
    "Ġshapes": 4572,
    "Ġdimensions": 4573,
    "Ġweapons": 4574,
    "Ġairplane": 4575,
    "Ġunexpected": 4576,
    "20": 4577,
    "ns": 4578,
    "Ġtit": 4579,
    "Ġton": 4580,
    "Ġpurs": 4581,
    "Ġdry": 4582,
    "Ġgard": 4583,
    "Ġking": 4584,
    "uls": 4585,
    "Ġintr": 4586,
    "Ġexpression": 4587,
    "ĠPaul": 4588,
    "Ġadvert": 4589,
    "Ġputs": 4590,
    "Ġcourage": 4591,
    "Ġvalu": 4592,
    "Ġcharge": 4593,
    "Ġnormally": 4594,
    "Ġelements": 4595,
    "Ġmultiple": 4596,
    "ĠWashington": 4597,
    "ael": 4598,
    "ls": 4599,
    "rum": 4600,
    "Ġholes": 4601,
    "Ġdial": 4602,
    "odes": 4603,
    "ĠBang": 4604,
    "Ġperception": 4605,
    "Ġagre": 4606,
    "ĠGra": 4607,
    "Ġhero": 4608,
    "ublic": 4609,
    "lication": 4610,
    "Ġharder": 4611,
    "Ġconstruction": 4612,
    "Ġidentify": 4613,
    "ĠWho": 4614,
    "Ġcaused": 4615,
    "Ġastron": 4616,
    "Ġdetails": 4617,
    "Ġleaves": 4618,
    "Ġmistakes": 4619,
    "Ġvirtual": 4620,
    "Ġgrandmother": 4621,
    "Ġorgans": 4622,
    "Un": 4623,
    "bble": 4624,
    "och": 4625,
    "Ġband": 4626,
    "Ġexch": 4627,
    "Ġmaint": 4628,
    "ĠSun": 4629,
    "Ġroot": 4630,
    "Ġadop": 4631,
    "ĠFl": 4632,
    "aked": 4633,
    "Ġfactory": 4634,
    "Ġgene": 4635,
    "Ġfinish": 4636,
    "Ġeconomics": 4637,
    "ribute": 4638,
    "Ġsteps": 4639,
    "ĠEngland": 4640,
    "Ġartificial": 4641,
    "uous": 4642,
    "Ġdots": 4643,
    "ushing": 4644,
    "iration": 4645,
    "olves": 4646,
    "ulated": 4647,
    "Ġquiet": 4648,
    "ĠNot": 4649,
    "Ġcoast": 4650,
    "Ġindic": 4651,
    "Ġtransp": 4652,
    "Ġtransformation": 4653,
    "Ġtrained": 4654,
    "Ġengineers": 4655,
    "Ġoperating": 4656,
    "Ġphotographs": 4657,
    "Ġpollut": 4658,
    "Ġslowly": 4659,
    "Ġmarriage": 4660,
    "Ġsoldiers": 4661,
    "Ġemployees": 4662,
    "ĠKenya": 4663,
    "Ġexhib": 4664,
    "Ġconsequences": 4665,
    "30": 4666,
    "set": 4667,
    "Ġax": 4668,
    "atures": 4669,
    "Ġpow": 4670,
    "Ġdiction": 4671,
    "Ġinform": 4672,
    "omp": 4673,
    "Ġwhom": 4674,
    "Ġuser": 4675,
    "Ġhasn": 4676,
    "Ġarms": 4677,
    "Ġacadem": 4678,
    "Ġdesert": 4679,
    "Ġaccording": 4680,
    "Ġcurious": 4681,
    "Ġpaying": 4682,
    "Ġcaught": 4683,
    "Ġlawy": 4684,
    "onym": 4685,
    "Ġsafety": 4686,
    "Ġanalysis": 4687,
    "Ġawesome": 4688,
    "ĠCanada": 4689,
    "Ġlifet": 4690,
    "Ġcartoon": 4691,
    "Ġofficial": 4692,
    "Ġvaluable": 4693,
    "Go": 4694,
    "cut": 4695,
    "gment": 4696,
    "iors": 4697,
    "ris": 4698,
    "ties": 4699,
    "uits": 4700,
    "Ġtheater": 4701,
    "osis": 4702,
    "Ġtow": 4703,
    "Ġdate": 4704,
    "Ġstation": 4705,
    "Ġrom": 4706,
    "cipl": 4707,
    "Ġtail": 4708,
    "Ġfell": 4709,
    "Ġaging": 4710,
    "ĠGreen": 4711,
    "ĠEn": 4712,
    "berg": 4713,
    "Ġscene": 4714,
    "Ġinterp": 4715,
    "Ġstupid": 4716,
    "Ġorganic": 4717,
    "Ġvideos": 4718,
    "ographic": 4719,
    "Ġwondering": 4720,
    "Ġcollection": 4721,
    "Ġfacing": 4722,
    "Ġcurrently": 4723,
    "Ġproperty": 4724,
    "Ġpassionate": 4725,
    "Ġfilled": 4726,
    "Ġkilomet": 4727,
    "Ġsympt": 4728,
    "Ġdistribution": 4729,
    "Ġordinary": 4730,
    "Ġconsidered": 4731,
    "ĠFranc": 4732,
    "Audience": 4733,
    "Each": 4734,
    "Take": 4735,
    "ps": 4736,
    "wood": 4737,
    "Ġera": 4738,
    "itals": 4739,
    "Ġhun": 4740,
    "Ġtoile": 4741,
    "Ġgrain": 4742,
    "cend": 4743,
    "ads": 4744,
    "Ġchart": 4745,
    "Ġimpl": 4746,
    "Ġgrid": 4747,
    "Ġsmile": 4748,
    "Ġgrade": 4749,
    "Ġextract": 4750,
    "Ġrefuge": 4751,
    "Ġequival": 4752,
    "Ġtesting": 4753,
    "Ġchemistry": 4754,
    "Ġreligious": 4755,
    "cers": 4756,
    "lation": 4757,
    "oor": 4758,
    "prof": 4759,
    "right": 4760,
    "uh": 4761,
    "zing": 4762,
    "ĠThese": 4763,
    "Ġsight": 4764,
    "Ġcow": 4765,
    "itness": 4766,
    "Ġpal": 4767,
    "asion": 4768,
    "Ġnan": 4769,
    "Ġweather": 4770,
    "Ġreform": 4771,
    "Ġrecy": 4772,
    "ula": 4773,
    "Ġwhenever": 4774,
    "ildren": 4775,
    "Ġotherwise": 4776,
    "Ġclosed": 4777,
    "ĠNiger": 4778,
    "Ġacceler": 4779,
    "Ġtechniques": 4780,
    "Ġasks": 4781,
    "Ġfeelings": 4782,
    "Ġtransition": 4783,
    "Ġmusical": 4784,
    "Ġsentence": 4785,
    "Ġwalls": 4786,
    "Ġseriously": 4787,
    "Ġunfortunately": 4788,
    "Ġempty": 4789,
    "PS": 4790,
    "mas": 4791,
    "ye": 4792,
    "Ġhurt": 4793,
    "Ġlat": 4794,
    "omas": 4795,
    "olf": 4796,
    "Ġfrustr": 4797,
    "ume": 4798,
    "Ġhadn": 4799,
    "ĠMIT": 4800,
    "Ġpartner": 4801,
    "neath": 4802,
    "Ġinterface": 4803,
    "Ġarticle": 4804,
    "Ġattach": 4805,
    "Ġplane": 4806,
    "Ġelection": 4807,
    "Ġcultures": 4808,
    "Ġcutting": 4809,
    "Ġpleasure": 4810,
    "Ġawful": 4811,
    "Ġcivilization": 4812,
    "Ġpromise": 4813,
    "Ġtomorrow": 4814,
    "Ġmosquit": 4815,
    "More": 4816,
    "father": 4817,
    "lands": 4818,
    "mar": 4819,
    "met": 4820,
    "Ġcos": 4821,
    "Ġpages": 4822,
    "Ġpounds": 4823,
    "Ġnerv": 4824,
    "Ġrepl": 4825,
    "Ġabst": 4826,
    "Ġshad": 4827,
    "Ġconcl": 4828,
    "Ġves": 4829,
    "Ġbubble": 4830,
    "Ġphones": 4831,
    "Ġhumor": 4832,
    "Ġpolic": 4833,
    "Ġsetting": 4834,
    "Ġtreated": 4835,
    "Ġconstruct": 4836,
    "Ġlimit": 4837,
    "Ġsending": 4838,
    "ĠPhil": 4839,
    "Ġsweet": 4840,
    "Ġmalaria": 4841,
    "Ġdisplay": 4842,
    "Ġpenguins": 4843,
    "Ġconvinced": 4844,
    "Would": 4845,
    "making": 4846,
    "vard": 4847,
    "Ġpil": 4848,
    "Ġfal": 4849,
    "urally": 4850,
    "raft": 4851,
    "Ġliqu": 4852,
    "Ġsoil": 4853,
    "Ġpeak": 4854,
    "ests": 4855,
    "Ġvibr": 4856,
    "Ġspoke": 4857,
    "agr": 4858,
    "Ġunless": 4859,
    "ĠWik": 4860,
    "ĠJe": 4861,
    "ĠStreet": 4862,
    "ĠInst": 4863,
    "Ġfourth": 4864,
    "Ġspecifically": 4865,
    "Ġsignal": 4866,
    "Ġappropr": 4867,
    "Ġreleased": 4868,
    "Ġhorse": 4869,
    "Ġclinical": 4870,
    "Ġsharks": 4871,
    "Ġvehicle": 4872,
    "Yet": 4873,
    "cil": 4874,
    "care": 4875,
    "Ġtap": 4876,
    "Ġtall": 4877,
    "Ġsources": 4878,
    "Ġcup": 4879,
    "Ġcrop": 4880,
    "Ġmigr": 4881,
    "Ġpure": 4882,
    "Ġfle": 4883,
    "Ġinner": 4884,
    "Ġrein": 4885,
    "ented": 4886,
    "Ġstood": 4887,
    "Ġstaff": 4888,
    "irm": 4889,
    "Ġchain": 4890,
    "ĠSch": 4891,
    "ĠTimes": 4892,
    "ension": 4893,
    "akistan": 4894,
    "Ġpregn": 4895,
    "Ġfewer": 4896,
    "Ġopening": 4897,
    "Ġwarm": 4898,
    "Ġ2008": 4899,
    "Ġlocation": 4900,
    "Ġblocks": 4901,
    "Ġdeeper": 4902,
    "Ġengineer": 4903,
    "Ġempathy": 4904,
    "Ġexpected": 4905,
    "Ġprofessor": 4906,
    "Ġaffected": 4907,
    "Ġarrived": 4908,
    "Ġreaction": 4909,
    "Ġnegot": 4910,
    "Ġencourage": 4911,
    "Ġentrepreneurs": 4912,
    "Ġingred": 4913,
    "Ġequivalent": 4914,
    "&#": 4915,
    "cap": 4916,
    "life": 4917,
    "min": 4918,
    "rs": 4919,
    "uary": 4920,
    "Ġshame": 4921,
    "illing": 4922,
    "Ġmyth": 4923,
    "Ġteles": 4924,
    "iend": 4925,
    "Ġsaved": 4926,
    "ĠEx": 4927,
    "ensity": 4928,
    "Ġunderneath": 4929,
    "Ġresc": 4930,
    "ĠWith": 4931,
    "ĠWill": 4932,
    "Ġsolid": 4933,
    "Ġheads": 4934,
    "Ġdefine": 4935,
    "Ġpoliticians": 4936,
    "Ġhopefully": 4937,
    "Ġreview": 4938,
    "Ġmotion": 4939,
    "Ġdemocratic": 4940,
    "Ġpractical": 4941,
    "Ġpicked": 4942,
    "Ġpollen": 4943,
    "Ġhonor": 4944,
    "Ġnervous": 4945,
    "Ġvessel": 4946,
    "Ar": 4947,
    "Have": 4948,
    "Tube": 4949,
    "ugg": 4950,
    "za": 4951,
    "Ã©": 4952,
    "Ġsan": 4953,
    "itarian": 4954,
    "Ġfed": 4955,
    "Ġeld": 4956,
    "urance": 4957,
    "semb": 4958,
    "Ġride": 4959,
    "Ġmyst": 4960,
    "ĠCO": 4961,
    "Ġenem": 4962,
    "ĠTur": 4963,
    "ĠGPS": 4964,
    "ĠEl": 4965,
    "Ġboat": 4966,
    "Ġprefer": 4967,
    "ĠOb": 4968,
    "Ġscen": 4969,
    "Ġbrief": 4970,
    "Ġinvention": 4971,
    "Ġremo": 4972,
    "Ġimportance": 4973,
    "ĠKing": 4974,
    "Ġthoughts": 4975,
    "Ġdesigners": 4976,
    "Ġdriver": 4977,
    "azz": 4978,
    "Ġengaged": 4979,
    "Ġorganized": 4980,
    "ength": 4981,
    "Ġconduct": 4982,
    "Ġmicros": 4983,
    "Ġanalog": 4984,
    "Ġmolecular": 4985,
    "Ġlaunched": 4986,
    "Ġrelatively": 4987,
    "Ġalgorithms": 4988,
    "aving": 4989,
    "gra": 4990,
    "ux": 4991,
    "rel": 4992,
    "Ġsoph": 4993,
    "Ġcere": 4994,
    "oration": 4995,
    "lement": 4996,
    "lease": 4997,
    "Ġweak": 4998,
    "Ġstock": 4999,
    "Ġdogs": 5000,
    "Ġlibr": 5001,
    "Ġworried": 5002,
    "add": 5003,
    "Ġrational": 5004,
    "ateful": 5005,
    "Ġspl": 5006,
    "ĠCam": 5007,
    "Ġmanip": 5008,
    "Ġqual": 5009,
    "ĠDar": 5010,
    "Ġcovered": 5011,
    "angers": 5012,
    "Ġcolon": 5013,
    "Ġplayers": 5014,
    "ĠWeb": 5015,
    "Ġ45": 5016,
    "Ġsinging": 5017,
    "Ġorganisms": 5018,
    "Ġwarming": 5019,
    "Ġpsychology": 5020,
    "Ġabsolute": 5021,
    "Ġgender": 5022,
    "Ġdebate": 5023,
    "ĠGermany": 5024,
    "Ġgentlemen": 5025,
    "Ġbattery": 5026,
    "Ġcircumst": 5027,
    "Ġlifetime": 5028,
    "Ġliquid": 5029,
    "Talk": 5030,
    "lines": 5031,
    "Ġtoward": 5032,
    "Ġgain": 5033,
    "Ġnurs": 5034,
    "Ġforced": 5035,
    "Ġsevere": 5036,
    "Ġjail": 5037,
    "ĠApp": 5038,
    "ciple": 5039,
    "ĠPakistan": 5040,
    "Ġbuying": 5041,
    "Ġcontract": 5042,
    "Ġphr": 5043,
    "Ġemissions": 5044,
    "Ġgrass": 5045,
    "ĠOn": 5046,
    "Ġarts": 5047,
    "Ġmush": 5048,
    "Ġprocesses": 5049,
    "ograp": 5050,
    "ĠVal": 5051,
    "Ġconnections": 5052,
    "Ġcircle": 5053,
    "Ġhospitals": 5054,
    "Ġbirthday": 5055,
    "Ġprinting": 5056,
    "ĠHarvard": 5057,
    "Ġfalse": 5058,
    "down": 5059,
    "ham": 5060,
    "zed": 5061,
    "Ġsides": 5062,
    "Ġlect": 5063,
    "Ġlapt": 5064,
    "Ġnations": 5065,
    "Ġbear": 5066,
    "terday": 5067,
    "Ġnotes": 5068,
    "Their": 5069,
    "Ġprove": 5070,
    "ĠBro": 5071,
    "Ġuns": 5072,
    "Ġuncle": 5073,
    "Ġdish": 5074,
    "anging": 5075,
    "ĠRes": 5076,
    "ĠRep": 5077,
    "Ġgoods": 5078,
    "Ġ35": 5079,
    "Ġmetal": 5080,
    "Ġrequires": 5081,
    "Ġconsumption": 5082,
    "Ġemerging": 5083,
    "Ġnarrative": 5084,
    "Ġvictims": 5085,
    "Ġdynamic": 5086,
    "Ġfolks": 5087,
    "RI": 5088,
    "craft": 5089,
    "ov": 5090,
    "inations": 5091,
    "Ġsam": 5092,
    "organ": 5093,
    "Ġnorth": 5094,
    "Ġisland": 5095,
    "ament": 5096,
    "Ġgod": 5097,
    "Ġlie": 5098,
    "Ġrates": 5099,
    "ĠBen": 5100,
    "ĠBar": 5101,
    "Ġevil": 5102,
    "ĠEinstein": 5103,
    "Ġcalling": 5104,
    "Ġpoem": 5105,
    "Ġacqu": 5106,
    "ĠRob": 5107,
    "being": 5108,
    "ĠYouTube": 5109,
    "Ġpossibilities": 5110,
    "Ġtopic": 5111,
    "Ġmemories": 5112,
    "Ġrisks": 5113,
    "Ġimprov": 5114,
    "Ġmarketing": 5115,
    "Everybody": 5116,
    "Ġstronger": 5117,
    "Ġstatus": 5118,
    "Ġprinciple": 5119,
    "Ġinfected": 5120,
    "force": 5121,
    "Ġvulnerable": 5122,
    "Ġindependent": 5123,
    "Ġbudget": 5124,
    "Ġepidemic": 5125,
    "Ind": 5126,
    "OK": 5127,
    "aj": 5128,
    "oons": 5129,
    "Ġille": 5130,
    "Ġath": 5131,
    "Ġbow": 5132,
    "Ġbath": 5133,
    "Ġfiction": 5134,
    "Ġlic": 5135,
    "Ġisol": 5136,
    "enture": 5137,
    "irty": 5138,
    "Ġanx": 5139,
    "Ġju": 5140,
    "Ġexists": 5141,
    "Ġrig": 5142,
    "uman": 5143,
    "Ġvan": 5144,
    "Ġplans": 5145,
    "While": 5146,
    "ĠPark": 5147,
    "acle": 5148,
    "Ġroof": 5149,
    "ĠLa": 5150,
    "Ġcontain": 5151,
    "Ġideal": 5152,
    "Ġscar": 5153,
    "Ġgenet": 5154,
    "Ġtechnical": 5155,
    "Ġfoundation": 5156,
    "olds": 5157,
    "Ġsignals": 5158,
    "Ġeffectively": 5159,
    "Ġgrandfather": 5160,
    "Ġconvention": 5161,
    "Ġrelease": 5162,
    "Ġerror": 5163,
    "Ġsilence": 5164,
    "Ġintelligent": 5165,
    "Ġheavy": 5166,
    "ĠiPh": 5167,
    "Ġclaim": 5168,
    "Ġnewspaper": 5169,
    "Ġmortality": 5170,
    "Ġintellectual": 5171,
    "bur": 5172,
    "ato": 5173,
    "atin": 5174,
    "alt": 5175,
    "roph": 5176,
    "Ġdolp": 5177,
    "olving": 5178,
    "Ġheight": 5179,
    "Ġextend": 5180,
    "aren": 5181,
    "Ġunus": 5182,
    "Ġ2000": 5183,
    "ĠJan": 5184,
    "athers": 5185,
    "ĠKore": 5186,
    "Ġpersonally": 5187,
    "Ġflat": 5188,
    "Ġproducing": 5189,
    "Ġbits": 5190,
    "Ġminim": 5191,
    "Ġlessons": 5192,
    "Ġbottle": 5193,
    "Ġmulti": 5194,
    "Ġcopy": 5195,
    "Ġsatis": 5196,
    "Ġlayer": 5197,
    "Ġtrials": 5198,
    "Ġchemicals": 5199,
    "Ġconcrete": 5200,
    "Ġlady": 5201,
    "Ġdramatic": 5202,
    "ĠCenter": 5203,
    "Ġrestaurant": 5204,
    "Ġdolph": 5205,
    "hi": 5206,
    "inate": 5207,
    "itz": 5208,
    "enced": 5209,
    "Ġtox": 5210,
    "Ġinit": 5211,
    "ĠII": 5212,
    "Ġnose": 5213,
    "Ġnav": 5214,
    "Ġlies": 5215,
    "Ġrow": 5216,
    "umber": 5217,
    "abol": 5218,
    "Ġcoal": 5219,
    "Ġremain": 5220,
    "Ġflower": 5221,
    "Ġpatent": 5222,
    "Ġserve": 5223,
    "Ġmedium": 5224,
    "Ġfalling": 5225,
    "Ġmeaningful": 5226,
    "Ġrelevant": 5227,
    "Ġprofession": 5228,
    "Ġdefinitely": 5229,
    "Ġintroduced": 5230,
    "Ġmanagement": 5231,
    "Ġspectrum": 5232,
    "Ġcandid": 5233,
    "ĠCongress": 5234,
    "Ġroughly": 5235,
    "Ġfortun": 5236,
    "Ġalternative": 5237,
    "Ġcredit": 5238,
    "Ġsophistic": 5239,
    "Americ": 5240,
    "See": 5241,
    "cast": 5242,
    "Ġsouth": 5243,
    "Ġhorm": 5244,
    "Ġinev": 5245,
    "lying": 5246,
    "Ġreven": 5247,
    "Ġformer": 5248,
    "Ġshr": 5249,
    "ulating": 5250,
    "ĠAc": 5251,
    "eline": 5252,
    "Ġactions": 5253,
    "ĠCE": 5254,
    "emp": 5255,
    "ĠTe": 5256,
    "ĠTalk": 5257,
    "ĠPer": 5258,
    "Ġtranspl": 5259,
    "Ġcarefully": 5260,
    "Ġadded": 5261,
    "Ġeleph": 5262,
    "Ġprotection": 5263,
    "Ġdepends": 5264,
    "Ġmicrob": 5265,
    "Ġparticipate": 5266,
    "Ġ2010": 5267,
    "Ġpoetry": 5268,
    "Ġforgot": 5269,
    "Ġexercise": 5270,
    "Ġprinciples": 5271,
    "Ġkilometers": 5272,
    "Very": 5273,
    "bre": 5274,
    "ta": 5275,
    "erves": 5276,
    "Ġcave": 5277,
    "Ġcortex": 5278,
    "Ġbill": 5279,
    "aled": 5280,
    "Ġseat": 5281,
    "Ġsees": 5282,
    "estic": 5283,
    "ĠSu": 5284,
    "ichard": 5285,
    "Ġens": 5286,
    "Ġunit": 5287,
    "acles": 5288,
    "Ġdesigning": 5289,
    "Ġreprodu": 5290,
    "Ġbike": 5291,
    "whel": 5292,
    "Ġdefined": 5293,
    "lessly": 5294,
    "Ġexplains": 5295,
    "Ġdealing": 5296,
    "Ġamounts": 5297,
    "Ġzo": 5298,
    "Ġoccup": 5299,
    "Ġprivile": 5300,
    "porary": 5301,
    "Ġlifest": 5302,
    "Ġestab": 5303,
    "Ġintroduce": 5304,
    "Ġmistake": 5305,
    "Ġmentioned": 5306,
    "Ġchicken": 5307,
    "Ġopinion": 5308,
    "Ġinterpret": 5309,
    "Since": 5310,
    "gets": 5311,
    "point": 5312,
    "ront": 5313,
    "uel": 5314,
    "ym": 5315,
    "Ġten": 5316,
    "Ġwine": 5317,
    "Ġwars": 5318,
    "Ġske": 5319,
    "Ġpip": 5320,
    "alu": 5321,
    "Ġinequ": 5322,
    "icip": 5323,
    "ĠCo": 5324,
    "Ġworlds": 5325,
    "ĠBer": 5326,
    "ĠGen": 5327,
    "ĠPe": 5328,
    "ĠNA": 5329,
    "Ġoverwhel": 5330,
    "ĠFe": 5331,
    "Ġscared": 5332,
    "Ġstudio": 5333,
    "cont": 5334,
    "Ġinterests": 5335,
    "Ġparticles": 5336,
    "Ġgenerate": 5337,
    "Ġanti": 5338,
    "Ġexisting": 5339,
    "Ġaston": 5340,
    "Ġfundamentally": 5341,
    "ĠAnge": 5342,
    "Ġproteins": 5343,
    "Ġdisappear": 5344,
    "ĠIslam": 5345,
    "Ġframework": 5346,
    "Ġmathematics": 5347,
    "Ġcomponents": 5348,
    "Ġabstract": 5349,
    "Ġcircumstances": 5350,
    "Ġmushroom": 5351,
    "cest": 5352,
    "hol": 5353,
    "ih": 5354,
    "oly": 5355,
    "itual": 5356,
    "Ġpun": 5357,
    "Ġends": 5358,
    "Ġitem": 5359,
    "sters": 5360,
    "Ġshall": 5361,
    "Ġfright": 5362,
    "Ġcha": 5363,
    "Ġchose": 5364,
    "Ġmak": 5365,
    "iel": 5366,
    "ago": 5367,
    "ĠBank": 5368,
    "ĠEm": 5369,
    "Ġpoore": 5370,
    "Ġgrateful": 5371,
    "akers": 5372,
    "Ġpercentage": 5373,
    "Ġplayer": 5374,
    "Ġenvironments": 5375,
    "Ġsites": 5376,
    "Ġadvice": 5377,
    "ĠArt": 5378,
    "Ġtypically": 5379,
    "Ġfields": 5380,
    "Ġinternal": 5381,
    "Ġsubjects": 5382,
    "Ġtracking": 5383,
    "Ġcapture": 5384,
    "Ġignor": 5385,
    "ĠGeorge": 5386,
    "Ġsequence": 5387,
    "Ġdoubt": 5388,
    "Ġrapidly": 5389,
    "ĠHaiti": 5390,
    "Ġsample": 5391,
    "Did": 5392,
    "Does": 5393,
    "uff": 5394,
    "Ġtons": 5395,
    "Ġwitness": 5396,
    "Ġhide": 5397,
    "entic": 5398,
    "imer": 5399,
    "Ġgoals": 5400,
    "Ġmel": 5401,
    "abled": 5402,
    "ĠLos": 5403,
    "tech": 5404,
    "Ġpolio": 5405,
    "Ġgravity": 5406,
    "Ġrepair": 5407,
    "Ġruns": 5408,
    "Ġconfront": 5409,
    "Ġsolving": 5410,
    "Ġlabel": 5411,
    "Ġrefr": 5412,
    "Ġconstant": 5413,
    "Ġ75": 5414,
    "Ġsenses": 5415,
    "ĠFrank": 5416,
    "Ġestim": 5417,
    "Ġawareness": 5418,
    "Ġinnovative": 5419,
    "Ġinstrument": 5420,
    "Ġgalaxy": 5421,
    "Ġvariety": 5422,
    "ĠCharles": 5423,
    "Ġaccurate": 5424,
    "Ġhydrogen": 5425,
    "hyth": 5426,
    "Ġwondered": 5427,
    "Ġchannel": 5428,
    "Ġexchange": 5429,
    "Ġunusual": 5430,
    "Ġnavig": 5431,
    "Per": 5432,
    "ait": 5433,
    "source": 5434,
    "Ġoption": 5435,
    "nded": 5436,
    "Ġpump": 5437,
    "Ġlung": 5438,
    "Ġlength": 5439,
    "Ġreverse": 5440,
    "Ġancest": 5441,
    "Ġring": 5442,
    "Ġrot": 5443,
    "ums": 5444,
    "oken": 5445,
    "ĠAnt": 5446,
    "Ġintense": 5447,
    "ĠGree": 5448,
    "Ġdisaster": 5449,
    "ĠJew": 5450,
    "Ġfactor": 5451,
    "ternal": 5452,
    "Ġconsist": 5453,
    "Ġeconomies": 5454,
    "Ġconfidence": 5455,
    "Ġanimation": 5456,
    "retch": 5457,
    "iency": 5458,
    "Ġmessages": 5459,
    "Everything": 5460,
    "Ġoperate": 5461,
    "Ġcamer": 5462,
    "Ġobser": 5463,
    "Ġmovies": 5464,
    "Ġridic": 5465,
    "Ġprimary": 5466,
    "Ġencoura": 5467,
    "Ġmountains": 5468,
    "Ġauthority": 5469,
    "Ġforests": 5470,
    "Ġswimming": 5471,
    "Ġearthqu": 5472,
    "Ġgraduate": 5473,
    "Ġphilosophy": 5474,
    "Ġapplied": 5475,
    "Ġpasswords": 5476,
    "profit": 5477,
    "cal": 5478,
    "gin": 5479,
    "ri": 5480,
    "uce": 5481,
    "Ġwake": 5482,
    "rets": 5483,
    "aters": 5484,
    "nding": 5485,
    "ita": 5486,
    "Ġbarr": 5487,
    "Ġstro": 5488,
    "ifting": 5489,
    "Ġhem": 5490,
    "Ġatoms": 5491,
    "Ġritual": 5492,
    "alled": 5493,
    "Ġspin": 5494,
    "Ġsuit": 5495,
    "Ġclock": 5496,
    "Ġcontrast": 5497,
    "Ġapplications": 5498,
    "Ġstring": 5499,
    "Ġcenturies": 5500,
    "Ġeconomists": 5501,
    "Ġexplan": 5502,
    "Ġregions": 5503,
    "Ġauton": 5504,
    "Ġmember": 5505,
    "Ġfilms": 5506,
    "Ġincreased": 5507,
    "Ġteams": 5508,
    "Ġjoined": 5509,
    "Ġfunding": 5510,
    "Ġdepartment": 5511,
    "Ġcombine": 5512,
    "Ġyesterday": 5513,
    "Ġcritic": 5514,
    "Ġselling": 5515,
    "Ġcarrying": 5516,
    "Ġdiscussion": 5517,
    "Ġhoping": 5518,
    "Ġtransportation": 5519,
    "Ġmanufacturing": 5520,
    "Ġtumor": 5521,
    "Ġantibiot": 5522,
    "ĠSweden": 5523,
    "Ġaccompl": 5524,
    "bel": 5525,
    "lom": 5526,
    "Ġwave": 5527,
    "iture": 5528,
    "osa": 5529,
    "osition": 5530,
    "Ġbare": 5531,
    "Ġfake": 5532,
    "Ġdot": 5533,
    "ald": 5534,
    "Ġinput": 5535,
    "Ġlas": 5536,
    "iminal": 5537,
    "olar": 5538,
    "iled": 5539,
    "Ġteeth": 5540,
    "emoc": 5541,
    "Ġhowever": 5542,
    "Ġcompar": 5543,
    "ĠTom": 5544,
    "Ġpray": 5545,
    "Ġoffers": 5546,
    "Ġfactors": 5547,
    "Ġmovements": 5548,
    "Ġregard": 5549,
    "Ġsunlight": 5550,
    "Ġrepresents": 5551,
    "Ġwinter": 5552,
    "Ġtraveling": 5553,
    "Ġoceans": 5554,
    "Ġcombination": 5555,
    "Ġhoriz": 5556,
    "olly": 5557,
    "Ġsnow": 5558,
    "ĠBritain": 5559,
    "Ġcollaboration": 5560,
    "friend": 5561,
    "Ġsoul": 5562,
    "Ġresistance": 5563,
    "Ġsports": 5564,
    "ĠiPhone": 5565,
    "Ġack": 5566,
    "Ġmere": 5567,
    "Ġhung": 5568,
    "edy": 5569,
    "Ġlift": 5570,
    "que": 5571,
    "ola": 5572,
    "Ġchocol": 5573,
    "Ġvoc": 5574,
    "Ġsacr": 5575,
    "ĠMart": 5576,
    "abet": 5577,
    "ĠGood": 5578,
    "Ġadj": 5579,
    "Ġbusy": 5580,
    "what": 5581,
    "Ġsolved": 5582,
    "Ġproductive": 5583,
    "Ġassign": 5584,
    "Ġbehavioral": 5585,
    "Ġoperation": 5586,
    "Ġharvest": 5587,
    "Ġconversations": 5588,
    "Ġfacial": 5589,
    "Ġchallenging": 5590,
    "Ġvaccines": 5591,
    "Ġclouds": 5592,
    "Ġcooking": 5593,
    "Ex": 5594,
    "PM": 5595,
    "bors": 5596,
    "mers": 5597,
    "nam": 5598,
    "Ġthick": 5599,
    "Ġmaps": 5600,
    "astern": 5601,
    "Three": 5602,
    "igm": 5603,
    "opher": 5604,
    "Ġcomment": 5605,
    "resident": 5606,
    "ĠTo": 5607,
    "Ġresil": 5608,
    "ĠRev": 5609,
    "Ġbold": 5610,
    "ĠJul": 5611,
    "Ġtechnique": 5612,
    "Ġinstruct": 5613,
    "ĠYour": 5614,
    "Ġ194": 5615,
    "Ġgenerally": 5616,
    "Ġcomputing": 5617,
    "Ġskill": 5618,
    "Ġmilk": 5619,
    "Ġbehaviors": 5620,
    "Ġcollapse": 5621,
    "Ġelev": 5622,
    "Ġinclude": 5623,
    "itchen": 5624,
    "Ġcyber": 5625,
    "Ġconsumer": 5626,
    "Ġdestruction": 5627,
    "Ġsteel": 5628,
    "Ġjudge": 5629,
    "Ġprepared": 5630,
    "ĠParis": 5631,
    "ographer": 5632,
    "Ġcameras": 5633,
    "ae": 5634,
    "ey": 5635,
    "Ġtank": 5636,
    "inated": 5637,
    "Ġought": 5638,
    "erge": 5639,
    "Ġborders": 5640,
    "Ġhunt": 5641,
    "Ġpin": 5642,
    "Ġflex": 5643,
    "Ġdip": 5644,
    "Ġloud": 5645,
    "asters": 5646,
    "icing": 5647,
    "lly": 5648,
    "Ġbee": 5649,
    "Ġfrank": 5650,
    "Ġexec": 5651,
    "Ġproced": 5652,
    "Ġoutc": 5653,
    "Ġacting": 5654,
    "abilities": 5655,
    "pping": 5656,
    "ĠGulf": 5657,
    "Ġwriter": 5658,
    "Ġowners": 5659,
    "Ġflash": 5660,
    "Ġinstinct": 5661,
    "Ġcenters": 5662,
    "Ġprocessing": 5663,
    "Ġhandle": 5664,
    "arrass": 5665,
    "Ġmemor": 5666,
    "Ġparking": 5667,
    "Ġjoke": 5668,
    "Ġstayed": 5669,
    "Ġconvince": 5670,
    "Ġoptions": 5671,
    "ĠThomas": 5672,
    "Ġtransformed": 5673,
    "Ġattacks": 5674,
    "Ġmechanism": 5675,
    "Ġbombs": 5676,
    "Ġmirror": 5677,
    "ĠMuslim": 5678,
    "Ġpuzzle": 5679,
    "ĠMichael": 5680,
    "Ġagriculture": 5681,
    "ĠSmith": 5682,
    "Ġeggs": 5683,
    "ĠFrancisco": 5684,
    "ĠInstitute": 5685,
    "Ġillegal": 5686,
    "Ġsophisticated": 5687,
    "Ġlifestyle": 5688,
    "Could": 5689,
    "foot": 5690,
    "Ġsamples": 5691,
    "nda": 5692,
    "Ġcure": 5693,
    "Ġcents": 5694,
    "Ġhip": 5695,
    "Ġfan": 5696,
    "asks": 5697,
    "imeter": 5698,
    "Ġstands": 5699,
    "ifth": 5700,
    "Ġanonym": 5701,
    "Ġorch": 5702,
    "Ġtea": 5703,
    "ĠSat": 5704,
    "Ġplus": 5705,
    "ĠMon": 5706,
    "aret": 5707,
    "ĠPeople": 5708,
    "ĠDay": 5709,
    "Ġ22": 5710,
    "Ġdesk": 5711,
    "chnology": 5712,
    "Ġobst": 5713,
    "Ġstoryt": 5714,
    "Ġdriven": 5715,
    "Ġmetabol": 5716,
    "Ġwalks": 5717,
    "Ġclever": 5718,
    "ĠTEDTalk": 5719,
    "Ġ2007": 5720,
    "Ġdevast": 5721,
    "Ġcollected": 5722,
    "Ġ99": 5723,
    "Ġconstrain": 5724,
    "Ġradiation": 5725,
    "Ġinteractive": 5726,
    "Ġpotentially": 5727,
    "Ġliterature": 5728,
    "Ġfears": 5729,
    "Ġexistence": 5730,
    "Ġbroke": 5731,
    "Ġinspiration": 5732,
    "Ġsituations": 5733,
    "Ġcircuit": 5734,
    "Ġpulled": 5735,
    "Ġsustainability": 5736,
    "Ġadmit": 5737,
    "Ġentrepreneur": 5738,
    "Ġsurvey": 5739,
    "Ġtherapy": 5740,
    "Ġhypothes": 5741,
    "Ġembrace": 5742,
    "Ġentertainment": 5743,
    "over": 5744,
    "oice": 5745,
    "Ġ0": 5746,
    "Ġbes": 5747,
    "Ġmad": 5748,
    "Ġhits": 5749,
    "Ġpian": 5750,
    "esity": 5751,
    "Ġdedic": 5752,
    "Ġreject": 5753,
    "iday": 5754,
    "chair": 5755,
    "cel": 5756,
    "stand": 5757,
    "oli": 5758,
    "Ġsem": 5759,
    "adic": 5760,
    "Ġattend": 5761,
    "Ġloop": 5762,
    "Ġsomewhat": 5763,
    "Ġthanks": 5764,
    "ĠPresident": 5765,
    "Ġ23": 5766,
    "Ġarrest": 5767,
    "ipedia": 5768,
    "Ġshell": 5769,
    "ĠLatin": 5770,
    "elly": 5771,
    "ĠFound": 5772,
    "Ġprem": 5773,
    "ĠUS": 5774,
    "Ġapparent": 5775,
    "Ġflag": 5776,
    "Ġsigns": 5777,
    "Ġidentical": 5778,
    "Ġembarrass": 5779,
    "cript": 5780,
    "Ġboxes": 5781,
    "Ġspreading": 5782,
    "Ġfootprint": 5783,
    "Ġneighbors": 5784,
    "Ġburning": 5785,
    "Ġdivide": 5786,
    "Ġlaboratory": 5787,
    "Ġdetermine": 5788,
    "ĠIslamic": 5789,
    "Ġladies": 5790,
    "Ġcontrolled": 5791,
    "ĠRussia": 5792,
    "Ġfabric": 5793,
    "connected": 5794,
    "Ġsatellite": 5795,
    "Ġglobe": 5796,
    "Ġhunger": 5797,
    "ĠObama": 5798,
    "Ġearthquake": 5799,
    "Bas": 5800,
    "xide": 5801,
    "Ġsen": 5802,
    "Ġsets": 5803,
    "Ġbicy": 5804,
    "Ġfurn": 5805,
    "Ġdict": 5806,
    "Ġwhist": 5807,
    "Ġstere": 5808,
    "erek": 5809,
    "stream": 5810,
    "Ġhel": 5811,
    "earch": 5812,
    "Ġsuic": 5813,
    "Ġcompl": 5814,
    "resp": 5815,
    "Ġunknown": 5816,
    "ĠPole": 5817,
    "Ġdiss": 5818,
    "Ġunderwater": 5819,
    "Ġplays": 5820,
    "Ġformed": 5821,
    "Ġkeeps": 5822,
    "Ġphysically": 5823,
    "Ġallowing": 5824,
    "box": 5825,
    "Ġpainful": 5826,
    "Ġequally": 5827,
    "Ġtests": 5828,
    "Ġparal": 5829,
    "def": 5830,
    "Ġcollecting": 5831,
    "Ġadvanced": 5832,
    "Ġclosely": 5833,
    "Ġillusion": 5834,
    "Ġcollaps": 5835,
    "Ġarguments": 5836,
    "Ġimmune": 5837,
    "Ġproperties": 5838,
    "Ġultimate": 5839,
    "Ġflowers": 5840,
    "Ġspiritual": 5841,
    "Ġvehicles": 5842,
    "Ġdancing": 5843,
    "Ġhorrible": 5844,
    "Ġtonight": 5845,
    "Ġgarden": 5846,
    "Ġsymptoms": 5847,
    "Ġconclusion": 5848,
    "Ġacknow": 5849,
    "Last": 5850,
    "hour": 5851,
    "iat": 5852,
    "nic": 5853,
    "pet": 5854,
    "rat": 5855,
    "ua": 5856,
    "xies": 5857,
    "Ġthin": 5858,
    "Ġmales": 5859,
    "oned": 5860,
    "Ġpitch": 5861,
    "Ġdense": 5862,
    "arant": 5863,
    "Ġwel": 5864,
    "Ġbeach": 5865,
    "ctic": 5866,
    "rog": 5867,
    "keep": 5868,
    "Ġwash": 5869,
    "illy": 5870,
    "Ġtrig": 5871,
    "Ġacts": 5872,
    "ĠCop": 5873,
    "ĠMont": 5874,
    "ĠMuseum": 5875,
    "Ġperman": 5876,
    "Ġuncom": 5877,
    "Ġimplications": 5878,
    "Ġimplement": 5879,
    "Ġoverall": 5880,
    "Ġpocket": 5881,
    "Ġcontem": 5882,
    "Ġphase": 5883,
    "Ġdesper": 5884,
    "ĠJer": 5885,
    "onscious": 5886,
    "Ġguide": 5887,
    "ĠKh": 5888,
    "ubes": 5889,
    "ocin": 5890,
    "ĠState": 5891,
    "Ġelectro": 5892,
    "Ġdistinct": 5893,
    "ended": 5894,
    "Ġempower": 5895,
    "attan": 5896,
    "Ġmainly": 5897,
    "Ġconflicts": 5898,
    "Ġactivities": 5899,
    "Also": 5900,
    "Ġ1990": 5901,
    "Ġdropped": 5902,
    "scale": 5903,
    "Ġromantic": 5904,
    "ĠWikipedia": 5905,
    "Ġappropriate": 5906,
    "ĠDarwin": 5907,
    "Ġtransplant": 5908,
    "Ġestablish": 5909,
    "Ġastonishing": 5910,
    "Ġchocolate": 5911,
    "Os": 5912,
    "tocin": 5913,
    "van": 5914,
    "viol": 5915,
    "wr": 5916,
    "Ġtape": 5917,
    "Ġpapers": 5918,
    "Ġfoss": 5919,
    "Ġfert": 5920,
    "lete": 5921,
    "Ġkitchen": 5922,
    "oded": 5923,
    "Ġru": 5924,
    "Ġconvert": 5925,
    "Ġknock": 5926,
    "ĠAh": 5927,
    "Ġupper": 5928,
    "ĠMa": 5929,
    "appy": 5930,
    "ĠTor": 5931,
    "ĠGh": 5932,
    "ptember": 5933,
    "Ġdiscipl": 5934,
    "Ġpool": 5935,
    "Ġoffered": 5936,
    "Ġobesity": 5937,
    "obel": 5938,
    "Ġhealthcare": 5939,
    "Ġcontrovers": 5940,
    "Ġyounger": 5941,
    "Ġ2009": 5942,
    "Ġrefer": 5943,
    "Ġwaves": 5944,
    "Ġcontinent": 5945,
    "Ġadvance": 5946,
    "Ġproviding": 5947,
    "Ġexplained": 5948,
    "Ġsensitive": 5949,
    "Ġroads": 5950,
    "Ġviruses": 5951,
    "Ġangry": 5952,
    "Ġsurrounded": 5953,
    "Ġ1970": 5954,
    "Ġwheelchair": 5955,
    "Ġmeasuring": 5956,
    "ĠNigeria": 5957,
    "Ġpregnant": 5958,
    "ĠJanuary": 5959,
    "ĠNASA": 5960,
    "Perhaps": 5961,
    "Ġoutcomes": 5962,
    "PA": 5963,
    "Women": 5964,
    "dr": 5965,
    "hattan": 5966,
    "mit": 5967,
    "rors": 5968,
    "spe": 5969,
    "vas": 5970,
    "ino": 5971,
    "Ġcous": 5972,
    "Ġboring": 5973,
    "Ġborder": 5974,
    "Ġment": 5975,
    "Ġpill": 5976,
    "orter": 5977,
    "Ġgest": 5978,
    "Ġgolf": 5979,
    "uses": 5980,
    "usive": 5981,
    "Ġbeet": 5982,
    "Ġstorm": 5983,
    "oding": 5984,
    "anta": 5985,
    "Ġrush": 5986,
    "emen": 5987,
    "ĠMark": 5988,
    "oston": 5989,
    "Ġfeature": 5990,
    "Ġheroes": 5991,
    "Ġcommand": 5992,
    "Ġbrib": 5993,
    "Ġbrothers": 5994,
    "Ġlets": 5995,
    "Ġcriminal": 5996,
    "heimer": 5997,
    "Ġcourt": 5998,
    "Ġdesigns": 5999,
    "ĠStan": 6000,
    "Ġnaturally": 6001,
    "Ġregener": 6002,
    "Ġclasses": 6003,
    "Ġlargely": 6004,
    "Ġrecords": 6005,
    "Ġreached": 6006,
    "Ġrequired": 6007,
    "Ġcausing": 6008,
    "Ġsuffer": 6009,
    "going": 6010,
    "Ġaftern": 6011,
    "Ġmethods": 6012,
    "ĠAmaz": 6013,
    "Ġgalaxies": 6014,
    "Ġincentives": 6015,
    "Ġprototype": 6016,
    "Ġadvertising": 6017,
    "Ġpollution": 6018,
    "ĠRevolution": 6019,
    "den": 6020,
    "gent": 6021,
    "iety": 6022,
    "nel": 6023,
    "isters": 6024,
    "Ġmim": 6025,
    "Ġpushing": 6026,
    "aming": 6027,
    "Ġseason": 6028,
    "Ġasp": 6029,
    "Ġliver": 6030,
    "ĠAct": 6031,
    "Ġsphere": 6032,
    "ĠMal": 6033,
    "ĠHer": 6034,
    "ĠEve": 6035,
    "ĠEastern": 6036,
    "ĠJames": 6037,
    "Ġdownload": 6038,
    "Ġremem": 6039,
    "Thanks": 6040,
    "Ġinsurance": 6041,
    "Ġtransfer": 6042,
    "Ġregret": 6043,
    "Ġbias": 6044,
    "Ġpresence": 6045,
    "Ġcontinued": 6046,
    "Ġgreenhouse": 6047,
    "Ġdigit": 6048,
    "Ġviolent": 6049,
    "Ġauthentic": 6050,
    "Ġfaced": 6051,
    "Ġevolutionary": 6052,
    "Ġbreathe": 6053,
    "Ġmechanical": 6054,
    "ĠSeptember": 6055,
    "Ġassume": 6056,
    "ĠChristmas": 6057,
    "ĠManhattan": 6058,
    "Ġcustomers": 6059,
    "Ġfingers": 6060,
    "Ġmathematical": 6061,
    "Ġuncertain": 6062,
    "ĠRobert": 6063,
    "Ġtoilet": 6064,
    "Ġnurses": 6065,
    "Ġphrase": 6066,
    "Ġconventional": 6067,
    "Ġantibiotics": 6068,
    "Ġfrankly": 6069,
    "iam": 6070,
    "upp": 6071,
    "vable": 6072,
    "zheimer": 6073,
    "Ġtack": 6074,
    "Ġcord": 6075,
    "iters": 6076,
    "ingu": 6077,
    "Ġdress": 6078,
    "Ġlying": 6079,
    "Ġwhales": 6080,
    "Ġears": 6081,
    "olit": 6082,
    "Ġkick": 6083,
    "tery": 6084,
    "Ġrating": 6085,
    "Ġrub": 6086,
    "Ġbutton": 6087,
    "Ġoutcome": 6088,
    "ela": 6089,
    "ĠBoston": 6090,
    "Ġagencies": 6091,
    "ĠGab": 6092,
    "Ġclothes": 6093,
    "ĠDep": 6094,
    "ĠNobel": 6095,
    "Ġsheep": 6096,
    "icted": 6097,
    "aks": 6098,
    "Ġdecl": 6099,
    "Ġremove": 6100,
    "Ġstrangers": 6101,
    "ĠStar": 6102,
    "Ġfinance": 6103,
    "Ġcareful": 6104,
    "pring": 6105,
    "gged": 6106,
    "Ġvisible": 6107,
    "Ġcoral": 6108,
    "Ġcurve": 6109,
    "Ġeducational": 6110,
    "Ġclassic": 6111,
    "Ġretire": 6112,
    "Ġinteractions": 6113,
    "Ġdeaths": 6114,
    "Ġsensors": 6115,
    "Ġcombined": 6116,
    "Ġsongs": 6117,
    "Ġreligions": 6118,
    "Ġstruck": 6119,
    "Ġapartment": 6120,
    "Ġcaptured": 6121,
    "Ġfascinated": 6122,
    "Ġtribe": 6123,
    "Ġhousing": 6124,
    "Ġdiagnosed": 6125,
    "ĠPalest": 6126,
    "Ġlatest": 6127,
    "Ġelder": 6128,
    "Ġmystery": 6129,
    "Ġathlet": 6130,
    "Basically": 6131,
    "Ab": 6132,
    "bl": 6133,
    "cred": 6134,
    "oft": 6135,
    "rary": 6136,
    "xim": 6137,
    "Ġwise": 6138,
    "err": 6139,
    "Ġcast": 6140,
    "isher": 6141,
    "enger": 6142,
    "Ġhur": 6143,
    "Ġped": 6144,
    "Ġinject": 6145,
    "eding": 6146,
    "ician": 6147,
    "think": 6148,
    "Ġlikes": 6149,
    "ĠAlex": 6150,
    "Ġspring": 6151,
    "Ġspoken": 6152,
    "Ġplate": 6153,
    "ĠCom": 6154,
    "ogue": 6155,
    "Ġwhereas": 6156,
    "Ġwherever": 6157,
    "Ġtwe": 6158,
    "Ġcontribute": 6159,
    "Ġadoles": 6160,
    "Ġgray": 6161,
    "Ġapplication": 6162,
    "Ġraw": 6163,
    "Ġblank": 6164,
    "Ġgrab": 6165,
    "Ġexplos": 6166,
    "while": 6167,
    "Ġdefend": 6168,
    "Ġsigned": 6169,
    "Ġhearts": 6170,
    "ĠAlzheimer": 6171,
    "Ġphotography": 6172,
    "ĠAtl": 6173,
    "Ġoxytocin": 6174,
    "Ġengagement": 6175,
    "Ġefficiency": 6176,
    "Ġirr": 6177,
    "iosity": 6178,
    "Ġrebuild": 6179,
    "Ġtaste": 6180,
    "Ġcommitment": 6181,
    "Ġmaintain": 6182,
    "Ġacademic": 6183,
    "Ġrecyc": 6184,
    "Ġshadow": 6185,
    "Ġafternoon": 6186,
    "Other": 6187,
    "aves": 6188,
    "car": 6189,
    "case": 6190,
    "Ġtight": 6191,
    "Ġcards": 6192,
    "ota": 6193,
    "owered": 6194,
    "usions": 6195,
    "lyn": 6196,
    "ione": 6197,
    "struct": 6198,
    "Ġsection": 6199,
    "Ġshake": 6200,
    "inder": 6201,
    "rous": 6202,
    "Ġtheme": 6203,
    "ĠMand": 6204,
    "ĠGl": 6205,
    "Ġprost": 6206,
    "ĠDerek": 6207,
    "Ġ27": 6208,
    "acing": 6209,
    "Ġpharm": 6210,
    "ĠJack": 6211,
    "Ġtechnological": 6212,
    "Ġguarant": 6213,
    "Ġ36": 6214,
    "Ġrelate": 6215,
    "Ġdrives": 6216,
    "Ġdatab": 6217,
    "Ġelimin": 6218,
    "Ġfunctions": 6219,
    "Ġfigures": 6220,
    "Ġ600": 6221,
    "Ġaccessible": 6222,
    "Ġlimits": 6223,
    "Ġembedd": 6224,
    "Ġrecorded": 6225,
    "Ġreaching": 6226,
    "Ġobsessed": 6227,
    "Ġhotel": 6228,
    "Ġconcepts": 6229,
    "Ġtouched": 6230,
    "Ġfixed": 6231,
    "Ġportra": 6232,
    "Ġselection": 6233,
    "Ġvulnerability": 6234,
    "ĠSteve": 6235,
    "Ġteenagers": 6236,
    "Ġcomponent": 6237,
    "Ġfrozen": 6238,
    "Ġintuitive": 6239,
    "Ġsurgeon": 6240,
    "Ġdictionary": 6241,
    "Ġlibrary": 6242,
    "ĠRepublic": 6243,
    "ĠAngeles": 6244,
    "Ġrefriger": 6245,
    "hythm": 6246,
    "Ġexecut": 6247,
    "Ġfurniture": 6248,
    "fish": 6249,
    "iption": 6250,
    "ka": 6251,
    "mates": 6252,
    "night": 6253,
    "yard": 6254,
    "itors": 6255,
    "oster": 6256,
    "Ġben": 6257,
    "ester": 6258,
    "Ġgut": 6259,
    "icago": 6260,
    "using": 6261,
    "iggs": 6262,
    "opath": 6263,
    "stage": 6264,
    "Ġate": 6265,
    "Ġchip": 6266,
    "Ġchrom": 6267,
    "Ġchurch": 6268,
    "Ġknee": 6269,
    "ĠSam": 6270,
    "Ġplenty": 6271,
    "Ġleap": 6272,
    "Ġnowhere": 6273,
    "ĠTal": 6274,
    "Ġhappier": 6275,
    "ĠDemoc": 6276,
    "eph": 6277,
    "ĠRw": 6278,
    "ĠFin": 6279,
    "Ġbran": 6280,
    "Ġsurf": 6281,
    "Ġcrash": 6282,
    "Ġconserv": 6283,
    "Ġbehave": 6284,
    "Ġairport": 6285,
    "Ġequation": 6286,
    "Ġcheaper": 6287,
    "Ġdepth": 6288,
    "Ġdeploy": 6289,
    "Ġwindows": 6290,
    "Ġprotected": 6291,
    "Ġexisted": 6292,
    "Ġtrend": 6293,
    "cription": 6294,
    "Ġtraveled": 6295,
    "Ġfeeding": 6296,
    "Ġtranslate": 6297,
    "forward": 6298,
    "iveness": 6299,
    "Ġsavings": 6300,
    "Ġscratch": 6301,
    "Ġdistributed": 6302,
    "Ġhistorical": 6303,
    "ĠProject": 6304,
    "Ġvolunteers": 6305,
    "Ġappreciate": 6306,
    "Ġprecisely": 6307,
    "Ġingredients": 6308,
    "Ġsplit": 6309,
    "arency": 6310,
    "Ġinequality": 6311,
    "Ġpoorest": 6312,
    "Ġignorance": 6313,
    "ĠMartin": 6314,
    "Ġdiplom": 6315,
    "ĠFoundation": 6316,
    "Me": 6317,
    "pes": 6318,
    "uity": 6319,
    "under": 6320,
    "Ġtube": 6321,
    "Ġwings": 6322,
    "Ġpour": 6323,
    "Ġiniti": 6324,
    "Ġyield": 6325,
    "omb": 6326,
    "Ġstretch": 6327,
    "erences": 6328,
    "Ġdozen": 6329,
    "Ġneut": 6330,
    "Ġchap": 6331,
    "Ġload": 6332,
    "ĠCount": 6333,
    "ĠComm": 6334,
    "Ġwanting": 6335,
    "Ġevolve": 6336,
    "Ġevalu": 6337,
    "ĠGates": 6338,
    "Ġclus": 6339,
    "Ġclub": 6340,
    "Ġcock": 6341,
    "ologically": 6342,
    "Ġevening": 6343,
    "Ġpretend": 6344,
    "ĠChicago": 6345,
    "Ġpolar": 6346,
    "Ġinterf": 6347,
    "Ġextent": 6348,
    "Ġinfin": 6349,
    "Ġpopulations": 6350,
    "Ġrooms": 6351,
    "Ġdisturb": 6352,
    "Ġdistrict": 6353,
    "Ġsurely": 6354,
    "Ġtested": 6355,
    "Ġstatement": 6356,
    "Ġincreases": 6357,
    "aneously": 6358,
    "Ġabsor": 6359,
    "Ġpractices": 6360,
    "Ġrobotic": 6361,
    "Ġvolume": 6362,
    "Ġachieved": 6363,
    "ĠFrance": 6364,
    "Ġreceive": 6365,
    "Ġarmy": 6366,
    "Ġtribes": 6367,
    "Ġdramatically": 6368,
    "Ġjournalist": 6369,
    "Ġseeds": 6370,
    "Ġtort": 6371,
    "Ġcosm": 6372,
    "Ġlicense": 6373,
    "ĠAmazon": 6374,
    "Ġembedded": 6375,
    "Ġchromos": 6376,
    "Her": 6377,
    "ban": 6378,
    "bal": 6379,
    "city": 6380,
    "fortunately": 6381,
    "mm": 6382,
    "mble": 6383,
    "wich": 6384,
    "Ġvert": 6385,
    "Ġaim": 6386,
    "inction": 6387,
    "ata": 6388,
    "osen": 6389,
    "oman": 6390,
    "icious": 6391,
    "level": 6392,
    "Ġwhale": 6393,
    "Ġbeer": 6394,
    "Ġstack": 6395,
    "Ġstations": 6396,
    "Ġabund": 6397,
    "Ġug": 6398,
    "Ġproport": 6399,
    "Ġintention": 6400,
    "Ġtrillion": 6401,
    "ĠSome": 6402,
    "ĠSec": 6403,
    "Ġworker": 6404,
    "ĠHaw": 6405,
    "ĠHiggs": 6406,
    "Ġages": 6407,
    "Ġneedle": 6408,
    "Ġdisorder": 6409,
    "ĠRichard": 6410,
    "Ġherself": 6411,
    "ĠFre": 6412,
    "ĠWow": 6413,
    "ĠWall": 6414,
    "athan": 6415,
    "Ġsmoke": 6416,
    "Ġcolum": 6417,
    "Ġimagined": 6418,
    "phere": 6419,
    "Ġextinct": 6420,
    "ahar": 6421,
    "hips": 6422,
    "Ġengaging": 6423,
    "ĠUnion": 6424,
    "Ġelections": 6425,
    "ĠHealth": 6426,
    "Ġparas": 6427,
    "Ġassist": 6428,
    "Ġsuccessfully": 6429,
    "Ġspeaker": 6430,
    "Ġhousehold": 6431,
    "Ġpresented": 6432,
    "Ġoccasion": 6433,
    "Ġ250": 6434,
    "yright": 6435,
    "Ġemergency": 6436,
    "Ġfrag": 6437,
    "Ġoptimistic": 6438,
    "Ġangle": 6439,
    "ĠAdam": 6440,
    "Ġoccurred": 6441,
    "Ġdestroyed": 6442,
    "Ġenemy": 6443,
    "Ġremoved": 6444,
    "Ġhungry": 6445,
    "Ġbicycle": 6446,
    "Ġfossil": 6447,
    "200": 6448,
    "Rem": 6449,
    "ias": 6450,
    "pro": 6451,
    "ingly": 6452,
    "Ġtoler": 6453,
    "orking": 6454,
    "vey": 6455,
    "lymp": 6456,
    "ida": 6457,
    "amin": 6458,
    "opard": 6459,
    "Ġaband": 6460,
    "Ġchest": 6461,
    "ivered": 6462,
    "ĠBab": 6463,
    "ĠHis": 6464,
    "ĠHave": 6465,
    "ĠPac": 6466,
    "Ġspell": 6467,
    "cohol": 6468,
    "new": 6469,
    "Ġdecline": 6470,
    "Ġraising": 6471,
    "Ġinvite": 6472,
    "Ġremains": 6473,
    "Ġflies": 6474,
    "Ġconservation": 6475,
    "Ġimaging": 6476,
    "Ġoldest": 6477,
    "Ġ2005": 6478,
    "Ġstandards": 6479,
    "Ġcharity": 6480,
    "Ġreference": 6481,
    "Ġadvoc": 6482,
    "Ġmeetings": 6483,
    "Ġexpectations": 6484,
    "Ġmissed": 6485,
    "Ġanticip": 6486,
    "class": 6487,
    "Ġvillages": 6488,
    "ietnam": 6489,
    "Ġeradic": 6490,
    "Ġdivided": 6491,
    "Ġinstitution": 6492,
    "ĠPrize": 6493,
    "Ġappears": 6494,
    "herent": 6495,
    "ĠArabic": 6496,
    "Anyway": 6497,
    "ounced": 6498,
    "Ġunlikely": 6499,
    "Ġaspects": 6500,
    "ĠApple": 6501,
    "Ġlaptop": 6502,
    "Ġzoom": 6503,
    "ĠAntar": 6504,
    "Ġlaser": 6505,
    "MT": 6506,
    "cence": 6507,
    "east": 6508,
    "onds": 6509,
    "ooth": 6510,
    "well": 6511,
    "Ġicon": 6512,
    "Ġmer": 6513,
    "Ġmarch": 6514,
    "eness": 6515,
    "Ġfifth": 6516,
    "Ġgon": 6517,
    "Ġweigh": 6518,
    "rob": 6519,
    "ifts": 6520,
    "Ġub": 6521,
    "Ġchamp": 6522,
    "Ġchosen": 6523,
    "Ġproof": 6524,
    "unning": 6525,
    "Ġspinal": 6526,
    "Ġtries": 6527,
    "ogen": 6528,
    "Ġquarter": 6529,
    "ĠGr": 6530,
    "ĠDid": 6531,
    "Ġbull": 6532,
    "Ġphosph": 6533,
    "ĠOlymp": 6534,
    "Ġscore": 6535,
    "Ġblow": 6536,
    "Ġinstant": 6537,
    "Ġstri": 6538,
    "Ġexploration": 6539,
    "airs": 6540,
    "Ġsubs": 6541,
    "gging": 6542,
    "ĠVietnam": 6543,
    "Ġproto": 6544,
    "Ġbreaking": 6545,
    "Ġprofit": 6546,
    "Ġclassical": 6547,
    "Ġdirector": 6548,
    "Ġcrack": 6549,
    "Ġconsume": 6550,
    "Ġconsumers": 6551,
    "Ġsilent": 6552,
    "Ġbreathing": 6553,
    "Ġbanks": 6554,
    "Ġefforts": 6555,
    "Ġthrown": 6556,
    "Ġ1980": 6557,
    "Ġprosper": 6558,
    "Ġcelebrate": 6559,
    "iminals": 6560,
    "Ġinstruments": 6561,
    "Ġreveal": 6562,
    "Ġ1960": 6563,
    "osaurs": 6564,
    "Ġpiano": 6565,
    "Finally": 6566,
    "bed": 6567,
    "called": 6568,
    "eal": 6569,
    "lims": 6570,
    "war": 6571,
    "worth": 6572,
    "atto": 6573,
    "ndr": 6574,
    "Ġpace": 6575,
    "org": 6576,
    "oran": 6577,
    "alian": 6578,
    "otion": 6579,
    "Ġgall": 6580,
    "Ġrely": 6581,
    "Ġants": 6582,
    "Ġkiss": 6583,
    "Ġneither": 6584,
    "ulse": 6585,
    "Ġrising": 6586,
    "aint": 6587,
    "Ġplaced": 6588,
    "ĠMRI": 6589,
    "Ġcomprom": 6590,
    "ĠBible": 6591,
    "ĠBudd": 6592,
    "ĠGand": 6593,
    "Ġclip": 6594,
    "ĠPort": 6595,
    "Ġimper": 6596,
    "Ġimpress": 6597,
    "Ġ26": 6598,
    "ĠNG": 6599,
    "Ġsheet": 6600,
    "Ġpoly": 6601,
    "ĠRos": 6602,
    "Ġcommitted": 6603,
    "Ġscary": 6604,
    "Ġgenius": 6605,
    "Ġdecre": 6606,
    "Ġlovely": 6607,
    "Ġexploring": 6608,
    "Ġbiom": 6609,
    "Ġmorality": 6610,
    "Ġagenda": 6611,
    "Ġspeakers": 6612,
    "Ġprovided": 6613,
    "Ġdelivered": 6614,
    "Ġinspiring": 6615,
    "Ġprivacy": 6616,
    "Ġdescribes": 6617,
    "Ġproperly": 6618,
    "Ġamongst": 6619,
    "Ġfluid": 6620,
    "Ġadminist": 6621,
    "Ġconclud": 6622,
    "Ġcrying": 6623,
    "Ġdemonstrate": 6624,
    "Ġpaintings": 6625,
    "Ġbaseball": 6626,
    "Ġfinger": 6627,
    "Ġappeared": 6628,
    "Ġtelescope": 6629,
    "Ġsatisf": 6630,
    "Ġsuicide": 6631,
    "500": 6632,
    "Te": 6633,
    "ga": 6634,
    "parent": 6635,
    "Ġtasks": 6636,
    "Ġsales": 6637,
    "atar": 6638,
    "ounce": 6639,
    "Ġcats": 6640,
    "Ġbones": 6641,
    "orus": 6642,
    "Ġyouth": 6643,
    "urse": 6644,
    "Ġanger": 6645,
    "Ġmyster": 6646,
    "Ġorbit": 6647,
    "Ġalcohol": 6648,
    "Ġintent": 6649,
    "Ġquad": 6650,
    "iac": 6651,
    "Ġgranted": 6652,
    "ĠJoe": 6653,
    "Ġfinds": 6654,
    "Ġapple": 6655,
    "Ġflour": 6656,
    "Ġinstantly": 6657,
    "Ġcarr": 6658,
    "Ġcarried": 6659,
    "Ġimagery": 6660,
    "Ġgrows": 6661,
    "Ġaccum": 6662,
    "Ġconnecting": 6663,
    "Ġfailing": 6664,
    "Ġpresentation": 6665,
    "Ġzone": 6666,
    "Ġhyper": 6667,
    "Ġperforming": 6668,
    "Only": 6669,
    "Ġmeasured": 6670,
    "Ġfloating": 6671,
    "Ġorigami": 6672,
    "Ġfemales": 6673,
    "Ġrepresented": 6674,
    "Ġparticipants": 6675,
    "Ġrainforest": 6676,
    "Ġcartoons": 6677,
    "Ġsandwich": 6678,
    "Ġconcert": 6679,
    "Ġignore": 6680,
    "Ġdebt": 6681,
    "ĠCarol": 6682,
    "Ġbeliefs": 6683,
    "Ġinjury": 6684,
    "Ġutter": 6685,
    "flies": 6686,
    "Ġrecovery": 6687,
    "Ġcorporate": 6688,
    "Ġneuroscience": 6689,
    "Ġintrig": 6690,
    "Ġagreed": 6691,
    "Unfortunately": 6692,
    "Ġadopt": 6693,
    "Ġscenar": 6694,
    "ĠValley": 6695,
    "Ġhemis": 6696,
    "Ġbarely": 6697,
    "Ġorchest": 6698,
    "Ad": 6699,
    "Girl": 6700,
    "Ph": 6701,
    "can": 6702,
    "gers": 6703,
    "maker": 6704,
    "ras": 6705,
    "ration": 6706,
    "Ġid": 6707,
    "Ġsed": 6708,
    "Ġcens": 6709,
    "Ġcake": 6710,
    "Ġfishing": 6711,
    "Ġdign": 6712,
    "oral": 6713,
    "Ġlens": 6714,
    "lets": 6715,
    "utch": 6716,
    "Ġrecip": 6717,
    "quare": 6718,
    "through": 6719,
    "Ġexternal": 6720,
    "Ġlocked": 6721,
    "Ġmail": 6722,
    "Ġtrash": 6723,
    "ĠSil": 6724,
    "ĠScience": 6725,
    "ĠCome": 6726,
    "ĠMad": 6727,
    "ague": 6728,
    "ĠBur": 6729,
    "Ġunits": 6730,
    "Ġcoach": 6731,
    "ĠLad": 6732,
    "ĠLove": 6733,
    "Ġfool": 6734,
    "Ġreson": 6735,
    "ĠRed": 6736,
    "licate": 6737,
    "Ġdrone": 6738,
    "Ġdrones": 6739,
    "Ġslides": 6740,
    "Ġgenerated": 6741,
    "Ġsuppl": 6742,
    "Ġmusicians": 6743,
    "Ġcuriosity": 6744,
    "Ġrobust": 6745,
    "ups": 6746,
    "Ġ95": 6747,
    "Ġsensory": 6748,
    "Ġpleas": 6749,
    "Ġessence": 6750,
    "Ġcombat": 6751,
    "Ġfunctional": 6752,
    "Ġmiser": 6753,
    "Ġpupp": 6754,
    "Ġsurprisingly": 6755,
    "Ġsticks": 6756,
    "Ġcharacteristics": 6757,
    "Ġdepending": 6758,
    "Ġscript": 6759,
    "Ġsuspe": 6760,
    "Ġvictim": 6761,
    "Before": 6762,
    "Ġhalluc": 6763,
    "ĠCongo": 6764,
    "Ġcooperation": 6765,
    "Ġboundaries": 6766,
    "Ġnorthern": 6767,
    "Ġtalent": 6768,
    "Ġsculpture": 6769,
    "Ġtitle": 6770,
    "Ġaxis": 6771,
    "Ġpilot": 6772,
    "Ġrescue": 6773,
    "Ġmicroscope": 6774,
    "Ġunclear": 6775,
    "Ġanxiety": 6776,
    "Ġexplanation": 6777,
    "About": 6778,
    "ĠRwanda": 6779,
    "SW": 6780,
    "aci": 6781,
    "agh": 6782,
    "bits": 6783,
    "do": 6784,
    "eared": 6785,
    "hear": 6786,
    "power": 6787,
    "wl": 6788,
    "wart": 6789,
    "yan": 6790,
    "Ġtro": 6791,
    "Ġtired": 6792,
    "rect": 6793,
    "Ġhat": 6794,
    "Ġpione": 6795,
    "Ġdung": 6796,
    "Ġgro": 6797,
    "Ġglob": 6798,
    "asy": 6799,
    "icher": 6800,
    "Ġbears": 6801,
    "quar": 6802,
    "Ġstable": 6803,
    "ulum": 6804,
    "ckets": 6805,
    "oked": 6806,
    "Ġvital": 6807,
    "Ġspr": 6808,
    "Ġspark": 6809,
    "ĠSing": 6810,
    "ĠPol": 6811,
    "ptions": 6812,
    "Ġcoord": 6813,
    "angible": 6814,
    "ĠLaw": 6815,
    "Ġletting": 6816,
    "Ġinvolves": 6817,
    "licit": 6818,
    "Ġdrill": 6819,
    "Ġminor": 6820,
    "Ġminister": 6821,
    "Ġ1950": 6822,
    "phones": 6823,
    "Ġrecomm": 6824,
    "Ġcoun": 6825,
    "inson": 6826,
    "Ġchoosing": 6827,
    "Ġrestore": 6828,
    "ĠBrown": 6829,
    "Ġtrends": 6830,
    "Ġrecognition": 6831,
    "Ġcopyright": 6832,
    "Ġdinosaurs": 6833,
    "Ġrocket": 6834,
    "Ġreturned": 6835,
    "Ġaffordable": 6836,
    "Ġstruggling": 6837,
    "Ġprepare": 6838,
    "Ġautomatically": 6839,
    "Ġmotivation": 6840,
    "Ġneighborhoods": 6841,
    "Ġelectronics": 6842,
    "Ġhackers": 6843,
    "Ġparadigm": 6844,
    "Ġpolicies": 6845,
    "Ġflew": 6846,
    "Ġvessels": 6847,
    "Ġelephant": 6848,
    "Ġchaos": 6849,
    "Ġadjust": 6850,
    "Ġuncomfort": 6851,
    "Ġugly": 6852,
    "Com": 6853,
    "Sahar": 6854,
    "bru": 6855,
    "ool": 6856,
    "uk": 6857,
    "Ġtent": 6858,
    "Ġtill": 6859,
    "Ġtied": 6860,
    "Ġtatto": 6861,
    "Ġsle": 6862,
    "itory": 6863,
    "Ġbon": 6864,
    "Ġboss": 6865,
    "Ġfirm": 6866,
    "uration": 6867,
    "Ġstone": 6868,
    "Ġstages": 6869,
    "iform": 6870,
    "Ġanthrop": 6871,
    "Ġabuse": 6872,
    "Ġricher": 6873,
    "Ġorange": 6874,
    "Ġseek": 6875,
    "Ġactor": 6876,
    "Ġyours": 6877,
    "izoph": 6878,
    "Ġenable": 6879,
    "Ġfeatures": 6880,
    "ĠHigh": 6881,
    "Ġovercome": 6882,
    "Ġcontains": 6883,
    "Ġunderground": 6884,
    "ĠFirst": 6885,
    "ĠOx": 6886,
    "ĠJon": 6887,
    "Ġtraum": 6888,
    "conf": 6889,
    "Ġpersonality": 6890,
    "Ġflip": 6891,
    "aze": 6892,
    "Ġfoods": 6893,
    "Ġcorresp": 6894,
    "Ġresearcher": 6895,
    "Ġprotest": 6896,
    "Ġdepressed": 6897,
    "Ġholds": 6898,
    "Ġexpectancy": 6899,
    "Everyone": 6900,
    "Ġfalls": 6901,
    "Ġprotecting": 6902,
    "Ġimpacts": 6903,
    "Ġrecognized": 6904,
    "Ġballoon": 6905,
    "yrus": 6906,
    "Ġreported": 6907,
    "Ġseparated": 6908,
    "Ġsynthes": 6909,
    "Ġcolleague": 6910,
    "front": 6911,
    "Ġshaped": 6912,
    "Ġshopping": 6913,
    "Ġlogic": 6914,
    "Ġcrucial": 6915,
    "Ġcrops": 6916,
    "Ġlecture": 6917,
    "Ġtoxic": 6918,
    "ĠPeace": 6919,
    "Ġridiculous": 6920,
    "Ġstroke": 6921,
    "belie": 6922,
    "Ġinstructions": 6923,
    "Ġapparently": 6924,
    "Ġparalle": 6925,
    "Ġuncomfortable": 6926,
    "Saharan": 6927,
    "Dan": 6928,
    "bles": 6929,
    "bered": 6930,
    "gl": 6931,
    "gic": 6932,
    "Ġtears": 6933,
    "Ġwip": 6934,
    "Ġsession": 6935,
    "Ġhoney": 6936,
    "Ġhook": 6937,
    "Ġpra": 6938,
    "Ġfathers": 6939,
    "Ġder": 6940,
    "Ġdiverse": 6941,
    "Ġdensity": 6942,
    "arp": 6943,
    "Ġgre": 6944,
    "icros": 6945,
    "ĠIce": 6946,
    "Ġnets": 6947,
    "Ġnurse": 6948,
    "ifice": 6949,
    "state": 6950,
    "adays": 6951,
    "Ġusual": 6952,
    "ĠAir": 6953,
    "Ġplain": 6954,
    "ĠCA": 6955,
    "ĠMor": 6956,
    "agger": 6957,
    "Ġperm": 6958,
    "ache": 6959,
    "ĠGal": 6960,
    "Ġunbelie": 6961,
    "Ġbubb": 6962,
    "Ġdisrupt": 6963,
    "ĠOf": 6964,
    "Ġcolony": 6965,
    "Ġcreature": 6966,
    "licity": 6967,
    "Ġafterwards": 6968,
    "Ġproduces": 6969,
    "Ġmuscles": 6970,
    "Ġsuppose": 6971,
    "Ġorganize": 6972,
    "ĠVan": 6973,
    "Ġdefense": 6974,
    "Ġdistant": 6975,
    "ioxide": 6976,
    "Ġ2003": 6977,
    "Ġ2004": 6978,
    "Ġcontrols": 6979,
    "ĠIsland": 6980,
    "Ġparaly": 6981,
    "Ġcheese": 6982,
    "Ġcontinues": 6983,
    "bridge": 6984,
    "Ġprovides": 6985,
    "Ġinteracting": 6986,
    "Ġimproved": 6987,
    "Ġescape": 6988,
    "Ġarchitects": 6989,
    "Ġsleeping": 6990,
    "Ġdirections": 6991,
    "Ġtextbook": 6992,
    "Ġfootball": 6993,
    "yram": 6994,
    "Ġimprovement": 6995,
    "Ġprinted": 6996,
    "Ġstrategies": 6997,
    "Ġlinked": 6998,
    "Ġschizoph": 6999,
    "Ġcryst": 7000,
    "Ġmixed": 7001,
    "ĠMuslims": 7002,
    "Ġelectronic": 7003,
    "Ġagricultural": 7004,
    "Ġrepeat": 7005,
    "Ġcategories": 7006,
    "Ġdominant": 7007,
    "Ġtransparency": 7008,
    "sembly": 7009,
    "Ġdolphins": 7010,
    "Ġensure": 7011,
    "abetes": 7012,
    "Ġpermanent": 7013,
    "ĠGabby": 7014,
    "ĠDepartment": 7015,
    "Pl": 7016,
    "Us": 7017,
    "fast": 7018,
    "kin": 7019,
    "eration": 7020,
    "Ġmile": 7021,
    "Ġmatr": 7022,
    "enry": 7023,
    "Ġhitting": 7024,
    "Ġdump": 7025,
    "Ġdioxide": 7026,
    "Ġinh": 7027,
    "Ġlamp": 7028,
    "Ġredef": 7029,
    "Ġaside": 7030,
    "Ġneural": 7031,
    "gend": 7032,
    "Ġchim": 7033,
    "Ġoutput": 7034,
    "allow": 7035,
    "ĠSa": 7036,
    "ĠCr": 7037,
    "astics": 7038,
    "Ġagency": 7039,
    "ĠTes": 7040,
    "ĠTas": 7041,
    "ĠDet": 7042,
    "Ġbug": 7043,
    "century": 7044,
    "ĠLife": 7045,
    "icks": 7046,
    "ĠJes": 7047,
    "Ġentered": 7048,
    "archy": 7049,
    "Ġlighting": 7050,
    "Ġopens": 7051,
    "irds": 7052,
    "Ġsubtle": 7053,
    "Ġvisited": 7054,
    "Ġcorn": 7055,
    "Ġcapita": 7056,
    "Ġorganism": 7057,
    "Ġmusician": 7058,
    "Ġcurric": 7059,
    "Ġ2006": 7060,
    "Ġstops": 7061,
    "Ġequality": 7062,
    "Ġfilter": 7063,
    "Ġtreating": 7064,
    "Ġ65": 7065,
    "Ġsecure": 7066,
    "Ġviews": 7067,
    "Ġdrag": 7068,
    "Ġcraft": 7069,
    "Ġexplaining": 7070,
    "Ġidentified": 7071,
    "Ġdelight": 7072,
    "ĠThanks": 7073,
    "ĠYorker": 7074,
    "Ġpsychological": 7075,
    "Ġrecording": 7076,
    "Ġpredictions": 7077,
    "ĠFriday": 7078,
    "puter": 7079,
    "ĠBeij": 7080,
    "Ġsearching": 7081,
    "Ġnarrow": 7082,
    "Ġdisappoint": 7083,
    "Ġcalculate": 7084,
    "Ġtricks": 7085,
    "Ġchairs": 7086,
    "Something": 7087,
    "Ġdynam": 7088,
    "Ġcontrolling": 7089,
    "Ġmanufacture": 7090,
    "Ġrecover": 7091,
    "Ġhomeless": 7092,
    "Ġrepeated": 7093,
    "Ġwireless": 7094,
    "Ġastronom": 7095,
    "Ġlawyers": 7096,
    "Ġattached": 7097,
    "capes": 7098,
    "Ġstereoty": 7099,
    "ĠStanford": 7100,
    "Ġgonna": 7101,
    "Ġprotocell": 7102,
    "AR": 7103,
    "Will": 7104,
    "ault": 7105,
    "bage": 7106,
    "ding": 7107,
    "part": 7108,
    "Ġaes": 7109,
    "Ġcig": 7110,
    "isons": 7111,
    "itous": 7112,
    "Ġbat": 7113,
    "Ġmice": 7114,
    "Ġhol": 7115,
    "Ġtoy": 7116,
    "ora": 7117,
    "orous": 7118,
    "Ġink": 7119,
    "Ġna": 7120,
    "Ġeast": 7121,
    "Ġrehab": 7122,
    "Ġrenew": 7123,
    "Ġstores": 7124,
    "Ġstyle": 7125,
    "che": 7126,
    "semble": 7127,
    "Ġdoors": 7128,
    "raction": 7129,
    "rade": 7130,
    "Ġhelic": 7131,
    "Ġjazz": 7132,
    "Ġchief": 7133,
    "Ġpeer": 7134,
    "unction": 7135,
    "andem": 7136,
    "Ġplot": 7137,
    "ĠMother": 7138,
    "ĠMoon": 7139,
    "ares": 7140,
    "Ġexplo": 7141,
    "ĠHouse": 7142,
    "ĠTake": 7143,
    "ĠTony": 7144,
    "ĠGold": 7145,
    "Ġprime": 7146,
    "ĠDel": 7147,
    "Ġ28": 7148,
    "ello": 7149,
    "ĠRio": 7150,
    "Ġprec": 7151,
    "ĠJune": 7152,
    "Ġbrown": 7153,
    "Ġmining": 7154,
    "Ġserved": 7155,
    "ĠTEDx": 7156,
    "Ġdefe": 7157,
    "Ġpainted": 7158,
    "Ġproductivity": 7159,
    "Ġmagical": 7160,
    "Ġdiam": 7161,
    "Ġveter": 7162,
    "attered": 7163,
    "Ġsensor": 7164,
    "Ġtempt": 7165,
    "Ġsentences": 7166,
    "Ġlegis": 7167,
    "Ġorigin": 7168,
    "Ġsteal": 7169,
    "Ġpurch": 7170,
    "Ġburst": 7171,
    "Ġestimate": 7172,
    "Ġfunds": 7173,
    "Ġencounter": 7174,
    "Ġvirtually": 7175,
    "Ġassumptions": 7176,
    "Ġsoup": 7177,
    "Ġdemonstration": 7178,
    "Ġfrog": 7179,
    "liament": 7180,
    "Ġcategory": 7181,
    "Ġvegetables": 7182,
    "agram": 7183,
    "Ġinevitable": 7184,
    "ihad": 7185,
    "Ġuncertainty": 7186,
    "Ġelderly": 7187,
    "ĠPacific": 7188,
    "Ġglobally": 7189,
    "bruary": 7190,
    "Qu": 7191,
    "Sim": 7192,
    "gu": 7193,
    "iang": 7194,
    "iated": 7195,
    "iance": 7196,
    "ixt": 7197,
    "lie": 7198,
    "lings": 7199,
    "ses": 7200,
    "Ġthumb": 7201,
    "Ġwarr": 7202,
    "Ġcab": 7203,
    "enh": 7204,
    "enly": 7205,
    "onia": 7206,
    "Ġpiz": 7207,
    "Ġpicking": 7208,
    "Ġfet": 7209,
    "Ġfulf": 7210,
    "anthrop": 7211,
    "Ġdive": 7212,
    "omic": 7213,
    "omous": 7214,
    "Ġgam": 7215,
    "lear": 7216,
    "eters": 7217,
    "ette": 7218,
    "ctica": 7219,
    "sey": 7220,
    "section": 7221,
    "Ġmeal": 7222,
    "Ġexcell": 7223,
    "isten": 7224,
    "Ġloves": 7225,
    "ĠSund": 7226,
    "ĠMah": 7227,
    "ogether": 7228,
    "ĠBal": 7229,
    "Ġclosing": 7230,
    "Ġprize": 7231,
    "Ġdism": 7232,
    "iban": 7233,
    "Ġboom": 7234,
    "ĠWomen": 7235,
    "Ġemph": 7236,
    "Ġpref": 7237,
    "Ġpersu": 7238,
    "Ġtraged": 7239,
    "Ġending": 7240,
    "Ġobl": 7241,
    "Ġdrivers": 7242,
    "Ġenth": 7243,
    "Ġhighlight": 7244,
    "Ġlaid": 7245,
    "Ġmuscle": 7246,
    "Ġfarmer": 7247,
    "Ġconfident": 7248,
    "Ġaccidents": 7249,
    "ending": 7250,
    "Ġassets": 7251,
    "ĠInternational": 7252,
    "Ġadventure": 7253,
    "Ġdiabetes": 7254,
    "Ġstaying": 7255,
    "Ġstrongly": 7256,
    "Nobody": 7257,
    "Ġsuggesting": 7258,
    "Ġaffects": 7259,
    "Ġdarkness": 7260,
    "Ġreduced": 7261,
    "Ġdetailed": 7262,
    "Ġactivist": 7263,
    "Ġcitizen": 7264,
    "Ġtranslation": 7265,
    "Ġtherm": 7266,
    "Ġcollaborative": 7267,
    "Ġpushed": 7268,
    "Ġ2011": 7269,
    "Ġdisappeared": 7270,
    "Ġschem": 7271,
    "Ġsusp": 7272,
    "Ġprosthetic": 7273,
    "Ġshocking": 7274,
    "Ġdrinking": 7275,
    "Ġrarely": 7276,
    "ĠMinister": 7277,
    "Ġquantum": 7278,
    "Ġtrucks": 7279,
    "Ġnutrition": 7280,
    "Ġlawyer": 7281,
    "ĠKorea": 7282,
    "Ġprivilege": 7283,
    "Ġresilience": 7284,
    "Ġdedicated": 7285,
    "Ġphosphorus": 7286,
    "Ġhemisphere": 7287,
    "Ġdignity": 7288,
    "Ġparallel": 7289,
    "Ġschizophren": 7290,
    "ĠTasman": 7291,
    "Ġhelicop": 7292,
    "Ob": 7293,
    "kward": 7294,
    "tes": 7295,
    "uum": 7296,
    "Ġtong": 7297,
    "Ġsits": 7298,
    "erd": 7299,
    "itud": 7300,
    "osal": 7301,
    "osure": 7302,
    "Ġborrow": 7303,
    "ena": 7304,
    "oning": 7305,
    "Ġpink": 7306,
    "Ġfusion": 7307,
    "Ġlions": 7308,
    "omo": 7309,
    "Ġgear": 7310,
    "Ġmelt": 7311,
    "Ġneat": 7312,
    "umin": 7313,
    "Ġouter": 7314,
    "Ġsauce": 7315,
    "Ġcompelling": 7316,
    "Ġexposed": 7317,
    "ĠBush": 7318,
    "Ġque": 7319,
    "Ġunp": 7320,
    "Ġunpre": 7321,
    "Ġclar": 7322,
    "Ġprices": 7323,
    "ĠDis": 7324,
    "Ġparties": 7325,
    "Ġroots": 7326,
    "eller": 7327,
    "ĠFellow": 7328,
    "Ġscores": 7329,
    "Ġshoulder": 7330,
    "Ġ32": 7331,
    "Ġentrop": 7332,
    "ĠYemen": 7333,
    "Ġmonitor": 7334,
    "Ġ195": 7335,
    "Ġpassenger": 7336,
    "Ġbegun": 7337,
    "engine": 7338,
    "Ġinnocent": 7339,
    "ĠArctic": 7340,
    "Ġ120": 7341,
    "Ġrequest": 7342,
    "Ġspreads": 7343,
    "Ġreduction": 7344,
    "Ġawkward": 7345,
    "Ġlifes": 7346,
    "Ġimmun": 7347,
    "Ġlayers": 7348,
    "panz": 7349,
    "Ġinfluenced": 7350,
    "Ġlinks": 7351,
    "ĠChristian": 7352,
    "Ġethnic": 7353,
    "Ġdrove": 7354,
    "Ġphysicist": 7355,
    "Ġlaughing": 7356,
    "Ġliberal": 7357,
    "Ġscanner": 7358,
    "Ġinsights": 7359,
    "Ġperceive": 7360,
    "ĠCambridge": 7361,
    "Ġinitial": 7362,
    "Ġprofessionals": 7363,
    "Ġanonymous": 7364,
    "Ġsenior": 7365,
    "Ġfertil": 7366,
    "Ġubiqu": 7367,
    "parents": 7368,
    "icrosoft": 7369,
    "Next": 7370,
    "Pr": 7371,
    "auc": 7372,
    "field": 7373,
    "hop": 7374,
    "ivery": 7375,
    "kins": 7376,
    "top": 7377,
    "two": 7378,
    "zan": 7379,
    "Ġwing": 7380,
    "Ġwound": 7381,
    "Ġsilly": 7382,
    "Ġhill": 7383,
    "Ġhier": 7384,
    "Ġpyram": 7385,
    "esh": 7386,
    "Ġdust": 7387,
    "Ġdirty": 7388,
    "arre": 7389,
    "ĠIm": 7390,
    "Ġwee": 7391,
    "owers": 7392,
    "etr": 7393,
    "Ġreef": 7394,
    "Through": 7395,
    "Ġham": 7396,
    "children": 7397,
    "rol": 7398,
    "Ġanes": 7399,
    "illa": 7400,
    "Ġconver": 7401,
    "Ġvent": 7402,
    "ĠSir": 7403,
    "ĠSyr": 7404,
    "ĠSpan": 7405,
    "ĠMil": 7406,
    "Ġenh": 7407,
    "Ġenables": 7408,
    "Ġleather": 7409,
    "Ġclients": 7410,
    "ĠPart": 7411,
    "ĠLong": 7412,
    "Ġunderlying": 7413,
    "ĠFord": 7414,
    "Ġpersist": 7415,
    "rency": 7416,
    "Ġrelax": 7417,
    "Ġsla": 7418,
    "Ġmonkey": 7419,
    "Ġrecru": 7420,
    "Ġhealthier": 7421,
    "Ġsket": 7422,
    "Ġskull": 7423,
    "Ġopenness": 7424,
    "Ġprobability": 7425,
    "ĠVen": 7426,
    "Ġgovernance": 7427,
    "Ġdistract": 7428,
    "Ġadding": 7429,
    "Ġelsewhere": 7430,
    "Ġcaf": 7431,
    "Ġdrawn": 7432,
    "Ġfunded": 7433,
    "Ġimproving": 7434,
    "Ġphotographed": 7435,
    "Ġlegit": 7436,
    "Ġsuggested": 7437,
    "Ġcircuits": 7438,
    "Ġfacility": 7439,
    "anned": 7440,
    "Ġfootage": 7441,
    "Ġtelephone": 7442,
    "Ġultra": 7443,
    "Ġcrossing": 7444,
    "Ġceiling": 7445,
    "Ġjudgment": 7446,
    "Ġdependent": 7447,
    "Ġdetermined": 7448,
    "Ġphilosopher": 7449,
    "Ġoptimism": 7450,
    "Ġirre": 7451,
    "Ġphysician": 7452,
    "Ġadditional": 7453,
    "Ġodds": 7454,
    "Ġgathering": 7455,
    "Ġdialogue": 7456,
    "Ġpowers": 7457,
    "related": 7458,
    "Indeed": 7459,
    "Ġrevenue": 7460,
    "employ": 7461,
    "ĠGeneral": 7462,
    "Ġwelcome": 7463,
    "ĠAntarctica": 7464,
    "ĠOxford": 7465,
    "Ġcurriculum": 7466,
    "Ġentropy": 7467,
    "David": 7468,
    "Mar": 7469,
    "SS": 7470,
    "clock": 7471,
    "fall": 7472,
    "long": 7473,
    "makers": 7474,
    "ober": 7475,
    "rid": 7476,
    "walk": 7477,
    "Ġwider": 7478,
    "onge": 7479,
    "Ġinherent": 7480,
    "Ġlun": 7481,
    "Ġlux": 7482,
    "arah": 7483,
    "Ġrecept": 7484,
    "Ġongoing": 7485,
    "Ġstab": 7486,
    "see": 7487,
    "thet": 7488,
    "Ġfruit": 7489,
    "Ġjihad": 7490,
    "Ġchances": 7491,
    "Ġrats": 7492,
    "Ġconven": 7493,
    "cking": 7494,
    "okes": 7495,
    "Ġupload": 7496,
    "ournal": 7497,
    "Ġsav": 7498,
    "Ġmanager": 7499,
    "ĠGive": 7500,
    "Ġunh": 7501,
    "ĠEric": 7502,
    "Ġbackwards": 7503,
    "acular": 7504,
    "Ġgrat": 7505,
    "ĠOct": 7506,
    "Ġsmooth": 7507,
    "Ġincor": 7508,
    "ĠUg": 7509,
    "Ġscream": 7510,
    "Ġbrut": 7511,
    "Ġtraits": 7512,
    "Ġrail": 7513,
    "Ġremained": 7514,
    "ĠKoran": 7515,
    "Ġdrum": 7516,
    "Ġserving": 7517,
    "Ġhardly": 7518,
    "Ġpassing": 7519,
    "Ġconfused": 7520,
    "ĠSov": 7521,
    "Ġsettle": 7522,
    "Ġopposed": 7523,
    "Ġlabs": 7524,
    "Ġposter": 7525,
    "Ġfocusing": 7526,
    "Ġsimplicity": 7527,
    "Ġeaten": 7528,
    "Ġnonviol": 7529,
    "Ġsupported": 7530,
    "Ġlimb": 7531,
    "Ġsupermark": 7532,
    "ventions": 7533,
    "Ġbreakthrough": 7534,
    "Ġkeyboard": 7535,
    "Ġspecialized": 7536,
    "Ġpulling": 7537,
    "Ġsilver": 7538,
    "Ġarrive": 7539,
    "Char": 7540,
    "Ġtranslated": 7541,
    "Ġgraphic": 7542,
    "Ġwheat": 7543,
    "Ġexpressions": 7544,
    "Ġreminded": 7545,
    "Ġdiagnosis": 7546,
    "Ġintegrated": 7547,
    "ĠScott": 7548,
    "ĠRussian": 7549,
    "Ġparadox": 7550,
    "copes": 7551,
    "ĠGrand": 7552,
    "Ġrefugee": 7553,
    "Ġmosquito": 7554,
    "minute": 7555,
    "Ġcolonies": 7556,
    "Ġgenetically": 7557,
    "American": 7558,
    "Ġmicrobes": 7559,
    "Ġforgotten": 7560,
    "ĠFebruary": 7561,
    "Ġancestors": 7562,
    "Ġsacrifice": 7563,
    "Ġownership": 7564,
    "Ġhypothesis": 7565,
    "ĠGhana": 7566,
    "ĠTaliban": 7567,
    "Ġmiserable": 7568,
    "Ġpizza": 7569,
    "Ġweeke": 7570,
    "Am": 7571,
    "Good": 7572,
    "Please": 7573,
    "list": 7574,
    "rans": 7575,
    "xual": 7576,
    "Ġtrop": 7577,
    "Ġwedd": 7578,
    "eroid": 7579,
    "Ġcath": 7580,
    "Ġcert": 7581,
    "Ġcash": 7582,
    "Ġcute": 7583,
    "Ġmall": 7584,
    "Ġtoys": 7585,
    "Ġfires": 7586,
    "Ġdies": 7587,
    "Ġdough": 7588,
    "Ġduck": 7589,
    "Ġnurt": 7590,
    "iment": 7591,
    "cember": 7592,
    "thal": 7593,
    "Ġshifting": 7594,
    "Ġwhatso": 7595,
    "ods": 7596,
    "Ġcomedy": 7597,
    "istot": 7598,
    "Ġtech": 7599,
    "Ġspots": 7600,
    "ĠSquare": 7601,
    "ĠMed": 7602,
    "ĠMove": 7603,
    "ĠMicrosoft": 7604,
    "ĠBo": 7605,
    "ĠHans": 7606,
    "ĠPat": 7607,
    "ĠPlease": 7608,
    "ĠDen": 7609,
    "ĠNan": 7610,
    "ĠNord": 7611,
    "Ġdisag": 7612,
    "Ġdisorders": 7613,
    "ĠLED": 7614,
    "ĠWould": 7615,
    "Ġprecious": 7616,
    "ishment": 7617,
    "ĠJim": 7618,
    "Ġsmarter": 7619,
    "ords": 7620,
    "ĠKe": 7621,
    "Ġhelpful": 7622,
    "Ġconsult": 7623,
    "Ġpointing": 7624,
    "Ġedges": 7625,
    "Ġearn": 7626,
    "Ġanswered": 7627,
    "ĠVir": 7628,
    "Ġwoke": 7629,
    "Ġkiller": 7630,
    "Ġglad": 7631,
    "Ġassess": 7632,
    "viously": 7633,
    "Ġneuron": 7634,
    "ĠArmy": 7635,
    "Ġdelivery": 7636,
    "Ġoperations": 7637,
    "Ġpsychopath": 7638,
    "gency": 7639,
    "Ġincludes": 7640,
    "Ġwinning": 7641,
    "Ġobserv": 7642,
    "Ġfastest": 7643,
    "Ġoriginally": 7644,
    "Ġstatist": 7645,
    "Ġindustries": 7646,
    "Ġharness": 7647,
    "Ġtexting": 7648,
    "Ġsuffered": 7649,
    "ollar": 7650,
    "Ġrepresentation": 7651,
    "Ġburden": 7652,
    "Ġsoldier": 7653,
    "Ġprinter": 7654,
    "Ġfuels": 7655,
    "Ġtargets": 7656,
    "Ġphilanthrop": 7657,
    "ĠDecember": 7658,
    "Ġinfection": 7659,
    "Ġuniversities": 7660,
    "Ġaccepted": 7661,
    "Ġsynthetic": 7662,
    "Ġdocuments": 7663,
    "Ġconcern": 7664,
    "Ġsuspect": 7665,
    "Ġcatast": 7666,
    "Ġethical": 7667,
    "ĠBlack": 7668,
    "Ġalgorithm": 7669,
    "Ġattractive": 7670,
    "ĠTrans": 7671,
    "Ġrestaurants": 7672,
    "Ġshooting": 7673,
    "Ġfrequency": 7674,
    "Ġimplant": 7675,
    "Ġrefugees": 7676,
    "Ġfrustrated": 7677,
    "ĠCEO": 7678,
    "Ġitems": 7679,
    "Ġretirement": 7680,
    "Ġsuspended": 7681,
    "Ġchimpanz": 7682,
    "ĠBeijing": 7683,
    "Ġcigaret": 7684,
    "ĠSunday": 7685,
    "itudes": 7686,
    "Ġwhatsoever": 7687,
    "10": 7688,
    "Spe": 7689,
    "dig": 7690,
    "fly": 7691,
    "greg": 7692,
    "hh": 7693,
    "iology": 7694,
    "ket": 7695,
    "mony": 7696,
    "ship": 7697,
    "Ġx": 7698,
    "Ġtubes": 7699,
    "Ġain": 7700,
    "Ġwid": 7701,
    "Ġsink": 7702,
    "itate": 7703,
    "Ġbiz": 7704,
    "Ġbars": 7705,
    "Ġmur": 7706,
    "aped": 7707,
    "Ġhire": 7708,
    "Ġpause": 7709,
    "Ġpandem": 7710,
    "Ġfought": 7711,
    "orida": 7712,
    "ari": 7713,
    "Ġnit": 7714,
    "utical": 7715,
    "Ġanno": 7716,
    "olic": 7717,
    "olars": 7718,
    "usted": 7719,
    "Ġchips": 7720,
    "umes": 7721,
    "Ġlob": 7722,
    "Ġmaxim": 7723,
    "Ġours": 7724,
    "Ġbutt": 7725,
    "ĠAug": 7726,
    "Ġplastics": 7727,
    "Whether": 7728,
    "ĠMom": 7729,
    "ĠMac": 7730,
    "agen": 7731,
    "Ġexped": 7732,
    "ĠTan": 7733,
    "ffect": 7734,
    "Ġunemploy": 7735,
    "ĠPeter": 7736,
    "eps": 7737,
    "Ġpoison": 7738,
    "ĠLike": 7739,
    "irect": 7740,
    "Ġemerge": 7741,
    "ĠOur": 7742,
    "Ġoffices": 7743,
    "Ġincident": 7744,
    "Ġinvolve": 7745,
    "iously": 7746,
    "Ġinsist": 7747,
    "Ġfounded": 7748,
    "Ġextension": 7749,
    "Ġattitude": 7750,
    "cedented": 7751,
    "Ġengines": 7752,
    "Ġpubl": 7753,
    "Ġelected": 7754,
    "Ġphotographer": 7755,
    "Ġwarning": 7756,
    "ughters": 7757,
    "Ġglobalization": 7758,
    "Ġglaci": 7759,
    "Ġexperimental": 7760,
    "Ġprogramming": 7761,
    "ĠHoward": 7762,
    "Ġviewer": 7763,
    "Ġjoint": 7764,
    "Ġobjective": 7765,
    "mingly": 7766,
    "Ġdifficulty": 7767,
    "Ġlanded": 7768,
    "Ġeleg": 7769,
    "Ġnonprofit": 7770,
    "Ġbreakfast": 7771,
    "Ġgeek": 7772,
    "Ġfacilities": 7773,
    "Ġreducing": 7774,
    "Ġbrave": 7775,
    "Ġproposed": 7776,
    "Ġpromote": 7777,
    "Ġerrors": 7778,
    "Ġpeaceful": 7779,
    "Ġbedroom": 7780,
    "Ġaccounts": 7781,
    "Ġprimarily": 7782,
    "Ġimmediate": 7783,
    "Ġdomestic": 7784,
    "Ġclinic": 7785,
    "Ġsouthern": 7786,
    "Ġtissues": 7787,
    "ĠBlue": 7788,
    "Ġanalyze": 7789,
    "ĠCentral": 7790,
    "Ġpige": 7791,
    "Ġfortune": 7792,
    "Ġhanging": 7793,
    "Ġroutine": 7794,
    "Ġhabitat": 7795,
    "Ġsubstance": 7796,
    "Ġkingdom": 7797,
    "ĠFlorida": 7798,
    "Ġtransparent": 7799,
    "Ġfederal": 7800,
    "Ġisolated": 7801,
    "Ġmakers": 7802,
    "Ġmerely": 7803,
    "Ġprocedure": 7804,
    "keepers": 7805,
    "Remember": 7806,
    "ĠSpanish": 7807,
    "Ġbizarre": 7808,
    "18": 7809,
    "BM": 7810,
    "Four": 7811,
    "Number": 7812,
    "Voice": 7813,
    "free": 7814,
    "mill": 7815,
    "pen": 7816,
    "rich": 7817,
    "tical": 7818,
    "tail": 7819,
    "vis": 7820,
    "zens": 7821,
    "Ġwired": 7822,
    "Ġsin": 7823,
    "Ġsisters": 7824,
    "atural": 7825,
    "Ġmate": 7826,
    "eda": 7827,
    "asm": 7828,
    "Ġnodes": 7829,
    "Ġnaked": 7830,
    "Ġwhis": 7831,
    "Ġbell": 7832,
    "Ġrethink": 7833,
    "Ġstrain": 7834,
    "Ġdozens": 7835,
    "stone": 7836,
    "Ġshine": 7837,
    "Ġjam": 7838,
    "Ġupset": 7839,
    "Ġactors": 7840,
    "mental": 7841,
    "ardo": 7842,
    "ĠBon": 7843,
    "ĠBol": 7844,
    "Ġmanagers": 7845,
    "Ġquit": 7846,
    "aceutical": 7847,
    "ĠHenry": 7848,
    "ĠTex": 7849,
    "Ġdescription": 7850,
    "ĠJo": 7851,
    "Ġsmiling": 7852,
    "Ġfactories": 7853,
    "arsh": 7854,
    "Ġ33": 7855,
    "Ġartwork": 7856,
    "Ġarticles": 7857,
    "oca": 7858,
    "Ġcompleted": 7859,
    "Ġcrew": 7860,
    "Ġmonit": 7861,
    "Ġgenerous": 7862,
    "Ġregime": 7863,
    "Ġfung": 7864,
    "Ġheadlines": 7865,
    "Ġpreserve": 7866,
    "Ġvalid": 7867,
    "Ġ2001": 7868,
    "otted": 7869,
    "Ġretina": 7870,
    "Ġtrains": 7871,
    "iences": 7872,
    "aws": 7873,
    "Ġinvestors": 7874,
    "Ġdelay": 7875,
    "Ġgrandparents": 7876,
    "Ġlegacy": 7877,
    "Ġdrawings": 7878,
    "Ġcalories": 7879,
    "Ġinspire": 7880,
    "itution": 7881,
    "Ġpredicted": 7882,
    "Ġmarath": 7883,
    "Ġarray": 7884,
    "Ġmechanisms": 7885,
    "Ġmobility": 7886,
    "Within": 7887,
    "Ġpanels": 7888,
    "ĠIslands": 7889,
    "Ġmagnetic": 7890,
    "Ġpreparing": 7891,
    "Ġspectacular": 7892,
    "Ġweapon": 7893,
    "Ġbroadcast": 7894,
    "Ġpenguin": 7895,
    "Ġvoting": 7896,
    "Ġtunnel": 7897,
    "Ġgarage": 7898,
    "Ġpursuit": 7899,
    "ollywood": 7900,
    "Ġremembered": 7901,
    "Ġpharmaceutical": 7902,
    "Ġproportion": 7903,
    "Ġprosperity": 7904,
    "Ġconclude": 7905,
    "Ġparalyzed": 7906,
    "Ġemphas": 7907,
    "Ġunprecedented": 7908,
    "Ġubiquitous": 7909,
    "EC": 7910,
    "Es": 7911,
    "Lad": 7912,
    "jo": 7913,
    "pass": 7914,
    "yal": 7915,
    "Ġtear": 7916,
    "Ġthrew": 7917,
    "ini": 7918,
    "Ġwaters": 7919,
    "erved": 7920,
    "Ġcas": 7921,
    "isy": 7922,
    "Ġho": 7923,
    "onic": 7924,
    "Ġpunch": 7925,
    "Ġfib": 7926,
    "esters": 7927,
    "ancing": 7928,
    "Ġdiver": 7929,
    "Ġdressed": 7930,
    "Ġlone": 7931,
    "Ġgig": 7932,
    "Ġgang": 7933,
    "icial": 7934,
    "Ġnom": 7935,
    "Ġnative": 7936,
    "Ġnerve": 7937,
    "ownt": 7938,
    "Ġreci": 7939,
    "Ġrecess": 7940,
    "Ġonstage": 7941,
    "iders": 7942,
    "igation": 7943,
    "keys": 7944,
    "thur": 7945,
    "Ġsharp": 7946,
    "Ġhealing": 7947,
    "Ġmeals": 7948,
    "ulin": 7949,
    "Ġdece": 7950,
    "Ġouts": 7951,
    "ĠSim": 7952,
    "ĠMount": 7953,
    "ĠMiss": 7954,
    "Ġcompos": 7955,
    "abul": 7956,
    "Ġexpans": 7957,
    "ĠHy": 7958,
    "ĠTwo": 7959,
    "Ġclay": 7960,
    "ĠDV": 7961,
    "ĠDad": 7962,
    "Ġarmed": 7963,
    "ĠLib": 7964,
    "Ġgras": 7965,
    "Ġcommod": 7966,
    "athered": 7967,
    "Ġwriters": 7968,
    "Ġcrimes": 7969,
    "Ġblame": 7970,
    "Ġremaining": 7971,
    "Ġinterrupt": 7972,
    "Ġintervention": 7973,
    "Ġattribut": 7974,
    "Ġeconomist": 7975,
    "Ġhomework": 7976,
    "Ġbiote": 7977,
    "Ġeducated": 7978,
    "Ġaircraft": 7979,
    "Ġfiguring": 7980,
    "Ġglimp": 7981,
    "Ġsecrets": 7982,
    "Ġfreely": 7983,
    "Ġlistened": 7984,
    "Ġbottles": 7985,
    "Ġdeliber": 7986,
    "Ġarguing": 7987,
    "ĠWhite": 7988,
    "venth": 7989,
    "Ġobserve": 7990,
    "Ġobservation": 7991,
    "Ġresponses": 7992,
    "ascular": 7993,
    "Ġposted": 7994,
    "Ġimmigr": 7995,
    "Ġmarine": 7996,
    "Ġfavel": 7997,
    "Ġleaf": 7998,
    "Ġemerged": 7999,
    "Ġmindset": 8000,
    "Ġcapitalism": 8001,
    "Ġstraightforward": 8002,
    "Ġdespair": 8003,
    "Ġannounced": 8004,
    "Ġwidely": 8005,
    "rolled": 8006,
    "Ġmammals": 8007,
    "Ġfabulous": 8008,
    "Ġillustrate": 8009,
    "Ġroute": 8010,
    "Ġpreviously": 8011,
    "Ġenterpr": 8012,
    "Ġintuition": 8013,
    "Secondly": 8014,
    "ĠNeander": 8015,
    "ĠAbra": 8016,
    "Ġbriefly": 8017,
    "ĠBrook": 8018,
    "Ġskept": 8019,
    "Ġcollapsed": 8020,
    "Ġconservative": 8021,
    "Ġinfinite": 8022,
    "Ġbubbles": 8023,
    "Ġmatrix": 8024,
    "Ġtongue": 8025,
    "ĠOctober": 8026,
    "ĠUganda": 8027,
    "ĠSoviet": 8028,
    "ĠTexas": 8029,
    "Ġrecipe": 8030,
    "Back": 8031,
    "Int": 8032,
    "Le": 8033,
    "Ste": 8034,
    "Turn": 8035,
    "creat": 8036,
    "dollar": 8037,
    "half": 8038,
    "rian": 8039,
    "wind": 8040,
    "Ġaward": 8041,
    "inarily": 8042,
    "osaur": 8043,
    "Ġbatt": 8044,
    "Ġhiding": 8045,
    "Ġpile": 8046,
    "Ġfiring": 8047,
    "Ġinches": 8048,
    "lege": 8049,
    "ĠInt": 8050,
    "Ġnerd": 8051,
    "Ġwet": 8052,
    "Ġbeating": 8053,
    "Ġstability": 8054,
    "amas": 8055,
    "Ġash": 8056,
    "ilty": 8057,
    "Ġchron": 8058,
    "Ġconce": 8059,
    "Ġalien": 8060,
    "Ġtriang": 8061,
    "Ġupd": 8062,
    "elf": 8063,
    "ĠCD": 8064,
    "ĠCor": 8065,
    "Ġtag": 8066,
    "agon": 8067,
    "Ġdonor": 8068,
    "Ġnowadays": 8069,
    "Ġuniform": 8070,
    "ĠDesign": 8071,
    "Ġarrow": 8072,
    "Ġdisabled": 8073,
    "Ġmood": 8074,
    "Ġgotta": 8075,
    "Ġacid": 8076,
    "Ġamate": 8077,
    "ĠWol": 8078,
    "icked": 8079,
    "Ġtranscend": 8080,
    "Ġcaring": 8081,
    "obile": 8082,
    "Ġkidney": 8083,
    "Ġslums": 8084,
    "Ġrecall": 8085,
    "Ġhardware": 8086,
    "Ġelite": 8087,
    "Ġformula": 8088,
    "Ġcurrency": 8089,
    "Ġdevil": 8090,
    "Ġexcit": 8091,
    "Ġ85": 8092,
    "Ġsexy": 8093,
    "Ġdaughters": 8094,
    "Ġgrandchildren": 8095,
    "ĠWhich": 8096,
    "Ġpersonalized": 8097,
    "Ġterrifying": 8098,
    "Ġperformed": 8099,
    "bye": 8100,
    "Ġsmartphone": 8101,
    "Ġdegrad": 8102,
    "Ġignored": 8103,
    "Ġclinics": 8104,
    "Ġmiracle": 8105,
    "Ġheaven": 8106,
    "uddenly": 8107,
    "Ġwealthy": 8108,
    "ĠSpace": 8109,
    "ĠQu": 8110,
    "ĠQue": 8111,
    "Ġprofoundly": 8112,
    "ademy": 8113,
    "Ġunconscious": 8114,
    "Ġambig": 8115,
    "Ġdenial": 8116,
    "Ġclaims": 8117,
    "ĠNorway": 8118,
    "Ġnewspapers": 8119,
    "Ġecosystems": 8120,
    "Ġexpanding": 8121,
    "Ġshelter": 8122,
    "Ġqualities": 8123,
    "ĠResearch": 8124,
    "Ġbathroom": 8125,
    "Ġhormone": 8126,
    "Ġstorytelling": 8127,
    "ĠPalestin": 8128,
    "Ġdatabase": 8129,
    "Ġvertical": 8130,
    "Ġfragile": 8131,
    "ndrome": 8132,
    "Ġgrocer": 8133,
    "Ġrehabil": 8134,
    "Ġtragedy": 8135,
    "Obviously": 8136,
    "ĠAugust": 8137,
    "12": 8138,
    "Come": 8139,
    "DA": 8140,
    "OL": 8141,
    "fin": 8142,
    "four": 8143,
    "fold": 8144,
    "py": 8145,
    "produ": 8146,
    "yo": 8147,
    "ĠThen": 8148,
    "Ġtip": 8149,
    "Ġaer": 8150,
    "inter": 8151,
    "rey": 8152,
    "oug": 8153,
    "ounder": 8154,
    "itage": 8155,
    "itating": 8156,
    "Ġmurd": 8157,
    "encing": 8158,
    "Ġhub": 8159,
    "ona": 8160,
    "Ġtooth": 8161,
    "Ġdose": 8162,
    "eday": 8163,
    "Ġlin": 8164,
    "Ġgate": 8165,
    "leton": 8166,
    "uther": 8167,
    "ctu": 8168,
    "idi": 8169,
    "Ġhabits": 8170,
    "imination": 8171,
    "cean": 8172,
    "amine": 8173,
    "racies": 8174,
    "Ġasleep": 8175,
    "Ġsho": 8176,
    "Ġcomments": 8177,
    "ilize": 8178,
    "Ġjunk": 8179,
    "Ġchop": 8180,
    "Ġdelic": 8181,
    "Ġrice": 8182,
    "Ġmycel": 8183,
    "atever": 8184,
    "ntil": 8185,
    "Ġalph": 8186,
    "Ġintim": 8187,
    "Ġintro": 8188,
    "andering": 8189,
    "ĠSl": 8190,
    "Ġplug": 8191,
    "ĠMill": 8192,
    "ĠMedic": 8193,
    "izers": 8194,
    "ĠBy": 8195,
    "ĠBay": 8196,
    "Ġpercept": 8197,
    "Ġagent": 8198,
    "Ġaggress": 8199,
    "Ġpartly": 8200,
    "ĠNations": 8201,
    "Ġdeserve": 8202,
    "Ġads": 8203,
    "ĠWalk": 8204,
    "Ġrealizing": 8205,
    "Ġoffering": 8206,
    "percent": 8207,
    "ĠChurch": 8208,
    "Ġsimult": 8209,
    "Ġguard": 8210,
    "Ġbasket": 8211,
    "Ġbelieves": 8212,
    "Ġinterconnected": 8213,
    "phony": 8214,
    "Ġ2050": 8215,
    "Ġcareg": 8216,
    "Ġdemo": 8217,
    "Ġdemands": 8218,
    "Ġbiologists": 8219,
    "Ġsett": 8220,
    "ĠIndones": 8221,
    "ashed": 8222,
    "Ġlocated": 8223,
    "Ġpositions": 8224,
    "Ġtreatments": 8225,
    "Ġspeaks": 8226,
    "Ġaudio": 8227,
    "ĠBrian": 8228,
    "Ġvariation": 8229,
    "Ġtemporary": 8230,
    "Ġsupporting": 8231,
    "Ġcommunications": 8232,
    "Ġnearby": 8233,
    "Ġrobotics": 8234,
    "Ġgeomet": 8235,
    "Ġbeneath": 8236,
    "Ġcircles": 8237,
    "Ġexperiencing": 8238,
    "Ġexception": 8239,
    "Ġthreatened": 8240,
    "ylac": 8241,
    "Ġglasses": 8242,
    "ĠIranian": 8243,
    "ĠIsraeli": 8244,
    "Ġsalt": 8245,
    "Ġsurrounding": 8246,
    "Ġreveals": 8247,
    "Ġpuzzles": 8248,
    "ĠPlay": 8249,
    "ĠNorthern": 8250,
    "Ġterrorism": 8251,
    "Ġstimul": 8252,
    "Ġneuroscient": 8253,
    "Ġgarbage": 8254,
    "Ġperceived": 8255,
    "Ġgradually": 8256,
    "Ġreinvent": 8257,
    "Ġceremony": 8258,
    "Ġcandidate": 8259,
    "Ġfortunate": 8260,
    "ĠAcademy": 8261,
    "Ġnavigate": 8262,
    "ĠJewish": 8263,
    "Ġautonomous": 8264,
    "Ġcomparison": 8265,
    "Ġflexible": 8266,
    "Ġdevastating": 8267,
    "Ġathletes": 8268,
    "ĠMandela": 8269,
    "Ġguarantee": 8270,
    "ĠJesus": 8271,
    "Ladies": 8272,
    "Ġexcitement": 8273,
    "19": 8274,
    "Cl": 8275,
    "Comp": 8276,
    "None": 8277,
    "Six": 8278,
    "Suddenly": 8279,
    "bra": 8280,
    "des": 8281,
    "grad": 8282,
    "hist": 8283,
    "lves": 8284,
    "made": 8285,
    "pace": 8286,
    "west": 8287,
    "Ġtone": 8288,
    "Ġtact": 8289,
    "Ġtune": 8290,
    "reh": 8291,
    "Ġod": 8292,
    "Ġcree": 8293,
    "osn": 8294,
    "Ġbite": 8295,
    "Ġbored": 8296,
    "Ġpir": 8297,
    "Ġdil": 8298,
    "Ġlit": 8299,
    "oma": 8300,
    "idges": 8301,
    "Ġstatic": 8302,
    "Ġstored": 8303,
    "Ġwashing": 8304,
    "three": 8305,
    "Ġselves": 8306,
    "Ġshipping": 8307,
    "ila": 8308,
    "Ġjelly": 8309,
    "Ġdeals": 8310,
    "Ġorient": 8311,
    "essor": 8312,
    "essions": 8313,
    "ested": 8314,
    "Ġlock": 8315,
    "Ġbutter": 8316,
    "Ġtends": 8317,
    "ĠAny": 8318,
    "Ġspons": 8319,
    "ĠSen": 8320,
    "ĠCath": 8321,
    "ĠMarch": 8322,
    "ĠBron": 8323,
    "ĠTy": 8324,
    "Ġtwist": 8325,
    "Ġclot": 8326,
    "ĠPan": 8327,
    "ĠDa": 8328,
    "Ġ29": 8329,
    "ĠNic": 8330,
    "Ġdiscr": 8331,
    "Ġbackyard": 8332,
    "ĠLab": 8333,
    "Ġresolve": 8334,
    "ĠRay": 8335,
    "Ġsmoking": 8336,
    "neg": 8337,
    "Ġbrush": 8338,
    "Ġcrows": 8339,
    "rence": 8340,
    "Ġguerr": 8341,
    "Ġendang": 8342,
    "Ġinsulin": 8343,
    "Ġsciences": 8344,
    "Ġ31": 8345,
    "ĠItaly": 8346,
    "Ġartistic": 8347,
    "Ġpointed": 8348,
    "ĠStage": 8349,
    "Ġmeter": 8350,
    "Ġcaps": 8351,
    "Ġpresents": 8352,
    "Ġmembr": 8353,
    "Ġcharming": 8354,
    "reme": 8355,
    "Ġnights": 8356,
    "Ġdiagram": 8357,
    "Ġstructural": 8358,
    "aneous": 8359,
    "Ġradically": 8360,
    "ometown": 8361,
    "Ġdemocracies": 8362,
    "Ġhybr": 8363,
    "Ġsurvived": 8364,
    "Ġcyl": 8365,
    "Ġauthors": 8366,
    "ugment": 8367,
    "Ġarrange": 8368,
    "Ġburied": 8369,
    "ĠLego": 8370,
    "ĠLeban": 8371,
    "Ġtendency": 8372,
    "Ġflowing": 8373,
    "China": 8374,
    "Ġactivate": 8375,
    "Ġparticipation": 8376,
    "Ġthreats": 8377,
    "Ġprisoners": 8378,
    "Ġdamn": 8379,
    "Ġsignificantly": 8380,
    "Ġpurposes": 8381,
    "Ġrolling": 8382,
    "Ġinnovations": 8383,
    "Ġreminds": 8384,
    "Ġgraduated": 8385,
    "Ġconsequence": 8386,
    "orgeous": 8387,
    "Ġverb": 8388,
    "ĠCollege": 8389,
    "Ġburned": 8390,
    "Ġbags": 8391,
    "Ġtransmit": 8392,
    "Ġratio": 8393,
    "Ġticket": 8394,
    "Ġexhibition": 8395,
    "ĠTurkey": 8396,
    "Ġgenetics": 8397,
    "Ġrituals": 8398,
    "Ġobstacles": 8399,
    "Ġbesides": 8400,
    "Ġcontemporary": 8401,
    "Ġtackle": 8402,
    "ephen": 8403,
    "Ġchapter": 8404,
    "Ġcompromise": 8405,
    "Ġscenario": 8406,
    "Ġrecommend": 8407,
    "ĠDetro": 8408,
    "Ġschizophrenia": 8409,
    "Ġwedding": 8410,
    "istotle": 8411,
    "ĠNorden": 8412,
    "ĠVirgin": 8413,
    "AM": 8414,
    "En": 8415,
    "Five": 8416,
    "John": 8417,
    "MA": 8418,
    "Man": 8419,
    "aired": 8420,
    "bling": 8421,
    "cre": 8422,
    "dis": 8423,
    "gments": 8424,
    "net": 8425,
    "uilt": 8426,
    "Ġoy": 8427,
    "ati": 8428,
    "erry": 8429,
    "oust": 8430,
    "isc": 8431,
    "Ġbin": 8432,
    "Ġbind": 8433,
    "Ġbump": 8434,
    "inger": 8435,
    "apor": 8436,
    "apore": 8437,
    "Ġhal": 8438,
    "Ġfile": 8439,
    "Ġdent": 8440,
    "Ġles": 8441,
    "oto": 8442,
    "Ġgh": 8443,
    "Ġgases": 8444,
    "uty": 8445,
    "cher": 8446,
    "eren": 8447,
    "sell": 8448,
    "ading": 8449,
    "Ġmeg": 8450,
    "Ġvit": 8451,
    "Ġvia": 8452,
    "ĠAp": 8453,
    "Ġspill": 8454,
    "Ġspont": 8455,
    "Ġyourselves": 8456,
    "ĠCamb": 8457,
    "asty": 8458,
    "ghai": 8459,
    "ansas": 8460,
    "ĠGore": 8461,
    "Ġunable": 8462,
    "Ġprisons": 8463,
    "ĠDutch": 8464,
    "Ġcovers": 8465,
    "anged": 8466,
    "ounding": 8467,
    "Ġrope": 8468,
    "Ġrocks": 8469,
    "Ġcontag": 8470,
    "Ġlottery": 8471,
    "ĠFrom": 8472,
    "Ġrealistic": 8473,
    "Ġbrows": 8474,
    "Ġgenu": 8475,
    "Ġtragic": 8476,
    "Ġowned": 8477,
    "Ġcourses": 8478,
    "Ġdrown": 8479,
    "Ġmonkeys": 8480,
    "cycl": 8481,
    "ogram": 8482,
    "Ġsocially": 8483,
    "Ġrestrict": 8484,
    "Ġmarker": 8485,
    "Ġlocations": 8486,
    "Ġcontinuing": 8487,
    "Ġ700": 8488,
    "Ġ800": 8489,
    "atson": 8490,
    "Ġfailures": 8491,
    "Ġopera": 8492,
    "Ġsafer": 8493,
    "Ġtraditions": 8494,
    "elson": 8495,
    "Ġembod": 8496,
    "Ġcivic": 8497,
    "Ġapproaches": 8498,
    "Ġarchitectural": 8499,
    "evin": 8500,
    "ugal": 8501,
    "Ġmainstream": 8502,
    "Ġasteroid": 8503,
    "ĠZeal": 8504,
    "Ġcompete": 8505,
    "Ġreactions": 8506,
    "Ġdivor": 8507,
    "Ġdivision": 8508,
    "Ġriding": 8509,
    "ĠSwiss": 8510,
    "Ġwheels": 8511,
    "Ġhopes": 8512,
    "Ġpacked": 8513,
    "Ġmathematic": 8514,
    "Ġthrowing": 8515,
    "Ġofficer": 8516,
    "ĠOrgan": 8517,
    "Ġdimension": 8518,
    "etti": 8519,
    "iberia": 8520,
    "Ġreconstruct": 8521,
    "Ġsymbols": 8522,
    "Ġpairs": 8523,
    "Ġclimbing": 8524,
    "Ġvolunteer": 8525,
    "Ġcorporations": 8526,
    "Ġexpertise": 8527,
    "Ġsatellites": 8528,
    "Ġnutrients": 8529,
    "Ġagreement": 8530,
    "Ġmosquitos": 8531,
    "Ġanalogy": 8532,
    "Ġimprovis": 8533,
    "Ġshrimp": 8534,
    "ĠSuper": 8535,
    "Ġbarrier": 8536,
    "Ġbarriers": 8537,
    "Ġconstraints": 8538,
    "Ġtrigger": 8539,
    "Ġcousin": 8540,
    "Ġexplosion": 8541,
    "Ġsurfaces": 8542,
    "Ġcolumn": 8543,
    "ĠNGOs": 8544,
    "ĠIndonesia": 8545,
    "ĠCambod": 8546,
    "CL": 8547,
    "Ge": 8548,
    "Global": 8549,
    "Life": 8550,
    "col": 8551,
    "iop": 8552,
    "iating": 8553,
    "tra": 8554,
    "va": 8555,
    "ville": 8556,
    "working": 8557,
    "Ġthylac": 8558,
    "Ġaugment": 8559,
    "real": 8560,
    "Ġsulf": 8561,
    "osity": 8562,
    "anghai": 8563,
    "Ġdownt": 8564,
    "Ġinn": 8565,
    "Ġinher": 8566,
    "eds": 8567,
    "edge": 8568,
    "Ġlanes": 8569,
    "oted": 8570,
    "Ġgathered": 8571,
    "vember": 8572,
    "utan": 8573,
    "quis": 8574,
    "Ġstead": 8575,
    "road": 8576,
    "ifer": 8577,
    "ifty": 8578,
    "Ġanat": 8579,
    "aded": 8580,
    "Ġrivers": 8581,
    "Ġrape": 8582,
    "Ġloving": 8583,
    "Ġspider": 8584,
    "Ġtriv": 8585,
    "ĠSou": 8586,
    "ĠCould": 8587,
    "ĠCyrus": 8588,
    "ĠMod": 8589,
    "ĠMel": 8590,
    "Ġsuck": 8591,
    "izz": 8592,
    "izer": 8593,
    "Ġlean": 8594,
    "ĠBel": 8595,
    "Ġmanif": 8596,
    "ĠHill": 8597,
    "ĠTit": 8598,
    "ĠTel": 8599,
    "ĠGet": 8600,
    "Ġclue": 8601,
    "Ġpride": 8602,
    "ĠNet": 8603,
    "ĠNature": 8604,
    "asses": 8605,
    "epher": 8606,
    "enses": 8607,
    "ĠRiver": 8608,
    "ictor": 8609,
    "interest": 8610,
    "Ġwrap": 8611,
    "Ġgenoc": 8612,
    "Ġtraject": 8613,
    "Ġowner": 8614,
    "Ġsimulation": 8615,
    "Ġinsane": 8616,
    "peare": 8617,
    "Ġobt": 8618,
    "Ġinterventions": 8619,
    "Ġstrip": 8620,
    "Ġ1930": 8621,
    "Ġpatents": 8622,
    "Ġreaders": 8623,
    "Ġparticle": 8624,
    "Ġcoup": 8625,
    "Ġformal": 8626,
    "Ġconnects": 8627,
    "boo": 8628,
    "Ġprofile": 8629,
    "Ġkills": 8630,
    "Ġcondoms": 8631,
    "ucks": 8632,
    "ĠNovember": 8633,
    "Ġinvesting": 8634,
    "Ġaudiences": 8635,
    "Ġdawn": 8636,
    "Ġbreaks": 8637,
    "Ġincluded": 8638,
    "ĠAsian": 8639,
    "Ġaffecting": 8640,
    "Ġsilk": 8641,
    "Ġimmense": 8642,
    "akespeare": 8643,
    "Ġreports": 8644,
    "Ġstrategic": 8645,
    "Ġdomain": 8646,
    "Ġpackage": 8647,
    "Ġscholars": 8648,
    "Ġcalculations": 8649,
    "Ġjumped": 8650,
    "Ġmagnific": 8651,
    "Ġinterviews": 8652,
    "Ġapplying": 8653,
    "Ġhistoric": 8654,
    "Ġmotivated": 8655,
    "Ġfolding": 8656,
    "Ġcandy": 8657,
    "Ġteenager": 8658,
    "Ġindependence": 8659,
    "Ġairplanes": 8660,
    "Ġbanking": 8661,
    "Ġmeasures": 8662,
    "Ġsurgeons": 8663,
    "Ġdictionaries": 8664,
    "Ġofficials": 8665,
    "Ġtower": 8666,
    "Ġpalm": 8667,
    "Art": 8668,
    "burgh": 8669,
    "Ġfortunately": 8670,
    "Ġhormones": 8671,
    "Ġhunting": 8672,
    "Ġarrested": 8673,
    "Ġwhistle": 8674,
    "Ġacknowled": 8675,
    "Ġadolescent": 8676,
    "Ġprostate": 8677,
    "ĠCounty": 8678,
    "Ġclusters": 8679,
    "ĠRosling": 8680,
    "ĠCarolina": 8681,
    "quarters": 8682,
    "Ġunbelievable": 8683,
    "Ġenthus": 8684,
    "digit": 8685,
    "Ġpandemic": 8686,
    "ĠDVD": 8687,
    "ĠBronx": 8688,
    "Ġendangered": 8689,
    "Ġgenuine": 8690,
    "ĠZealand": 8691,
    "Car": 8692,
    "aware": 8693,
    "law": 8694,
    "nut": 8695,
    "press": 8696,
    "Ġtale": 8697,
    "Ġthresh": 8698,
    "Ġoct": 8699,
    "Ġsir": 8700,
    "Ġsco": 8701,
    "Ġcub": 8702,
    "Ġhors": 8703,
    "Ġhometown": 8704,
    "Ġfiber": 8705,
    "Ġfisher": 8706,
    "Ġdrought": 8707,
    "oric": 8708,
    "Ġinhab": 8709,
    "Ġgained": 8710,
    "Ġreass": 8711,
    "Third": 8712,
    "imal": 8713,
    "Ġstamp": 8714,
    "Ġdood": 8715,
    "outs": 8716,
    "illance": 8717,
    "Ġneck": 8718,
    "Ġneoc": 8719,
    "ilized": 8720,
    "Ġsoap": 8721,
    "Ġjew": 8722,
    "ĠAv": 8723,
    "Ġalb": 8724,
    "Ġspo": 8725,
    "Ġspray": 8726,
    "ĠSom": 8727,
    "ĠSanta": 8728,
    "orted": 8729,
    "ĠCour": 8730,
    "Ġsake": 8731,
    "Ġsail": 8732,
    "Ġsacred": 8733,
    "reating": 8734,
    "Ġperpet": 8735,
    "Ġmanual": 8736,
    "aching": 8737,
    "Ġhappily": 8738,
    "ĠEs": 8739,
    "ĠProf": 8740,
    "Ġoverl": 8741,
    "Ġbucks": 8742,
    "eping": 8743,
    "Ġsheets": 8744,
    "Ġpockets": 8745,
    "ĠRome": 8746,
    "ĠRoy": 8747,
    "cover": 8748,
    "ĠFar": 8749,
    "ĠFour": 8750,
    "ĠWal": 8751,
    "Ġsyndrome": 8752,
    "ĠOcean": 8753,
    "ĠJose": 8754,
    "ĠJud": 8755,
    "ĠJosh": 8756,
    "Ġscaff": 8757,
    "Ġmayor": 8758,
    "Ġtrail": 8759,
    "ĠChile": 8760,
    "obs": 8761,
    "Ġfoundations": 8762,
    "Ġstrict": 8763,
    "Ġmini": 8764,
    "Ġeditor": 8765,
    "Ġterrain": 8766,
    "Ġdemos": 8767,
    "Ġdemographic": 8768,
    "Ġsubway": 8769,
    "Ġinfant": 8770,
    "Ġcapabilities": 8771,
    "Ġforming": 8772,
    "Ġheaded": 8773,
    "Ġautistic": 8774,
    "Ġtopics": 8775,
    "Ġeducate": 8776,
    "Ġcultiv": 8777,
    "ĠIndustrial": 8778,
    "Ġbeautifully": 8779,
    "Ġexcl": 8780,
    "Ġcollectively": 8781,
    "Ġviral": 8782,
    "Ġparenting": 8783,
    "Ġtyping": 8784,
    "Ġfallen": 8785,
    "ĠShanghai": 8786,
    "Ġdestiny": 8787,
    "Ġstepped": 8788,
    "Ġmarg": 8789,
    "Ġmedication": 8790,
    "Ġblindness": 8791,
    "Ġprimitive": 8792,
    "Ġecological": 8793,
    "Ġsmells": 8794,
    "Ġdrops": 8795,
    "laim": 8796,
    "Ġmagnet": 8797,
    "Ġresponding": 8798,
    "Ġshocked": 8799,
    "Ġclassrooms": 8800,
    "Ġteenage": 8801,
    "Ġpigs": 8802,
    "Ġguns": 8803,
    "Ġcooperate": 8804,
    "Ġbullet": 8805,
    "Ġelementary": 8806,
    "Ġtransmission": 8807,
    "Ġsimplest": 8808,
    "Ġinstalled": 8809,
    "Ġgods": 8810,
    "Ġjuice": 8811,
    "itzer": 8812,
    "Ġoverwhelmed": 8813,
    "Ġestimates": 8814,
    "ĠTEDTalks": 8815,
    "iatric": 8816,
    "Ġdesperately": 8817,
    "Ġcorrespond": 8818,
    "ĠIceland": 8819,
    "Ġexcellent": 8820,
    "Ġlifespan": 8821,
    "Ġpyramid": 8822,
    "Ġlungs": 8823,
    "Ġmarathon": 8824,
    "Ġglimpse": 8825,
    "Ġmycelium": 8826,
    "cyclop": 8827,
    "BA": 8828,
    "BC": 8829,
    "BI": 8830,
    "De": 8831,
    "Ne": 8832,
    "TED": 8833,
    "away": 8834,
    "born": 8835,
    "cure": 8836,
    "effic": 8837,
    "gence": 8838,
    "gression": 8839,
    "nes": 8840,
    "uke": 8841,
    "uber": 8842,
    "via": 8843,
    "Ġties": 8844,
    "Ġwires": 8845,
    "Ġsib": 8846,
    "eron": 8847,
    "Ġbure": 8848,
    "Ġfate": 8849,
    "Ġfits": 8850,
    "Ġdop": 8851,
    "Ġdys": 8852,
    "Ġdumb": 8853,
    "arry": 8854,
    "Ġgorgeous": 8855,
    "icit": 8856,
    "Ġnest": 8857,
    "urger": 8858,
    "Ġstom": 8859,
    "Ġstaring": 8860,
    "Ġstunning": 8861,
    "seen": 8862,
    "irts": 8863,
    "star": 8864,
    "Ġsew": 8865,
    "Ġshy": 8866,
    "Ġheal": 8867,
    "Ġchess": 8868,
    "Ġdear": 8869,
    "Ġproven": 8870,
    "Ġconvey": 8871,
    "Ġalle": 8872,
    "Ġalign": 8873,
    "Ġintensive": 8874,
    "ĠColl": 8875,
    "ĠCoke": 8876,
    "agos": 8877,
    "Ġexplicit": 8878,
    "ĠBob": 8879,
    "ĠHi": 8880,
    "ĠHong": 8881,
    "ĠEth": 8882,
    "Ġcliff": 8883,
    "Ġprose": 8884,
    "ĠDoes": 8885,
    "Ġcoinc": 8886,
    "berry": 8887,
    "Ġambit": 8888,
    "ĠRock": 8889,
    "ĠWatson": 8890,
    "ĠJuly": 8891,
    "neys": 8892,
    "Ġtrace": 8893,
    "Ġapps": 8894,
    "Ġracing": 8895,
    "Ġcriter": 8896,
    "Ġreliable": 8897,
    "Ġstranger": 8898,
    "ĠStud": 8899,
    "Ġmode": 8900,
    "conomic": 8901,
    "Ġ55": 8902,
    "Ġsubt": 8903,
    "ĠVictor": 8904,
    "Ġsignature": 8905,
    "otton": 8906,
    "Ġprofits": 8907,
    "Ġadvent": 8908,
    "Ġmessy": 8909,
    "Ġinvested": 8910,
    "Ġsafely": 8911,
    "Ġfriendly": 8912,
    "Ġpsychologist": 8913,
    "Ġsurviv": 8914,
    "Ġcycles": 8915,
    "Ġdeadly": 8916,
    "Ġsumm": 8917,
    "Ġcamps": 8918,
    "Ġfireflies": 8919,
    "Ġworthy": 8920,
    "Ġtransforming": 8921,
    "Ġmarry": 8922,
    "Ġmarvel": 8923,
    "Ġrepresentative": 8924,
    "Ġchallenged": 8925,
    "Ġmechanics": 8926,
    "Ġbacterial": 8927,
    "Ġgraphics": 8928,
    "Ġsweat": 8929,
    "Ġpanel": 8930,
    "Ġdetermines": 8931,
    "Ġlandscapes": 8932,
    "Ġportion": 8933,
    "Ġachievement": 8934,
    "Whereas": 8935,
    "Ġhonestly": 8936,
    "Ġcovering": 8937,
    "Ġnuts": 8938,
    "Ġhistorically": 8939,
    "Ġsexuality": 8940,
    "Ġingen": 8941,
    "Should": 8942,
    "ĠScot": 8943,
    "ĠConf": 8944,
    "Ġexerc": 8945,
    "ĠEverybody": 8946,
    "Ġsimpler": 8947,
    "Ġchannels": 8948,
    "Ġconcentration": 8949,
    "forestation": 8950,
    "ulses": 8951,
    "Ġcourageous": 8952,
    "Ġtelescopes": 8953,
    "ĠWilliam": 8954,
    "ĠTurk": 8955,
    "Ġinitially": 8956,
    "Ġcandidates": 8957,
    "Ġcybercr": 8958,
    "Ġelectrodes": 8959,
    "Ġdiscipline": 8960,
    "Ġgesture": 8961,
    "ĠAtlantic": 8962,
    "Ġportrait": 8963,
    "Ġoccasionally": 8964,
    "Ġabandoned": 8965,
    "Ġmysterious": 8966,
    "Ġorchestra": 8967,
    "rasound": 8968,
    "Ġhallucinations": 8969,
    "Ġcabin": 8970,
    "Ġsupermarket": 8971,
    "Ġexpansion": 8972,
    "Ġlinear": 8973,
    "Ġaggressive": 8974,
    "ĠCatholic": 8975,
    "epherd": 8976,
    "Af": 8977,
    "Tw": 8978,
    "aeda": 8979,
    "ca": 8980,
    "cost": 8981,
    "oir": 8982,
    "rhythm": 8983,
    "spring": 8984,
    "uan": 8985,
    "Ġtheore": 8986,
    "Ġtheories": 8987,
    "Ġsons": 8988,
    "Ġslic": 8989,
    "itated": 8990,
    "osc": 8991,
    "Ġmapping": 8992,
    "Ġpills": 8993,
    "Ġfancy": 8994,
    "orage": 8995,
    "usal": 8996,
    "usiness": 8997,
    "Ġrewards": 8998,
    "Ġstake": 8999,
    "ching": 9000,
    "changing": 9001,
    "iful": 9002,
    "Ġabilities": 9003,
    "Ġseal": 9004,
    "Ġshit": 9005,
    "Ġworms": 9006,
    "ules": 9007,
    "Ġcham": 9008,
    "Ġsomeday": 9009,
    "Ġconqu": 9010,
    "Ġcongest": 9011,
    "ĠSand": 9012,
    "elp": 9013,
    "ĠMag": 9014,
    "Ġworkforce": 9015,
    "Ġcompreh": 9016,
    "Ġleverage": 9017,
    "ĠBre": 9018,
    "ĠBell": 9019,
    "ĠHollywood": 9020,
    "Ġagents": 9021,
    "ĠGlobal": 9022,
    "Ġclues": 9023,
    "Ġclient": 9024,
    "ĠPower": 9025,
    "Ġimpression": 9026,
    "looking": 9027,
    "Ġcontrary": 9028,
    "ĠRam": 9029,
    "Ġboost": 9030,
    "Ġboots": 9031,
    "ĠWait": 9032,
    "Ġshower": 9033,
    "otherap": 9034,
    "ĠJac": 9035,
    "Ġwrapped": 9036,
    "Ġscales": 9037,
    "Ġfindings": 9038,
    "weight": 9039,
    "Ġraises": 9040,
    "Ġcrush": 9041,
    "Ġcriminals": 9042,
    "ava": 9043,
    "Ġbuilds": 9044,
    "Ġguilty": 9045,
    "Ġobese": 9046,
    "Ġbelieving": 9047,
    "Ġkeys": 9048,
    "Ġcarries": 9049,
    "Ġinterven": 9050,
    "Ġstrike": 9051,
    "plus": 9052,
    "Ġmines": 9053,
    "Ġgrave": 9054,
    "Ġgrace": 9055,
    "Ġgrabb": 9056,
    "Ġlake": 9057,
    "Ġbush": 9058,
    "Ġ46": 9059,
    "Ġbio": 9060,
    "Ġvisually": 9061,
    "Ġpasses": 9062,
    "ribly": 9063,
    "Ġmomentum": 9064,
    "Ġinterestingly": 9065,
    "Ġstopping": 9066,
    "Ġbadly": 9067,
    "Ġbreeding": 9068,
    "Ġcheat": 9069,
    "Ġdeepest": 9070,
    "Ġengineered": 9071,
    "ometer": 9072,
    "ĠShakespeare": 9073,
    "Ġredesign": 9074,
    "Ġpsychologists": 9075,
    "Ġsuggestion": 9076,
    "Ġbrands": 9077,
    "Ġpropose": 9078,
    "Ġpropag": 9079,
    "Ġproposal": 9080,
    "Ġimmort": 9081,
    "Nothing": 9082,
    "Ġcompeting": 9083,
    "Ġcompetitive": 9084,
    "ĠLeon": 9085,
    "Ġinstitutional": 9086,
    "Ġdamaged": 9087,
    "Ġappearance": 9088,
    "Ġenjo": 9089,
    "Ġwildlife": 9090,
    "Ġfraction": 9091,
    "Ġdiscovering": 9092,
    "Ġcorrupt": 9093,
    "Ġinterviewed": 9094,
    "Ġphysicians": 9095,
    "ĠStewart": 9096,
    "Ġinjured": 9097,
    "Ġresistant": 9098,
    "Ġgentleman": 9099,
    "Ġbatteries": 9100,
    "thesia": 9101,
    "Ġcontribution": 9102,
    "Ġtumors": 9103,
    "Ġtalents": 9104,
    "Ġshelf": 9105,
    "Ġpursue": 9106,
    "Ġexhibit": 9107,
    "Ġreplaced": 9108,
    "Ġmanipulate": 9109,
    "Ġmushrooms": 9110,
    "Ġhorizon": 9111,
    "Ġhorizont": 9112,
    "Ġbombsight": 9113,
    "standing": 9114,
    "Ġembarrassing": 9115,
    "Ġmimic": 9116,
    "Ġrecycled": 9117,
    "Ġneutral": 9118,
    "Ġdisturbing": 9119,
    "Ġintriguing": 9120,
    "Ġcounsel": 9121,
    "Ġpermission": 9122,
    "Ġlegislation": 9123,
    "ĠTasmanian": 9124,
    "Ġhelicopter": 9125,
    "Ġluxury": 9126,
    "Ġunhappy": 9127,
    "Ġincorpor": 9128,
    "Ġpigeon": 9129,
    "ĠAbraham": 9130,
    "Ġsimultaneously": 9131,
    "ĠDetroit": 9132,
    "Ġgenocide": 9133,
    "Ġmagnificent": 9134,
    "Ġambitious": 9135,
    "Ġcriteria": 9136,
    "CH": 9137,
    "Ke": 9138,
    "NC": 9139,
    "Never": 9140,
    "Same": 9141,
    "Until": 9142,
    "ao": 9143,
    "cation": 9144,
    "kind": 9145,
    "mun": 9146,
    "rit": 9147,
    "rats": 9148,
    "sized": 9149,
    "Ġtie": 9150,
    "Ġawe": 9151,
    "Ġsne": 9152,
    "Ġsale": 9153,
    "erals": 9154,
    "Ġbills": 9155,
    "Ġhated": 9156,
    "arge": 9157,
    "Ġgaps": 9158,
    "icient": 9159,
    "ĠIBM": 9160,
    "uts": 9161,
    "Ġrender": 9162,
    "urable": 9163,
    "theless": 9164,
    "usting": 9165,
    "Ġjan": 9166,
    "Ġjar": 9167,
    "Ġdecent": 9168,
    "Ġdeaf": 9169,
    "Ġrose": 9170,
    "Ġven": 9171,
    "Ġventure": 9172,
    "Ġoutd": 9173,
    "Ġoutrage": 9174,
    "inking": 9175,
    "Ġspan": 9176,
    "ĠSer": 9177,
    "Ġseeking": 9178,
    "Ġupside": 9179,
    "ĠCont": 9180,
    "ĠMat": 9181,
    "ĠMaybe": 9182,
    "arest": 9183,
    "acher": 9184,
    "ĠTib": 9185,
    "Ġbuff": 9186,
    "loved": 9187,
    "ĠLou": 9188,
    "Ġsyring": 9189,
    "Ġrealm": 9190,
    "aken": 9191,
    "Ġprevention": 9192,
    "Ġoffspring": 9193,
    "Ġgenomes": 9194,
    "onsider": 9195,
    "Ġhumanitarian": 9196,
    "Ġtracks": 9197,
    "Ġsystematic": 9198,
    "Ġsystematically": 9199,
    "Ġcolored": 9200,
    "Ġflavor": 9201,
    "Ġflows": 9202,
    "Ġ37": 9203,
    "Ġinstruction": 9204,
    "Ġmodest": 9205,
    "Ġ1900": 9206,
    "Ġplanned": 9207,
    "Ġlawn": 9208,
    "Ġrecre": 9209,
    "Ġreclaim": 9210,
    "Ġreplicate": 9211,
    "Ġhardest": 9212,
    "Ġcapability": 9213,
    "Ġheading": 9214,
    "ierra": 9215,
    "Ġreasonable": 9216,
    "Ġ2002": 9217,
    "ĠNews": 9218,
    "ĠNewton": 9219,
    "Ġanswering": 9220,
    "Ġfreezing": 9221,
    "ccoli": 9222,
    "Ġmotors": 9223,
    "Ġdemocrat": 9224,
    "Ġterrified": 9225,
    "unting": 9226,
    "Ġversions": 9227,
    "computer": 9228,
    "Ġstatistic": 9229,
    "Ġharbor": 9230,
    "Ġvacuum": 9231,
    "Ġtruths": 9232,
    "Ġimmers": 9233,
    "ĠZimb": 9234,
    "Ġstraw": 9235,
    "Ġdefining": 9236,
    "Ġmicrophone": 9237,
    "Ġcompassionate": 9238,
    "Ġconsciously": 9239,
    "Ġepis": 9240,
    "Ġauthorities": 9241,
    "Ġwebsites": 9242,
    "Ġdetection": 9243,
    "Ġconcerns": 9244,
    "ĠGeographic": 9245,
    "ĠAmy": 9246,
    "Ġfragment": 9247,
    "imps": 9248,
    "Ġenjoyed": 9249,
    "Ġphysicists": 9250,
    "Ġcustomer": 9251,
    "Ġannual": 9252,
    "Ġdoubled": 9253,
    "Ġsurveillance": 9254,
    "Ġcruel": 9255,
    "lihood": 9256,
    "Ġregularly": 9257,
    "Really": 9258,
    "Ġsucceeded": 9259,
    "Ġastronaut": 9260,
    "Ġgrains": 9261,
    "Ġlimitations": 9262,
    "ĠJeff": 9263,
    "Ġconducted": 9264,
    "Ġextended": 9265,
    "Ġminimum": 9266,
    "Ġdolphin": 9267,
    "Ġinevit": 9268,
    "Ġreproduce": 9269,
    "Ġfrightening": 9270,
    "Ġlabeled": 9271,
    "Ġobserved": 9272,
    "Ġencouraged": 9273,
    "ĠSaturn": 9274,
    "Ġacknowledge": 9275,
    "ĠMontana": 9276,
    "Ġcontroversial": 9277,
    "Ġbeetles": 9278,
    "Ġtweet": 9279,
    "Ġabsorb": 9280,
    "ĠLaden": 9281,
    "Ġtroops": 9282,
    "ĠSingapore": 9283,
    "Ġdynamics": 9284,
    "Ġaesthetic": 9285,
    "Ġexpedition": 9286,
    "ĠTanzan": 9287,
    "Ġgrasp": 9288,
    "ĠQueen": 9289,
    "Ġgrocery": 9290,
    "Ġhybrid": 9291,
    "Ġcylinder": 9292,
    "ĠVirginia": 9293,
    "Ġdowntown": 9294,
    "ĠSouthern": 9295,
    "Ġtrajectory": 9296,
    "Ġthreshold": 9297,
    "100": 9298,
    "Bill": 9299,
    "Both": 9300,
    "Dr": 9301,
    "MS": 9302,
    "cin": 9303,
    "fire": 9304,
    "hal": 9305,
    "lan": 9306,
    "lers": 9307,
    "person": 9308,
    "rist": 9309,
    "world": 9310,
    "yer": 9311,
    "Ã¡": 9312,
    "Ġ+": 9313,
    "Ġaunt": 9314,
    "inem": 9315,
    "Ġward": 9316,
    "retty": 9317,
    "Ġcube": 9318,
    "itative": 9319,
    "Ġblob": 9320,
    "Ġhired": 9321,
    "Ġdirt": 9322,
    "orious": 9323,
    "Ġinex": 9324,
    "Ġinmates": 9325,
    "oting": 9326,
    "Ġgel": 9327,
    "Ġnerves": 9328,
    "Ġbend": 9329,
    "Ġbeef": 9330,
    "Ġrevel": 9331,
    "ima": 9332,
    "imag": 9333,
    "urday": 9334,
    "Ġstorage": 9335,
    "erent": 9336,
    "Ġshout": 9337,
    "Ġshaking": 9338,
    "tering": 9339,
    "Ġuseless": 9340,
    "Ġlikelihood": 9341,
    "umble": 9342,
    "Ġvary": 9343,
    "Ġvivid": 9344,
    "ĠAlp": 9345,
    "ĠAudience": 9346,
    "Its": 9347,
    "ieve": 9348,
    "iece": 9349,
    "ĠSpe": 9350,
    "ĠSee": 9351,
    "Ġseemingly": 9352,
    "Ġactively": 9353,
    "ĠCur": 9354,
    "ĠMary": 9355,
    "ĠMike": 9356,
    "active": 9357,
    "ĠBoy": 9358,
    "ĠTun": 9359,
    "ĠTime": 9360,
    "Ġunst": 9361,
    "Ġtwins": 9362,
    "Ġoverse": 9363,
    "Ġdisasters": 9364,
    "Ġpole": 9365,
    "ĠLee": 9366,
    "Ġacids": 9367,
    "Ġresolution": 9368,
    "Ġheritage": 9369,
    "ĠWil": 9370,
    "Ġgramm": 9371,
    "ĠOl": 9372,
    "Ġincl": 9373,
    "ĠUSA": 9374,
    "Ġcounting": 9375,
    "Ġtechnically": 9376,
    "ĠKy": 9377,
    "ails": 9378,
    "Ġhelpless": 9379,
    "Ġunderstands": 9380,
    "Ġrelation": 9381,
    "Ġcellular": 9382,
    "Ġminus": 9383,
    "Ġcomputational": 9384,
    "Ġfarms": 9385,
    "Ġprojections": 9386,
    "version": 9387,
    "Ġbiologist": 9388,
    "pril": 9389,
    "Ġinfl": 9390,
    "Ġinflation": 9391,
    "Ġnightm": 9392,
    "Ġcheating": 9393,
    "Ġcontinuous": 9394,
    "Ġadvances": 9395,
    "bsolut": 9396,
    "Ġcaves": 9397,
    "Ġfundra": 9398,
    "Ġexpecting": 9399,
    "Ġinvestments": 9400,
    "ĠAristotle": 9401,
    "Ġillusions": 9402,
    "Ġprediction": 9403,
    "Ġtempor": 9404,
    "Ġcalc": 9405,
    "Ġsquee": 9406,
    "Ġsummar": 9407,
    "anna": 9408,
    "Ġvacation": 9409,
    "Ġcivilizations": 9410,
    "Ġvolcan": 9411,
    "Ġplanted": 9412,
    "Ġmedicines": 9413,
    "Ġperiods": 9414,
    "Ġmethane": 9415,
    "Ġextraordinarily": 9416,
    "Although": 9417,
    "Ġauthoritarian": 9418,
    "Ġassumed": 9419,
    "Ġassumption": 9420,
    "Ġjudgments": 9421,
    "Ġearliest": 9422,
    "Ġraped": 9423,
    "Ġreflection": 9424,
    "Ġrandomly": 9425,
    "faction": 9426,
    "Ġdiscoveries": 9427,
    "Ġlogical": 9428,
    "Ġtherapies": 9429,
    "Ġvoted": 9430,
    "Ġepidem": 9431,
    "uilding": 9432,
    "ĠEgyptian": 9433,
    "Ġopinions": 9434,
    "Ġsubstant": 9435,
    "Ġsculptures": 9436,
    "Ġincentive": 9437,
    "Ġconstructed": 9438,
    "Ġlectures": 9439,
    "Ġoverwhelming": 9440,
    "Ġmaker": 9441,
    "Ġencouraging": 9442,
    "Ġregardless": 9443,
    "ĠSaturday": 9444,
    "Ġestablished": 9445,
    "driven": 9446,
    "Ġbribe": 9447,
    "Ġbench": 9448,
    "Ġabundance": 9449,
    "Ġiconic": 9450,
    "Ġstriking": 9451,
    "ĠSilicon": 9452,
    "Ġsupplies": 9453,
    "aghetti": 9454,
    "Ġhierarchy": 9455,
    "ongevity": 9456,
    "Ġlonely": 9457,
    "Ġrecession": 9458,
    "Ġrehabilitation": 9459,
    "Ġclothing": 9460,
    "ĠCourt": 9461,
    "Ġdopamine": 9462,
    "Ġstomach": 9463,
    "otherapy": 9464,
    "BJ": 9465,
    "Get": 9466,
    "WK": 9467,
    "iologist": 9468,
    "iatr": 9469,
    "log": 9470,
    "nie": 9471,
    "tent": 9472,
    "uction": 9473,
    "viron": 9474,
    "zler": 9475,
    "Ġah": 9476,
    "inth": 9477,
    "income": 9478,
    "Ġwins": 9479,
    "atics": 9480,
    "atts": 9481,
    "Ġhob": 9482,
    "orr": 9483,
    "Ġindu": 9484,
    "Ġlongevity": 9485,
    "arl": 9486,
    "arians": 9487,
    "ican": 9488,
    "aying": 9489,
    "igma": 9490,
    "Ġstair": 9491,
    "Ġforb": 9492,
    "amil": 9493,
    "olen": 9494,
    "Ġships": 9495,
    "Ġshifts": 9496,
    "adian": 9497,
    "ulance": 9498,
    "Ġjaw": 9499,
    "Ġloose": 9500,
    "inda": 9501,
    "Ġspare": 9502,
    "Ġspaghetti": 9503,
    "Ġtrapped": 9504,
    "herom": 9505,
    "Ġcompound": 9506,
    "Ġenzy": 9507,
    "ĠBu": 9508,
    "achel": 9509,
    "ĠTim": 9510,
    "ĠPop": 9511,
    "Ġarbit": 9512,
    "rypt": 9513,
    "Ġdisability": 9514,
    "Ġkindness": 9515,
    "ruption": 9516,
    "elled": 9517,
    "ĠRem": 9518,
    "Ġherd": 9519,
    "ĠWatch": 9520,
    "ĠWright": 9521,
    "Ġprev": 9522,
    "athem": 9523,
    "Ġincar": 9524,
    "Ġbridges": 9525,
    "Ġinvolving": 9526,
    "ĠKir": 9527,
    "ewis": 9528,
    "Ġhighway": 9529,
    "aza": 9530,
    "Ġmeditation": 9531,
    "Ġcares": 9532,
    "Ġcomputation": 9533,
    "Ġbiod": 9534,
    "Ġvisions": 9535,
    "Ġviscer": 9536,
    "Ġcurves": 9537,
    "Ġeasiest": 9538,
    "ographical": 9539,
    "Ġamazed": 9540,
    "Ġselfish": 9541,
    "Ġretail": 9542,
    "Ġsecular": 9543,
    "Ġapproved": 9544,
    "Ġnamely": 9545,
    "Ġempowered": 9546,
    "Ġwinds": 9547,
    "Ġmicr": 9548,
    "Ġcuts": 9549,
    "Ġcalm": 9550,
    "Ġcooling": 9551,
    "Ġapproaching": 9552,
    "Ġcampus": 9553,
    "Ġorigins": 9554,
    "Ġfavorites": 9555,
    "Ġproposition": 9556,
    "Ġtouching": 9557,
    "Ġultrasound": 9558,
    "Ġreceiving": 9559,
    "Ġattacked": 9560,
    "Stud": 9561,
    "Without": 9562,
    "ammad": 9563,
    "Ġfantasy": 9564,
    "ĠDevelop": 9565,
    "Ġremarkably": 9566,
    "Ġ1999": 9567,
    "Ġinfections": 9568,
    "Ġdiscussions": 9569,
    "Ġdetector": 9570,
    "Ġuniverses": 9571,
    "Ġtemperatures": 9572,
    "ennis": 9573,
    "Ġcalculated": 9574,
    "Ġassociate": 9575,
    "Anyone": 9576,
    "Ġphenomena": 9577,
    "Ġwooden": 9578,
    "Ġinjuries": 9579,
    "Ġdocumentary": 9580,
    "Ġfatal": 9581,
    "ĠMexican": 9582,
    "Ġblogs": 9583,
    "Ġswitched": 9584,
    "Ġcorrectly": 9585,
    "Ġreplacement": 9586,
    "Ġfrequently": 9587,
    "Ġinstallation": 9588,
    "ĠMoore": 9589,
    "Ġpartnership": 9590,
    "Ġmillenn": 9591,
    "Ġaccompan": 9592,
    "Ġbelongs": 9593,
    "Ġintrins": 9594,
    "Ġinformed": 9595,
    "Ġtoilets": 9596,
    "Ġingredient": 9597,
    "Ġenemies": 9598,
    "Ġscenes": 9599,
    "ĠParkinson": 9600,
    "burg": 9601,
    "ĠCoast": 9602,
    "ĠGreek": 9603,
    "Ġvocal": 9604,
    "Ġassignment": 9605,
    "Ġrejected": 9606,
    "oliath": 9607,
    "Ġbeetle": 9608,
    "ĠHawai": 9609,
    "Ġtolerance": 9610,
    "ĠGandhi": 9611,
    "Ġimpressive": 9612,
    "Ġtattoo": 9613,
    "ĠTeszler": 9614,
    "ĠDelhi": 9615,
    "Ġnonviolent": 9616,
    "Ġcatastroph": 9617,
    "Ġchimpanzees": 9618,
    "Ġmurder": 9619,
    "Ġmonitoring": 9620,
    "abulary": 9621,
    "ĠBrooklyn": 9622,
    "Ġimprovisation": 9623,
    "CA": 9624,
    "Human": 9625,
    "Mus": 9626,
    "Mark": 9627,
    "PT": 9628,
    "Rather": 9629,
    "TS": 9630,
    "aire": 9631,
    "ja": 9632,
    "mate": 9633,
    "nik": 9634,
    "oen": 9635,
    "page": 9636,
    "rr": 9637,
    "uously": 9638,
    "Ġts": 9639,
    "Ġturb": 9640,
    "Ġtangible": 9641,
    "Ġthus": 9642,
    "inery": 9643,
    "reens": 9644,
    "Ġoven": 9645,
    "Ġbam": 9646,
    "Ġbang": 9647,
    "Ġbother": 9648,
    "Ġmast": 9649,
    "Ġmask": 9650,
    "Ġhint": 9651,
    "Ġtoast": 9652,
    "Ġpulse": 9653,
    "Ġpherom": 9654,
    "orough": 9655,
    "Ġlists": 9656,
    "otect": 9657,
    "Ġyeast": 9658,
    "asking": 9659,
    "Ġnode": 9660,
    "Ġbeloved": 9661,
    "enter": 9662,
    "Ġstolen": 9663,
    "rove": 9664,
    "opus": 9665,
    "storm": 9666,
    "olum": 9667,
    "thals": 9668,
    "Ġseas": 9669,
    "Ġshred": 9670,
    "Ġshepherd": 9671,
    "adium": 9672,
    "illas": 9673,
    "ilation": 9674,
    "Ġframes": 9675,
    "Ġchains": 9676,
    "Ġrh": 9677,
    "Ġrip": 9678,
    "Ġorang": 9679,
    "Ġknife": 9680,
    "ortion": 9681,
    "ĠCamp": 9682,
    "ĠMur": 9683,
    "ĠMama": 9684,
    "ogy": 9685,
    "aste": 9686,
    "Ġworkplace": 9687,
    "iza": 9688,
    "Ġenabled": 9689,
    "Ġexposure": 9690,
    "ĠBosn": 9691,
    "Ġmanner": 9692,
    "Ġmanaging": 9693,
    "ĠHall": 9694,
    "ĠHuman": 9695,
    "aches": 9696,
    "achine": 9697,
    "ĠTre": 9698,
    "ĠTah": 9699,
    "ĠNelson": 9700,
    "Ġoverhead": 9701,
    "Ġcoverage": 9702,
    "Ġdisg": 9703,
    "ensus": 9704,
    "Ġroles": 9705,
    "ĠLin": 9706,
    "ulty": 9707,
    "ĠRand": 9708,
    "Ġbond": 9709,
    "ĠWo": 9710,
    "Ġrealization": 9711,
    "Ġideology": 9712,
    "Ġprepar": 9713,
    "ĠJord": 9714,
    "Ġapples": 9715,
    "Ġblah": 9716,
    "Ġ350": 9717,
    "Ġartic": 9718,
    "Ġentry": 9719,
    "Ġentering": 9720,
    "Ġstrings": 9721,
    "Ġattitudes": 9722,
    "Ġsmallest": 9723,
    "Ġgenerosity": 9724,
    "Ġ44": 9725,
    "Ġsubm": 9726,
    "Ġpassive": 9727,
    "Ġinfer": 9728,
    "Ġformat": 9729,
    "ograms": 9730,
    "Ġvalley": 9731,
    "Ġpolitician": 9732,
    "Ġprogrammers": 9733,
    "Ġfollows": 9734,
    "Ġempath": 9735,
    "ĠArgent": 9736,
    "Ġpracticing": 9737,
    "Ġbroccoli": 9738,
    "Ġcommunicating": 9739,
    "Ġfilmmaker": 9740,
    "Ġwinner": 9741,
    "Ġconvicted": 9742,
    "Ġapolog": 9743,
    "Ġprofessors": 9744,
    "Ġpredictable": 9745,
    "Ġlifel": 9746,
    "Ġcrossed": 9747,
    "Ġunfair": 9748,
    "ĠSwitzer": 9749,
    "Ġ2012": 9750,
    "Ġnarratives": 9751,
    "Ġsignificance": 9752,
    "Ġhopeless": 9753,
    "fram": 9754,
    "Ġcorrel": 9755,
    "ylon": 9756,
    "Ġpenis": 9757,
    "Ġtribal": 9758,
    "Ġ1984": 9759,
    "Ġworrying": 9760,
    "ĠSpain": 9761,
    "Ġdestroying": 9762,
    "Ġintegrate": 9763,
    "ĠClint": 9764,
    "Ġoccurring": 9765,
    "ĠiPad": 9766,
    "ĠCharlie": 9767,
    "Ġscanning": 9768,
    "ĠMinistry": 9769,
    "Ġdominated": 9770,
    "Ġunderest": 9771,
    "copic": 9772,
    "Ġrescued": 9773,
    "gradu": 9774,
    "Ġisolation": 9775,
    "Ġprivileged": 9776,
    "Ġconfronted": 9777,
    "Ġestimated": 9778,
    "Ġautonomy": 9779,
    "Ġaccomplish": 9780,
    "Ġaccomplished": 9781,
    "Ġvocabulary": 9782,
    "Ġelevator": 9783,
    "vasive": 9784,
    "Ġeliminate": 9785,
    "Ġrefrigerator": 9786,
    "Ġchromosomes": 9787,
    "ĠFreedom": 9788,
    "Adam": 9789,
    "Ġpleasant": 9790,
    "Ġinhib": 9791,
    "ĠDisney": 9792,
    "Ġglacier": 9793,
    "Ġelegant": 9794,
    "ĠWolfram": 9795,
    "Ġjellyfish": 9796,
    "Ġjewel": 9797,
    "ĠProfessor": 9798,
    "cyclopedia": 9799,
    "ĠTunis": 9800,
    "Ġoverseas": 9801,
    "ĠSwitzerland": 9802,
    "Acc": 9803,
    "During": 9804,
    "Half": 9805,
    "New": 9806,
    "Res": 9807,
    "Ten": 9808,
    "Under": 9809,
    "gian": 9810,
    "lor": 9811,
    "mind": 9812,
    "pos": 9813,
    "rin": 9814,
    "Ġwrest": 9815,
    "Ġol": 9816,
    "Ġcable": 9817,
    "Ġcope": 9818,
    "Ġbats": 9819,
    "Ġmild": 9820,
    "Ġmapped": 9821,
    "Ġmesh": 9822,
    "Ġhut": 9823,
    "Ġpad": 9824,
    "Ġdens": 9825,
    "Ġdile": 9826,
    "Ġdrew": 9827,
    "Ġinch": 9828,
    "aron": 9829,
    "oton": 9830,
    "ĠIre": 9831,
    "Ġeco": 9832,
    "Ġislands": 9833,
    "Ġrent": 9834,
    "ctive": 9835,
    "Ġhamb": 9836,
    "urning": 9837,
    "ched": 9838,
    "chron": 9839,
    "sex": 9840,
    "Ġwasted": 9841,
    "aman": 9842,
    "Ġcancers": 9843,
    "Ġcanvas": 9844,
    "Ġshore": 9845,
    "Ġshots": 9846,
    "ado": 9847,
    "ulative": 9848,
    "ilated": 9849,
    "Ġfruits": 9850,
    "Ġje": 9851,
    "Ġjet": 9852,
    "Ġdeforestation": 9853,
    "umbs": 9854,
    "Ġlogo": 9855,
    "Ġknees": 9856,
    "ĠApril": 9857,
    "Ġintact": 9858,
    "Ġintended": 9859,
    "ĠSierra": 9860,
    "Ġplates": 9861,
    "Whatever": 9862,
    "ĠMet": 9863,
    "ĠMond": 9864,
    "izab": 9865,
    "Ġcomparing": 9866,
    "actic": 9867,
    "acks": 9868,
    "Ġtables": 9869,
    "Ġlever": 9870,
    "ĠBh": 9871,
    "udi": 9872,
    "ĠHon": 9873,
    "Ġunw": 9874,
    "Ġunle": 9875,
    "ĠDes": 9876,
    "ĠNether": 9877,
    "Ġsheer": 9878,
    "ĠLine": 9879,
    "Ġaccent": 9880,
    "Ġampl": 9881,
    "ĠJones": 9882,
    "fulness": 9883,
    "ĠUs": 9884,
    "Ġscrew": 9885,
    "Ġobso": 9886,
    "Ġ38": 9887,
    "Ġbasking": 9888,
    "ĠItalian": 9889,
    "Ġconsp": 9890,
    "ergy": 9891,
    "Ġplanes": 9892,
    "Ġ48": 9893,
    "Ġregulations": 9894,
    "Ġpassions": 9895,
    "Ġconfig": 9896,
    "Ġcorners": 9897,
    "ĠVery": 9898,
    "ĠAfricans": 9899,
    "ĠTEDGlobal": 9900,
    "Ġdefault": 9901,
    "Ġresearching": 9902,
    "Ġaddiction": 9903,
    "Ġsidewalk": 9904,
    "Ġequations": 9905,
    "Ġcondom": 9906,
    "Ġamazingly": 9907,
    "Ġdepos": 9908,
    "ĠArthur": 9909,
    "Ġnorms": 9910,
    "Ġliteracy": 9911,
    "Ġzones": 9912,
    "Someone": 9913,
    "Ġsquared": 9914,
    "ustainable": 9915,
    "Ġoccurs": 9916,
    "Ġobsession": 9917,
    "Ġmeasurements": 9918,
    "Ġdestination": 9919,
    "Ġawake": 9920,
    "Ġtexture": 9921,
    "Ġpaths": 9922,
    "Ġfeminist": 9923,
    "Ġgraphs": 9924,
    "Ġclosest": 9925,
    "Ġpanic": 9926,
    "Ġpancreat": 9927,
    "Ġsched": 9928,
    "Ġthrive": 9929,
    "Ġreflected": 9930,
    "Ġrolled": 9931,
    "Ġresponded": 9932,
    "Ġdiagnost": 9933,
    "Ġparks": 9934,
    "Ġblocking": 9935,
    "Ġhonesty": 9936,
    "Being": 9937,
    "Ġshifted": 9938,
    "Ġautomobile": 9939,
    "Ġwoods": 9940,
    "Ġdocumented": 9941,
    "Ġmutations": 9942,
    "Ġjournalists": 9943,
    "ĠColumb": 9944,
    "Ġtension": 9945,
    "Ġphilosophical": 9946,
    "Ġattracted": 9947,
    "Ġaccuracy": 9948,
    "Ġembracing": 9949,
    "Ġboundary": 9950,
    "Ġquantities": 9951,
    "Ġaltered": 9952,
    "Ġurge": 9953,
    "Ġadopted": 9954,
    "Ġsymptom": 9955,
    "uhammad": 9956,
    "Ġsanitation": 9957,
    "grade": 9958,
    "Ġlaptops": 9959,
    "Ġinterpretation": 9960,
    "Ġconsistent": 9961,
    "Ġspinning": 9962,
    "Ġprocedures": 9963,
    "Ġmetabolism": 9964,
    "Ġcousins": 9965,
    "Ġmentor": 9966,
    "Ġregenerate": 9967,
    "inguish": 9968,
    "Ġpedest": 9969,
    "Ġbranches": 9970,
    "Ġchromosome": 9971,
    "opardy": 9972,
    "Ġpuppet": 9973,
    "Similar": 9974,
    "enhagen": 9975,
    "thetics": 9976,
    "ECD": 9977,
    "ĠNeanderthals": 9978,
    "Turns": 9979,
    "ĠPalestinian": 9980,
    "Ġodor": 9981,
    "Ġdiscrimination": 9982,
    "ĠLebanon": 9983,
    "ĠCambodia": 9984,
    "Ġmanifest": 9985,
    "Ġoctopus": 9986,
    "Ġsiblings": 9987,
    "Ġbureauc": 9988,
    "ĠEthiop": 9989,
    "Ġcongestion": 9990,
    "ĠTanzania": 9991,
    "bsolutely": 9992,
    "Ġcalculation": 9993,
    "Ġincarcer": 9994,
    "Ġbiodiversity": 9995,
    "Ġtsun": 9996,
    "Ġpreparation": 9997,
    "Ġdilem": 9998,
    "izabeth": 9999,
    "ĠNetherlands": 10000,
    "Ġpancreatic": 10001,
    "Cola": 10002,
    "Design": 10003,
    "bow": 10004,
    "da": 10005,
    "effect": 10006,
    "ikes": 10007,
    "rip": 10008,
    "tz": 10009,
    "ximately": 10010,
    "Ġtiger": 10011,
    "inent": 10012,
    "inity": 10013,
    "Ġsands": 10014,
    "Ġsizes": 10015,
    "atical": 10016,
    "erk": 10017,
    "Ġcage": 10018,
    "Ġcale": 10019,
    "isa": 10020,
    "Ġmentally": 10021,
    "Ġhurd": 10022,
    "Ġporn": 10023,
    "Ġpiles": 10024,
    "Ġfounder": 10025,
    "Ġdare": 10026,
    "Ġdating": 10027,
    "orient": 10028,
    "orters": 10029,
    "Ġyards": 10030,
    "Ġwelf": 10031,
    "Ġstadium": 10032,
    "erer": 10033,
    "roc": 10034,
    "roid": 10035,
    "ifact": 10036,
    "ammed": 10037,
    "Ġange": 10038,
    "Ġanten": 10039,
    "Ġseventh": 10040,
    "Ġshirt": 10041,
    "adel": 10042,
    "Ġcomic": 10043,
    "Ġexcess": 10044,
    "Ġchat": 10045,
    "Ġproph": 10046,
    "estone": 10047,
    "Ġloyal": 10048,
    "ĠAgain": 10049,
    "Ġsperm": 10050,
    "ĠSub": 10051,
    "ĠSky": 10052,
    "aine": 10053,
    "eman": 10054,
    "osexual": 10055,
    "abwe": 10056,
    "Ġexpon": 10057,
    "ĠBern": 10058,
    "Ġdonors": 10059,
[...]
