#version: 0.2 - Trained by `huggingface/tokenizers`
á »
Ġ t
n g
á º
Ġ c
Ġt h
Ġ ,
Ġ n
Ã ł
Ġ Ä
ĠÄ ĳ
Ġ .
Ġ a
Ġ s
Ġ l
Ġ m
Ġ b
Ġ h
Ġ v
Ġth e
Ġ w
h Ã
Ġ i
r e
Æ °
Ġ o
Ġ k
Ġ p
Ã ³
n d
Ġ g
a t
Ġ d
e r
Ġn h
i á»
Ã ´
Ġ &
Ã ¡
Ġt r
o u
n h
áº ¿
áº ¡
Æ° á»
Ġc h
á» Ļ
o s
o n
Ġt o
i ng
a n
e n
q u
Ġ ng
a p
Ġl Ãł
áº £
áº ¥
Ã´ i
o t
e s
Ġ r
Ġ f
o r
ap os
a l
Ġo f
Ġv Ãł
Ġi n
Ġth á»
Ġa nd
Ã ª
i s
e d
Ã ¬
a r
c h
i t
á»Ļ t
á» ĳ
i n
Ġc hÃ
Ġt Ã´i
á» ¯
Ġ y
Ġm á»Ļt
Ġv á»
ĠÄĳ á»
Ġc á»
º ng
Ġc Ã³
Ġk hÃ
Ġth at
o m
a y
Ãª n
áº Ń
a s
Ġc Ã¡
Ã ¢
l e
iá» ĩ
Ġ I
á»¯ ng
Ŀ i
l l
á» į
Ġy ou
v e
qu ot
Æ ¡
Ġw e
Ġ e
Ľ i
Ġnh á»¯ng
Ġw h
i c
ĠchÃ ºng
Ġcá» §
Ġcá»§ a
Ġp h
o w
áº §
i áº¿
u s
Ġ qu
Ġt a
áº¥ t
Ġk h
Ã £
l y
Ġi s
á» ±
áº¡ n
Ġb e
u t
o ng
i on
´ ng
Ġi t
Ġg i
Ġn Ãł
iá» ģ
e t
ĠkhÃ ´ng
Æ°á» £
á» Ł
Ġn Ã³
T h
Ġt á»
Æ°á» Ŀi
ĠÄĳ Ã³
Ġ x
iá»ģ u
Ġ re
en t
Ġng Æ°á»Ŀi
c t
Ġb áº¡n
áº¡ i
Ġh a
Ġo n
l d
u y
Ġtr ong
Ġthá» ĥ
Ġng h
A nd
Æ°á»£ c
Ġ ?
ĠnÃł y
ĠÄĳ Ã£
áº ¯
i d
Ä ĥ
ĠcÃ¡ c
ĠÄĳ Æ°á»£c
a ng
Ġnh Æ°
Ã¢ y
Ġh á»į
a m
u r
Ġ -
Ġth is
Ã´ ng
Ã¬ nh
Ġr a
i g
Ġch o
Ġvá» Ľi
áº¥ y
Ġs t
Ã Ń
Ġd o
Ġ- -
á» ĩ
i m
e re
V Ãł
Ġs á»±
Ġch á»
c e
áº ½
o p
Ġp hÃ
áº§ n
Ġg iá»
Ġf or
Ġm Ãł
Ġl i
áº£ i
v er
ĠlÃł m
s e
áº ±
k e
Ġc on
Ġ 1
Ġw as
o l
Ġ á»Ł
áº± ng
i r
Ġa n
it h
Ġs a
ĠÄĳá» ĥ
s t
Ġvá» ģ
Ġ C
Ġs áº½
Ġ T
Ġa re
Ġc áº£
t h
Ġ u
al ly
Æ¡ n
iáº¿ t
iá» ĥ
áº ·
Ġw ith
Ġh o
u á»ĳ
áºŃ t
i Ãªn
Ġ :
ĠÄĳ iá»ģu
Ä ©
á» ¥
Ġha ve
Ġth áº¿
Ġl o
a d
Ġa b
áº§ u
o d
Ġp r
Ġg o
Ġthe y
Ġc an
Æ°á» Ľ
Ġs e
á» ĭ
áº¿ n
Ã ¹
e m
Ġtá» «
Ġkh i
Ãł nh
© ng
at ion
ĠkhÃ ¡
ou t
h t
ĠnÃ³ i
Ġs á»ĳ
Ġa s
Ã º
Ġs o
© c
iá»ĩ n
i nh
Ġs h
Ġ M
Ġw or
S o
± c
Ġh e
Ġn Äĥ
t er
Ġ A
ĠÄĳ áº¿n
Ġwh at
áº¿ t
i l
Ġc om
ou ld
Ġl á»
i ll
Ġn e
Ġph áº£i
Ġn hÃ
u l
Ã ²
iá»ĩ c
Ġa t
Ġab out
Ġh á»
Æ°á» Ŀ
an t
Æ°á»Ľ c
Ä Ĳ
Ġr áº±ng
Ġ B
Ġ S
Ġm e
ĠvÃł o
Th e
Ġn ot
Ġg Ã¬
Ġ N
ĠÄĳ ang
Æ°á»Ŀ ng
o re
Ġv iá»ĩc
Ãł n
Ġf r
er s
a g
Ġl áº¡i
áº£ n
áºŃ n
us t
Ġth áº¥y
Ġa ll
Ġngh Ä©
ĠÄĳ á»Ļ
Ġ j
Ġr áº¥t
ĠcÃ¡ ch
Ã ½
Ġh Æ¡n
Ġe x
0 0
Ġ us
Ġnh iá»ģu
Ġm y
a c
ig ht
Ã¹ ng
Ġs om
Ġm á»
Æ° Æ¡
Ãł i
Ġp e
ar t
e ar
a in
Ġ H
Ġthá» ±c
iáº¿ n
T Ã´i
Æ°Æ¡ ng
ĠÄĳ áº§u
áºŃ y
es s
Ġo r
W e
op le
á» ĵ
ĠÄĳ Ã¢y
Ġd e
o k
Ġthe re
Ġhá»į c
u m
ĠkhÃ¡ c
is t
á»į i
áº¡ o
ķ i
á»ĳ i
Ġchá» ī
Ã¢ u
at e
Ġc Ã´ng
áº¿ u
Ġpe ople
N h
es t
Ġtr Ãªn
Ã¡ c
u re
Ġli ke
hÃ ºng
Ġ 2
a nh
a nd
Ġon e
ĠcÃ¡ i
ĠnÃł o
i es
Ġb iáº¿t
a b
Ġv Ã¬
n t
it y
Ġfr om
Ġs á»
i f
Ġch uy
ĠÄĳá» ģ
ĠchÃ Ń
a o
Ãł ng
u ng
e l
iá»ĩ u
o b
ĠphÃ ¡
áº »
ĠnÄĥ m
¢ n
Å ©ng
Æ¡ i
Ġk n
i nd
Ġo ur
ĠÄĳ i
us e
Ġbe c
Ġthá» ©
uá»ĳ n
Ġb ut
Ġd á»¥
Ġth Ãłnh
áº¯ t
á»Ļ c
e ct
i a
in k
Ã¢ n
Ġa l
Ġo ut
o g
i e
Ġin t
er y
Æ° ng
a use
u n
Ġj ust
Ġm a
I t
Ġ P
Ġc Å©ng
Ġnh Ãł
i ve
r ou
Ġt e
C hÃºng
u á»Ļc
á» ģ
Ġs p
Ġkn ow
áº «
Ġb á»ĭ
al l
Ġth ing
Ġthe m
Ã¡ ng
Ġ G
áºŃ p
Ġkh o
Ġqu an
a u
Ġm uá»ĳn
ÃŃ ch
or t
i ch
h er
Ġthe se
á» ı
Ġi f
Ġm Ã¬nh
Ġu p
Ġwh o
Ġth ink
á»Ł i
Ġv ery
Ġnh áº¥t
on e
Ġ L
Ġg et
c i
Æ°á» Ł
ĠchÃŃ nh
Ġt áº¡o
Æ°á»Ł ng
ĠÄĳá»Ļ ng
B ut
Ġgiá» Ľi
Ã¡ i
ĠnhÆ° ng
áº· t
Ġb y
Ġn Ãªn
áº¥ n
Ġwh en
a ct
Ġ D
Ġp l
ou r
Ġt im
Ġa ct
W h
Ġm ore
Ġyou r
Ġv áºŃy
Ġi m
Ġsom e
Ãł y
ĳ ng
Ġgo ing
á»ģ n
in e
Ġk á»
Ã² n
áº ©
Ġse e
Ġy ear
Ġlá» Ľ
áº¯ c
g h
Ãª u
Ġbec ause
Ġh Ã¬nh
Æ° a
Nh Æ°ng
am e
á»ĩ n
Ãº c
Ġha d
Ġs u
Ġh iá»ĩn
i b
Ã ©
iá»ĥ u
Ġgiá» Ŀ
os t
Ġsá»ĳ ng
Ġt iáº¿
ac k
Ġw ould
Ġt áº¡i
Ġn á»¯
Ġwe re
Ġm á»įi
ar d
os e
Ġnh áºŃn
Ġh ow
Ġe ver
Ġn áº¿u
as t
Æ°á»£ ng
Ġthe ir
Ġqu y
Ġth u
i z
á»ĵ i
¬ n
Ã¡ n
Ġc uá»Ļc
Ġt á»ĳ
k ing
Ġc áº§n
h i
Ã¢ m
a re
ĥ n
Ġh ay
Ġt á»±
Ġwh ich
áº· c
Ġ K
o c
id e
Ġw ant
Ġre ally
Ġlo ok
Ġth Ã¬
á»Ļ i
u ally
ÃŃ nh
ĠÄĳá» ĭ
Ġcom p
i v
ĠÄĳá» ĵ
a i
re at
ĠÄ Ĳ
ou s
Ġt áº¥t
Ġ áº¥y
Ġ Ã´ng
Ġw ay
m ent
Ġtá» Ľi
Ġb áº¯t
Ġ E
Ġthe o
Ġb á»Łi
áº« n
Ġl e
u á»
Ġt in
Ã´ n
an s
Ġc Ã²n
Ġlá»Ľ n
iá»ĥ m
h ing
ĠnhÃ ¬n
Ġ R
Ġwor ld
Ġc Ã¹ng
Ġ Ã½
Ġb áº±ng
iá»ĥ n
Ġcáº£ m
Ġt áº¿
Ġdá»¥ ng
Ġsa u
Y ou
Ġcá» ©
Ġl Ãªn
Ġth áºŃt
Ġa nh
Ġb áº£n
a ce
Ġe m
Ġc Ã¢u
v en
Ġb r
Ġa g
Ġgi Ã¡
áº£ ng
Ġsa o
Ġthá» Ŀi
Ġex p
th er
Ġchuy á»ĩn
p p
Ġh ere
Ġtr á»Ł
Ġqu a
ĠnhÃ ¢n
Ġs ay
Ġng Ãły
Ġthe n
iá»ĩ m
Ġtim e
Ġc Æ¡
Ġh as
Th is
Äĥ n
Ġb á»Ļ
ag e
Ġs inh
Ĺ i
ion s
Ġever y
ap p
Ġp er
Ġ 3
u d
áº£ nh
re s
Ġd on
Ġact ually
áº¡ t
á»± c
ĠnÄĥ ng
Ġm u
Ġsá» Ń
Ġm an
Ġtr Æ°á»Ľc
ĠphÃ¡ t
Ġl u
Ġn Æ°á»Ľc
Ġint o
ĠÄĳá» ķi
iá»ĩ t
Ġf e
Ġc ould
Ġm Ã¡
ı i
en ce
Ġto Ãłn
áº£ o
Ġph áº§n
a ch
Ã¬ m
Ġw ill
Ġwor k
Ġn Æ¡i
Ġgi a
Ã¡ nh
Ġth Ã´ng
i ld
Ġnh au
Ġd á»±
Ġyear s
Ġd id
Ġt Ã¬m
Ġmá» Ľi
Ġn ow
Ġth ay
r a
ĠÄĳá»ĭ nh
Ġv áº¥n
Ġ en
it t
Ġo ther
Ġthing s
Ġh á»ĩ
o nd
f f
áº ¹
if f
Ġtr Æ°á»Ŀng
Ġnh iÃªn
Ġtr Ã¬nh
Ġwh ere
Ġt ÃŃnh
iá» ħ
Ġ F
Ġm áº¡
Ġ J
Ġtá»ĳ t
Ġk áº¿t
Ġt Æ°á»Łng
Ã¡ ch
Ġth an
áº¥ u
Ġsom et
ic al
The y
N ow
áº¥ p
Äĥ ng
Ġ Th
Ġma ke
áº£ y
Ġd iff
Ġv áºŃt
e p
Ġh app
Ġc l
Ġh Ãłng
Ã£ y
Ġl Ã½
w o
Ġhá» ıi
Ġne ed
r y
Ġan y
Ġ W
£ p
Ġ áº£nh
ĠmÃ¡ y
Ġu n
Ġg r
Ġbe en
Ġn o
áº¡ c
Ġ ;
s o
ĠT Ã´i
f e
Ġhá» £p
om e
Ġb u
ic e
g e
Ġim p
ir st
Ġm áº·t
r o
áº¯ n
Ġsa id
Ġtiáº¿ p
N Ã³
re e
Ġst art
it e
Ġh Ãłnh
Ġná»¯ a
re d
or y
Ġk inh
Ġa r
ÄĲ Ã¢y
³ ng
al k
Ġgi an
Ġthá» ©c
Ġp art
Ġvá» ĭ
Ġh á»Ļi
Ġth iáº¿t
ow n
Ġtr á»į
Ãł o
Ń a
Ġch iáº¿
or m
ĠC h
p t
Ġt uy
Ġr á»ĵi
Ġx em
Ġl iá»ĩu
Ġ á»
v es
Ġo ver
Ġho Ã¡
ou nd
Ġsomet hing
as s
Ġtrá»į ng
uá» ķi
Ġd i
Ġt wo
Ġr ight
Ġ O
Ġph á»¥
Ġth ÃŃch
ou nt
á»ĩ nh
Ġd is
ĠÄĳá»ĵ ng
e a
Ġc Ã´
rou nd
Ã¡ t
iá»ħ n
Ġb ack
Ġmu ch
Ġ V
Ġgi áº£i
Ġdiff ere
u e
i Ãªu
Ġf irst
Ġsh e
en s
se l
Ġne w
Ġha i
Ġc all
áº¯ ng
nd er
Ġtr áº»
Ġa i
Ġl Æ°á»£ng
Ġpr ob
v ing
Ġth ose
Ġb áº¥t
r ong
ĠvÃł i
p le
ĠÄĳá»ģ u
Ġth Æ°á»Ŀng
Ġc o
á» ©c
ĠÄĳ o
e ll
ol og
e c
Ġal so
Ġt iÃªn
Ġgiá» ¯
at er
á»Ļ ng
ig n
ĠÄĳ á»ĳi
Ġs Ã¡ng
á» ĥn
Ġg ot
Ġa c
Ġqu Ã¡
Ġn ay
Ġlo áº¡i
Ġh iá»ĥu
Ġi d
Ġt Ã¢m
itt le
g ht
á»ĳ c
Ġli fe
ul t
Ġcon t
Ġp o
Ġl áº§n
c ent
ÄĲ Ã³
Ġl ot
Ġa m
Ġk ind
Ġgiá» ĳng
Ġn á»
Ġb á»ĩnh
ve l
Ġcá»© u
Ġl ittle
Ġthá» ĳng
Ġb ao
w ay
b er
á» §
áº£ m
B áº¡n
Ġv iÃªn
Ã² ng
od y
os s
ab le
á»ĭ ch
Ġ 5
Ġbe t
r u
Ġu nder
Ã ºng
Ġh is
Ġngh á»ĩ
iá»ģ n
Ġm ost
ĠÄĳ iá»ĥm
Ġch ang
Ġng o
á»ĩ t
Ġtr á»
00 0
I n
Ġm o
Ãª m
ĠnghÄ© a
Ġg á»įi
Ġnh á»ı
Ġre s
ic k
Ġd ay
at ed
ĠchÃ º
Ġh er
Ġon ly
Ġe ven
Ġ 4
ation s
Wh at
ĠÄĳ Æ°a
Ġb l
an k
Ġt Æ°Æ¡ng
Ġho Ãłn
ic t
i al
Ġx u
Ġ U
Ġd es
Ġqu áº£
Ġngh iá»ĩm
Ġpr o
ĠÄĳ Æ°á»Ŀng
Ġa d
Ġm ay
V Ã¬
Ġt Ã¡c
Ġv áº«n
ad e
Ġman y
u c
Ġta ke
Ġx áº£y
Ġ1 0
Ġdiffere nt
ter n
Äĥ m
Å ©
Ġb o
Ġchiáº¿ c
rou gh
Ġgo od
Ġs y
Ġsh ow
Ġthu áºŃt
Ġg en
ĠT r
e w
Ġb iá»ĩt
Ġng uy
M á»Ļt
o od
áº ³ng
Ġd Ã¹ng
ĠÄĳ áº¡i
p l
Ġre al
Ġtá»« ng
Ġh um
le m
uy á»ģn
Ġb Ãªn
as e
an ce
Ġc á»ĳ
Ġd Ã¢n
Ġho áº·c
á»į n
Ġtr iá»ĥn
iá»ĩ p
Ġchuy á»ĥn
Ġl Ãºc
Ġd iá»ħn
Ã£ o
is h
áº© n
or d
Ġ1 9
V áºŃy
ot her
Ġa round
at h
in t
i p
Ġ2 0
Ġth rough
Ġquy áº¿t
Ġdo es
Ãº p
« ng
Ġngh e
Ġtr á»ĭ
Ġcom m
Ã¡ o
Ġc ao
n ing
ent s
ar k
ĠÄ ĥn
Ġd áº¡
Ġp re
Ġmá» Ĺi
Ġtuy á»ĩt
res s
Ġc áº§u
uá»ĳ c
Ġt alk
uá»ĳ i
Ġkho áº£ng
f orm
Ġk áº¿
Ġte ll
Ġtá» ķ
Th at
Ġl á»±c
Ġch áº¥t
Ġkh u
Ġd own
Ġof f
áº§ m
Ġbe ing
C Ã³
ar y
Ġgi Ãºp
Ġp ut
£ i
Ġlá» Ŀi
áº¯ p
² ng
ĠÄĳ áº¥t
ĠgiÃ¡ o
Ġus e
i an
Ġ Æ¡n
ib le
Ġprob lem
© a
er t
Ã µ
Ġth ou
Ġ Y
Ġ& #
f ul
n e
Ġtr ung
Ġchá» §
áº© m
H á»į
or s
w n
Ġt iáº¿n
x t
Ġb áº£o
C h
ĠphÃ ²ng
Ġhapp en
u b
Ġh áº¿t
Ġs c
Ġs m
le ct
Æ°á» Ľi
Ġin c
et her
j ect
Ġch Æ°a
Æ°á»Ľ ng
Ġxu áº¥t
hÃ ´ng
a k
t e
Ġt Ã¬nh
d ay
Ġm ang
Ġngh iÃªn
We ll
Ġf act
u al
Ġs ame
Ġx e
Ġ VÃł
ĠÄĳ Æ¡n
Ġc ount
Ġli Ãªn
á» ¹
á»ĳ ng
ĠphÃ ¢n
ĠkhÃ ³
Ġr o
ow er
Ġb Ãłi
Ġtr anh
Ġt uá»ķi
ĠÄĳ Ãºng
Ġtr uyá»ģn
ar s
Ġt áºŃp
ĠN h
ĠÄĳ iá»ĩn
Ġn Ã£o
Ġv i
Ġph Æ°Æ¡ng
Ġb Ã¬nh
ÄĲ iá»ģu
Th ere
áºŃ u
ĠÄĳ áº·t
Ġd á»
Ġtr y
Ġcom e
Ġc r
a v
Ġt Æ°á»£ng
Ġt ay
Ġb iáº¿n
Ġt iá»ģn
w e
Ġb ig
st em
ur n
E D
Ġs áº£n
Ġtiáº¿ ng
Ġde c
Ġgiá»¯ a
t ing
Ġy Ãªu
on s
Ġp ers
Ġth ree
á»ĵ n
i le
Ġnh á»
Ġdo ing
Ġf l
Ġth o
ch n
Ġf ind
Ġkh áº£
áº· p
Ġb Ã©
áº¡ nh
Ġng ay
Ġg reat
Ġtr áº£
Ġkho a
ÃŃ t
Ġh Ã£y
Ġs ur
i ver
v ed
© p
Ġth Ãº
Ġb á»ı
f t
N áº¿u
ic ally
c es
Ġl áº¥y
Ġt y
Ġd r
Ġg áº§n
Ġ !
sel f
ic s
Ġho áº¡t
i re
Ġper cent
Ġhum an
f ter
Ġst ud
Ġx Ã£
Ġqu est
Ġwe ll
Ġch ild
Nh á»¯ng
Ġ. .
f ore
Ġbr ain
ĠÄĳ Ã¡ng
Ġa pp
Ġsy stem
Ġch iáº¿n
a il
Ġs Ã¡ch
Ġthá» ĭ
Ġl ear
Ġte chn
Ġth Ã¢n
Ġl et
Ġo wn
r ic
áº¥ m
Ġph áº©m
ig h
at es
ĠphÃ¡ p
Ġi nd
Ġcall ed
ĠÄĳá» Ŀi
Ġcá» ¥
Ġh iá»ĩu
ĠS t
Ġc uá»ĳi
ĠkhÃ Ń
ĠI n
Ġl ong
e nd
it ion
Ġwh y
Ã³ c
Ġs im
Ġ Q
Ġm áº¥t
Ġch Æ¡i
m er
at ing
olog y
Ġbe l
th ing
ci al
ill ion
Ġsá» ©c
Ġká» ĥ
Ġm ade
Ġin v
Ġm inh
i ous
áº« u
Ġbu ild
Ġl a
Ġw om
Ġre m
ĠphÃ º
Ġag ain
į ng
ĠM á»¹
Ġmáº¡ nh
Ġc ol
Ġsh ould
Ã© t
c on
p er
Ġngh iá»ĩp
Ġe nd
Ġimp ort
Ġt Ãłi
Ġngo Ãłi
Ġ ÃŃt
á» ķ
K hi
Ġunder st
o ol
Ġd áº«n
Ġas k
h e
re n
Ġl áºŃp
I f
Ġc reat
Ġhe l
Ġb á»©c
Ġ.. .
ĠÄĳ áº¥y
Ġse c
iz e
Ġexp er
« a
á»¥ c
áºŃ m
r i
Ġm Ã´
Ġc our
Ġin s
Ġká» ³
l es
Ġlo Ãłi
or k
Ġlu Ã´n
ĠT ED
Ġtr ÃŃ
Ġt inh
it ies
H e
Ġx Ã¢y
á» Ń
Ġdá»± ng
ol ut
Ġt iÃªu
Ġchang e
Ġ 6
Ġc á»Ļng
Ġph á»ĳ
Ġv Ã´
Ġto day
Ġpers on
uá»ĳ ng
Ġt Ãªn
uy áº¿t
Ġfe el
Ġchá» ©ng
Ġv Äĥn
Ġtá» Ń
Ġdid n
Ġ Ã¢m
op e
Ġthou ght
Ġs ch
Ġimport ant
Ġa fter
Ġh Æ°á»Ľng
Ġe v
áº§ y
Ġc ar
N g
Ġch á»įn
Ġhá» ĵ
Ġid ea
Ġb Ãł
y s
is e
Ġme an
oc k
Ġnh áº¡c
Ġo b
Ġv iáº¿t
áº¡ m
og r
Ġthá» Ń
Ġb a
Ġs ci
Ġ2 00
Ġá» ©ng
ĠÄĳ Ã¢u
Ġk iáº¿n
Ġch u
a ve
Ġnguy Ãªn
Ġl ast
u ll
Ġgi áº£
Ġex am
Ġquy á»ģn
Ã ¨
Ġqu á»ĳc
Ġchá» ©c
Ġstart ed
Ã´ m
Ġgi áº£n
Ġvá» Ŀi
ĠÄĳ áº·c
ere st
Ã¡ m
a z
Ġh u
Ġtr ans
b ody
t y
áº¡ ch
Ġch áº¿
Ġunderst and
b e
ĠI t
iáº¿ m
Ġ The
Ġs uy
Ġb Ãło
Ġtá» ¥
Ġmáº¡ ng
Ġhel p
Ġch áº¿t
Ġvá» ¥
Ġt Æ°
Ġc áº¥p
Ġw ent
Ġb á»ĳ
g an
áº¡ p
Ġb as
Ġg l
á»ı i
Ġ Ã
Ġtr iá»ĩu
T rong
es e
Ġt Äĥng
Ġit s
Ġre l
Ġw r
Ġin st
al s
Ġl áº½
Ġbel ie
Ġst ory
ou gh
Ġth áº§n
áº¹ p
Ġbe fore
ĠÄĳ áº¡o
ĠÄĳá» ©a
Ġm ight
Ġn á»ģn
³ m
Ġs Ä©
Ġdes ign
Ġng u
Ġ And
ĠmÃł u
Ġpl ay
Ġp ower
k es
Ġpr od
Ġp ol
Ġtr a
Ġne ver
p h
Ġ 9
Ġkh á»ıi
Ġint erest
Ġh im
C Ã¡c
ĠÄĳ Ã¡nh
Ġm áº¹
ul ar
Ġbet ter
Ġin ter
Ġar t
Ġcour se
Ġ 7
Ġf ound
Ġgi ve
Ġtá» ĵ
áº¯ m
Ġ ent
Ġs l
Ġg áº·p
Ġth Ã¡ng
Ġre c
Ġd Æ°á»Ľi
at ch
Ġst ill
Ġt urn
Ġk id
Ġab le
ĠchÃº t
Ġsch ool
Ġcon s
Ġt u
Ġb it
Ġf am
Ġ 8
ist s
i x
Ġx uá»ĳng
Ġha nd
il ity
i ly
l ic
Ġpo int
Ġg áº¯ng
am p
Ġfe w
Ġim ag
Ġlear n
ĠphÃ ©p
Ã¢ ng
Ġcomm un
Ġ Ã¡n
Wh en
i ence
Ġd á»ĭch
at her
Ġqu anh
Ã¡ p
Ġc ame
we en
Ġ %
ot h
Ġkh iáº¿n
ĠnhÃ ³m
vel op
Ġm á»Ł
Ġne xt
ĠN ew
Ġac c
Ġb ay
Ġto g
Ġtog ether
Ġvá» ±c
Ġx Ã¡c
at a
Ġch ia
Ã£ i
Ġd á»¯
er g
Ġd uy
ĠC hÃºng
n ess
Ġan other
Ġc ell
Ġth am
Ġth Ãªm
Ġe ach
Ġnh anh
Ġmá» ©c
Ġtr Ã²
Ġr á»
is s
Ġth uyáº¿t
Ġk e
¢ u
Ã³ ng
Ġcomp le
Ġqu ay
ĠA f
al th
re ad
Ġlo ve
it ed
Ġdáº¡ ng
ĠÄĳ Ãłn
Ġvá» įng
w ard
en se
Ġcá» ±c
Ġquest ion
Ġg Ã¢y
Ġr Ãµ
ct ion
Ġbet ween
Ġngu á»ĵn
iz ed
Ġh igh
Ġde velop
Ġc re
Ġn um
Ġm od
Ġag o
Ġv Ã¹ng
Ġcáº£ nh
ĠA nh
i ed
Ġs ort
ar ch
Ġ3 0
Ġb Ã¡o
v Ãł
ĠÄĳ áº¹p
Ġ You
Ġtá»¥ c
Ġ We
Ġc Ãłng
Ġd Ã¹
Ãº t
á» ī
Ġgi Ã¡c
mer ic
Ġdá» ħ
Ġs Ã¡t
Ġpl ace
Ġs er
Ġv ide
Ġwor d
Ġch áº¯c
Ġm in
i Ãª
Ġm on
Ġus ed
Ġtr ang
ing s
B Ã¢y
in ess
Ġx a
ap h
Ġp at
Ġc Ã¢y
m s
Ġb Ã¢y
Ġv ÃŃ
Ġd ata
ĠÄĳá» §
K hÃ´ng
p e
Ġnhá» Ľ
9 1
9 3
ĠphÃ Ńa
Æ° u
Ġf our
one y
Th ank
Ġchá» ĭ
ure s
Ġh Æ°á»Łng
Ġh Ã´m
Ġph im
way s
Ġb i
Ġb iá»ĥu
ĠÄĳo áº¡n
Ġex t
Ġch áº³ng
Ġgr ow
Ġm ed
ot e
c o
Ġv u
Ġto o
Ġm et
Ġexam ple
Ġm om
Ġat t
Ġpl an
Ġwom en
Ġtr Ã¡i
Ġk iá»ĥm
k s
Ġk Ã¬
ĠC hÃ
iÃª ng
form ation
Ġv Å©
Ġf in
Ķ ng
Ġl ight
Ġth Æ°Æ¡ng
Ġ5 0
Ġng á»
et s
ec ause
Ġo p
ere d
if ic
Ġd Ãłi
Ġw ater
Ġv Ã²ng
á»± a
Ġo ld
Ġch á»¯
al e
Ġre ad
ĠA meric
o ld
Ġd one
ĠQ uá»ĳc
Ġlu áºŃn
ĠÄĳ Ã´i
Ġng á»¯
Ġph áº£n
ce pt
Ġ1 5
Ġtechn ology
in s
Ġli ve
Ġc are
Ġc ent
Ġ1 00
con om
Ġdoes n
a ir
áº¡ y
Ġsm all
ĠÄĳ áº§y
Ġl ess
Ġlá» £i
and s
Ġwant ed
at ive
or n
Ġsec ond
Ġk ia
Ġdá»¥ c
Ġcont r
Ġgi áº£m
ie nd
Ġm us
Ġvide o
áº± m
Ġprod u
a h
al king
on t
Ġlook ing
Ġbelie ve
Ġth áºŃm
Ġal ways
Ġexp l
Ġk iáº¿m
H Ã£y
Ġth uá»ĳc
tern et
o y
Ġbe h
Ġ ed
ab ly
ĠchÃ ¢n
sel ves
T r
Ġm oney
Ġvá» «a
Ġtr Äĥm
Ġt ÃŃch
Ġpart ic
Ġchild ren
Ġth Ã´i
Ġe ff
Ġth Æ°
o ll
Ġgen er
Ġe conom
ĠÄĳ Ã¬nh
Æ°á» ¡
Ġb Æ°á»Ľc
Ġh á»Ļ
Ġwor king
Ġpr oc
Ġcomp ut
Ġgi ao
Ãł u
Ġl á»ĩ
iáº¿ u
Ġb us
ĠTr ung
c c
Ġr un
Th áº¿
Ġl ai
Ġh áº¡n
p r
Ġt er
Ġp oss
ation al
Ġre as
Ġtá» ī
ĠÄĳ Ã´
Ġwho le
Ġc a
Ġd em
Ġte ach
Ġtá»ĵ n
Ġbo ok
n ce
Ġs Ã¢u
Ġf ar
Ġtr áº£i
Ġa way
Ġh y
Ġin formation
Ġpro ject
Ġg uy
Ġr ob
Ġm Ã´i
Ġtrá» Ŀi
iá»ģ m
Ġh ard
Ġto Ã¡n
Ġd iá»ĩn
Ġe ar
Ġph á»§
Ġcount ry
Ġh ome
Ġr á»Ļng
Ġe l
Ġmo ve
Ġtry ing
Ġsa i
Ġn at
B ecause
Ġth anh
hi p
Ġt áº¡p
Ġch i
Ġphá»¥ c
Ġd Ãłnh
uá»ĳ t
Ġn á»ĳi
Ġkid s
Ġl Ã²ng
ĠÄĳo Ã¡n
Ġcre ate
Ġth uá»Ļc
ĠÄĳá»ĭ a
e e
i o
l ed
Ġhe alth
Ġm ind
Ġr iÃªng
ur al
Ġsá» £
Ġl ar
Ġf ood
ir d
ĠÄĳá» ©ng
Ġm áº¯t
Ġre g
Ġres p
n ect
r ies
Ġvá» ĩ
Ġná» ķi
olut ion
is m
Ġm á»¥c
Ġdáº¡ y
Ġfr iend
Ġm illion
hÃ ¡
Ġv áº»
Ġe ng
į c
Ġth Ãºc
ĠÄĳ áº¡t
Ġl Ã£
t en
ĠA r
Ġng hÃ
Ġth ÃŃ
it s
Ġme ans
Ġus ing
at ter
Ġc Äĥn
Ġdo ll
Ġle ad
Ġlu áºŃt
Ġf ive
Ġngh i
in es
Ġká» ¹
Ġs áº»
m an
Ġx ung
c k
Ġm áº«u
Ġt á»ĳi
Ġproc ess
b o
Ġs ing
Ġsu pp
Ġl á»ĭch
ac es
ĠIn ternet
Ġs k
Ġp ict
Ġv is
Ġbec ome
Ġsu b
Ġ Ã¡nh
Ġb Ãłn
ĠN g
Ġop en
áº· ng
or ies
Ġ So
in a
áº¡ ng
ru ct
Ġmay be
ĠÄĳá» įc
Ġlá»Ľ p
Ġf ut
Ġcon f
Ġto ok
Ġsp ace
Ġst r
ĠU n
Ġrob ot
ment s
Ġin f
g g
Ġch Æ°Æ¡ng
Ãł m
Ġtr á»¥
Ġká» ·
k ay
Ġy áº¿u
Ġthink ing
b le
á» ©
Ġp ub
Ġkh áº¯p
Ġevery thing
ver n
Ġsh are
Ġtr Ã´ng
Ġor gan
Ġvu i
s w
Ġt iáº¿t
Ġan im
Ġcomp an
w h
Ġfor m
Ġc ap
Ġe lect
Ġkho áº»
Ġfut ure
r an
u es
Ġb est
Ġng á»ĵi
Ġch áº¡y
i er
Ġg Ã¡i
ĠphÃ Ń
ie w
Ġen erg
ĠphÃº t
ĠA l
Ġsay s
Ġqu ite
a ut
Ġp op
Ġchá» ¥
rou p
Ġf un
ent ion
c er
Ġ X
Ġc áºŃu
Ġtrá» £
Ġp ass
Ġs áº¯c
Ġre p
Ġb uá»ķi
Ġk Ã©
Ġc uá»ĳn
ou se
Ġs uá»ĳt
Æ°á»£ t
Ġso cial
- -
Ġm á»ĳi
Ġb iá»ĥn
Ġch áº¯n
Ġnum ber
Ġs ol
it ing
Ġso ci
Ġl ang
Ġk iá»ĩn
al f
Ġhe ad
á»ĵ ng
Ġ1 2
H ow
Ġle ft
Ġen ough
Ġh áº§u
Ġun iver
Ġ Wh
Ġli ves
im es
e ver
u nd
Ġch ung
Ġan sw
Ã Ķng
Ġm Ã¹
ic es
Ġcom es
ert ain
u ff
á»į c
Ġget ting
Ġtr Ãºc
et y
o h
al le
e as
Ġc le
it al
Ġbe g
Ġenerg y
Ġma king
Ġmu a
Ġng Ã´n
Ġg roup
Ġs Æ°
Ġdo anh
Ġgo vern
Ġc ou
Ġcá» Ńa
Ġk iá»ĥu
Ġp res
a ke
á» ĥ
ĠAf ric
Ġw ar
ĠH e
ĠP hi
en c
Ġwe b
Ġb ody
Ġtim es
ĠY ork
v ir
ĠI s
Ġ áº
ĠkhÃ¡ m
Ġs et
Ġs á»Ł
Ġng áº¡c
ĠcÃ¡ nh
ĠI nd
Ġmon th
Ġv áºŃn
Ġb Ã¡n
Ġhappen ed
Ġtho áº¡i
Ġro om
Ġtu áº§n
Ġm en
Ġx Ã©t
Ġs ense
Ġgl ob
r on
er ing
Ġx Ãºc
Ġmom ent
Ġs ound
Ġl Ã¢u
Ġr Ãłng
Ġre se
Ġsp ec
Ġa ut
Ġb an
G iá»
em ber
Ġph ot
r oss
Ġto p
Ġwith out
Ġma kes
Ġ /
Ġprob ably
Ġcount ries
Ġt alking
Ġj ob
Ġdoll ars
t ty
Ġc áº¥u
Ġh iá»ĥm
ĠchÃ ¡
Ġhá»ĵ i
re en
vir on
Ġnh iá»ĩm
Ġcon nect
ĠP h
Ġinterest ing
Ġp ie
Ġke ep
Ġbus iness
e x
Ġph á»©c
ur ing
ot t
Ġ What
ap s
id d
Ġse em
ĠN Ã³
Æ°á»¡ ng
Ġbe aut
Ġre d
ĠH o
A nh
l and
Ġw ond
n er
Ġth iÃªn
Ġk ÃŃch
Ġmus ic
Ġc ung
Ġv al
Ġto ld
Ġrese arch
Ġd ist
Ġchuy Ãªn
Ġchá»¥ p
Ġb Ã³ng
Ġnh áºŃp
Ġexper ience
Ġreas on
Ä© nh
B á»Łi
u p
Ġd a
Ġn áº±m
Ġh ist
Ġwe e
Ġst re
Ġad d
Ġpre tty
á»ĳ t
á»§ ng
Ġen viron
O ne
ver y
Ġsim ple
Ġyou ng
Ġmin ut
ver s
Ġk áº»
Ġc ur
ĠB áº¡n
Ġed uc
Ġel se
M y
Ġng Ã´i
Ġ4 0
Ġv iá»ĩn
Ġc ult
Ġth Ã¡i
Ġe y
Ġph ys
Ġsa w
Ġo pp
Ġsu ch
Ġac ross
Ġsci ence
b r
Ġ1 8
Ġall ow
i or
at t
á»¯ u
id ed
Ġst and
Ġpol it
o v
áº µ
Ġc áº¡nh
ate ly
uy Ãªn
uy á»ĩn
â Ģ
áº¿ p
Ġpr ot
ĠÄĳá»Ļ c
Ġd et
ogr aph
Ġcell s
e ad
Ġ âĢ
Ġn am
Ġm atter
Ġh á»¯u
Ġng Ãłnh
Ġb Äĥng
Ġh alf
Ġlang u
i ent
Ġh áº¡nh
Th ese
Ġchá» ©
Ġho Ãł
Ġask ed
Ġe as
Ġchá» Ĺ
Ġs ign
Ġst uff
Ġc ase
Ġv o
Ġth áºŃp
áºµ n
d er
Ġb Ã¡c
as h
Ġst op
Ġtr Æ°á»Łng
Ġli ving
Ġway s
Ġg u
Ġkh á»§ng
Ġd ung
Ġv áº½
Ġm or
ĠB r
Ġins ide
l f
Ġs ide
ort un
Ġfam ily
Ġ ÃŃch
ĠÄĳ a
Ġm ark
Ġl ist
Ġde p
Ġsci ent
w ork
Ġh our
Ġh ope
áº© y
Ġany thing
Ġmod el
g er
in ce
Ġchá»ĭ u
ĠG o
Ġbuild ing
D o
Ġchu áº©n
a w
Ġg hi
Ġph áº¡m
Ġhapp ens
Ġbr ing
g s
Ġl ater
Ġth iáº¿u
Ġb ad
al ity
Ġqu Ã½
il t
Ġv ir
im e
c r
Ġl áº¯ng
ĠphÃº c
Ġs áºµn
Ġgo es
Ġcom ing
l ing
Ġa ir
Ġl á»±a
Ġtá» ĩ
Ġhá» ģ
wh ere
i ke
Ġx anh
Ġho áº¡
Ġt áº¥m
Ġl ab
Ġw rong
ul ation
Ng Æ°á»Ŀi
Ġwh ile
á»Ń i
S he
Ġre st
Ġsing le
Ġs áº¯p
Ġch ar
Ġpartic ular
Ġkh Äĥn
Ġc or
Ġn iá»ĩm
Ġnh iÃªu
Ġp ain
á»Ļ n
á»ĳ n
Ġ Ã¡p
P h
Ġb re
Ġsp ea
Ġglob al
Ġt Ã¡i
Ġw atch
Ġtá» ©c
Ġy et
Ġre f
ĠK hÃ´ng
ĠÄĳ au
Ġproblem s
F or
S au
Ġenviron ment
m ost
ac y
Ãº i
ogr am
Ġtr ai
Ã³ n
it er
Ġh Æ¡i
Ġgi r
Ġl áº¡
Ġc am
Ġx á»Ń
Ġch á»ĳng
iv id
Ġl áº¡c
Ġg á»
ap e
Ġf ig
Ġday s
Ġpro f
Ġth áº¥t
ar th
Ġha ving
Ġpr op
Ġ2 5
Ġe qu
ĠÄĳÃ³ ng
Ġde f
Ġbeg in
T áº¥t
Ġs it
Ġhe art
ĠS h
Ġma ch
are nt
u Ã´i
Ġm Ã£
Ġm áº·c
ĠÄĳ Ã¡
Ġm ong
Ġlo c
Ġcomple te
Ġword s
e g
Ġcontr ol
Ġc áº£i
Ġth ous
Ġb illion
Ġmy self
ĠNh Æ°ng
Ġde v
Ġse en
Ġsome one
Ġdá»± a
Ġt est
ĠchÃ ¢u
Ġtr á»±c
ter s
n y
Ġstud y
Ġc ertain
Ġeff ect
N Ãªn
Ġt re
Ġch a
Ġle vel
C áº£m
á» ŀ
Ġpub lic
A s
iz ation
ater ial
Ġm em
Ġwith in
Ġof ten
Ġw alk
ĠÄĳá»Ļ i
Ġlook ed
Ġam az
Ġx in
Ġsay ing
Ġp os
Ġs ix
Ġcá» ķ
Ġhe ar
s ide
Ġpict ure
Ġh áºŃu
Ġg ame
Ġid eas
á» Ľi
Ġm áºŃt
Ġb Ã¡nh
it ive
Ġgir l
Ġc ity
Ġkh á»ķ
Ġcommun ity
Ġs ure
Ġb oth
r ow
Ġto Ãł
Ġtá»ķ ng
Ġwh ether
Ġkh áº¯c
Ġse lf
Ġn á»Ļi
Ġk ill
Ġprodu ct
Ġposs ible
Ġch Äĥm
en e
ant s
Ġm ag
Ġg á»Ńi
Ġx áº¥u
Ġnot hing
Ġt áº§m
Ġd áº§n
Ġcomput er
T áº¡i
Ġv Æ°á»£t
Ġf ore
un ch
Ġ áº©n
Ġp ar
Ġnh u
Ġon ce
l ish
l ess
Ġtá» ·
Ġhá» ©ng
Ġansw er
¨ o
Ġex c
Ġlangu age
o ot
Ġth iá»ĩn
Ġf il
Ġex act
Ġl Æ°u
Ġtr ue
Ġcl ass
an c
Ġu nt
Ġh áº¡t
¤ n
ap er
L et
ĠE arth
Ġind ivid
alle ng
ur y
H ere
Ġm aterial
Ġtr áº¡ng
Ġch iá»ģu
p ect
Ġt ÃŃ
Ġt á»Ļi
ist an
Ġal most
Ġsp end
Ġc ond
Ġag e
Ġn ight
Ġs ang
t s
Ġd áº§u
Ġd anh
Ġwork s
Ġnew s
Ġis s
Ġent ire
read y
ĠlÃ£ nh
ĠAfric a
Ġrem ember
Ġamaz ing
l ine
Ġn iá»ģm
Ġnh iá»ĩt
Ġf ace
ĠÄĳ á»Ļt
Ġch alleng
us h
ĠnghÃ ¨o
Ġbeaut if
Ġn áº¡n
Ġgovern ment
Giá» Ŀ
Ġs w
Ġhe ard
Ġbas ically
idd le
Ġindivid ual
Ġngo áº¡i
re ct
Ġinc red
ust r
Ġdis co
Ġnh iá»ħ
Ġthá» §
Ġ Well
Ġc áºŃn
ag es
ĠH ow
Ġm ar
at ic
ie ld
Ġáº ¤n
Ġc ost
er a
iv es
Ġá» ķ
oc r
Ġdec ided
Ġhist ory
Ġsp e
Th á»±c
Ġchá»¯ a
ĠÄĳ áº©y
Ġal ready
Ġlook s
Ġimag ine
Ġt reat
Ġas s
Ġx o
Ġa ff
re am
Ġp ast
on es
Ġu ng
r op
Ġf ull
Ġsu cc
Ġk ÃŃnh
Ġto ol
N A
ĠÄĳ áº¥u
Ġd áº¥u
Ġná» Ĺi
Ġfriend s
Ġn et
Nh Æ°
im ate
Ġa w
Ġbu ilt
Ġexper im
oll ow
Ġch e
Ġre t
Ġpr ogram
ĠÄĲ Ã³
nd red
os ed
Ġcol lect
Ġhu ndred
t on
at s
Ġf und
á»ĵ m
e ly
ĠÄĳ en
Ġg hÃ
Ġst ories
Ġwond er
ea h
Ġcont in
ĠUn ited
ĠkÃ© o
Ġng á»§
og le
Ġad v
Ġsucc ess
Ġt áº¯c
Ġpie ce
v ious
Ġth Ã¡ch
Ġh Ã¡t
Ġp ay
Ġf ollow
ĠkhÃ¡ ch
Ġcou ple
Ġfig ure
Ġgi áº¥y
Ġwas n
Ġmonth s
Ġbeautif ul
Ġ Ã´
Ġ1 1
ĠÄĲ á»Ļ
Ġres ult
ou th
iáº¿ p
Ġw a
Ġin n
Ġm il
Ġph i
ĠChÃ ¢u
ĠâĢ Ķ
Ġng Æ°á»£c
Ġeduc ation
er n
Ġf ree
Ġlar ge
ion al
Ġbec ame
Ġminut es
Ġtr ain
ent al
Ġor der
b ers
x y
Ġn uÃ´i
as ter
Ġqu áº£n
Ġta king
are d
iv ity
ra z
Ġhu ge
Ġunt il
Ġb áº¡i
b on
Ġso Ã¡t
Ġde ep
s y
Ġ Æ°á»Ľc
in ed
ĠT Ã¢y
V Ã¢ng
Ġl ÃŃ
Ġv iew
is ing
Ġcon st
Ġho áº¡ch
Ġthou gh
Ġcomple x
Ġra d
oc us
is ion
Ġcá» Ń
Ġsoci ety
o ve
Ġ This
Ġevery body
Ġ8 0
Ġuniver se
© t
Ġm áº¯c
Ġlá» Ĺi
Ġt iá»ĩn
Ġná» Ńa
Ġinc re
Ġlearn ed
Ġeng ine
ang e
Ġm Æ¡
et ic
Ġthem selves
Ġl Ä©nh
am es
Ġm ust
om es
Ġqu ick
Ġg á»ĵm
on y
Ġte am
Ġwom an
Ġfr ont
áº© u
m ed
Ġ They
Ġs Ã³c
Ġtá»ĳ c
Ġplan et
Ġnhiá»ħ m
Ġexact ly
Ġkh iá»ĥn
Ġget s
i ans
t o
Ġd Æ°Æ¡ng
ÄĲ á»ĥ
Ġt áº£
Ġc áº¯t
Ġg Ã³
Ãµ i
ĠSt ates
Ġcreat ed
Ġh ouse
Ġch im
A ll
Ġm ic
Ġg iáº¿t
Ġf ocus
Ġkn ew
Ġ6 0
oh n
d en
Ġh áº¡i
Ġcan cer
Ġbeh av
Ġcomplete ly
Ġhappen ing
an e
Ġ Z
Ġth áº³ng
ĠÄĳ Ã´ng
ou d
Ġb Ãły
Ġd Ã¢y
Ġkh á»ĳi
y ing
ĠM á»Ļt
ĠGo ogle
i red
X in
Ġqu en
i k
Ġt Ãłu
Ġst ruct
th ers
ĠÄĳ ÃŃch
Th áºŃt
Ġsome body
ĠNh á»¯ng
re t
Ġqu Ã¢n
Ġkind s
Ġnhá» Ŀ
Ġhour s
C Ã¡i
e v
Ġth áº¥p
Ġn ame
Ġb á»
ĠÄĳá» ©c
Ġchiáº¿ u
Ġquest ions
i qu
Ġl Æ°á»Ľi
Ġb áº§u
ab ility
Ġn iÃªn
Ġs Ãłng
Ġm Ãª
ĠC Ã³
u a
Ġth i
Ġit self
Ġpl aces
Ġla w
Ġngá» Ŀ
c ul
Ġd Ã²ng
Ġis n
Ġx áº¿p
Ġpro v
ĠÄĳ Ãªm
Ġc Æ°
Ġd Ãłng
Ġch áº¥p
Ġshow s
Ġagain st
Ġnat ure
Ġl Ã¡i
ĠÄĳá» ķ
ent ial
S á»±
Ġn on
Ġa v
Ġb ab
Ġg á»ĳc
ic ult
Ġkh ai
ĠphÃ ³ng
Ġhá» Ĺ
el s
Ġour selves
Ġlist en
Ġt áºŃn
Ġc Æ°á»Ŀi
Ġng áº¯n
Ġme et
ĠÄĳá» ¡
áº· n
ib ly
itt ing
c le
Ġr á»ĳi
Ġon es
Ġab s
Ġká» ī
Ġevery one
Ġs ince
Ġg áº¥p
ut e
Ġdiffere nce
Ġph ong
ĠCh ina
og n
ĠÄĲ Ã¢y
Ġm other
Ġl áº¯m
as ure
ĠcÃ¡ o
Ġst ate
Ġspea k
ĠÄĳ em
Ġg ave
uá» ·
Ġopp ortun
Ġn Ã´ng
Ġs ong
Ġo thers
á»¯ a
Ġgi Ã¢y
e ase
Ġsomet imes
Ġc Ã¢n
Ġb áº¡o
Ġcl ose
om et
ĠTh at
Ġob ject
Ġs Ã¢n
Ġp arent
er ia
Ġwork ed
ra w
Ġmark et
Ġthá» ¥
Ġne ur
ist ic
Ġcle ar
Ġtr Ã¡ch
Ġho ld
Wh y
pt ion
ī nh
Ġl ine
Ġr is
Ġexp ect
Ġstud ents
g et
r act
Ġm ess
Ġg áº¯n
ĠE ng
Ġbá»ĳ n
at or
ol ved
Ġse x
Ġv ai
Ġinv est
Ġexpl ain
Ġinn ov
Ġb ÃŃ
Ġf ail
ĠD NA
Ġrel ations
I V
Ġph áº«u
id er
Ġdiff icult
ĠAmeric an
Ġcompan y
ĠC an
ne y
l er
en ces
Ġty p
ĠE ur
Ġa ud
Ġw on
re m
Ġp ot
at ure
ĠÄĳá» £i
ĠG od
ĠCh r
Ġtrá» «
C Ã´
Ġth ird
Ġd ru
Ġr ather
um p
Ġng Ãłn
Ġm ass
ur s
Ġcould n
Ġter r
Ġt Ã´n
áº§ ng
Ġinter act
c l
Ã Ŀ
Ġb ott
Ġh Ãłi
Ġthous ands
h aps
Ġngh á»ĭ
op h
Ġnet work
m a
Ġk Ä©
Ġdis ease
ĠAmeric a
Ġb uy
Ġde al
Ġsur pr
Ã¨ n
Ġ z
Ġth Æ¡
Ġnh áº£y
ar ing
in ation
Ġx uyÃªn
od e
Ġdá» «ng
b y
Ġst ep
if e
Ġchuy áº¿n
Ġco ll
ĠÃ Ĥ
Ġho a
ĠH IV
Ġm iss
Ġi ll
Ġout side
g est
Ġn orm
Ġs iÃªu
Ġhapp y
Ġl and
Ġid ent
Ġam ount
Ġchang ed
Ä ĳ
re w
Ġo il
Ġta kes
ill ions
Ġal ong
uá» Ĺi
Ġo per
Ġk Ã½
us s
Ġde l
el t
Ġar ch
Ġlear ning
Ġt áº£i
ĠInd ia
Ġc ir
Ġl iter
Ġgi ai
ĠB ut
Ġde ath
Ġpower ful
sy ch
as es
Th en
ĠH Ã£y
o ke
ĠmÃł n
i um
Ġl ao
Ġg h
Ġem ot
Ġsystem s
Ġt áº§ng
Ġw ind
Ġear ly
Ġpop ulation
Ġm ot
Ġbl ack
Ġturn s
m ing
n ot
ĠÄĳ áº£m
Ġre v
Ġbehav ior
Ġt Ã¹
Ġs ens
Ġph á»ķ
bo ok
Ġ áº£o
ĠTh ank
Ġgr and
Ġh áº¥p
Ġpres ent
is on
Ġe le
Ġle ast
Ġimp ro
Ġlot s
Ġp red
Ġd uring
Ġguy s
Ġspec ies
s h
Ġf ear
em ent
k en
Ġ1 6
Ġsh ort
Ġapp ro
Ġinst ead
ward s
Ġcult ure
E very
Ġj our
Ġnh áº¯c
Ġf ly
ĠO h
Ġ19 9
Ġmach ine
5 0
er v
Ġlá» ĵ
ag ed
Ġchá»ī nh
Ġá» §
pl es
i ents
ot s
Ġc al
Ġng Äĥn
Ġkh á»Łi
³ n
id ent
Ġanim als
ow s
ĠN o
Ġ es
id es
ith er
ĠJ ohn
uc k
T o
f ect
p ly
á» ³
Ġm iddle
Ġreal ized
Ġrá» «ng
j or
áº ³n
Ġgi ven
Ġeas y
Ġá»ķ n
T uy
Ġp aper
Ġd ig
Ġe at
Ġ1 4
ĠkhÃ¡ i
Ġdem ocr
or th
am a
Ġg Ã³c
Ġf re
Ġf all
le ep
Ġre cent
Ġyour self
iver s
á» «
Ġim age
O r
ver age
ĠN am
Ġprot ect
o ok
Ġth áº£i
Ġm ain
Ġv ar
as ed
ĠC ar
Ġar g
Ġb om
Ġk Ãª
Ġ20 1
Ġt em
Ġh Ãºt
iáº¿ ng
Ġ9 0
Ġc ut
ast ic
ĠAf gh
Ġbeh ind
Ġhá»Ļ p
Ġnat ural
Ġnghi Ãªm
Ġd ream
Ġneed ed
Ġm Ã³n
Ġgi Ãłu
Ġan t
Ġmo le
ull y
Ġhand s
Ġl Ã¡
Ġm ath
Ġsim ply
Ġcol le
Ġchu á»Ļt
ĠÃĤ u
c om
Ġt áº¥n
Ġl uyá»ĩn
en n
ap t
ĠChÃ º
Ġneed s
Ġvi ol
ĠtÃŃ n
Ġc áºŃp
Ġf ight
it ch
Ġkhu Ã´n
Ġf ather
Ġdo ct
Ġex ist
Ġperson al
Ġfin ally
Ġey es
M á»įi
Ġpr act
Ġse ven
Ġrelations hip
ģ m
Ġl ow
ĠF r
y ear
ĠÄĳ Ã¡m
Ġp sych
an n
Ġf elt
l a
Ġf ield
ve red
Ġgi Ãł
ĠAfgh an
f ace
á» ·
Ã³ t
Ġle ave
Ġinc l
Ġl im
Ġng Ã¢n
Ġst at
Ġco i
á» Ĺi
Ġl iá»ĩt
Ġtr ad
Ġtr ao
os p
Ġst ay
Ġtuy áº¿n
Ġcompan ies
c ed
Ġl an
Ġph áºŃn
ĠH á»į
Ġcent ury
ĠÄĳá» ı
ĠC al
Ġloc al
m b
Ġma jor
Ġsupp ort
Ġth áº¯ng
Ġs un
Ġl áº§m
Ġf ac
in ary
Ġ1 3
Ġ7 0
Ġmed ia
Ġeconom ic
led ge
it ions
Ġare a
Ġper form
Ġser v
i pp
Ġch em
Ġr u
our ce
Ġdi rect
Ġacc ess
h o
ĠT V
ro om
Ġpolit ical
Q u
R á»ĵi
Ġh áº³n
Ġp le
Ġmá» ģm
au ght
Ġob vious
Ġturn ed
ĠEur ope
V á»Ľi
Ġh uá»·
Ġd áºŃy
Ġta i
ĠT áº¡i
iv ed
Ġfe et
Ġext ra
i ally
Ġn áº·ng
ĠÄĳ áº£o
Ġcomm on
e ople
ill s
Ġmáº¡ ch
olog ical
Ġcommun ic
Ġbre ak
S ome
Ġs ent
Ġm Ã´n
Ġd u
ĠN áº¿u
ain s
Ġbegin ning
Ġv Ã¢n
in al
Ġta ken
Ġchá» ©a
ĠC on
Ġcan not
Ġper haps
Ġval ue
b or
á» Ŀi
id ence
Ġsee ing
Ġsu per
Ġfam il
Ġke y
ĠHo a
av id
Ġpat tern
enc y
Ġphot ograph
Ġm áº¥y
Ã² i
Ġsp ent
Ġrec ord
ĠchÃ ³ng
Ġst rong
Ġse nd
Ġmo ving
Ġm ult
ĠnÃ³ ng
Ġpr ote
um ent
Ġext rem
L Ãłm
ĠphÃ ¹
Ġquy á»ĥn
Ġlong er
ĠmÃ¹ a
V ÃŃ
ĠÄĳ iá»ĥn
ĠchÃ ³
Ġu á»ĳng
á»ĭ p
Ġor ig
ĠchÃ¡ u
y r
Ġ á»ĳng
Ġth iá»ĩu
Ġm áº½
or ld
Ġle g
ĠmÃ¡ u
Ġpart s
Ġs Ã³ng
Ġh Ã£i
Ġbe gan
Ġ1 7
ĠP r
rou ght
iv ing
Ġper fect
Ch á»ī
Ġlead ers
Ġb uá»Ļc
Ġv ac
ut h
ĠB áº¯c
Ġchá»§ ng
A t
Ġtr Ã¹ng
Ġe ight
e al
Ġc Å©
Ġh áº¡
Ġd Æ°á»¡ng
Ġsur v
f ully
l t
Ġd raw
Ġli nh
Ġwee k
Ġwonder ful
Ġquick ly
Ġth áº£o
ĠÄĳ iÃªn
áº¥ c
ĠkhÃ¡ n
Ġrá» Ŀi
Ġspe cial
Ġ $
ı ng
Ġs Æ¡
our ces
Ġen c
Ġfil m
Ġre ach
ĠH ar
Ġev ent
Ġgrow th
ĠChÃº a
Ġincl ud
v ent
ĠÄĳ e
Ġg round
Ġd Ãµi
et er
av or
Ġs ize
Ġchá» Ŀ
ĠWh y
O kay
Ġt áº£ng
Ġlo áº¡n
Ġco ol
Ġtá»ĵ i
cr ib
Ġexperim ent
Ġl á»Ļ
ĠÄĲ iá»ģu
Ġabs olut
Ġparent s
re nt
Ġre qu
ĠA s
Ġter ms
Ġ ess
Ġb ang
Ġp ick
it ect
Ġwr ite
y l
ĠÄĳ Ã¡p
Ġs qu
Ġl ost
Ġv á»¯ng
al es
le y
Ġimp act
Ġcar bon
as c
ĠD o
Ġbu á»ĵn
ĠgÃ³ p
Ġm áº¯n
Ġto t
ci ous
Ġsá»Ń a
Ġth Æ°á»Łng
ĠL e
C hÃ
H o
g n
Ġc iv
ĠÄĳ Ã¨n
Ġne ar
Ġrep res
Ġv ers
Ġw in
ĠkhÃ ´
Ġan al
ĠTh áº¿
Ġimag es
ĠI ran
ĠG e
Ġbo x
Ġmor ning
Ġtr Ã¡nh
ĠTr Ã¡i
Ġcam era
h ood
Ġt Æ°á»Ŀng
Ġc ities
Ġkho áº£n
ĠK á»³
Ġtra vel
Ġg reen
Ġtr ied
Ġkhá»ķ ng
Ġm áº£nh
Ġo cc
ard s
H iá»ĩn
Ġm iá»ħn
Ġo ce
ĠA m
ĠAfghan istan
Ã¡ u
Ġon line
ĠA n
Ġknow ledge
er m
Ġtr áº¯ng
Ġch Ãłng
ĠÄĳÃ³ i
il ar
ra el
O n
Ġt á»Ļc
Ġl áº¡nh
is ed
ust ain
Ġpo or
Ġá»§ ng
Ġa verage
Ġm Ã¡i
Ġde ad
ci ally
ib ut
Ġo ng
ive ly
Ġvir us
Ġl áº«n
Ġb ene
ate g
Ġ2 1
Ġsp read
Ġ19 8
Ġins p
Ġappro ach
Ġtá»ķ n
Ġrec ogn
A n
Ġc Æ¡n
Ġa p
op s
Ġcon v
ĠT rong
ĠB e
Ġint r
Ġfe ed
Ġob s
Ġatt ention
Ġwee ks
Ġb áº£ng
ĠÄĳá» īnh
ĠM ar
Ġcom b
Ġcons um
Ġsit u
Ġarch itect
o on
Ġs um
it es
á»ı ng
Ġreal ity
Ġfeel ing
Ľ m
Ġtá» Ŀ
ĠB l
Ġme asure
Ġca us
Ġopportun ity
Ġris k
e ed
Ġs itting
it ut
ĠG i
Ġn Ãºi
Ġs leep
Ġd iá»ĩu
ict ion
Ġmean ing
Ġc amp
Ġre le
Ġchang es
N o
Ġt iá»ĥu
Ġtr Ã¬
Ġy es
Ġe ither
Ġph á»ıng
ur b
Ġwould n
ĠW orld
ress ion
ri ed
Ġaut h
ĠEng lish
e xt
Ġd est
Ġwhat ever
Ġtá»ĳ n
ĠÄĲ Ã´ng
r al
Ġb orn
Ġh áº£o
an a
iz ing
Ġb á»ģ
Ġb rought
Ġo pt
at ors
Ġf ast
ĠS p
C Ã¢u
c u
ĠÄĳ Ãło
Ġd ie
Ġqu Ãªn
C on
Ń nh
Ġh osp
Ġr Æ¡i
Ġgi ving
Ġgiá» įng
gg est
Ġ Ã¡o
Ġf oot
Ġgiá» ıi
Ã¹ a
ore d
Ġsu ggest
ib ility
Ġbas ed
Ġeconom y
Ġresp ons
Ġ áº¥n
Ġtr áºŃn
ang er
Ġchá» ĵ
ĠC Ã¡c
ad es
Ġbl ue
Ch o
Ġinterest ed
ĠIs rael
Ġphys ical
Ġstruct ure
Ġm Ã£i
Ġst age
Ġsu d
Ġkhu áº©n
Ġseem s
Ġtool s
u nt
y n
Ġtr á»ĵng
Ġgrow ing
Ġvo ice
Ġprof ess
C Ã²n
o f
s on
Ġanim al
Ġb ar
Ġi ce
Ġg one
Ġch áº¡m
an ces
is ter
Ġqu áº£ng
VÃł o
Ġab ility
pl oy
Ġsud den
Ġf avor
Ġcá» ¡
Ġdis c
Ġind ust
ĠNg Æ°á»Ŀi
y a
Ġc áº§m
Ġh ar
Ġk im
ic o
Ġso ft
Ġdevelop ed
Ġmod ern
Ġbook s
o ad
Ġb áºŃt
Ġp ress
ch ie
Ġpr iv
ĠE m
ĠCh in
Ġprod uc
Ġt i
Ġh on
Ġst ress
um b
Ġknow n
Ġaff ect
ou ch
Ġf ire
Ġnum bers
Ġchar act
ĠÄĳ Æ°Æ¡ng
Ġs il
om en
Ġsm art
w are
Ġv á»ĳn
Ġd ark
Ġreal ize
ĠnghÃ ¬n
Ġuniver s
Ġb á»ģn
Ġte xt
Ġchalleng e
r om
Ġs Ã¡nh
Ġl Æ°Æ¡ng
Ġh Ã´n
Ġo xy
Ġch áº¥m
Ġph áº¥n
Ġqu áº§n
ĠS outh
Ġmá» Ŀi
Ġ2 4
Ġkho Ã¡
Ġwr ote
Ġey e
P eople
t ed
u g
Ġt iá»ģm
Ġk ÃŃ
Ġngh á»ī
Ġdevelop ing
a ul
Ġn áº¯m
Ġp ost
Ġp ull
Ġj o
Ġdes crib
Ġrun ning
Ġweb s
Ġiss ue
ĠvÃł ng
Ġchiáº¿ m
Ġinv ent
Ġscient ists
M á»Ĺi
Ġthan k
Ġcr it
l u
l ict
Ġn ice
Ġh ot
Ġr ich
Ġho áº£ng
Ġhá» ķ
Ġstart ing
Ġsc ale
ĠkhÃŃ ch
Ġcreat ing
Ġincred ible
Ġbott om
Ġt Ã¡ch
Ġh i
Ġd Æ°á»Ŀng
Ġph á»ĳi
Ġsa ve
ace book
Ġcl imate
Ġunderstand ing
Ġaud ience
u ght
Ġh or
Ġh Ãło
Ġvá» £
ĠR ob
Ġngá» «ng
I D
Ġb á»¯a
Ġh iá»ĥn
Ġp ur
Ġ5 00
Ġhum ans
Ġtrad ition
á» «ng
Ġt w
Ġs ustain
Ġp ath
Ġpo ll
Ġro ad
Ġwr iting
p ar
Ġc y
ĠÄĳ iá»ĩu
Ġv Ä©
Ġg e
Ġare n
Ġlá» Ńa
Ġthá»ĭ t
Ġcol or
Ġciv il
u ce
ĠlÃł ng
Ġr Ãºt
it i
Ġvá» ¡
Ġknow s
Ġgh áº¿
O ur
l i
Ġl ay
Ġm illions
ĠÄĳá» «ng
Ġx Æ°Æ¡ng
ĠV Ã¬
ens ive
Ġbl ood
pe cially
Ġgirl s
i et
Ġs n
Ġal one
ĠQ u
Ġplay ing
M ay
p ort
Ġs Ã³t
Ġch uá»Ĺi
ĠI f
ere nce
Ġcon vers
áº· m
Ġne igh
ĠK en
Ġs olution
Ġtr ack
ĠM y
ĠF acebook
Ġná» ķ
Ġbene f
ĠChin ese
c ess
Ġk á»ĭch
Ã³ m
S t
Ġkh á»©
Ġkh áº©u
ĠH á»ĵi
if orn
Ġany one
Ġar r
ĠÄĳ áº±ng
Ġb iÃªn
Ġtr i
Ġch áº£y
áº¹ n
Ġ19 7
Ġliter ally
er o
Ġde g
Ġsá» Ľm
uá» µ
ub e
Ġrel ig
Ġpat ients
Ġkh uy
ĠT hÃ¡
Ġare as
Ġlo áº¡t
and a
Ġte nd
ĠK hi
Ġem ail
Ġbl og
Ġtell ing
Ġsl ow
ĠCal iforn
Ġtr uth
Ġr ul
Ġgi Ã³
Ġmo v
Ġdevelop ment
Ġgu ess
iqu e
Ġbab y
Ġr ate
Ġgi ves
id ge
Ġcon cept
Ġpr om
ĠTh ere
ep t
ak es
Ġtho Ã¡t
Ġhundred s
Ġinnov ation
Ġw all
Ġf em
ch an
st e
ad a
Ġas king
ob ody
Ġte le
Ġpat ient
Ġchá»ĵ ng
e h
Ġt áº¯t
Ġg ames
Ġch áºŃm
al a
Ġfor ward
Ġso on
ĠÃ Ķng
Ġsound s
Ġpred ict
Ġprote in
ĠCaliforn ia
I s
p or
Ġv ill
ar r
Ġph one
Ġwor th
ĠV Ã¢ng
Ġexper i
u el
Ġ er
Ġwh ite
Ġngh á»ģ
olog ies
Ġpol ic
Ġdep end
Ġt Ãłn
Ġs áº¡ch
Ġd Ä©
Ġlo g
Ġsol ve
Ġb Ã¨
ud e
ĠV áºŃy
Ġl áº·p
Ġgi áº¥c
Ġpr og
ĠS ch
ĠD avid
Ġsu ff
ĠÄĲ áº¡i
T a
ĠO K
Ġtrans form
Ġav ail
Ġnorm al
us ion
Ġim m
Ġgener ation
Ġes pecially
o x
Ġc op
Ġthe ory
Ġo kay
Ġtr ust
ir th
Ġpe ace
if ied
Ġsu áº¥t
Ġshow ed
Ġgá» £i
Ġdisco vered
Ġm Å©
Ġtr Æ°ng
ent ially
Ġfor ce
N ot
T á»«
á» Ľ
ĠchÃ ¬
ĠM c
ell ig
Ġrepres ent
Ġa st
os ing
Ġre pl
Ġem p
ond on
Ġcent er
Ġprodu ce
Ġpict ures
A l
p ed
r os
Ġqu á»¹
ĠA d
ĠnhÃ ©
Æ°Æ¡ i
Ã© p
ra q
Ġty pe
Ġev olution
Ġcur rent
Ġvac c
o es
Ġb ur
Ġv ol
Ġk iá»ĩm
ĠM ex
Ġchang ing
ĠÄĳ Äĥng
Ġs on
as ing
Ġsub ject
Ġfund am
Ġindust ry
Ġc u
Ã³ i
Ġtr á»¯
Ġin tern
ĠphÃ ª
ĠA t
Ġlá» Ĺ
ĠL ondon
Ġtalk ed
Ġsim ilar
Ġmove ment
y ond
Ġt Ãºi
Ġl á»ĳi
Ġng áº¡i
is ions
Ġcho ice
if y
Ġwebs ite
Ġt ouch
Ġb ed
Ġtr áº¡i
ĠD e
Ġpl ant
Ġincred ibly
Ġpot ential
Ġoce an
Ġs Ã´ng
Ġha ven
Ġser ious
Ġmaterial s
R áº¥t
Ġt Ã¡n
Ġc ars
Ġa ng
Ġli f
ill i
Ġcomp et
Ng Ãły
N gh
Ġ est
ou ble
im ens
Ġnguy á»ĩn
Ġteach ers
Ġd áº·m
as k
Ġsa nd
iv al
Ġle a
ec k
Ġsur face
ph ere
Ġabsolut ely
ID S
o or
Ġth Æ°á»Ľc
Ġch ance
ĠI raq
ĠkhÃ¡ ng
ab or
ĠCh ar
he ad
i od
Ġa chie
Ġb all
Ġh it
am m
ĠC l
Ġres ources
Ġinv olved
Ġiss ues
raz il
ste in
w it
Ġv iá»ħn
Th á»©
il ities
Ġconf lict
D P
± ng
Ġr ock
ar a
le x
Ġta ble
Ġmed ic
Ġdef in
b it
Ġ 0
le t
Ġha ng
Ġu lt
Ġem b
Ġ3 00
ĠW est
ass ion
e y
Ġn Ã©
ĠÄĳ uá»ķi
Ġb á»¥
Ġcá» Ŀ
Ġse ll
Ġsá» ¹
Ġfun ction
Ġdet ail
Ġjour ney
l ike
Ġthá» Ł
Ġqu ang
Ä© a
Ġsh ape
Ġtin y
Ġper iod
Ġhapp iness
Ġam ong
ĠghÃ ©p
Ġavail able
p re
u ct
Ġc Ãł
Ġs at
Ġbe yond
Ġschool s
Ġgener al
it iz
ĠC áº£m
Ġgroup s
Ġn Ã¢ng
Ġd anger
Ġvá» ı
Ġph iÃªn
Ġre ce
Ġsa fe
Ġne cess
Ġtechn ologies
Ġmet h
Ġth Äĥm
Ġb Æ¡i
Ġb irth
Ġst ru
Ġpr in
Ġlike ly
Ġint ellig
Ġsl ide
Ġatt ack
Ġvis ual
ĠkÃ© m
Ġb reat
Ġnh áº¯n
Ġso ld
ro ll
Ġfl ow
Æ°á»¡ i
Ġproject s
Ġdist r
Ġmess age
o o
Ġc raz
Ġf ur
Ġsá»ĳ t
Ġdev ice
Ġrecent ly
Ġsitu ation
b s
t Ã´i
Ġc Ãº
is hing
et h
ĠB razil
Tr Ãªn
Ġvis ion
Ġstre et
Ġmil es
Ġdemocr acy
Ġrul es
J ust
V áº¥n
Ġl áº·ng
ĠH a
Ġdig ital
i ar
Ġth áº£m
Ġv áº¿t
Ġw ish
Ġr áº»
or ing
á»į t
Ġre act
el es
Ġkho áº£nh
ip s
Ġacc ount
Ġelect ric
B y
Ġc ause
or ge
Ġse a
ĠA IDS
Ġbec omes
Ġl á»įc
Ġnh áºŃt
un e
Ġná» Ĺ
Ġtho áº£
Ġindividual s
N Äĥm
r am
Ġt Ãłng
Ġs Ã¡u
Ġm ap
Ġnh áº¹
Ġf air
od ies
Ġne g
Ġdi ed
ĠO kay
Ġxo ay
l ight
Ġw alking
ant ly
Ġtell s
Ġoff ice
Ġput ting
Ġrev olution
Ġb á»įn
ĠM ich
Ġem erg
Ġmed ical
Tr Æ°á»Ľc
S A
f ort
m ore
Ġs á»¥
ed om
Ġho ang
Ġbo y
Ġdr op
B Ãł
Ġdr ive
Ġcommun ities
Ġmem ory
n ed
u ly
Ġn ine
Ġh Ã¹ng
Ġtr Ã²n
Ġtr á»ĳng
ap an
ar ily
om ing
st r
st er
Ġact iv
ĠK h
Ġcr oss
Ġbig ger
Ġbá» Ŀ
a ur
ĠÄĳ iá»ĩp
Ġm ob
Ġd iv
Ġng áº«u
ĠC ol
ĠS c
ĠP hÃ¡
Ġcreat ive
Ġev idence
Ġpass ion
ĠChr ist
Ġg t
as hing
Ã£ ng
Ġme chan
ag n
i res
Ġc itiz
ĠC am
ĠP ar
ci ent
Ġdesign ed
Ġpartic ip
ĠmÃ¹ i
o id
Ġ Æ°u
ĠÄĳ áº³ng
Ġl t
ĠlÃł nh
Ġthá» «a
Ġex cept
ĠL Ãłm
Ġact ion
ous ly
Ġar m
Ġ19 6
Ġreas ons
Ġcraz y
f ord
ĠS te
Ġcomp assion
ĠY es
ĠNh áºŃt
Ġread y
Ġvo i
ĠBr it
g es
z z
ĠÄĳ áº¿
Ġf ish
Ġe p
Ġse arch
Ġgr ad
Ġ4 00
ĠY eah
Ġresult s
c ol
Ġl ose
Ġdo áº¡
ain ed
Ġstart s
Ġcr is
Ġimpro ve
f er
h ow
p ut
ng th
Ġc ode
Ġl á»¥c
Ġto wards
ĠC Ã´
Ġsh if
ĠE ast
Ġevery where
Ġbl ind
Ġinst itut
Ġcle an
Ġdru g
Ġt ar
ĠÄĳ am
Ġb Ã²
ĠÄĳá» ±ng
Ġph il
Ġli ved
ÄĲ Æ°á»£c
Ġbas ic
Ġteach er
Ġaw are
Ġt Ã´
Ġl ÃŃnh
Ġb act
Ġr Ã¡c
ĠS an
ĠN ow
Ġthu áºŃn
ĠJ apan
Ġcons cious
med i
Ġfavor ite
Ġsoft ware
ĠMex ico
N hÃ
c hÃºng
k y
v iew
Ġl ed
Ġm is
es tern
om s
Ġpr im
Ġthu á»·
Ġcomput ers
Ġcertain ly
W ith
g ed
Ġth Ã¡c
Ġf aster
Ġta ught
Ġst ore
Ãº a
ĠG r
ĠÄĲ áº¥t
Ġbl ock
Ġbig gest
olut ions
£ n
Ġc art
Ġb ird
on se
Ġon to
ur t
Ġcho ose
ĠA D
Ġun f
ĠÄĳo Ãłn
Ġscient ific
L iá»ĩu
á» ©ng
Ġt an
Ġwas te
ol es
Ġdec isions
Ġexam ples
Ġintr od
Ġtr ial
Ġch áº·t
Ġpr int
ĠB á»Łi
ĠS w
ish ed
te nd
G i
Ġth ang
ĠÄĳ áº¡p
Ġl au
ay s
Ġse ver
ĠB ill
ĠN orth
ru ction
Ġsc reen
Ġmind s
Ġmag ic
Ġobvious ly
Ġhosp ital
Ġneigh bor
n al
Ġc áº¥y
Ġm ist
ed ia
Ġqu ality
et t
im b
ÄĲ áº§u
Ġme ant
Ġmo ved
Ġshow ing
ress ed
Ġtrans l
Ġrep ort
Ġmor al
Ġparticular ly
Ġnhu áºŃn
Ġviol ence
Ġextra ord
Ġfur ther
Ġp u
Ġtr ÃŃch
ur ity
iz ations
Ġgr aph
Ġcont ent
oth ers
ĠCan ada
ivers ity
Ġap art
l in
Ġst e
ure d
Ġcont ext
Ġad m
Ġc Ã£i
Ġa f
Ġh uy
Ġd in
Ġr id
Ġhá»į p
ĠW ar
ĠO r
Ġcons ider
ĠAr ab
g round
Ġm ount
Ġgi áº£ng
ĠA ll
ĠS he
ĠR e
Ġexp ert
Ġstud ent
Ġind eed
c ome
Ġth reat
Ġn ational
Ġdo or
Æ°á»Ŀ n
Ġcl oud
Ġfl u
Ġresp onse
Ġchem ical
V iá»ĩc
Ġl Æ°á»£c
Ġm iáº¿ng
Ġnh á»±a
an y
ĠÄĲ á»©c
Ġngo Ã¡i
ĠlÃ£ ng
Ġsol ar
Ġconnect ed
Ġsurpr ising
Ġsever al
n ces
Ġt áºŃt
os h
ol f
Ġpr ison
Ġwor se
ĠG DP
Ġbrain s
Ġreg ion
Ġrad io
Ġtot ally
Ġauth or
Ġl áº¯p
Ġr ap
Ġf ix
Ġy Ãªn
Ġwh e
Ġkh áº¥u
im s
ĠgiÃ¡ m
uc le
Ġdru gs
Ġprog ress
A fter
o int
Ġch áº·n
Ġsoci et
Ġpos itive
Ġfore st
ChÃ Ńnh
c is
Ġth áºŃn
Ġn obody
Ġh ung
Ġg rew
Ġd iá»ĩt
al d
ĠM o
and er
wit ter
Ġc e
Ġth ai
ĠÄĳ Ã²i
Ġe c
Ġra in
ver ty
NÃ³ i
Ġwatch ing
Ġvar i
ĠKen ya
I m
a king
Ġg ra
Ġd am
Ġch Ãło
Ġf ant
ĠchÃ ©p
Ġlá» ħ
Ġmá» «ng
Ġrem ark
Ġáº ¢
ĠChr is
3 0
C an
Ġth ao
Ġm Ã¢y
Ġh uá»ĳng
Ġng ang
Ġst ick
ĠS m
ĠN gh
ok en
ĠE d
Ġad ult
Ġstr ateg
Ġvir t
Ġwa it
r ing
r or
Ġm áº¡i
Ġthe r
Ġp in
Ġd om
ou b
ĠT witter
Ġcáº£ n
ag ing
Ġ2 000
Ġim medi
ro f
Ġass um
Ġcoll abor
Ġmult i
2 0
w in
ĠÄĳ á»ĳng
Ġl ink
Ġm ine
Ġh op
Ġk o
Ġp ush
at ory
Ġf ill
Ġcá» ©ng
Ġsh own
Ġwant s
Ġdec ision
Ġpers pect
Ġcar ry
Ġ15 0
Ġinf ect
Ġjob s
Ġallow ed
H ay
d om
ĠÄĳ Ã¹a
Ġm ental
Ġh Æ°Æ¡ng
Ġo h
Ġtr Ãłn
Ġnot ice
Ġsá» ķ
Ġsá» £i
ĠP al
Ġsp ir
Ġxo Ã¡
Ġinclud ing
Ġdisc uss
Ġcharact er
May be
Ġmeth od
Ġc orn
Ġm Ã¬
Ġd á»ĭ
Ġf asc
ag ine
ie f
Ġany body
Ã¨ o
Ġinf lu
Ġdet ect
Ġtrain ing
Ġobject s
Ġc ong
Ġb ank
Ġb odies
itt en
Ġsy n
Ġapp ear
Ġexpl ore
Ġsk in
Ġtre es
Ġret urn
aught er
Ġt Ã¡
Ġth Ã¹
Ġth áº¥u
Ġs an
Ġv ong
Ġnh áº±m
ic le
Ġcl os
Ġpo verty
Ġcap t
Ġpos ition
Ġcir c
Ġfre edom
Ġsudden ly
Ġvill age
C uá»ĳi
L Ãºc
Ġn ucle
Ġv Ãº
Ġk il
ou ght
in stein
ĠcÃ¡ t
Ġtá» ı
Ġem ploy
ĠF ran
so ci
olog ist
Ġstud ies
Ġbuild ings
Ġcontin ue
Ġ Ã¡m
Ġc áº·p
Ġn an
er ve
Ġj ud
Ġact ivity
Ġlar gest
Ġminut e
Ġnam ed
Ġevent ually
Ġmov ie
ĠAD N
I T
c y
Ġc ases
Ġw ife
Ġtr Ãło
Ġtr uly
ĠcÃ¡ m
ist ics
Ġfar m
Ġsupp osed
Ġcris is
f or
Ġm áºŃp
Ġm á»±c
Ġh iáº¿m
Ġi gn
en er
Ġf ine
it ary
in ct
ic a
ur g
Ġtuy Ãªn
Ġam p
Ġpolit ics
Ġconvers ation
E ven
k n
Ġb á»ĳi
Ġph iáº¿u
od ay
Ġse par
ĠP aul
Ġfe ll
ĠF l
ell ow
Ġproduct s
Ġtem per
Ġtradition al
p ing
Ġth uyá»ģn
Ġs Ãºng
Ġs we
Ġb áº¯n
Ġk ept
an cial
Ġf a
Ġfor ms
Ġlu ck
Ġany more
Ġac cept
Ng ay
Ġkill ed
Ġexc ited
ashing ton
o e
v ision
Ġm Ã³c
Ġnh á»ĭp
nh Æ°ng
ĠkhÃ Ńa
ĠC O
Ġde b
el ess
Ġcomp lic
ff ic
Ġinc ome
Ã¨ m
ĠÃ ģ
Ġart ist
Ġelect r
Ġspec ific
ĠchÃ¡ n
Ġcond itions
Ġsá»¥ p
a el
c ape
n ers
u f
Ġs ource
re st
Ġg as
ul ate
ĠB ang
Ġpl ants
oss ible
Ġend ed
Ġeff ort
Ġspe ed
Ġextrem ely
Ġti Ãªm
c ise
Ľ t
Ġs olutions
Ġp ack
ĠA b
Ġlá» «a
ĠN ig
Ġro le
Ġpoint s
Ġresp ond
Ġsign ific
j oy
Ġh Ãł
Ġh ig
Ġk Ãªu
er man
os phere
áºŃ c
Ġkh ung
Æ°á»£ u
ent ly
Ġho Ãłng
Ġcl in
ĠW ashington
Ġsec ret
Ġrobot s
ĠAfric an
Ġallow s
Ġlab or
Ġprov ide
Ġlisten ing
z e
ĠÄĳ áºŃp
Ġd á»ĳi
Ġng á»įn
ver t
Ġgo al
ĠA i
ĠA ng
Ġal ive
ĠD an
Ġfind ing
ĠX in
Ġexc iting
Ġdoct or
M ost
Ġ Ã³c
Ġl iá»ģn
Ġh Ã¨
Ġtr iáº¿t
se ct
ĠD on
Ġdis app
Ġco ok
Ġcá»¥ c
Ġsort s
Ġsk ills
Ġcolle ge
Ġsociet ies
C Ã¡ch
g ing
h am
Ġkh áº£o
Ġdo c
ĠbÃ© o
Ġgá» Ĺ
Ġcolle ag
ĠPhÃ¡ p
Ġextraord inary
Ġfasc in
Ġhig her
Ġl ate
Ġw ild
use um
Ġread ing
Ġpub lish
Ġthous and
Ġmath em
Ġserv ice
C Ã´ng
F irst
K hÃ¡
Ġc at
Ġc Ã´n
ĠÄĳ ua
om m
Ġwe ight
Ġst ra
Ġan n
Ġlo ved
Ġab ove
em ic
Nh Ãł
uá» ³
Ġser ies
ĠUn iversity
ĠIs l
Ġsuccess ful
al ia
Ġthá» Ŀ
id s
ul f
Ġimp ossible
Ġtho áº£i
eg r
Ġaff ord
Ġpur p
Ġstru gg
Ġprin ci
Ġcitiz ens
C Ã¡m
d r
g o
Ġc Äĥng
Ġm Æ°a
Ġb al
Ġb á»ķ
Ġb unch
Ġb áºŃc
Ġra nd
Ġsm ell
Ġsur g
Ġdet erm
Ġmodel s
Ġfamil ies
a id
c ri
Ġ Ã¡c
Ġth áº§y
Ġs us
Ġl ower
al y
Ġha ck
ĠG iá»
ĠL a
Ġmáº¡ c
Ġany where
Ġcal cul
Ġfundam ental
Ġ quot
Ġl Å©
Ġl ands
Ġh á»ĳi
ou n
Ġng Æ°á»¡ng
ic ed
Ġcon cer
ĠS á»±
The o
Ġus ually
Ġen joy
Ġsl ight
Ġlar ger
Ġmach ines
Ġneur ons
Ġpolic y
u it
Ġt Ã¡o
Ġth r
Ġn áº¥m
Ġr Æ°á»£u
iv en
Ġexp ensive
ĠTh áºŃt
Ġcap ital
enc ed
cul es
O f
Ġs ou
Ġch á»ĳi
Ġch á»ĳt
ÄĲ á»ĳi
ers on
Ġj ump
Ġmá» ı
ĠW estern
Ġeff ic
Ġfamil iar
Ġstra ight
S h
r ay
ĠC ong
Ġbec oming
Ġpl astic
Ġá» Ĵ
Ġfun ny
Ġpie ces
Ġhá»Ĺ n
Ġtyp es
Ġcrit ical
C Å©ng
b all
Ġc ry
Ġl ad
Ġm Ã©t
un k
Ġro ll
Ġhu áº¥n
Ġfam ous
ĠThÃ¡ i
l ier
á» ķi
Ġc ard
om as
am i
Ġra ise
ig r
Ġsa ving
ĠC ity
ĠM IT
Ġmá» ĵ
Ġup on
Ġact ual
Ġsome where
Ġwill ing
ound s
Ġco ld
Ġgen etic
Ġdem on
Ġref lect
Ġsw im
Ġcontin u
Ġdoct ors
Ġperspect ive
Ġrand om
a x
g r
w ord
Ġnh Å©ng
Ġtr áº§m
ar ies
Ġsome how
Ġbo ard
Ġtalk s
Ġsecond s
Ġresp ect
att le
Ġmag n
ĠghÃ ©t
Ġpattern s
Ġrecogn ize
Ġphil os
Ġcomplic ated
P S
b ack
Ġn Ãºt
Ġm ir
Ġv Ã¢ng
th e
ĠM ay
ĠW ik
Ġá» ©c
Ġgreat er
Ġgl ass
Ġwr itten
Ġear th
Ġtreat ment
Ġdel iver
Ġsqu are
n a
Ġ áº¡
Th ay
Ġla unch
Ġfin ancial
ĠAmeric ans
ĠchÃ¡ y
ustr ial
Ġincre ase
urb an
Ġkhuy áº¿n
ĠFran cis
o ff
Ġtr uy
Ġr á»§
Ġcho ices
Ġsh ap
og en
Ġright s
Ġteach ing
L Ãł
N Ãło
T oday
Ġs ite
Ġb iá»ĩn
Ġb áº£y
re ction
Ġp age
Ġtá» ĭ
ĠB áº£n
ĠL et
Ġ200 8
Ġtá»ī nh
Ġshare d
Ġeffect ive
Ġvers ion
Ġspir it
e f
Ġt iss
Ġs am
Ġtr ick
Ġr ise
Ġe t
Ã£ n
ct or
Ġsh ark
um ents
Ġgen es
ak istan
Ġmole cules
Ho áº·c
Ġdemon str
ĠÄĳ áº¯t
Ġr an
Ġy eah
Ġcá» ı
ke y
ĠC Ã´ng
ĠphÃ¡ n
Ġle gs
ĠTh uá»µ
Ġsec urity
Ġold er
Ġsmall er
Ġbeaut y
Ġbact eria
x i
Ġp ort
Ġng Ã³n
Ġe th
am ic
ĠS e
Ġdec ades
Ġhuman ity
Ġhá»ĵ n
Ġstand ing
Ġpain ting
Ġcost s
Ġple ase
Ġopt im
Ġfem ale
M Ãł
Ġth row
Ġh ous
Ġgi áºŃn
Ġx á»©ng
ĠB ar
ĠN e
ep end
olog ists
Ġhealth y
Ġconnect ion
ortun ately
Ġdisco ver
Ġincre asing
Im agine
A i
£ t
Ġth iá»ĥu
Ġm áº¡o
Ġtr ib
Ġthá» į
in ing
ir ing
Ġas soci
Ġus es
Nh iá»ģu
ĠP l
Ġ3 5
Ġ4 5
Ġgen e
Ġpre p
Ġbeing s
ee ch
Ġachie ve
m p
Ġth áº£
it ation
om p
le br
Ġst ar
il ing
ĠÄĲ Æ°á»£c
Ġexp ress
Ġorgan izations
Ġlevel s
Ġbab ies
Ġ Ãł
Ġt Ãºc
Ġs al
Ġh áº¯n
or row
Ġkh iáº¿p
Ġcom fort
ĠP akistan
ĠD r
Ġdes p
Ġorgan ization
Ġcor ru
Ġengine ering
Ġserv ices
Ġess entially
o ch
t ime
ĠÄĳ áº¯n
Ġs Äĥn
Ġg á»įn
it or
Ġfor th
ĠkhÃ¡ t
ĠB en
ĠB ig
ac ity
Ġsp eech
ĠD ar
ther n
Ġcreat ivity
Ġpract ice
ĠmÅ© i
Ġdistr ibut
Ġb Ã´ng
Ġb read
re pre
at ically
ar m
Ġcá» Ĺ
Ġph en
Ġcon c
ĠC Ã¡i
ab les
Ġma i
ĠG PS
Ġcá»¥ t
Ġrem ind
Ġdanger ous
repre ne
D Ã¹
a ign
l ant
Ġc ust
Ġth áº¡ch
Ġm ix
Ġi nh
Ġd inh
Ġd Ãły
ver se
Ġpr os
ag ement
ĠG u
Ġtrá» ©ng
Ġthrough out
Ġfin al
Ġelect ron
V á»ģ
p s
z a
Ġt ia
Ġn ation
Ġf it
Ġx ong
ul ner
Ġal g
ra ft
ĠO b
Ġmob ile
Ġremark able
Ġimmedi ately
Ġsurg ery
Ġrá»§ i
Ġth iá»ĩp
Ġn áº¥u
os es
se qu
ci ence
Ġthu Ãª
ĠJ e
Ġev olved
Ġenvironment al
Ġarchitect ure
Ġelectric ity
Ġfant astic
& #
o le
Ġm ention
Ġb inh
Ġh Æ°á»Ľc
Ġv ict
Ġk áº¹
Ġch áº©n
it ude
ĠphÃ ³
Ġse qu
ist ry
Wh ere
ĠE instein
Ġdi agn
Ġoff ic
Ġbelie f
Ġpol ice
iss ion
Ġbi ology
Ġear lier
Ġstand ard
Ġwalk ed
Ġchalleng es
Ľ n
Ġc á»Ļt
Ġth Ã¡nh
Ġl y
Ġl á»Ļn
Ġm á»Ļ
Ġm Ã²
Ġb á»Ļt
Ġb Ã£i
Ġh uyáº¿t
Ġp an
Ġp en
Ġp ark
am s
Ġst ars
im ately
Ġte en
ĠG erman
ĠÄĲ Ãºng
ĠR ight
Ġco ff
uc ed
Ġenc our
Ġmedic ine
g en
Ġ urban
ĠÄĳ á»ĳc
ĠÄĳ á»ĳt
Ġm al
Ġm atch
Ġd ad
Ġch air
Ġch eck
Ġng Å©
ot y
Ġwh ose
Ġgi Ãłnh
ĠT o
Ġho le
Æ°á»Ľ t
ĠA ustr
ÄĲ Ãºng
Ġor d
ĠmÃ¡ t
Ġco ver
Ġsc an
Ġpop ular
Ġprop ert
Ġhon est
Ġtele vision
e es
į t
Ġt Ã³c
ĠÄĳ Ãłi
Ġtr uyá»ĩn
Ġch ai
ar ian
Ġra ce
Ġchá» «ng
ol a
ĠH y
ĠL iÃªn
Ġthu áº§n
Ġun ique
Ġinter view
cept ion
Ġprodu ction
Ġstr ange
Ġopp os
Ġcond ition
Ġfollow ing
Ġclear ly
Ġintern ational
a f
a ff
y le
Ĺ ng
Ġt ur
Ġb Ã³
Ġb áº¡c
Ġd á»įc
Ġr Äĥng
Ġr Æ°á»¡i
Ġx Æ°a
id ing
ĠM us
ĠL os
res h
ber g
ĠNh Ãł
Ġapp ly
Ġunderst ood
Ġhelp ed
Ġadd ress
Ġ201 0
Ġce lebr
A ny
H ai
Ġtr ade
is es
iá»ĩ ng
ĠT áº¥t
Ġpr ice
Ġsp ect
Ġcare er
Ġwa iting
Ġmass ive
Ġpriv ate
K h
f l
Ġn ut
Ġm iá»ģn
Ġh iáº¿n
Ġv eh
op er
ĠC ent
Ġuse ful
Ġhim self
bo ard
ĠPh il
Ġmil itary
Ġemot ional
Ġperform ance
i est
l oad
v ard
Ġt áº·ng
Ġt ask
Ġn Æ¡
ĠÄĳ Ä©a
Ġg Æ°Æ¡ng
Ġnh áº¥n
Ã¡ y
im in
Ġwor ry
Ã½ t
ĠL an
Ġcá»ĳ t
Ġsur round
ren ch
Ġent reprene
ĠInd ian
Ġaut om
Ġspea king
ĠnÃ© m
ĠNig eria
Ġcoff ee
R I
T hÃ
b u
r is
Ġ áº¥m
re et
Ġr áº¯c
Ġx Ã¢m
Ġfor get
th ough
ĠM an
Ġthere fore
ec ond
Ġpre vent
Ch áº³ng
Ġnhá» ī
Ġhist or
Ġcomplex ity
Ġsex ual
Ġmot iv
Ġintellig ence
Ġphen omen
Ġ When
Ġm ale
Ġi r
Ġi Ph
Ġng Ãłi
Ġsp aces
Ġcreat es
Ġclass room
Ġexperim ents
ĠHa iti
Ġneighbor hood
S omet
s c
Ġl áº»
Ġh us
Ġv Æ°á»Ŀn
Ġtr á»Ļn
Ġf old
is ms
iáº¿ c
Ġex h
Ġwere n
ĠE l
Ġinst ance
Ġ7 5
oll y
Ġval ues
Ġphys ic
ash ion
anc y
Ġmeet ing
Ġident ity
Ġslight ly
D on
Ġa head
Ġl ines
Ġv an
Ġw ood
re es
Ġd ÃŃnh
Ġnh o
ed d
Ġwe alth
ow d
Ġqu Ãª
Th ose
Ġx áº¡
Ġdo g
Ã¹ i
ĠA pp
ĠB er
ich ard
Wh ich
ĠF or
wo od
Ġpart y
ĠkhÃ³ c
Ġdec ide
Ġsim pl
ĠÃ Ŀ
Ġlight s
Ġmic r
c ope
Ġt áº¡m
Ġt uá»³
Ġv ulner
Ġg ay
Ġd ai
Ġd ance
en ing
Ġse lect
Ġwor st
ĠN A
Ġdi rection
az z
Ġhigh ly
Ġcent ral
Ġcou n
Ġphys ics
ĠHar vard
An other
H áº§u
m m
Ġc áº©n
Ġb ase
Ġin sect
Ġst ates
Ġsh op
Ġdr ink
Ġnetwork s
Ġdest ro
Ġet c
K ho
R ight
Ġth áº©m
Ġb áº¯c
Ġh all
re g
Ġd aughter
Ġe ating
ol ve
st ead
Ġsh ot
il es
ĠnhÃ ¡
ag o
ac ed
Ġdis pl
Ġtho áº£ng
Ġtu á»ĩ
Ġsum mer
Ġvacc ine
r ast
Ġm iÃªu
Ġm iá»ĩng
Ġh áº¹n
Ġr Ãło
ĠÄĳá» Ľn
ce ed
ĠC hi
ĠG reen
Ġen orm
Ġtrans port
Ġansw ers
eas es
Ġphot o
Ġcult ural
ĠÄĳÃ¡ y
Ġfocus ed
ĠChar les
Ġnucle ar
Ġpurp ose
B e
m y
Ġc atch
Ġm áº©u
Ġin j
Ġph á»ķi
Ġdiffere nces
ĠWe b
Ġprof ound
Ġspend ing
Ġcamp aign
Ġinvent ed
Ġcust om
d d
y stem
re l
at ives
Ġd ying
Ġng áº§m
us ed
Ġbe at
ĠÄĳÃ³ n
ĠB á»Ļ
ĠB ro
Ġbr ings
Ġdec ade
Ġatt ract
Ġstre ets
Ġlaw s
ĠFr ank
Ġsurv ive
ĠGe orge
Ġtemper ature
C áºŃu
a j
c ing
i os
Ġ Æ¡i
Ġt ree
Ġc á»ĳc
Ġnh áº¡y
Ġr ange
Ġre ve
Ġlá» ıng
Ġhá» ©a
Ġnot iced
app ed
ĠO ne
Ġbo ys
ord er
Ġgreat est
Ġdr iving
Ġvar ious
Ġinsp ired
Ġtar get
Ġbird s
i ation
Ġt Ã²
Ġc and
Ġg Ãł
ur d
Ġcon sequ
ĠN ational
ĠG l
ra id
Ġsy mb
Ġart ists
Ġshare s
Ġpass word
Ġocc ur
Ġhus b
Ġc Æ°á»Ŀng
ĠÄĳ áºŃu
Ġg ent
Ġtr Ã´i
Ġr á»ĵ
Ġcon cl
ĠM r
Ġ2 3
Ġdis eases
Ġad apt
Ġvu Ã´ng
Ġter m
Ġsk y
Ġanal y
Ġgrad u
Ġlau gh
Ġaf raid
B áº±ng
i ot
á» Ŀ
Ġb áº¡ch
Ġh iá»ĩp
Ġh áº¡ng
Ġto wn
á»ĳ m
ur ch
im er
ĠM iddle
Ġact ive
Ġres ist
Ġ19 4
Ġinst r
Ġstop ped
Ġbre ast
Ġprogram s
Ġterr ible
Ġcaus es
Ġdoc ument
H Ã´m
i ers
Ġl oss
Ġl Ã£o
Ġm ut
Ġv ast
or ith
Ġli ber
ore s
ag er
Ph áº§n
Ġcommunic ate
ĠiPh one
w ise
Ġt Ã¢y
Ġw is
Ġk iÃªn
Ġd Ãłn
Ġd imens
Ġtr áº¯c
Ġch áº¥n
an i
Ġf ing
or ry
Ġqu Ã¡i
ĠT alk
th etic
Ġho áº¡i
od es
ĠM in
itt ed
ĠJ ul
Ġfl oor
Ġdr am
Ġapp lic
Ġstre ngth
P M
h ere
u ction
Ġl apt
Ġh áº±ng
Ġng Ã£
Ġr Ã´
Ġf at
Ġthá» £
Ġwe ap
ĠB ecause
Ġfr ame
Ġint egr
Ġun c
ath y
Ġcap acity
Ġscient ist
anc ed
Ġfly ing
Ġru le
Ġdirect ly
Ġcolleag ues
Ġpublish ed
Ġmathem at
Ġalg orith
S áº½
g y
Ġa x
Ġl Ã¢y
Ġp aid
Ġg ala
Ġqu Ã¡n
Ġgi Æ°á»Ŀng
ĠT imes
ĠM ars
áº» o
Ġbu b
ĠTED x
Ġ200 7
Ġrel ative
Ġtre m
Ġsustain able
Ġclos er
Ġt Ã³m
Ġn Æ°á»Ľng
Ġi ng
Ġtr áº¡m
Ġtr ouble
Ġqu Ã©t
Ġgi Ãły
Ġsa d
ĠM Ä©
ĠB a
Ġknow ing
ĠE n
Ġle o
Ġtuy áº¿t
Ġcomm er
Ġcr owd
Ġtra ffic
Ġsupp ly
Ġmiss ing
Ġjour nal
Ġtw ice
Ġexperi ences
O h
g ar
Ġ ut
ĠÄĳ áº£ng
Ġd oub
Ġng á»±a
ly n
em pt
ĠM e
art in
Ġbr oad
ud d
ell ing
Ġmost ly
Ġposs ibly
Ġphot os
Ġz ero
Ġleaders hip
cu le
ĠMich ael
L ike
g ain
o áº¡i
ng u
Ġn Ã©t
ĠI I
ve y
Ġgi ft
Ġfor g
Ġat m
ain ing
Ġ2 2
ĠP ark
Ġcomp on
ĠTh omas
ip edia
Ġind epend
Ġmem bers
Ġfore ign
Ġinstitut ions
Ġt ens
Ġn arr
Ġa id
Ġm áº»
Ġm Ã¨o
Ġd yn
Ġch Äĥng
en ed
Ġr ough
Ã¬ a
ĠphÃ ¬
ĠC á»±c
ĠS au
ess ion
Ġcl ick
Ġdi vers
Ġbel ow
Ġbas is
Ġconf erence
idd en
ĠmÃ£ n
Ġdev ices
Ġemot ion
Ġcommunic ation
ĠÄĳe o
Ġjo in
ĠSm ith
T ube
u h
º c
Ġl Æ°ng
Ġl ack
Ġd en
Ġfor ces
áº« m
ĠG h
Ġcont roll
Ġ9 9
Ġmom ents
Ġaut ism
Ġred uce
Ġbring ing
Ġair pl
Ġopportun ities
Ġproduc ed
Ġphilos oph
ĠFrancis co
ĠOb ama
rast ruct
m en
Ġt Ä©nh
am in
ĠC E
ĠN ob
Ġtiáº¿ c
iz es
ord ing
Ġdoll ar
Ġmole cule
Ġnear ly
ĠPar is
Ġwhe el
uf act
Ġcorru ption
f r
t a
Ġl ung
Ġv áº¯c
Ġp ig
Ġra re
ce ll
Ġfor t
Ġsh aring
ĠL ib
ĠR uss
Ġno vel
Ġplay ed
Ġhear ing
Ġsw itch
Ġmic ro
Ġstruct ures
Ġav oid
Ġbá»¥ ng
ĠÄĳáº¿ m
Ġtiss ue
Ġoppos ite
Ġn inh
Ġh Ã´
ch es
im p
ere k
Ġsh oot
ĠM a
Ġnot e
el a
ĠK ing
Ġag ree
ĠJ er
Ġam b
Ġfeel s
Ġhelp ing
oth es
O K
Y eah
v ant
Ġt Ã¡m
Ġl á»ĩnh
Ġv er
Ġk Ã¨m
Ġd Ã²
Ġd Ã¡n
Ġtr Äĥng
Ġto m
Ġf ashion
in o
Th áºŃm
ir t
Ġj oy
Ġpe ngu
ear s
ĠP er
áº« y
Wh o
Ġsu c
Ġbr and
Ġpo et
Ġapp l
Ġinf rastruct
Ġpass ed
Ġmiss ion
Ġorig inal
ĠRob ert
Ġpu zz
ĠWik ipedia
Ġg un
Ġd Ã£
ed ic
ve re
ic king
Ġre con
ĠT om
Ġman ufact
ric ult
Ġhy p
Ġvis it
Ġadd ition
Ġstudy ing
Ġgrand m
erv ation
Ġvol unt
Ġshif t
Ġhusb and
L ook
T wo
t r
Ġl Äĥn
Ġf aces
ic on
Ġqu Ãł
Ġkh uyÃªn
Ġst em
Ġse ed
ĠM ont
Ġhá» ıng
art ment
Ġor g
Ġdá» ©t
Ġins ight
Ġ200 9
Ġacc ur
att an
ĠgÃ³ i
Ġoxy gen
Ġsignific ant
A r
i j
l im
o Ãłi
t oc
Ġt iá»ĩc
Ġth Ã³i
Ġb ought
Ġv inh
Ġng on
Ġf uel
as on
ĠT or
ĠN or
oc king
Ġcol ors
ĠYou Tube
Ġeas ily
Ġmag az
Ġfore ver
Ġfail ure
Ġemot ions
Ġrelationship s
Ġtot al
Ġdeg rees
Ġrelig ion
Ġconscious ness
ĠNA SA
toc in
P A
o om
Ġ Ã©p
Ġh om
Ġtr áº§n
ar ia
Ġcá» ±
Ġgi áº¥u
Ġlá» ģ
ÄĲ Ã£
ĠL u
In stead
Ġimportant ly
ĠHe y
Ġcor rect
Ġgá» ¡
ĠchÃ¬ m
Ġnecess ary
Ġther ap
cri pt
Ġcommer cial
M any
m e
z en
Ġl Ã´i
Ġh Æ°
Ġg Ã£
Ġtr á»ĳn
os qu
Ġto ile
Ġph iá»ģn
ct ually
ĠL at
ost on
uá» ¹
Ġbr oken
ĠJ ust
Ġany way
Ġsc r
ak er
Ġcr ime
ĠÃ ļ
Ġimag ination
Ġgovern ments
Ġfull y
Ġadv ant
Ġrequ ire
ĠBrit ish
ĠDar win
Ġtrem end
ĠNob el
w ide
Ġc ru
Ġb atter
Ġv ote
ic les
Ġha ir
ig er
ad d
il s
ĠN hÃ
Ġmá» Ŀ
ĠF rench
ri age
Ġcons id
ĠâĢ ĵ
Ġentire ly
Ġarg ument
Ġbenef its
Ġluck y
ĠAng eles
Ġtur ning
Ġatm osphere
C uá»Ļc
F rom
k a
m ber
Ġc ogn
Ġl Ã¢m
Ġm outh
Ġw ide
Ġg Ãµ
as se
Ġhe o
Ġal though
ud ience
Ġcl a
Ġdifferent ly
Ġcá»¥ m
az on
Ġless on
Ġstat istics
Ġenorm ous
Ġwis dom
r ight
z y
Ġt ung
Ġs ick
Ġl áº·n
Ġm useum
Ġb Ã£o
Ġb urn
Ġv ot
Ġd Æ°
Ġto r
am b
Ġan cient
Ġsh ock
Ġme as
anh attan
ĠG ab
ĠR os
Ġbr illi
Ġback ground
Ġoff er
Ġind ustrial
ĠSt reet
ĠlÃ£ m
Ġval u
Ġrest aur
Ġpar ad
pect ed
Ġdeep ly
ĠkÃª nh
Ġmajor ity
á»Ľ p
Ġcorn er
Ġsymb ol
Y es
k ed
m on
v est
Ġc áº¥t
Ġc ore
Ġl unch
Ġi P
os ystem
on om
Ġng á»įt
ap ers
ĠÄĳá» ±c
Ġta x
Ġkh ao
Ġgi Æ¡
Th ink
Ġhe at
ĠA lex
ĠB oston
if ically
Ġkho an
Ġ3 6
Ġgr own
Ġbu Ã´n
ĠCh á»ī
Ġstud io
Ġev ents
Ġeng age
Ġmatter s
Ġwind ow
ĠÃļ c
m ar
Ġb áºŃn
Ġv eg
Ġp et
is ible
Ġha m
ĠM al
ĠM anhattan
ĠS u
ĠH ere
if ying
Ġjust ice
ĠG reat
Ġthu áº¿
Ġun like
Ġco oper
Ġsy m
he imer
ys is
Ġmet aph
Ġdem and
Ġlead ing
ĠNg a
ograph y
Ġequ al
Ġche ap
Ġ199 0
Ġrespons ible
Ġpress ure
Ġdescrib e
Ġsuff ering
NhÃ ¬n
Ġmount ain
Ġrap id
Ġfascin ating
b ased
n Ã³
z heimer
Ġ Æ°
Ġt our
Ġth Äĥng
Ġm á»ĩnh
Ġh á»ĳ
re ci
at r
Ġd ao
Ġtr Æ°a
Ġch ick
ot a
ed y
Ġgi Ã¡n
Ġhe ld
ag ers
ĠJ ames
ite ly
ph one
enc ies
Ġnews p
Ġec osystem
Ġlands cape
e qu
h and
m Ãł
o ver
Ġth áº»
Ġs Ãłn
Ġl Ãµi
Ġb ud
Ġh Ãłm
al t
Ġthá» ķi
ir l
ul ous
ĠS un
ĠD erek
ib r
Ġag ricult
Ġwork ers
ra ham
Ġcont act
ĠSt an
ĠAl zheimer
Giá» ĳng
Ġfight ing
Ġoxy tocin
Ġbreat h
Ġdivers ity
h y
i us
¢ m
Ġn one
Ġm amm
Ġb one
Ġv a
an ia
qu ang
ĠlÃł n
es ome
Ġr out
ar ter
le g
Ġtá» §
Ġx ÃŃ
Ġre ward
ĠM ark
ul ations
Ġ2 7
Ġal tern
ĠL iá»ĩu
ĠL eg
Ġfl ight
pr od
ĠWh ere
Ġinteract ion
Ġextrem e
Ġbenef it
Ġrece ived
ĠcÃº m
ĠSte ve
Ġinfrastruct ure
1 0
Y our
h a
t le
w ater
Ġt ast
Ġt Æ°Æ¡i
Ġs á»¯a
Ġm id
Ġb le
Ġb ul
Ġb Ã¹ng
Ġb áº¿p
Ġg olf
Ġd Ã¡ng
Ġf ab
ic ago
Ġqu ÃŃ
Ġx inh
Ġre pe
Ġpr oud
Ġsp ort
ĠE very
ĠR w
ĠR áºŃp
Ġem br
Ġexp and
ĠU S
Ġchild hood
Ġ200 5
Ġill ustr
Ġdream s
Ġdesp ite
Ġgent lem
Ġt ough
Ġc ateg
Ġs Æ°u
Ġm ort
Ġm osqu
Ġb ag
á»Ļ m
es ign
it able
ic ians
Ġqu Ã¡t
Ġbe es
Æ°á»£ n
Ġse ctor
Ġsh ip
ĠS am
Ġus ers
Ġgot ten
ord ers
Ġshould n
Ġ6 00
Ġreg ular
How ever
Ġresearch ers
Ġvo ices
Ġtre nd
Ġill ness
Ġrespons ibility
Ġbá»¥ i
Ġadult s
m ark
u ge
Ġt Ã¢n
Ġc áº¥m
Ġn or
Ġb ound
Ġp air
Ġd Æ°á»£c
Ġkh á»ī
em en
Ġsh oes
ter m
ÄĲ Ã´i
Ġsp ot
Ġá» ŀ
Ġrem ote
Ġseem ed
Ġeffect s
Ġmarket ing
Ġtyp ical
Ġleg al
ĠAm azon
Ġstrateg y
Ġbal ance
Ġdestro y
A re
L áº§n
Ġt áº¯m
Ġn áº£y
Ġs ung
Ġl iá»ģu
Ġh ost
Ġng áº¯m
Ġr Ã©t
th es
ĠM artin
ĠA re
el lect
Ġcomp ared
ĠÄĲ iá»ĥn
Ġbr other
ĠCh icago
Ġcreat ures
Ġtu Ã½
rop y
Ġcollect ive
ĠEurope an
Ġperfect ly
ĠAs ia
Ġdefin ition
Ġep id
ĠJapan ese
p an
v al
Ġ Æ°a
Ġth Ã¹ng
Ġh áº£i
Ġh ate
Ġp ian
áº¿ ch
Ġch ann
ot ic
Ġr Ã£i
Ġin ternet
Ġwe ar
Ġe gg
Ġha bit
id a
VÃł i
Ġpr ior
ul a
Ġpl at
ep h
Ġcl imb
ĠchÃº a
uc ks
Ġatt empt
anc ing
Ġlog ic
ĠAd am
ĠAustr alia
m it
m á»Ļt
Ġt al
Ġl Æ°á»Ŀng
at o
Ġph áº¡t
Ġqu ant
Ġra ised
ĠT al
Ġhe av
ĠH ig
ĠH aw
Ġde fe
Ã© o
ĠR ichard
Ġmet ers
Ġcontr ibut
ograph ic
Ġeas ier
Ġ25 0
Ġmar ried
Ġcir cu
Ġ197 0
Ġdin ner
Ġlapt op
Ġveg et
r ain
Ġt um
Ġc Æ°á»Ľi
Ġm uá»Ĺi
Ġd ouble
Ġng áºŃp
es ter
as er
Ġgi am
Ġgi ant
ĠnÃł ng
ent y
Ġst uck
ad s
Ġex er
Ġ2 6
Ġint ellect
ĠE ve
Ġbr idge
Ġman aged
Ġun ex
ru pt
Ch áº¯c
Ġthá»ĭ nh
con nect
Ġrel ated
Ġterr or
Ġele ment
Ġdraw ing
Ġvers us
ĠkhÃ´ n
Ġconv in
Ġneg ative
Ġdom in
Ġfarm ers
Ġfa ith
Ġvolunt e
C áº£
o ft
Ġth Ã¡p
Ġs Æ¡n
Ġl Æ°á»Ľt
Ġd Ã£y
Ġng á»ĳc
Ġy ellow
Ġwe ird
Ġcon cent
ĠM á»įi
ĠB an
ĠH á»Ļi
Ġal t
ĠG ates
Ġthink s
Ġthu a
ĠÄĲ á»«ng
ĠTr ans
Ġbi ological
Ġposs ibility
Ġpain t
Ġequ ip
rop ri
Ġfail ed
Ġant ib
ĠSch ool
Ġrepl ace
Ġexpert s
gy pt
Ġtremend ous
Ġcogn itive
S econd
Ġs ister
Ġnh áº«n
Ġtr á»¥c
Ġtr Æ°á»£t
Ġthá» īnh
Ġph a
ur ies
ĠT ur
Ġgo ld
Ġas pect
ĠM on
ĠJ ack
Ġcall s
Ġpre vious
Ġent er
Ġhy dr
ĠWh o
Ġdist ance
Ġcor por
Ġfigure d
Ġcy cle
imens ional
ĠSw ed
ĠPal est
Ġeffic ient
Ġinsect s
Ġadvant age
O ver
e b
y e
Ķ i
Ġt Æ°á»Ľng
Ġc red
Ġth Ã¡m
Ġn á»Ł
Ġb illions
Ġnh áº¯m
Ġr ound
or an
ĠchÃ ¢m
Ġqu Ã£ng
Ġx Ã³m
Ġst im
Ġsa f
ĠC o
Ġu nd
á»¥ t
em y
Ġhe ll
ÄĲ áº¿n
Ġint u
ĠE gypt
Ġevery day
Ġgr ab
Ġdi et
Ġdes ire
Ġgen ome
Ġcomm it
Ġlet ter
Ġinv isible
Ġhelp s
Ġart ific
Ġplan ning
ific ation
Ġdisco very
Ġfre qu
Ġbom b
Ġlim ited
ĠkÃŃ n
Ġquot e
ĠApp le
ĠRw anda
G o
L Ã½
b áº¡n
c les
Ġc ort
Ġth ÃŃnh
Ġn á»ĳt
Ġh idden
Ġw ire
Ġd ue
Ġf ol
in c
Æ°á»Ľ p
Ġsh el
Ġnot ion
all ed
ĠK inh
oc a
ĠE x
ĠCh o
Ġsur ge
Ġstud ied
Ġbá»ĳ t
Ġop in
Ġlead s
Ġlead er
Ġnam es
Ġlangu ages
Ph áº£i
Ġwatch ed
Ġhold ing
Ġinvest ment
Ġmot or
Ġess ential
Ġnecess arily
Ġfair ly
Ġconcent r
Ġequip ment
d imensional
Ġt un
Ġn áº¯ng
Ġh omes
Ġg ar
Ġd Ã¡m
qu e
Ġf resh
Ġkh á»Ľp
Ġst ri
Ġsh ut
ĠA h
ant ic
ĠP ro
Ġem pt
Ġpart ners
ber t
ĠSt ar
Ġent ertain
Ġsub st
ĠEng land
Ġfeed back
Ġdai ly
Ġsuc ceed
Ġt ick
Ġc áºŃy
Ġth iá»ĩt
Ġd áº¯t
Ġr at
Ġr iver
Ġin cent
Ġcá» «
ic ity
ul pt
ĠS ao
ate ll
el ine
app ing
Ġsc ulpt
Ġfact s
Ġcre ation
Ġext ract
Ġopen ed
Ġbusiness es
Ġfollow ed
Ġinvest ig
Ġinflu ence
Ġhous es
Ġplat form
E m
c op
c ular
Ġth Ã¡o
Ġm áº¡n
Ġm ill
Ġm others
re te
Ġto áº£
ap se
it ute
Ġvá» Ł
Ġkh Æ¡i
ent ally
Ġra u
ĠphÃ¡ i
ĠP e
ĠL in
ĠL ook
are n
Ġmo ves
Ġdesign er
Ġplan ets
Ġed ge
Ġprop er
Ġneur os
ĠCar ol
Ġcu á»Ļn
Ġlea ving
Ġult imately
Ġcirc um
kn own
Ġstrugg le
H is
e ared
h old
u ing
Ġc Æ°á»¡ng
Ġl Ã´ng
Ġl osing
Ġb Æ¡
Ġb ong
Ġg áº¥u
Ġtr Ãł
in ally
ĠB ab
Ġme at
ess ed
ob al
ib ilities
ĠR es
ĠJ o
Ġapp reci
Ġinv ited
Ġacc ident
Ġbeg ins
Ġkeep ing
Ġdep ression
rop h
Ġsurpr ise
Ġarg ue
Ġhor r
Ġ196 0
Ġdam age
Ġcomfort able
A ctually
D Ä©
M áº¹
Ġn á»į
ĠÄĳ uÃ´i
Ġs atell
Ġm ouse
Ġh áº§m
or g
al i
Ġthá» ĳ
Ġwe aring
ow ing
ĠM ad
ĠnhÃ £n
ÄĲ á»«ng
Ġfr ag
Ġcomp are
Ġtuy á»ĥn
Ġpre cise
Ġ9 5
Ġhigh est
Ġfin ished
pr int
Ġaw esome
Ġconst antly
Ġrad ical
ony m
Ġsurv ival
Ġelectr ical
KhÃ¡ n
Ġincreasing ly
ĠCE O
Ġmagaz ine
M áº·c
T ED
g in
Ġt it
Ġm á»ĩt
Ġi ron
Ġp ock
Ġch Æ°á»Ľc
in ist
Ġli ked
ĠT á»ķ
th al
ĠM or
ĠB Ã¢y
ĠO x
ĠIn st
end ed
Ġcap able
ĠBr own
Ġbá» Ľt
Ġunivers ity
Ġexperi enced
Somet imes
Ġmetaph or
A gain
G áº§n
K áº¿t
o ved
v i
Ġs orry
Ġm aster
Ġo dd
Ġk ing
Ġnh á»Ł
Ġr ural
al ing
Ġra nh
ĠT a
ĠM and
ĠM RI
il le
ill ed
ĠS il
ĠN ot
ĠG and
Ġthu áº«n
ĠK ho
Ġworld wide
Ġhá»ĩ t
ĠJ on
Ġcl ip
ĠW all
ĠW illi
Ġmo on
Ġres ource
Ġher o
ĠTr á»Ŀi
Ġprot oty
Ġmark ets
Ġcond uct
Ġsurpr ised
Ġhar m
Ġunivers al
Ġgra v
Ġkil omet
Ġsepar ate
Ġpian o
ĠHig gs
O nce
T iáº¿p
v ention
© o
á» Ĵ
Ġc ac
Ġth Ã´
ĠÄĳ Ã¢m
Ġl Ã¡t
Ġb attle
Ġh Ã²n
Ġg ap
Ġg ather
id ents
ĠC áºŃp
ĠM áº¹
ul s
Ġmá» ¹
ĠD el
Ġbr ight
Ġper ce
ĠTh iÃªn
Ġno ise
fore st
Ġlet ters
Ġ200 4
Ġbelie ved
ins on
Ġkill ing
Ġorig ami
Ho Ã¡
Ġsuggest s
Ġcharact ers
Ġdescrib ed
ĠchÃ¬ a
Ġcompet ition
Ġassoci ated
Ġphenomen on
B áº¥t
b ur
i h
v is
Ġt on
Ġth Æ°a
Ġb and
Ġng á»±c
Ġr ung
us hing
ce nd
ce ler
ĠT e
ĠG al
Ġsu gar
Ġmu á»Ļn
ĠO n
Ġfl o
Ġbel ong
iss ions
Ġgener ations
iqu es
Ġprofess ional
Ġdeg ree
Ġconcer ned
Ġshap es
Ġcoun ter
Ġdimens ions
Ġweap ons
Ġairpl ane
ĠLat in
Ġbrilli ant
Ġunex pected
U n
Ġl Ã²
Ġl áº¡m
Ġl Ã¹i
Ġb á»į
Ġp urs
Ġp ounds
Ġg ard
Ġd ry
Ġch á»Ł
Ġcá» Ł
ly mp
Ġho áº£
ĠM ic
ĠA c
ac ing
ĠÄĳi Ãªu
ĠL ad
ĠD Æ°Æ¡ng
Ġexp ression
Ġad vert
Ġput s
ub lic
Ġcour age
Ġ200 6
Ġstr ang
Ġchá»¥ c
Ġchar ge
Ġnorm ally
Ġele ments
Ġmulti ple
Ġsus p
ĠGab by
d am
r um
s et
Ġb Ãª
Ġh orm
Ġh oles
Ġk á»ĭp
ĠkhÃ ºc
Ġqu e
ut ion
Ġ1 000
ĠC r
ĠT as
Ġ2 8
Ġag re
Ġper ception
ak ed
Ġcr ack
Ġ200 3
Ġvide os
Ġhard er
Ġconst ruction
Ġident ify
ipp ed
Ġcaus ed
Ġast ron
Ġlea ves
Ġdetail s
Ġmist akes
Ġvirt ual
Kho áº£ng
Ġgrandm other
Ġorg ans
2 00
C Ã¹ng
Ġth Ã´n
Ġb Ãºt
Ġg Ã¡nh
er al
Ġtr áº¥n
is f
ĠÄĳá» ¥
Ġph áº³ng
Ġsá»ĳ c
Ġex ch
Ġmá» ıi
ĠH Ãł
Ġsá» ©
ib ute
ĠÄĳá»ĵ i
Ġman age
Ġimp lic
ĠO lymp
Ġná» £
Ġad op
Ġfact ory
Ġro ot
Ġ6 5
Ġvu a
Ġfin ish
Ġeconom ics
ĠHo áº£
Ġstep s
Ġ201 1
ĠGi Ã¡o
Ġartific ial
5 00
M T
T alk
v Ã¬
Ġ á»ĵn
Ġm Ãºa
Æ° Æ¡n
Ġp ow
Ġd ots
os m
en ry
al u
it a
ĠÄĳá» Ľi
Ġst up
ol ves
ir ation
ul ated
ĠTh á»±c
ĠV iá»ĩn
Ġco ast
ath an
ĠNh a
Ġind ic
Ġtrans p
Ġtrans formation
br idge
Ġmar riage
Ġtrain ed
Ġengine ers
Ġoper ating
ipp ing
Ġphotograph s
Ġslow ly
Ġsold iers
Ġemploy ees
Ġswe et
ĠCong o
Ġexh ib
Ġconsequ ences
Ġtom orrow
c Ã³
u k
Ġc aught
Ġm áº¥u
Ġm igr
Ġv áº£i
at ures
Ġd ate
Ġd iction
Ġnh iáº¿p
Ġch ip
á»Ļ p
os is
Ġin form
it ness
Ġwh om
Ġqu ad
Ġus er
ĠK oran
ĠR io
Ġhas n
ĠJ an
Ġgr ade
Ġar ms
Ġac ad
Ġdes ert
Ġ19 50
Ġacc ording
ĠChÃ Ńnh
Ġstre am
Ġcur ious
Ġpay ing
Ġlaw y
Ġfac ing
Ġanal ysis
Ġcop y
Ġlif et
Ġcart oon
Ġoffic ial
Ġord inary
Ġtoile t
Ġvalu able
Ġsaf ety
A udience
Ġth a
Ġth Ã¢m
Ġh Æ°u
Ġthe ater
Ġto w
Ġr om
ar i
Ġta il
Ġngh iá»ĩn
Ġngh á»ĭch
Ġst ation
ce l
ĠC A
ĠT es
ĠB ur
um e
ĠP hÃ
iz za
ĠR ep
Ġag ing
ĠTh ese
Ġ19 5
Ch uyá»ĩn
Ġsc ene
te ch
Ġhá»ĵ ng
Ġinter p
Ġrá» ħ
Ġorgan ic
Ġwond ering
Ġcollect ion
Ġ198 0
Ġcurrent ly
Ġpassion ate
Ġfill ed
Ġdistribut ion
Ġpropert y
Ġconsid ered
Ġsym pt
Ġcá»Ł i
Ġstup id
E ach
H Æ¡n
T ake
d e
m in
z ing
Ġ era
Ġc ow
Ġh Ã£ng
Ġch art
it als
ĠT hÃ
ĠT ony
ĠM áº·t
ĠN a
Ġ3 2
Ġgr id
ro ve
ell y
Ġsm ile
Ġduy á»ĩt
ĠAr t
Ġ12 0
Ġref uge
Ġequ ival
Ġtest ing
Ġchem istry
ĠkhÃ´ i
Ġrelig ious
ĠTas man
A R
D avid
P r
e an
h ol
l ie
l ands
p rof
Ġt ap
Ġc á»ĳi
Ġs ight
Ġl at
Ġl aser
Ġm anh
Ġr Ã¡p
as ion
Ġwe ather
Ġkh áº³ng
Ġre ci
Ġre form
ct ions
ĠM ah
ĠS ing
ĠN Ãły
Ġwhen ever
Ġother wise
Ġcl osed
Ġac celer
Ġngo an
Ġtechn iques
Ġask s
Ġfeel ings
Ġtrans ition
Ġrec y
Ġmus ical
Ġsent ence
Ġwall s
Ġserious ly
Ġunf ortunately
Ġempt y
m as
n s
n am
r s
u ed
Ġl Æ°á»¡ng
Ġm Ã¢u
Ġh ip
Ġh urt
Ġv Ã¢y
Ġg an
Ġnh áº·t
om b
Ġkh iáº¿m
ur ally
op her
ĠB ush
Ġfr ustr
ĠD i
Ġhad n
ib an
ĠR om
ĠW ith
ĠTr Æ°á»Ŀng
ĠY emen
ne ath
Ġinter face
Ġart icle
Ġatt ach
Ġplan e
Ġelect ion
Ġcult ures
Ġaw ful
Ġcut ting
Ġple asure
Ġanal og
Ġhor se
Ġcivil ization
Ġprom ise
ros oft
Ġcu á»ĵng
Ġmosqu it
B á»©c
C Æ¡
M ar
M ore
c ap
c ut
c are
d own
f ather
s p
Ġn erv
ĠÄĳ á»ĳ
Ġs áº¯t
Ġh áº¹p
Ġv es
Ġp ages
Ġg od
Ġr áº¯n
Ġph ones
Th á»Ŀi
ent ed
ir m
ĠC uá»Ļc
Ġlo ck
Ġab st
Ġsh ad
ill y
ĠB Ãł
Ġj azz
ci pl
ĠÄĳá»ĭ ch
Ġpart ner
Ġdis p
ĠU g
Ġhum or
Ġapp ropri
ĠphÃŃ m
alle y
Ġset ting
Ġspec ifically
Ġtreat ed
Ġconst ruct
Ġlim it
Ġsend ing
Ġmal aria
Ġdispl ay
Ġbub ble
Ġpengu ins
ĠStan ford
Ġconvin ced
W ould
c raft
l ife
Ġc up
Ġc osm
Ġv ibr
Ġp al
Ġp il
Ġf al
ic y
Ġdo l
Ġli qu
ĠT uy
Ġso il
ill ing
Ġpe ak
est s
Ġsp oke
are t
ĠF ord
ĠTh á»ķ
Ġun less
ĠV á»Ľi
Ġid e
ĠkhÃ³ i
Ġfour th
Ġsign al
Ġrele ased
Ġaffect ed
Ġreact ion
ĠCam bridge
Ġclin ical
Ġshark s
Ġveh icle
ĠOx ford
Ġcac bon
Y et
c ast
t ain
Ġt all
Ġc Æ°á»Ľp
ĠÄĳ Ã¡o
Ġs ources
Ġl áºŃt
Ġv Æ°Æ¡n
Ġp ure
Ġch ain
os ter
Ġf le
Ġin ner
ar ah
ĠI ce
Ġqu iet
Ġkh uyáº¿t
et r
Ġre in
Ġst ood
Ġst aff
ĠA nt
ĠS yr
Ġj u
ĠH er
ib er
ens ion
Ġpre gn
Ġfew er
Ġopen ing
Ġhead s
Ġpres ident
Ġwar m
Ġdef ine
Ġloc ation
Ġdeep er
Ġengine er
Ġexpect ed
ma king
Äĳ Ã³
yr us
Ġprofess or
Ġarr ived
Ġemp athy
Ġneg ot
Ġblock s
Ġentreprene urs
Ġmicr ob
Ġing red
Ġequival ent
Ġabst ract
b el
e ng
u ary
Ġt en
Ġt eles
ĠÄĳ áº»
ĠÄĳ Ãłm
Ġm áº£ng
Ġb Ã¹
Ġg am
Ġdo gs
Ġsa ved
Ġsh ame
ter day
Ġmy th
ĠH á»įc
ist ot
ĠchÃŃ n
Ġsp l
ĠF re
ens ity
ĠÄĳo an
Ġcont ain
Ġunder neath
Ġimport ance
Ġorgan ized
Ġsol id
Ġpolit icians
Ġhope fully
Ġmot ion
Ġrev iew
Ġdemocr atic
Ġpract ical
Ġpick ed
Ġhon or
Ġpoll en
Ġalgorith ms
Ġbatter y
Ġnerv ous
Ġves sel
H ave
i ors
o ons
Ġt Ã´ng
Ġb ow
Ġg á»ĳi
Ġr ide
Ġf ed
or ation
it arian
le ment
Ġe ld
Ġta ng
Th á»Ń
ur ance
ĠphÃ ´
Ġli ft
áº± n
ag h
Ġex tend
Ġmy st
ac le
ĠH ans
um an
ate ful
Ġkho Ã¡i
ĠL ED
ĠD et
ĠE ric
Ġbr ief
Ġbo at
Ġpre fer
Ġsc en
Ġdr ag
Ġdr iver
Ġinv ention
Ġcol on
Ġthought s
Ġdesign ers
Ġrá» Ńa
Ġeng aged
Ġmic ros
Ġmole cular
ĠAt lant
Ġlaunch ed
Ġrelative ly
Ġcá»« u
I nd
h ai
p oint
y an
Ġc áº¡n
Ġc ere
Ġs áº¡n
Ġs oph
Ġp izza
Ġg ain
Ġd Ã¢m
er ge
Ġr ational
le ase
Ġwe ak
Ġqu al
Ġli br
ĠM ac
Ġwor ried
ĠB Ã¬nh
ĠB ank
ĠS l
Ġj ail
ĠD is
ĠÄĲ á»ĥ
Ġman ip
ĠTh Æ°á»£ng
Ġco vered
Ġplay ers
Ġcontr act
Ġsing ing
Ġorgan isms
Ġwar ming
Ġpsych ology
Ġabsolut e
Ġge nder
Ġdeb ate
ĠGiá» Ŀ
Ġsou l
Ġmá»ĵ i
ĠGerman y
ĠGh ana
Ġgentlem en
Ġcircum st
Ġlifet ime
Ġliqu id
. .
b re
b les
v an
w ell
Ġt áº§n
Ġn ations
Ġn urs
Ġg a
Ġd áº»o
Ġto ward
ing ly
it z
Ġph r
Ġqu i
Ġcho col
Ġfor ced
ĠmÃł ng
se y
Ġse vere
ĠS ah
Ġem issions
Ġ3 3
ĠJ oe
Ġgr ass
Ġdi al
pl ace
ogr ap
Ġart s
Ġent ropy
Ġbit s
Ġmus h
Ġlá»ĩ ch
Ġprocess es
Ġconnect ions
Ġbuy ing
Ġcir cle
Ġhosp itals
Ġbirth day
Ġprint ing
ĠFl or
ĠCent er
ĠMic rosoft
ĠUg anda
Ġfal se
B ao
R Ãµ
S W
c ar
k ins
Ġc áº¯p
ĠÄĳ áº¡n
Ġs ides
Ġl áºŃn
Ġl ect
Ġb ia
Ġv áº¹n
Ġi l
at ar
Ġd áº£i
Ġd áº¡o
Ġnh áº§m
Ġtr Ã¢n
Ġtr ip
Ġf an
Ġin ch
Ġbe ar
ĠS ub
The ir
Ġnot es
ĠP ol
ĠP eter
ond s
Ġun cle
ĠO k
Ġpro ve
Ġgood s
ĠNh Æ°
Ġmet al
Ġtre o
Ġrequ ires
Ġconsum ption
Ġemerg ing
for ce
Ġhack er
Ġvict ims
Ġnarr ative
Ġdyn amic
Ġfol ks
b l
b an
Ġc áº¯m
Ġn orth
ĠÄĳ áº¡c
Ġh em
Ġv Ä©nh
Ġd á»įn
er r
Ġr ates
Ġf u
ed a
in ations
ic ip
Ġis land
ent ure
Ġst ock
Ġli e
Ġlá» Ŀ
Ġlá» £n
ĠN an
ĠG old
ĠD em
Ġquy Ãªn
ĠK ore
ĠF ound
ĠJ im
ĠW ow
Ġcall ing
Ġac qu
Ġpo em
we et
Ġev il
be ing
Ġposs ibilities
Ġtop ic
Ġmem ories
Ġris ks
Every body
Ġstat us
Ġstrong er
Ġinfect ed
Ġprinci ple
Ġkáº¹ t
Ġvulner able
Ġindepend ent
Ġbud get
Ġepid emic
ĠTal iban
ĠbÆ¡ m
Ġdol ph
ĠFlor ida
W omen
w ich
Ġa th
Ġl ic
Ġl Æ°á»£t
Ġb ath
Ġv e
Ġk iá»ĩt
Ġr ig
Ġf iction
ly ing
Ġis ol
ol ving
ir ty
ĠC Ã²n
ĠT ex
ant ed
ĠN ord
Ġex ists
ĠH enry
ĠÄĳá»ģ n
act ion
Ġpl ans
Wh ile
ard o
ĠJ es
Ġbu Ã½t
ea k
ĠV ir
Ġid eal
Ġgen et
Ġsc ar
Ġro of
Ġtechn ical
ĠSt ate
ĠTED Talk
Ġ200 1
Ġfound ation
Ġtu Ã¢n
old s
ĠNg Ãłi
Ġsign als
Ġeffect ively
ĠHow ard
Ġgrand father
Ġconv ention
Ġrele ase
Ġsil ence
Ġer ror
Ġintellig ent
Ġlad y
ĠNe ander
Ġcla im
Ġnewsp aper
Ġmort ality
Ġheav y
Ġintellect ual
Ġil leg
B M
B á»Ļ
j o
Ã Ģ
Ġl áº¥p
Ġb on
Ġb áº¯p
Ġb á»įc
Ġh uyá»ģn
Ġv Ã©
Ġw ave
at i
Ġnh Ãłng
ang ing
st ers
Ġkhi Ãªu
Ġhe ight
ul in
ĠB on
ĠS im
ag en
ĠH Ãłn
ĠH iá»ĩp
ĠP ort
ĠG ood
ĠL ong
ĠTh á»©
Ġun us
Ġdis h
uc ing
ath ers
Ġfl at
Ġperson ally
Ġmin im
Ġmed ium
Ġless ons
Ġbott le
Ġproduc ing
Ġlay er
Ġkhuy nh
Ġsat isf
Ġtrial s
Ġchemical s
Ġconc rete
Ġkáº¹ o
olly wood
Ġdram atic
Ġrestaur ant
ĠLeg o
Ġchann el
istot le
ĠTex as
1 8
A meric
S ee
a ving
b ed
f oot
y o
Ġth áº¯c
Ġn ose
Ġn av
Ġm Ã²n
Ġd Å©ng
Ġto x
an th
Ġr ow
in i
Ġvá» Ĺ
us es
Ġgi Ã£n
Ġli es
ĠC á»Ļng
ĠT á»«
th ur
ĠB áº£o
um ber
ab ol
Ġma k
Ġman agement
Ġco al
ress ive
Ch ar
Ġrem ain
ĠÃ Ģ
ĠÃ Ķi
Ġser ve
Ġpat ent
bo x
ove mber
Ġele ph
Ġfall ing
ĠBl ack
Ġmeaning ful
Ġrele vant
Ġprofess ion
Ġdefin itely
Ġintrod uced
ĠIsl am
ĠCong ress
Ġspect rum
Ġrough ly
Ġfort un
Ġaltern ative
Ġcred it
Ġkilomet ers
Ġsoph istic
d i
ĠÄĳ ai
Ġs outh
Ġd ot
Ġin it
Ġin ev
ĠÄĳá» Ĺ
ĠÄĳá» £t
Ġx Ã¡m
Ġfor mer
Ġsh r
ul ating
ĠS at
ac les
est ic
Ġact ions
iz on
Ġtá»± a
ĠchÃº c
Ġtrans pl
Ġcare fully
ĠPh áº£i
Ġadd ed
Ġprotect ion
Ġprote ins
Ġdepend s
Ġparticip ate
Ġfell ow
Ġprinci ples
Ġencour age
ĠBro ok
Ġcand id
Ġforg ot
Ġpoet ry
Ġexer cise
Ġchocol ate
B a
C á»©
T Æ°Æ¡ng
V ery
Ġc Æ°Æ¡ng
Ġc ave
Ġn ar
Ġn á»ģ
Ġs en
Ġl Å©ng
Ġm Æ°á»Ŀi
Ġh Ã£
Ġv ay
er ves
Ġtr Ãº
Ġr áºŃp
Ġre prod
Ġse at
Ġse es
ĠB u
ĠB ol
ĠH igh
um s
ĠG ree
ĠR áº¥t
Ġen s
Ġun it
Ġfl ower
Ġfl ash
Ġdesign ing
Ġ8 5
Ġbi ke
wh el
Ġdef ined
Ġexplain s
Ġdeal ing
Ġamount s
Ġocc up
Ġpriv ile
por ary
Ġlif est
Ġest ab
NhÃ ¢n
Ġintrod uce
Ġmist ake
ĠAb raham
Ġmention ed
Ġreve al
Ġchick en
Ġcort ex
Ġopin ion
Ġinterp ret
1 2
E C
S ince
g ets
r ont
w a
z ed
ª m
Ġc ents
Ġth Ã©p
Ġn it
Ġn Ãªu
Ġs ke
Ġm á»įc
Ġw ine
Ġw ars
Ġp ip
Ġd á»Ł
Ġch Äĥn
Ġin equ
Ġthá» ķ
om pl
ere nt
op ard
á»ĭ nh
Ã¹ m
ĠnhÃ ³
Ġmá» ıng
ab il
ĠG ulf
ĠD ay
Ġworld s
Ġun s
Ġover whel
Å© i
Ġsc ared
Ġinterest s
Ġpartic les
Ġgener ate
less ly
Ġant i
Ġexist ing
Ġast on
Ġfundam entally
kn ow
Ġdisapp ear
Ġframe work
Ġmathemat ics
Ġcompon ents
Ġcá»± u
Ġhydr ogen
Ġcircumst ances
ĠSah ara
Ġmush room
D id
E x
c est
Ġth áº±ng
Ġh Ã²
Ġv Æ°á»£ng
Ġp un
Ġd á»ĳc
Ġch ose
Ġr it
it an
ĠkhÃ ©o
Ġit em
ĠC Ã¡ch
ĠC Ã¡m
ĠC oca
Ġse m
Ġsh all
il ed
ĠB ay
Ġfr ight
ĠL áº¡p
ĠD V
ĠR ev
ĠJ ew
Ġgr ateful
Ġpo ly
Ġpo ore
ict ed
Ġ20 50
Ġpercent age
Ġend s
Ġplay er
Ġngá» «a
enc ing
Ġenviron ments
ĠBr ian
Ġsit es
Ġadv ice
Ġtyp ically
Ġfield s
Ġtrack ing
Ġsubject s
Ġintern al
ĠSc ott
Ġcapt ure
Ġign or
Ġsam ple
Ġsequ ence
Ġdoub t
Ġrapid ly
1 9
k hÃ´ng
p es
s ource
Ġt ons
Ġn Ã¡t
Ġs Ã´i
Ġb Ã¡
Ġh Ã´i
Ġh ide
Ġv ang
Ġw itness
at ers
os a
Ġr áº½
or gan
as ters
ic an
Ġx Ã´i
ĠT an
Ġgo als
Ġme l
ab led
ĠK hÃ¡
Ġ3 1
ĠV en
tern al
ĠY our
Ġtho Ã¡i
Ġpol io
Ġrun s
Ġconf ront
Ġrep air
Ġsol ving
Ġwond ered
Do es
Ġlab el
Ġconst ant
Ġinnov ative
Ġsens es
Ġest im
Ġaware ness
Ġvari ety
Ġjud g
Ġinstr ument
Ġgala xy
Ġaccur ate
hy th
Ġgrav ity
Ġexch ange
Ġunus ual
Ġnav ig
J ohn
M áº·t
P er
R ob
c ons
i ency
Ġn áº£n
Ġo ption
Ġp ump
Ġg Ã¡c
Ġd at
er as
Ġr ing
Ġr ot
ut her
Ġre verse
Ġchá» £
Ġgiá» įt
Ġan cest
st on
Ġho Ãłi
Ġmá» ī
ear ch
ĠH áº£i
ĠphÃ¡ c
ind er
Ġint ense
Ġsp in
ĠL aw
Ġle ngth
ro vers
Ġdis aster
Ġfact or
az e
Ġinst all
Ġcons ist
Ġacc ompl
Ġeconom ies
Ġconf idence
Ġanim ation
els on
Ġmess ages
Ġoper ate
Ġele v
Every thing
itch en
Ġobs er
Ġyes terday
Ġmov ies
Ġprim ary
Ġrid ic
Ġmount ains
Ġauthor ity
Ġforest s
ĠNgh á»ĩ
Ġnan o
Ġswim ming
Ġearth qu
Ġpassword s
Ġgradu ate
Ġphilosoph y
Ġappl ied
eph en
prof it
ĠNord en
G O
G l
i en
t it
Ġth áº§m
Ġm ember
Ġb ill
Ġh áº¡ch
Ġw ake
re ts
Ġg áº¡ch
Ġtr áºŃt
os n
or a
or ter
ed ing
ct ic
am ent
ĠmÃł y
ĠC D
ĠC op
ĠA p
Ġat oms
ĠB ron
Ġ2 9
ĠG ia
Ġsu it
ĠK im
ĠE as
ĠR ay
Ġcl ock
ro it
ĠCh iáº¿n
end ing
Ġins ulin
Ġ7 00
Ġcent uries
Ġcontr ast
Ġexpl an
Ġeconom ists
Ġreg ions
Ġstr ing
ĠInd ones
Ġaut onom
Ġdep artment
Ġfil ms
ats on
Ġfund ing
Ġincre ased
Ġteam s
Ġcomb ine
Ġjo ined
Ġcrit ic
Ġsn ow
Ġsell ing
ĠBrit ain
Ġhop ing
Ġcarry ing
Ġdiscuss ion
Ġtransport ation
Ġapplic ations
Ġmanufact uring
Ġtum or
Ġantib iot
ĠSwed en
ĠMand ela
ĠDet roit
Ġrit ual
D A
L oáº¡i
M á»¥c
T in
a ven
Ġl oud
Ġb áº¥y
Ġb are
Ġb Ã¡ch
Ġv oc
Ġd á»Ļi
ou g
Ġch áº£
os ition
Ġf ake
Ġin put
it ure
ll y
Ġph o
Ġx Äĥng
Ġngh iá»ĩt
id i
im inal
ĠT á»±
ad ed
Ġpr ay
ĠH ai
ok ing
Ġte eth
ĠG ore
Ġhow ever
Ġcomp ar
ĠR á»ĵi
Ġag g
Ġoff ers
Ġfact ors
Ġ8 00
Ġmove ments
Ġreg ard
ev in
Ġbá» Ĺng
Ġsun light
Ġrepres ents
Ġwin ter
Ġtravel ing
Ġoce ans
Ġcomb ination
Ġbar ri
Ġvacc ines
Ġsand wich
ĠnÃ© n
ĠSc ot
Ġcollabor ation
Ġresist ance
ĠRos ling
ĠxÃŃ u
Ġsport s
A M
C ola
P hÃ
e k
h á»į
m ission
Ġt iá»ħn
áº ³m
ĠÄĳ áº½
Ġm ere
Ġm á»Ļng
Ġb Ã¬a
Ġv Ãµ
re y
er on
Ġtr á»Ļm
ap ore
ic ing
Ġre bu
id ay
ig m
Ġst eal
Ġsa cr
ag ram
and on
ab et
if er
ĠP res
ĠP eople
ans as
ĠR ed
ĠW olf
Ġad j
Ġchu a
Ġvá»¥ n
Ġbus y
wh at
Ġsol ved
Ġref r
Ġpos ter
Ġcá»ķ ng
Ġproduct ive
Ġchalleng ing
Ġass ign
Ġtrá»« u
Ġoper ation
Ġbehavior al
Ġfac ial
Ġhar vest
Ġconvers ations
Ġcook ing
ĠMus lim
onym ous
ĠFound ation
ĠVir gin
ĠIndones ia
B as
b ors
h h
l ines
t rong
Ġ á»ĵ
Ġc ock
Ġth ick
Ġn á»¥
Ġm at
Ġm uá»ĳi
Ġm aps
Ġh á»¥t
Ġg all
Ġg Å©i
ch ild
Th ree
Ġx Ã©
am ine
ĠC áºŃu
ĠC yrus
Ġcom ment
Ġex ec
ab ilities
og ue
ĠF in
ĠV an
Ġres il
ict or
Ġbo ld
Ġtechn ique
Ġinst ruct
ph a
Ġgener ally
Ġcomput ing
pr ing
Ġsk ill
Ġcam eras
Ġdev il
Ġmil k
Ġbehav iors
ĠZ eal
Ġcoll apse
Ġfear s
Ġinclud e
Ġconsum er
Ġdest ruction
Ġcy ber
Ġste el
Ġjud ge
Ġprep ared
ĠInst itute
bur gh
ĠSyr ia
Ġnegot i
ograp her
ĠBron x
H á»ĩ
a e
b b
d o
r ition
´ n
Ġt ank
Ġth áº³m
ĠÄĳ Ãł
Ġl Æ¡
Ġl áº¯c
Ġm ad
Ġb orders
Ġo ught
Ġch urch
Ġf lex
Ġx ÃŃch
Ġre ven
Ġst ere
Ġ-- -
im eter
Ġu nh
Ġat tend
Ġfr ank
Ġj oke
Ġout c
ort ion
ĠD en
Ġact ing
ĠK e
Ġ5 5
Ġdes k
chn ology
Ġown ers
con t
Ġob st
Ġhu nt
Ġwr iter
Ġinst inct
Ġhand le
Ġcent ers
Ġproc ed
Ġhy d
Ġprocess ing
Ġmem or
Ġpar king
Ġbom bs
Ġstay ed
Ġru á»ĵi
Ġconv ince
Ġopt ions
arr ass
Ġtransform ed
Ġattack s
Ġmechan ism
Ġmir ror
Ġpuzz le
Ġagricult ure
Ġegg s
ih ad
Ġilleg al
Ġsophistic ated
Ġlifest yle
C H
C ould
M A
S á»ĳ
c ks
l ation
m ers
n ight
u pp
v ille
w ar
Ġ á»ĳc
Ġc ure
Ġs Ãºc
Ġl Ãºa
Ġh Ã³c
nh á»¯ng
en a
in ate
as ks
Ġqu áº·c
Ġgi áº·t
et te
Ġst ands
op ia
st ream
Ġlo op
ad ic
Ġso áº¡n
ĠM at
ĠM il
ĠA ct
Ġne ut
ĠS ant
ĠÄĳá»Ļ n
Ġor ch
if th
Ġte a
Ġbr oke
ree nh
ew art
Ġcá»ĳ ng
Ġsur vey
Ġdr iven
Ġstory t
pe are
Ġmet abol
Tr ung
Ġcle ver
Ġdev ast
Ġwalk s
Ġcollect ed
Ġrad iation
Ġpot entially
Ġinteract ive
Ġliter ature
Ġexist ence
Qu Ã¡
Ġinsp iration
Ġsitu ations
Ġpull ed
Ġsustain ability
akes peare
Ġbur ning
Ġadm it
Ġcloud s
ĠIsl amic
Ġsam ples
Ġentreprene ur
ĠRuss ia
Ġhyp othes
Ġtherap y
Ġembr ace
Ġcircu it
Ġentertain ment
ĠCarol ina
ĠDV D
tit les
ĠZeal and
B C
H Ãłng
T Ãªn
T hÃ´ng
i el
l ook
o op
u x
Ġ ur
Ġ Ã´m
Ġ á»ĳm
Ġm Æ°Æ¡i
Ġb es
Ġb Æ°á»Ľ
Ġb áº¥m
Ġh Ã©t
Ġh its
Ġg reenh
Ġd edic
ot o
es h
es ity
Ġr Å©
ch air
le vel
Ġx Æ°á»Łng
Ġx Æ°á»Ľng
Ġre ject
Ġchá» £t
st and
Ġas p
Ġas se
ĠS om
ob i
ob s
ĠP at
ĠP ac
Ġpl us
Ġsome what
ose ph
ĠJ osh
Ġthan ks
ĠW atson
Ġar rest
Ġshe ll
Ġpre m
Ġdown load
Ġfl ag
Ġapp arent
ĠYork er
ĠIs land
Ġglob e
Ġsign s
ĠtÃŃ m
Ġident ical
Ġbox es
Ġspread ing
Ġauth ent
Ġfoot print
Ġneigh bors
ĠThÃ¡ nh
Ġemp ower
Ġemb arrass
Ġdiv ide
Ġhung er
Ġlabor atory
Ġdeterm ine
Ġlad ies
Ġcontroll ed
Ġfab ric
connect ed
ĠPro ject
Ġsatell ite
Ġearthqu ake
ĠPres ident
B I
B Ãªn
C l
H Ã¬nh
c a
e o
n áº¿u
o oth
Ġ áº¿ch
Ľ p
á» Ĺ
Ġth umb
Ġn Ã´
Ġs ets
Ġm áº¿n
Ġm Æ°á»£n
Ġb icy
Ġk m
Ġd ict
Ġd ancing
er ry
Ġnh Æ°á»Ŀng
Ġtr Ã¡ng
Ġch áº½
Ġng áº«m
Ġf urn
ar ant
Ġwe l
Ġwh ist
Ġbe e
Ġre h
Ġre n
Ġwas h
ol ar
ĠC ount
ĠA ir
ag os
ie v
ĠP ole
Ġkho Ã¡ng
ĠL ester
ĠD a
Ġsu ic
pp ed
res p
ĠW al
Ġun known
Ġdis s
ĠV ictor
Ġac know
Ġunder water
Ġ19 30
ak ers
Ġplay s
ĠAr istotle
ĠNg Ã¢n
Ġform ed
ran e
Ġkeep s
Ġphys ically
Ġallow ing
Ġpain ful
Ġequ ally
Ġtest s
Ġcollect ing
Ġadv anced
Ġclose ly
Ġcoll aps
Ġill usion
Ġarg uments
Ġru á»Ļt
ĠPr ize
Ġimm une
Al so
Ġult imate
Ġflow ers
Ġspirit ual
Ġpropert ies
Ġveh icles
sc ale
Ġconcl usion
Ġhorr ible
ĠGand hi
ĠWilli am
Ġton ight
Ġgard en
Ġastron om
Ġsympt oms
Ġappropri ate
K á»ĥ
L ast
S S
S im
T e
g ie
h our
v ia
x ies
á» ħ
Ġc Æ°á»£c
Ġth in
Ġl Ã¢n
Ġl Ã¡nh
Ġm ales
Ġb in
Ġb áº©n
Ġb Ã¡m
Ġh iáº¿p
Ġv Ã¡n
Ġp ound
Ġp itch
Ġd ense
Ġnh áº¡t
Ġtr ig
Ġtr Ã¡n
ĠÄĳá» ĩ
ĠI m
Ġph ase
Ġbe ach
Ġx á»ī
ÃŃ n
ke ep
Ġcon ver
ĠC omm
ĠM ill
ĠM useum
Ġfr o
Ġfr og
ĠnhÃł o
ĠD ep
Ġact s
Ġquy áº¿n
hi le
Ġper man
ild ing
Ġun com
Ġimp lement
Ġover all
Ġcont em
Ġdes per
ub es
Ġdá» Ĺ
Ġdist inct
Ġmain ly
Ġconflict s
Ġdrop ped
Ġactiv ities
Ġpock et
ĠLad en
Ġimplic ations
Ġrom antic
ĠIce land
Ġtranspl ant
Ġestab lish
Ġaston ishing
ĠRev olution
A b
B r
B Ãłi
C L
S ao
u ch
u gg
Ġt ape
Ġv áº¡ch
Ġv Ã²i
Ġw ings
Ġk itchen
Ġp apers
Ġg est
os ph
Ġf oss
Ġf ert
ĠchÃ ¹
le te
ic ious
ĠM el
ter y
ÄĲ iá»ĥm
ĠgÃ¬ n
ag ic
ĠH ollywood
ĠP an
Ġup per
ĠL ou
app y
ĠO l
Ġdis cipl
ĠV i
olog ically
Ġcont rovers
Ġpo ol
Ġ4 6
Ġoff ered
Ġob esity
Ġhealth care
ĠHe alth
Ġstre t
Ġyoung er
ĠSh akespeare
Ġcontin ent
Ġadv ance
Ġwa ves
Ġprov iding
Ġexplain ed
Ġsens itive
Ġvirus es
ĠBl ue
Ġroad s
ept ember
Ġrepl ic
Ġang ry
Ġsurround ed
Ġwheel chair
ĠMont ana
Ġlá»ģ u
Ġmeas uring
ĠTrans cript
vi ol
ĠJan uary
Ġpregn ant
ĠSub titles
ĠDem ocr
Per haps
Ġoutc omes
G e
N C
f ield
g ent
n el
r ors
u ous
Ġc ous
Ġn á»ĵng
Ġs Ã´
Ġs Ã¡o
Ġs áº¯m
Ġl Ã¹ng
Ġm ent
Ġb oring
Ġb order
Ġp ill
Ġr ush
is ters
ar on
ĠchÃ ´n
Ġph un
us ive
Ġbe et
Ġst orm
Ġan th
ĠT im
Ġu b
Ġse ason
ĠS en
ĠH ay
ĠL ove
iv i
ĠR am
ĠR iver
ĠR ock
Ġbr ib
Ġbr others
Ġ3 7
Ġfe ature
Ġimp lant
ĠCh á»§
ick s
Ġher oes
Ġxu Ã¢n
ord s
Ġcomm and
Ġcr iminal
Ġlet s
Ġcour t
Ġ200 2
Ġdesign s
Ġrá» Ĺng
Ġnat urally
Ġreg ener
ĠmÃ£ nh
Ġclass es
Ġlarge ly
Ġrecord s
Ġreach ed
Ġrequ ired
Ġcaus ing
Ġpoll ution
Ġsuff er
Ġbreat he
ĠChrist mas
ĠGr and
Ġaf tern
Ġmethod s
Ġir r
ĠChi le
Ġgala xies
Ġincent ives
ĠKho a
Ġprototy pe
Ġadvert ising
hyth m
Gl obal
n et
r as
v as
w orth
z er
Ġ +
á» ©a
Ġc Ãłi
Ġth áº¥m
Ġl uá»¹
Ġm im
Ġb en
Ġv it
Ġp ushing
Ġnh á»ĩn
Ġtr uck
ĠI BM
Ġli ver
il a
ill a
ĠB ob
ĠS k
ĠS eptember
Ġmá» ķ
ab in
Ġsp here
ĠL Ãł
ĠE th
ge nd
pl om
Ġrem em
Ġins urance
Ġtrans fer
ĠNew ton
Thank s
Ġbi as
Ġreg ret
ĠNg Ãły
Ġpres ence
Ġref er
Ġsong s
Ġoper a
Ġlá»ĵ ng
Ġviol ent
Ġfac ed
Qu an
ĠAm y
Ġevolution ary
Ġmechan ical
Ġassum e
Ġcontinu ed
Ġcustom ers
ios ity
Ġfing ers
Ġunc ertain
Ġmathemat ical
Ġdefe nd
ĠSil icon
Ġnurs es
Ġphr ase
Ġconvention al
ĠEas tern
Ġantibiot ics
Ġfrank ly
Ġgreenh ouse
B A
B á»ĳ
O L
P T
a eda
c il
t Ã´
Ġth ung
Ġl ying
Ġd ress
Ġch áº±m
ing u
Ġr ub
Ġr ating
or us
ch o
Ġe ars
Ġwh ales
Ġli kes
ĠM iss
ĠM ike
ĠS cience
Ġme g
ag ue
Ġbut ton
Ġout come
rou s
ĠG ener
ĠK y
ĠK ar
Ġag encies
ep s
Ġcl othes
Ġgr ain
Ġ19 00
Ġrem ove
Ġfin ance
Ġcare ful
Ġvis ible
Ġcur ve
Ġeduc ational
Ġcor al
Ġclass ic
Ġret ire
Ġinteract ions
Ġdeath s
Ġsens ors
Ġdig it
ĠLe on
Ġcomb ined
Ġrelig ions
Ġstru ck
Ġapart ment
Ġcapt ured
Ġfascin ated
Ġhous ing
Ġtrib e
Ġdiagn osed
Ġstrang ers
Ġacad emic
Ġlat est
ĠSing apore
Ġeld er
Ġmyst ery
Ġath let
Bas ically
c ase
f ish
r ich
x im
Ġc ast
Ġth Æ°á»£ng
Ġs Ã©t
Ġh ur
Ġw ise
Ġp ed
Ġp asse
Ġtr iá»ĩt
Ġch á»įc
Ġr Ã£
Ġin ject
is her
Ġvá» Ŀ
Ġcá» į
ut ch
ion e
Ġx Äĥm
Ġra w
im a
se e
ĠT em
th ink
ĠM Ã¬nh
Ġlá» ¡
ĠS and
ĠN Äĥm
Ġal b
Ġsp oken
Ġsp ring
ĠD Ã¢n
Ġpl ate
Ġcomp l
Ġlu i
ra h
Ġwhere as
Ġwhere ver
ĠJ ac
Ġgr ay
Ġvá»ĭ nh
ĠV alley
Ġshe ep
Ġac id
Ġbl ank
Ġad oles
Ġpre tend
Ch a
Ch iáº¿c
ĠNh Ä©
Ġcontr ibute
Ġexpl os
Ġeng agement
ĠUn ion
ĠHo Ãł
Ġsign ed
Ġheart s
ĠZ imb
Ġ199 9
Ġmain tain
Ġphotograph y
Ġhot el
Ġlog o
Ġhuy nh
Ġeffic iency
Ġapplic ation
Ġcommit ment
ĠDel hi
ĠRep ublic
Ġrecy c
Ġshad ow
ĠhÃ£ m
ĠTan z
ĠVirgin ia
Ġaftern oon
Ġpasse ng
B J
O ther
R e
i at
x in
Ġ uy
Ġt Ãª
Ġt ight
Ġt ivi
Ġc ards
Ġl Äĥng
Ġl Ã©o
Ġm i
Ġm Ã³ng
Ġb Ã³c
Ġv Ã²
Ġv ert
er ial
qu are
ar ry
it ors
Ġph arm
Ġph osph
ow ered
us ions
Ġdo p
op ath
st ruct
ĠC Æ¡
ĠC oll
ĠT ed
ĠT iáº¿n
Ġpr ost
Ġse ction
Ġsh ake
ĠM er
Ġhe aven
ĠA v
ĠB udd
ĠS ec
ĠN GO
ĠH ill
ok es
if t
Ġthem e
ĠE s
Ġag end
Ġcl ub
ĠW alk
ĠW right
Ġdi ox
ĠO p
ew is
Ġsur ve
Ġdr ives
Ġtechn ological
Ġrel ate
Ġel imin
Ġfun ctions
Ġgu arant
Ġfig ures
Ġinn oc
Ġneur on
Ġwind ows
Ġlim its
Ġaccess ible
Ġrecord ed
Ġreach ing
Ġobs essed
Ġconcept s
Ġtouch ed
Ġemb edd
Ġfix ed
Ġport ra
ĠJe ff
Ġteen agers
Ġvulner ability
Ġselect ion
Ġcompon ent
Ġtor t
ĠiP ad
Ġtast e
Ġintu itive
Ġsurge on
Ġdiction ary
Ġlibr ary
Ġnar row
Ġdat ab
Ġrefr iger
Ġfurn iture
Ġfro zen
A m
B áº£n
C ar
D an
V o
W K
b urg
c Ã´
h ouse
m ates
n ow
o ing
Ġ áº©m
ĠÄĳ c
Ġg ut
Ġch rom
Ġin iti
Ġvá» ©t
as m
us al
Ġqu áº¡
Ġta ck
ut an
ĠÄĳÃ³ m
Ġst ack
st one
st age
ĠC or
Ġkhi Ãªm
ĠM ary
Ġat e
ĠS ir
ĠS Ä©
ĠH ouse
Ġde ploy
Ġkn ee
ĠP ower
Ġpl enty
Ġtá»± u
ĠK ir
Ġle ap
Ġbr an
Ġlu á»ĵng
Ġnow here
ĠF ellow
Ġhapp ier
Ġdi plom
Ġ4 4
Ġcr ash
Ġsur f
Ġchu Ã´ng
Ġcons erv
ĠkÃ¬ a
Ġbeh ave
ier ra
Ġdep th
Ġair port
Ġequ ation
Ġmar ath
Ġche aper
Ġz oom
To Ãłn
Ġprotect ed
Ġexist ed
ĠFr ance
Ġenc oun
yl on
Ġtravel ed
Ġfeed ing
iet nam
Ġrece ive
ett i
Ġtransl ate
for ward
cri ption
iven ess
Ġsaving s
Ġdistribut ed
Ġhistor ical
Ġscr atch
Ġvolunte ers
ĠPe ace
aren cy
Ġappreci ate
Ġprecise ly
Ġingred ients
Ġspl it
Ġinequ ality
Ġpoore st
Ġignor ance
ĠWolf ram
1 00
8 0
B ill
S te
T hÃ¡
b al
c al
j a
m et
n ie
n ik
y ard
Ġ Ã¡i
Ġt uá»·
Ġt ube
Ġt weet
Ġl am
Ġv en
Ġp our
Ġch ap
an es
Ġng áº©n
ar an
Ġy ield
Ġdo zen
ere nces
Ġchá» Ľp
ĠC Ã¢u
ĠT y
ĠT re
Ġu g
ĠB ible
ĠN elson
Ġmá» ³
ĠH ave
ind a
Ġma il
ĠP art
ĠL ee
Ġwant ing
Ġcl us
ĠV ietnam
ĠÄĳo áº¡t
ell o
Ġeven ing
Ġfl ood
ĠSt ewart
ĠQ uá»¹
Ġinv ite
Ġev olve
Ġev alu
Ġpol ar
Ġinter f
Ġext ent
Ġrobot ic
Ġinf in
Ġpop ulations
Ġroom s
Ġdist urb
Ġtest ed
Ġsure ly
Ġnhiá»ħ u
Ġincre ases
ane ously
Ġabs or
Ġspeak er
ĠCar l
Ġ201 2
Ġpract ices
Ġstat ement
yr ight
Ġvol ume
ĠChar lie
Ġachie ved
Ġdistr ict
Ġarm y
Ġtrib es
Ġdram atically
Ġjournal ist
Ġseed s
Ġlic ense
ĠBrook lyn
ĠScot land
Ġstret ch
Ġembedd ed
Ġchrom os
H er
L áº¥y
R em
f ortunately
u le
z ler
Ġ 000
Ġth áº¯t
Ġn áº¿p
Ġa im
Ġl Æ°á»¡i
Ġb á»ĳc
Ġd ang
Ġd á»ĭp
Ġtr illion
os aur
on na
ing er
an o
ot ion
it ers
in ated
in ction
Ġcá» ĵ
Ġwh ale
ic ian
Ġbe er
et ers
Th iáº¿t
Ġx Ãł
Ġst ations
ĠT iáº¿ng
Ġab und
ĠM ed
ĠB ell
ĠS ome
ag on
ĠH is
Ġint ention
ĠL ike
ĠR and
Ġag es
Ġwork er
Ġen emy
Ġneed le
ĠW il
Ġdis order
ick ed
Ġher self
Ġsm oke
Ġrem oved
Ġcol um
ren ce
ope nh
Ġrec o
Ġimag ined
Ġext inct
Ġatt r
hip s
Ġeng aging
Ġelect ions
up s
Ġpar as
Ġass ist
Ġsuccess fully
Ġhouse hold
Ġpresent ed
Ġocc asion
Ġ198 4
Ġang le
amm ad
ĠCl int
Ġemerg ency
ĠArab ic
Ġhung ry
ĠMo ore
Ġoptim istic
rel ated
Ġoccur red
ĠPark inson
ĠiP od
ĠSu per
Ġdestroy ed
ĠHaw ai
ĠPalest ine
ĠAnt ar
ĠJes us
osa urs
ĠvÃµ ng
Ġbicy cle
Ġfoss il
Ġdop amine
2 5
C omp
b its
g u
m ble
p et
r id
r iend
á» £p
ĠÄĳ Ãºc
Ġb á»ĵi
Ġk iÃªng
Ġd er
Ġtr o
Ġch est
Ġch amp
Ġto ler
Ġng Æ°ng
Ġr on
or king
Ġqu arter
Th Ãłnh
am as
Ġra ising
Ġho Ãłnh
Ġho Ã£n
Ġab andon
ĠB i
ĠB re
ĠB osn
un ning
ive red
Ġkho Äĥn
ĠL ife
Æ°á»Ł i
ĠD id
ĠR o
ĠR ome
iá»ħ u
ĠJ ord
Ġbu ll
Ġ4 8
Ġbl ow
Ġdec line
Ġfl ies
Ġrem ains
Ġcons ervation
Ġimag ing
co hol
Ġngá» Ľ
Ġold est
ĠAr thur
ĠWh ite
Ġstand ards
Ġchar ity
Ġref erence
Ġadv oc
Ġmeet ings
Ġexpect ations
cl ass
Ġmiss ed
Ġant icip
Ġvill ages
Ġer adic
Ġdiv ided
ĠCol umb
Ġinstitut ion
Ġappear s
oun ced
Any way
ĠChi ld
Ġunlike ly
Ġaspect s
ĠTes zler
ĠTasman ian
ĠDis ney
M ark
S p
T S
T Æ°á»Łng
e ast
h op
n ic
w hile
Ġ áº¥u
Ġt uá»µ
Ġc anh
Ġn a
ĠÄĳ uá»ĳi
Ġs á»į
Ġm arch
Ġi con
Ġo x
Ġg áºŃy
at om
Ġtr ies
ou nce
Ġch os
en ess
qu ar
Ġf ifth
is y
Ġwe igh
ĠnÃł n
ĠT ah
ĠM ur
ul se
ĠB h
ĠN et
Ġj ihad
ĠH om
ab eth
Ġsp inal
ĠL ang
iz abeth
ĠR oy
ĠTh á»Ŀi
ro ke
Ġpro of
Ġsc ore
ĠTED Global
Ġinst ant
ĠAnd rew
Ġsl ides
á»ī nh
air s
Ġexpl oration
ĠÄĳÃ´ la
ĠAr gent
Ġsub s
Ġprot o
Ġbre aking
Ġprof it
Ġclass ical
Ġdirect or
Ġconsum e
Ġconsum ers
Ġsil ent
Ġdescrib es
Ġbreat hing
ĠChrist ian
Ġbank s
Ġeffort s
Ġthr own
Ġpros per
Ġcelebr ate
imin als
Ġinstr uments
ĠAlex ander
inist r
ĠnhÃ³ c
ĠTanz ania
openh agen
Ġchos en
C A
F inally
G irl
S ah
b a
b age
c ue
c alled
l ock
l ims
r ol
r ist
Ġt iá»ĩm
ĠÄĳ áºŃm
Ġa h
Ġb oss
Ġb á»ĥ
Ġh áºŃn
Ġh ÃŃt
Ġk iss
Ġp ace
Ġch Ãły
Ġr ising
Ġf ile
al ian
ĠI nt
us ing
Ġre ly
am ed
áº½ n
Ġan ts
Ġne ither
ĠB el
ĠS er
ĠS inh
Ġmá» ¡
Ġsp r
Ġpl aced
ĠK enn
Ġcomp rom
ĠU y
tern ational
Ġbo om
Ġgen ius
Ġ20 30
Ġcomm itted
ian a
Ch ris
Ġsc ary
ak ota
av a
Ġdec re
Ġapp eared
amp s
Ġrá» ī
Ġlove ly
Ġbi om
Ġexpl oring
ird s
Ġdist ract
Ġmor ality
Ġprov ided
Ġspeak ers
Äĳ Ã¢y
Ġdel ivered
ĠLe ban
Ġinsp iring
Ġpriv acy
Ngh á»ĩ
Ġamong st
Ġflu id
Ġcry ing
Ġdemonstr ate
xi ety
Ġpainting s
Ġconc ert
ĠCent ral
Ġbase ball
Ġfing er
ĠNhÃ ¢n
Ġproper ly
ĠTá»ķ ng
ĠOlymp ic
Ġteles cope
Ġhem is
Ġsuic ide
Ġagend a
P aul
T Ã¬nh
l ies
p arent
t ail
w r
Ń ng
Ġt asks
ng ue
Ġc oc
Ġc ats
Ġs ed
Ġs ales
Ġm á»ĳc
Ġb Äĥn
Ġb ones
Ġv áº£
Ġv á»Ļi
er om
Ġnh á»§
Ġng á»Ļt
in y
Ġyou th
Ġph erom
Ġngh áº½n
ur se
ĠC openhagen
od ed
ĠM oon
Ġmy ster
Ġor bit
if orm
Ġchuy á»ģn
Ġkn ock
Ġal cohol
Ġint ent
all ow
ĠL ine
ĠD á»±
ĠÄĲ áº£ng
Ġ3 50
ra wn
ĠJ ones
Ġgr anted
ber ry
ak s
Ġfl our
Ġfind s
Ġdr one
Ġapp le
Ġapp eal
Ġcar ried
Ng oÃłi
Ġrel i
Ġinst antly
Ġimag ery
ĠNew s
Ġacc um
Ġgrow s
Ġca ke
Ġconnect ing
ĠghÃ ª
Ġfail ing
Ġz one
Ġpresent ation
Ġperform ing
On ly
ĠBe ij
Ġintr ig
Ġmeasure d
Ġhá»ķ ng
Ġfem ales
Ġrepresent ed
Ġang er
Ngh e
Ġparticip ants
Ġcart oons
Ġrain forest
Ġign ore
Ġdeb t
Ġhack ers
Ġbelief s
fl ies
ĠnhÃ¡ nh
Ġinj ury
Ġalgorith m
Ġut ter
uh ammad
ĠJer usal
Ġcorpor ate
Ġneuros cience
Ġflo ating
Un fortunately
Ġagre ed
Ġadop t
Ġscen ar
Ġbare ly
Ġorch est
ĠEth i
Ġdiox ide
Ġreco very
ĠClint on
ĠJerusal em
B á»ĩnh
C C
L u
M S
O k
U s
f ast
l ings
p ower
t t
Ġt att
Ġc ens
ĠÄĳ iá»ģn
Ġl ens
Ġb áº©m
Ġb áº§y
Ġg om
Ġg Ã£y
Ġd ign
er able
Ġtr ash
Ġng á»¥
Ġf ool
Ġf ishing
om an
Ġqu á»·
Ġgi áºŃt
uy áº¿n
im al
Ġan xiety
ĠC om
ĠC ome
ĠT am
ĠT ake
th rough
ad ing
ĠS ierra
Ġex ternal
ĠH ung
ĠH el
ĠP op
iz oph
ĠJ ill
Ġun its
ĠV iá»ĩt
Ġshe et
Ġco ach
Ġres on
Ġres cue
Ġsc ri
Ġdr ones
ĠIn ternational
ri x
Ġgener ated
Ġrob ust
Ġmusic ians
Ġcur iosity
Ph á»¥
Ġsens ory
enn is
Ġple as
Ġess ence
yl via
Ġcomb at
ades h
Ġdepend ing
Ġfunction al
Ġpu pp
Ġsurprising ly
ĠMo z
Ġstick s
Ġcharacter istics
Ġvict im
Ġshop ping
Ġhall uc
Be fore
Ġax is
Ġcooper ation
Ġnor thern
Ġbound aries
Ġtal ent
ĠPalest in
Ġsculpt ure
Ġtit le
Ġlock ed
Ġpil ot
Ġmicros cope
Ġuncle ar
EC D
Ġexplan ation
ĠJosh ua
Ab out
Ġmarath on
Ġscri pt
A dam
B áº¯t
F G
J H
T á»ĳt
¹ ng
Ġ Æ°Æ¡ng
Ġt ent
Ġt ired
Ġc ord
Ġs Ãºp
Ġl á»į
Ġm er
Ġm ile
Ġh at
Ġv áº¥t
Ġv ital
Ġp ione
Ġg el
Ġd áº¡i
er d
Ġr á»Ļn
le ton
Ġbe ars
Ġgi en
Ġcho osing
Ġst able
op a
se c
ĠC amp
Ġho an
em ents
Ġsh ocking
ul um
ĠB ern
ain t
Ġor ange
est ed
Ġsp ell
Ġsp ark
ĠG en
our nal
ai re
ĠgiÃ¡ p
ach e
ĠF irst
pt ions
Ġco ord
Ġdr ill
Ġlet ting
Ġinv olves
Ġsch izoph
Ġrec omm
Ġmin or
Ġmin ister
Ġca fe
gg ed
ĠAl pha
Ġrest ore
Ġcha os
ĠJohn ny
Ġ13 0
Qu Ã½
Ġrecogn ition
Ġpolic ies
Ġcop yright
Ġrock et
Ġdin osaurs
Ġreturn ed
Ġafford able
Ġstrugg ling
Ġprep are
Ġelectron ics
Ġautom atically
Ġmotiv ation
Ġneighborhood s
Ġparad igm
ĠBab ylon
Ġfle w
eng ine
Ġvessel s
Ġdolph ins
Ġeleph ant
Ġadj ust
Ġhyd ro
Ġuncom fort
ĠZimb ab
Ġug ly
Sah aran
4 0
M ich
R A
a it
c red
e ff
g ers
l ow
n es
r ome
v a
y m
Ã Ĥ
Æ ¯
Ġt ill
Ġt ied
Ġth iÃªng
Ġn om
ĠÄĳ á»ĳm
Ġs le
Ġm áº§m
Ġb á»ĵ
Ġb áº»
Ġh Ã´ng
Ġk á»ģ
Ġg ee
Ġd á»ĩt
Ġnh áº¥p
Ġtr Ãºng
ot on
Ġf irm
al ed
is a
it ory
ĠI r
Ġph iÃªu
Ġta m
Ġha mb
ur ation
Ġst ages
Ġst roke
ĠT ay
ad o
ad el
Ġab use
ĠB áº±ng
ĠB ert
ĠS i
ĠS al
ĠS und
ĠH ir
Ġde lic
ab ul
Ġact or
Ġyour s
Ġsee k
ĠR oss
Ġfe atures
Ġen able
ĠF ar
ĠJ ane
ĠJ une
ĠCh áº³ng
Ġover come
ĠO f
Ġcont ains
Ġunder ground
ub a
Ġcr ops
Ġfl ip
con f
Ġperson ality
Ġtra um
ph ia
Ġmon key
co ver
Ġfood s
alle l
ott on
ĠNÃ³ i
Ġresearch er
Ġdep ressed
Ġcor resp
Ġpar allel
Ġexc l
ĠghÃ ©
Ġhold s
Ġexpect ancy
sh ah
Every one
Ġfall s
Ġprotect ing
ĠFr iday
mb ly
yr am
Ġimpact s
ĠLe one
Ġrecogn ized
Ġsleep ing
Ġrich er
Ġball oon
col n
Ġreport ed
Ġsyn thes
Ġsepar ated
Ġcolleag ue
Ġshap ed
ĠBro ad
fr ont
Ġcru cial
ĠNhÃ ¬n
Ġtrend s
cap es
Ġlect ure
Ġridic ulous
Ġinstruct ions
Ġapparent ly
Ġanth rop
PT CH
Ġalb um
Ġuncomfort able
ĠZimbab we
1 5
N Æ¡i
T Ã¡c
T á»ķ
b ing
b ered
l en
p est
w est
Ġ Ãło
á» Ńa
Ġt Ã¹ng
Ġt ears
Ġc raft
Ġn ets
Ġn urse
Ġs Æ°á»Ľng
Ġs ession
Ġl á»Ļt
Ġh oney
Ġv áº·t
Ġw ip
Ġd ies
Ġd ensity
Ġnh á»ĭ
Ġr áº¡p
Ġf athers
Ġin k
ch er
Ġwh is
Ġbe nd
ĠnÃ³ n
Ġx Ã¡ch
Ġx á»©
Ġst one
se x
ke ley
ĠT Æ°
ĠT ime
ad ays
ĠM other
ĠM uhammad
ĠA ug
Ġne ural
ĠB ud
ĠS ky
Ġus ual
ac ies
ĠH á»£p
ess or
ok ed
ok yo
if ice
Ġup load
ĠL ab
ĠD u
Ġpl ain
iz a
ĠR on
pp ing
ach el
Ġen zy
ĠW ill
Ġun bel
ro id
Ġdi verse
ĠO ECD
Ġdis rupt
ĠSt ud
Ġcol ony
Ġcreat ure
Ġphá»ĳ t
Ġafter wards
az a
Ġ9 6
Ġmus cles
Ġsupp ose
Ġorgan ize
Ġmusic ian
Ġdist ant
Ġgu ide
Ġdef ense
Ġcontrol s
Ġpar aly
Ġxo áº¯n
Ġche ese
Ġcontin ues
Ġprov ides
Ġinteract ing
ĠThank s
Ġimpro ved
Ġes cape
Ġdirect ions
ĠGe ographic
Ġarchitect s
Ġfoot ball
Ġproduc es
Ġtext book
Ngh Ä©a
Ġimprove ment
put er
Ġprint ed
Gi Ã¡o
Ġadm inistr
Ġstrateg ies
Ġlink ed
ĠDan iel
Ġcry st
Ġmix ed
Ġelectron ic
ĠMus lims
Somet hing
Ġdyn am
Ġagricult ural
Ġrepe at
Ġcateg ories
Ġdomin ant
Ġwire less
ĠÄĳá»¥ ng
Ġtransp arency
Ġens ure
ĠVen ice
abet es
ĠSant a
ĠPac ific
ĠDep artment
Ġperman ent
ĠvÃ² m
ĠBosn ia
shah idi
7 0
C áº§n
E d
O b
P l
c ence
e z
l or
t es
Ġt Ã´m
Ġc as
Ġh itting
Ġv Æ°Æ¡ng
Ġg onna
Ġd áºŃp
Ġd ump
ot ter
Ġr Ã¬a
or al
ar p
ĠkhÃ ¹ng
ĠcÃ¡ p
us i
Ġkh an
ur ger
ig an
se ll
st ate
ĠT un
Ġu á»ĳn
em a
Ġas ide
ĠM ount
ÄĲ áº¥y
ĠS quare
ĠH ong
um in
Ġout put
ĠL Ã½
ast ics
iz z
are s
Ġbr own
Ġag ency
Ġ3 8
ud es
ĠJ ud
ĠJ oseph
ĠW omen
ĠCh urch
cent ury
Ġpre c
ire ct
Ġhel ic
Ġsec ure
Ġent ered
Ġrec over
Ġ8 6
arch y
Ġlight ing
Ġop ens
Ġdem o
ĠAr ctic
Ġvis ited
Ġsub tle
Ġorgan ism
Ġcap ita
Ġred ef
Ġcur ric
Ġstop s
Ġequ ality
Ġfil ter
Ġtreat ing
Ġview s
Ġexplain ing
Ġident ified
Ġdel ight
Ġ14 0
Ġpsych ological
Ġrecord ing
ChÃ º
Ġsil icon
Ġpredict ions
ĠCol omb
Ġsearch ing
ĠBang l
Ġdisapp oint
Ġcalcul ate
Ġsou p
Ġtá»ĭ ch
Ġtrick s
Ġchair s
Ġnut ri
ĠPhil adel
ĠBer keley
ĠGreen land
Ġlaugh ing
Ġcontroll ing
Ġmanufact ure
Ġhom eless
Ġrepe ated
Ġlawy ers
Ġattach ed
agh etti
ĠNeander thal
opard y
Ġexec ut
Ġstere oty
Ġvit amin
ĠGener al
ĠLeon ardo
Ġproto cell
ĠPhiladel phia
B Æ°á»Ľc
D á»±
G ia
L oÃłi
a ves
k hi
p ass
u its
v y
v áºŃy
Ġc ig
Ġth áº¯n
Ġa es
Ġs in
Ġm ice
Ġb at
Ġb iáº¿m
Ġh ol
Ġv eter
Ġd ow
Ġch ief
Ġto y
ap agos
or ous
is ons
it ous
in burgh
om a
le ar
ĠI g
Ġe ast
Ġkh en
Th Æ°á»Ŀng
Ġst yle
Ġdo ors
ĠC ur
ĠC á»©
ĠT okyo
Ġcáº£ ng
Ġpr ime
ĠM ir
ĠM ama
ĠnhÃ £
ĠB oy
ĠS ud
ac ular
Ġpe er
ain e
ĠH i
ĠH ad
og er
un ction
ĠnhÃł m
Ġsp aghetti
ĠG il
ĠD ub
Ġpl ot
Ġsu ck
ĠCh Ãł
ĠCh uyá»ĩn
Ġdi am
ĠO ct
á»§ a
ru ary
Ġ4 2
Ġ19 3
ĠQ ue
ph ones
Ġser ved
Ġmin ing
ĠChÃ ¡
Ġexpl o
Ġglob ally
ĠPh áºŃt
Ġpain ted
Ġproduct ivity
Ġmag ical
Ġfund s
Ġsens or
Ġtem pt
ann a
Ġsent ences
ĠchÃ³ c
Ġorig in
Ġleg is
Ġpur ch
li ament
Ġdeg r
Ġbur st
Ngh iÃªn
Ġest imate
Ġstore s
Ġvirt ually
Ġassum ptions
Ġdemonstr ation
ani el
Ġcateg ory
Ġveget ables
eb ruary
ĠStar b
ĠLin coln
Ġthá»ĳ t
ĠGal apagos
Ġinev itable
aze era
ĠSom alia
Ġren ew
Ge orge
Ġuncertain ty
Ġelder ly
Ġencoun ter
ĠColumb ia
ĠArgent ina
ĠEthi opia
Ġunbel iev
1 3
N obody
Q ua
d ing
m aker
n i
p art
p ro
u á»ĵn
ĠÄĳ om
Ġb á»±c
Ġb Ãºa
Ġk á»ĩ
Ġk áº½
Ġk em
Ġp ink
Ġp icking
Ġg ai
Ġd ive
Ġtr aged
Ġtr ucks
os al
Ġng Æ°
Ġf et
Ġf ung
Ġf ulf
ll i
Ġcá»§ ng
ct ica
am ie
Ġcho Ã¡ng
se ction
ol i
ĠC ap
Ġlo ves
Ġse xy
ÄĲ Æ¡n
ĠB Ãłi
ĠS us
Ġme al
Ġex cell
ist or
ĠchÃŃ p
og ether
Ġkho ai
ĠL uther
ĠD oug
ib eria
Ġtá»ĳ ng
ĠK evin
Ġem ph
Ġsá»Ń ng
ĠJ ay
Ġcl osing
Ġimp er
Ġdi agram
Ġdi abetes
Ġdis m
Ġ19 2
Ġpre f
ne gie
ars h
Ġpers u
Ġtho Ã¡ng
Ġdr ivers
ĠSt ephen
Ġla id
Ġend ing
Ng uyÃªn
Ġob l
Ġgl ac
Ġ7 2
Ġent h
Ġacc idents
Ġhigh light
Ġmus cle
Ġfar mer
Ġred uced
Ġass ets
Ġadv enture
Äĳ á»ĥ
Ġimpro v
Ġá»§ i
ĠCar negie
Ġlim b
Ġstay ing
Ġstrong ly
Ġciv ic
Ġfoot age
Ġsuggest ing
Ġaffect s
Ġdark ness
Ġdetail ed
Ġactiv ist
Ġcitiz en
Ġtransl ation
Ġther m
Ġcollabor ative
Ġpush ed
Ġfa vel
Ġdisapp eared
ĠPl ay
Ġpros thetic
Ġnut rition
ThÃ ªm
Ġdrink ing
Ġliber al
ĠMin ister
Ġrare ly
Ġquant um
ĠEve rest
Ġlawy er
ĠTuy á»ĩt
ĠKore a
Ġtox ic
Ġprivile ge
Ġresil ience
Ġdedic ated
ĠÄĳá»ĩ m
Ġphosph orus
ĠHawai i
ĠKenn edy
Ġhemis phere
Ġdign ity
Ġschizoph ren
Ġhelic op
ĠStarb ucks
A K
C hi
N Æ°á»Ľc
N ext
a ult
i ac
j amin
k g
k ward
l as
u ity
w ind
á» £i
Ġt Äĥm
ĠÄĳ inh
Ġs its
Ġs Æ°á»Ŀn
Ġl it
Ġl ions
Ġm Ã©p
Ġb orrow
Ġh Ã¡i
Ġo oh
Ġk áº¹p
Ġg ear
Ġg áº¡t
Ġd á»ĵn
Ġd rove
Ġtr Ã¹m
Ġch Æ°á»Ľng
os ure
an ish
Ġr ay
Ġf usion
Ġin ches
ar re
Ġph e
Ġph Æ¡i
Ġx á»Ļn
ur a
ol ic
Ġan onymous
Ġpr ize
Ġpr ices
Ġne at
ul u
Ġat om
ĠB as
Ġme lt
ĠN ike
Ġmá» Ľ
ĠH am
ure au
Ġout er
ĠG ive
ĠL o
ĠL ewis
ĠK u
ĠK Ã¬
ĠK am
Ġcomp elling
ĠÄĲ á»ı
ment ed
Ġle ather
ĠR ad
Ġsau ce
Ġexp osed
Ġ3 000
ĠJ azeera
ĠTh Ãłnh
Ġcl ar
Ġun pre
Ġpart ies
Ġvá»ĭ t
ath em
Ġsc ores
Ġro ots
Ġshould er
ĠmÃ´ t
Ġhu Ã½t
Ġrá» ¡
Ġmon itor
Ġbi od
ont o
Tr áº»
oll o
Ġhy per
Ġconf ident
Ġbeg un
Giá» įng
Ġred uction
att ered
Ġprot est
ĠSh ir
Ġaw kward
Ġconst rain
ĠthÆ¡ m
Ġele g
Ġspread s
ĠSp ut
Ġlay ers
Ġimm un
ĠMc C
Ġlif es
ĠCol le
Ġlink s
Ġinflu enced
Ġscan ner
Ġphysic ist
Don ald
ĠJul ia
Ġinsight s
ĠRes earch
Ġperce ive
Ġhorm ones
ĠAtlant a
ĠSim on
Ġprofession als
Ġinit ial
Ġsen ior
ĠCop ern
Ġfert il
Ġub iqu
Ġpasseng er
parent s
ĠAug ust
ĠTun is
B en
E s
I A
M Ã¡y
b ie
b by
e ch
f ly
k in
l o
t wo
v iet
Ġt Ãºng
Ġt áº¡ng
Ġth iá»ģn
Ġs ulf
Ġs illy
Ġh ill
Ġh Ãłn
Ġh ier
Ġv ent
Ġw ing
Ġw ound
Ġw ider
Ġp yram
at ural
Ġd ust
Ġd ough
Ġd irty
Ġd rawn
Ġtr iá»ģu
Ġtr oub
Ġtr Ã¨o
Ġng á»¥c
it us
as a
Ġe nh
ut en
Th rough
Ġre ef
op atch
ke nd
Ġan es
ĠT wo
em ploy
ĠM et
ĠM ag
ĠA ch
ĠB á»ĳ
ĠS cr
ĠS arah
ĠN L
ĠN Ãªn
ĠN ick
ag g
ĠP enn
ment al
Ġlu x
Ġen ables
áº¹ o
ĠF ried
Ġcl ients
Ġbu g
ĠO s
ĠV iá»ĩc
Ġprob ability
Ġunder lying
uc es
pl ed
ĠY out
Ġpers ist
ren cy
Ġrel ax
Ġrec ru
Ġrá» Ĺi
Ġhealth ier
Ġsk et
Ġsk ull
Ġopen ness
Ġgovern ance
ĠPh áº§n
Ġadd ing
Ġelse where
ĠâĢ ¦
Ġfund ed
Ġmic roph
Ġimpro ving
Ġ199 8
la im
Ġfac ility
Ġkey board
Ġphotograph ed
Ġleg it
vent ions
Ġsuggest ed
Ġtele phone
Ġdepend ent
Ġbur den
Ġcross ing
Ġce iling
ĠEd inburgh
Ġdá»ĭ u
Ġdeterm ined
Ġphilos opher
Ġoptim ism
ĠJe opardy
Ġir re
Ġphysic ian
Ġaddition al
Ġcircu its
ĠTur k
Ġgar age
Ġodd s
Ġgather ing
Ġhorm one
Ġpow ers
Ind eed
Ġdial ogue
ĠNan opatch
child ren
Ġreven ue
ĠbÆ°á»Ľ m
Ġwel come
ĠTem pest
ĠAntar ctica
ĠLeban on
Ġcurric ulum
ĠColomb ia
ĠSput nik
9 9
H C
O X
b ar
f all
m ill
m ail
r r
s es
t hÃ
w en
ª nh
Ġ Ã¢u
Ġt áº©y
Ġm Æ°u
Ġch ances
Ġr Ã¢u
Ġr ats
Ġr Ã¨n
it ic
as p
ĠI re
Ġph iáº¿n
ow ers
Ġkh áº©n
Ġbe ll
ut s
ut y
Ġgi eo
Ġx en
Ġre cept
Ġra il
ere n
Ġcon ven
Ġcon vert
ol as
ol ars
Ġsa v
th et
á»ĭ t
ĠM om
ĠnhÃ º
ĠnhÃ ©t
ÄĲ á»©a
ĠN air
Ġfr uit
ist en
Nh á»Ŀ
el f
ob ile
un ter
ĠL es
ĠD esign
Ġbr ut
Ġman ager
ĠF ort
ĠF ebruary
ĠF OX
Ġun p
Ġgr at
Ġtrá»į n
Ġback wards
ĠU shahidi
Ġsc ream
Ġsm ooth
Ġinc or
ons cious
Ġdr um
ĠQ atar
ious ly
Ġrem ained
Ġtrans cend
ĠIt aly
ĠAnd erson
Ġtra its
Ġ7 4
Ġser ving
Tr á»Ł
Ġhard ly
ĠAr my
ĠSo viet
Ġconf used
Ġpass ing
Ġset tle
Ġwee kend
Ġopp osed
aw s
Ġlab s
Ġfocus ing
Ġnon viol
cl ock
Äĳ iá»ģu
ĠJohn son
Ġeat en
Ġviol in
Ġsupport ed
Ġbreak through
Ġsuper mark
Ġspecial ized
Ġong oing
Ġsil ver
Ġsmart phone
Ġpull ing
Ġarr ive
ĠKh an
Ġmis erable
Gi áº£
Ġtransl ated
Ġgraph ic
Ġwhe at
ĠSe attle
Ġexpress ions
Ġremind ed
Ġinh erent
Ġdiagn osis
Ġsimpl icity
Ġintegr ated
ĠRuss ian
ĠTor onto
Ġparad ox
cop es
min ute
Ġrefuge e
Ġmosquit o
Ġmicrob es
Ġcolon ies
Ġgenet ically
Americ an
Ġforgot ten
Ġjudg ment
Ġancest ors
Ġrebu ild
Ġsacr ifice
Ġowners hip
Ġhypothes is
Ġinnoc ent
ĠSund ay
PTCH A
ĠYout ube
B an
G ood
M an
P lease
R N
W ill
b od
l ist
l og
y d
Ġc ath
Ġc ert
Ġc ute
Ġn urt
Ġm all
Ġb ars
Ġb Ã³n
Ġh Æ°ng
Ġh Ã¢m
Ġv áº§n
Ġw oke
Ġw edd
Ġi on
Ġd Ãª
Ġd áº¹p
Ġnh i
Ġtr op
Ġto ys
Ġf ires
it ate
it udes
in ter
Ġvá» įt
as y
ĠI M
Ġta xi
im ent
ce mber
ĠT á»ĳt
od ing
em an
em ics
ĠM od
ĠM ovember
Ġwhat so
Ġcom edy
ĠN Ãło
ĠN ico
ust ed
ĠH all
ĠP lease
Ġte ch
Ġsp ots
ĠL akota
ĠK ansas
ĠE conom
ĠF ed
ĠJ u
ĠW ould
ĠCh Ãło
Ġdis orders
Ġtrá» ħ
Ġbl ah
ish ment
Ġpre cious
Ġsm arter
Ġvi Ãªm
Ġtrans mit
ĠThe o
Ġhelp ful
Ġgl ad
Ġcons ult
Ġpoint ing
ween ey
Ġngá» «
Ġed ges
oll ar
Ġear n
gg ing
Ġansw ered
Ġ18 0
Ġ18 5
Ġkill er
Ġass ess
vious ly
Ġtrain s
Ġview er
Ġchim pan
Ġoper ations
Ġcal ories
Ġpsych opath
Ġstat ist
Ġbreak fast
Ġorig inally
Ġinclud es
Ġwin ning
Ġobs erv
Ġfast est
Ġindust ries
Ġhar ness
ĠEm ma
Ġunivers ities
Ġtext ing
Ġsuff ered
Ġrepresent ation
ĠDe cember
Ġult ra
Ġprin ter
Ġsold ier
ĠMich igan
ĠSte ven
Ġshif ting
Ġtar gets
Ġphil anth
Ġinfect ion
Ġsyn thetic
Ġaccept ed
Ġdoc uments
Ġcat ast
Ġsus pect
Ġconcer n
Ġdeliver y
Ġeth ical
Ġattract ive
Ġshoot ing
Ġrestaur ants
Ġble nd
Ġfrequ ency
Ġsusp ended
ĠÄĳá»¥ c
Ġrefuge es
Ġfrustr ated
Ġfu els
Ġitem s
Ġretire ment
Ġcá»ĵ n
ĠBeij ing
Ġhamb urger
ĠBangl adesh
Ġcig aret
ĠColle ge
Ġwhatso ever
A S
G r
I nt
T iáº¿ng
g i
l Ãł
m akers
s au
t op
w alk
z ens
Ġ Æ°á»Ľt
Ġt ubes
ĠÄĳ Ã²n
Ġa in
Ġs ink
Ġl es
Ġl Ãª
Ġl á»¥
Ġm urd
Ġb anh
Ġb á»Ļc
Ġb iz
Ġh al
Ġh ire
Ġv áº¡n
Ġw id
re al
Ġp and
Ġp ause
Ġg re
Ġg ang
áº¿ m
Ġch ay
Ġch ips
ap ed
áº¥ ng
Ġf ought
Ãª ng
ch ed
á»ĳ p
ĠcÃ³ c
Ã¢ t
le ts
Ġph á»ĵng
Ġta g
ut ical
Ġx ay
Ġngh iÃªng
am ing
Ġdo zens
ĠC oke
á»ĭ a
ĠA sh
ÄĲ o
ÄĲ Æ°á»Ŀng
ĠB y
ĠS iberia
ĠN ep
ĠH ol
um es
est ion
Ġour s
Ġbut t
ery l
Ġma xim
Ġup d
Ġpl astics
Wh ether
iv a
ace utical
Ġem erge
Ġbr ave
Ġexp ed
ep ing
Ġun employ
ĠO ur
ĠO ak
ell er
Ġpo ison
Ġtrá» «ng
Ġmo od
ĠU N
Ġoff ices
Ch Æ°a
Ġinv olve
he art
Ġins ist
Ġbas k
Ġ9 8
Ġfound ed
Ġext ension
Ġatt itude
air o
Ġchi Ãªm
Ġeng ines
ĠAr izon
Ġpub l
Ġelect ed
ĠAl ice
Ġwar ning
Ġphot ographer
Ġred ucing
ĠHo Ãłng
aw are
Ġrest r
Ġglobal ization
Ġprop osed
Ġexperim ental
Ġprogram ming
Ġnon profit
Ġobject ive
Ġdifficult y
Ġland ed
Ġ16 0
Ġ199 5
ced ented
Ġfac ilities
aught ers
ĠAn as
ĠBe ach
ĠSp ace
ĠSp anish
ĠIsrael i
Ġjo int
Ġarr ang
Ġprom ote
Ġer rors
Ġpeace ful
Ġbed room
ask a
Ġhang ing
uct ive
Ġaccount s
Ġprim arily
Ġdom estic
Ġimmedi ate
Ġclin ic
Ġsou thern
Ġtiss ues
ĠBer lin
Ġanaly ze
fr iend
Ġfort une
Ġrout ine
Ġhabit at
Ġsubst ance
Ġking dom
Ġtransp arent
oster one
Ġfed eral
Ġisol ated
Ġmak ers
Char les
Ġmere ly
Ġproced ure
keep ers
Rem ember
Mich ael
ĠSud an
Ġbiz arre
ĠArizon a
B Ã¡c
F our
M G
N umber
O PA
f ree
h ar
i ences
l an
l ar
r ary
r ogen
t ical
´ i
Ġ áº¥p
Ġn uá»ĳt
Ġn odes
Ġn aked
ĠÄĳ Ã¨
ĠÄĳ áº¯m
Ġs isters
Ġl Ã´
Ġl amp
Ġm ate
Ġb ond
Ġb á»ĵn
Ġv áº¯ng
Ġv áº©n
Ġw ired
Ġp ir
Ġd Æ¡i
Ġnh a
on ic
Ġng á»Ńi
Ġr á»ĳt
it age
Ġvá» Ľ
Ġqu it
Ġqu áºŃn
et on
Ġre think
ke ys
ĠC N
ĠC ath
ĠT ib
ad emy
Ġsh ine
ĠM Ãł
ĠM os
ĠM Ã¡y
ĠB o
ĠS MS
ĠS weeney
Ġj am
Ġmy cel
ĠphÃ¡ o
Ġout r
Ġup set
Ġact ors
Ã© n
ĠK elly
Ġcomp os
Ġag ent
Ġman agers
ĠF ree
ĠW i
Ġbu á»ĵng
Ġdis ag
Ġ5 2
Ġ5 8
Ġdes cription
ĠTr Ãªn
Ġsm iling
Ġinc ident
Ġfact ories
urn s
Ġbá»ı ng
Ġart work
Ġart icles
Ġcomple ted
Ġcre w
Ġmon it
Ġngá» £i
Ġgener ous
Ġreg ime
ĠX Ã´
Ġhead lines
Ġpres erve
ott ed
Ġval id
aw att
Ġprop ortion
Ġtest osterone
Ġret ina
ĠÃ´ tÃ´
Ġinvest ors
Ġdel ay
Ġgrand parents
enn ifer
Ġleg acy
ĠPr inc
Ġdraw ings
Ġinsp ire
itut ion
umb ai
Ġarr ay
Ġpredict ed
á»Ľ c
Ġmob ility
Ġmechan isms
With in
ĠIsl ands
Ġmagn etic
Ġprep aring
Ġpan els
Ġspect acular
Ġconcl ude
Ġweap on
Ġbroad cast
Ġpig e
Ġpengu in
ĠNor way
ĠLu áºŃt
Ġvot ing
Ġillustr ate
Ġtun nel
Ġpurs uit
ĠPhÃ ²ng
ĠAtlant ic
ĠMat th
Ġremem bered
Ġpharm aceutical
Vo ice
Ġprosper ity
Ġparaly zed
ĠChÃ¡ u
Ġemph as
Ġunpre cedented
Ġubiqu itous
ĠNep al
ĠPrinc eton
A O
I S
L ad
N á»ģn
R ichard
c an
c in
f our
m art
w l
Ġt ear
Ġth áº¡o
Ġth rew
Ġth Ã¨m
Ġn Ã¢u
Ġn ative
Ġn erve
Ġl one
Ġb ind
Ġb Ã¡t
Ġb Æ°u
Ġb áº«y
Ġw att
Ġw aters
re h
Ġk Ã¬m
Ġp unch
nd rome
Ġd Æ°a
Ġd ressed
er ved
on ia
Ġto ngue
Ġng Ã¢y
ic ial
Ġph thal
et ho
Æ°á»£ m
Ġx áº£o
ent er
Ġon stage
id ers
id ges
ig ation
ĠC our
Ġhe aling
ĠA g
ĠnhÃ ´
ĠnhÃ Ń
Ġme als
Ġde ce
ob er
ĠG ar
ĠD ad
ĠD ie
ine a
ib ati
oc al
ĠE S
ĠR em
Ġexp ans
Ġcl ay
Ġar med
ĠO oh
Ġbl ame
ĠTr Æ°á»Ľc
Ġ19 0
ath ered
Ġcomm od
ak en
Ġcr imes
ĠSt one
ĠSt age
Ġrem aining
Ġ... .
Ġsec rets
Ġsch em
Ng Æ°á»£c
Ġwr iters
Ġinter rupt
Ġinter vention
Ġmin i
Ġbi ote
Ġeconom ist
Ġhome work
Ġban jo
Ġeduc ated
ash ed
Ġair craft
Ġcor rel
Ġfig uring
Ġmar ine
Ġfree ly
Ġrad i
Ġlisten ed
Ġaud io
rem e
Ġbott les
ĠÃĤ m
Ġdel iber
Ġarg uing
Ġrequ est
asc ular
ĠAn n
Ġobs erve
Ġobs ervation
Ġsum m
Ġrespons es
Ġpost ed
Ġhor iz
Ġimm igr
á»Ľ n
Ġlea f
Ġemerg ed
ĠCam eron
Ġminds et
Ġann oy
Ġann ounced
Ġcapital ism
Ġstraight forward
Ġdesp air
Ġwealth y
Ġbub bles
ĠSau di
Ġden ial
Ġwide ly
Ġmamm als
Ġrout e
Ġfab ulous
Second ly
Ġprevious ly
Ġenter pr
Ġintu ition
Ġreci pe
Ġbrief ly
Ġske pt
ĠAp ollo
Ġmat rix
ĠCount y
Ġcollaps ed
Ġconserv ative
Ġinfin ite
Ġattr ibut
ÃĤ m
Æ¯ á»Ľc
ĠOct ober
Ġmicroph one
ĠIre land
9 0
B ack
E instein
M e
M Ãłu
d ig
d ollar
g aret
h alf
l aw
m ony
r Ãºt
t i
y on
Ġ urg
Ġt áº£o
Ġt ip
Ġc ay
Ġc abin
Ġth iáº¿p
Ġn áº¡p
Ġn erd
Ġa ward
Ġb áº¿n
Ġb att
Ġb áº©y
Ġh Ã©
Ġh iding
Ġp ile
Ġp anc
Ġd Ã¢ng
Ġd aughters
Ġtr ail
Ġch iÃªn
Ġch ron
on ing
Ġr á»±c
Ġf iring
ed ay
Ã¬ u
in ity
in arily
ĠI van
Ġwe t
Ġph áº¿
Ġta o
Ġbe ating
Ġgi g
Ġx Ã¡
Ġx áº¿
id ential
ang le
Ġst ability
ce an
Ġcon ce
ir ling
ĠC ru
ĠC airo
Ġlo ad
ĠM edic
ĠM umbai
ÄĲ a
ĠB á»ĩnh
ĠB ali
ĠS áº½
ĠS ol
ĠS ylvia
ĠN ations
ĠN ature
Ġal ien
Ġout s
ĠP re
au d
Ġpl ug
iz er
ĠÄĲ Ã´i
ĠÄĲ áº¡o
ĠR ose
Ġ3 4
Ġdon or
Ġnow adays
ra ig
ĠF ox
ep her
Ġun iform
Ġgr oc
Ġar row
ĠCh a
Ġdis abled
ĠV Ã´
ĠV á»ĭnh
Ġgot ta
Ġam ate
Ġ4 3
Ġkhu áº¥t
Ch á»ĭ
Ġcr op
Ġcar ing
ph ony
Ġ9 3
Ġsl ums
Ġrec all
Ġkid ney
Ġhard ware
Ġel ite
Ġform ula
ĠWh ich
alle t
ĠPh ot
Ġcur rency
lf riend
Ġvir Ãºt
Ġexc it
den ly
Ġterr ifying
by e
Ġgrand children
Ġ199 6
Ġpersonal ized
Ġperform ed
ey er
roll ed
Gi Ã¡
ĠxoÃ¡ y
Ġign ored
Ġclin ics
gr ad
Ġmir acle
Ġprofound ly
Ġunc onscious
Ġamb ig
ĠNor thern
Ġcla ims
Ġnewsp apers
Ġecosystem s
Ġexpand ing
ĠJack son
Ġshel ter
Ġfrag ile
ĠAc ademy
Ġqual ities
Ġbath room
Ġoverwhel ming
ĠJew ish
Ġstoryt elling
Ġreh abil
ĠchÃ¹ m
Ġvert ical
Ġdatab ase
Ġrecomm end
Ob viously
Ġtraged y
etho ven
C ome
E A
S R
S ud
c king
f old
k rain
t z
w w
Ã ģ
Ġ =
Ġ Â
á» £
á» µ
Ġc á»Ļ
Ġn ÃŃn
Ġl in
Ġm ur
Ġh ub
Ġg ate
Ġd iá»ģu
Ġd ose
Ġd uck
Ġnh á»ĵi
Ġnh á»Ļn
Ġch at
Ġto oth
Ġng Æ°Æ¡i
Ġr ice
Ġf ib
ch anging
it ating
Ġy og
ĠI d
ic er
Ġkh iáº¿u
Ġx áº£
Ġha bits
Ġngh iá»ģn
im ore
im ination
ĠC ont
Ġu á»·
Ġas leep
ĠM T
ĠM ot
ĠM arch
ĠA ny
il i
Ġcom ments
ÄĲ á»Ļt
ÄĲ á»ĵng
ĠB ot
Ġj unk
ĠH on
ĠH imal
ate ver
and ering
nt il
Ġint im
ĠD utch
Ġthu á»³
iz ers
reat ing
ĠÄĲ a
ĠE v
Ġper cept
Ġlu Ã¢n
ĠTh en
Ġcl ot
Ġpart ly
ĠV Æ°Æ¡ng
ĠV Äĥn
ĠU krain
Ġdes erve
Ġad s
Ġreal izing
Ġoff ering
Ch á»§
Ġsim ult
per cent
Ġbelie ves
Ġ9 7
Ġinter connected
Ġbi ologists
Ġcare g
Ġdem ands
Ġhy br
Ġrobot ics
Ġset t
Ġgu ard
Ġchar ming
Ġspea ks
Ġprof ile
Ġloc ated
Ġpos itions
Ġnhu á»Ļm
Ġtreat ments
Ġtem porary
itch ell
ĠFr om
Ġsupport ing
Ġcommunic ations
yl ac
Ġnear by
ĠIran ian
Ġbene ath
Ġge omet
Ġ197 5
Ġexperi encing
ĠPhÃ¡ t
Ġexcept ion
Ġgrad ually
ĠGr ace
ĠOr gan
Ġthreat ened
Ġvari ation
Ġdom ain
Ġcirc les
Ġglass es
Ġsal t
Ġsurround ing
ĠEl izabeth
Ġreve als
ĠJer sey
Ġpuzz les
Ar t
Ġterror ism
Ġstim ul
Ġgar bage
Ġneuros cient
Ġperce ived
Ġrein vent
Ġcere mony
ĠTEDTalk s
Ġfortun ate
Ġcandid ate
Ġnavig ate
Ġautonom ous
Ġcompar ison
Ġflex ible
Ġdevast ating
ĠLester land
Ġathlet es
Ġguarant ee
ĠJeff erson
ĠKir ibati
ĠJord an
ĠSky pe
Ġbask et
Lad ies
Ġexcit ement
ĠHimal ay
6 00
C O
N one
S ix
b á»Łi
b orn
i as
l ves
m ade
o ves
p ress
x ual
Ġ Ã¢n
Ġt one
Ġt une
Ġc yl
Ġth áº¯p
Ġa ug
Ġs Ã¹ng
Ġl áºŃu
Ġm á»įt
Ġb ite
Ġb ored
Ġh Ã¢n
Ġo d
Ġg á»Ļp
Ġd il
Ġd ear
Ġtr inh
Ġtr á»Ļi
Ġch ec
ing o
Ġng á»Ļ
ĠI P
ic ient
us iness
Ġkh Äĥng
Ġx Ã´
Ġst atic
Ġst ored
Ġwas hing
ĠC Ã¹ng
th ree
Ġse lves
Ġso i
Ġsh ipping
Ġsh arp
ĠM áº¡ch
ĠM att
ĠM á»Ĺi
ĠS ou
ĠS ee
ĠN á»¯
Ġj elly
ac re
ess ions
Ġor ient
Ġde als
Ġbut ter
Ġsp ons
ĠG et
ĠL en
ĠL Ãºc
ĠD es
ĠK atr
ĠÄĲ Ã£
Ġbr ush
ĠF our
ĠTh u
Ġdis cr
Ġback yard
Ġres olve
ĠU SA
Ch ina
Ġsm oking
Ġcr ows
ĠSt r
Ġend ang
ri el
Ġcour ses
Ġ6 4
Ġsci ences
Ġ9 00
Ġart istic
Ġpoint ed
Ġmet er
Ġsub urb
Ġcap s
ĠAl aska
oh a
Ġpres ents
Ġgu err
Ph Æ°Æ¡ng
Ġprop h
ĠSh ang
Ġmem b
ocr acy
Ġrad ically
Ġstruct ural
omet own
Ġinnov ations
Ġdemocr acies
Ġsurv ived
ĠBe ethoven
Ġauth ors
Ġtw ist
Ġtend s
Ġtend ency
Ġbur ied
Ġcu áº£
Ġemb od
Ġflow ing
orge ous
Ġactiv ate
Ġparticip ation
ĠSw iss
Ġthreat s
Ġprison ers
Ġdam n
Ġsignific antly
Ġpurp oses
Ġbá»ķ ng
ĠGiá» Ľi
Ġroll ing
Ġeth nic
Ġremind s
ĠJe an
ĠbÃ³ p
bu le
Ġconsequ ence
ĠGl obal
Ġgradu ated
Ġburn ed
Ġbag s
ĠTur key
Ġtick et
Ġrat io
Ġexhib ition
ĠRom o
Ġgenet ics
Ġritual s
Ġobst acles
Ġbes ides
Ġacknow led
Ġcontem porary
ĠNGO s
Ġtack le
Ġchap ter
ĠBh utan
ĠHom o
Ġcomprom ise
Ġscenar io
Ġschizophren ia
Ġwedd ing
ĠCN N
ĠCath olic
Ġmycel ium
epher d
Sud denly
1 1
F ive
H y
J ul
P eter
V áº«n
X L
b ell
i Ãªm
n ut
n ob
r ir
r ob
v á»Ľi
y al
Ġc ai
Ġc ash
Ġn u
Ġn áº¿m
Ġs áº¿p
Ġs Ã³i
Ġl á»Ļi
Ġl Æ°á»£m
Ġb áº¿
Ġb ump
Ġh áº»o
Ġv ia
Ġo y
Ġk ick
Ġg áºŃp
Ġg ases
Ġd ent
Ġnh Äĥn
Ġtr Ãªu
Ġtr agic
en ix
qu is
Ġng Ã´
ap or
ot ed
Ġr ia
Ġr ope
ed ge
ll er
Ġkh e
Ġdo od
ir a
Ġsa fer
ĠC ould
ĠT hÃ´ng
Ġpr isons
Ġse vent
ĠM ass
Ġne oc
ĠB alt
ag an
ĠH ot
ab ad
Ġsá» ıi
ĠP ap
ĠP ost
ĠP rof
Ġsp ill
Ġsp ont
Ġkho Ã¡n
Ġyour selves
ast y
ĠK ib
ai red
ĠÄĲ an
ĠÄĲ á»ĵng
ĠR od
ĠR ich
Ġbr ows
ĠF red
ĠW ater
Ġun able
Ġbu ck
ro ad
ĠCh e
ĠO d
ĠO reg
ĠV al
Ġco vers
ec ca
Ġcont ag
Ġlot tery
ĠU s
Ġreal istic
Ġdá» ¡
Ġdec l
Ġdr own
Ġown ed
ĠIn ter
ĠQ aeda
Ġinter ventions
lic it
Ġke o
Ġser oton
Ġmon keys
pe ech
ins ky
Ġed itor
Ġsoci ally
ĠHo áº·c
ead y
Ġmark er
ĠSh ow
Ġloc ations
Ġnight s
Ġfail ures
ĠEur opa
Ġimpro vis
Ġ199 4
Ġmain stream
Ġtrad itions
ĠAs ian
Ġapproach es
Ġarchitect ural
ĠGi Ã¡ng
ug al
ĠMc G
ĠMc K
Ġast ero
Ġcompet e
Ġrock s
Ġreact ions
Ġdiv or
Ġdiv ision
ĠCam bod
Ġrid ing
Ġexpert ise
Ġwhe els
ĠNgh e
Ġhop es
Ġpack ed
Ġmathem atic
Ġcontinu ing
Ġthrow ing
ĠBen jamin
ĠGu inea
Ġoffic er
Ġfold ing
Ġdimens ion
ĠJer ry
Ġver b
Ġrecon struct
Ġsymbol s
Ġpair s
Ġclimb ing
ĠHaw king
Ġvolunte er
Ġcorpor ations
ĠCo ast
Ġsatell ites
Ġagre ement
ĠTes la
Ġanalog y
Ġmosquit os
Ġbarri er
Ġbarri ers
Ġauthent ic
Ġcous in
Ġexplos ion
Ġsurf aces
Ġcolum n
ĠTay lor
Ġnutri ents
Ġconstrain ts
ĠNair obi
ĠDie go
ĠBalt imore
ĠOreg on
C Ã¡
E n
G G
G M
L ife
N Ã£o
P oint
R G
T M
a way
b es
b Ã¢y
b ul
c Ã¡c
d is
g l
g al
h ay
i ology
l ong
l ad
r á»ĵi
r ian
s hip
u um
u ate
u ine
w orking
Ġc ra
Ġc áº©u
Ġth ylac
Ġs áº£nh
Ġl Æ°á»£n
Ġm ac
Ġb á»Ľi
Ġh áº£
Ġh Ã¡n
Ġh ors
Ġv áº·n
Ġv áº«y
Ġg athered
Ġtr Æ°Æ¡ng
Ġtr iv
ou ver
Ġr áº£i
Ġr á»ķ
Ġr ape
Ġr ivers
al in
Ġthá» ģ
in th
ĠkhÃ ©p
ĠkhÃ ¢u
ll en
Ġkh á»ĳn
Th Æ°a
uy á»ĥn
am an
Ġan atom
Ġsa ke
ĠC her
ĠT Ã¬nh
Ġlo ving
Ġpr ol
Ġpr ide
ĠM ap
ter ing
ĠA ur
ill ance
ĠB ow
ĠS ea
ĠN ovember
Ġj e
ĠH u
ĠH op
ĠH ind
um ble
ab it
if ty
un es
ĠG all
Ġkho ang
ĠL ake
ci p
ĠD oha
hi re
Ġcomp reh
Ġle an
ĠR ick
ĠR oger
Ġman if
ĠF GM
Ġcl ue
Ġdi ver
ĠO cean
ĠV ÃŃ
ens es
Ġ4 50
Ġgen oc
Ġgen uine
int erest
ip h
Ġown er
ĠSt ock
Ġsim ulation
Ġins ane
Ġsch olars
Ġwr ap
Ġtra ject
Ġpat ents
Ġread ers
Ġpartic le
Ġdem os
bo o
Ġstr ip
Ġ12 5
Ġban king
Ġconnect s
Ġda wn
Ġgu id
Ġkill s
anc ouver
Ġcond oms
Ġinvest ing
Ġaud iences
Ġlan es
Ġbreak s
ĠCon nect
Ġinclud ed
ĠGi áº£i
Ġaffect ing
Ġsil k
li est
Ġimm ense
col i
Ġreport s
ĠWar ren
Ġstrateg ic
Ġpack age
Ġcalcul ations
Ġjump ed
Ġmagn et
Ġmagn ific
Ġinh er
Ġteen ager
Ġinterview s
Ġapply ing
Ġhistor ic
Ġmotiv ated
Ġcand y
Ġindepend ence
Ġairpl anes
imp se
ĠPer u
Ġmeas ures
Ġsurge ons
Ġpock ets
ĠWilli ams
Ġdiction aries
Ġofficial s
Ġtow er
ĠTasman ia
Ġgod s
Ġpal m
ĠbÃ¹ n
Ġfortun ately
ĠGia i
Ġhunt ing
Ġarrest ed
Ġwhist le
ras ound
Ġadoles cent
Ġprost ate
Ġclus ters
quar ters
ĠBert ie
Ġdow nt
Ġunbeliev able
Ġenth usi
ĠFOX O
Ġpand emic
dig it
Ġendang ered
ĠShang hai
Ġseroton in
1 4
3 00
C ol
D r
H i
J o
J ames
K hÃ
N e
N ew
P H
b á»ĳt
c us
g a
k ind
m itted
o enix
r og
r ance
z uel
§ a
Ġt Æ¡
Ġt ale
Ġc ub
Ġth resh
Ġn Ã£y
Ġn áº¯p
ĠÄĳ Ãłng
Ġs ir
Ġl en
Ġl Ã¡ch
Ġh ometown
Ġo ct
Ġg iáº¿ng
Ġg ained
Ġd rought
er k
Ġch áº·ng
Ġch á»ĳn
os ity
Ġng Æ¡i
Ġng áº¯t
Ġr ang
Ġr áº·ng
Ġf ate
Ġf iber
al ore
ĠvÃł n
ĠÄĳá» įng
á»į ng
ic it
ow itz
Ġkh á»ĳc
Th ird
Th omas
Ġx i
Ġx Ãłi
Ġre ass
ent h
im ee
op o
ke l
Ġsa il
Ġsa cred
st ar
th als
out s
Ãº m
Ġso ap
Ġne ck
ÄĲ i
ĠS a
Ġj ew
ĠH as
ĠH á»ĩ
ĠH Ã´m
Ġsp o
Ġsp ider
Ġsp ray
ort ed
ĠK áº¿t
oc ol
oc ity
ĠÄĲ i
ĠÄĲ áº¿
pp er
Ġman ual
ach ing
ĠF ore
ĠF DA
ĠJ uly
Ġhapp ily
Ġbu ff
Ġbu cks
ro ver
ass es
ĠV ol
ĠV ene
ĠV ancouver
Ġshe ets
nder ing
Ġ5 4
Ġres cu
ĠU p
Ġmay or
Ġsy ndrome
Ġ20 20
ne ys
Ġsc aff
Ġdr ops
ri or
Ġtrans mission
Ġtá»¥ t
Ġgl uc
Ġgl impse
Ġinst alled
Ġmáº¹ o
Ġfound ations
pe ed
Ġdem ographic
ĠAr k
Ġsub way
Ġstr ict
Ġinf ant
Ġform ing
Ġcap abilities
Ġhead ed
ĠInd ustrial
Ġaut istic
Ġtop ics
ĠPh Æ°Æ¡ng
Ġeduc ate
Ġcult iv
Ġvir al
Ġbeautif ully
Ġmar g
Ġcollect ively
Ġparent ing
Ġtyp ing
Ġ199 2
Ġ199 7
Ġfall en
ĠGe h
Ġdest iny
ĠEm ily
ĠMc Donald
Ġmedic ation
Ġblind ness
Ġprim itive
Ġste pped
osh op
Ġec ological
ĠBang alore
ĠAb u
Ġrespond ing
Ġsmell s
Ġdeterm ines
ĠMay a
Ġteen age
Ġclassroom s
Ġsimpl est
ĠJul ian
Ġut il
Ġlung s
Ġpig s
Ġgun s
Ġshock ed
Ġcooper ate
Ġbul let
Ġelement ary
ĠbÃª nh
ĠCA PTCHA
Ġju ice
ĠphÃ´ i
Ġshr imp
Ġoverwhel med
Ġestim ates
Rob ert
ĠLaw rence
Ġdesper ately
ĠKy oto
iat ric
ĠBudd h
ĠWalk er
ĠPower Point
ĠTre asure
Ġcorresp ond
ĠDub ai
oli ath
Ġexcell ent
ureau cr
Ġlifes pan
Ġpyram id
ĠOak land
ĠVene zuel
A G
A V
C E
H áº¯n
J im
b ling
e ffic
r h
r in
s pring
Ġt Æ°á»Ľc
Ġt ies
Ġt áº¡c
Ġn ap
Ġn est
Ġn uá»ĳi
ĠÄĳ an
Ġa we
Ġs ib
Ġb á»Ļi
Ġh Äĥng
Ġh Ãłu
Ġv Ã¡ch
Ġw ires
Ġo l
Ġg orgeous
Ġd ys
Ġd umb
er os
Ġnh Æ°á»£c
Ġtr ace
Ġch ess
on ac
Ġng Ãło
Ġr Ã²
Ġr ip
Ġf its
ch ing
ĠchÃ ©
ĠÄĳá» ©t
ic us
Ġqu áº¡t
Ġqu á»µ
Ġta ct
Ġkh iáº¿t
et ry
Ġx Æ¡
ĠÄĳÃ£ i
am med
ur day
Ġra cing
Ġst om
Ġst aring
Ġst unning
Ġli Ãªng
se en
Ġcon vey
ir ts
st an
Ġlo a
Ġpr ose
Ġse w
Ġsh y
ĠM id
Ġhe al
il ty
Ġlá» ©a
Ġlá» Ńng
ĠB M
ĠB áº¯t
ĠN i
art z
ab y
if ul
ink er
Ġal ign
Ġint ensive
ĠG ene
ĠG aza
ĠL i
ĠL á»Ľn
ib onac
ack s
ast e
ĠK le
ĠK ong
ĠÄĳá»ĵ n
ĠÄĲ áº§u
ĠÄĲ iá»ĩn
ĠÄĲ á»ĭa
Ġexp licit
Ġmu Ã´n
ĠF ull
ĠF BI
ĠJ ama
Ġcl iff
ry pt
ĠW ind
ĠCh ad
ĠCh iáº¿c
Ġco inc
Ġac ids
Ġam bit
ru ce
Ġ4 7
ĠU CL
Ġpro ven
pl ay
pl ess
ne e
Ġcr iter
Ġapp s
ĠSt irling
Ġbuild s
Ġrem ix
Ġ7 7
Ġtu a
Ġ8 2
Ġmod e
Ġext r
Ġfriend ly
man uel
Ġstr anger
Ġsign ature
Ġprof its
row ing
Ġchalleng ed
Ġmar ry
Ġmar vel
Ġadv ent
omet er
Ġmess y
Ġinvest ed
Ġterr ain
Ġpsych ologist
ĠCon f
Ġsurv iv
ĠDo es
Ġdead ly
Ġcamp s
Ġfire flies
Ġhor izon
Ġcy cles
ĠQu an
eh ran
Ġworth y
Ġtransform ing
Ġimm ort
Ġrepresent ative
Ġsafe ly
Ġmeth ane
Ġmechan ics
Ġbact erial
Ġgraph ics
Ġswe at
Ġelectr odes
Ġlands capes
Sh ould
Ġport ion
ĠPl ato
Ġachieve ment
Where as
Ġpan el
Ġcover ing
Ġhonest ly
Ġnut s
Ġhistor ically
Ġsexual ity
Ġsimpl er
ĠFrank lin
Ġing en
ĠEvery body
Ġchann els
Ġconcentr ation
uls es
forest ation
Ġcourage ous
Ġteles copes
ĠNeander thals
Ġinit ially
ĠSat urn
ĠSat urday
Ġcandid ates
Ġagg ressive
Ġcock tail
Ġcyber cr
Ġgest ure
ĠOl iver
Ġdiscipl ine
Ġportra it
ThÃ¡ ng
Ġoccasion ally
Ġabandon ed
ĠMur ray
Ġmyster ious
Ġreli able
Ġorchest ra
Ġhalluc inations
ĠQue en
Ġsupermark et
ĠCour t
Ġexpans ion
Ġlin ear
ibonac ci
E S
E ric
G et
M ED
R C
S am
S ame
S peech
b us
c ost
o ody
r us
r hythm
t ained
Ġ á»ıi
Ġt Ã¡t
Ġc otton
Ġn áº¡
ĠÄĳ un
Ġs uá»ĳi
Ġs ons
Ġl áº¥n
Ġm apping
Ġh á»Ł
Ġh iáº¿u
Ġv Ã¡y
Ġthe ore
Ġthe ories
Ġw ow
re ens
Ġp ills
nd ers
Ġd Ã¢u
er als
Ġch am
Ġto a
Ġr ose
Ġr á»ĩt
Ġf ancy
or age
ar in
it ar
it ra
it ated
ĠcÃ¡ n
le an
Ġe ur
Ġqu Äĥng
Ġkh á»Ń
et e
Ġtá» Ľ
Ġre wards
Ġra ises
Ġst ake
Ġcon qu
ir o
ĠC ase
ĠC uba
ĠT enn
ĠT itan
ĠT ehran
á»¥ i
ad ian
Ġab ilities
Ġse al
Ġkhi nh
Ġsh it
ĠM as
ĠM all
ĠM ell
ĠM edia
ĠM itchell
Ġwor ms
ul es
ÄĲ iá»ĩn
ÄĲ áº·c
ĠB áº¥t
ĠB ir
ĠB ah
ĠS ur
ĠS á»©c
ĠS now
ĠN orm
ag a
ag ger
Ġsom eday
ĠP o
ĠP otter
ĠG ard
ĠG ary
ĠL ar
ĠD ave
ĠD AR
ast ian
are st
oc coli
Ġcomp ound
ĠÄĲ Ã´
Ġle verage
ĠR h
Ġbr ands
Ġag ents
Ġper mission
Ġwork force
ff iti
Ġcl ues
Ġcl ient
ĠW ait
Ġgr ace
Ġimp ression
ĠCh áº¯c
Ġá» ª
ĠO ut
Ġ5 3
Ġngo áº¡n
Ġbo ost
Ġbo ots
Ġshow er
pl us
other ap
ĠY ale
Ġsc ales
Ġdá» Ŀi
Ġcr ush
Ġcr iminals
we ight
ED I
Ġfind ings
Ġla ke
Ġcar r
Ġcar ries
Ġob ese
Ġchu i
Ġchu á»Ļng
Ġwr apped
Ġbelie ving
Ġinter ven
Ġ7 8
Ġrec re
Ġke ys
Ġmin es
Ġcontr ary
Tr Ã¡i
Ġbus h
Ġvis ually
Ġpass es
Ġmoment um
ĠPh oenix
Ġinteresting ly
Ġred esign
Ġ40 4
Ġ18 00
ograph ical
Ġstop ping
Ġgu ilty
Ġbad ly
Ġbre eding
Ġgir lfriend
Ġprop ag
Ġprop ose
Ġprop osal
Ġche at
Ġ11 0
Ġdeep est
Ġengine ered
ane ous
cl op
Ġpsych ologists
Qu ay
Ġsuggest ion
Ġpoll ut
Not hing
Ġrepl aced
Ġcompet ing
Ġcompet itive
Ġinstitut ional
ĠMo MA
Ġgra ffiti
Ġdam aged
Ġappear ance
ĠNig er
Ġwild life
ĠLa ure
the on
Ġdiscover ing
Ġcorru pt
Ġinterview ed
Kh u
sc ar
Ġphysic ians
Ġcoun sel
Ġinj ured
Ġresist ant
Ġ194 5
Ġcru el
Ġbatter ies
Ġgentlem an
thes ia
Ġtal ents
Ġcontribut ion
Ġtum ors
Go ogle
Ġshel f
Ġstri ke
ĠJo el
ĠGand o
Ġpurs ue
Ġexhib it
ĠCA D
Ġmanip ulate
Ġnit ric
Ġmushroom s
Ġunh appy
ĠKe ith
Ġbombs ight
Ġneut ral
look ing
stand ing
Ġembarrass ing
ĠVictor ia
Ġmim ic
Ġrecyc led
Ġdisturb ing
Ġintrig uing
Ġlegis lation
Ġhelicop ter
Ġlux ury
thÃ ¬
Ġincor por
Ġhoriz ont
Ġsimult aneously
Ġhybr id
ĠSou thern
ĠKatr ina
nob yl
Ġgenoc ide
Ġmagnific ent
ĠVenezuel a
Ġambit ious
Ġcriter ia
A d
A h
D aniel
F r
J oe
K en
N ever
R áº±ng
S M
T w
U ntil
V áºŃt
X em
c ers
e em
f an
f red
j u
l ers
m un
p en
r od
s ized
v in
x ious
Ġ Æ¡
Ġ Ãªm
Ġt ie
Ġt urb
Ġc áº¯n
Ġc ua
Ġs ale
Ġb ills
Ġh ated
Ġv enture
Ġw ard
Ġo ven
Ġg aps
at z
Ġnh áº¡o
Ġch uá»ĳi
on a
on ed
ing ton
Ġf is
or ious
it u
in ci
le nd
Ġgi Ãłn
ur able
ig ma
Ġst raw
im et
ol ine
ĠC P
ĠC áº£
ĠT itus
th eless
em ies
ĠM en
ĠM á»Ļc
ĠM athem
ĠM eyer
ĠB ao
ĠN Æ°á»Ľc
ĠN az
Ġfr action
ust ing
Ġj an
Ġj ar
Ġde cent
Ġde af
ist r
ink ing
Ġout d
ie ce
ĠP eps
Ġsp an
ĠG ay
ĠG ord
Ġup side
ĠL uc
ĠD ig
Ġsee king
oc ke
ide o
ĠR ec
ach er
ond er
ĠF ire
ĠF ibonacci
Ġgr ains
Ġgr asp
Ġover l
ec d
Ġná» ©t
Ġ5 7
Ġsy ring
Ġgen omes
pl ing
Ġreal m
Ġpre vention
Ġoff spring
we ets
Ġfl ows
Ġfl avor
Ġhuman itarian
Ġsystem atic
Ġsystem atically
ail s
Ġla wn
Ġcol ored
Ġhel ium
Ġhel pless
ĠTED MED
Ġ6 8
Ġinst ruction
Ġrec laim
Ġmod est
Ġplan ned
pr il
Ġproject ions
Ġhard est
Ġform at
Ġcap ability
Ġhead ing
Ġansw ering
Ġreason able
Ġngá»§ i
Ġfree zing
Ġterr ified
Ġmot ors
Ġdemocr at
Ġstat istic
ĠCal tech
Ġvac uum
ĠHar ry
Ġvers ions
Ġhar bor
Ġwebs ites
li hood
Ġtrack s
Ġtruth s
Ġimm ers
Ġdefin ing
Ġcompassion ate
Ġep is
Ġconscious ly
Ġauthor ities
Ġgra ve
ĠPal m
Ġdetect ion
Ġann ual
Ġconcer ns
Ġenjoy ed
ĠMay be
ĠWik i
Ġencour aged
ĠTo Ãłn
Ġphysic ists
ĠnhÃ¡ t
Ġcustom er
Ġdoub led
Ġregular ly
Ġsucceed ed
ĠJon as
ĠJon athan
Ġconduct ed
Ġastron aut
ĠOlymp ics
Ġlimit ations
ĠFre edom
Ġextend ed
Ġdolph in
Ġminim um
Ġinev it
Ġreprod uce
Ġfright ening
Ġlabel ed
Ġobser ved
Ġtrig ger
ĠLou is
Ġcontrovers ial
Ġreplic ate
Ġbeet les
Re ally
ĠOp rah
Ġsurve illance
osaur us
Ġtro ops
ĠChild ren
engine ering
Ġdynam ics
Ġaes thetic
ĠSus an
Chi ld
ĠScr atch
ÄĲo áº¡n
Ġexped ition
Ġoutr age
Ġpige on
Ġgroc ery
Ġcyl inder
Ġneoc ort
Ġtraject ory
Ġdownt own
Ġthresh old
A f
B oth
C om
K e
K iá»ĥu
T ÃŃnh
a ise
b ow
f ire
g iá»
g ence
g ener
h all
i atr
k o
l v
l av
m oud
p erson
r oc
t ies
w orld
Ġ Ã´i
Ġc ube
Ġn á»Ļp
Ġn erves
ĠÄĳ áº¡m
Ġa unt
Ġl Ã³t
Ġl á»įt
Ġb á»įt
Ġh ired
Ġh ipp
Ġv ary
Ġv Æ°á»Ľng
Ġv ivid
Ġk iá»ģm
at em
at ics
Ġd á»ĵi
Ġd irt
Ġnh áº¥c
Ġtr Ã³i
ou x
Ġch á»įi
Ġch áº¡p
an et
Ġng áº£
ot ing
Ġr h
Ġin ex
Ġin mates
ed s
ch ool
it ative
Ġy ards
Ġcá» įc
ic ill
Ġbe ef
Ġre vel
Ġha cking
Ġst orage
im ag
ol by
st orm
ĠT w
ĠT en
ad or
Ġsh out
Ġsh aking
ĠM P
ĠM ore
ĠM ond
ĠM oh
ĠA udience
ĠA aron
ĠA imee
ĠB or
ĠB Ã¡c
ĠB ra
ĠS in
ĠS ara
ĠN Æ¡i
Ġj et
Ġus eless
ĠH uman
ok o
Ġlike lihood
Ġsá» ©a
ie ve
It s
ĠP en
ĠL ord
act ive
ĠD olby
Ġact ively
ib o
ĠK al
ĠE ar
ach ine
ĠF e
ĠF er
ĠJ en
ĠTh ay
ĠW atch
Ġun st
Ġgr amm
Ġá» «
Ġover se
Ġdis asters
Ġpo le
Ġam ino
Ġres olution
Ġher itage
ict ions
pl ic
Ch Ãł
ĠVÃł o
Ġcount ing
ons ider
ile y
iver se
Ġtechn ically
Ġinv olving
ri er
ĠTED Women
Ġunderstand s
Ġrel ation
Ġrec ession
Ġ8 4
Ġcell o
Ġcell ular
Ġhigh way
Ġmin us
Ġbi o
Ġbi ologist
ah a
Tr Ã´ng
Ġcomput ational
Ġca ves
Ġfar ms
Ġear liest
ĠAr ch
Ġsupp lies
Ġvis cer
Ġinf lation
ĠAl i
ĠWh it
Ġseem ingly
ilt on
ogram s
anc ers
Ġnight m
Ġche ating
Ġfund ra
Ġadv ances
Ġconst r
ev ity
Ġexpect ing
Ġinvest ments
Ġill usions
Ġpred iction
Ġcal c
Ġtem por
com puter
ann ah
Ġvac ation
ĠHar lem
Ġsqu ee
Ho Ãłn
ĠGe or
ĠMar io
Ġsum mar
unt u
Ġtw ins
Ġcivil izations
St ud
Ġblog s
Ġlog ical
Al though
ĠMex ican
ĠDe velop
Ġplant ed
ĠCl oud
wit zer
Ġmedic ines
Ġperiod s
bs olut
Ġextraord inarily
Ġauthor itarian
Ġrap ed
Ġassum ed
Ġassum ption
ze es
dr iven
Ġreflect ion
Ġcontinu ous
Ġrandom ly
Ġdiscover ies
ĠGu ard
Ġencour aging
ĠPhil ip
Kho a
Ġtherap ies
Ġvot ed
ĠSam uel
ĠEgypt ian
Ġopin ions
Ġstri king
Ġsubst ant
Ġincent ive
Ġsculpt ures
Ġthá»ĳ n
Ġconstruct ed
.. .
Ġlect ures
Ġmak er
Ġjudg ments
Ġvoc al
Ġregard less
Ġestablish ed
Ġbrib e
Ġben ch
Ġabund ance
Ġicon ic
ĠTah rir
ĠLang ley
ĠGil bert
Ġhier archy
ĠTib et
Ġlone ly
Ġrehabil itation
Ġclot hing
Ġgluc ose
ĠGeh ry
Ġstom ach
ĠTenn es
otherap y
4 5
6 0
C á»Ļng
H ans
I PA
J on
P re
P at
T á»±
W ow
b ao
j ev
n Ãªn
s a
u nder
z ero
¨ n
Ã įt
Ã Ķi
ī a
Ġt s
Ġt áº»
ng Æ°á»Ŀi
Ġc áº¡o
Ġc Æ°á»¡i
Ġc áº±n
Ġn áº¿n
Ġn áº·c
Ġn ode
ĠÄĳ ÃŃnh
ĠÄĳ á»ĳn
Ġs od
Ġs Æ°á»Łi
Ġb am
Ġv Ã£
Ġw ins
Ġk g
Ġg Äĥng
Ġd y
Ġd Ãło
Ġtr Ãłng
Ġtr apped
Ġch áºŃt
Ġr ong
Ġf t
ĠvÃł nh
Ġthá» ı
Ġthá» «ng
in n
in come
Ġy o
Ġcá» Ľ
om in
Ġph Ãłn
Ġqu áº©n
Ġx á»ĳp
ct ors
ur f
Ġst air
Ġst abil
Ġdo o
op us
Ġfor b
ol en
ol it
ol um
ĠC áº§u
ĠC raig
ĠT in
ĠT áº¡o
Ġho i
Ġlo ose
Ġsh ips
ĠA ut
ĠA ust
ĠA ye
ul ance
ĠS á»ĳ
ĠS her
ĠS pring
ĠN BA
Ġj aw
Æ°Æ¡ c
ĠH Ãłnh
Ġor ang
ab a
ab s
Ġsá» Ŀ
if ting
el ines
ob y
Ġsp are
ĠG Ã´
ĠG oliath
ĠL ev
ĠD Ã¹
ĠD iana
ack ing
reat ic
ĠE lect
ĠE li
Ġle gend
ĠR yan
Ġbr idges
Ġbr occoli
ud ed
Ġen emies
ĠF ood
ĠJ ournal
ĠTh á»ĳng
Ġimp ressive
red d
Ġar bit
ĠCh á»ĭ
ĠO tt
Ġdis ability
Ġkind ness
ru ption
Ġher d
ĠU h
Ġpre v
Há»į c
Ġinc ar
ĠNh iá»ģu
Ġlong evity
Ġsec ular
Ġngu á»Ļi
Ġent ry
Ġacc omp
Ġrá» Ľt
ĠYou ng
Ġmed itation
Ġcare s
Ġgener ic
Ġcomput ation
io v
Ġvis ions
Ġinf l
ĠphÃŃ ch
ĠAl bert
ĠAl fred
Ġsol o
Ġcur ves
Ġeas iest
aw i
Ġprop osition
Ġamaz ed
Ġself ish
Ġpast e
Ġret ail
ret t
Ġname ly
Ġwind s
Ġappro ved
Ġcal m
uck y
Tuy á»ĩt
Ġcut s
Ġmult ip
Ġorig ins
Ġcool ing
Ġ198 9
Ġapproach ing
Ġintr ins
Ġobs c
Ġcamp us
Ġfavor ites
Ġunivers es
ĠQu Ã¢n
Ġprog eria
Ġemp owered
Ġtouch ing
ĠDe f
Ngh Ä©
ĠChar l
Ġult rasound
Ġrece iving
Ġattack ed
eles cope
ster dam
Ġshif ts
With out
ĠArab ia
Ġfant asy
Ġremark ably
Ġinfect ions
Ġdiscuss ions
Ġdetect or
Ġtemper atures
Ġelectr ons
Ġcalcul ated
Ġjump ing
Ġassoci ate
Ġinh ib
Ġpen is
Ġpen icill
Any one
ThÃ ¬
Ġphenomen a
Ġwood en
Ġinj uries
Ġdocument ary
Ġfat al
ĠLib eria
Ġswitch ed
Ġcorrect ly
Ġtoile ts
ĠUS D
Ġreplace ment
Ġfrequ ently
Ġpartners hip
Ġmill enn
Ġbelong s
Ġinform ed
Ġingred ient
Ġcontain er
Ġscen es
ĠGree k
Ġinstall ation
Ġassign ment
Ġreject ed
Ġasp ir
Ġacknow ledge
Ġbeet le
Ġtoler ance
Ġtatt oo
ĠMoz art
abul ary
Ġfavel as
ĠCopern icus
Ġnonviol ent
Ġchimpan zees
Ġcatast roph
Ġmonit oring
Ġimprovis ation
ĠCher nobyl
ĠUCL A
ĠPeps i
atem ala
ĠTennes see
Ġpenicill in
7 5
A cc
C P
C S
C am
C á»¥
D Æ°á»Ŀng
H uman
M us
M RI
N G
R ather
S Ã¡u
T om
U nder
Z K
h ea
j an
m ate
m atic
o os
r ig
t áº¥t
y re
Ġ 00
Ġ áº¯c
Ġ Ã´n
Ġt iá»ĩt
Ġt ÃŃt
Ġc Æ°a
Ġth us
Ġth iÃªu
Ġl ists
Ġm Ã´ng
Ġm ast
Ġm ask
Ġb Ã¬
Ġb other
Ġh ut
Ġh un
Ġh int
Ġv alley
hÃ £
Ġp ulse
Ġg áº¯t
er ies
Ġnh á»ĳt
Ġtr Ã¡
Ġtr á»ĩ
ou st
Ġch á»ĳc
Ġch ains
Ġto ast
ot ect
Ġr oles
Ġr hythm
or ough
ch ia
ch á»ī
ch ron
in ery
Ġy east
as king
le ans
ĠI ll
Ġph á»Ľ
Th á»īnh
Ġx áº¥p
Ġha o
Ġst olen
ol itan
ĠC ode
ĠC oun
ĠT arah
th ony
Ġho ok
Ġlo an
ad ium
Ġse as
Ġsh epherd
ĠM oses
ĠM BA
ĠA gain
ĠA pril
il ation
ill as
ÄĲ Æ°Æ¡ng
ĠB al
ĠB art
ĠS witzer
Ġfr act
Ġfr ames
ĠH an
um ara
ist ory
Ġkn ife
ĠP C
ĠG it
Ġkho Ã¡c
ich olas
ĠL ama
ĠL OL
ĠD al
ĠD ick
ĠD av
ĠD iet
ĠK ay
Ġle x
Ġexp osure
Ġman ner
Ġman aging
ach es
Ġwork place
Ġen abled
ĠTh iáº¿t
ep ler
Ġover head
Ġdis g
ea v
ĠV ery
ĠV áº¥n
ens us
Ġco verage
ec onom
ult y
Ġam pl
Ġ4 1
Ġdes cend
Ġreal ization
Ġpre par
Ġkhu áº¿ch
Ġsc rew
Ġapp les
ĠSt and
Ġbel oved
Ng Ã´n
ock s
Ġart ic
Ġent ering
erg y
Ġatt itudes
Ġsmall est
Tr Æ°á»Ŀng
Ġgener osity
Ġsub t
ĠNg Ã´i
Ġstr ings
Ġform al
Ġpass ive
Ġda f
Ġpolit ician
Ġprogram mers
Ġfollow s
sy lv
Ġgh en
ĠCar r
ĠCar ib
Ġpract icing
ho áº·c
Ġcommunic ating
Ġfilm maker
Ġwin ner
ustain able
Ġconv icted
ĠSp ain
Ġprofess ors
Ġpredict able
Ġemp ath
Ġlif el
Ġcross ed
Ġunf air
ĠOr leans
ĠEd ward
Ġhop eless
Ġsignific ance
Ġtrib al
Ġscan ning
Ġhonest y
Ġworry ing
Ġdestro ying
ĠnhÃ¡ y
aj a
Ġoccur ring
ĠMin istry
Ġintegr ate
Ġax it
Ġnarr atives
amb ia
Ġ36 0
Ġdomin ated
Ġund erest
ĠAh med
cop ic
Ġide ology
Ġbow l
Ġtang ible
Ġisol ation
Ġprivile ged
Ġconfront ed
Ġestim ated
Ġaccompl ish
Ġaccompl ished
Ġelev ator
Ġautonom y
Ġvoc abulary
á»ħ n
ĠPan theon
vas ive
ĠEs sex
Ġelimin ate
Ġrefriger ator
ĠMary land
Ġchromos omes
Ġpleas ant
ĠPalestin ian
Ġglac ier
Ġeleg ant
ĠPenn sylv
Ġlá»¥ a
ĠFree Speech
Ãģ nh
ĠOrgan ization
Ġjelly fish
ĠProf essor
ĠOd ys
ĠHop kins
Ġjew el
Ġrescu ed
ĠArk ansas
ĠNorm an
clop edia
Ġoverse as
Ġphá»Ľ t
ĠTarah umara
ĠSwitzer land
ĠPennsylv ania
A A
D R
D e
D i
D uring
E G
H alf
K inh
L ee
P P
P ar
R es
R ec
T en
T urns
V Å©
V á»Ĺ
c orn
f a
g ram
i ate
m ind
o z
p os
p res
p owered
u i
v ation
Ġt uá»Ļc
Ġc ass
Ġc able
Ġc ope
Ġc raw
Ġth áº£y
Ġn ob
ĠÄĳ iáº¿u
Ġl on
Ġl Ã©n
Ġm á»ĭ
Ġm ild
Ġm apped
Ġm Ã©o
Ġm esh
Ġb á»ī
Ġb ats
Ġb ureaucr
Ġh Ã¡o
Ġh eter
Ġv el
Ġv Ã¹i
Ġw rest
Ġk iá»ģu
Ġp ad
nd a
Ġg áº¡o
Ġd Æ°ng
Ġd ens
Ġd áº³ng
Ġd rew
Ġnh áº¡i
Ġnh á»¥c
Ġng áº¡o
Ġng á»įc
ot te
Ġr Ã¬u
Ġf isher
or ph
ar ians
Ġvá» ±ng
om i
as so
Ġe B
Ġe co
ic ut
Ġph anh
Ġta bles
Ġis lands
Ġgi Ã¡ng
iá»ģ ng
Ġre nt
ur ning
ig en
á»ĩ ch
Ġli Ãªu
Ġwas ted
Ġan ten
ĠC S
ĠC och
ĠT elescope
Ġcan vas
Ġcan cers
Ġsh ore
Ġsh ots
ĠM R
ĠA R
il ated
ĠnhÃ ºng
ul ative
ĠB and
ĠN I
ĠN ether
ĠN ov
Ġfr uits
ag u
ac on
art en
ĠH unt
Ġde forestation
el p
Ġkn ees
og y
Ġint act
Ġint ended
ĠP u
ĠG raham
act ic
Ġpl ates
Wh atever
ĠK r
Ġcomp aring
ĠÄĲ á»Ļng
Ġle ver
ĠR ow
ĠR NA
áº¹ t
ĠF a
ĠW is
ĠW ol
Ġun le
Ġgr am
Ġbu á»ĵm
Ġdi lem
ĠO scar
ea king
ĠV oy
Ġshe er
Ġac cent
Ġ5 6
Ġbl ocking
ank a
ert o
ĠY ves
ful ness
Ch áº¥t
Ch rist
we g
Ġins ert
ĠTED sters
Ġsch ed
Ġob so
be an
ĠIt alian
Ġtá»¥ ng
Ġbas king
Ġ9 4
Ġcons p
ĠWe ibo
Ġplan es
Ġreg ulations
Ġconf ig
Ġinf er
ĠAl ber
Ġpass ions
Ġcou ch
ĠAfric ans
ĠPh á»¥
Ġresearch ing
Ġadd iction
Ġside walk
Ġdep os
Ġgá» Ľm
Ġequ ations
Ġdef ault
Ġcond om
Ġamazing ly
Ġaw ake
Ġbá» Ŀi
Ġz ones
Ġnorm s
Ġliter acy
Qu áº£
Some one
Ġsqu ared
Ġocc urs
Ġap olog
Ġobs ession
Ġmeasure ments
Ġdest ination
yn th
Ġtext ure
ĠRob ot
Ġpath s
ĠQu áº£ng
St ephen
Ġfem inist
Ġshif ted
Ġgraph s
ĠNgh iÃªn
Ġcorn ers
ĠmÃ¬ n
Ġcong estion
Ġsan itation
Ġclos est
Ġrespond ed
Ġthr ive
Ġroll ed
Ġreflect ed
ĠGu atemala
Ġdiagn ost
Ġpan ic
Ġpark s
Ġautom obile
Ġwood s
Be ing
Ġattract ed
Ġdocument ed
Ġmut ations
ĠJul ie
Ġlapt ops
Ġjournal ists
Ġtens ion
Ġphilosoph ical
Ġtom ato
Ġaccur acy
Ġembr acing
Ġbound ary
Ġquant ities
Ġalt ered
ĠBrown e
Ġadop ted
Ġsympt om
ĠThÃ ´i
Ġinterpret ation
ĠKhÃ¡ n
Ġspin ning
Ġconsist ent
ĠDen is
Ġproced ures
Ġmetabol ism
Ġur ge
Ġauthent icity
Sim ilar
ĠMill er
Ġcous ins
Ġment or
Ġregener ate
ingu ish
Ġped est
ĠSec ret
Ġbran ches
Ġchromos ome
ĠBi osphere
Ġox ide
ĠSi oux
Ġbiod iversity
ĠTunis ia
thet ics
ĠMatth ew
Ġpanc reatic
Ġod or
Ġdiscr imination
Ġembod ied
ĠKib era
ĠCambod ia
Ġhors es
Ġmanif est
ĠConnect icut
Ġoct opus
Ġsib lings
Ġcalc ulation
bsolut ely
jev o
Ġts un
Ġincar cer
hÃ£ y
ĠDal ai
Ġprepar ation
ĠNether lands
8 00
B et
D Æ°á»Ľi
D esign
F i
M Ã¹a
R NA
S B
S m
S á»©c
T D
T im
U p
a wn
c or
d ad
i ance
m ond
m oor
p ace
r it
u áº§n
u ana
x imately
y g
£ m
Ġt á»Ł
Ġt iger
Ġc Ãłnh
Ġc age
Ġth read
Ġth áº¹n
Ġn á»Ļ
ĠÄ ĥ
ĠÄĳ áº·n
Ġs izes
Ġl Ã¡ng
Ġl á»¥t
Ġm Ã¡c
Ġm entally
Ġb á»±
Ġh en
Ġh urd
Ġv áº¯t
Ġp orn
Ġp iles
at al
at ical
at ops
Ġd are
Ġd ating
Ġnh á»©c
Ġnh á»įn
Ġtr u
Ġch iáº¿t
Ġch inh
qu es
Ġr ib
Ġf er
or se
or ient
or ters
Ġof fe
ch e
in ent
Ġvá» īa
Ġwe lf
Ġcá»§ i
us et
us sell
Ġqu áº§y
am il
Ġcho Ãłng
Ġst adium
ere r
ith a
st rong
ĠC Å©ng
ĠC ape
ĠC omp
ĠT Ãłi
ĠT ai
ĠT so
á»¥ ng
Ġlo yal
od er
em on
em ical
Ġsh irt
ĠA st
Ġcom ic
ÄĲ á»Ļng
ĠB il
ĠB ruce
ĠS el
ĠS ri
ĠS OPA
ac ious
ĠH iá»ĩn
est one
if act
ĠchÃŃ ch
ect ive
Ġal ph
ĠP ic
ĠP itt
Ġsp erm
ĠG G
ĠL isten
ci ety
Ġby pass
ose xual
ĠK os
ĠK ent
ĠK ÃŃnh
ĠR eg
Ġexp on
res ist
Ġdon ors
ach uset
itt y
iff erent
ĠTh áº§n
ĠTh ula
ĠW ay
Ġun n
Ġgr oss
Ġbu zz
red ict
Ġar ter
ĠO ld
ple te
olog ic
Ġná» Ľi
Ġunder m
Ġbl ur
Ġbl ess
ĠU t
Å© a
Ġbo ats
Ġsy mp
ĠTr áº¯ng
Ġcomm ission
Ġsc ans
Ġinc om
te en
Ġcount ed
Ġlong est
Ġend eav
Ġhel met
Ġ6 7
Ġrel ief
Ġinter ior
Ġart ifact
Ġfound er
Ġfam ously
Ġext inction
ific ations
Ġread er
Ġcare d
Ġteach es
Ġreg rets
man n
ĠNg ay
Ġrep ut
ott o
Ġstre ams
Ġ40 1
ĠBr ad
Ġchar ged
Ġexc ess
Ġsw allow
atic a
Ġfriends hip
Ġpay s
Ġabs ence
Ġmass es
Ġmass ively
Ġarch ive
Ġsens ing
Ġsens ation
Ġcal end
ĠJohn s
Ġtem ple
Ġlow est
ĠAm sterdam
ĠMar garet
Ġconsum ed
Ġproduc ers
Ġrich est
Ġpath ways
Ġemail s
Ġblog ger
Ġtele com
Al most
Ġsand s
ĠMich el
Ġactiv ists
ĠCol or
ĠChrist ians
ĠPar liament
Ġexcept ions
col m
Gi áº£i
Ġmagic ian
Ġapart ments
lin ing
Ġvari able
Ġcollabor ate
Ġperspect ives
Ġexplore s
Ġreflect s
Ġsquare s
Ġeth ic
ĠBar b
ĠBar ack
Ġsequ ences
ĠTo Ãł
Ġcelebr ity
Kh áº£
fl ix
ThÃ º
Ġexh a
Ġselect ed
Ġbeat en
ĠGl ass
Ġlaugh ed
Ġforg ive
Ġemotion ally
Ġamb ulance
Ġaccur ately
ĠNor weg
cript ions
ĠJust in
Ġmuseum s
Ġtax es
Ġbud gets
Ġillustr ates
Ġprior it
Ġtal ented
Ġveget able
Ġalt ru
Ġalt itude
Ġstim ulation
Ġpow ered
Ġtow el
hol m
ĠRom an
Ġcosm ic
Ġgam ma
Ġlift ed
Ind ia
Ġeleph ants
ĠGree ce
Ġpip eline
ĠBay es
ston ia
Ġmetabol ic
Ġentrepreneur ial
ĠWal mart
Ġastronom ers
ĠMel inda
Ġirr ational
Ġdiplom acy
ĠWil son
Ġpherom ones
Ġenzy me
ĠStud io
Ġadministr ation
Ġstereoty pes
Ġobserv ations
Ġpubl ishing
ĠPhot oshop
Ġmemb rane
Ġsevent h
Ġtriv ial
Ġscaff old
ĠMathem atica
Ġinevit ably
ĠSara jevo
Ġviscer al
Ġaccomp an
Ġobso lete
B ob
C Ãłng
C hÃ¡
E l
L áº¡i
L iÃªn
L á»Ŀi
M á»Ľi
O C
O S
P ut
Q aeda
S c
S á»Ń
a que
e ven
e lect
f ound
f ood
f unction
h al
h orn
n ov
o ving
p age
w an
Ġt id
Ġt iles
ng e
ng h
Ġc um
Ġc Ãło
Ġn ud
Ġn á»±c
Ġn áº¥c
ĠÄĳ áº§m
ĠÄĳ Æ°Æ¡c
Ġs Æ°Æ¡ng
Ġl Æ°á»Ŀi
Ġl Ãºng
Ġl oses
Ġl ingu
Ġb inary
Ġh uá»³
Ġk it
Ġp atch
Ġp enc
Ġp estic
Ġg er
at ories
at ma
Ġd iá»ħu
Ġd ancers
er ving
Ġtr aces
Ġto áº¡
Ġto ll
an ne
ot es
Ġr ank
Ġr ode
Ġr Ã¹a
in ational
ĠchÃ ªnh
ĠI K
ĠI Q
Ġph áº£
ang u
Ġcho p
Ġcho ir
Ġst eady
op p
op les
Ġan xious
ĠC ons
ĠC la
Ġpr imate
Ġse g
Ġse ats
Ġso vere
Ġsh ops
ĠM i
ĠM á»¥c
Ġhe y
ĠA ge
ÄĲ Ã¡ng
ĠB P
ĠB Äĥng
ĠB ry
ĠS um
ĠS co
ĠS econd
ĠN ic
ust y
Ġj ung
Ġex otic
Ġex quis
Ġex agger
Ġus age
Ġor ph
Ġde br
um or
Ġint ang
Ġint ric
ĠP ers
ĠP IPA
Ġkho e
Ġthink ers
ĠL imb
ib a
ĠÄĲ áº¿n
ous es
Ġen vel
Ġen light
ff ice
ĠF il
ĠF all
Ġun ve
Ġbu gs
ro y
Ġar ise
ĠO w
Ġco at
ell ed
ber ty
Ġunder grad
Ġmo ld
ĠU á»·
Ġpro ceed
Ġ19 93
ĠY o
ors hip
Ch iáº¿n
Ch Æ°Æ¡ng
Ch Ãło
Ġsc reens
Ġdec ides
Ġfl aw
Ġdr unk
Ġind ex
Ġrem itt
Ġshould ers
per form
Ġcar p
Ġtrans it
Ġrel ates
Ġrel atives
Ġ7 6
Ġsl ower
Ġcre ep
Ġbeh alf
Ġed it
Ġdem ograph
Ġfar ming
ĠAr chie
Ġprocess ed
Ġsub mit
ĠAl an
ĠX em
Ġpass age
ĠkÃ© p
Ġwar rior
Ġconnect ivity
ĠHo Ã¡
Ġreason ing
Ġgu itar
ĠBr and
ger ies
Ph il
Ġmach inery
Ġpos ters
Ġpar ag
Ġpar ach
Ġmar row
Ġhuge ly
Ġmust ache
ĠZ e
Ġsex ually
Ġfail s
Ġterr ibly
Ġill um
ĠCar ter
Ġarg ued
Ġ201 3
com ing
Ġstay s
mb led
Some body
Ġmult inational
gn es
Ġ198 8
ĠGi Ã¡
Ġrele ases
ĠEm p
Ġpur ple
Is n
Ġer otic
Ġtrust ed
Ġest ate
Ġball s
Ġemb ry
Ġvisual ize
ĠChrist opher
Ġclean ing
Ġintrod uction
ĠRe ally
Ġvirt ue
Ġhop ed
Ġinfect ious
soci ation
Ġfell ows
Ġluck ily
Ġenjoy ing
Ġmir acles
Ġsal ad
Ġmix ing
Ġinh abit
ĠPhil ipp
ThÃ Ń
Ġprevent ing
Ġmut ual
Ġintegr ation
ĠLib ya
ij uana
ĠLu Ã¢n
Ġvot ers
ĠMal ays
Ġremote ly
Ġcontribut ed
Ġterror ists
Ġantib odies
Ġgold en
Ġconcentr ated
Ġplatform s
Ġmill imeter
Ġthá»ĳ i
Ġmaster y
Ġcrack s
Ġrom ance
ĠThÃ ¬
Ġreform s
Ġweak ness
bre ak
Ġacqu ired
Ex cept
Ġsem i
Ġfright ened
Ġmel ting
Ġobser ving
Ġnegoti ate
cont rolled
Ġcontrovers y
ĠKar l
Ġrecyc ling
Ġportra its
Ġtort ure
Ġabund ant
Ġna ive
ĠInt el
Ġpherom one
ĠHung ary
Ġminor ity
Ġsle pt
ĠBroad moor
Ġcas ual
Ġveter ans
Ġunp redict
ĠES G
Ġmur der
ĠUkrain e
Ġgeomet ry
effic ient
ĠMond ay
Ġstair case
olum ines
ĠCoun cil
ĠVoy ager
Ġwelf are
achuset ts
ĠSco op
Ġenvel ope
A T
D I
E T
G ive
K B
M en
P hÃ¡
Q uy
R ives
S Ã¡ng
T Ã³m
U S
b i
b ot
b et
b urn
c am
c ity
d og
e u
f ur
f ive
h r
i ated
j i
k i
k m
l Ãłm
m ass
m inder
p read
p iece
r at
r un
r ays
u z
v able
w andering
Ġ áº£
áº ¤n
Ġc Ãºi
Ġc ows
Ġth y
Ġth áº£n
Ġn ick
ĠÄĳ áº¯ng
Ġa o
Ġl ump
Ġm it
Ġm ater
Ġm erg
Ġb ore
Ġb Ã¡u
Ġv on
Ġk iáº¿p
Ġp ants
Ġg Ã¡n
Ġg á»¥c
Ġg áº§y
Ġg á»ĳm
at an
Ġd áº¡n
er ation
ou red
nh Æ°
Ġch ase
Ġto es
an as
ap minder
Ġr áº£nh
Ġr ays
Ġf ence
or o
or ic
ch i
in er
in as
in able
in ating
le vant
Ġe ats
Ġph iá»ĩn
ow an
Ġbe lly
ĠnÃ³ c
Ġx áº»
Ġha unt
Ġst amp
Ġst igma
Ġchá» ķ
ĠmÃł i
se us
Ġan ecd
ĠC Ã¡
ĠC á»¥c
ĠC IA
ĠT ar
ĠT el
th ay
th irds
Ġpr on
Ġsh ining
ĠM ull
ĠA ud
il ot
ĠB et
ĠB ax
ĠS á»Ń
ĠS aul
Ġme ets
ĠN O
ĠN ik
ĠN athan
Ġj ack
Ġpe ers
Ġpe oples
art ed
ĠH Ã¬nh
ĠH Ãłng
ĠH ome
ĠH az
um ann
Nh áº¡c
if ies
if lu
Ġal ert
Ġint ensity
ĠP ear
ĠP ale
Ġsp ong
ĠG ill
ĠG reg
ĠL ess
ĠD J
ĠD un
our ced
Ġsu Ã½t
hi o
ĠK n
ĠK epler
oc ative
Ġcomp ounds
Ġle opard
ĠR ain
Ġexp ressed
Ġper pet
ud ice
ĠF ive
ĠJ ava
ĠTh á»§
Ġcl ips
ĠW ales
Ġgr ades
Ġimp l
Ġimp ress
ro Ã
ro ch
orm al
Ġá» Ľt
ea ks
ĠV á»ģ
ĠV iv
Ġac oust
vel t
ber cul
Ġngo áº·t
Ġres idents
Ġbl owing
ank ton
Ġxu Ã´i
ĠU r
Ġdes erves
Ġ19 91
ip car
ĠY ellow
ub ble
Ġsur geries
ail and
igh th
Ġend less
Ġcreat or
Ġnever theless
Ġsl ip
Ġcons cience
Ġfam ine
Ġ8 9
Ġser ver
Ġbi olumines
Ġexpl ored
Ġproject ion
Ġear ning
Ġreg ul
Ġsk i
ĠSo bule
ĠX u
Ġhead line
ever ly
Ġpres idential
Ġdist ances
vers ion
ov o
Ġeas tern
ash y
Ġref use
Ġpublic ly
ĠgÃ³ t
Ġris es
Ġexpect ation
Ġinnov ate
ĠCan yon
Ġland ing
Ġalong side
Ġrev olutions
ides pread
Ġdream ed
ĠCon st
Ġsend s
Ġenc y
Ġexperiment ing
asc al
Ġwin ners
ĠGe org
Ġ198 5
Ġ198 6
Ġfeed s
Ġrisk y
Ġopt ical
umb ling
ĠRob inson
Ġblog ging
Ġfem in
Ġsuff icient
Ġcop ies
Not ice
Ġvisual ization
Ġaccount ing
Ġneg lect
Ġdrop ping
Ġparticip ating
ĠGr ant
Ġlau nd
Ġec ology
Ġdetect ed
Ġsyn chron
Ġcapt ain
ĠGiá» ĳng
Ġcard iac
Ġshap ing
Ġdemonstr ated
Ġoppos ition
ĠIndian a
Ġfold ed
Ġdispl ays
Ġcatch ing
Ġinj ust
Ġtarget ed
Ġadapt ation
Ġanaly zed
Ġmicro RNA
Ġorg asm
Ġmagaz ines
Ġprior ity
Ġheav ily
Ġdefe at
ĠWho a
ĠSwed ish
ĠCo oper
que z
ĠLin ux
Ġharm ony
Ġsusp icious
ĠMah moud
Mar co
sp ec
Ġscar ce
ĠBon net
Ġsatisf action
Americ ans
ĠJew s
Ġmá»ī a
Ġasse mble
Ġcontem pl
ĠDemocr atic
NC RA
Ġstorm s
Ġadoles cence
ĠSec urity
Ġiniti ative
Ġdeploy ed
Ġbran ch
Ġpour ing
ĠPart y
Ġparas ite
Us ing
ĠTam iflu
Ġdelic ious
Ġtextbook s
ĠCá»© u
Ġfung i
Ġdism iss
Ġclar ity
Ġanes thesia
Ġrecru it
Ġbrut al
Ġcath ed
Ġphilanth ropy
Ġcigaret te
Ġschem e
ĠHimalay as
ĠThu áºŃt
ĠPap ua
Ġbrows er
ĠAur ora
ĠStock holm
ĠBah amas
ĠGard en
Ġneocort ex
ĠGuard ian
econom ic
mind ed
Ġtsun ami
Ġhuá»³ nh
ĠBax ter
bercul osis
2 9
B á»įn
C uá»ĳn
C Äĥn
G reat
H Ãłnh
M M
M Ã´
M áº¥y
M á»ĳi
M ake
M ean
R S
S upp
T iáº¿n
T uá»ķi
T ime
V i
b ian
c ale
d y
d rop
e en
f are
h ou
m es
m el
o ir
p o
p ur
v ÃŃt
y th
Ġ )
Ġ Æ°Æ¡i
Ġt áº¡
Ġt ut
Ġt ide
Ġt ennis
Ġc m
Ġc Ã´i
Ġc Ãºng
Ġc Äĥm
Ġc av
Ġth orough
ĠÄĳ Æ°á»Ŀi
ĠÄĳ iá»ĥu
Ġs á»Ļ
Ġs áº¥u
Ġl os
Ġl Ã£i
Ġm ud
Ġm ature
Ġb á»ĩ
Ġb onds
Ġv ag
Ġv ice
Ġv iá»ģn
Ġw est
Ġw idespread
Ġo m
Ġo xi
Ġp ix
at oes
Ġd ome
Ġch k
Ġch Ãł
Ġch áº£o
an ies
Ġng Ã¢m
Ġng uá»µ
Ġr od
Ġr á»ĵng
Ġf ans
al ysis
Ġthá» ī
ar n
ar ak
ch ar
it ler
in ch
ĠchÃ ©o
ĠÄĳá» ±
ĠI mp
Ġqu áº¥n
Ġgi áº§y
Ġx Ã¬
Ġx Ãło
Ġx á»ķ
Ġhá»į ng
ere y
Ġli ps
Ġcon j
ĠC oh
ĠT il
ĠT Æ°Æ¡ng
ĠT Ã¬m
th á»±c
ad ow
Ġse ctions
ation ally
Ġas ham
ĠM eg
Ġwor m
Ġhe ating
ĠA w
ĠA fter
ĠA cc
Ġhá» ©c
ĠB ear
ĠB ach
ĠS pl
ĠS leep
ĠS cient
ĠS ystem
ĠN aj
Æ°Æ¡ m
ĠH osp
ĠH unter
Ġde pr
ok er
est y
ab el
ob ably
Ġal ike
Ġal arm
Ġal umin
Ġint imate
ĠP ass
ĠP ier
ĠP oint
Ġsp at
ĠG wen
ĠL ight
ĠL ear
ĠL HC
ĠL anka
ĠD am
ĠD ai
our cing
ib ri
iz ational
ĠK iva
iv il
ĠÄĲ Ãło
ĠÄĲ á»ĭnh
ĠR edd
Ġexp ort
Ġman kind
ĠmÃ¡ nh
Ġen vision
ĠJ ennifer
ĠTh ose
ĠTh ailand
ep r
ĠW ide
ĠW oo
Ġun w
ro at
ount ered
Ġcont amin
cent ure
ick et
Ġbl oody
uc ation
Ġgood bye
int u
ian ces
ub arak
Ġsc ann
ak i
Ġcount s
Ġcr ank
Ġdec k
Ġdec or
Ġfl uct
ĠbÃ© n
Ġlet hal
he ld
Ġtrans istor
be es
Ġgl ow
Ġtra it
ph al
Ġkid ding
Ġcons ensus
Ġtu berculosis
Ġimag ining
Ġdevelop ers
Ġnum er
Ġser ves
Ġpat ience
Ġmet als
Ġgener ates
Ġcomput e
Ġtá»ī a
Ġca f
Ġreg ister
ĠSo cial
ĠSo ciety
ran ny
ĠAl t
Ġpres um
ĠInd ians
ĠPh á»¥c
Ġdist inction
Ġyoung est
Ġprot ocol
ortun e
Ġscient ifically
Ġchar ities
Ġchar ges
Ġbre ed
Ġref used
Ġequ ity
Ġexc use
Ġsw ing
Ġnet working
Ġview ed
Ġconst itut
Ġrad ar
Ġcá»Ń u
ĠCan adian
Ġterr itory
Äĳ Æ°á»£c
Ġoper ates
Ġcir cul
sh aped
Ġdig ging
Ġpsych iatr
Ġsupport ive
Ġchem ist
Ġple ased
Ġenc ountered
Ġpick s
Ġapproach ed
ĠBl oom
Ġice berg
Ġstress ed
Ġstress ful
rom agn
Ġpost c
Ġdescrib ing
Ġinvent or
Ġge ography
ĠQu Ã¡
Ġsubject ive
ĠDe an
ĠDe ep
Ġest rogen
Ġfunction ing
Ġemerg ence
Ġimprove ments
NhÃ ³m
ĠBill y
Ġpu berty
cis es
ĠNgh á»ĭ
Ġassum ing
Ġfill ing
Ġdiscuss ing
Ġkil os
omm od
Ġann ounce
Ġcalcul ating
Ġcontinu ously
off s
Ġdemonstr ates
Ġsal ary
Ġmatch ed
ĠTo Ã¡n
Ġcelebr ated
Ġhall s
Ġtransport ed
Ġ194 0
Ġphilosoph ers
ĠKing dom
irt ual
Ġhyp oth
ĠMont erey
Ar thur
Ġrequire ments
Ġvot es
mon th
Ġbul b
Ġprior ities
ĠTrans ition
Ġstri kes
ĠAc centure
ĠCr itic
Ġ195 7
Pr ince
ĠMah atma
Ġacceler ate
ĠDi am
Ġcup s
Ġmicrob log
Ġmyth s
bre aking
force ment
Ġpoem s
Ġdish es
Ġpun ishment
Ġwitness ed
Ġmá»ī m
Ġsteal ing
Ġsacr ific
Ġreven ues
Ġprem ise
Ġdict ators
Ġimplement ed
Ġgest ures
Ġrub ber
Ġmi xt
Ġabsor b
Ġanticip ate
ĠNet flix
Ġdecre ase
Ġutter ly
Ġdisrupt ive
ĠAch ill
Ġstatist ical
Ġles bian
Ġdisag ree
Ġattribut es
Ġyog a
Ġintim acy
Ġsett led
ĠMass achusetts
Ġanatom y
rover ts
ĠCase y
ĠMell on
Ġsyring e
Af ric
Ġgramm ar
Ġbam boo
Acc ording
ĠCarib bean
ĠCoch rane
ynth ia
Ġtá»Ł m
ĠIK EA
Ġdebr is
ĠMalays ia
Ġasham ed
4 00
6 5
C T
H á»ĵi
P art
S ure
T B
T áº¿
T ell
W as
b one
b ound
b oy
b led
f i
f ig
f und
h ot
m ph
n ick
p at
p ay
r ant
r aph
r ison
s burgh
t Ã´ng
u ation
v Ãło
¥ c
¯ a
Ĥ n
Ġt Ã½
Ġt Ã²i
Ġc ob
Ġc Æ°ng
Ġc Ãły
Ġc oding
ĠÄĳ iáº¿c
Ġa ort
Ġs Ã¡p
Ġm áº§u
Ġm ant
Ġm á»Ļc
Ġm arsh
Ġv áº§y
Ġw ives
Ġw estern
Ġp a
Ġd Ã¬
Ġd iving
Ġnh am
Ġtr ips
en ny
qu ality
Ġng á»±
Ġr áºŃm
is er
is ol
ĠÄĳá» Ĺi
om y
om ed
om ics
as ive
Æ¡ c
Ġe ase
Ġqu ar
Ġqu áº¥y
Ġbe am
Ġbe ep
Th irty
Ġx Ã¡o
Ġx Ã³t
Ġx á»ĭt
Ġre un
Ġra c
im eters
ere nd
op y
Ġgiá» ¥c
ver b
Ġan onym
ĠC reat
ĠT Ã¢m
ĠT ell
th áºŃt
Ġlo bby
Ã¹ n
Ġsh oe
ĠM ake
ĠM ove
ĠM ubarak
ĠA ctually
Ġne arest
ÄĲ áº¡i
ĠB uy
ĠB á»ĵ
ĠB erg
ĠB uff
ĠB BC
ĠS omet
ĠS add
ĠN obody
Ġpe an
ĠH mm
ĠH ello
ĠH amps
um i
if i
el and
ob e
og ens
un a
ĠP oll
Ġbá»ĭ t
ĠG am
ĠG ra
ĠG apminder
Ġwho ever
ĠL oáº¡i
ĠD D
our se
Ġtim ing
ose velt
ĠK as
ĠK ate
ĠÄĲ á»ĵ
ĠE EG
ĠR ub
ĠR achel
ĠR ussell
Ġper f
Ġman eu
ĠJ up
ĠTh Æ°Æ¡ng
Ġcl itor
ry st
ĠW ang
ĠV inci
ĠV irtual
Ġprob e
Ġcont ained
Ġ5 000
Ġunder go
ick r
ick en
Ġpro ved
Ġ10 1
ĠTr iá»ģu
ĠTr áº»
ĠTr icer
Ġhum ility
Ġ19 18
ress ing
Ġcount less
Ġgreat ly
Ġdr ama
per a
Ġ6 6
Ġev olving
Ġev apor
ĠÃ Ķ
Ġ7 50
Ġsl ope
Ġrec k
Ġhand y
Ġmin erals
Ġsecond ary
oy ota
Ġel abor
Ġreg ional
Ġprocess or
bo ards
Ġsing ers
ĠNg oáº¡i
ĠSo lly
Ġconf using
Ġspace craft
Ġstr and
Ġelect romagn
Ġpop s
ĠX anh
Ġhead quarters
Ġban ned
Ġwond ers
Ġval ve
Ġeduc ating
br ush
Ġ18 8
Ġpolit ically
Ġgu ards
Ġvir ut
less ness
Ġfil med
Ġxo a
Ġret rof
Ġcontin ents
Ġchim ps
ĠZ et
Ġoper ated
Ġappro ximately
Ġfre ak
Ġ201 5
Ġexist ential
Ġru ins
ĠchÃ³ p
ĠAs sociation
Ġocc as
Ġrecogn izing
ĠBe at
ĠMar ia
Ġpull s
Ġinvent ors
Ġcrit ically
Ġhor ror
ĠRob b
Ġsustain ed
Ġge o
ĠKen yan
Ġbenef icial
Ġ197 3
Ġ197 9
Ġconcept ual
Ġprom ised
Ġachie ving
ĠCl ay
Ġaccount ability
Ġfair ness
Ġrevolution ary
Ġ196 5
Ġmis under
Ġscreen ing
ĠRe zero
osh ima
Ġdiscuss ed
Ġreturn s
Ġnucle us
Ġemploy ment
ĠFl ickr
Ġaccept ance
uf us
Ġrespond s
ĠDon ald
Ġcat ad
Ġprinci p
Ġlad der
Ġreflect ive
Ġmagn itude
Ġpen etr
Ġmatch es
Ġord ered
Ġaddress ing
Ġmotiv ate
Ġfold s
ĠGl ad
Ġadapt ive
Ġloss es
Ġstrength s
Ġintegr ity
Ġnovel ty
Ġnote book
Ġconsid ering
asse mbly
Ġcooper ative
Ġmamm ography
Ġtast es
Ġble w
Ġexpand ed
Ġepid emics
Ġexer cises
Ġcort isol
Ġfol k
Ġshel ves
Ġconcentr ate
Ġtick ets
Ġappreci ation
ĠOn line
ĠLad y
Ġpow der
Ġinform al
Ġcere br
erge y
ĠKore an
Ġrig id
Ġreveal ed
cons cious
Ġcock ro
Ġbes ide
ĠbÆ°á»Ľ u
Ġempower ing
ĠrÃ£ nh
Ġsurve ys
ĠTy pe
Ġchamp ions
Ġadvoc ate
ĠRoy al
Ġmer it
ĠHir sh
ĠHir oshima
conf lict
Ġtraum a
front al
Ġprec ision
Ġdisappoint ed
Ġexplo it
Ġrenew able
Ġfet us
ĠFried man
Ġscream ing
Ġtrop ical
ĠIM F
ĠEconom ist
Int erest
Ġbutt ons
Ġcorrel ation
Ġenterpr ise
Ġchron ic
Ġfib ers
Ġpercept ions
Ġchec king
Ġoy ster
Ġcontag ious
Ġastero id
Ġdivor ce
ĠBuddh ist
Ġol ive
Ġtheore tical
Ġcham ber
Ġhorizont al
Tw enty
ĠGord on
Child ren
Ġnightm are
Ġfundra ising
Ġmultip ly
ĠCharl otte
Ġcatastroph ic
ĠIll ino
ĠOdys seus
ĠeB ay
Ġanten na
ĠÄĥ ng
ĠPitt sburgh
Ġpenc il
Ġparach ute
ĠEmp ire
mass ive
Ġinjust ice
Mean while
ĠHosp ital
ĠHamps hire
ĠJup iter
ĠTricer atops
B its
C á»ĳ
C ont
D es
D Ã¢n
D á»±a
E ight
F ortunately
I Y
J eff
M att
T áº¥m
Y R
a a
a very
k h
k er
m i
o it
p u
p ack
s um
s ize
w ick
y ou
z Æ¡
Ġ #
Ġt weets
Ġc attle
Ġn ic
Ġn ail
Ġn asty
ĠÄĳ áº¯p
Ġl áº§y
Ġl ately
Ġm es
Ġm and
Ġm ating
Ġb Ã´i
Ġb áº§m
Ġh á»ĳc
Ġv Ã´i
Ġv Ã¡c
Ġw are
Ġp ose
Ġp ne
Ġp iss
Ġg al
Ġg erm
Ġg ym
at us
Ġd read
Ġd ivid
er ness
Ġtr ap
Ġtr iá»ħn
nh e
Ġch áº£i
Ġch ord
Ġch asing
Ġto ken
Ġr Ãł
or ity
Ġin sec
is co
ll ow
Ġe rect
Ġe go
Ġqu Ã¡ng
Ġkh á»ĳng
Ġgi un
Ġx Ã¢u
Ġx áº¯n
Ġre vers
ct ar
ur i
ur k
Ġra ins
Ġst er
Ġst ones
ĠC y
ĠT áº¡ng
ĠT oday
ĠT oyota
Ġlo ads
Ġab road
Ġso ck
Ġsh ed
ĠM inh
ĠA ED
Ġne ctar
ÄĲ Ãłn
ĠB á»©c
ĠS I
ĠS W
ĠS iÃªu
ĠS ix
ĠS up
ĠS uf
Ġpe cul
ĠH al
ĠH um
ĠH ard
ĠH uck
um en
ure ka
ind ing
og an
ĠP a
ĠP ur
ĠP yth
ĠG irl
au g
au nt
Ġup gr
ĠL as
ĠL arry
ĠD IY
are foot
ĠK hÃ
ĠK in
Ġcomp ens
ĠÄĲ Ã´n
Ġworld view
Ġexp ense
Ġper se
ff e
ĠJ oh
Ġsomet ime
ĠTh Æ°a
Ġhapp iest
ĠW ood
Ġun iqu
Ġun seen
Ġun imag
Ġgr an
Ġno isy
Ġimp ulse
Ġover night
Ġdis cl
ĠV áºŃt
ple x
Ġco h
ult ural
Ġtrá» Ľ
Ġtrá» Ĺi
Ġbl u
Ġbo ards
Ġgood ness
Ġsy mm
Ġreal ities
Ġ19 20
int egr
Ġpre frontal
Ġproblem atic
Ġinc ub
There fore
Ġdec iding
ile o
Ġfl esh
Ġind irect
ri k
ri ages
Ġthought ful
Ng uá»ĵn
Ġob tained
Ġtá»¥ i
Ġgl ue
Ġplay ful
Ġplay ground
Ġinter connect
Ġsl ice
Ġrec ur
Ġcons ent
Ġcons ol
Ġhand ful
oth y
erg arten
Ġduy Ãªn
co al
Ġgener ating
io let
Ġreg ulation
Ġsk ys
Ġform ation
ĠAl b
und red
Ġcou ples
ĠHe b
ĠHe ad
ĠPh ill
Ġdist inguish
Ġ18 7
Ġhope ful
ĠGo og
Ġlab els
Ġcor rid
Ġglobal ized
Ġequ als
ĠSh ah
Ġloc om
Ġloc ally
Ġsix th
Ġthá»§ ng
Ġtreat y
Ġmust ard
Ġneur ological
Ġgh im
Ġgh ost
Ġes cal
ĠchÃ³ i
Ġdraw s
crib ed
ĠBe au
ĠMar co
Ġchá»ĵ n
Ġpost ure
Ġcolor ful
ĠQu ay
Ġtri ang
Ġrepresent ing
Ġast h
Ġrepl acing
Ġang les
Ġactiv ated
Ġ196 2
Ġprim ates
Ġunf old
Ġunf ortun
Ġreport ing
Ġadm ire
Ġprison er
Ġstick y
Ġcharacter istic
Ġsan ct
Ġaccept ing
ĠÃģ o
Ġspeed s
Ġlabor atories
omm y
Ġann ivers
Ġbal anced
Ġthr illed
Ġmagn ets
Ġmir rors
Ġeth ics
Ġoptim al
Ġpros pect
Ġalg ae
Ġvict ory
Any body
Ġanaly t
Ġanaly zing
Ġmut ation
ĠTalk s
Ġsad ness
Ġcrowd s
Ġtherap ist
Ġattempt s
Ġconvin cing
Ġinvestig ation
Ġinvestig ate
ĠLin us
Ġiron y
Ġiron ic
Ġacceler ating
Ġshad ows
ĠJim my
Ġbon ob
Ġtox ins
Char lie
Ġoccup y
Ġske leton
Ġinstinct s
Ġmemor ial
Ġempower ment
ĠCount ry
ĠVi king
ĠRiver side
Ġrating s
Ġathlet ic
Ġcompl ain
Ġsubs id
Ġcoc aine
Ġintent ions
Ġcens orship
Tá»ķ ng
Ġwip ed
ĠJud y
Ġrepeated ly
Ġtherm al
Ġenh ance
Ġlegit imate
Ġirre levant
ĠLes ters
Ġinherent ly
Ġcert ific
Ġphthal ate
ĠnhÃ´ m
ĠMedic ine
opo ly
ĠchÃ© n
ĠKle in
Ġcybercr iminals
Ġcrush ed
Fr ank
Ġjan itor
Ġepis ode
ĠDevelop ment
Pre tty
Ġarbit rary
ĠOtt oman
iov ascular
ĠDef ense
Ġapolog ize
ĠDenis ov
Similar ly
Ġreput ation
ĠBarb ara
ĠNorweg ian
ChÃ¡ u
Ġjung le
Ġintang ible
Ġdemograph ics
Ġunpredict able
ĠGill ian
ĠGeorg ia
ĠCoh en
Ġalumin um
ĠRedd it
Ġclitor is
Ġcerebr al
ĠIllino is
Ġpne um
Ġpecul iar
A C
B on
B ig
B oy
C al
C lear
D J
E ng
F re
H áº³n
J ay
K iáº¿n
O thers
Q uyá»ģn
R W
S uy
S ad
T H
T ry
V á»ĭ
b ut
c ow
e id
g ill
i ologist
j ah
l come
m udd
n Ã´
o an
o ac
o xy
p it
p ers
s or
s ight
s aving
s peed
u an
w all
x on
y les
Ã ©c
Ġ áºŃp
Ġt á»Ļt
Ġc ement
Ġn á»ĵi
Ġn Ã¡o
ĠÄĳ áº¯c
Ġa rous
Ġs áºŃp
Ġl ou
Ġl ap
Ġl yr
Ġl áº«y
Ġb Ãłnh
Ġb Ãłng
Ġb Ã¡ng
Ġb ip
Ġh id
Ġv Ã¡
Ġv Å©ng
Ġv iá»ĩt
Ġw oo
Ġo v
Ġo we
Ġp it
Ġp ulses
nd ane
Ġg áºŃt
Ġg ains
Ġg osh
Ġg iá»ģng
Ġd áº¥n
Ġd uty
Ġnh Æ°á»£ng
ou l
Ġch áº±ng
on ie
an cer
en berg
Ġng Æ°á»Ľc
Ġng áº·t
ot al
es ar
Ġf ame
Ġf ired
al ities
ar o
in id
in ators
in ema
om er
Ġe ighth
Th ings
ld er
ig g
Ġst are
Ġst icking
Ġst eak
im i
ere my
ĠphÃ ´ng
ver bal
ol is
ĠC ass
ĠC old
ĠC level
ĠT áº¿
ĠT ra
th áº¿
Ġho ly
Ġho bby
Ġlo ans
od d
Ġgo at
Ġse am
Ġse ctors
Ġso cc
ĠM u
ĠM ard
ĠM ak
ĠM ax
ĠM BI
Ġhe h
Ġhe ct
ĠA gnes
il ia
ĠB alk
ĠB á»ĳn
ĠB arefoot
ĠS ay
ĠS ag
ĠS erv
ĠS Ã¡u
ĠS orry
Ġme erk
ĠN Ã´
ĠN av
ore n
ag asc
ĠH ud
ĠH ell
ĠH itler
Ġor th
ab ama
Ġal le
og h
ie ber
ĠP ent
au c
ĠL áº¡t
ĠL ittle
ĠL abor
ĠD M
ĠD or
our i
ard ed
ĠK ap
ĠK night
ĠK abul
ĠE r
ĠE van
ĠE DI
Ġle ak
ĠR iley
Ġexp ose
app iness
Ġmu ndane
ĠJ ason
ĠTh ree
Ġcl im
Ġgr ant
Ġimp ose
Ġimp aired
ĠCh en
Ġover look
Ġdi arr
ĠO hio
Ġdis par
Ġdis connect
ĠV iáº¿t
ĠV enter
ign ant
Ġcont est
Ġres ur
Ġbl ink
Ġbl own
ial s
Ġad vers
ĠTr á»ĭ
ĠTr uyá»ģn
Ġnguy á»ĩt
Ġpre val
Ġkhu áº¥y
Ġoff sh
Ġsc al
Ġsc roll
ĠNh áº¥t
Ġvi able
Ġcr ap
Ġdec lining
Ġdr illing
Ġbrain storm
Ġapp et
ĠSt ation
Ng Ãłnh
ys on
Ġexam ine
Ġkid n
Ġ8 3
Ġhand ed
Ġacc ommod
Ġ15 00
Ġbeh old
Ġfar ther
ĠAr m
Ġsk illed
Ġvis iting
ĠAl abama
aut h
Ġsoci o
Ġstand point
Ġprot ests
ĠBr other
Ġmark s
Ġdep art
Ġchar coal
arth eid
ĠSh ar
eg al
aterial s
Ġmem e
Ġpar liament
Ġass et
Ġret urning
Ġinnov ators
cl air
Ġident ities
Ġgh á»ģ
Ġpred ator
ook ie
Ġarg ues
Ġdream ing
enn ett
Ġtrad ing
Ġmult iverse
yr ne
Ġreach es
ĠHar ris
vent ually
Ġtravel s
Ġ198 3
Ġmeasure ment
ĠGi Ã¡m
Ġbar rel
umb led
Ġnice ly
iet ies
Ġsn ake
ĠQu Ã½
Ġkhuy a
Ġslow ing
Ġprom ising
chan ical
Ġtransform ative
Ġcop ying
Ġrepresent atives
Ġemp ire
ĠCl onie
Ġrock ets
Ġmedic ations
Ġmob il
Ġbact er
Ġtransl ator
Ġste am
Ġste ep
Ġsociet al
Ġvari ables
Ġáº¢ o
Ġcollabor ators
Ġsan itary
Ġjud ges
Ġsepar ation
Ġstrugg led
Ġdeterm ination
Ġroll s
Ġcard board
Ġcard iovascular
Ġwilling ness
gr aph
Ġrespect ed
ĠSe b
ĠNe il
ĠNe umann
Ġremind er
Ġcheck list
ĠHy der
Ġphenomen al
ĠEl vis
Ġenorm ously
Ġcampaign s
ĠMr s
Ġ194 9
ĠMin nes
ĠMars hall
Ġjournal ism
Ġbroad er
udd y
Ġgift s
ĠCE RN
ĠPer ry
ĠTor aja
ĠJust ice
add y
Ġmouth s
Ġ36 5
Ġpet als
Ġsym phony
ĠStan ley
Ġreward ed
Ġaltern atives
ĠUS DA
Ġclimb ed
Ġcontribut ions
Ġstim ulate
Ġgrab bed
Ġfrequ encies
ĠEx xon
Ġmotor cy
ĠCEO s
ĠNot hing
Ġhero ic
Ġprototy pes
Ġharm ful
Ġgrav it
uls ion
Ġdisp ers
Ġquiet ly
Ġpregn ancy
ĠBon o
ĠBon nie
Ġsatisf ying
Ġreprod uction
Ġpoly mer
ĠScott ish
Ġgall on
Ġgall ery
Ġasse mbly
Ġdict ator
Ġconver ted
Br ian
Ġimplant ed
worth y
Ġhur ts
Ġtight ly
ĠColl ider
ĠBudd ha
Ġtort ured
Ġinterf aces
Ġcolum ns
Ġchamp ion
ĠRo osevelt
Ġweigh s
ĠSer ra
Ġappeal ing
Ġaccum ulate
Ġtatt oos
ĠHel en
ĠMoz amb
eff ective
ĠHad ron
Ġimper ative
Ġatom ic
ĠHam let
ĠOs ama
Ġlegit im
Ġconven ient
Ġgrat itude
ĠJu an
Ġassess ment
ĠMos cow
Ġbiote chnology
Ġannoy ing
Ġneuroscient ist
Ġbasket ball
Ġguerr illas
Ġthylac ine
ĠHind u
Ġadolescent s
ĠWind ows
ĠDAR PA
Ġinterven e
Ġpropag anda
ĠGay la
giá» Ŀ
Ġrh et
ĠSin clair
ĠDav is
ĠNI H
ĠBil bao
Ġalph abet
ĠPic asso
ĠKos ovo
Ġarter ies
ĠColor ado
Ġency clopedia
ĠSpl ashy
intu itive
ĠSup reme
Ġunfortun ate
Ġannivers ary
Clear ly
mudd in
Ġsocc er
agasc ar
ĠMinnes ota
6 4
9 8
A lex
A my
B R
B iá»ĥu
G od
H ar
H iá»ĥn
K áº¿
K evin
M artin
P L
R ory
R achel
S uá»ĳt
S cient
S eb
S even
T á»ĳi
T á»Ľi
T uáº§n
U lt
c os
c Å©ng
c ond
g reat
g roup
h uman
k ut
m Ã´n
m aster
n ish
o ors
s entially
t w
v iolet
w ear
z one
Ġ @
Ġ Ã¡
Ġ áº§m
Ġ Æ¯á»Ľc
ħ u
Ġt áº£n
Ġt áº·c
Ġt oss
Ġt Æ°á»Ľi
Ġc ul
Ġc áº©m
Ġc Ã²i
ĠÄĳ Ãª
ĠÄĳ áºŃy
Ġa ph
Ġs áº¹o
Ġl ion
Ġl ÃŃt
Ġm ao
Ġm áº·n
Ġb Ã£
Ġb ass
Ġh iÃªn
Ġv uá»ĳt
Ġv iáº¿ng
Ġw olves
Ġg reet
Ġg aining
at ible
at ivity
Ġd im
Ġd ancer
Ġnh ai
Ġnh á»įc
Ġtr Æ¡n
Ġtr Ã¹
on ies
ing ing
an ium
Ġf MRI
is econd
in cent
in ner
Ġcá» Ĺi
ay ing
as ant
ve t
ic se
Ġqu áº³ng
á»± u
ut u
ut es
Ġre o
Ġre nd
Ġre ct
Ġra bb
Ġst ir
Ġst agg
ere rs
Ġgiá» ħu
Ġfor cing
ol s
st ory
st yle
st airs
ĠC art
ĠC uá»ĳi
ĠC apt
ĠT er
ĠT Ãªn
ĠT ower
ĠT erence
th at
th ood
Ġho c
á»¥ p
Ġlo be
Ġpr Ã´
Ġse als
Ġse aw
Ġsh orter
ĠM O
ĠM áº·c
ĠM áº¡ng
ĠM Ã¹a
So on
ĠA th
ĠA ctor
ĠA BC
ould er
ĠB ion
ĠS n
ĠS ac
ĠS hi
ĠS ave
ĠS isy
ĠN ar
ĠN in
ag ra
Ġj okes
ĠH em
ĠH oll
ess ica
Ġde er
Ġde ception
um ental
ist ically
and al
ob ic
Ġal ar
ie u
ĠP i
ĠP et
ĠP ach
ĠP av
ĠP ran
ĠP ants
Ġte nder
á»ģ u
Ġbá»ĭ ch
all ing
au x
ĠL y
ĠL áº§n
ĠL ai
ĠD ow
ĠD ec
Ġká» µ
Ġsu Ã´n
ast s
ĠK a
ĠK end
oc ation
Ġcomp osition
ĠÄĲ Ãłi
ment ation
ĠE st
ĠE xt
ĠE nce
ĠR a
Ġbr icks
Ġ3 9
ĠF ield
ĠF ortune
ĠJ R
Ġdiff er
ĠW ired
ĠW onder
so cial
ro vir
ĠCh op
Ġnew ly
Ġco ch
Ġco in
Ġkind ergarten
Ġlittle Bits
Ġgen ital
ark s
Ġpre ced
Ġpre cip
ĠY Ãªu
Ch á»¯
Ch ryst
lect ion
ak a
ak h
Ġcr ied
av ard
ons ense
Ġind oor
Ġind oors
ĠSt op
ĠIn formation
ĠQ ua
Ġinv itation
Ġcour ts
ĠTED ster
Ġafter ward
Ġmean ings
be e
Ġgl uten
Ġgl orious
Ġwr ink
Ġent rance
Ġrec ove
When ever
Ġquestion ing
Ġdevelop ments
Ġcre am
Ġmon ster
Ġpat ri
Ġbi ased
Ġmom s
Ġngá» £p
Ġexpl ode
oll s
pr op
Ġear ned
Ġreg ulate
Ġsing er
Ġconf ined
Ġstr ain
Ġanim ations
Ġfun eral
Ġrep orter
Ġweb cam
Ġmen u
Ġsound ed
ĠPh á»ĳ
ĠHo Ãłn
Ġadd ict
Ġeduc ators
Ġmor ph
ĠBr others
Ġprof itable
Ġfil ters
Ġsw am
rop olitan
Ġpay ments
Ġwa king
Ġfront ier
ik i
Ġterr ific
Ġident ifying
Äĳ i
Äĳ Ã£
uss ion
Ġliter al
ium ph
Ġshort ly
Ġappro val
Ġes cap
ook s
Ġ201 4
enn a
apt op
Ġfight s
Ġpract ically
ĠFr iend
Ġfac il
Qu ÃŃ
Ġsuper ior
Ġsurv iving
Ġspecial ists
Ġsqu id
ĠLe o
ChÃ ¢u
ĠIran ians
ĠAn thony
Ġpoor ly
Ġ198 2
Ġcomb inations
Ġsum s
ĠBl air
Ġbar b
Ġtext s
Ġjo ining
lu id
ĠRob icse
Ġpath way
Ġsn eak
Ġprom ises
ĠSch w
Ġcop per
head s
eth eless
Ġemerg es
Ġmis ery
Ġintrod ucing
Ġtransl ating
Ġste pping
Ġdin osaur
ĠAll en
ĠRe agan
Ġvari ations
Ġemploy ee
Ġswe eping
Ġcat aly
Ġsurg ical
gr and
gr ass
Ġdeliver ing
ef in
Ġtrick y
Ġport ray
Ġsequ encing
Ġly mph
Ġdispl aced
Ġdocument ing
Ġax es
ĠEn viron
ĠphÃ¬ nh
Ġden ied
Ġavoid ing
Ġappl ies
ĠLu ke
Ġpet ition
ĠMal awi
irl wind
Ġflight s
Ġcateg or
Ġillness es
Ġhost ile
Ġattempt ed
Ġtun a
Ġmill isecond
ĠJo ey
ĠOn ly
Ġflo at
Ġgard ens
Ġcoast al
Ġindic ate
Ġmigr ation
Ġcartoon ist
ĠRep ort
Ġrecy cle
Ġvibr ating
Ġpil ots
Ġide als
cast le
Ġju ven
ĠFre ud
Ġeld ers
Ġphr ases
Ġacqu ire
Ġath lete
Ġscar city
ĠBu ilding
Ġconsist ently
PhÃ Ńa
Ġresil ient
Ġtank s
Ġflex ibility
Ġneut r
Ġthumb s
Ġbee keepers
Te chnology
Ġdesper ate
cil iation
ĠMiss ouri
ĠColl ins
Ġparas ites
Ġhousehold s
Comp anies
Ġeradic ation
Ġflour ish
Ġreson ance
Ġgee ks
ĠDu ol
Ġredef ine
Ġprotocell s
Gia i
Ġdiam eter
Ġtempt ation
Ġpurch ase
pro of
Ġimprov ise
Ġsket ch
Ġultra violet
Ġmaxim um
Ġupd ate
Ġunemploy ed
Ġunemploy ment
Ġbatt les
Ġamate urs
Ġaug mented
Ġorient ation
nut rition
Ġbuck et
lad us
Ġprose cut
Ġingen uity
Ġcarr ot
ĠNiger ian
Ġconstr ained
pos itive
Ġvel ocity
Ġdilem ma
Ġdiagnost ic
Ġpedest rian
ĠKent ucky
resist ant
Ġendeav or
Ġremitt ances
Ġthá»ī u
Ġhypoth et
Ġmixt ure
Ġelabor ate
ĠZet as
ĠClevel and
ĠHyder abad
ĠMozamb ique
ĠSisy ph
ĠEnce ladus
Ġrecove red
ĠRobicse k
2 4
7 00
9 5
A dd
B u
B iáº¿t
B á»ĳn
C áº£nh
E L
E R
E ventually
F L
H P
J K
J oseph
K ids
L á»ĭch
L arry
M á»©c
N T
N am
N á»Ĺi
O V
S inh
T ony
T ogether
V Äĥn
b ro
c Ã²n
d epend
f ight
i ens
i xt
j udice
m od
m ile
m etic
n o
n ame
o ven
p ite
p ound
p ox
r áº±ng
t ent
t aining
u ates
u per
z o
Ġ q
Ġ ÃŃn
Ġt read
Ġt urt
Ġc od
Ġc Ã¢m
Ġc ues
Ġc odes
Ġth Ã¬nh
Ġn ang
Ġn ai
Ġn Ã´n
Ġa er
Ġs áº¡c
Ġl á»ĳ
Ġl á»Ļng
Ġl iá»ħu
Ġm Ä©
Ġm um
Ġm iá»ĩt
Ġm asters
Ġb ust
Ġh Æ°Æ¡
Ġh áº¯c
Ġh unch
Ġh Ã¨n
Ġv v
Ġv ig
Ġv ending
Ġv icious
Ġk á»ĭ
Ġk iÃªu
Ġp ity
Ġp ond
Ġg á»ĵ
Ġg Ã´n
Ġg áº§m
at in
Ġd áº¥y
Ġd ates
Ġd áº«u
Ġd oses
Ġd uration
Ġnh áº½
Ġtr á»ı
Ġtr iumph
Ġch anh
an ol
Ġng áº§n
ot ent
es ters
Ġr Ã¡ch
Ġr Ã²ng
Ġr áº©y
Ġin ade
is c
is an
ĠI D
ĠI T
ĠI stan
Ġe ureka
ic ations
Ġph ao
us se
Ġbe ats
Ġgi ang
Ġx á»Ł
Ġre ndering
And rew
ang el
Ġst ew
Ġst airs
Ġchá» ķi
se a
ol ph
ir ms
ir atory
ĠC orn
ĠC á»§a
ĠT i
ĠT ide
ĠT iá»ģn
ĠT ulu
ĠT roy
ad ition
ĠM t
ĠM ao
ĠM ost
ĠM aps
ĠM olly
ĠM achine
ĠA TM
Ġcom a
Ġcom ed
Ġne o
ĠnhÃ ¬
ant ing
ÄĲ áº·t
ĠB all
ĠB áº£y
ĠB agh
ĠB yrne
ĠS ex
ĠS ev
ĠN ev
ĠN icholas
Ġj un
ac ent
art s
ĠH á»ĵng
ĠH avard
ĠH usse
Ġor b
Nh iá»ĩm
Ġsá» ¡
el i
el le
ect s
ie val
ĠG er
ĠG iff
ĠG owan
ich e
ĠL á»ĭch
ĠL ock
ci um
ĠD olly
Ġsu ey
ack er
ĠK id
ĠK á»¹
ĠK urd
ĠK alu
ĠK now
ĠÄĲ á»ĳi
ĠÄĲ Æ°a
ĠE iff
ĠE stonia
ĠR ufus
Ġdon ated
Ġen forcement
itt ee
ĠF arm
ĠJ ose
ĠJ amie
ĠTh ung
Ġdiff usion
Ġcl oth
Ġun re
Ġun ity
Ġun ite
Ġun equ
Ġno ises
Ġbu Ã´ng
ge b
irst ream
ro ots
Ġar c
ĠCh ap
ass y
ĠO z
Ġback s
ĠV erm
ec ess
Ġac res
ult ure
Ġpo ets
Ġ5 9
ru ck
Ġunder t
Ġres id
Ġbl essed
Ġbl oop
Ġdes ires
Ġad equ
ĠTr ust
ĠTr ade
Ġsc oop
ak sh
chn ya
Ġown s
ĠIn f
ĠQ uyá»ģn
Ġins ult
Ġ6 3
Ġ6 50
Ġcar pet
Ġcar cin
Ġba zÆ¡
Ġbas ement
Ġláº½ o
ĠAnd y
Ġinter section
Ġinter rog
Ġ7 3
Ġsl um
Ġsl avery
atch er
Ġschool ing
Ġbit ter
Ġ8 8
iss ipp
alth y
Ġnum b
Ġmod ified
Ġbi kes
Ġbi osphere
Ġbi och
Ġbi ologically
Ġcare ers
Ġcontr ad
Tr ang
Ġreg ist
Ġsk ip
ruct ive
Ġconf irm
vern ment
Ġorgan izing
sw ana
Ġenerg etic
ĠAl ger
ĠHe ather
ĠIs a
ĠHo ff
Ġmor ally
Ġmodel ing
Ġdef icit
ĠSh ould
Ġcertain ty
Ġpos ed
Ġremember ing
Ġmar riages
Ġass ure
Ġche f
Ġret reat
Ġwa ited
Ġview ing
Ġfront al
Ġprov ocative
Ġmarket place
Ġpred ators
Ġcal cium
uck ily
ĠCar gill
Ġfight ers
Ġpersonal ities
Ġfac ulty
Ġchem otherapy
Qu Ã¢n
Ġsuper computer
Ġsuper massive
Ġmult im
Ġ17 0
Ġspecial ist
Ġenc rypt
ĠAs s
ĠLe ague
Ġ198 7
Ġrecogn izes
ĠWorld W
Ġhot ter
ĠQu áº§n
Ġconcept ion
Ġtransform ations
Ġplant ing
Ġball ot
let t
Ġperiod ic
ĠBrazil ian
ĠMich oac
Ġsá»¥ t
Ġarm or
Ġ196 8
Ġep ic
Ġprim al
Ġintrod uces
Ġinflu ences
Ġcirc ulation
urg a
Ġpack aging
ĠDan ish
ĠDan ny
Ġwild erness
Ġcat al
ĠGiá» įng
ĠSe an
Ġassoci ation
Ġstar vation
ĠDar fur
Ġmatch ing
af i
Ġautom atic
Ġcand le
Ġadapt ed
Ġtown s
Ġ194 8
Ġbreast s
Ġliber als
ĠSau nders
ĠLib by
Ġnovel s
Ġsuc ks
Ġrecon ciliation
me ister
ĠGab riel
Ġsymbol ic
Ġble eding
Ġshut tle
Ġpartners hips
hold ers
ĠMad agascar
ĠMor gan
Ġque en
Ġmigr ate
Ġchart s
AR S
Pr obably
Ġreci pes
Ġfrustr ation
cipl inary
Ġappropri ately
Ġsetting s
Ġpure ly
Ġfle et
Ġqual ified
Ġacqu is
Ġve il
Ġroof s
Ġminim al
ĠBrook s
Ġagg reg
ĠDen mark
Ġobst acle
Ġstoryt eller
Ġhypothes es
Ġembarrass ed
Ġwash ed
Ġfrog s
Ġrush ed
ĠSen egal
Ġben ign
Ġrefer red
ĠJac ob
ĠJac ques
Ġheaven s
ĠAv iv
Ġclub s
Ġdatab ases
Ste ve
Ġevalu ate
Sp ace
wr iting
Ġrainforest s
Ġadopt ion
ĠFar mer
ĠBroad way
Ġcraft s
ĠBud rus
Ġupload ed
ChÃº a
Ġimper fect
Ġpref erences
ĠRad io
ĠShir ley
Ġsulf ur
Ġreef s
Ġrecept or
Ġ74 7
Ġnurt ure
ĠMod ern
Ġstatist ically
friend ly
Ġimmigr ants
Ġamate ur
Ġambig uity
ĠMot or
Ġcareg ivers
Ġdood ling
Ġspont aneously
ĠChe chnya
Ġmathematic ians
Ġprol ifer
Ġje ans
Ġcompreh ensive
Ġguid ance
KhÃ ³
ĠMid west
ĠJama ica
Ġcoinc idence
ĠConf erence
Ġsurviv ors
ĠWhit acre
Ġjewel ry
Ġconsp ir
ĠSecret ary
orient ed
Ġincom plete
Ġaccompan ied
Ġcreep y
Ġparag raph
ĠPhilipp ines
ĠViv ian
Ġlaund ry
spec ific
Ġcathed ral
ĠÄĳá»± Æ¡c
Ġspat ial
ĠAlt os
ĠDiam ond
fund ed
ĠSadd am
Sad ly
ĠCass ini
ĠSag meister
Ġseaw ater
ĠDuol ingo
Ġinade qu
ĠIstan bul
ĠBagh dad
ĠHusse in
ĠGowan us
ĠKalu za
ĠEiff el
aksh mi
issipp i
1 6
1 7
4 8
B re
C Ã¢y
C onsider
D ar
D ay
H O
H ope
J ack
J osh
L a
L uckily
M a
M at
M uch
N Äĥng
N iá»ģm
T á»ī
T ext
X Ã£
Y ves
b ag
b ab
b our
b ach
c Ã¡i
e or
g reen
k ill
l am
l ider
m al
n ormal
o a
s en
u ated
v ance
z s
¨ ng
á» «a
Ġt ips
Ġc inema
Ġth Ãł
Ġth Ãªu
Ġth áº¡c
Ġth roat
Ġn Ã²ng
Ġn áº·n
Ġn áº¥ng
ĠÄ Ĥn
ĠÄĳ Ãºt
ĠÄĳ áº«m
Ġa the
Ġs wo
Ġs essions
Ġl ent
Ġl áº¡y
Ġl emon
Ġm iÃªn
Ġm Æ°á»Ŀng
Ġb Ãº
Ġb unk
Ġb aker
Ġv ect
Ġw re
Ġo k
Ġo ve
Ġo wl
Ġk i
Ġk ar
Ġk Ã¨n
Ġp ies
Ġp iv
Ġp av
Ġp ension
Ġg áº·m
Ġd um
Ġd Ã¨
Ġd ash
Ġnh áº¥m
Ġtr Ãºt
en ment
ap es
es is
Ġr á»įi
Ġr áº¡c
Ġf est
or r
al one
Ãª t
is ive
it o
in ished
Ġvá» ĵ
om on
ll ular
Ġe g
Ġe ternal
Ġph u
Ġph áº«n
Ġqu o
Ġqu áºŃt
Ġta gs
Ġkh á»Ŀ
Th áº¥y
Ġtá» ©
Ġx Ã³i
Ġre w
id t
id al
am y
Ġcho re
Ġst arch
im ents
ol o
ĠC L
ĠT op
ĠT á»ĳi
ĠT ÃŃnh
ĠT own
ĠT urn
Ġlo Ã©
ad er
Ġab alone
od s
Ġcan n
Ġso fa
ĠM au
ĠM any
Ġwor ship
ĠA x
ĠA ward
ul ed
ul ously
ĠB it
ĠB in
ĠB Ãªn
ĠB est
ĠB iá»ĥn
ĠB ond
ĠB eth
ĠB usiness
ĠS ony
ĠS oph
Ġnot icing
ĠN ight
ĠN ath
ĠN ever
ĠN ext
ĠN SA
ĠN atural
Ġall ies
Ġj ury
art u
ear d
ĠH ills
ist ine
Ġsá» «ng
ink y
Ġal ter
ie ly
Ġint end
Ġma f
ĠP as
ĠP ine
ĠP ope
Ġbá»ĭ p
ĠL yn
ci le
act or
ĠD Ä©
ĠD ew
ib l
Ġthu á»Ł
are r
ĠK nee
Ġcomp r
iv ia
iv able
ĠE b
ĠE t
ĠE nd
ĠE ll
ĠE ven
ĠR ou
ĠR ead
ven ue
Ġbr ick
Ġdon ation
Ġman ages
Ġfe ver
ach t
ach ed
ach ers
Ġen ab
ĠF ly
ĠF air
ĠTh Æ°
ĠTh ink
ĠTh ings
Ġcl icking
Ġun int
Ġun lock
Ġun cover
Ġgr im
Ġgr ip
Ġgr ape
fe ller
Ġimp ressed
Ġstart ling
ĠCh áº¿t
ĠCh icken
ound ing
ĠO ffice
Ġdis connected
ĠV o
ĠV er
ĠV ill
ĠV el
ign ed
Ġres erves
Ġad ren
ĠTr anh
Ġhum p
Ġhum ble
ish n
ip e
Ġpre judice
Ġsc ram
Ġcount y
av in
Ġdec omp
Ġnhá» ķ
Ġsur plus
ric ane
Ġind ul
Ġind igen
ĠIn uit
end o
ri et
Ġ6 2
Ġsch olar
Ġtrans m
Ġbas ics
Ġ9 2
Ġ7 1
Ġimag inary
Ġlearn s
ĠNew castle
Ġcell ul
Ġmet ric
Ġfin an
Ġfin ishing
Ġread s
cept ible
Ġsmall pox
ah n
Ġed itors
Ġbus es
Ġreg ain
ĠAr iely
Ġconf usion
Ġstr ains
gg er
Ġorgan izational
Ġcou mar
ĠIs n
ĠPh Æ°á»£ng
Ġadd ressed
Ġcult urally
Ġphys i
br and
Ġhalf way
Ġlist ed
ĠGo ering
aw a
Ġbre w
Ġwatch es
Ġequ ipped
eg as
Ġcha otic
Ġspend s
Ġret r
Ġret ired
Ġwonder fully
Ġrad ius
ĠZ ipcar
Ġav atar
Ġabs urd
get own
Ġpot ent
Ġpot ato
Ġsurpr ises
Ġcoll agen
Ġoil ed
Ġpresent ing
sh aring
sh irt
Ġcal o
To Ãł
Ġprotect ive
Ġvar ieties
Ġarg u
Ġlim estone
Ġperform s
bor g
Ġexperiment ation
Ġrequ ests
ĠGe off
ĠAn ne
ĠMar x
Ġconsum ing
Ġrele asing
ĠSp ider
Ġrespons ibilities
yn man
Ġpress ing
Ġaren a
Ġlay ing
St ill
Ġsoon er
Ġpolic ing
Ġdepend ence
Ġprog ression
ĠSch war
ĠMc Chryst
Ġemp ir
ĠDe ath
Ġwish es
Ġsea food
ĠSte in
zz y
Ġclean er
Ġmist aken
Ġdin ing
Ġthreat ening
Ġprogress ive
Ġvirt ues
rof luid
Ġcollabor ator
Ġkil ograms
Ġemploy ed
ĠPaul o
ĠPaul ing
Ġaccept able
Ġgas oline
Ġdisapp ears
Ġcalcul us
erson al
Ġsequ enced
Ġdiagn ose
Ġpark ed
Ġmal nutrition
Ġord ers
Ġexh ilar
Ġgent le
Ġ194 7
Ġden y
Ġamb ition
Ġvisit ors
Ġrequire ment
Ġtor n
Ġbackground s
Ġvalu ed
Ġchick ens
Ġmamm ogram
Ġrout es
Ġmid st
Ġmort g
Ġcontribut ing
Ġalt ogether
ĠCho ir
Ġtun ed
Ġentertain ing
ĠSil ver
ĠTe le
ĠGal ileo
ĠNa omi
Ġattach ment
Ġtall er
Ġnegot iation
ĠFre eman
Ġmicros copic
Ġlibr aries
ĠPol and
ĠNan o
ĠJes se
Ġbon us
anth a
ĠGree ks
Ġshall ow
organ ic
Ġmel ody
ĠVen us
ĠCD C
Ġsuit case
Ġpray ing
Ġnegoti ating
ĠMil ky
Ġasse mbled
Cl ay
Ġastronom y
Ġdiscipl ines
ĠDemocr ats
Ġub untu
Ġremem bers
Ġinject ion
ĠSand y
ĠRepublic ans
Other wise
Ġdang ers
Ġassist ance
Ġdistract ed
Ġmyster ies
Ġknock ed
Ġcoord ination
Ġtraum atic
Ġexecut ive
Ġfulf ill
Ġfulf illing
Ġpref erence
Es sentially
Through out
Ġsket ches
ĠNico le
Ġ185 8
Ġphilanth rop
Ġcigaret tes
Ġdece ased
Ġdeliber ate
Ġsumm ary
Ġurg ent
ĠPre go
tz mann
ĠBot swana
Ġinher ited
Ġmarg ins
Ġdys function
Ġtact ics
Ġrecre ate
Ġfis cal
Ġastronaut s
Ġunst able
Ġtempor al
ĠGeor getown
Ġsummar ize
Jon athan
Ġobsc ure
Rec ently
Ġconfig uration
Ġartifact s
Ġswallow ed
Ġcalend ar
Ġexquis ite
Ġintric ate
ĠOw ens
roÃ §a
ĠNaj muddin
Ġprincip al
ĠHirsh horn
Interest ingly
Des pite
Ġuniqu ely
Ġskys cr
inid ad
Ġdiarr hea
ĠArm strong
Scient ists
Ġstagg ering
Ġhypothet ical
ĠhÆ°Æ¡ u
ĠGiff ords
Ġindigen ous
Ġcoumar in
ĠMcChryst al
3 3
5 9
A L
A ng
A round
D á»¯
G B
G u
H aving
H ello
I ran
J M
J ennifer
L M
L ess
L Æ°á»£ng
M W
M al
M ong
N athan
R on
R ad
R ock
R SW
S E
S ec
T y
T Ãłi
T iá»ģn
U E
X e
X Ã©t
a us
b á»ĳn
d iving
e er
f ill
f ashion
i ots
k ar
l ined
l ived
m illion
m eg
n els
p ical
r ics
r iter
s chool
t á»«
v o
v á»ģ
v old
w id
z es
Ġ Æ°á»Ľp
Ġt ilt
Ġt ales
áº ¢
Ġc Ãµi
Ġn Ã´i
Ġn inth
ĠÄĳ iá»ģm
ĠÄĳ áº¥ng
Ġa is
Ġs áº£y
Ġs áº¥m
Ġl as
Ġl ag
Ġl áº©n
Ġl ane
Ġl aughter
Ġm ock
Ġm attered
Ġb ent
Ġb áº§n
Ġv Ãª
Ġv Ã³c
Ġv oy
Ġw ages
Ġw allet
Ġo zone
Ġk ite
Ġk icked
Ġk iÃªm
Ġp ic
Ġp ale
Ġp oured
Ġg á»Łi
er ic
Ġtr Ã¢u
Ġtr ump
ou ston
Ġch á»ĩch
Ġto aster
en os
Ġr Ãłnh
Ġr áº¡ch
Ġr ings
Ġr áº¡ng
Ġr Æ°á»Łi
Ġr á»¥ng
Ġf ade
Ġf oster
Ġf aint
Ġin organic
ar ke
ar rett
it ivity
in ator
Ġy ard
ay a
ĠcÃ¡ u
ĠI NCRA
ll a
ow ler
Ġqu iz
Th u
Ġx ÃŃt
ang ed
am ous
ur u
ur ge
Ġra ces
im agine
ol ia
ol ulu
ir able
Ġan om
ith metic
st op
st ep
ĠC a
ĠC ao
ĠC ross
ĠC ash
ĠC ivil
ĠT u
ĠT iÃªn
ĠT ob
ĠT uc
ĠT weet
ĠT reating
th an
th en
Ġu h
Ġho áº¡n
Ġho oked
Ġho llow
ad y
ad vant
Ġab used
Ġpr aise
Ġcan xi
Ġso le
ĠM s
ĠM Ã´i
ĠM Ãª
ĠM art
ĠM un
ĠM ead
ĠM aur
Ġwor ries
ĠA ires
ĠA irstream
Ġcom ics
ÄĲ á»Ļ
ÄĲ áº¥t
ĠB at
ĠB á»Ŀ
ĠS T
ĠS ure
ĠS Ã¡ng
ĠS ach
ĠN ative
Ġfr ugal
Ġex it
Ġmá» ©t
ĠH ob
ĠH áº¯n
ĠH ipp
ĠH urt
Ġde ple
Ġde cept
Ġthere by
ab b
ab i
ab l
ab ian
un s
Ġjust ify
ĠP in
ĠP ia
ĠP ri
ĠP eters
ĠP inker
ĠP ascal
Ġsp ear
Ġsp ills
ĠG á»Ńi
ĠG erm
ĠG ogh
ĠL ow
ĠL ind
ĠL Ã¢m
ĠL unch
ĠL aur
ĠL agos
ĠD Ãłn
ĠD yson
Ġpl ugg
ost a
ast ing
ĠK ite
ĠK aren
oc ate
Ġcomp osed
Ġcomp ressed
ĠÄĲ áº·c
ĠÄĲ á»Ŀi
ous ands
ĠE den
ĠR un
ĠR idge
ĠR aj
ĠR ocke
Ġbr u
ĠcÆ¡ m
Ġper m
Ġfe e
Ġfe as
ĠF oot
ĠJ oy
ĠJ azz
ĠW y
Ġun ch
Ġar tery
Ġtrá»į t
ĠCh im
ĠCh uyáº¿n
pt a
Ġover t
Ġover weight
ound ed
ĠO ver
ĠO la
Ġdis advant
Ġback ward
Ġback up
ĠV ila
ens ively
Ġco ined
Ġam en
In ternet
Ġ4 000
Ġbl ues
ank ind
ict ional
Ġxu áº©n
ĠTr Äĥng
Ġnguy á»ģn
Ġpre con
Ġfl ock
Ġtho a
Ġhuman ities
Ġla ure
Ġla zy
he im
Ng Ã¢n
Ġhu h
be at
Ġbas eline
Ġgl ory
Ġgl oves
Ġrel uct
Ġwr ites
Ġtra ff
Ġinter sect
Ġent ers
Ġcons ists
ix on
Ġhand ling
iss ance
Ġdevelop er
Ġmod er
Ġmet an
Ġatt or
Ġlight ning
Tr Ã²
Ġeconom ically
Ġdem ol
Ġproject ed
Ġsupp ress
ĠNg uyÃªn
Ġstr ands
Ġanim ated
Ġcompan ion
ues day
Ġpass port
Ġrep et
Ġban anas
ĠHo ly
Ġreason ably
br ight
Ġ18 6
Ġdet er
Ġref ined
iter ate
ĠSh ack
Ġfore cast
Ġpar am
Ġfil ming
ocr atic
Ġsuccess es
Ġfollow ers
Ġconst itu
Ġplanet ary
ĠZ ero
ĠCan al
ĠEur o
Ġpot atoes
Ġcoll ision
Ġpred atory
ĠNo ah
enn ium
ann ica
Qu ite
Some how
bor ough
ĠPr od
Ġsurv ives
Ġcool er
yl oid
ChÃ ¢n
Ġap oc
Ġap artheid
Ġprofess ions
ĠEm manuel
Ġproduc er
Ġhon ored
Ġinvent ions
Ġtradition ally
Ġpath ology
Ġpoll s
Ġcy m
Ġge ographic
li ers
Ġlay s
Ġtri ple
Ġtri angle
Ġ197 2
Ġ197 6
Is rael
ĠMc M
Ġang els
ĠCl ub
Ġaccount able
ĠBrit annica
Ġblock ed
Ġadm itted
ĠNgh Ä©a
Ġdetect ing
Ġexplore rs
Ġnucle i
Ġcook ies
Ġquot es
igr uten
Ġreflect ing
ax is
Ġmir ac
Ġlaunch ing
ĠGu pta
ĠRight s
Ġurban ization
Ġcheck ed
af a
Ġprevent able
Ġhistor ian
sc reen
ĠFor ce
mm m
Ġdrink s
Ġattract ion
Ġconcl usions
Ġanaly st
Ġfing ert
ĠJul iet
Ġsad ly
Ġcrowd ed
Ġver ge
Ġver bal
Ġappl ause
Ġrecon st
Ġgrandm others
tr ans
Ġindustrial ized
Ġparad ise
atr ick
Ġmamm al
Ġhabit ats
Ġefficient ly
oca ust
ĠBab y
vention al
Ġbattle field
Ġflo ors
Un like
Ġadvert is
Ġstrang ely
Ġcrack ed
Ġroot ed
Ġreci pr
Ġfrustr ating
Would n
Ġcosm os
Ġide ological
Ġentrepreneurs hip
Ġreview s
ĠHans en
Ġdrag ged
hai red
ĠSl ow
Ġgrass roots
Ġminim ize
Ġsatisf y
ĠhÃ£ nh
ĠBu enos
ĠBol t
Ġoccup ation
Ġnit rogen
Ġpip e
Ġpoore r
Ġignor ant
cons in
cons um
Ġring ing
Ġinstall ations
Ġelev ated
Ġexplan ations
Ġrebu ilding
Ġcomment ary
ĠFin ance
ĠFin ancial
Ġstere o
Ġcircuit ry
ĠComm and
ĠSk id
Ġtransfer red
ĠMiss issippi
Ġdigit ally
ĠOp en
Ġairport s
ĠVietnam ese
Ġevalu ation
ĠMed ical
ĠRand olph
Ġattr ibute
Ġassist ant
ĠJord ans
Ġeradic ate
rol ux
Ġflour ishing
Ġintrig ued
Lu Ã´n
Ġpione ers
sec ond
ĠRoss y
Ġwip e
ĠDu ke
Ġcryst al
Ġmanufacture rs
Ġdegr aded
Ġfavel a
Ġrelax ed
Ġconven ience
Ġweekend s
Ġmurd ered
Ġroutine ly
ĠWi i
Ġemphas is
Ġcommod ities
Ġbiote ch
Ġskept ical
Ġtrail er
Ġambig uous
ĠHon olulu
Ġacknowled ged
Ġbump s
ĠMcG on
Ġmathematic ian
Ġscholars hip
Ġcultiv ate
Ġexplicit ly
Ġimmort ality
lean or
Ġeur o
ĠMas low
ĠLar amie
ĠNaz i
Ġoutd oor
Ġsquee ze
Ġlex ic
Ġartic ulate
Ġmá»ĭ n
ĠWis consin
Ġincarcer ation
ĠComp any
Ġunn ecess
ĠUt ah
Ġsymp athy
El izabeth
Ġcum ulative
Ġpestic ides
PhÃ¡ t
hr vold
Ġnick name
Ġbore al
ĠNik ola
Supp ose
Ġlos er
Ġaort a
ĠDD T
Ġmaneu ver
Ġelectromagn etic
ĠGlad well
Ġanalyt ics
Ġpneum onia
ĠHud son
ĠKap lan
Ġoffsh ore
Ġbacter ium
Seb astian
Ult imately
ĠSchw artz
ĠNev ada
Ġunequ al
ĠWorldW ide
Ġinadequ ate
ĠBit co
Ġmaf ia
ĠTob ago
ĠTuc son
ĠHurt igruten
ĠPeters burg
ĠRocke feller
0 5
B S
B Ã¬nh
B uá»ķi
C Æ°á»Ŀi
C ur
E ar
G en
H as
H iá»ĩu
L e
L ittle
L Ã²ng
L isten
M ic
M Ã¬nh
N in
O ut
O pen
P o
S how
S orry
S uch
T áº¡o
T á»©c
T á»«ng
T unes
V Ã¹ng
W ar
a ver
b ery
b ai
c re
g iving
h ops
l s
l ass
m ad
r and
r ia
s ens
v ol
w he
y ll
² m
Ġt Ãº
Ġc ables
Ġn Ãºm
Ġa qu
Ġs áº£i
Ġs Ãºt
Ġm á»Ļi
Ġm Ãºt
Ġm ash
Ġb os
Ġb áº¡t
Ġb á»¥c
Ġh ind
Ġh ilar
Ġw ore
Ġw ander
Ġw iring
Ġo w
Ġk ang
Ġp ul
Ġp ac
Ġp up
Ġg Ã²
Ġg Ãło
Ġg Ã¡y
at ra
Ġd uá»Ĺi
Ġd azz
Ġd áº«m
Ġd well
er artu
Ġch er
Ġch ew
os oph
Ġng Ã¡ch
ot ive
Ġr app
Ġf og
Ġf ont
Ġf ocal
or ia
Ġin qu
Ġin ert
it ter
it ations
Ġy um
ĠI V
ic ism
Ġph ai
Ġqu á»³
Ġgi Ã²n
Th á»ĭ
Ġtá» ĥ
Ġx Ã´ng
ur ia
Ġra ft
Ġst agn
Ġst ole
Ġdo d
im o
op ening
Ġgiá» Ł
Ġli p
Ġsa bb
ĠC á»ķ
ĠT est
ĠT reat
ĠT iáº¿p
ĠT NC
ĠT ijuana
ĠT uesday
Ġlo Ãł
Ġlo ver
Ġlo aded
Ġab d
od ka
Ġcan e
Ġse ize
Ġsh o
Ġsh red
Ġsh atter
ĠM ess
ĠM oney
ĠM ister
ĠM ission
Ġhe ck
ter ol
ĠA ung
ÄĲ Ã¢u
ÄĲ Æ°a
ÄĲ Ã¡m
ĠB ul
ĠB Ã³ng
ĠS á»ĳng
ĠS ting
ĠN ation
Ġfr iction
Ġfr aud
ag matic
ac ities
ight s
ĠH Ã¡t
ĠH annah
ĠH istory
ind ustrial
ia h
ink ering
ie g
un o
un ky
Ġthem es
ĠG ould
ĠG ame
ĠG rey
ĠG ranny
her ic
ĠL A
ĠD ennis
Ġpl ankton
Ġtim ber
Ġtim eline
Ġsu ed
Ġsu its
ib les
ĠK w
ĠK iáº¿n
oc amp
oc co
Ġcomp lim
iv als
ĠÄĲ o
ĠE ames
ans on
ĠR áº±ng
Ġem body
Ġexp ands
app ropri
Ġper vasive
ud ge
res pect
Ġdon ate
Ġdon ations
Ġfe es
Ġen vy
ĠF I
ĠF und
ĠJ ake
ĠJ obs
Ġany time
ĠW as
ĠW ild
ĠCh and
ĠCh ev
ĠO nce
Ġback ed
ĠV as
Ġfirst hand
Ġac ute
Ġcont ents
Ġam put
Ġmo ist
ick y
Ġbl ob
Ġad ul
Ġbo oth
ĠTr Æ°á»Łng
ĠTr ib
ĠTr uth
Ġreal izes
Ġcomm ands
Ġpre y
ĠY ear
ĠY ah
Ch eryl
Ġsc aling
Ġsm ugg
Ġinc on
av ors
we il
Ġtho i
Ġins urg
Ng Ã´i
Ng Ãłi
az ing
az ar
Ġtrans mitted
ĠAnd roid
Ġent ities
Ġsl aughter
Ġsl ogan
Ġkid neys
Ġcommun al
Ġcommun ist
Ġcell phone
iÃª t
Ġmon k
Ġext ensive
Ġfin ite
Ġsecond ly
Ġexpl oded
Ġed iting
Tr ÃŃ
Tr ans
Tr á»«
Ġter awatt
Ġdem ent
ĠnghÃ ªnh
Ġsub sequ
Ġsub conscious
Ġpop ped
Ġpop ping
cer pt
ĠX Ã£
ĠX Ã¢y
ĠX DR
ĠWh ole
Ġaut obi
Ġban ana
Ġphot on
Ġred uces
Ġcur ator
Ġphys iology
Ġref ers
Ġenvironment ally
Ġcam els
Ġprop ort
Ġdef ines
ĠSh aw
Ġtest im
Ġtre k
Ġpublic ation
As k
Ġpos es
Ġpar alysis
Ġfil es
Ġindivid ually
Ġpast ed
Ġche ated
Ġret ain
Ġprogram mer
Ġprogram med
Ġinn ate
Ġview ers
Ġprov iders
ract able
Ġbott len
Ġident ification
Ġoper ator
Ġdel ivers
ming ham
Ġsens ible
Ġincl usive
ipp er
Ġru pe
Ġdirect ors
Ġcommon ly
Ġbreak down
Ġsuper star
Ġleg ally
crib e
Ġconv iction
Ġcomb ining
Ġaffect ion
Ġeye br
Ġcivil ians
li u
Ġsn akes
Ġtrack ed
Ġ197 4
Ġ197 8
Ġdevelopment al
Ġworth while
Ġcop ied
ĠMc L
Ġrepl ied
ĠAd vent
Ġvol umes
Ġvol can
Ġbed s
Ġreact or
Ġcross es
Ġdiv ine
Ġep iph
Ġmeant ime
ĠAll o
ĠShe ila
ĠSm all
win ning
ĠPal in
Ġdetect ors
Ġbank ers
Ġnan os
Ġfa ult
Ġpack aged
Ġcitizens hip
oun cing
ĠBar n
ĠBar bie
ĠNe ur
Ġtrib ute
Ġassoci ations
Ġexpress ing
Ġexpress ive
Ġspeech es
Ġoffic ers
Ġpen al
ĠAustr alian
Ġcondition ing
ĠPhil ips
Ġsurround ings
ĠFor bes
Ġmicr oc
iot ic
Ġliber ty
Ġax ÃŃt
ĠMe chanical
Ġindepend ently
Ġrecon nect
Ġrecon cile
Ġvolunt ary
ĠTor osaurus
Ġcommercial s
Ġscr ib
Ġham mer
ĠSu u
Ġmetaph ors
Ġdemand ing
ĠEvery one
ĠEvery thing
Ġembr aced
Ġveget arian
ĠEve lyn
Ġcorpor ation
Ġgrab s
Ġfrequ ent
Ġconcentr ations
Ġaccident ally
ĠMor occo
ĠInst agram
ĠMand arin
uls ive
Ġcounter part
Ġindic ators
Ġreci p
Ġvibr ant
Ġrein for
Ġmicrob ial
Ġmanip ulation
ĠPol ice
Ġfu zzy
Ġstock s
Ġrig orous
Ġclaim ed
Ġsatisf ied
ĠBlack berry
wa it
Ġpip es
Ġpun ish
Ġpump s
PhÃ ¢n
Ġadj acent
Ġharvest ing
Ġunh e
Ġattend ing
Ġdevast ated
Ġprem ature
Ġtrig g
ĠIm agine
Ġpill ars
ĠRock ett
zer bai
Ġmim ics
ĠKy i
ĠRepublic an
Ġelimin ating
ThÃ¡ ch
Ġflood ing
Ġdistrict s
ĠSome body
Ġscenar ios
Lu áºŃt
Ġpione er
ĠCamp aign
conf idence
Ġcorresp onds
Ġwhis key
Ġcryst all
Ġcryst als
ĠMount ain
Ġexecut ed
Ġhol iday
Ġfung us
Ġobl iv
Ġbiod egr
ĠShir ky
Ġsulf ide
Ġpersist ent
Ġrecept ors
ĠnhÃº n
yd ney
Ġpir ate
Ġdisag re
Ġphthal ates
ĠAg ency
ĠCont rol
Ġguerr illa
Ġspont aneous
Ġdecl ared
Ġdrown ing
Ġmac ro
ĠBow l
Ġimmort al
ĠTitan ic
ĠSnow den
Ġpollut ants
mun ications
ĠLuc y
Ġoverl ap
ĠWiki L
Ke ep
Ġhipp ocamp
Ġinex p
Ġrevel ation
Stud ents
Ġstabil ize
Ġforb id
ĠElect rolux
Ġprev ail
Ġseas ons
Ġdisg usting
Ġnob le
ĠBand ura
Christ opher
Ġpriorit ize
ĠBry an
Ġorph an
bet a
epr int
Ġscann ed
Ġmarsh m
erend ip
ĠSomet imes
ĠBeat les
Ġcockro ach
Ġster ile
Ġunimag inable
ĠHeb rew
Ġdepart ments
Ġgravit ational
Ġrhet oric
ĠCapt ain
ĠSisyph us
Ġcatal og
Ġconspir acy
fashion ed
Ġsabb atical
zerbai jan
. &
3 8
A pp
B i
B el
B á»ı
B áº£o
B Ã¡o
B eh
C R
C ard
D F
D em
D á»ĭch
F ifty
G ab
G reen
H áº¡t
I CE
I PP
J ean
K ir
M Æ°á»Ŀi
N ature
O ft
P es
S ai
S phere
S arah
V ideo
X Ã¢y
b áº±ng
b ecca
c Ã¢u
c up
d in
d ale
f ting
g ate
h asa
i kes
j ad
k ers
l ah
m at
n is
n ational
o il
o oh
o lyn
r d
r ated
s aw
t an
t ra
u ci
v ald
z ee
z ka
µ m
Ã ¶
Ã Ķ
Æ ł
à ¸
Ġ Ã¡t
Ġ áº£m
Ġ Ãºt
Ġ uyÃªn
Ġt il
áº ¨n
Ġc yn
Ġth Ãª
Ġn in
Ġn á»įc
Ġn onsense
ĠÄĳ Å©a
Ġa wards
Ġs ap
Ġs ie
Ġs Æ°ng
Ġs ane
Ġs ought
Ġl ith
Ġl anh
Ġl akes
Ġl áº«m
Ġm un
Ġm ocking
Ġb ail
Ġb ands
Ġb iáº¿ng
Ġh orn
Ġh ats
Ġh ills
Ġv Äĥng
Ġv Ã£n
Ġv ascular
Ġthe ft
Ġi Tunes
re as
Ġk in
Ġp ist
Ġp est
Ġp aj
Ġg Ã¢n
at on
at isf
Ġd orm
Ġd á»ĳt
Ġd ental
Ġd ude
Ġd raft
er in
Ġnh áº£m
Ġtr unk
Ġch en
Ġch áº¯t
Ġch unk
os lav
Ġng Æ¡
Ġng áº¥t
Ġr á»ĩ
Ġr Ã¡n
Ġr ows
Ġf us
Ġf ictional
al an
is ual
ar atus
it is
it iba
ay an
ĠI x
Ġwe ts
Ġta gged
Ġbe ans
ut on
ut ing
ut ure
et to
Ġha z
am er
am en
ur ve
ur ich
ig al
ig inal
Ġcho les
Ġst ated
Ġst oring
Ġchá» Ńng
op athy
Ġli ed
ver ted
ir med
Ġsa ves
st ock
ĠC H
ĠC at
ĠC eline
Ġho o
Ġho Ã¡n
Ġlo ops
od ops
Ġpr iest
em ia
Ġas h
Ġso y
ĠM ong
ĠM áº¯t
ĠM ee
ĠM AS
ĠM itra
Ġhe ated
ĠA I
ĠA ld
ĠA bsolutely
il ocks
ul ates
Ġhá» Ŀi
ĠB os
ĠB og
ĠB ai
ĠB ue
ĠB rent
ĠB eck
ĠB irds
ĠB everly
ĠS ad
ĠS ue
ĠS áº¯p
ĠS af
ĠS imp
ĠS uther
ĠN R
ĠN ap
ĠN á»Ļi
ĠN ixon
Ġj ur
Ġex ceed
Ġex cerpt
Ġpe l
ĠH Æ¡n
ĠH áº§u
ĠH AL
Ġde lete
ate l
est ine
est eem
if ted
if teen
el ing
ob ia
Ġal pha
Ġout break
Ġint roverts
un ned
Ġma u
ĠP R
ĠP or
ĠP orter
ĠP ilot
ĠP atel
Ġsp ores
ĠG áº§n
ĠG ib
ĠG round
ĠG ell
ĠG iÃª
ĠG roup
ĠL ion
ĠL áº¡i
ĠL im
ĠL ast
ĠL oÃłi
ĠL inda
act ly
ĠD áº¡
ĠD od
ĠD ry
ĠD own
ĠD ror
ĠD har
Ġpl um
Ġpl ung
ib i
ĠK i
ĠK an
ĠK ur
ĠK ant
ĠK ind
ĠK ros
ĠK erry
oc zka
Ġcomp act
iv ation
ai res
ĠÄĲ Æ°á»Ŀng
ĠÄĲ áº¡t
ĠR an
ĠR och
ĠR IS
ĠR agu
Ġbr ow
ud a
Ġlu áº©n
ach i
ĠF ear
ĠF ez
ĠF owler
ĠJ et
ĠJ ans
ĠJ eremy
ĠTh atcher
ĠW u
ĠW ong
ĠW ag
ĠW ars
Ġun ion
Ġgr ams
Ġimp rob
Ġimp rison
Ġar ose
Ġar ithmetic
Ġpart ially
ĠCh Æ°Æ¡ng
ĠCh Æ°a
ĠO xy
Ġdis ruption
ĠV á»¥
ĠV Å©
ĠV ald
ĠV ideo
ĠV egas
ens ed
sel s
ell ers
Ġam yloid
Ġres ort
Ġres olved
Ġres erv
Ġres erve
ick lider
ict ure
uc king
Ġ10 3
ĠTr ue
Ġhum ankind
ish na
ark o
form ed
ert s
Ãµ m
ĠY or
ĠY ug
xt in
Ch á»©ng
Ġsc ope
Ġsc aled
Ġsm iles
Ġinc omes
ak u
ĠNh iÃªn
we ek
Ġdec ode
ile ver
Ġfl ed
Ġapp oint
Ġapp aratus
ĠSt at
ĠIn stead
Ġsim ulate
Ġinv iting
Ġrem oving
Ġcreat ors
Ġins pect
Ġchu á»ĵng
Ġlast s
az o
Ġvá»¥ ng
Ġgl owing
Ġrel ie
Ġinst ances
ĠAnd es
Ġinter gal
Ġinter depend
Ġ7 9
Ġent it
ather ine
Ġacc used
Ġmin isters
Ġbi of
Ġmed al
Ġlight er
Ġngá» Ńa
Ġcent imeter
Ġ100 00
ative ly
oy d
Ġbeh aving
Ġgener ator
Ġposs ess
Ġresp iratory
ĠAr ts
Ġsub mar
Ġsub mitted
Ġconf erences
Ġstr okes
ĠUn cle
ĠUn ilever
gg y
á»© t
Ġform ats
Ġrep ly
ĠkÃ© n
How ard
ĠInd ex
Ġdist orted
Ġopp on
áºµ ng
Ġsign ing
Ġgu ilt
Ġvir gin
Ġair line
Ġchar ism
Ph ot
Ġref erences
Ġeffect iveness
Ġiss ued
Ġmar king
Ġche er
Ġcollect ions
Ġcontin ually
Ġwa ist
Ġfree way
Ġconst itution
Ġincre mental
Ġfocus es
ĠZ ambia
Ġprov ider
Ġthá»¥ c
ĠCan cer
Ġthird s
Ġbuy s
Ġz o
Ġliter ary
sh ine
Ġcal or
uck er
uck ed
Ġmain taining
Ġvar ied
Ġtem pl
Ġpsych iatric
ann es
Ġlim itation
Ġstat ue
mb ling
ĠEurope ans
bor azo
Ġsuper power
ĠPr ot
ĠPr ime
ĠHar vey
ChÃ ºc
Ġ21 00
Ġ198 1
ĠMar c
itut es
Ġrele vance
ĠIsrael is
Ġstructure d
son ian
Ġpress ures
Ġfire fight
Ġsmart est
ug ata
Ġpost s
Ġinvent ing
Ġrich ness
Ġpoll ination
Ġsn ap
Ġsn aps
ĠQu áº£n
ĠMy hrvold
Ġarr og
Ġ197 7
Ġslow ed
Ġpredict ing
Ġavail ability
Ġson ic
ĠAt kins
Ġcompet itors
ey e
Ġfunction ality
uct ions
Ġrece ives
Ġdistr ibute
Ġrevolution ize
ĠKh á»ĳi
ĠKh mer
Ġ196 3
Ġ196 9
Ġsearch es
Ġcris es
Ġmis con
ĠGr iff
Ġste er
Ġste ering
ĠWar ner
ĠOr nish
Ġconsider ation
ĠRe becca
Ġrain fall
Ġvari ability
Ġpin point
Ġmethod ology
Ġsyn c
Ġexplore r
Ġclos et
Ġnan ot
Ġsupposed ly
ĠPaul a
ĠFl ore
ze iro
Ġcook ie
Ġbal con
Ġthr illing
ogen ic
Ġeth anol
Ġmal ware
Ġcelebr ation
Ġcelebr ating
Ġspect r
Ġautom ated
bu ilt
Ġsimpl istic
Ġselect ive
ĠGreen ville
ĠFrank en
Ġreve aling
Ġhusb ands
Ġliber ation
ores cent
Ġut ility
Ġgift ed
Ġforg iveness
Ġrough ness
uh an
ches ter
Ġjoy ful
ĠPer cy
ĠLat inh
Ġscr ap
Ġtremend ously
Ġburn s
atr ice
ĠLeg os
Ġmid night
Ġbul bs
Ġmosqu e
mark s
ĠMon key
Ġhell o
ĠEx pl
Ġextract ed
Ġinvestig ating
ĠRes nick
Ġhorr ific
Ġfrag mented
Ġtit les
ĠKho áº£ng
Ġkilomet er
Ġpurs uing
ĠJan ine
Ġdesert s
Ġcosm ology
ĠSyr ian
bl owing
ĠGold en
ĠGold man
ĠGold ilocks
ĠPort ugal
Ġreprod uctive
Ġnavig ation
Rob ot
Ġancest or
Ġbill board
Ġcritic ized
Ġcritic ism
Ġpray er
Ġcompar able
Ġsandwich es
Ġassign ed
ĠxÃ© n
Ġdesk top
Ġmemor able
ĠVictor ian
Ġcollaps es
ĠMill ennium
Ġperman ently
Ġdistinct ive
ĠSen ate
Ġregener ative
Ġmeg awatt
Ġdigit ize
Ġpasseng ers
Ġelimin ated
Ġdepth s
Ġclus ter
Ġinterf ere
Ġintention al
ĠiPod s
Ġanticip ated
Ġeradic ated
Ġfinger print
Us ually
Ġpupp et
ournal ist
ĠIr ag
Ġexcl usive
ĠBud ap
Ġdelight ed
Ġveter an
Ġlegis l
Ġdegr ad
part y
Ġobl ig
ĠKu wait
ĠKam en
ĠCopern ican
Ġbreakthrough s
Ġcert ified
Ġnurt uring
Ġtrop ics
Ġgang s
ĠHol ocaust
Ġmaxim ize
Ġinvolve ment
heart ed
Ġinsist ed
Ġpubl isher
Ġarrang ement
ĠBo ys
Ġbroadcast ing
Ġcommod ity
Ġurg ency
ĠCru zeiro
Ġarrow s
ĠEv ans
Ġstimul us
ĠIP CC
Ġbutter flies
Ġsuburb s
Jul ian
ĠRich ards
ĠVal ent
Ġspo of
Ġstrict ly
Ġmarg inal
Ġadvent ures
ĠRh ode
Ġincorpor ate
lend e
ĠDig ital
Ġoutrage ous
ĠEar le
Ġsubstant ial
ĠAust in
redd ies
Ġintrins ic
Ġmillenn ia
Ġlifel ike
Res earch
ĠAlber ta
amil iar
angu age
Ġsovere ign
Ġillum ination
Ġjack et
ĠYellow stone
Ġvag ina
Ġpostc ards
Afric a
Ġmant ra
ĠCreat ive
ĠMove ment
ĠRobb ins
Ġgym n
ĠSuf i
Ġblu eprint
undred s
Ġasth ma
ĠMard uk
ĠMak oko
Ġmotorcy cle
ĠMO OC
ĠKa aba
ĠChop in
Ġmillisecond s
Ġjuven ile
geb ra
Ġadequ ate
Ġregist ered
ĠHoff man
Ġencrypt ed
Ġlas ers
ĠSach s
ĠMcGon igal
Ġdement ia
Ġunhe althy
Ġhippocamp us
ICE F
Ġcholes terol
ĠSimp son
ĠSuther land
ĠDror i
ĠKros oczka
ĠVald ez
ĠYug oslav
Ġintergal actic
9 7
A ut
B ab
B áº£y
C o
C ertain
D áº§u
D Ã¹ng
E P
E ve
H z
H enry
H undreds
I d
J E
L B
L P
L Ãªn
L ewis
M Ã´i
M áº¥t
M á»Ł
M ike
P ros
P olit
S er
S cript
T á»ĩ
T áºŃp
T áº¡p
c hÃ
c ore
c use
c iss
c ats
c ano
d uc
f it
g on
g ic
g row
h ic
h ib
m eter
o cial
p se
p ose
r ine
r ise
r ared
s u
v ity
y our
¬ a
Ń n
á» ¡
Ġt áº¥u
Ġt Ãºp
Ġt oug
Ġc áºŃt
Ġc á»Ļi
Ġc ease
Ġc ops
Ġth iá»ĥn
Ġth uyÃªn
Ġn ung
Ġn aught
Ġn Ã¡u
ĠÄĳ áº¥m
Ġa pt
Ġs Ãªn
Ġs Ã²
Ġs áº£o
Ġs á»¥c
Ġs erendip
Ġl áº§u
Ġm ÃŃ
Ġm our
Ġm Äĥng
Ġm ates
Ġb ounce
Ġh Ã³t
Ġh iring
Ġh áº±n
Ġh unter
Ġv ow
Ġv Ã¡ng
Ġv áº¥p
Ġw i
re a
re z
Ġp ess
Ġp ets
Ġg ad
Ġg áº·t
Ġg oss
Ġd áº·n
Ġd imin
Ġd ye
Ġd aunt
ou fl
Ġch á»¯ng
Ġch iÃªu
Ġch ee
os em
on i
ing le
an ing
Ġng Ã³
Ġng áº¥m
ap a
ot r
Ġr á»Ļ
Ġr Æ¡
Ġr ipp
Ġr áº«y
Ġr ipped
Ġr anging
Ġr á»¥i
Ġf ission
al o
al am
Ġof tent
Ãª c
is ch
is ure
ch a
in ates
ĠÄĳá» ħ
om ic
as ma
ĠI C
ĠI ng
ĠI ow
Ġe ager
Ġe cho
Ġph á»ĵn
ow att
ut ter
ut ers
Ġre b
Ġre use
id el
id ental
ig ers
Ġst ain
Ġst umbled
im ps
op t
op ran
op edic
Ġli vel
ver ing
ol ate
ir ational
st ick
ĠC áº§n
ĠC ir
ĠC áº£nh
ĠC itiz
ĠT ul
ĠT á»Ń
ĠT ox
ĠT umor
Ġho Ã³c
Ġlo ang
Ġlo Ã£ng
Ġlo gging
ad ema
od or
Ġpr ince
Ġso ber
ĠM ust
ĠM alth
ĠM ills
Ġwor n
So cial
Ġhe el
Ġhe ars
ĠA il
ĠA zerbaijan
il ion
il ibri
ill o
ul ent
ĠB uá»ķi
ĠS es
ĠS it
ĠS ide
ĠS Ã¡ch
ĠS á»¹
ĠS pr
ĠS ergey
ĠN ad
Ġex ile
Ġpe ar
ĠH áº¡
ĠH ur
ĠH ers
ĠH appy
ist ance
Nh á»Ľ
Ġ2 20
el ah
ink ed
Ġal gebra
Ġout ward
Ġint ractable
Ġma j
ĠP ink
ĠP sych
Ġsp raw
Ġsp iders
Ġbá»ĭ a
ĠG uy
ĠG ross
ĠG mail
Ġkho áº£
Ġkho anh
Ġkho Ã©
Ġkho Ã¡t
ich a
Ġthink er
ĠL áºŃp
ĠL ead
ĠL isa
ĠD C
ĠD ur
ĠD ata
ĠD elt
Ġpl aque
Ġact ed
ast ically
Ġtheir s
Ġthu nder
iz able
ĠK áº»
ĠK oh
ĠK á»ĥ
ĠK á»·
oc y
oc ated
Ġcomp ress
ĠÄĲ áº¥y
ous y
ĠE p
ĠE at
ĠE bert
ĠE leanor
Ġle nd
Ġle isure
ĠR ica
Ġbr akes
Ġag rees
Ġfe ared
ra it
Ġen rich
ĠF ight
ĠF oster
ĠF err
ĠJ ihad
ĠJ essica
ĠTh á»Ń
ĠTh ird
Ġcl ash
Ġcl apping
Ġcl oned
ĠW alt
Ġun ple
Ġun con
Ġun ited
Ġun think
Ġun aware
Ġno i
Ġbu nd
Ġimp osing
own ed
ĠCh u
ĠCh á»ĳng
pt ic
Ġá» ľ
Ġover d
ass ador
Ġdi ary
Ġright ly
Ġdis sect
Ġdis abilities
ĠV on
ĠV ua
ign ific
Ġac ry
Ġkind ly
Ġunder p
Ġunder cover
Ġbl ows
Ġbl obs
ĠU C
ĠU nder
uc cess
ĠTr iá»ĥn
ĠTr inidad
ish man
Ġdown stairs
ĠY et
ĠY osem
ne g
xt apos
Ġsc our
Ġsc are
ars on
Ġvi Ãªc
Ġcr ow
Ġcr ust
Ġcr oc
Ġcr ude
Ġcr icket
Ġfl ipping
Ġhuman e
Ġhuman oid
Ġapp rent
ĠSt art
ĠIn side
Ġbel t
Ġend ow
Ġ6 000
Ġev olves
Ġcar bo
Ġcar bs
Ġmean while
Ġlast ed
Ġexam s
Ġrel ational
Ġrel ativity
Ġwr ist
Ġfound ing
Ġsl ing
Ġsl ate
Ġtu Ã´n
Ġbit es
Ġacc ord
Ġke en
Ġquestion ed
Ġbi oph
Ġmed ieval
ĠChÃ ¢n
oy le
Ġca ffe
Ġproject or
Ġcountry side
Ġel ites
Ġlar v
Ġreg imes
bo at
ĠNg uy
ĠNg Æ°Æ¡i
Ġstr at
Ġstr ive
Ġinf rared
ĠAl lende
ĠWh irlwind
Ġcou p
Ġpres cription
ĠHe h
ĠHe art
ĠPh ong
aps es
Ġhist ories
Ġadd icted
Ġey ew
Ġprot on
Ġprot esters
Ġmark ed
Ġrest or
Ġrest oration
Ġpain ts
Ph ong
most at
ape ut
arth a
Ġequ ator
Ġcond em
Ġworks hop
Ġass ault
Ġtool box
Ġprogram m
Ġfund ers
Ġpay ment
Ġfree ze
to lem
Ġmic rop
ik h
Ġprov in
Ġnon etheless
Ġaud ition
Ġaud itor
urs day
Ġdeal t
Ġz ip
Ġz oning
Ġmiss ions
Ġland m
Ġwind mill
Ġsens itivity
Ġshort age
ĠNo el
Ġant id
Ġpract iced
Ġstat ements
Ġtrad ed
Ġbeginning s
ĠCon c
Ġmult it
Ġcarbon ate
asc a
ĠBe fore
Ġjo ins
Ġpoll inators
Ġcivil ian
St ep
St ories
Ġarr ives
ĠThÃ¡ p
Ġemail ed
Ġguess es
Ġprom pt
Ġprom oting
Ġtele phones
ĠAd ams
Ġvol cano
ĠAt t
Ġrece iver
ĠHa idt
Ġfair y
Ġsá»¥ n
Ġparticip ated
put ers
Ġclean ed
Ġunf inished
Ġneighbor ing
ĠOr kut
Ġconsider ably
Ġfix ing
Ġvirt uous
Ġther mostat
Ġcollabor ating
Ġcirc ular
Ġswe ats
oe ing
Ġsecret ly
KhÃ¡ i
Ġbal ancing
Ġsus hi
Ġsus pected
Ġsus ceptible
Ġcalcul ators
ĠWestern ers
igr ade
Ġrespect s
Ġoptim ize
ĠPl an
Ġoffic ially
Ġstandard ized
ĠAustr ia
Ġsurround s
Ġprevent ed
Ġspaces hip
Ġnho i
Ġnho Ã¡ng
Ġcoun cil
Ġhall way
Ġvast ly
Ġfat ty
Ġtens ions
Ġclick s
Ġver bs
tr ack
Ar istotle
ĠNor se
Ġadvant ages
ĠNhÃ ³m
Ġtax pay
ĠMal colm
Ġtour s
Ġchick s
hy dr
Ġbul lets
Ġillustr ation
Ġquant itative
Ġterror ist
ĠAh mad
Ġinvestig ative
Ġappreci ated
Ġiron ically
ĠMor ning
Ġhero in
Ġconduct or
ĠTe ch
Ġcounter intuitive
Ġimplic ation
Ġtransformation al
Ġacad emics
ĠThÃ Ń
Ġsight ed
Ġacceler ated
Ġvibr ate
Ġvibr ations
ĠAnt on
Ġju xtapos
Ġdrag ging
Ġmanip ulated
Ġsevere ly
ograp hing
car bon
ĠPol ar
Ġstock p
Ġshr ink
ĠBol tzmann
Ġoccup ied
wa ves
Ġuns ustainable
Ġsem ester
Ġnegoti ations
Ġinstinct ively
Ġshell s
Ġfootprint s
Ġastronom ical
Ġwings uit
Ġfert ility
Ġmeg a
Ġvert ically
ĠAv atar
ĠHill ary
Ġguarant eed
Car l
ĠSir i
Ġconserv atives
Ste fan
Ġfool ed
ĠCom puter
Ġreson ate
Ġhat red
Ġfirm ly
Ġsynthes is
Ġanthrop ology
Ġanthrop ologist
Ġenzy mes
Ġdump ed
ĠMount ains
Ġmanufacture r
Ġaes thetics
Ġsin ister
ĠIg bo
Ġdiam ond
Ġkáº½ m
Ġpersu ade
ĠPlay er
ĠLo an
ĠKu z
ĠMcC ain
Ġfertil izer
Es pecially
ĠnhÃº t
Ġsettle ment
Ġnonviol ence
Ġupd ated
Ġrestr icted
Ġdeliber ately
Ġtooth brush
Ġneuroscient ists
Ġchec ks
Ġcra ving
Ġthylac ines
ĠGall ery
Ġinher it
Ġcub ic
aby te
ĠGene va
Ġsurviv or
ĠBir mingham
ĠFe ynman
ĠFer ris
ĠArch itect
urf ing
Ġintrins ically
Ġunderest im
Ġunderest imate
Ġdens er
ĠCS F
ĠFa iza
Ġsched ule
Ġinfer ior
Sm all
Ġoffe nd
ĠCla us
Ġundergrad uate
ĠPale xtin
Ġimpl ants
Ġthorough ly
ĠAchill es
Ġrac ism
Ġware house
Ġupgr ade
Ġtriang les
Ġlou der
ĠBalk ans
ĠServ ice
ĠLabor atory
Ġoverlook ed
Ġsocio economic
Ġrend ered
ĠHoll and
Ġcoch lear
prop ortion
Ġcataly st
Ġtread mill
Ġstew ards
ĠAlger ia
Ġacquis ition
Dar win
Ġwre ck
ĠRou ge
Ġenab ling
Ġcellul ose
Ġfinan cially
Ġexhilar ating
ĠGerm ans
Ġcym atics
Ġfingert ips
Ġreconst ruction
Ġbos on
Ġhilar ious
ĠMcL uhan
ĠAllo Sphere
Ġobliv ious
ĠWikiL eaks
Ġmarshm allow
Ġrá»ĩ p
Ġimprob able
ĠBudap est
Ġtoug her
Ġpess im
Ġoftent imes
ĠIow a
ĠMalth us
ĠAil en
ilibri um
ĠDelt a
Ġunple asant
ĠYosem ite
3 7
A nt
B ÃŃ
C or
C ynthia
D U
D is
D NA
D ean
E ur
F ort
F ree
F red
G iven
H ad
H á»Ļi
J O
J ane
K n
L S
L ater
M L
N elson
P sych
P ublic
S K
S us
S il
S ev
S eth
S cience
S ylvia
T O
T Ã¬m
T áº§m
W atch
W orking
b in
b art
b and
b ird
b up
c m
c ling
c onds
d oor
d aughter
d ef
d esign
g ars
h an
h ome
h ak
i hood
k u
k ina
k ho
k ley
l ishing
m á»įi
m outh
n ity
n als
n ets
p ot
p ically
t ion
t rovir
v iá»ĩc
v ory
w ith
w atch
w ired
w right
w oman
y ama
z u
Ġt ub
Ġt ense
ng er
áº ©ng
Ġc ab
Ġc el
Ġc ush
Ġc asc
Ġth áº§u
Ġth Ã©t
Ġn áº¡i
Ġn áº¡t
Ġn Ã¡ch
Ġn áº¥p
ĠÄ ©
ĠÄĳ áº£
ĠÄĳ ong
ĠÄĳ Æ°á»Ľc
ĠÄĳ Ã¹i
Ġa ims
Ġs Ãłnh
Ġs opran
Ġl Ã¬nh
Ġl á»ĳc
Ġl Ã³ng
Ġl atter
Ġl ined
Ġl bs
Ġm ites
Ġb ot
Ġh arsh
Ġv et
Ġv ague
Ġw ounds
Ġi bup
Ġp onds
Ġg aga
at ile
Ġd ing
Ġd Ã©p
Ġd unes
Ġch áºŃu
os ion
on al
en za
en burg
Ġr Ã¢m
Ġr áº¯m
Ġf ond
Ġf irms
or fer
al er
al ine
is el
it ives
in ance
Ġy elling
Ġcá» £t
as than
le ments
ĠI an
Ġwe aker
Ġwh ip
ic ides
us c
us er
Ġqu ir
et ed
Th am
Th ousands
Ġx ao
Ġre pr
Ġre imagine
ent o
am ily
ur ated
ur man
Ġra cial
ig man
ere ck
Ġfor age
Ġfor ged
ĠmÃł o
Ġli king
Ġli vest
se mble
Ġwas ting
Ġan ch
st ood
ĠC ou
ĠC ut
ĠC ave
ĠC up
ĠC osta
ĠT B
ĠT inh
ĠT ab
ĠT áºŃp
ĠT ry
ĠT Ã¡m
th ird
Ġho od
ad ij
Ġgo ats
Ġcan opy
inh ab
Ġsh ade
Ġsh ipped
ĠM Ã£
ĠM Æ°á»Ŀi
ĠM am
ĠM ain
ĠM atch
ĠM Ãłu
ĠM illy
ĠM agic
ĠM aine
ter ior
ĠA id
ĠA gar
il ized
ul ator
Ġhá» īnh
ant i
ant om
ĠB R
ĠB ess
ĠB ose
ĠB oot
ĠB otton
ĠB ieber
ĠS ar
ĠS á»Ł
ĠS aint
ĠS ARS
ĠS ydney
Ġnot ions
ĠN ice
ĠN Ã£o
ĠN ino
ore x
ag ne
ac c
ac orex
ĠH or
ĠH od
ĠH art
ĠH iá»ĩu
ĠH alf
ĠH anc
ĠH utch
ĠH atz
ĠH ubble
ĠH ouston
Ġde le
Ġde ngue
Nh áºŃn
and ro
Ġsá» §a
el bart
Ġkn ob
Ġout we
og g
Ġint ol
ĠP SA
ĠP ublic
ĠP MT
Ġsp am
Ġsp ite
Ġsp ouse
Ġsp ike
Ġsp ikes
ĠG an
ĠG ut
ĠG ol
Ġup s
Ġup t
ĠL ist
ĠL and
ĠL au
ĠL ower
ĠL áº¡y
ĠL ocke
ĠL oren
ĠL aptop
ĠL uton
act iv
ĠD anh
ĠD all
ĠD iá»ħn
ĠD iver
ĠD ead
ĠD ev
ĠD erartu
ĠD oyle
Ġpl otted
ib ia
ose conds
ĠK at
ĠK Ã´ng
ĠK iá»ĥm
ĠK ool
ĠK iev
ĠK IPP
Ġcomp ost
ai pur
reat ed
ĠÄĲ Ã¢u
ĠÄĲ á»Ļc
ĠE cu
ĠE llen
ĠE rik
Ġle aks
uá» £
Ġtin iest
ĠR en
ĠR ic
ĠR ory
ĠR ail
ace llular
Ġag ed
Ġexp osing
age ye
ud ing
Ġlu á»ĵn
Ġfe at
ild es
ra vel
iff e
ĠF as
ĠF est
ĠF ah
ĠF ern
ĠF ek
ĠJ ob
ĠJ aw
ĠJ arrett
ĠTh anh
ĠTh ursday
ry n
ĠW ork
ĠW att
ĠW inter
ĠW HO
ro vert
red it
Ġpart ial
Ġvá»ĭ n
ĠCh á»©c
ĠCh az
ĠCh alleng
ĠCh á»Ŀ
Ġá» Ŀ
ĠO MG
Ġdis k
Ġdis integr
Ġdis proportion
ĠV ent
Ġco here
ater al
Ġid iot
Ġam mon
ru bs
Ġunder way
Ġres idential
Ġ4 9
ank s
Ġdes criptions
Ġpro ving
Ġad ap
Ġdifferent ial
Ġbo iling
Ġhum id
Ġ19 10
ip er
ip otent
Ġcomm ons
Ġcomm ute
Ġcomm ander
Ġpre view
ian e
Ch u
Ch uyáº¿n
Ġsc andal
Ġsm ashed
av i
av ed
Ġfl ap
Ġfl ick
Ġfl ush
Ġfl ipped
Ġfl aws
Ġsur re
Ġsur rog
ft s
ire ction
ire trovir
Ġwell s
Ġsystem ic
Ġlet t
Ġinv asion
Ġrem ed
Ġend uring
Ġend lessly
á»ķ ng
Ġlast ing
az ine
Ġhu g
Ġtrans national
Ġinst itute
Ġpower less
Ġpol ite
Ġ9 1
Ġinter pre
Ġ7 000
Ġent ity
Ġsl ave
Ġsl ices
Ġsl ime
Ġsl aves
ix ote
Ġacc idental
Ġrá» £
Ġdevelop s
Ġcre ations
Ġmod ify
Ġplace bo
Ġser ial
Ġser vers
Ġmon ument
Ġbi ases
Ġplan ner
Ġngá» Ŀi
Ġcent r
air y
Ġed ited
Ġvá»ĩ t
ten berg
Ġnghi Ã£
Ġsing ular
wh ite
ran n
ier ce
Ġrep orters
und y
Ġgovern ed
Ġcou pled
Ġwar mer
Ġwar fare
ĠHe idi
Ġmonth ly
Ġroom mate
Giá» ¯a
ott a
Ġadd s
Ġvo ic
Ġdep ict
work s
Ġpain ter
Ph áº£n
Ph ys
Ġref ine
Ġequ ilibrium
ĠSh eph
Ġmem es
Ġkill ings
Ġfore ns
Ġfil ed
Ġmar ries
Ġtreat ies
rop he
Ġmil imet
Ġfront iers
to o
ret ched
Ġav iation
Ġlisten er
Ġneur ologic
ĠbÃŃ p
Ġtyp ew
Ġaud itory
Ġthird ly
cl iffe
Ġz oo
Äĳ áº¿n
Ġpresent ations
sh ot
Ġ16 00
To Ã¡n
Ġdig est
ivers al
Ġprotect s
Ġbom bers
Ġant iretrovir
ĠChÃº c
Ġpract ition
mb les
Ġsupport s
Ġperform er
Ġperform ances
Ġru in
ho le
Ġdu g
ĠCon n
Ġsuper f
Ġsuper her
Ġphotograph ic
ĠPr otect
ĠHar bor
Ġground ed
Ġexperiment er
ĠAs pen
Ġess ay
Ho áº¡t
ĠAn im
ĠAn onymous
erm at
Ġinsp irational
ĠBl u
ĠBl og
ĠGi ac
Ġmeaning less
Ġdest ructive
Ġsuggest ions
Ġrespons ive
of i
Ġdisc our
li ance
ĠQu ixote
St r
Ġrul ed
ala am
Ġpredict ive
ĠSch ul
Ġtrust ing
Al an
Al ain
ĠAd v
ĠAt ala
Ġsimilar ly
Ġball oons
Ġdefin itions
Ġemb roid
Ġsell s
Ġattack ing
Ġboy friend
Ġactiv ism
Ġpassion ately
Ġmechan ically
ĠPar ik
Ġexcept ional
ĠSte fan
Ġep it
Ġep oxy
Ġmis car
urt is
ĠSw apt
Ġtransl ates
ĠOr well
Ġprogress ively
ĠMo i
Ġrain bow
Ġgra vel
ĠEd ison
ĠEd wards
rof en
Ġassum es
20 11
ĠPal mer
Ġcapt uring
Ġswe ep
ĠAb out
ĠAng el
ĠDon na
Ġcook ed
KhÃ¡ c
Ġdeterm ining
Ġquot ed
Ġrandom ness
Ġrespect ful
Ġeth n
ĠBar cel
Ġachieve ments
Ġstar ving
Ġsal mon
ĠPakistan i
ĠHy per
Ġinterview ing
ris k
ĠMan ju
edd y
Ġselect ively
Ġcampaign ing
ĠFrank ie
urd o
urd y
Ġgradu ates
Ġinstr umental
ĠMin ority
ĠEn ron
ĠMe et
Ġbroad ly
ĠSmith sonian
fr og
ĠRuss ians
ĠTom orrow
Ġhom osexual
ĠDarwin ian
ĠAlex is
Ġcheap ly
Ġreward ing
Ġble ed
ĠEvery where
ĠUS B
ĠSam antha
Ġattempt ing
Ġveget ation
Ġdomin ance
Ġcognitive ly
ĠMon ster
ĠEgypt ians
Ġbomb ing
Ġbomb ed
Go vern
Ġtun nels
Ġstri pped
Ġsucceed ing
Ġextract ion
hold er
ĠMad rid
Ġbelong ing
200 8
Ġmigr ant
Ġstream ing
Ġtow ers
ĠBur ma
ĠBur kina
Ġ195 3
de velop
ĠMah ab
nam ed
cut ting
Ġdisplay ed
Ġpeak s
Ġgam ing
Ġmyth ology
Ġcontain ers
ĠLED s
ĠOk ina
Ġve ins
Ġrig ged
Ġheight s
ĠPort land
Ġflat ten
Ġdot com
Ġsem inal
Ġgrateful ness
Ġgall ons
ĠFin land
Ġattend ance
ĠMil an
Ġreject ion
ĠAir port
Sim on
keep er
Ġconver ting
ugg ets
ĠMel bour
gend orfer
Ġdefend ing
Ġrub ble
ĠKar achi
Ġped iatric
Ġcompl ained
Ġexplos ions
Ġpharm ac
ĠMer ced
ĠEs k
Ġintuitive ly
Ġiniti atives
Ste ven
Ġchap ters
Ġstretch ed
ĠRand i
Ġder ived
Ġanticip ation
Ġbiom aterials
ĠHung arian
Ġpupp ets
Ġgel atin
ĠBern ers
ĠIr áº¯c
ĠJane iro
Ġsynthes ize
Ġdies el
cher i
ĠRon ald
otter dam
Ġglac iers
Ġhelicop ters
ĠRad cliffe
Ġimmun ity
Ġfertil izers
Ġtroub ling
Ġgrat ification
Ġngá»« Æ¡i
Ġchimpan zee
Ġcatast rophe
Ġblend ed
Ġgre ed
ĠUN ES
Ġarrang ed
Ġcompos er
ĠMatth ieu
ĠES P
Ġinterrupt ed
Ġenterpr ises
Ġcabin et
Ġnerd y
Ġgig antic
ĠMot ors
ĠHon or
Ġintim id
Ġreinvent ing
Ġsuburb ia
Ġnu anced
ĠHot mail
ĠRod rig
Ġcontag ion
Ġdrown ed
Ġastero ids
Ġguid elines
Ġenthusi asm
ĠHas bro
ĠBM W
ĠJama ican
Ġeur os
ĠLar ge
Ġfis cheri
ĠMeyer owitz
Ġoutd ated
Ġshout ing
Ġá»« m
Ġsubstant ially
Ġsod a
Ġorang utan
Ġlegend ary
Ġprev ents
Ġhint s
ĠDiet rich
Ġlifel ong
Ġfisher men
ĠAR ES
atal ie
ĠTai wan
ĠSel igman
Ġexpon entially
Ġtelecom munications
Ġexha usted
nov ation
Ġcasual ties
Ġmater nal
Ġanecd ote
ĠPear l
ĠJava Script
Ġbiolumines cent
Ġtut or
ĠAw esome
Ġdepr ivation
ĠPier re
Ġnumer ous
Ġpsychiatr ist
pat tern
Ġquar ters
Ġreun ion
ĠBerg en
ĠBuff ett
Ġpean ut
ĠGam ble
Ġerect us
urk heim
ĠPyth on
Ġperse ver
ĠJoh annes
ĠPhill ips
Ġcorrid ors
Ġlocom otion
Ġbonob o
Ġcertific ate
Ġlyr ics
Ġbip olar
Ġorth opedic
Ġresur rect
cos ia
Ġalar ming
ĠPran av
ĠField s
adition al
Ġbioch em
Josh ua
ĠAx is
ĠNath aniel
Ġphysi ological
Rad io
Ġpic nic
ĠRaj asthan
Ġattor ney
ĠMcM urdo
Nin ety
whe el
appropri ate
Ġnanos cale
Ġpenal ty
Pes a
vald s
Ġlith ium
erin ck
ĠNR K
ĠRIS D
Ġbrow se
ĠMOOC s
duc er
Ġgoss ip
Ġlivel ihood
Ġunthink able
Ġacry lic
Ġlarv ae
Ġmicrop roc
Ġauditor ium
Ġantid ote
Ġmultit asking
Fort y
Ġibup rofen
Ġlivest ock
adij a
ĠPMT CT
ĠFek i
Ġammon ia
ĠBarcel ona
ĠMelbour ne
ĠUNES CO
4 2
7 8
8 4
A bsolutely
B O
B ath
B uá»ĵn
B usiness
C N
C a
C Æ¡n
C Ãº
C ity
D am
D iá»ħn
D erek
D ifferent
E ither
F ur
F ast
F ifteen
H um
H ub
I I
J S
J ake
L anguage
M on
M iá»ħn
N H
N i
N orm
P R
P e
P ro
R ed
S an
S áº£n
S un
S oph
T ai
U N
U h
V Ã¢y
W illi
a ad
a fe
b ly
b untu
c ia
c áº£m
c ott
d u
f at
f ed
h ard
j in
l ap
l ia
l ov
l era
l aug
m om
m ia
m ath
m Ã©t
m á»Ĺi
n Ã³i
o ys
r áº¥t
r ate
r ase
s ix
t in
t áº¡i
w as
w estern
z i
z weil
Ġ Æ°Æ¡m
Ġt ire
Ġt ipping
Ġc ue
Ġc ater
Ġc áº·n
ĠÄĳ Äĥ
ĠÄĳ áº§n
Ġa pe
Ġa ah
Ġa erial
Ġs ar
Ġs ings
Ġl Æ°
Ġl á»Ł
Ġl ining
Ġm m
Ġm ans
Ġb Ã´
Ġb id
Ġb ung
Ġb ark
Ġb ury
Ġb umble
Ġb ibl
Ġh ust
Ġh atch
Ġh ives
Ġh Ã³m
Ġv áº¡t
Ġv Æ°á»£n
Ġv apor
Ġw and
Ġw ww
re ne
Ġo un
Ġp ly
Ġp ore
Ġg au
Ġg eck
Ġg aze
Ġg oro
at Ã´ng
at ized
Ġd áº¿
Ġd áº¡t
Ġd áº±n
Ġd airy
er ick
Ġtr Æ¡
Ġtr Æ°á»Ľng
Ġtr oll
ou lli
Ġch áºŃp
Ġch á»Ļp
os y
Ġto mb
an ch
an ic
an im
Ġng Ãł
Ġng uá»
Ġng Ãµ
Ġng Ã³c
Ġng Ã²i
Ġng áº©ng
ap ot
Ġr áº§u
Ġr Äĥn
Ġr áº§m
Ġr amp
Ġr iot
Ġf o
Ġf itting
Ġf ills
Ġf ierce
or able
Ġin ability
is d
is cover
ed uc
ar se
ar ity
ch est
ch el
ch ange
in ia
in ative
in vasive
ĠchÃ ¨o
ĠchÃ ¨n
Ġcá» ıi
om o
as is
le ngth
ll ip
ic ke
ic ated
Ġph iá»ĩt
us ter
us sels
Ġqu art
Ġqu áº·ng
Ġgi Ã´ng
et ics
et ric
Th uá»ĳc
Th áº§y
Ġre ar
Ġre nder
id ays
ang es
Ġcho lera
Ġst ab
Ġst akes
im ental
op ing
op es
op lin
op olit
op rene
Ġfor aging
ol t
ol ith
st ru
ĠC á»ĳ
ĠC ob
ĠC auc
ĠC ookie
ĠT E
ĠT ree
ĠT able
ĠT áº¡m
ĠT uring
Ġlo anh
Ġlo vers
ad der
Ġab normal
Ġpr izes
Ġse men
Ġse aled
em in
ĠkhÃ¡ nh
Ġsh ook
Ġsh attered
Ġsh redd
ĠM es
ĠM ob
ĠM Ãły
ĠM istry
ĠM add
ĠM artha
ĠA z
ĠA ction
ĠA ges
Ġwhat not
il age
ul ence
ant astic
ÄĲ á»Ļi
ĠB C
ĠB j
ĠB ass
ĠB ea
ĠB Ã¡o
ĠB ageye
ĠS S
ĠS uy
ĠS ard
ĠS tern
ĠS ivers
ĠS olar
ĠS OL
ĠS elf
ĠN Y
ĠN ok
ĠN ash
ĠN FL
Ġfr idge
ers hip
ag ically
ag ging
Ġj ars
Ġj ams
ac er
Ġpe nd
ear ing
ĠH ang
ĠH á»ĵ
ĠH oney
ĠH orn
um n
um atic
ate au
ab ble
el ve
Ġkn ives
Ġal leg
un ks
ĠP ut
ĠP att
ĠP oor
ĠP etr
ĠP TS
ĠP ET
ĠP tolem
Ġsp ine
Ġsp otted
ĠG ot
ĠG ambia
ĠL ive
ĠL iz
ĠL á»Ŀi
ĠL á»ħ
ĠL uria
Ġby e
Ġby prod
ĠD h
ĠD á»ĭch
Ġpl ut
ine ering
gh ar
Ġsu p
ib e
ĠK P
ĠK ick
ĠK ev
ĠK erm
ĠK rist
ĠK obe
ai k
ĠÄĲ á»ĳc
ĠÄĲ á»£i
ous ing
ĠE qu
ĠE ff
ĠE co
Ġle vers
Ġle aked
ĠR id
ĠR ah
ĠR ives
ĠR eal
ĠR umi
ĠR OV
Ġem an
Ġbr ig
Ġag r
Ġexp o
Ġper p
Ġper me
Ġper iph
res olution
Ġwhere by
ĠF E
ĠF ildes
ĠJ am
ĠTh á»ĭ
Ġcl ap
Ġneed ing
Ġneed les
ĠW ool
ĠW off
Ġun l
Ġun m
Ġun ified
Ġgr ief
Ġimp ulses
ro ves
ro ids
Ġdi als
ĠO ther
ĠO per
Ġdis son
ĠV áº«n
ĠV isual
Ġco ins
ell ar
Ġcont empt
Ġam ph
Ġná» ĥ
Ġná» ī
oss um
Ġbet a
Ġbet ting
Ġmo ons
Ġres ident
Ġbl iss
ĠU NA
Ġpro ves
Ġdifferent iate
ĠTr ÃŃ
ord ial
int osh
Ġpre h
Ġoff ensive
Ch im
ub le
ak ery
Ġcr ater
Ġcr unch
av ored
Ġdec on
Ġdec isive
Ġpers ons
Ġfl own
Ġdr ople
Ġtechn ologists
ĠSt ay
ĠSt ore
ĠSt alin
ĠIn vest
Ġinv is
Ġinv aded
Ġinv asive
Ġwom b
per ial
Ġcreat ively
Ġsec re
Ġins ignific
Ġ6 1
Ġev ident
Ng oáº¡i
Ġtrans f
ty pe
Ġsuy á»ħn
ĠÃ įt
Ġrel ies
Ġinst ability
Ġmight y
Ġpol es
ph ua
Ġsl ash
Ġsl iced
Ġimag inations
Ġmon sters
ote chnology
co vered
Ġmet ropolitan
Ġmet rics
Ġngá» £m
Ġwater fall
ale en
Tr uyá»ģn
Ġdem oral
Ġeng ulf
Ġsk ies
Ġsub d
ĠNg uá»ĵn
Ġopen ly
Ġconf use
Ġstr ips
gg ie
ĠX áº¿p
Ġrep erto
Ġsol ves
Ġhead ache
Ġcle ared
Ġwar n
Ġtop s
ĠchÃ¡ nh
idd ing
Ġred iscover
ĠHo le
Ġwond rous
Ġval ves
Ġdist ort
Ġcur tain
Ġopp ression
Ġdet r
Ġdet erg
Ġstuff ed
Ġgu est
ĠBr in
cr ates
Ġrest ored
Ġrest oring
Ġcor als
Ġcor related
Ġref lex
Ġcam el
Ġprop osing
ĠSh ake
ĠSh reddies
Ġdev ised
Ġnhu áº§n
Ġexc uses
Ġworks hops
Ġsw ap
Ġmar atÃ´ng
Ġcost ly
Ġass ert
Ġass ured
Ġpast ing
rop on
NA SA
Ġcollect s
Ġpay off
Ġpay load
Ġresult ed
Ġwa ving
aster y
Ġmic row
ĠZ urich
ik er
ik ed
Ġprov ince
omet ers
Ġtyp ed
Ġz eros
Ġcoll ar
Ġmiss ile
Ġill iterate
Ġland fill
book s
sh oo
sh ifting
Ġshort cut
Ġjour nals
Ġcal ibr
ĠNam ibia
Ġviol ation
Ġviol ated
Ġpsych otic
ann on
ann el
Ġlim bs
osp heric
Ġru á»Ļng
Qu est
bor ne
Ġsuper st
Ġmult id
Ġextrem es
Ġextrem ists
ĠchÃ³ t
ĠPr og
lt an
Ġenc oded
Ġfilm makers
Ġground s
Ġground breaking
ĠAn na
An n
Ġap es
Ġconsum es
ĠGi ao
Ġdest ined
Ġblue grass
unt a
yn thetic
Ġfire fly
Ġsmart phones
Ġtext ile
Ġ24 0
Ġtw in
Ġsustain ing
Ġpoll inate
Ġsn iff
ĠQu áº£
St art
Ġarr iving
Ġguess ed
Ġprom otion
ste au
Ġpredict s
uel ing
Ġer ase
Ġer osion
Ġdepend ed
Ġtransform s
Ġpeace keepers
Al ready
ĠAd m
Ġvacc inated
Ġintern ationally
Ġtouch es
ĠIraq i
head ed
Ġball ast
ĠCl arke
Ġtable t
Ġhang s
Ġemb ark
Ġvisual s
Ġvision ary
oid s
Ġsearch ed
Ġblind ly
Ġclean ers
Ġprim ordial
Ġcart ilage
Ġunf amiliar
Gi ao
ĠArab s
Ġgra ves
Ġdam aging
ĠEd ucation
Ġther apeut
Ġmulti pl
20 10
Ġpush es
Ġinflu enza
Ġsyn apses
Ġappear ing
Ġkil owatt
Ġjud ged
ĠÃģ n
Ġelectr ode
Ġspeed ing
Ġpack ing
Ġpublish ers
aid an
Ġcalcul ator
Ġslight est
Ġjump s
Ġmá»ĵ m
Ġcontinu um
back s
ĠMay an
Ġdemonstr ating
Ġport able
Ġthrow s
ĠPl anet
Ġconc ussion
verse ly
ulner ability
Ġencour ages
Ġautom otive
Ġmotiv ations
Ġmotiv ates
ĠiPh ones
ĠBer ry
Ġsimpl ify
Ġcustom ization
Ġlaws uit
ios is
Ġterm inal
Ġstrength en
Ġintegr ating
ĠEn ri
Ġlack ing
Ġcontroll er
ĠLib Äĥng
ĠLib rary
ĠMa jor
Ġpuzz ling
Ġrecon fig
Ġhom em
Ġcru x
Ġhair s
Ġmeas urable
ĠRos al
Ġdemand ed
hand ed
Ġcontact s
ĠMark et
Ġtast ed
Ġbul k
Ġrepe ating
ĠUS C
Ġtough est
Ġwear able
Ġwire lessly
Ġshel ters
ĠPro v
ĠBab bage
ĠMad ison
Ġprototy ping
Ġconduct ive
bur st
ĠTe chnology
Ġadop ting
ĠNa uy
Ġgrid lock
prof its
Ġacceler ation
ĠWith out
Ġanalog ies
Mar garet
Ġgam ers
Ġreview ed
Ġcere al
ĠMac intosh
ĠSl ick
Ġcontract s
Ġsoul s
ĠOk lah
Ġscar f
Ġchannel rh
ĠIslam ist
ĠBol ivia
Ġestab lishing
Ġpun ct
Ġrot ating
Ġaccompl ishment
Ġmad ness
Ġattend ed
cont roll
Ġmemor ized
ĠMil k
Ġdevast ation
Ġur ges
Ġflag s
Ġwhist ling
Ġreh ears
Ġdiss ent
Te ch
Te acher
Ġtrig gers
ĠIm perial
ĠComm un
ĠVi agra
ĠDemocr acy
Ġbrib es
Ġirr igation
Ġdigit ized
Ġhur ry
ĠSand berg
ĠJac obs
Ġrefriger ators
Ġgut s
Ġtack ling
Ġleap frog
Ġcrash es
bal ance
Ġven om
Ġyield s
Ġflood s
Ġcá»ĵ ng
ĠAntar ctic
gu ard
Ġtoler ate
ĠTah ltan
Ġspr int
Ġdecre ased
Ġconcert s
Ġsed uction
Ġfool ish
Ġpleas ures
Ġscript s
Ġtent h
ĠBern ard
Ġgee k
Ġdelic ate
Ġwhis per
ĠThanks giving
Ġnutri ent
Ġhol istic
Ġrenew ables
Ġunbeliev ably
Ġobl igation
Ġlimb ic
Ġtroub led
ĠTurk ish
rr rr
Ġpsychopath s
Ġwid ow
Ġrestr ict
Ġarrang ements
Ġincident ally
Ġemphas ize
Ġtear ing
Ġmini ature
ĠSol omon
ĠEv il
Ġpercept ual
Ġcareg iver
Art ist
ĠDes ert
Ġproph et
Ġoy sters
ĠGall up
Ġgenuine ly
Ġenthusi astic
Ġdrought s
Jim my
Ġsew age
Ġextr acellular
Ġingen ious
Ġimmers ed
Ġhipp ie
Ġvivid ly
ĠMoh amed
Mus ic
ĠAgain st
Ġsubt ract
Ġcraw l
Ġheter osexual
Ġunle ash
ĠAlber to
Bet ween
Ġexpon ential
Ġunderm ine
Ġaltru ism
Sc ott
ĠFil m
Ġcarp enter
Ġinhabit ants
Ġmit ig
Ġspong e
roch emical
Ġfemin ism
drop ping
Ġpix els
ĠMeg gendorfer
ĠDai ly
Ġfluct u
Ġanonym ity
ĠPoll ock
Ġoccas ional
Ġcatad ore
Eight y
Ġpiss ed
Ġinsec ure
ĠGirl s
Ġsanct uary
ĠDM CA
Ġscal able
Ġaccommod ate
Ġlegitim acy
Ġtender ness
Ġwrink les
Ġq Ãºi
Ġjun ior
Ġorb iting
ĠKurd istan
Ġscoop ed
Ġmultim edia
ĠMichoac Ã¡n
zs child
Ġvect or
Ġvá»ĵ ng
ĠRead er
ĠSchwar zschild
Mal colm
Sec ret
Ġais le
Ġreluct ant
Ġmoder ate
Ġdeter ior
Ġmirac ulous
ĠCommand ments
Ġunnecess ary
Ġkang ar
Ġdazz ling
ĠTNC s
ĠMess age
ĠChand ler
Ġadul thood
ĠYah oo
Ġtestim ony
Ġrupe es
Ġinexp ensive
Oft en
tra umatic
Ġmun icip
ĠIx aren
Ġwets uit
ĠMong olia
ĠKur zweil
Ġnanot ubes
ĠFranken stein
Ġdegrad ation
ĠTul ley
ĠSes ame
ĠKuz nets
Kn owing
Ġsopran o
ĠCou steau
Ġoutwe igh
Ġadap ting
ĠSheph elah
Ġtypew riter
Ġembroid ery
ĠSwapt ree
Fur ther
Hum ans
Willi am
chest ra
Ġshredd ed
ĠPTS D
Ġbyprod uct
Ġperiph ery
Ġreperto ire
ĠOklah oma
. -
2 1
2 2
2 3
2 7
7 7
A W
A c
B áº¥y
B Ã¡nh
B ern
B razil
C ong
C omm
D D
D oug
D ennis
E lect
E conom
F N
F O
F e
G F
G h
H D
H S
H ome
J B
J N
J Y
K á»³
L ots
M et
M ah
N E
O R
O W
P al
Q uá»ĳc
R ep
R oy
R eg
R eal
R oger
S ong
T T
T inh
T iÃªu
T urn
U ng
V M
V iá»ĩn
V áºŃn
Y áº¿u
a ic
b ard
b ish
b read
b order
e ur
e ight
f el
f elt
f illed
g eren
h ed
h em
h av
j ac
k w
k owitz
l on
l Ãª
l apse
m ons
n old
n atural
o i
p y
p hÃ
p op
r Ã´
r ust
r ick
r ified
s i
s is
s á»±
s ler
s olving
s quare
v ana
w ed
y ce
z ac
¡ n
¢ t
Ã ¸
Ġ Ì
Ķ n
á» Ĺng
Ġt Ãºm
Ġc Ã²
Ġc uc
Ġc ada
Ġth Ã¢y
Ġn i
Ġn our
Ġn ost
Ġn Ã¨
Ġn ests
ĠÄĳ Ãªn
Ġl á»Ļc
Ġl ava
Ġl Ãµm
Ġm as
Ġm asks
Ġb á»Ł
Ġb atch
Ġb ald
Ġh es
Ġh Å©
Ġv iv
Ġw andering
Ġi cons
re f
re p
re str
re nhe
Ġo Ãł
Ġk r
Ġk ings
Ġp od
Ġp enn
Ġp ads
Ġg or
Ġg um
Ġg anh
Ġg Ã£i
Ġg á»ī
Ġg ently
Ġg ears
Ġg yrus
at able
Ġd Ã³
Ġd ÃŃ
Ġd ated
Ġd une
Ġd anced
er ala
Ġnh an
Ġnh en
Ġnh á»ĳi
Ã´ c
Ġtr Å©ng
ou p
Ġch Å©ng
Ġch Æ°ng
os cope
Ġto ng
es on
Ġr Ã¹ng
Ġr á»¯a
Ġr Ã³t
Ġr hy
Ġr hyth
Ġf use
Ġf ences
or p
al il
al ach
al ph
al ah
Ġin efficient
Ġin effective
Ġthá» ģm
ar ial
ch t
ch ant
ch eck
in ning
Ġy a
Ġvá» Ľt
om bo
om atic
ĠI GF
Ġwh aling
Ġph Æ°á»Ľc
us on
us ch
us ively
Ġqu Ã¢y
Ġta boo
á»± ng
ut t
ut iful
ĠnÃł nh
et ically
Th o
Ġtá» £n
Ġre ception
Ġre bel
Ġre lying
Ġre organ
Ġre bell
ent iful
ang a
am ents
am ination
Ġra ge
Ġra ging
ig ue
ig uel
Ġst itch
Ġst unt
Ġst unned
im Ã©t
ere en
op sy
Ġgiá» ı
Ġcon form
ir vana
st ore
st eps
ĠC ed
ĠC as
ĠC od
ĠC ron
ĠC ox
ĠC ultural
ĠC urtis
ĠT H
ĠT at
ĠT Ãłng
ĠT Ã¢n
ĠT Æ°á»Łng
ĠT áº¡p
ĠT ata
ĠT oo
ĠT aj
ĠT oby
th s
th reat
th á»©
th á»Ŀi
Ġu mb
Ġwith d
Ġlo bes
Ġpr one
Ġgo Ã¡
Ġgo ogle
em or
em ple
Ġas yl
Ġas cend
Ġso cks
Ġsh ores
Ġsh oved
ĠM S
ĠM Ã´ng
ĠM ai
ĠM ik
ĠM ann
ĠM mm
ĠM ason
ĠM izz
ĠM aidan
So bule
ĠnÄĥ n
ĠA K
ĠA T
ĠA k
ĠA mb
ĠA RN
ĠA venue
ĠA icha
il iation
Ġne on
ĠB B
ĠB iáº¿n
ĠB á»ı
ĠB Ã¡n
ĠB á»įn
ĠB ook
ĠB urns
ĠB acon
ĠB ennett
ĠB oulder
ĠB oeing
ĠB undy
ĠS A
ĠS ally
ĠS Ã£o
ĠS val
ĠS earch
ĠS peed
ĠS AT
ĠS alaam
Ġme adow
ĠN ou
ĠN ab
ĠN Äĥng
ĠN á»ķ
ĠN eg
ĠN á»Ĺi
ag les
ust ion
Ġj ig
Ġj ets
Ġj eal
ac s
ear ning
ĠH ood
ĠH ama
ĠH ero
ĠH uh
ist ors
Nh iáº¿p
est a
est ial
and i
ab asca
ung u
el ope
ob iles
áº» m
Ġkn ot
Ġkn ocking
og l
ie ces
un n
un us
Ġma id
ĠP H
ĠP M
ĠP ay
ĠP ra
ĠP RI
ĠP imp
ĠP atrick
Ġte apot
ĠG le
ĠG ian
ĠG rove
ĠG rier
Ġup wards
Ġwho a
ĠL er
ĠL ip
ĠL aman
ĠL GB
ĠL azar
act er
ĠD Ã¢y
ĠD ink
ĠD ance
ĠD akota
ĠD istr
ĠD ruck
ĠD ereck
Ġpl ur
Ġpl acing
Ġpl entiful
ame en
ast rous
are z
ĠK áº¿
ĠK em
ĠK ill
ĠK are
ĠK ath
ĠK ins
ĠK ohn
ĠK arm
ide press
Ġcomp ass
ĠÄĲ Ã¡ng
ĠÄĲ á»©a
ĠE nt
ĠE aster
ĠE mb
ĠE cosia
Ġle ash
ĠR as
ĠR ao
ĠR oth
ĠR ee
ĠR eed
ĠR ey
ĠR atan
ĠR otterdam
ace y
ven ient
Ġbr ink
Ġmu ff
ra ib
Ġen act
Ġen for
itt e
ĠF M
ĠF lem
ĠF erg
ĠJ r
ĠJ ung
ĠJ urve
ĠJ oplin
ĠTh áºŃm
ĠTh uyáº¿t
Ġdiff use
ĠW or
ĠW in
ĠW ash
ĠW ald
ĠW inky
ĠW ounded
Ġun ac
Ġun ravel
Ġimp osed
ro e
ro v
ro ir
ĠCh es
ĠCh á»¯
ĠCh uck
Ġá» ¨ng
Ġover load
ass a
Ġdi Ãªm
Ġdis se
Ġdis put
Ġdis eng
Ġdis cont
Ġdis section
Ġdis char
Ġdis astrous
ea f
Ġback pack
ĠV e
ĠV Æ°á»Ŀn
ell s
ell ie
Ġcont aining
Ġpo etic
vel ile
ody nam
Ġbet ray
ru g
ru p
ru gu
ick ly
Ġbl amed
Ġbl adder
Ġxu a
ĠU lt
ĠU rugu
Ġdes ks
Ġpro hib
Ġbo il
Ġbo ils
Ġsy ll
ĠTr acy
pl aces
Ġhum ili
Ġdown stream
ian o
ĠY R
ĠY unus
Ch á»¥p
Ġinc ons
Ġinc omp
te in
Ġro oft
ĠNh áºŃn
Ġcr ay
Ġcr ab
Ġcr ipp
av an
Ġnhá» ©ng
Ġfl ute
Ġfl ashing
Ġfl utes
Ġgreat ness
ft y
Ġdr ift
ire ctor
Ġapp alling
Ġtechn ician
Ġind uced
Ġind efin
ĠIn v
Ġlong ing
per or
ys s
Ġchu á»ĵn
ull inger
Ġexam ining
Ġtrans act
Ġtrans ducer
Ġunderstand able
Ġbas es
Ġpower fully
ph em
Ġinter tw
Ġfound ers
Ġcons erve
ily n
oth ar
iss ors
Ġcre st
Ġmod em
Ġmod ules
ĠWe i
ĠWe lcome
Ġmon et
Ġmon opoly
Ġpat ron
pe ople
pe ace
Ġbi ography
Ġgrow ers
Ġmed i
Ġfin est
Ġlight bul
Ġlight weight
Ġwater front
Ġread ily
ins p
ins ula
Ġless er
Ġexpl oding
Tr á»įng
Ġter roir
Ġposs essions
Ġel usive
ten ance
ten borough
ĠAr nold
Ġsub m
Ġsub urban
Ġsub mers
ĠSo k
Ġconf ession
Ġconf irmed
Ġcap acities
Ġelect oral
ĠAl ess
ĠAl ley
Ġsol itary
Ġhead phones
und i
Ġgovern ors
Ġpres ervation
Ġpres erved
Ġpres erving
ĠHe ads
enc ia
Ġspec ulation
Ġphot ographing
Ġdist ill
Ġdist ress
Ġyoung sters
Ġeduc ator
Ġ18 50
ograph ically
Ġgu ides
Ġgu ga
ĠBr ain
ĠBr ussels
Ġdep uty
Ġdep ressing
aw ton
Ġ25 00
Ġheart beat
Ġdev otion
Ġboth ered
Ġfore most
Ġfore head
Ġpar an
Ġclass ification
ts on
ush room
Ġcost ing
Ġret inal
Ġcollect or
Ġadv is
Ġresult ing
Ġwa x
ĠZ abb
ĠZ ullinger
ik a
ik en
Ġbá» «a
Ġprov oke
Ġhold ers
ĠEng elbart
Ġpot s
oph is
oph obia
ma id
Ġarch ety
Ġpred omin
sh ed
Ġfear less
To o
Ġ14 00
Ġfre aking
ĠCar roÃ§a
Ġ201 6
Ġant idepress
Ġhands ome
apt ist
Ġlim iting
ĠCal cut
Ġsun set
Ġsun shine
Ġchem ists
Ġdirect ed
ĠTV s
Ġple a
Ġcommon place
Ġdu plic
Ġsuper p
Ġphotograph ers
Ġstrong est
ĠPr ogram
Ġvac ant
Ġweek ly
ĠHar old
ĠHar riet
Ġcool est
Ġimpact ing
Ġimpact ed
Ġvers a
ĠAm anda
ĠBe har
ĠMar ie
ĠMar cus
ĠMar ilyn
ĠBl ock
ĠBl anc
Ġdisc rete
Ġdisc arded
Ġhar ass
chie f
ouch ed
Ġfire men
Ġsil ently
Ġunivers ally
Ġpost ing
ĠRob in
ĠRob bie
par ov
Ġcy cl
Ġcy borg
Ġarr ival
ĠThÃ¡ ng
Ġguess ing
Ġsounds cape
Ġer u
Ġtrust worthy
Al ong
Ġevolution arily
ĠAt tenborough
Ġsimilar ities
ĠDe pp
illi ard
Ġcompet itions
ask et
wit z
Ġconflict ing
lex ic
Ġ0 5
Ġattack er
Ġvisual izing
Ġreact ing
ram ento
light s
Ġemerg ent
ĠKh u
ĠKh adija
Ġparticip atory
Ġ196 7
ĠGr ameen
ĠAD HD
Ġadm ired
ĠWar craft
Ġthreat ens
Ġflu ent
ucle ar
Ġpositive ly
Ġec st
ĠSm art
ĠEd dy
ĠPal o
Ġcong rat
Ġjud ging
Ġclin ically
ĠAng ola
ĠAng ela
Ġwild ly
Ġsmell ed
Ġhack ed
Ġconcer ning
Ġenjoy ment
Ġthr iving
Sh ame
Sh bab
unk er
Ġcontinu ity
ax e
gr own
ĠSe ng
ĠSe oul
Ġsal aries
ĠDr acorex
och ai
och ond
Ġcust oms
Ġpros thes
Ġpen ny
ams ala
Ġaddress es
fl ow
Ġautom ation
Ġautom obiles
ĠMan chester
Ġhistor ians
Ġir reg
Ġwealth ier
ĠApp alach
ĠNA TO
ĠGreen e
ĠWeb b
Ġbeat box
Ġlaws uits
ĠGl as
Ġsymb iosis
Ġsky diving
Ġanaly tical
Ġgradu ation
Ġmut ant
Ġliber ated
odes k
ĠEn light
Like wise
Ġatm ospheric
ĠGh raib
Ġshoot s
Ġver ify
Ġbrand ed
ĠMont real
ĠTor valds
ĠLu x
Ġscr ut
Ġcru ise
Ġcogn ition
amb urg
Ġbrilli ance
ĠMal i
ĠSu z
ĠSu ghar
Ġtour ist
ĠSun ni
Ġcontact ed
ha as
Ġillustr ated
Ġship yard
Ġhost s
eph an
Ġdefe ated
Ġdomin ate
Ġantib ody
Ġhydr oc
ĠSwed es
Ġstim ulated
Ġstim ulating
Ġgrab bing
Ġartific ially
Ġbomb ard
ĠStar ck
Ġrat ios
Ġincent iv
Ġextract s
Ġextract ing
Ġinvestig ations
Ġfrag ment
Ġtit led
Ġconduct ing
Ġperce iving
ĠTe chn
ĠAc umen
Ġstrang eness
ĠCr ick
Ġcrack ers
Ġexch anging
Ġimplic it
Ġindic ation
Ġindic ates
Ġindic ating
Ġexhib itions
Ġcartoon ists
ĠBur ger
Ġ195 4
min ster
Ġcow ork
Ġsight s
Ġrecy cl
Ġmosquit oes
sp eak
Ġdisp ute
Ġdisp osal
Ġconstruct ive
Ġpal ette
Ġfle e
Ġrein force
Ġabstract ion
Ġlift s
Ġjail s
Ġmanip ulating
Ġnurs ing
Americ a
Ġshr inking
ĠBol te
Ġinterpret ed
Ġske let
Ġpip elines
ĠnhÃ³ t
Ġuns afe
Ġdisappear ing
Ġwitness ing
Does n
Ġdat as
Ġrot ate
osn i
Ġagg ression
PhÃ ³ng
PhÃ ²ng
Ġcock pit
Ġexec ution
Ġcyber att
ĠKe ep
Ġmemor ize
Ġasp ire
ĠSom ali
Ġdownload ed
Ġwhist les
Ġsuic idal
ĠWal ter
Ġcollaps ing
Ġspiritual ity
ĠComm ons
ĠMill iken
Ġdesper ation
uch ia
ĠPan ama
Ġpool s
Ġment ality
Ġdefend ers
xim ity
Ġcast ing
see able
Ġcompl aining
Ġblank et
iat ry
Ġprost itution
Car oline
cÃ´ la
Ġstack s
Ġstack ing
Ġdeploy ment
ĠKir k
Ġcrash ed
Ġencoun ters
ĠTre k
ĠPart ners
ĠPart icip
Ġinterf erence
Ġinfin itely
Ġdisturb ed
Ġintention ally
Comp assion
Ġder ive
Ġchamp agne
Ġadvoc ating
Ġadvoc acy
ĠDisney land
Ġmarch ed
quar ium
Ġboss y
Ġkiss ing
ĠBel g
ĠTam il
ĠHel p
ĠPop corn
ĠPalestin ians
ĠCamp uchia
Ġspell s
Ġká»ģ nh
ĠSal inas
Ġhoney bees
Ġbend ing
Ed ward
Ġcas ually
ĠChurch ill
Ġprec aut
Ġprec urs
Ġredef ining
Ġdelight ful
Ġexecut ives
ĠCur itiba
ĠDub lin
istor ic
ĠDoug las
Ġ192 6
Ġ192 9
Ġimprov ising
Ġnutrition al
las ma
Ġmelt ed
ĠKam kw
Ġclar ify
fly er
Ġvent ilation
Ġwound ed
ĠMag gie
ĠMag azine
ĠAch e
ĠScr abble
ĠOs lo
Ġincor rect
Ġsettle ments
Ġpsychopath ic
Ġsuspect s
ĠUN ICEF
Ġjoint s
lar ation
ĠMos kowitz
Ġcompos ite
Ġmonit ored
Ġdelay ed
Ġwatt s
ĠnhÃŃ m
Ġpanc reas
ĠCru z
Ġunconscious ly
Ġtooth p
Ġyog urt
ĠId ol
Ġbutter fly
Ġspons ored
Ġdent ist
Ġdood le
ĠUs ing
ĠUs ain
ĠInter val
ĠMcK ay
dis ciplinary
ĠHu ang
ĠHu gh
KhÃ Ń
Ne il
Ne ither
ĠHas an
Ġnap ot
ĠKle e
RC K
Sam uel
Ġconqu er
Ġturb ines
Ġrevel ations
ĠHuman ity
ĠJen ning
ĠGeor ges
ĠCloud burst
ĠvÃ£ nh
Ġforb idden
ĠAut odesk
ĠAust en
ĠFood s
Ġhun ters
otect ed
ĠBart ok
Ġlex icon
ĠCarr illo
ĠAhmed abad
Ġcass ette
Ġwrest le
ĠPu gh
ĠPu erto
Ġmanifest ation
Bet ter
Ġrib bon
Ġoffe nders
Ġloyal ty
ĠOld enburg
Ġbless ing
ĠBrad ley
ĠCla es
Ġseg reg
ĠNic olas
perform ance
Ġembry onic
Ġthy roid
ĠMull ins
ĠBet ty
ĠHaz leton
Ġacoust ic
Ġbiolumines cence
Ġrecruit ment
ĠImp rov
ĠPass age
Ġcaf et
Ġdictators hip
ĠKas parov
ĠRub y
Ġantenna e
Ġdivid ing
ĠKin sey
Ġsymm etry
Ġincub ator
Ġindirect ly
ĠAlb ania
Ġ187 9
Ġseam lessly
Ġmeerk ats
Ġappet ite
ĠSeb astian
Ġrect angle
ĠprÃ´ tein
ĠSac ramento
ĠPi erson
Ġescap ed
Ġbarb ec
ĠVerm eer
ĠIsa ac
ĠMorgan a
Ġprolifer ation
ĠMau i
ĠSoph ia
ĠPas ht
Ġcompr ised
ĠVill age
Ġadren aline
Ġempir ical
Ġmortg age
Ġdysfunction al
Gu ess
wid th
ĠMead ow
ĠPri us
ĠKite flyer
ĠChim borazo
Ġtraff icked
ĠShack leton
Ġapoc aly
ĠBitco in
Ġsho vel
Ġmoist ure
Ġepiph any
Ġtrigg ered
Ġdisagre ement
Dem ocracy
ĠMee geren
ĠDhar amsala
Ġplum met
ĠKind le
ĠWag ner
arko zy
ĠFlore nce
Certain ly
Pros pera
Ġdaunt ing
otr ans
ĠrÆ¡ m
Ġcroc od
Ġcaffe ine
Ġstrat osphere
Ġrestor ative
Ġpessim istic
Eur ope
Sus an
design ed
Ġcel estial
ĠKool haas
ĠRail way
ĠFas o
ĠFah renhe
Ġsurrog ate
Ġantiretrovir al
Ġply wood
Ġgeck o
Ġnguá» Ŀi
ĠCauc as
ĠRid ley
ĠWoff ord
Ġchannelrh odops
yce phal
Ġrhyth ms
ĠMizz one
ĠSval bard
ĠLGB T
ĠLazar us
ĠDistr ict
ĠDruck er
ĠKins hasa
ĠKarm apa
ĠFerg uson
ĠJurve tson
odynam ics
ĠUrugu ay
ĠZabb aleen
ĠCalcut ta
ĠFahrenhe it
5 3
6 8
B ot
B ar
B Ãłn
B Ã©
B arry
C ities
D áº¥u
D Ã²ng
D á»ħ
E v
E xt
E GO
F C
G uy
G reg
G raham
G wen
H elp
I M
J ac
L ong
L ÃŃ
L á»±c
L uc
L á»±a
L ead
M U
M r
M el
M illions
M ann
N áº¡n
N ine
N á»Ļi
N ico
N á»Ńa
O xy
P op
R ay
S ing
S al
S ounds
T Æ°
T ay
T Ã¢m
T á»ĳc
T á»·
V á»¥
V áº»
V á»£
W ork
W orld
Z e
a ism
b illion
c áº£
c ot
c á»¥
c ro
c ising
c ourse
d Ã¹
d em
d ala
f in
g ow
g one
g rowing
g urdy
h ov
h ouses
i i
i ery
j ec
k ig
l Ã´
l est
n iv
p ill
r ation
r il
r áºŃp
r ma
s im
t ic
t uy
t own
t enth
v ar
w rest
z im
Ġ _
Ġ Ãºp
Ġ áº¯p
Ġ Æł
Ġt ant
Ġt Ã©
Ġt ucked
Ġt igers
Ġc er
Ġc ords
Ġth orn
Ġth Ã²i
Ġn oun
ĠÄĳ Ã¹ng
ĠÄĳ uá»£
Ġa ur
Ġs á»¯ng
Ġs áº§u
Ġs á»ĵi
Ġs cent
Ġs orrow
Ġl Ãº
Ġl áº¹
Ġl uá»µ
Ġl atr
Ġm á»¥
Ġm Ã¹ng
Ġm áº¯ng
Ġm oth
Ġm ism
Ġm erge
Ġm otto
Ġb ise
Ġb Ã¹a
Ġb usted
Ġb iÃªt
Ġh ers
Ġh ive
Ġh ence
Ġh áº¡c
Ġh ull
Ġh á»ĳt
Ġh uyá»ĩn
Ġh Ã©o
Ġh Ã¹m
Ġv Æ¡
Ġv ic
Ġv ine
Ġv alle
Ġw ob
Ġw akes
Ġk its
Ġk ett
Ġp H
Ġp ine
Ġp ork
Ġp ave
Ġp ier
Ġp unk
Ġp oker
Ġg Ãłng
Ġg uru
at ient
Ġd áº·t
Ġd ub
Ġd ull
Ġd ances
er idge
er ald
Ġnh Ãłn
Ġnh ung
Ġnh áº§y
Ġtr Äĥn
Ġtr Ã²ng
Ġtr illions
Ġtr agically
Ġch áº§n
Ġch ao
Ġch uá»Ļc
Ġch alk
Ġch atter
on ary
on ian
Ġto Ã¡i
ing e
Ġng áº§u
Ġng á»ı
Ġng Æ°á»£ng
Ġng áº¡t
ot ional
ot eric
es y
Ġr Ãªn
Ġr ation
Ġr ick
Ġr ider
Ġr Ã¨m
Ġr ushing
Ġr iots
Ġf ount
Ġf aked
Ġf ifty
or um
al m
al ians
is en
ed e
ed ical
ar io
ch u
in av
in fect
Ġy áº¿n
Ġvá» ĥ
as ia
ĠI l
Ġe o
Ġe tern
Ġwh oles
Ġph á»ī
us cript
Ġkh ay
Ġkh áº¯t
Ġbe ard
ut ans
Ġit er
Ġgi ra
Ġgi áº¥m
et ooth
Th iÃªn
Ġx iáº¿t
Ġre ver
Ġre pt
Ġre ign
Ġre arr
Ġre ju
ent in
Ġha il
uy á»ħn
Ġngh iáº¿n
am el
am orous
Ġra b
Ġra o
Ġra v
ig e
ig nt
Ġst ap
Ġst ink
Ġst ark
Ġst ats
Ġst igm
Ġdo ve
Ġdo ck
im en
Ġchá» «
Ġchá» «a
ce ived
op ic
Ġgiá» Ŀi
Ġfor um
ol an
ol io
ir rel
Ġsa us
Ġsa int
st ation
ĠC T
ĠC age
ĠC ub
ĠC iti
ĠC ynthia
ĠC á»±u
ĠC arson
ĠT Ãłu
ĠT uyÃªn
ĠT á»«ng
ĠT win
th em
th est
Ġu Ã½
Ġgo gg
Ġcan s
ht aking
ĠM ack
ĠM ade
ĠM aker
ĠM insky
ĠA O
ĠA y
ĠA ra
ĠA bor
ĠA uth
il st
il itating
ĠnhÃ µm
ant e
ÄĲ áº¡o
ÄĲ á»©c
ÄĲ Ãªm
ÄĲ á»ĭnh
ĠB K
ĠB ed
ĠB ÃŃ
ĠB á»ĭ
ĠB Æ°á»Ľc
ĠB Ã¡nh
ĠB ull
ĠB ati
ĠB AS
ĠB RCK
ĠS ong
ĠS et
ĠS ai
ĠS av
ĠS áºµn
ĠS pect
ĠS ending
Ġnot ed
Ġnot ation
ĠN áº¥m
ĠN Ãºi
Ġfr ail
ag all
ĠnghÄ© nh
Ġus d
ac ial
ac ier
Ġpe e
art a
art y
ear ly
ĠH and
ĠH ope
ĠH ock
ĠH ands
ĠH utu
ĠH osni
Ġor al
um bo
Nh u
Nh iá»ĩt
and y
and inav
el ig
ob in
ĠphÃ¡ ch
Ġout lines
Ġint imately
un al
un ed
un ci
Ġma ze
ĠP ot
ĠP ed
ĠP ack
ĠP ew
ĠP ool
ĠP AC
Ġte ens
Ġsp okes
ĠG a
ĠG Ã¬
ĠL áº¥y
ĠL em
ĠL otto
ci ating
ci ences
act ory
ĠD ear
ĠD iff
ĠD ream
ĠD iction
ĠD ays
ĠD irect
Ġpl ural
Ġact ress
Ġim itate
Ġsee ks
Ġsu ite
Ġsu ited
Ġsu gars
ĠK ings
ĠK af
Ġcomp elled
Ġcomp atible
iv ate
ĠÄĲ ang
ĠÄĲ Ãłn
ĠÄĲ Æ°Æ¡ng
ĠÄĲ áº£o
ĠÄĲ Ãªm
ĠÄĲ á»©ng
ĠE ver
ĠE PA
ĠR out
ĠR ag
ĠR est
ĠR up
ĠR ita
ĠR ena
ĠR abin
ĠR ift
Ġem ulate
Ġem itted
Ġbr on
Ġbr iqu
Ġag on
Ġexp end
Ġper c
Ġ3 30
Ġman ia
Ġman uscript
ĠmÃ¡ ch
ild red
Ġen list
ĠF i
ĠF is
ĠF itz
ĠF isher
ĠJ ain
ĠJ ak
ĠJ eh
ĠTh ai
ĠTh áº§y
Ġcl oning
ĠW a
Ġun lim
Ġun related
Ġgr app
Ġgr illed
Ġbu c
ice lli
Ġar k
Ġar ises
ĠCh am
ĠCh ia
ass um
ĠO pp
ĠO ops
ount ry
Ġdis bel
ea ve
ĠV iá»ħn
ens ible
ens pace
Ġnew est
Ġco er
ell ows
ec y
ec ies
ult s
Ġpo ke
cent ric
Ġam yg
ru b
ru ciating
Ġunder sea
Ġtrá» Ŀ
In ter
In side
Ġmo i
Ġres et
Ġres erved
Ġday light
Ġday care
Ġbl unt
Ġbl aming
ĠU V
ĠU ng
Ġdes al
Ġdes irable
Ġpro ximity
Ġad age
Ġbo ot
ĠTr á»Ł
ĠTr Ã²
ish es
other mal
ath ai
ath etic
int ed
Ġcomm ittee
Ġpre st
ĠY ochai
Ch uyá»ĥn
Ġsc ares
Ġsc attered
Ġsc issors
Ġinc ap
Ġinc idence
Ġinc idents
ak is
ĠVÃł i
ĠVÃł ng
Ġcr ammed
av ic
we ed
Ġdr ank
Ġdr ied
Ġdr ifting
ire n
Ġapp end
ric ia
Ġsim ulated
Ġla ze
ri ka
Ġafter math
Ġcar c
ys ics
Ġob ey
Ġba it
Ġlast ly
Ġexam ined
Ġtrans istors
ĠThe od
Ġvá»¥ t
gan istan
Ġgl ands
Ġwr apping
Ġplay wright
Ġ9 11
Ġinter l
Ġinter medi
Ġsl ot
Ġsl ows
Ġtu á»Ļt
Ġ8 000
Ġimag inative
Ġrá» £n
ĠAf ganistan
Ġquestion n
Ġvide ot
aph or
Ġmet ast
Ġngá» ¡
Ġop aque
cept ions
Ġcent ered
Ġcent imeters
Ġcent igrade
Ġed ition
Ġrun ners
Ġbook store
Ġhy ena
ĠAr c
Ġsupp ressed
Ġsk ier
ĠNg Ã´n
ĠSo x
ĠUn iversal
vern mental
ran es
Ġpop ulated
ĠX e
ĠX ia
Ġrep os
Ġrep ublic
-- -
Ġhead aches
ĠWh ile
ever al
Ġcle arer
Ġwar rant
ĠIs abel
Ġset up
ĠInd ust
ex p
Ġred und
Ġ18 80
Ġ18 90
Ġprot ons
ĠâĢ ĭ
ĠBr agg
ortun ity
Ġmark ers
Ġrest ing
Ġrest rain
Ġpain s
Ph iÃªn
Ġgá» £n
Ġprop oses
Ġdef riend
Ġheart felt
ĠSh in
ĠSh elf
ĠSh eryl
Ġdev oted
Ġpicture d
Ġmag ically
Ġpar abol
Ġexc av
Ġexc ruciating
anc a
Ġsw ord
Ġsw ept
ocr ates
Ġass ass
Ġaff irm
Ġaff airs
Ġaw ak
Ġpay check
Ġview point
Ġcomplex ities
Ġmic rof
ĠZ ach
cul us
Ġnon profits
icult ural
Ġneur otrans
Ġmess aging
Ġdifficult ies
Ġaud acious
Ġinteract ed
Ġarch ives
Ġarch ae
Ġblack board
sh ake
Ġfear ful
Ġlá»ĵ i
Ġant ique
com ed
enn ial
ĠFr ans
ĠFr aser
Ġpsych e
Ġsun ny
Ġfac ade
Ġperform ers
Ġru ined
Ġcommunic ates
Ġextrem ist
ĠPr ay
ĠPr int
ĠPr ickly
Ġperfect ion
Ġenc ode
Ġenc oder
ĠAn other
Ġap athy
Ġopt ic
Ġopt ics
Ġfoot steps
Ġbar bar
Ġdisc ount
Ġfire man
ĠSouth east
ug aad
Ġpoll ing
Ġge ological
Ġge ographical
Ġcivil ized
Ġsn ob
Ġsn ipp
ĠMy Space
St an
St op
St ewart
Ġkhá»© u
Ġtend ed
eh r
Ġsounds capes
arr icelli
Ġpolic emen
Ġpolic eman
ĠdÄ© a
Ġlog istics
Ġsuff ers
Ġast ounding
Ġbed r
Ġserious ness
Ġang el
ĠCl ark
ĠCl imate
Ġdefin itive
Ġdanger ously
Ġnecess ity
Ġbreat htaking
oo o
Ġwish ed
Ġreact ed
Ġcross word
ĠSc andinav
ĠCam er
Ġarm ies
col a
Gi áº¥c
ĠNorth west
Ġcontext s
Ġdin er
ĠRe ich
ĠRe uters
Ġthreat en
Ġcloud y
Ġrain water
Ġlink ing
Ġspir al
Ġinflu ential
Ġcong ress
Ġclos es
Ġposition ing
Ġfreedom s
Ġkil ogram
Ġemploy ing
Ġtemper ate
Ġdeb ates
Ġstrugg les
Ġbá»ķ n
Ġsmell y
Ġsmell ing
Ġenjoy able
Ġthr ived
Ġcapital ist
Ġeffic acy
Sh ort
Sh eryl
Ġroll er
Ġgenetic ist
Ġoptim ist
Ġstar ve
iling ual
Ġord ering
ThÃ ´i
Ġforget ting
Kho áº£nh
ĠnhÃ¡ p
Ġdispl ace
Ġphoto j
Be au
ĠWeb ster
Ġcustom ized
Ġterm ites
Ġmut ilation
Ġliber ating
Ġunc les
Ġax e
ĠEn ter
Ġut er
Ġclick ed
Ġmicro RN
Ġver se
Ġappl iances
Ġinfrastruct ures
Ġpuzz led
Look ing
ij i
Ġfuel ed
ĠLu áºŃn
Ġbrilli antly
ĠSun itha
ĠLeg adema
Ġhost ility
ĠHig g
Ġintellect ually
ĠTur bo
ĠJack ie
Ġcred ible
Ġround ed
Ġund ers
Ġdiet ing
Go ing
Ġsubst ances
Ġinvestig ated
Ġmill imeters
Ġfrag rance
Ġodd ly
ĠJon ny
Ġbelong ed
Ġgard ening
Ġque ue
Ġmigr ants
ĠPhÃ ¢n
ĠPhÃ Ńa
ĠTony a
Ġsmile y
ĠYemen i
Ġanalog ous
More over
Ġconstruct ions
Ġvibr ation
Ġpal ms
Ġtall est
etr ical
ĠHer itage
Ġwarm th
ĠbÃ¹ m
Ġtang o
Ġdrag on
ĠBlack awton
Ġsen iors
Ġflower ing
Ġflash es
Ġnit Æ¡
ĠhÃ² m
organ isms
Ġmel ts
Ġconfront ation
Ġrot ates
Ġconsist ency
Ġobser ver
ĠEas y
Ġantibiot ic
ek hov
Ġrebu ilt
Ġassign ments
Ġgall eries
Ġchurch es
Ġneut ron
Ġstoryt ellers
Ġur anium
Ġasp iration
ĠPat ent
Ġprem ium
Ġembarrass ment
Ġwel comed
resp ons
Ġthin ner
Ġbeach es
Ġconver ts
ĠComm ission
Ġimplement ation
Ġestablish ment
Br it
ĠVi enna
Ġ46 6
Ġreplic ated
viol ent
Ġment oring
Ġpill ow
ĠSen ior
ĠRock well
Ġfeature d
Ġrub bish
Ġcast le
Ġped al
Ġpretend ing
ĠColl usion
Ġrefriger ation
Am ong
Ġflood ed
ĠHis pan
Comp are
Ġtoler ant
Ġbull do
Ġprosper ous
ĠSer b
tail ed
Ġaccum ulated
ĠBeij erinck
Ġalgorithm ic
Ġcens us
Ġlens es
Ġhalluc ination
ĠBern oulli
Ġspell ed
Ġspark ed
engine ered
Ġsle e
Ġanthrop ologists
Ġadministr ators
Ġdynam ically
Ed ucation
sell ing
umin ous
ĠJud aism
Ġredef ined
Ġstereoty pe
Ġsuck ed
Ġdiam onds
Ġ193 8
ĠQue ens
Ġpurch ases
Ġpurch asing
pro v
Ġfet uses
Ġtherm o
Ġborrow ed
Ġprotest ing
Ġimmun ization
ĠTunis ian
Ġhier arch
Ġvent ilated
Ġpyram ids
Ġenh ances
Ġenh anced
Ġbell s
Ġrail way
Ġsav anna
ĠnhÃº m
Ġsupermark ets
ĠMod el
ĠFed eral
ĠFed eration
gi ene
Ġmurd erer
Ġgre edy
ĠAsh down
aware ness
Ġpir ates
ĠBo ard
ĠRem ember
Ġannoy ed
Ġwet lands
ĠMedic ines
ĠÂ ¼
Ġinterconnected ness
Ġspons or
ĠStr at
Ġmemb ranes
ĠPost Secret
Ġbrows ing
Ġdecl ined
Ġdivor ced
Ġcra ve
Ġprol ong
Ġwhistle bl
Jo el
Ġreass uring
Ġspo il
Ġspray ing
ĠVol vo
Ġutil ize
Ġutil itarian
ĠchÃ© m
Ġalign ment
play er
Ġstake holders
ĠLaure n
Ġjar gon
Ġlawn s
Ġdemocrat ization
Ġimmers ion
gener ation
gener ated
ĠTw ain
ĠJen kins
Ġtempor arily
Ġsummar ized
Ġaspir ations
Ġempath ize
Ġcass ava
Ġbureaucr acy
ĠCS I
Ġsidewalk s
Ġhurd le
nov a
Ġlingu istic
opp y
Ġsovere ignt
Ġenlight ened
Ġundergrad uates
Ġflaw ed
perform ing
Phil ip
Ġhaunt ed
ĠDun lap
Ġperpet ual
Ġregul atory
Ġski ing
Ġfemin ine
Ġcontamin ated
Ġpresum ably
Ġpsychiatr ists
Ġsacrific es
ifi able
Ġundergo ing
Ġoccas ions
Ġcatad ores
Ġpenetr ate
Ġmes se
Ġdivid es
Ġrecur rent
Ġconsol ation
ĠDenisov ans
ĠEr n
Ġdispar ate
Ġpreval ent
Ġhoc key
ĠPach ycephal
ĠKend all
Ġcourts hip
ĠCorn ell
ĠTi Vo
Ġcomed ian
ĠInf inity
Ġcarcin ogens
ĠAss ange
Ġaggreg ate
Bre nda
Hope fully
Mat th
Ġswo llen
Ġove rest
Ġkar ate
Ġpav ilion
Ġfest ival
Ġcann ib
ĠDew ey
Ġunint ended
ĠVel cro
Ġfulfill ment
áº¢ nh
Ġrecipr ocity
Ear ly
sens itive
ĠBul gar
ieg el
ĠChev al
Ġsubsequ ently
Ġcounterpart s
Bel ieve
Ġnin ja
Ġsie ge
Ġhaz ard
Ġjur isd
Ġreserv ations
Ġcalor ie
Ġtempl ate
ĠYugoslav ia
idel ity
ĠTox o
Ġsober ing
Ġspraw l
Ġuncon ventional
Ġeyew itness
Ġprogramm able
Sev enty
Ġcohere nt
ĠParik rma
Govern ments
Ġpersever ance
Ġcater pill
Ġgau ge
ĠNok ia
ĠKerm it
Ġdecon struct
Ġmicrow ave
ĠProg ress
ĠEnri quez
ĠDemocracy OS
Ġcuc umber
ĠCron in
threat ening
Ġasyl um
ogl obin
Ġincons ist
Ġsuperp owers
Ġirreg ular
ĠGlas gow
ĠBelg ium
Ġcafet eria
kig ai
ĠÄĳuá»£ c
Ġbise xual
Ġvalle ys
Ġreju ven
Ġgogg les
ĠBati uk
ĠRena issance
Ġunlim ited
Ġdisbel ief
Ġamyg dala
ĠmicroRN As
3 4
5 4
A p
A ct
A id
A fe
A aron
B l
B ea
B ring
B everly
B á»Ĺng
C r
C á»§a
D H
D áº§n
D anh
D ave
[...]
