{"<s>":0,"<pad>":1,"</s>":2,"<unk>":3,"<mask>":4,"!":5,"\"":6,"#":7,"$":8,"%":9,"&":10,"'":11,"(":12,")":13,"*":14,"+":15,",":16,"-":17,".":18,"/":19,"0":20,"1":21,"2":22,"3":23,"4":24,"5":25,"6":26,"7":27,"8":28,"9":29,":":30,";":31,"<":32,"=":33,">":34,"?":35,"@":36,"A":37,"B":38,"C":39,"D":40,"E":41,"F":42,"G":43,"H":44,"I":45,"J":46,"K":47,"L":48,"M":49,"N":50,"O":51,"P":52,"Q":53,"R":54,"S":55,"T":56,"U":57,"V":58,"W":59,"X":60,"Y":61,"Z":62,"[":63,"\\":64,"]":65,"^":66,"_":67,"`":68,"a":69,"b":70,"c":71,"d":72,"e":73,"f":74,"g":75,"h":76,"i":77,"j":78,"k":79,"l":80,"m":81,"n":82,"o":83,"p":84,"q":85,"r":86,"s":87,"t":88,"u":89,"v":90,"w":91,"x":92,"y":93,"z":94,"{":95,"|":96,"}":97,"~":98,"¡":99,"¢":100,"£":101,"¤":102,"¥":103,"¦":104,"§":105,"¨":106,"©":107,"ª":108,"«":109,"¬":110,"®":111,"¯":112,"°":113,"±":114,"²":115,"³":116,"´":117,"µ":118,"¶":119,"·":120,"¸":121,"¹":122,"º":123,"»":124,"¼":125,"½":126,"¾":127,"¿":128,"À":129,"Á":130,"Â":131,"Ã":132,"Ä":133,"Å":134,"Æ":135,"Ç":136,"È":137,"É":138,"Ê":139,"Ë":140,"Ì":141,"Í":142,"Î":143,"Ï":144,"Ð":145,"Ñ":146,"Ò":147,"Ó":148,"Ô":149,"Õ":150,"Ö":151,"×":152,"Ø":153,"Ù":154,"Ú":155,"Û":156,"Ü":157,"Ý":158,"Þ":159,"ß":160,"à":161,"á":162,"â":163,"ã":164,"ä":165,"å":166,"æ":167,"ç":168,"è":169,"é":170,"ê":171,"ë":172,"ì":173,"í":174,"î":175,"ï":176,"ð":177,"ñ":178,"ò":179,"ó":180,"ô":181,"õ":182,"ö":183,"÷":184,"ø":185,"ù":186,"ú":187,"û":188,"ü":189,"ý":190,"þ":191,"ÿ":192,"Ā":193,"ā":194,"Ă":195,"ă":196,"Ą":197,"ą":198,"Ć":199,"ć":200,"Ĉ":201,"ĉ":202,"Ċ":203,"ċ":204,"Č":205,"č":206,"Ď":207,"ď":208,"Đ":209,"đ":210,"Ē":211,"ē":212,"Ĕ":213,"ĕ":214,"Ė":215,"ė":216,"Ę":217,"ę":218,"Ě":219,"ě":220,"Ĝ":221,"ĝ":222,"Ğ":223,"ğ":224,"Ġ":225,"ġ":226,"Ģ":227,"ģ":228,"Ĥ":229,"ĥ":230,"Ħ":231,"ħ":232,"Ĩ":233,"ĩ":234,"Ī":235,"ī":236,"Ĭ":237,"ĭ":238,"Į":239,"į":240,"İ":241,"ı":242,"Ĳ":243,"ĳ":244,"Ĵ":245,"ĵ":246,"Ķ":247,"ķ":248,"ĸ":249,"Ĺ":250,"ĺ":251,"Ļ":252,"ļ":253,"Ľ":254,"ľ":255,"Ŀ":256,"ŀ":257,"Ł":258,"ł":259,"Ń":260,"á»":261,"áº":262,"Ġt":263,"ng":264,"Ġc":265,"Ãł":266,"ĠÄ":267,"ĠÄĳ":268,"Ġn":269,"há»":270,"hÃ":271,"Ġv":272,"Ġl":273,"Æ°":274,"Ġm":275,"Ġ,":276,"Ġb":277,"Ã³":278,"Ġ.":279,"Ġk":280,"iá»":281,"háº":282,"Ã´":283,"Ã¡":284,"nh":285,"Ġs":286,"Ġtr":287,"Æ°á»":288,"áº¡":289,"á»Ļ":290,"Ġng":291,"Ġg":292,"ĠlÃł":293,"áº¿":294,"Ã´i":295,"ĠvÃł":296,"Ġh":297,"Ġthá»":298,"áº£":299,"Ãª":300,"Ġr":301,"hÃº":302,"á»Ļt":303,"Ġp":304,"Ġd":305,"ĠÄĳá»":306,"Ġnh":307,"ĠtÃ´i":308,"qu":309,"Ġcá»":310,"Ġvá»":311,"Ġmá»Ļt":312,"áº¥":313,"ĠcÃ³":314,"ĠkhÃ":315,"Ġch":316,"hÃºng":317,"Ãªn":318,"ĠcÃ¡":319,"Ġth":320,"Ã¬":321,"¯ng":322,"Ġnhá»":323,"á»ĳ":324,"iá»ĩ":325,"Ã¢":326,"Ġhá»":327,"Ŀi":328,"Æ¡":329,"Ľi":330,"Ġnhá»¯ng":331,"Ġtháº":332,"Ġcá»§":333,"ĠchÃºng":334,"Ġcá»§a":335,"´ng":336,"iáº¿":337,"Ġtá»":338,"áº¡n":339,"Ġta":340,"Ã£":341,"ĠcÃ¡c":342,"ĠnÃł":343,"Ġqu":344,"iá»ģ":345,"ĠkhÃ´ng":346,"Æ°á»£":347,"ĠnÃ³":348,"á»Ł":349,"áº§":350,"ong":351,"áºŃ":352,"Æ°á»Ŀi":353,"á»±":354,"Ġgi":355,"ĠÄĳÃ³":356,"Ġx":357,"iá»ģu":358,"ĠngÆ°á»Ŀi":359,"Ġbáº¡n":360,"Ġkh":361,"áº¥t":362,"áº¡i":363,"Ġtrong":364,"Ġthá»ĥ":365,"Æ°á»£c":366,"uy":367,"ĠnÃły":368,"ĠÄĳÃ£":369,"Ġchá»":370,"Äĥ":371,"ĠÄĳÆ°á»£c":372,"ĠthÃ":373,"Ã¢y":374,"ĠnhÆ°":375,"Ġhá»į":376,"ot":377,"Ġ&":378,"Ġpháº":379,"Ġvá»Ľi":380,"Ġngh":381,"quot":382,"Ġcho":383,"an":384,"VÃł":385,"ay":386,"Ġra":387,"Ġsáº":388,"Ġsá»±":389,"Ġgiá»":390,"ĠmÃł":391,"ĠlÃłm":392,"ch":393,"Ã´ng":394,"áº±":395,"Ġnháº":396,"ang":397,"ĠphÃ":398,"Ġá»Ł":399,"iÃªn":400,"á»į":401,"áº±ng":402,"ĠÄĳá»ĥ":403,"Ġcáº£":404,"Ġvá»ģ":405,"ÃŃ":406,"Ã¬nh":407,"Ġsáº½":408,"Ġbá»":409,"uá»ĳ":410,"iá»ĥ":411,"Æ¡n":412,"iáº¿t":413,"£i":414,"ĠÄĳiá»ģu":415,"Ä©":416,"áº·":417,"Ġtháº¿":418,"ĠT":419,"Ġlá»":420,"Ġho":421,"on":422,"Æ°á»Ľ":423,"áº¿n":424,"áº§u":425,"Ġtá»«":426,"áº¯":427,"Ãłnh":428,"Ġkhi":429,"©ng":430,"uyá»":431,"anh":432,"ĠkhÃ¡":433,"Ã¹":434,"Ġsá»ĳ":435,"inh":436,"±c":437,"ĠnÃ³i":438,"áº§n":439,"ao":440,"Ġdá»":441,"ai":442,"Ġcháº":443,"©c":444,"iá»ĩn":445,"ĠchÃ":446,"Ãº":447,"ĠnÄĥ":448,"ĠÄĳáº¿n":449,"Ġtháº¥":450,"Ġ1":451,"ĠhÃ":452,"Ġ?":453,"Ġpháº£i":454,"ĠnhÃ":455,"iá»ĩc":456,"Æ°á»Ŀ":457,"Æ°á»Ľc":458,"ÄĲ":459,"Ã²":460,"Ġráº±ng":461,"ĠvÃło":462,"ĠgÃ¬":463,"Æ°á»Ŀng":464,"ĠÄĳang":465,"Ãłn":466,"Ġmá»":467,"Ġviá»ĩc":468,"au":469,"Ġláº¡i":470,"ĠváºŃ":471,"Ġtháº¥y":472,"ĠnghÄ©":473,"ĠÄĳá»Ļ":474,"Ġráº¥t":475,"ĠcÃ¡ch":476,"Ã½":477,"in":478,"ĠhÆ¡n":479,"Ġná»":480,"áº¥y":481,"ĠC":482,"Ġnhiá»ģu":483,"Æ°Æ¡":484,"Ãłi":485,"¢n":486,"Ġháº":487,"áº£n":488,"Ã¹ng":489,"Ġthá»±c":490,"iáº¿n":491,"ĠÄĳáº§u":492,"TÃ´i":493,"Æ°Æ¡ng":494,"¥t":495,"ĠÄĳÃ¢y":496,"Ġ-":497,"Ġhá»įc":498,"Ġcon":499,"ĠkhÃ¡c":500,"ķi":501,"Ã¢u":502,"á»įi":503,"Ġchá»ī":504,"áº¡o":505,"Ġsá»":506,"áº¿u":507,"ĠcÃ´ng":508,"ĠtrÃªn":509,"á»ĵ":510,"ĠcÃ¡i":511,"Ã¡c":512,"ĠnÃło":513,"Ġbiáº¿t":514,"áº¿t":515,"ĠvÃ¬":516,"ĠÄĳá»ģ":517,"ung":518,"ĠchÃŃ":519,"uyá»ĩ":520,"Ãłng":521,"Ġphá»":522,"iá»ĩu":523,"ĠphÃ¡":524,"Nh":525,"ĠnÄĥm":526,"Å©ng":527,"Æ¡i":528,"uá»ĳn":529,"ĠÄĳi":530,"Ġthá»©":531,"Ġdá»¥":532,"ĠthÃłnh":533,"á»Ļc":534,"Ġ:":535,"Ġ--":536,"áº¯t":537,"Æ°ng":538,"ĠcÅ©ng":539,"ĠnhÃł":540,"ChÃºng":541,"uá»Ļc":542,"ĳng":543,"Ġbá»ĭ":544,"Ġto":545,"ĠM":546,"áº»":547,"Ġquan":548,"Ġkho":549,"Ġmuá»ĳn":550,"ĠsÃ¡":551,"ĠtháºŃ":552,"eo":553,"em":554,"ĠnháºŃ":555,"ĠmÃ¬nh":556,"hi":557,"Ġtrá»":558,"¯a":559,"Ġnháº¥t":560,"Ġká»":561,"NhÆ°ng":562,"ĠN":563,"Æ°á»Ł":564,"Ġtáº¡o":565,"áº«":566,"Æ°á»Łng":567,"ĠB":568,"ĠÄĳá»Ļng":569,"Ġtá»ĳ":570,"Ġgiá»Ľi":571,"ĠchÃŃnh":572,"ĠnhÆ°ng":573,"Ġlo":574,"ĠnÃªn":575,"Ġgiáº£":576,"á»Łi":577,"ĠváºŃy":578,"áº·t":579,"§n":580,"ģn":581,"Ãły":582,"Ġlá»Ľ":583,"¬nh":584,"Ãªu":585,"ĠhÃ¬nh":586,"Æ°a":587,"Ã²n":588,"ıi":589,"iá»ĥu":590,"Ġhiá»ĩn":591,"ĠtÃŃ":592,"Ġgiá»Ŀ":593,"Ã¢n":594,"Ġsá»ĳng":595,"uyá»ĩn":596,"Ġtiáº¿":597,"Ġtáº¡i":598,"ĠnháºŃn":599,"Ġmá»įi":600,"Ã¡i":601,"Æ°á»£ng":602,"áº¥n":603,"Ġnáº¿u":604,"er":605,"uá»":606,"ĠH":607,"¬n":608,"Ġquy":609,"Ġcuá»Ļc":610,"Ã©":611,"Ġcáº§n":612,"ĥn":613,"am":614,"Ġhay":615,"Ã¡n":616,"Ġtá»±":617,"áº·c":618,"áºŃp":619,"uáºŃ":620,"Ġ2":621,"á»ĵi":622,"ĠthÃ¬":623,"Ã¢m":624,"ĠÄĳá»ĭ":625,"00":626,"ĠÄĲ":627,"ĠÄĳá»ĵ":628,"Ġtáº¥t":629,"ĠÃ´ng":630,"Ġáº¥y":631,"en":632,"Ġtá»Ľi":633,"Ġbá»Łi":634,"Ġtheo":635,"Ġbáº¯t":636,"ĠcÃ²n":637,"iá»ĥm":638,"ĠnhÃ¬n":639,"Ġlá»Ľn":640,"ĠA":641,"ĠÄĳÃ¡":642,"ĠcÃ¹ng":643,"áº«n":644,"Ġbáº±ng":645,"ĠÃ½":646,"Ġcáº£m":647,"iá»ĥn":648,"Ġtáº¿":649,"Ãºc":650,"Ġdá»¥ng":651,"Ġcá»©":652,"ĠlÃªn":653,"ĠtháºŃt":654,"Ġsau":655,"ĠgiÃ¡":656,"Ġbáº£n":657,"ĠcÃ¢u":658,"Ġanh":659,"Ġtin":660,"Ġsao":661,"Ġqua":662,"Ġthá»Ŀi":663,"Ġchuyá»ĩn":664,"Ġkhá»":665,"Ġtrá»Ł":666,"ĠS":667,"iá»ĩm":668,"Ġbá»Ļ":669,"Ã´n":670,"ĠnhÃ¢n":671,"ĠngÃły":672,"ĠcÆ¡":673,"Ġhá»Ļ":674,"Ġsinh":675,"Äĥn":676,"Ġkháº":677,"ĳi":678,"Ĺi":679,"¥c":680,"ĠthÃŃ":681,"áº£ng":682,"áº£nh":683,"ĠnÄĥng":684,"Ġsá»Ń":685,"ĠphÃ¡t":686,"ĠtrÆ°á»Ľc":687,"ĠnÆ°á»Ľc":688,"ia":689,"ĠÄĳá»ķi":690,"iá»ĩt":691,"ĠtoÃłn":692,"ĠmÃ¡":693,"Ã¬m":694,"Ġpháº§n":695,"ĠnÆ¡i":696,"Ġgia":697,"Ġdo":698,"ĠthÃ´ng":699,"Ġdá»±":700,"Ġnhau":701,"ĠtÃ¬m":702,"ar":703,"Ġmá»Ľi":704,"Ġthay":705,"Ġy":706,"Ġváº¥n":707,"ĠÄĳá»ĭnh":708,"Ġhá»ĩ":709,"ĠtrÆ°á»Ŀng":710,"Ġnghá»":711,"ĠnhiÃªn":712,"ĠtÃŃnh":713,"Ġph":714,"iá»ħ":715,"ĠtrÃ¬nh":716,"Ġmáº¡":717,"Ġtá»ĳt":718,"ĠtÆ°á»Łng":719,"Ġkáº¿t":720,"Äĥng":721,"ĠváºŃt":722,"ĠlÃ½":723,"ĠhÃłng":724,"Ġhá»ıi":725,"¿t":726,"ĠP":727,"Ġháº¡":728,"£p":729,"ĠK":730,"á»±c":731,"ĠmÃ¡y":732,"Ġáº£nh":733,"á»ĳi":734,"uáºŃt":735,"ĠTÃ´i":736,"ĠthÃ¡":737,"Ġhá»£p":738,"ĠL":739,"áº¡t":740,"Ġmáº·t":741,"¯c":742,"NÃ³":743,"ĠhÃłnh":744,"Ġtiáº¿p":745,"Ġná»¯a":746,"Ġkinh":747,"ÄĲÃ¢y":748,"³ng":749,"Ġgian":750,"Ġthá»©c":751,"Ġhá»Ļi":752,"Ġtrá»į":753,"Ġvá»ĭ":754,"áºŃy":755,"Ġthiáº¿t":756,"áº¹":757,"Ãło":758,"Ġchiáº¿":759,"áº¥u":760,"uyÃªn":761,"Ńa":762,"Ġá»":763,"Ġxem":764,"Ġliá»ĩu":765,"Ġrá»ĵi":766,"Ġtrá»įng":767,"ĠhoÃ¡":768,"uá»ķi":769,"ĠthÃŃch":770,"ĠcÃ´":771,"áº©":772,"áº£o":773,"ĩnh":774,"ĠÄĳá»ĵng":775,"iá»ħn":776,"Ġgiáº£i":777,"iÃªu":778,"Ġtráº»":779,"ĠlÆ°á»£ng":780,"Ġhai":781,"ĠÄĳo":782,"ĠquÃ¡":783,"Ġai":784,"Ġngá»":785,"ĠthÆ°á»Ŀng":786,"Ġbáº¥t":787,"ĠvÃłi":788,"áº½":789,"ĠÄĳá»ģu":790,"ĠtiÃªn":791,"ĠG":792,"ĠÄĳá»ĳi":793,"ĠsÃ¡ng":794,"á»Ļng":795,"Ġtráº£":796,"Ġhiá»ĥu":797,"ĠtÃ¢m":798,"Ġnay":799,"ÄĲÃ³":800,"Ġloáº¡i":801,"Ġgiá»ĳng":802,"VÃ¬":803,"áº£y":804,"Ġláº§n":805,"Ġcá»©u":806,"ĠthÃº":807,"Ġthá»ĳng":808,"ĭch":809,"Ġbá»ĩnh":810,"Ġbao":811,"Báº¡n":812,"Ġ3":813,"Ã²ng":814,"ĠviÃªn":815,"Ãºng":816,"£y":817,"Ġnghá»ĩ":818,"iá»ģn":819,"ĠÄĳiá»ĥm":820,"hÃºt":821,"Ġngo":822,"ĠnghÄ©a":823,"Ġgá»įi":824,"ĠTr":825,"Ġnhá»ı":826,"VáºŃy":827,"áº¯ng":828,"ĠÄĳÆ°a":829,"Ġxu":830,"ĠhoÃłn":831,"ĠtÆ°Æ¡ng":832,"Ġnghiá»ĩm":833,"Ġquáº£":834,"ĠtÃ¡c":835,"ĠÄĳÆ°á»Ŀng":836,"ĠD":837,"uyá»ĥn":838,"or":839,"Ġváº«n":840,"uyá»ĩt":841,"Å©":842,"Ġcá»ĳ":843,"Äĥm":844,"Ġxáº£y":845,"Tr":846,"uyá»ģn":847,"á»ĳc":848,"Ġchiáº¿c":849,"ĠthuáºŃt":850,"Má»Ļt":851,"Ġbiá»ĩt":852,"ĠÃŃ":853,"ĠdÃ¹ng":854,"ĠÄĳáº¡i":855,"al":856,"há»¯ng":857,"ĠbÃªn":858,"Ġtá»«ng":859,"Ġhoáº·c":860,"ĠdÃ¢n":861,"Ġtriá»ĥn":862,"Ġchuyá»ĥn":863,"iá»ĩp":864,"ĠlÃºc":865,"Ã£o":866,"Ġdiá»ħn":867,"Ġtrá»ĭ":868,"Ġquyáº¿t":869,"«ng":870,"Ġcao":871,"Ġnghe":872,"Ġthu":873,"Ãºp":874,"ĠÄĥn":875,"Ġdáº¡":876,"uÃ´n":877,"uá»ĳc":878,"Ġtuyá»ĩt":879,"áº¯c":880,"Ġcáº§u":881,"Ġtá»ķ":882,"Ġmá»Ĺi":883,"uá»ĳi":884,"Ġvi":885,"Ġkhoáº£ng":886,"Ġlá»±c":887,"Ġkáº¿":888,"Ġcháº¥t":889,"Ġphá»¥":890,"ĠÃ¡":891,"ĠbÃ¡":892,"áº¥p":893,"im":894,"CÃ³":895,"Ġlá»Ŀi":896,"ĠgiÃ¡o":897,"ĠÄĳáº¥t":898,"ĠgiÃºp":899,"es":900,"²ng":901,"Ġem":902,"ĠÆ¡n":903,"Ãµ":904,"©a":905,"Ġtrung":906,"Ġchá»§":907,"áº©n":908,"Ġbáº£o":909,"Há»į":910,"Ġná»¯":911,"Ġkháº£":912,"Ġtiáº¿n":913,"os":914,"Ġháº¿t":915,"ĠphÃ²ng":916,"Æ°á»Ľi":917,"ĠR":918,"el":919,"ĠtÃ¬nh":920,"ĠchÆ°a":921,"ĠnghiÃªn":922,"hÃ´ng":923,"Ġxuáº¥t":924,"Æ°á»Ľng":925,"ĠVÃł":926,"Ġxe":927,"Ġmang":928,"á»¹":929,"ĠliÃªn":930,"ĠphÃ¢n":931,"Ġtranh":932,"ĠbÃłi":933,"ĠkhÃ³":934,"ĠÄĳÆ¡n":935,"áº¯n":936,"ĠnÃ£o":937,"ĠtáºŃp":938,"Ġtruyá»ģn":939,"¥p":940,"Ġtuá»ķi":941,"ĠÄĳÃºng":942,"ĠÄĳiá»ĩn":943,"ĠphÆ°Æ¡ng":944,"ĠbÃ¬nh":945,"ÄĲiá»ģu":946,"ĠÄĳáº·t":947,"©m":948,"ĠtÆ°á»£ng":949,"iÃª":950,"Ġtay":951,"uá»ĳng":952,"Ġbiáº¿n":953,"uá»ĵ":954,"Ġtiá»ģn":955,"Ġgiá»¯a":956,"ĠyÃªu":957,"Ġsáº£n":958,"©p":959,"Ġtiáº¿ng":960,"Ġtho":961,"ĠbÃ©":962,"áº·p":963,"Ġngay":964,"Ġquyá»":965,"Ġkhoa":966,"áºŃn":967,"ĠhÃ£y":968,"áº¡c":969,"áº§m":970,"Ġláº¥y":971,"Ġbá»ı":972,"Náº¿u":973,"ĠtrÃŃ":974,"et":975,"Ġnháº¡":976,"ĠxÃ£":977,"Ng":978,"Ġgáº§n":979,"Ġhoáº¡t":980,"Nhá»¯ng":981,"Ġchiáº¿n":982,"Ġthá»ĭ":983,"Ġkhu":984,"ĠÄĳÃ¡ng":985,"ĠsÃ¡ch":986,"Ġphi":987,"ĠI":988,"Ġpháº©m":989,"ĠthÃ¢n":990,"ĠphÃ¡p":991,"Ġhiá»ĩu":992,"ĠkhÃŃ":993,"Ġcuá»ĳi":994,"ĠÄĳá»Ŀi":995,"ĠchÆ¡i":996,"Tháº":997,"Ã£y":998,"Ġ5":999,"Ġmáº¥t":1000,"Ġminh":1001,"uyáº¿t":1002,"Ġsá»©c":1003,"á»Ļi":1004,"Ġká»ĥ":1005,"Ġso":1006,"ĠhÃ´":1007,"ĠMá»¹":1008,"įng":1009,"ĠV":1010,"uá»ĵn":1011,"Ġmáº¡nh":1012,"ĠkÃŃ":1013,"at":1014,"Ġnghiá»ĩp":1015,"Ã³c":1016,"is":1017,"ĠngoÃłi":1018,"Khi":1019,"ĠÃŃt":1020,"Ġdáº«n":1021,"ĠláºŃp":1022,"ĠtÃłi":1023,"ĠÄĳáº¥y":1024,"ĠmÃ´":1025,"¯p":1026,"«a":1027,"ĠloÃłi":1028,"Ġká»³":1029,"Ġbá»©c":1030,"Ġtinh":1031,"Ġrá»":1032,"ĠluÃ´n":1033,"uáºŃn":1034,"Ġ4":1035,"Ġdá»±ng":1036,"ĠxÃ¢y":1037,"ĠQ":1038,"ĠtiÃªu":1039,"Ã©t":1040,"Ġphá»ĳ":1041,"Ġchá»į":1042,"ĠtÃªn":1043,"ĠvÃ´":1044,"Ġcá»Ļng":1045,"ĠvÄĥn":1046,"ĠÃ¢m":1047,"Ġchá»©ng":1048,"Ġtá»Ń":1049,"ic":1050,"ĠhÆ°á»Ľng":1051,"Ġhá»ĵ":1052,"áºŃt":1053,"Ġnháº¡c":1054,"ĠJ":1055,"Ġthá»Ń":1056,"Ġviáº¿t":1057,"ap":1058,"ĠÄĳÃ¢u":1059,"Ġchá»©c":1060,"ĠnguyÃªn":1061,"Ġkiáº¿n":1062,"Ġquá»ĳc":1063,"ua":1064,"Ġá»©ng":1065,"Ġvá»Ŀi":1066,"Ġchá»įn":1067,"Ġgiáº£n":1068,"Ġquyá»ģn":1069,"Ġcháº¿":1070,"Ġba":1071,"ĠÄĳáº·c":1072,"Ġbá»ĳ":1073,"Ġcháº¿t":1074,"ĠtÆ°":1075,"iáº¿m":1076,"ĠbÃło":1077,"Ġmáº¡ng":1078,"Ġcáº¥p":1079,"Ġsuy":1080,"ĠÃ":1081,"Ġtriá»ĩu":1082,"ĠbÃł":1083,"³m":1084,"ĠtÄĥng":1085,"Trong":1086,"Ġvá»¥":1087,"Ġtháº§n":1088,"Ġná»ģn":1089,"ĠÄĳáº¡o":1090,"Ġláº½":1091,"ĠÄĳá»©a":1092,"£n":1093,"il":1094,"áº¡p":1095,"ĠsÄ©":1096,"Ġkhá»ıi":1097,"áº£m":1098,"Ġchu":1099,"ĠmÃłu":1100,"CÃ¡c":1101,"á»Ń":1102,"as":1103,"Ġdi":1104,"ĠÄĳÃ¡nh":1105,"Ġcá»¥":1106,"Ġmáº¹":1107,"Ġgáº·p":1108,"ĠthÃ¡ng":1109,"¯n":1110,"ĠdÆ°á»Ľi":1111,"Ġtá»ĵ":1112,"it":1113,"ol":1114,"ªm":1115,"áº¥m":1116,"ĠchÃºt":1117,"Ġxuá»ĳng":1118,"áº¹p":1119,"ĠW":1120,"Ġgáº¯ng":1121,"Ã¢ng":1122,"áº§y":1123,"Ġ..":1124,"áºŃu":1125,"ĠF":1126,"ĠphÃ©p":1127,"Ġquanh":1128,"ĠnhÃ³m":1129,"Ġdá»ĭch":1130,"Ġmá»Ł":1131,"Ġvá»±c":1132,"ĠxÃ¡c":1133,"Ġkhiáº¿n":1134,"ĠE":1135,"Ġdá»¯":1136,"ĠÃ¡n":1137,"Ġ%":1138,"Ġchia":1139,"ĠChÃºng":1140,"Ġbay":1141,"Ã¡ch":1142,"000":1143,"¢u":1144,"Ġtham":1145,"ĠthÃªm":1146,"ĠtrÃ²":1147,"Ġthuyáº¿t":1148,"Ġmá»©c":1149,"Ġnhanh":1150,"Ġquay":1151,"ĠthÃ´":1152,"Ġdáº¡ng":1153,"ĠchÃº":1154,"Ġcháº¡":1155,"ĠÄĳÃłn":1156,"Ġcá»±c":1157,"Ã³ng":1158,"ĠgÃ¢y":1159,"ĠrÃµ":1160,"Ġvá»įng":1161,"Ġ10":1162,"Ġnguá»ĵn":1163,"ĠAnh":1164,"ĠvÃ¹ng":1165,"Ġhoáº¡":1166,"Ġcáº£nh":1167,"áº«u":1168,"ĠÄĳáº¹p":1169,"ĠbÃ¡o":1170,"Ġtá»¥c":1171,"Ã¨":1172,"ĠdÃ¹":1173,"ĠgiÃ¡c":1174,"Ġcháº¯c":1175,"ĠsÃ¡t":1176,"ĠcÃłng":1177,"Ġxa":1178,"Ġdá»ħ":1179,"vÃł":1180,"ĠÄĳá»§":1181,"BÃ¢y":1182,"ĠcÃ¢y":1183,"ĠbÃ¢y":1184,"áº¯m":1185,"ĠvÃŃ":1186,"Ã¡t":1187,"iÃªng":1188,"Ġtrang":1189,"KhÃ´ng":1190,"Ġphim":1191,"Ġnhá»Ľ":1192,"ĠphÃŃa":1193,"Ġbiá»ĥu":1194,"ĠhÆ°á»Łng":1195,"Æ°u":1196,"ĠhÃ´m":1197,"ĠÄĳoáº¡n":1198,"Ġduy":1199,"Ġ...":1200,"Ġchá»ĭ":1201,"Ġ19":1202,"Ġ20":1203,"ĠvÅ©":1204,"ĠkÃ¬":1205,"Ġcháº³ng":1206,"le":1207,"ĠtrÃ¡i":1208,"Ġkiá»ĥm":1209,"Ġláº¡":1210,"ĠthÆ°Æ¡ng":1211,"ter":1212,"Ķng":1213,"§ng":1214,"ho":1215,"ĠNg":1216,"ĠdÃłi":1217,"ĠvÃ²ng":1218,"ĠQuá»ĳc":1219,"Ńt":1220,"ĠluáºŃn":1221,"Ġngá»¯":1222,"Ġpháº£n":1223,"ĠÄĳÃ´i":1224,"Thá»":1225,"Ġtu":1226,"ĠÄĳáº§y":1227,"uyáº¿n":1228,"Ġdá»¥c":1229,"Ġlá»£i":1230,"áº£i":1231,"Ġkia":1232,"Ġgiáº£m":1233,"HÃ£y":1234,"Ġthuá»ĳc":1235,"ĠtháºŃm":1236,"Ġkiáº¿m":1237,"Ġty":1238,"Ġvu":1239,"Ġvá»«a":1240,"ĠchÃ¢n":1241,"ĠtÃŃch":1242,"ĠtrÄĥm":1243,"ĠthÆ°":1244,"us":1245,"ĠthÃ´i":1246,"apos":1247,"and":1248,"ac":1249,"Æ°á»¡":1250,"Ġ;":1251,"ĠTrung":1252,"ĠÄĳÃ¬nh":1253,"iáº¿u":1254,"Ġháº¡n":1255,"Ãłu":1256,"Ġgiao":1257,"ĠbÆ°á»Ľc":1258,"Ġlá»ĩ":1259,"Ġlai":1260,"ĠÄĳÃ´":1261,"Ġ6":1262,"Tháº¿":1263,"ĠsÃ¢u":1264,"Ġtá»ī":1265,"hÃ¡":1266,"ĠmÃ´i":1267,"ĠtoÃ¡n":1268,"Ġtráº£i":1269,"Ġtrá»Ŀi":1270,"iá»ģm":1271,"Ġtá»ĵn":1272,"ED":1273,"Ġdiá»ĩn":1274,"Ġrá»Ļng":1275,"Ġgiá»¯":1276,"Ġphá»¥c":1277,"Ġthanh":1278,"įc":1279,"ĠmÃ£":1280,"ĠlÃ£":1281,"ĠdÃłnh":1282,"Ġná»ĳi":1283,"ĠÄĳá»ĭa":1284,"ĠÄĳoÃ¡n":1285,"om":1286,"ĠlÃ²ng":1287,"ad":1288,"Ġthuá»Ļc":1289,"uá»ĳt":1290,"ĠriÃªng":1291,"Ġchi":1292,"Ġvá»ĩ":1293,"Ġtáº¡p":1294,"Ġsá»£":1295,"Ġmáº¯t":1296,"ĠÄĳá»©ng":1297,"Ġháº§":1298,"Ġ!":1299,"Ġmá»¥c":1300,"Ġná»ķi":1301,"ĠTh":1302,"Ġdáº¡y":1303,"Ġphá»§":1304,"ĠO":1305,"Ġsai":1306,"Ġváº»":1307,"ĠÄĳáº¡t":1308,"ĠcÄĥn":1309,"ĠnghÃ":1310,"ĠthÃºc":1311,"Ġká»¹":1312,"ĠluáºŃt":1313,"Ġsáº»":1314,"ob":1315,"Ġmáº«u":1316,"Ġxung":1317,"Ġtá»ĳi":1318,"Ġlá»ĭch":1319,"ur":1320,"ĠPhi":1321,"ĠÃ¡nh":1322,"ĠbÃłn":1323,"ĠÄĳá»įc":1324,"Ġlá»Ľp":1325,"ĠCh":1326,"Ġtrá»¥":1327,"Ġká»·":1328,"ĠY":1329,"Ġyáº¿u":1330,"Ãłm":1331,"Ġkháº¯p":1332,"Ġvui":1333,"ĠtrÃ´ng":1334,"Ġkhoáº»":1335,"Ġtiáº¿t":1336,"ĠchÆ°Æ¡ng":1337,"Ġcháº¡y":1338,"Ġngá»ĵi":1339,"ĠgÃ¡i":1340,"ĠphÃŃ":1341,"ĠphÃºt":1342,"ĠcáºŃu":1343,"Ġcuá»ĳn":1344,"Ġmá»ĳi":1345,"áº·ng":1346,"ĠkÃ©":1347,"Ġbuá»ķi":1348,"Ġsáº¯c":1349,"hÃºc":1350,"Æ°á»£t":1351,"Ġtrá»£":1352,"Ġcháº¯n":1353,"Ġsuá»ĳt":1354,"Ġháº§u":1355,"Ġkiá»ĩn":1356,"ra":1357,"á»±a":1358,"--":1359,"ew":1360,"Ġbiá»ĥn":1361,"ĠtrÃºc":1362,"ĠmÃ¹":1363,"ÃĶng":1364,"Ġchung":1365,"ĠHo":1366,"Ġ7":1367,"li":1368,"ĠngÃ´n":1369,"Ġmua":1370,"Ġdoanh":1371,"Ġkiá»ĥu":1372,"ĠsÆ°":1373,"Ġ8":1374,"ĠTED":1375,"Ġcá»Ńa":1376,"eb":1377,"Ġáº":1378,"ĠváºŃn":1379,"Ġ9":1380,"ĠcÃ¡nh":1381,"Ġ&#":1382,"ĠkhÃ¡m":1383,"Ġsá»Ł":1384,"Ġngáº¡c":1385,"Ġtháº£":1386,"ĠxÃºc":1387,"ĠxÃ©t":1388,"ĠrÃłng":1389,"ĠlÃ¢u":1390,"oo":1391,"Ġthoáº¡i":1392,"Ġtuáº§n":1393,"ĠbÃ¡n":1394,"Ġpháº¡":1395,"áº±m":1396,"oi":1397,"Ġhiá»ĥm":1398,"áº¡nh":1399,"Ġhá»ĵi":1400,"Giá»":1401,"ĠchÃ¡":1402,"ĠlÃŃ":1403,"Ġcáº¥u":1404,"Ãºt":1405,"Ġnhiá»ĩm":1406,"ĠNÃ³":1407,"Æ°á»¡ng":1408,"Ġphá»©c":1409,"ĠthiÃªn":1410,"ĠkÃŃch":1411,"Anh":1412,"Ġcung":1413,"á»įn":1414,"Ä©nh":1415,"Ġnáº±m":1416,"ĠchuyÃªn":1417,"Ġchá»¥p":1418,"ĠnháºŃp":1419,"Ġ200":1420,"Ġla":1421,"ĠbÃ³ng":1422,"áº¡ng":1423,"ĠBáº¡n":1424,"uá»·":1425,"ĠngÃ´i":1426,"á»įc":1427,"ÄĲá»":1428,"Bá»Łi":1429,"ĠthÃ¡i":1430,"Ġcáº¡nh":1431,"Ġkáº»":1432,"¯u":1433,"ĠÄĳá»Ļc":1434,"Ġviá»ĩn":1435,"Ġháº¡nh":1436,"ĠbÄĥng":1437,"Ġhá»¯u":1438,"áº¿p":1439,"Ġghi":1440,"ĠhoÃł":1441,"ĠngÃłnh":1442,"Ġchá»©":1443,"Ġchá»Ĺ":1444,"ĠtrÆ°á»Łng":1445,"Ġváº½":1446,"Ġkhá»§ng":1447,"ĠtháºŃp":1448,"ĠÃŃch":1449,"µn":1450,"Ġgá»":1451,"iÃªm":1452,"ĠÄĳa":1453,"ıng":1454,"Xin":1455,"háº¿":1456,"Ġchuáº©n":1457,"ĠbÃ¡c":1458,"Ġtra":1459,"Th":1460,"ĠphÃºc":1461,"ĠquÃ½":1462,"Ġthiáº¿u":1463,"Ġchá»ĭu":1464,"Ġhá»ģ":1465,"ĠháºŃ":1466,"NgÆ°á»Ŀi":1467,"Ġláº¯ng":1468,"Ġxanh":1469,"Ġtáº¥m":1470,"áº©y":1471,"Ġtá»ĩ":1472,"ĠChÃ":1473,"Ġsáºµn":1474,"Ġniá»ĩm":1475,"ĠhÃ¡":1476,"ĠnhiÃªu":1477,"Ġpháº¡m":1478,"Ġtá»©c":1479,"ri":1480,"Ã¡m":1481,"ĠkhÄĥn":1482,"Ġtrai":1483,"ĠKhÃ´ng":1484,"ĠtÃ¡i":1485,"Sau":1486,"ĠÄĳau":1487,"un":1488,"Ġan":1489,"Ġsáº¯p":1490,"Ãºi":1491,"ĠÃ¡p":1492,"ĠhÆ¡i":1493,"ro":1494,"áº¡ch":1495,"Ġdung":1496,"¥n":1497,"uÃ´i":1498,"Ã³n":1499,"Ġchá»ĳng":1500,"Ġláº¡c":1501,"á»ĳng":1502,"Ġtháº¥t":1503,"Ãªm":1504,"Táº¥t":1505,"Ġmáº·c":1506,"ĠNhÆ°ng":1507,"Ġmong":1508,"Ġcáº£i":1509,"Ġdá»±a":1510,"ĠÄĳÃ³ng":1511,"ĠchÃ¢u":1512,"NhÆ°":1513,"Ġxá»Ń":1514,"Vá»":1515,"Cáº£m":1516,"Ġlá»±a":1517,"Ġtrá»±c":1518,"á»Ļn":1519,"á»Ńi":1520,"á»ŀ":1521,"NÃªn":1522,"ĠÄĳá»Ļi":1523,"«u":1524,"Ġban":1525,"ĠbÃ¡nh":1526,"ĠháºŃu":1527,"Ġcá»ķ":1528,"Ġtá»ķng":1529,"Ġxin":1530,"Ġkhá»ķ":1531,"Ġná»Ļi":1532,"Ġkháº¯c":1533,"ĠvÆ°á»£t":1534,"ĠmáºŃt":1535,"Ġda":1536,"Ġxáº¥u":1537,"Ġtáº§m":1538,"ĠchÄĥm":1539,"ĠNew":1540,"Ġáº©n":1541,"Ġtá»·":1542,"Táº¡i":1543,"Ġdáº§n":1544,"ĠtoÃł":1545,"ĠÃ´":1546,"Ġgá»Ńi":1547,"ÃŃch":1548,"©t":1549,"Ġthiá»ĩn":1550,"Ġhá»©ng":1551,"Ġháº¡t":1552,"ĠÄĲá»":1553,"Ġtim":1554,"Ġ30":1555,"¨o":1556,"re":1557,"Ġnguy":1558,"¤n":1559,"Ġhy":1560,"ĠlÆ°u":1561,"Ġdanh":1562,"Ġtráº¡ng":1563,"Ġchiá»ģu":1564,"Ġnhiá»ĩt":1565,"ĠlÃ£nh":1566,"Ġw":1567,"ĠÄĳá»Ļt":1568,"Ã¡nh":1569,"Ġdáº§u":1570,"Ch":1571,"Ġniá»ģm":1572,"Ġtá»Ļi":1573,"ĠnghÃ¨o":1574,"Ġnhiá»ħ":1575,"net":1576,"Ġnáº¡n":1577,"Ġngoáº¡i":1578,"Giá»Ŀ":1579,"ĠcáºŃn":1580,"ĠIn":1581,"Ġsang":1582,"Ġáº¤n":1583,"Ġ100":1584,"Ġchá»¯a":1585,"Ġin":1586,"Ġcha":1587,"ĠkÃŃnh":1588,"Ġung":1589,"ĠÄĳáº¥u":1590,"Ġxo":1591,"id":1592,"Chá»":1593,"Ġdáº¥u":1594,"ĠÄĳáº©y":1595,"Thá»±c":1596,"Ã¡ng":1597,"ĠÄĲÃ³":1598,"Ġá»ķ":1599,"ĠSt":1600,"Ġná»Ĺi":1601,"ĠghÃ":1602,"ĠhÃ¡t":1603,"Ġmay":1604,"Ġ50":1605,"Ġthá»§":1606,"ĠkÃ©o":1607,"Ã£i":1608,"Ġngá»§":1609,"ĠÄĳen":1610,"ĠthÃ¡ch":1611,"ĠkhÃ¡ch":1612,"Ġtáº¯c":1613,"Ġ15":1614,"ĠÄĲá»Ļ":1615,"Ġgiáº¥y":1616,"ĠChÃ¢u":1617,"ĠngÆ°á»£c":1618,"ĠnuÃ´i":1619,"Ġgá»ĵ":1620,"iáº¿p":1621,"Ġbáº¡i":1622,"ĠÆ°á»Ľc":1623,"īnh":1624,"±ng":1625,"Łi":1626,"VÃ¢ng":1627,"Ġchá»¯":1628,"ĠTÃ¢y":1629,"Ġquáº£n":1630,"ĠsoÃ¡t":1631,"ah":1632,"Ġlá»Ĺi":1633,"Ġtiá»ĩn":1634,"ĠlÄ©nh":1635,"Ġcá»Ń":1636,"Ġnghi":1637,"Ġná»Ńa":1638,"ig":1639,"Ġmáº¯c":1640,"ist":1641,"th":1642,"Ġhoáº¡ch":1643,"ĠmÆ¡":1644,"ran":1645,"Ġgá»ĵm":1646,"Ġnhiá»ħm":1647,"ĵng":1648,"ĠdÆ°Æ¡ng":1649,"Ġtá»ĳc":1650,"Ġkhiá»ĥn":1651,"ÄĲá»ĥ":1652,"Ġtáº£":1653,"ĠsÃ³c":1654,"Ġcáº¯t":1655,"op":1656,"Ãµi":1657,"ternet":1658,"ĠgÃ³":1659,"Ġháº¡i":1660,"Ġgiáº¿t":1661,"háºŃt":1662,"Ġtháº³ng":1663,"ĠMá»Ļt":1664,"ĠU":1665,"ĠÄĳá»ĳ":1666,"Ġquen":1667,"ed":1668,"ĠbÃły":1669,"ĠdÃ¢y":1670,"ĠquÃ¢n":1671,"ĠtÃłu":1672,"Ġca":1673,"Ġkhá»ĳi":1674,"TháºŃt":1675,"ĠÄĳÃ´ng":1676,"ĠÄĳÃŃch":1677,"ĠNhá»¯ng":1678,"Ġchiáº¿u":1679,"ing":1680,"ĠlÆ°á»Ľi":1681,"ĠÄĳá»©c":1682,"CÃ¡i":1683,"Ġgen":1684,"Ġnhá»Ŀ":1685,"Ġtháº¥p":1686,"ĠdÃ²ng":1687,"ard":1688,"ĠmÃª":1689,"ag":1690,"áº¯p":1691,"Ġbáº§u":1692,"Ġthi":1693,"ĠCÃ³":1694,"Ġngá»Ŀ":1695,"ĠcÆ°":1696,"ĠÄĳÃªm":1697,"ĠniÃªn":1698,"ĠlÃ¡i":1699,"ĠX":1700,"ĠÄĳá»ķ":1701,"ĠdÃłng":1702,"ĠphÃ³ng":1703,"Sá»±":1704,"ĠcÆ°á»Ŀi":1705,"Ġkhai":1706,"ĠsÃłng":1707,"Ġhá»Ĺ":1708,"Ġcháº·":1709,"lo":1710,"Ġngáº¯n":1711,"Ġrá»ĳi":1712,"Ġxáº¿p":1713,"Ġcháº¥p":1714,"Ġgá»ĳc":1715,"á»ĵng":1716,"ĠtáºŃn":1717,"Ġphong":1718,"ĠnÃ´ng":1719,"Ġgáº¥p":1720,"ĠÄĲÃ¢y":1721,"ĠÄĳem":1722,"Ġ/":1723,"ĠÄĳá»¡":1724,"Ġbáº¡o":1725,"ĠgiÃ¢y":1726,"Ġláº¯m":1727,"ĠsÃ¢n":1728,"Ġká»ī":1729,"ĠbÃŃ":1730,"ĠtrÃ¡ch":1731,"Ġgáº¯n":1732,"Ġvai":1733,"ĠcÃ¡o":1734,"Ġbá»ĳn":1735,"ĠcÃ¢n":1736,"91":1737,"ton":1738,"ĠÄĳá»£i":1739,"93":1740,"CÃ´":1741,"Ńm":1742,"ĠngÃłn":1743,"ĠtÃ´n":1744,"Ġsu":1745,"Ġpháº«u":1746,"ey":1747,"áº§ng":1748,"ÃĿ":1749,"ĠhÃłi":1750,"Ġ12":1751,"ĠxuyÃªn":1752,"ab":1753,"ĠthÆ¡":1754,"ĠÃĤ":1755,"Ġnháº£y":1756,"Ġchuyáº¿n":1757,"ĠsiÃªu":1758,"Ġhoa":1759,"Ġdá»«ng":1760,"ĠAl":1761,"Tá»":1762,"Ġthá»¥":1763,"ĠThá»":1764,"uá»Ĺi":1765,"Ńn":1766,"ĠkÄ©":1767,"ĠmÃłn":1768,"ĠHÃ£y":1769,"Ġnghá»ĭ":1770,"Má»":1771,"ak":1772,"ĠkÃ½":1773,"Ġweb":1774,"Ġlao":1775,"Ġtáº§ng":1776,"Ġchim":1777,"Ġgiai":1778,"ĠÄĳáº£m":1779,"oh":1780,"Ġáº£o":1781,"Ġtáº£i":1782,"Ã¡o":1783,"Ġháº¥p":1784,"deo":1785,"Ġvideo":1786,"Ġphá»ķ":1787,"av":1788,"Ã¨n":1789,"ine":1790,"ork":1791,"ou":1792,"Ġkhá»Łi":1793,"ĠngÄĥn":1794,"ĠtÃ¹":1795,"Ġnháº¯c":1796,"ĳn":1797,"Ġrá»«ng":1798,"³n":1799,"Ġchá»īnh":1800,"Äĳ":1801,"oc":1802,"¹ng":1803,"ĠgÃ³c":1804,"Ġtháº£i":1805,"ĠkhÃ¡i":1806,"iáº¿ng":1807,"ĠhÃºt":1808,"ĠnghiÃªm":1809,"Ġhá»Ļp":1810,"ĠNh":1811,"Ġluyá»ĩn":1812,"ĠmÃ³n":1813,"Ġnam":1814,"ĠkÃª":1815,"Ġá»ķn":1816,"ĠÃĤu":1817,"ĠkhuÃ´n":1818,"ĠlÃ¡":1819,"ĠgiÃłu":1820,"ĠtÃŃn":1821,"ĠYork":1822,"son":1823,"ĠcáºŃp":1824,"ĠNam":1825,"Ġchuá»Ļt":1826,"han":1827,"obot":1828,"ĠInternet":1829,"ģm":1830,"ĠgiÃł":1831,"Má»įi":1832,"Ġcoi":1833,"Ġliá»ĩt":1834,"ĠngÃ¢n":1835,"ĠÄĳá»ı":1836,"ĠÄĳÃ¡m":1837,"Ġtuyáº¿n":1838,"ĠpháºŃn":1839,"Ġtáº¥n":1840,"Ġtháº¯ng":1841,"ĠChÃº":1842,"ĠHá»į":1843,"Ġtrao":1844,"Ġtrá»«":1845,"Rá»ĵi":1846,"te":1847,"ĠÄĳáº£o":1848,"Ġhuá»·":1849,"Ġtai":1850,"ĠGi":1851,"ill":1852,"Ġnáº·ng":1853,"ĠmÃ´n":1854,"Ġnhu":1855,"Ġxá»":1856,"ĠTáº¡i":1857,"Ġchá»©a":1858,"Ġháº³n":1859,"ĠKá»":1860,"Vá»Ľi":1861,"ĠdáºŃy":1862,"Ġmá»ģm":1863,"ĠNáº¿u":1864,"ĠHoa":1865,"ĠvÃ¢n":1866,"Do":1867,"ĠnÃ³ng":1868,"Tuy":1869,"Ġmáº¥y":1870,"Ã³t":1871,"ĠphÃ¹":1872,"ĠchÃ³":1873,"Ġmáº¡ch":1874,"ĠchÃ³ng":1875,"ĠchÃ¡u":1876,"Chá»ī":1877,"LÃłm":1878,"Ġá»ĳng":1879,"ĭp":1880,"Ġmáº½":1881,"ĠBáº¯c":1882,"ĠmÃ¹a":1883,"ĠÄĳiá»ĥn":1884,"Ġbuá»Ļc":1885,"Ġquyá»ĥn":1886,"ĠsÃ³ng":1887,"ĠtrÃ¹ng":1888,"ĠdÆ°á»¡ng":1889,"Ġthiá»ĩu":1890,"ĠmÃ¡u":1891,"Ġtuá»":1892,"Ġ18":1893,"ĠhÃ£i":1894,"Ġlinh":1895,"Ho":1896,"£o":1897,"ĠcÅ©":1898,"Ġrá»Ŀi":1899,"Ġtháº£o":1900,"ĠChÃºa":1901,"ĠsÆ¡":1902,"áº¡m":1903,"Ġchá»§ng":1904,"VÃŃ":1905,"ĠkhÃ¡n":1906,"Ġuá»ĳng":1907,"ĠdÃµi":1908,"tr":1909,"ĠÄĳiÃªn":1910,"ik":1911,"Ġtáº£ng":1912,"Ġrobot":1913,"Ġchá»Ŀ":1914,"Ġlá»ĵ":1915,"Ġtá»ĵi":1916,"Ġlá»Ļ":1917,"Ã²i":1918,"Ġ40":1919,"um":1920,"Ġloáº¡n":1921,"Ġláº§m":1922,"ie":1923,"Ġvá»¯ng":1924,"ĠÄĳÃ¡p":1925,"Ġbuá»ĵn":1926,"¥m":1927,"ĠÄĲiá»ģu":1928,"Ġmáº¯n":1929,"ow":1930,"Ġsá»Ńa":1931,"©u":1932,"Ġo":1933,"ĠkhÃ´":1934,"ĠthÆ°á»Łng":1935,"á»ĳt":1936,"ĠgÃ³p":1937,"Ġlan":1938,"ĠTrÃ¡i":1939,"ĠKá»³":1940,"ĠtÆ°á»Ŀng":1941,"ĠtrÃ¡nh":1942,"ĠTháº¿":1943,"Ġkhá»ķng":1944,"ich":1945,"Ġmiá»ħn":1946,"ĠÄĳÃ³i":1947,"Ġkhoáº£n":1948,"ĠÄĳÃ¨n":1949,"Ġláº¡nh":1950,"Cháº":1951,"Hiá»ĩn":1952,"Ġf":1953,"ĠchÃłng":1954,"ĠmÃ¡i":1955,"Ġá»§ng":1956,"Ġtá»ķn":1957,"ĠMar":1958,"ĠcÆ¡n":1959,"Ġbáº£ng":1960,"Ġtráº¯ng":1961,"ĠTrong":1962,"Ġtá»Ļc":1963,"Ġláº«n":1964,"ord":1965,"Qu":1966,"Ġmáº£nh":1967,"Ġ25":1968,"ev":1969,"ĠÄĳá»īnh":1970,"áº¥c":1971,"Ġdiá»ĩu":1972,"Ġtá»Ŀ":1973,"Ľm":1974,"ĠnÃºi":1975,"Ġphá»ıng":1976,"Ġtiá»ĥu":1977,"ĠÄĳÃło":1978,"ul":1979,"ĠtrÃ¬":1980,"Ġbá»ģ":1981,"ĠÄĲÃ´ng":1982,"Ġgiá»įng":1983,"Ġtá»ĳn":1984,"Ġáº¥n":1985,"Ńnh":1986,"ĠtráºŃn":1987,"ĠÃ¡o":1988,"Ġtrá»ĵng":1989,"ĠquÃªn":1990,"ĠCÃ¡c":1991,"Ġháº£o":1992,"Ġgiá»ıi":1993,"ĠrÆ¡i":1994,"CÃ¢u":1995,"Ġdu":1996,"Ġquáº£ng":1997,"ĠNgÆ°á»Ŀi":1998,"ĠmÃ£i":1999,"Ġcháº¡m":2000,"Ã¹a":2001,"ĠChá»":2002,"CÃ²n":2003,"Ġcáº§m":2004,"Ġkim":2005,"Ġcá»¡":2006,"VÃło":2007,"Ġkhuáº©n":2008,"Ġbang":2009,"ĠbáºŃt":2010,"Ġvá»ĳn":2011,"Ġbá»ģn":2012,"Ġpháº¥n":2013,"ĠnghÃ¬n":2014,"ĠsÃ¡nh":2015,"Cho":2016,"Ġtiá»ģm":2017,"ĠÄĳÆ°Æ¡ng":2018,"istan":2019,"ĠkhoÃ¡":2020,"ĠhÃ´n":2021,"ĠlÆ°Æ¡ng":2022,"Ġnghá»ī":2023,"ĠvÃłng":2024,"Ġcháº¥m":2025,"Ġchiáº¿m":2026,"Ġhoáº£ng":2027,"Ġmá»Ŀi":2028,"Ġnáº¯m":2029,"ĠkhÃŃch":2030,"áº³ng":2031,"Ġcam":2032,"Má»Ĺi":2033,"ub":2034,"Ġhiá»ĥn":2035,"Ġvá»£":2036,"Ġbá»¯a":2037,"Ġphá»ĳi":2038,"Ġngá»«ng":2039,"Ġhi":2040,"ĠhÃło":2041,"ĠÄĳiá»ĩu":2042,"ĠlÃłng":2043,"Ġvá»¡":2044,"Ġlá»Ńa":2045,"Con":2046,"ĠVÃ¬":2047,"Ġthá»ĭt":2048,"ly":2049,"ĠtÃ¡ch":2050,"ĠvÄ©":2051,"Ġgháº¿":2052,"Ġhá»ķ":2053,"Ġ11":2054,"Ġquáº§n":2055,"ĠxÆ°Æ¡ng":2056,"la":2057,"áº·m":2058,"Ġchuá»Ĺi":2059,"Ġná»ķ":2060,"ĠrÃºt":2061,"ĠdÆ°á»Ŀng":2062,"ĠÄĳá»«ng":2063,"ĠHá»ĵi":2064,"ent":2065,"Ġong":2066,"Ġká»ĭch":2067,"Ġkháº©u":2068,"ĠbiÃªn":2069,"ĠsÃ³t":2070,"Ġcháº£y":2071,"oog":2072,"ib":2073,"ĠÄĳáº±ng":2074,"ĠThÃ¡":2075,"ĠgiÃ³":2076,"ĠKhi":2077,"Ġsá»Ľm":2078,"Ġloáº¡t":2079,"ĠthoÃ¡t":2080,"ĠcháºŃm":2081,"Ġchá»ĵng":2082,"ian":2083,"Ġsáº¡ch":2084,"ĠtÃłn":2085,"Ġtáº¯t":2086,"ĠdÄ©":2087,"ĠÃĶng":2088,"Pháº":2089,"ĠVáºŃy":2090,"ĠbÃ¨":2091,"Ġgiáº¥c":2092,"ÃŃnh":2093,"ĠÄĲáº¡i":2094,"ĠtÃ´":2095,"oogle":2096,"ChÃ":2097,"Ã³m":2098,"ĠVÃ¢ng":2099,"ir":2100,"Ġláº·p":2101,"Ġtháº§":2102,"Ġnghá»ģ":2103,"ĳt":2104,"Ġgá»£i":2105,"Ġsuáº¥t":2106,"io":2107,"ĠmÅ©":2108,"man":2109,"Tá»«":2110,"if":2111,"Ġquá»¹":2112,"Ġkhá»©":2113,"Æ°Æ¡i":2114,"Ġ80":2115,"az":2116,"ex":2117,"ry":2118,"Ġlá»ĳi":2119,"ĠtrÆ°ng":2120,"ĠphÃª":2121,"Ġlá»Ĺ":2122,"ack":2123,"Ġngáº¡i":2124,"ĠchÃ¬":2125,"ĠtÃºi":2126,"ĠsÃ´ng":2127,"ĠnhÃ©":2128,"ep":2129,"ĠtÃ¡n":2130,"Ġtráº¡i":2131,"ick":2132,"ud":2133,"±m":2134,"Ġtrá»¯":2135,"Ġnguyá»ĩn":2136,"Ráº¥t":2137,"Ġdáº·m":2138,"ĠAn":2139,"ĠQu":2140,"Ta":2141,"Ġkiá»ĩm":2142,"ĠthÆ°á»Ľc":2143,"ĠCon":2144,"NgÃły":2145,"©n":2146,"ĠÄĳÄĥng":2147,"Ġviá»ħn":2148,"Thá»©":2149,"Ġcá»Ŀ":2150,"áº·n":2151,"¢m":2152,"ĠnÃ©":2153,"Ġquang":2154,"Ġsá»¹":2155,"ĠÄĳuá»ķi":2156,"Ä©a":2157,"ĠkhÃ¡ng":2158,"ĠCáº£m":2159,"ĵi":2160,"ĠcÃł":2161,"ĠnÃ¢ng":2162,"Ġnháº¹":2163,"ĠTá»":2164,"ĠbÆ¡i":2165,"ut":2166,"Ġvá»ı":2167,"Ġbá»¥":2168,"ĠGoogle":2169,"ĠkÃ©m":2170,"Ġnháº¯n":2171,"ĠghÃ©p":2172,"ĠcÃº":2173,"ĠthÄĥm":2174,"Æ°á»¡i":2175,"iv":2176,"Ġsá»ĳt":2177,"ĠphiÃªn":2178,"Ġ60":2179,"ohn":2180,"Váº¥n":2181,"Ġthá»Ł":2182,"Ġráº»":2183,"est":2184,"Ġkhoáº£nh":2185,"Ġtháº£m":2186,"Ġhu":2187,"tÃ´i":2188,"ĠtÃłng":2189,"ĠnháºŃt":2190,"TrÃªn":2191,"Ġváº¿t":2192,"Ġláº·ng":2193,"Ġná»Ĺ":2194,"Ġthoáº£":2195,"Gi":2196,"he":2197,"Ġbá»įn":2198,"Ġhoang":2199,"one":2200,"ĠsÃ¡u":2201,"Ġxoay":2202,"NÄĥm":2203,"Ġcan":2204,"Ġlá»įc":2205,"ĠtrÃ²n":2206,"ans":2207,"á»įt":2208,"art":2209,"TrÆ°á»Ľc":2210,"Ġtrá»ĳng":2211,"Ġbá»Ŀ":2212,"ĠhÃ¹ng":2213,"Ġháº¹":2214,"ĠBr":2215,"ĠPhÃ¡":2216,"ĠÄĳiá»ĩp":2217,"ins":2218,"¥u":2219,"ĠAr":2220,"ĠÆ°u":2221,"ĠNháºŃt":2222,"bon":2223,"ĠÄĳáº³ng":2224,"ĠLÃłm":2225,"ĠmÃ¹i":2226,"ĠÄĳáº¿":2227,"Ġvoi":2228,"Ġngáº«u":2229,"Ġlá»¥c":2230,"Ġdoáº¡":2231,"BÃł":2232,"ĠZ":2233,"ĠÄĳam":2234,"ĠbÃ²":2235,"ĠlÃłnh":2236,"ĠCÃ´":2237,"uá»µ":2238,"amp":2239,"ook":2240,"aw":2241,"ĠlÃŃnh":2242,"ec":2243,"§i":2244,"ĠÄĳá»±ng":2245,"Ãºa":2246,"ÄĲÆ°á»£c":2247,"ell":2248,"NhÃ":2249,"Ġthá»«a":2250,"ĠthuáºŃn":2251,"Ġtháº¡":2252,"IV":2253,"ĠÄĲáº¥t":2254,"ĠthÃ¡c":2255,"Liá»ĩu":2256,"ĠrÃ¡c":2257,"Ġthuá»·":2258,"ĠBá»Łi":2259,"ĠÄĳoÃłn":2260,"±a":2261,"Ġcáº¥y":2262,"chÃºng":2263,"Ľt":2264,"Ġma":2265,"Ġpr":2266,"ÄĲáº§u":2267,"uá»ĵng":2268,"ĠtrÃŃch":2269,"ion":2270,"ĠnhuáºŃn":2271,"Ġthang":2272,"Ġcháº·t":2273,"ĠHIV":2274,"eg":2275,"ĠÄĳáº¡p":2276,"Ġhá»įp":2277,"Ġgiáº£ng":2278,"era":2279,"ĠÄĳe":2280,"Ġtan":2281,"ert":2282,"ĠlÆ°á»£c":2283,"Ġmiáº¿ng":2284,"ĠlÃ£ng":2285,"ĠcÃ£i":2286,"Ġnhá»±a":2287,"Æ°á»Ŀn":2288,"ore":2289,"de":2290,"ĠtáºŃt":2291,"Ġláº¯p":2292,"Ġkháº¥u":2293,"ĩt":2294,"Ġ16":2295,"ĠAf":2296,"Ġcháº·n":2297,"ĠIs":2298,"50":2299,"Ġthai":2300,"ĠhÃ¨":2301,"ĠgiÃ¡m":2302,"ĠngoÃ¡i":2303,"ein":2304,"Ġhuy":2305,"ĠchÃło":2306,"Ġlá»ħ":2307,"Ġmá»«ng":2308,"ĠÄĳÃ²i":2309,"Ġngang":2310,"ĠyÃªn":2311,"ess":2312,"Ġáº¢":2313,"ChÃŃnh":2314,"Viá»ĩc":2315,"Ġhuá»ĳng":2316,"Ġdiá»ĩt":2317,"ĠtháºŃn":2318,"uá»Ļn":2319,"Ġ$":2320,"Ġu":2321,"Ġmáº¡i":2322,"ĠmÃ¢y":2323,"Ġthao":2324,"Ġcáº£n":2325,"NÃ³i":2326,"Ġ199":2327,"ĠÄĲá»©c":2328,"ĠhÆ°Æ¡ng":2329,"Ġtá»¥":2330,"ĠthÃ¹":2331,"ĠSh":2332,"all":2333,"ĠmÃ¬":2334,"á»ĳn":2335,"Ġdá»ĭ":2336,"Ġsá»ķ":2337,"ĠxoÃ¡":2338,"Ġko":2339,"Ġtri":2340,"ĠchÃ©p":2341,"ĠAD":2342,"áº©u":2343,"Ġ90":2344,"ĠAfg":2345,"Hay":2346,"ĠÄĳÃ¹a":2347,"Ġvong":2348,"ĠÄĳá»ĳng":2349,"Ġtháº¥u":2350,"Ġsá»£i":2351,"orn":2352,"uc":2353,"ĠvÃº":2354,"ĠtrÃłn":2355,"ĠcÃ¡t":2356,"ge":2357,"rus":2358,"Ġcáº·p":2359,"Ġcá»©ng":2360,"ĠVá»":2361,"Cuá»ĳi":2362,"Ľn":2363,"ĠtÃ¡":2364,"Ġtá»ı":2365,"ĠCar":2366,"ĠÃ¡m":2367,"ff":2368,"ĠmáºŃp":2369,"ĠJohn":2370,"Ã¨o":2371,"Ġ201":2372,"ĠtuyÃªn":2373,"Ġmá»±c":2374,"Ġbom":2375,"ĠcÃ¡m":2376,"Ġnháº±m":2377,"Ġ14":2378,"Ġphiáº¿u":2379,"les":2380,"Ġbi":2381,"ĠsÃºng":2382,"ĠkhÃŃa":2383,"Ġnhá»ĭp":2384,"Ngay":2385,"ĠEm":2386,"Ġbá»ĳi":2387,"Ġbáº¯n":2388,"ĠtrÃło":2389,"Ġhiáº¿m":2390,"Ġsá»¥p":2391,"ĠchÃ¡n":2392,"ĠADN":2393,"Bá»":2394,"ĠtiÃªm":2395,"Ġ70":2396,"LÃºc":2397,"ĠkÃªu":2398,"ĠhÃł":2399,"ĠmÃ³c":2400,"nhÆ°ng":2401,"Ġngá»įn":2402,"att":2403,"Ã´m":2404,"Ġkhung":2405,"Ġlá»«a":2406,"Ġprot":2407,"ĠÃ³c":2408,"Ġliá»ģn":2409,"Ġtriáº¿t":2410,"Ġdá»ĳi":2411,"ĠhoÃłng":2412,"Ã©p":2413,"ĠPhÃ¡p":2414,"ĠAfghan":2415,"CÃ¡ch":2416,"ip":2417,"ĠXin":2418,"áºŃc":2419,"Ġ13":2420,"ĠbÃ©o":2421,"Ġgá»Ĺ":2422,"ĠcÃ´n":2423,"ĠÄĳua":2424,"Ġcá»¥c":2425,"Æ°á»£u":2426,"NhÃł":2427,"ĠAi":2428,"CÃ´ng":2429,"KhÃ¡":2430,"od":2431,"yl":2432,"Ľp":2433,"Ġgam":2434,"Ġthá»Ŀ":2435,"ris":2436,"Ġ0":2437,"ĠmÆ°a":2438,"âĢ":2439,"ĠcÄĥng":2440,"Ġbá»ķ":2441,"ĠCal":2442,"Ġkháº£o":2443,"Ġtháº§y":2444,"ĠbáºŃc":2445,"Ġhá»ĳi":2446,"Ġmáº¡c":2447,"ĠGiá»":2448,"Ġthoáº£i":2449,"CÃ¡m":2450,"ĠÄĳáºŃp":2451,"Ġnáº¥m":2452,"ĠlÅ©":2453,"ĠngÆ°á»¡ng":2454,"ĠTháºŃt":2455,"¯t":2456,"ĠâĢ":2457,"Ġchá»ĳt":2458,"Ġmá»ı":2459,"ĠSá»±":2460,"NA":2461,"eet":2462,"ĠÃ¡c":2463,"Ġchá»ĳi":2464,"ail":2465,"ers":2466,"ĠKen":2467,"ĠtÃ¡o":2468,"Ġthuyá»ģn":2469,"Ġhuáº¥n":2470,"CÅ©ng":2471,"ĠmÃ©t":2472,"Theo":2473,"ĠThÃ¡i":2474,"Ġtráº§m":2475,"ĠrÆ°á»£u":2476,"ĠnhÅ©ng":2477,"Ġ17":2478,"ÄĲá»ĳi":2479,"Ġá»Ĵ":2480,"Ġhá»Ĺn":2481,"¯m":2482,"ĠAm":2483,"ĠghÃ©t":2484,"ee":2485,"ĠFran":2486,"Ġá»©c":2487,"LÃł":2488,"Ġbiá»ĩn":2489,"Ġbáº£y":2490,"Ġkhuyáº¿n":2491,"ĠhÃ²":2492,"ĠÃģ":2493,"ĠvÃ¢ng":2494,"Ġsong":2495,"ĠBáº£n":2496,"NÃło":2497,"ĠÄĳáº¯t":2498,"ĠnÃºt":2499,"Ġche":2500,"ĠCÃ´ng":2501,"Ġtá»īnh":2502,"Hoáº·c":2503,"ĠngÃ³n":2504,"Ġcá»ı":2505,"ĠIran":2506,"ĠchÃ¡y":2507,"Thay":2508,"Ġáº¡":2509,"Ġtruy":2510,"ĠphÃ¡n":2511,"Ġhá»ĵn":2512,"ĠThuá»µ":2513,"MÃł":2514,"Ġthá»į":2515,"avid":2516,"Ġxá»©ng":2517,"á»Ŀi":2518,"Ġmáº¡o":2519,"ĠhÃ£":2520,"ĠHar":2521,"ĠAfghanistan":2522,"ph":2523,"ya":2524,"ĠtÃºc":2525,"Ġthiá»ĥu":2526,"ond":2527,"Ġháº¯n":2528,"Nhiá»ģu":2529,"Ġ21":2530,"ĠÄĲÆ°á»£c":2531,"£t":2532,"ĠsÄĥn":2533,"Ġgá»įn":2534,"ĠLan":2535,"log":2536,"ĠmÅ©i":2537,"ĵn":2538,"Ġcá»¥t":2539,"ĠgiáºŃn":2540,"ĠkhÃ¡t":2541,"DÃ¹":2542,"land":2543,"ov":2544,"xy":2545,"Ġá»ĵ":2546,"ĠbÃ´ng":2547,"Ġdinh":2548,"Ġcá»Ĺ":2549,"ĠCÃ¡i":2550,"Ġtrá»©ng":2551,"Ġtháº¡ch":2552,"Ġprotein":2553,"Ġmai":2554,"Ġkhiáº¿p":2555,"Ai":2556,"ach":2557,"Ġtia":2558,"ĠdÃły":2559,"Ġthiá»ĩp":2560,"Ã£n":2561,"ĠthuÃª":2562,"Ġrá»§i":2563,"Vá»ģ":2564,"ĠÃł":2565,"ĠÄĳáº¯n":2566,"Ġnáº¥u":2567,"Ġru":2568,"eria":2569,"Ġcá»Ļt":2570,"Ġlá»Ļn":2571,"Ġmá»Ļ":2572,"ĠmÃ²":2573,"Ġbinh":2574,"ĠhÆ°á»Ľc":2575,"Ġxong":2576,"ĠHai":2577,"ĠthÃ¡nh":2578,"Ġbá»Ļt":2579,"ĠbÃ£i":2580,"Ġkáº¹":2581,"ĠgiÃłnh":2582,"ÄĲÃºng":2583,"ĠCan":2584,"ĠÄĲÃºng":2585,"ĠtÃ³c":2586,"ĠbÃ³":2587,"ĠngÅ©":2588,"Æ°á»Ľt":2589,"ĠLiÃªn":2590,"ĠÄĳá»ĳc":2591,"ta":2592,"Ĺng":2593,"ĠÄĳÃłi":2594,"Ġtruyá»ĩn":2595,"ĠrÄĥng":2596,"ĠxÆ°a":2597,"ĠphÃ³":2598,"ĠTV":2599,"Ġcháº©n":2600,"ĠDo":2601,"Ġ198":2602,"ĠÄĳá»ĳt":2603,"Hai":2604,"Ġdá»įc":2605,"iá»ĩng":2606,"ĠmÃ¡t":2607,"ark":2608,"Ġthuáº§n":2609,"ĠNhÃł":2610,"ti":2611,"Ġbáº¡c":2612,"Ġhuyáº¿t":2613,"ĠrÆ°á»¡i":2614,"ĠTáº¥t":2615,"ĠnÆ¡":2616,"Ġmiá»ģn":2617,"Ġro":2618,"Ġchá»«ng":2619,"ĠChi":2620,"rael":2621,"Ġtáº·ng":2622,"ĠÄĳÄ©a":2623,"ĠgÆ°Æ¡ng":2624,"Ã½t":2625,"Cháº³ng":2626,"Ġáº¥m":2627,"Ġhiáº¿n":2628,"Ġráº¯c":2629,"ĠxÃ¢m":2630,"Ġnháº¥n":2631,"enn":2632,"ĠnÃ©m":2633,"gh":2634,"Ġi":2635,"ĠvÆ°á»Ŀn":2636,"ĠngÃłi":2637,"Ġnhá»ī":2638,"ain":2639,"Ġcá»ĳt":2640,"ico":2641,"ock":2642,"Ġtrá»Ļn":2643,"iáº¿c":2644,"Ġxáº¡":2645,"ĠkhÃ³c":2646,"ĠÃĿ":2647,"Ġláº»":2648,"Ġthan":2649,"ĠquÃª":2650,"Ã¹i":2651,"ama":2652,"Ġ500":2653,"Ã¨m":2654,"įt":2655,"Ġcáº©n":2656,"aceb":2657,"Ġtuá»³":2658,"ĠIsrael":2659,"Háº§u":2660,"Ġngu":2661,"ĠdÃŃnh":2662,"ĠSc":2663,"ĠPháº":2664,"acebook":2665,"Kho":2666,"Ph":2667,"co":2668,"Ġmiá»ĩng":2669,"ĠrÃło":2670,"ĠÄĳá»Ľn":2671,"ara":2672,"ada":2673,"Ġtáº¡m":2674,"Ġbáº¯c":2675,"Ġtháº©m":2676,"ina":2677,"Ġtuá»ĩ":2678,"ĠmiÃªu":2679,"Ã¡y":2680,"Ġchai":2681,"ĠÄĳÃ³n":2682,"ĠBá»Ļ":2683,"Ġ24":2684,"Ġháº¹n":2685,"CáºŃu":2686,"Ġmáº©u":2687,"Ġsa":2688,"Ġngáº§m":2689,"Ġlá»ıng":2690,"Ġphá»ķi":2691,"Ġcá»ĳc":2692,"ID":2693,"³i":2694,"ĠtÃ²":2695,"ĠgÃł":2696,"ĠnhÃ¡":2697,"ĠÄĳÃ¡y":2698,"áº©m":2699,"Ġnháº¡y":2700,"ĠÄĳáºŃu":2701,"Ġblog":2702,"ann":2703,"ĠTo":2704,"ĠvuÃ´ng":2705,"ĠÆ¡i":2706,"Ġbáº¡ch":2707,"Ġhiá»ĩp":2708,"Ġháº¡ng":2709,"Ġthoáº£ng":2710,"tein":2711,"ĠcÆ°á»Ŀng":2712,"ĠlÃ£o":2713,"ĠBra":2714,"ĠSan":2715,"ley":2716,"Ġgame":2717,"ĠtÃ¢y":2718,"há»ĩ":2719,"Ġly":2720,"ĠkiÃªn":2721,"ĠtrÃ´i":2722,"Ġhá»ĳ":2723,"ĠquÃ¡i":2724,"ĠFacebook":2725,"iforn":2726,"Báº±ng":2727,"st":2728,"Ġthá»£":2729,"Ġrá»ĵ":2730,"ĠdÃłn":2731,"Ã£ng":2732,"Ġhoáº¡i":2733,"ĠCaliforn":2734,"HÃ´m":2735,"Sáº½":2736,"lin":2737,"Ġtráº¯c":2738,"Ġpin":2739,"ĠquÃ¡n":2740,"ĠCháº":2741,"Ġháº±ng":2742,"Pháº§n":2743,"ĠCalifornia":2744,"ĠtÃ³m":2745,"ĠnÆ°á»Ľng":2746,"Ġleo":2747,"Ġhá»©a":2748,"Ġcháº¥n":2749,"ĠMÄ©":2750,"amb":2751,"ĠÄĳáº£ng":2752,"ĠlÃ¢y":2753,"Ġtráº¡m":2754,"ĠquÃ©t":2755,"ĠgiÆ°á»Ŀng":2756,"ĠgiÃły":2757,"ĠnÃ©t":2758,"ĠngÃ£":2759,"Ġngá»±a":2760,"ek":2761,"ma":2762,"ĠÄĳeo":2763,"ĠrÃ´":2764,"Ġnho":2765,"ĠchÄĥng":2766,"ĠCá»±c":2767,"und":2768,"ĠlÆ°ng":2769,"Ã¬a":2770,"ĠxÃŃ":2771,"ĠTw":2772,"ĠBa":2773,"alk":2774,"Cá»":2775,"Ġtuyáº¿t":2776,"Ġmáº»":2777,"Ġ197":2778,"ĠmÃ£n":2779,"nÃ³":2780,"ĠtÄ©nh":2781,"Ġváº¯c":2782,"Ġtiáº¿c":2783,"ĠDNA":2784,"ĠÄĳáº¿m":2785,"pp":2786,"ĠmÃ¨o":2787,"ĠGeo":2788,"ass":2789,"exico":2790,"ce":2791,"og":2792,"³c":2793,"á»ĩ":2794,"Ġninh":2795,"ĠkÃ¨m":2796,"ĠtrÄĥng":2797,"ĠMc":2798,"ith":2799,"Ġbá»¥ng":2800,"ĠtÃ¡m":2801,"Ġcong":2802,"ĠdÃ²":2803,"ĠdÃ¡n":2804,"áº«y":2805,"anda":2806,"«n":2807,"ĠlÄĥn":2808,"ĠdÃ£":2809,"Ġhá»ıng":2810,"ĠCá»":2811,"ĠCol":2812,"ĠIra":2813,"ate":2814,"ĠgÃ³i":2815,"ber":2816,"oáº¡i":2817,"ron":2818,"Ġtuy":2819,"ĠquÃł":2820,"ĠkhuyÃªn":2821,"TháºŃm":2822,"ĠThe":2823,"ThÃ":2824,"ĠÃ©p":2825,"Ġtiá»ĩc":2826,"Ġvinh":2827,"Ġtráº§n":2828,"áº«m":2829,"Ġemail":2830,"Ngh":2831,"ite":2832,"Ġgá»¡":2833,"ĠlÃ´i":2834,"ĠhÆ°":2835,"Ġgiáº¥u":2836,"ĠthÃ³i":2837,"uá»¹":2838,"Ġ300":2839,"ĠRob":2840,"IDS":2841,"oÃłi":2842,"Ġcá»±":2843,"Ġlá»ģ":2844,"Ġlá»ĩnh":2845,"Ġdá»©t":2846,"ÄĲÃ£":2847,"Ġmá»Ŀ":2848,"ĠMexico":2849,"ĠChar":2850,"zil":2851,"ĠlÃ¢m":2852,"Ġtrá»ĳn":2853,"Ġngon":2854,"ĠgÃ£":2855,"Ġheo":2856,"Ġtá»ĭ":2857,"Ġ2000":2858,"Ġphiá»ģn":2859,"ĠÃļ":2860,"Ġcá»¥m":2861,"ĠchÃ¬m":2862,"ĠCanada":2863,"Ġtung":2864,"Ġlu":2865,"Ġláº·n":2866,"ĠbÃ£o":2867,"ĠdÆ°":2868,"ĠNhÃ":2869,"ath":2870,"ĠlÃ£m":2871,"ĠkÃªnh":2872,"Cuá»Ļc":2873,"sh":2874,"Ġim":2875,"Ġand":2876,"ĠbuÃ´n":2877,"Ã¡p":2878,"Ġngá»įt":2879,"ĠgÃµ":2880,"ĠÄĳá»±c":2881,"Ġkhao":2882,"DP":2883,"dam":2884,"ky":2885,"ĠgiÆ¡":2886,"ĠBá»":2887,"ĠDavid":2888,"ĠNga":2889,"ford":2890,"ler":2891,"ĠÆ°":2892,"Ġcáº¥t":2893,"Ġdao":2894,"ĠthÄĥng":2895,"ĠgiÃ¡n":2896,"Ġmá»ĩnh":2897,"ĠHy":2898,"Ġvirus":2899,"NhÃ¬n":2900,"ĠÃļc":2901,"ĠsÃłn":2902,"ĠMich":2903,"Ġkhoan":2904,"Ġthuáº¿":2905,"ram":2906,"á»ĥ":2907,"ĠtrÆ°a":2908,"Ġhang":2909,"ĠhÃłm":2910,"Ġthá»ķi":2911,"quang":2912,"ĠquÃŃ":2913,"ĠAIDS":2914,"ĠPh":2915,"ĠLiá»ĩu":2916,"ĠcÃºm":2917,"ondon":2918,"Ġcar":2919,"Ġlang":2920,"ĠbáºŃn":2921,"Ġbáº¿p":2922,"ĠdÃ¡ng":2923,"ind":2924,"Ġsá»¯a":2925,"Giá»ĳng":2926,"ĠBrazil":2927,"tin":2928,"ĠtÆ°Æ¡i":2929,"Ġva":2930,"ĠlÃµi":2931,"ĠbÃ¹ng":2932,"Ġxinh":2933,"aul":2934,"ĠBer":2935,"ĠRáºŃp":2936,"ĠChá»ī":2937,"mÃł":2938,"ĠtÃ¢n":2939,"ĠlÃłn":2940,"ĠdÆ°á»£c":2941,"Æ°á»£n":2942,"ĠLondon":2943,"Ġbá»¥i":2944,"Láº§n":2945,"Ġcáº¥m":2946,"Ġnáº£y":2947,"Ġsan":2948,"Ġngáº¯m":2949,"ĠrÃ©t":2950,"ĠphÃ¬":2951,"ÄĲÃ´i":2952,"Ġá»ŀ":2953,"ĠquÃ¡t":2954,"ĠKenya":2955,"oy":2956,"ric":2957,"Ġtáº¯m":2958,"Ġbu":2959,"á»Ļm":2960,"Ġtháº»":2961,"Ġháº£i":2962,"ĠÄĲiá»ĥn":2963,"Ġkhá»ī":2964,"ĠPal":2965,"ĠtuÃ½":2966,"Ġcamera":2967,"30":2968,"Ġliá»ģu":2969,"ĠlÆ°á»Ŀng":2970,"ĠsÆ°u":2971,"Ġtá»§":2972,"ĠTa":2973,"ĠMon":2974,"ĠSp":2975,"Ġ196":2976,"Ġoxy":2977,"má»Ļt":2978,"ĠÆ°a":2979,"ĠcÆ°á»Ľi":2980,"Ġmuá»Ĺi":2981,"Ã³i":2982,"ĠMo":2983,"hing":2984,"Ġthá»ĭnh":2985,"itter":2986,"ling":2987,"ĠâĢĵ":2988,"Cáº£":2989,"iz":2990,"©o":2991,"ĠlÆ°á»Ľt":2992,"Ġsay":2993,"ĠsÆ¡n":2994,"ĠrÃ£i":2995,"ĠHá»Ļi":2996,"ĠthÃ¡p":2997,"ĠLe":2998,"ĠchÃºa":2999,"ĠkhÃ´n":3000,"Cháº¯c":3001,"ren":3002,"ĠtrÆ°á»£t":3003,"ĠthÃ¹ng":3004,"VÃłi":3005,"Ġnháº«n":3006,"ĠCO":3007,"ĠMá»įi":3008,"ĠÄĲá»«ng":3009,"ĠIraq":3010,"Ġná»Ł":3011,"Ġnan":3012,"ĠngáºŃp":3013,"Ġngá»ĳc":3014,"Ġnháº¯m":3015,"Ġtrá»¥c":3016,"ĠBan":3017,"ĠthÃ¡m":3018,"Ġthua":3019,"ĠkÃŃn":3020,"20":3021,"báº¡n":3022,"ĠtÆ°á»Ľng":3023,"Ġná»ĳt":3024,"Ġthá»īnh":3025,"ĠphÃº":3026,"ĠnÃłng":3027,"Ġgiam":3028,"ĠchÃ¢m":3029,"ĠthÃŃnh":3030,"Ġpha":3031,"ĠKinh":3032,"Ġ400":3033,"Ġbá»ĳt":3034,"Ġfeet":3035,"Pháº£i":3036,"LÃ½":3037,"ĠdÃ¡m":3038,"Ġquá»":3039,"ĠquÃ£ng":3040,"ĠxÃ³m":3041,"ÄĲáº¿n":3042,"ĠNig":3043,"ĠBl":3044,"ĠBill":3045,"ĠRos":3046,"ham":3047,"Ġdáº¯t":3048,"ĠTháº":3049,"ĠBar":3050,"Ġkhá»Ľp":3051,"SA":3052,"ĠcáºŃy":3053,"Ġcuá»Ļn":3054,"Ġnáº¯ng":3055,"Ġsung":3056,"Ġthiá»ĩt":3057,"ana":3058,"ĠphÃ¡i":3059,"Ġ150":3060,"by":3061,"ĠlÃ´ng":3062,"ĠbÆ¡":3063,"Ġrau":3064,"Æ°á»Ľp":3065,"Ġtoáº£":3066,"ĠPar":3067,"ĠthÃ¡o":3068,"ĠGDP":3069,"lip":3070,"Ġpháº¡t":3071,"ĠTwitter":3072,"Ķi":3073,"Ġmáº¡n":3074,"Ġbong":3075,"ĠtrÃł":3076,"Ġgáº¥u":3077,"ĠTim":3078,"ĠnhÃ£n":3079,"áº»o":3080,"Ġháº§m":3081,"ĠChris":3082,"ÄĲá»«ng":3083,"KhÃ¡n":3084,"DÄ©":3085,"To":3086,"ne":3087,"Ġtuyá»ĥn":3088,"ĠcÆ°á»¡ng":3089,"ĠÄĳuÃ´i":3090,"Ġná»į":3091,"ĠdÃ£y":3092,"Ġvá»Ł":3093,"Ġkhuy":3094,"ĠkhÆ¡i":3095,"ony":3096,"ĠBÃ¢y":3097,"ĠSau":3098,"ĠKho":3099,"ĠJo":3100,"ĠTá»ķ":3101,"Máº·c":3102,"áº¿ch":3103,"ĠchÆ°á»Ľc":3104,"olf":3105,"ĠWas":3106,"Gáº§n":3107,"Ġti":3108,"ĠÄĳÃ¢m":3109,"Ġsli":3110,"Ġnhá»Ł":3111,"Ġbá»Ľt":3112,"ĠMáº¹":3113,"ĠBos":3114,"Ã©o":3115,"ĠTrá»Ŀi":3116,"Ġthuáº«n":3117,"ĠThiÃªn":3118,"ood":3119,"instein":3120,"ver":3121,"Ġe":3122,"ngel":3123,"ĠlÃ¡t":3124,"Ġmuá»Ļn":3125,"ani":3126,"ĠSao":3127,"Ġhá»ĩt":3128,"HoÃ¡":3129,"ĠchÃ¬a":3130,"Káº¿t":3131,"Tiáº¿p":3132,"der":3133,"ĠlÃ²":3134,"ĠlÃ¹i":3135,"Ġbá»į":3136,"ĠthÆ°a":3137,"Ġchá»Ł":3138,"Ġchá»¥c":3139,"Ġranh":3140,"Ġmá»ĩt":3141,"ĠÄĳiÃªu":3142,"Ġlog":3143,"ĠGre":3144,"ĠDÆ°Æ¡ng":3145,"ĠGeor":3146,"Báº¥t":3147,"ael":3148,"Ġj":3149,"á»Ĵ":3150,"Ġhoáº£":3151,"Ġmá»¹":3152,"ĠBang":3153,"Ġláº¡m":3154,"ĠhÃ²n":3155,"Ġslide":3156,"CÃ¹ng":3157,"Ġcac":3158,"Ġvua":3159,"ĠbÃºt":3160,"Ġngá»±c":3161,"Ġpháº³ng":3162,"Ġná»£":3163,"ĠÄĳá»ĵi":3164,"ĠAb":3165,"ĠEd":3166,"ĠthÃ´n":3167,"urg":3168,"ĠYou":3169,"ĠHoáº£":3170,"ĠGiÃ¡o":3171,"Khoáº£ng":3172,"hington":3173,"vÃ¬":3174,"xi":3175,"§m":3176,"Ġváº¹":3177,"Æ°Æ¡n":3178,"ĠmÃºa":3179,"ĠkhÃºc":3180,"Ġtráº¥n":3181,"ĠgÃ¡nh":3182,"ĠÄĳá»Ľi":3183,"Ġnháº·":3184,"ĠCáºŃp":3185,"Ġsá»©":3186,"hom":3187,"ĠNha":3188,"Ġá»ĵn":3189,"ug":3190,"za":3191,"Ġmáº¥u":3192,"Ġsá»ĳc":3193,"ĠMI":3194,"Ġká»ĭp":3195,"ĠBe":3196,"ort":3197,"ĠViá»ĩn":3198,"ĠChÃŃnh":3199,"ĠThá»±c":3200,"Ġcarbon":3201,"ka":3202,"Ġváº£i":3203,"Ġrung":3204,"Ġcá»Łi":3205,"Ġmá»ıi":3206,"ĠSm":3207,"ett":3208,"Ġrá»ħ":3209,"ĠJam":3210,"Chuyá»ĩn":3211,"ĠWashington":3212,"site":3213,"Ġduyá»ĩt":3214,"á»ĳm":3215,"áºŃm":3216,"Ġnghiá»ĩn":3217,"ĠMá»":3218,"ĠBen":3219,"ĠHÃł":3220,"are":3221,"ola":3222,"ander":3223,"ike":3224,"ĠkhÃ´i":3225,"Em":3226,"Máº¹":3227,"cÃ³":3228,"ĠhÆ°u":3229,"ĠrÃ¡p":3230,"Ġcá»ĳi":3231,"ĠthÃ¢m":3232,"ĠMáº·t":3233,"Ġnghá»ĭch":3234,"Ġngoan":3235,"ĠTEDx":3236,"Ġinternet":3237,"Ġwebsite":3238,"ĠFranc":3239,"ĠhÃ£ng":3240,"ĠNigeria":3241,"ĠbÃª":3242,"Ġkhiáº¿m":3243,"ĠCho":3244,"ĠNÃły":3245,"Ġkháº³ng":3246,"ĠTrÆ°á»Ŀng":3247,"Ġhá»ĵng":3248,"Ġnháº·t":3249,"HÆ¡n":3250,"Ná»":3251,"Ġa":3252,"Ġcuá»ĵng":3253,"ĠvÃ¢y":3254,"ĠlÆ°á»¡ng":3255,"ĠmÃ¢u":3256,"Ġnhiáº¿p":3257,"Ġtha":3258,"Ġmá»ĵ":3259,"inc":3260,"ĠCuá»Ļc":3261,"ĠÄĳá»ĭch":3262,"lex":3263,"CÆ¡":3264,"ier":3265,"Ġgan":3266,"Ġsáº¯t":3267,"ĠkhÃ³i":3268,"illi":3269,"ĠWik":3270,"ĠphÃŃm":3271,"ĠThá»ķ":3272,"tress":3273,"ube":3274,"Ġháº¹p":3275,"ĠVá»Ľi":3276,"Bá»©c":3277,"Ġcacbon":3278,"ĠMIT":3279,"lan":3280,"ĠvÆ°Æ¡n":3281,"ĠláºŃt":3282,"Ġráº¯n":3283,"ones":3284,"Ġ1000":3285,"ĠBro":3286,"ĠLá»":3287,"Ġco":3288,"ĠÄĳÃłm":3289,"Ġmáº£ng":3290,"Ġkhuyáº¿t":3291,"ĠÄĳÃ¡o":3292,"ĠPak":3293,"ĠLos":3294,"Ġ35":3295,"Thá»Ŀi":3296,"Ġ2008":3297,"ÄĳÃ³":3298,"PS":3299,"ld":3300,"ros":3301,"ĠÄĳáº»":3302,"Ġnon":3303,"Ġlong":3304,"Ġgá»ĳi":3305,"Ġcá»«u":3306,"ĠphÃ´":3307,"ĠkhoÃ¡i":3308,"ĠBÃł":3309,"ĠHá»":3310,"ĠHá»įc":3311,"ĠLa":3312,"ĠÄĳoan":3313,"Ġrá»Ńa":3314,"ast":3315,"Thá»Ń":3316,"Ok":3317,"§a":3318,"Ġcáº¡n":3319,"Ġstress":3320,"ĠBÃ¬nh":3321,"ĠThÆ°á»£ng":3322,"ĠOK":3323,"edia":3324,"ĠGiá»Ŀ":3325,"homas":3326,"up":3327,"ward":3328,"Ġtáº§n":3329,"ĠcÆ°á»Ľp":3330,"Ġmanh":3331,"ĠbÃ¹":3332,"Ġsáº¡n":3333,"ĠdÃ¢m":3334,"Ġdáº»o":3335,"ĠmÃłng":3336,"ĠThÃ":3337,"Ġmá»ĵi":3338,"ĠchÃŃn":3339,"ĠNa":3340,"ĠSch":3341,"ĠPhá»":3342,"Ġ45":3343,"ica":3344,"olly":3345,"ĠÄĲá»ĥ":3346,"ĠFrancis":3347,"ĠPakistan":3348,"Bao":3349,"een":3350,"ĠNhÆ°":3351,"ĠÄĳáº¡n":3352,"ĠláºŃn":3353,"Ġtreo":3354,"ĠtrÃ¢n":3355,"Ġhack":3356,"Ġdáº¡o":3357,"Ġdáº£i":3358,"ĠCr":3359,"Ġlá»ĩch":3360,"Ġváº¹n":3361,"ok":3362,"ve":3363,"¥ng":3364,"Ġcáº¯m":3365,"ĠÄĳáº¡c":3366,"Ġlá»£n":3367,"ĠHig":3368,"ald":3369,"ash":3370,"ichard":3371,"ĠbÆ¡m":3372,"RÃµ":3373,"ck":3374,"yn":3375,"ĠtÃ´ng":3376,"Ġcáº¯p":3377,"ĠvÄ©nh":3378,"Ġde":3379,"Ġlá»Ŀ":3380,"ĠÄĳá»ģn":3381,"ĠNá»":3382,"ĠquyÃªn":3383,"ĠLu":3384,"apt":3385,"ĠNgÃłi":3386,"trong":3387,"Bá»Ļ":3388,"pe":3389,"ĩn":3390,"Ġbá»įc":3391,"Ġbáº¯p":3392,"Ġkiá»ĩt":3393,"ĠnhÃłng":3394,"ĠkhiÃªu":3395,"ĠCÃ²n":3396,"ĠMa":3397,"ĠHÃłn":3398,"ĠHiá»ĩp":3399,"ami":3400,"ĠDar":3401,"ĠRe":3402,"ice":3403,"ĠEinstein":3404,"ĠtuÃ¢n":3405,"ĠStev":3406,"Ġgene":3407,"Ġkáº¹o":3408,"Ġkáº¹t":3409,"ĠbuÃ½t":3410,"Ġkhuynh":3411,"com":3412,"lor":3413,"ox":3414,"rist":3415,"ĠvÃ©":3416,"Ġláº¥p":3417,"ĠmÃ²n":3418,"Ġbia":3419,"Ġham":3420,"Ġhuyá»ģn":3421,"Ġdá»įn":3422,"Ġnháº§m":3423,"ĠCá»Ļng":3424,"ĠBáº£o":3425,"ĠHe":3426,"ĠGPS":3427,"rid":3428,"ĠTá»«":3429,"Ġ2010":3430,"ound":3431,"ĠÄĳai":3432,"Ġmic":3433,"á»Ļp":3434,"ĠÄĳá»Ĺ":3435,"Ġtháº¯c":3436,"ĠgiÃ£n":3437,"ĠAngel":3438,"ĠPhÃ":3439,"ester":3440,"ation":3441,"ĠÃĢ":3442,"ĠchÃºc":3443,"acc":3444,"ĠOb":3445,"ĠThá»©":3446,"ĠHaiti":3447,"ĠPháº£i":3448,"TÆ°Æ¡ng":3449,"ft":3450,"Ġamp":3451,"Ġvay":3452,"ĠlÅ©ng":3453,"ĠmÆ°á»Ŀi":3454,"ĠtrÃº":3455,"Ġga":3456,"ĠráºŃp":3457,"ĠxÃ¡m":3458,"Ġná»ģ":3459,"ĠNe":3460,"Ġtá»±a":3461,"ĠRáº¥t":3462,"ela":3463,"ĠÃĶi":3464,"NhÃ¢n":3465,"rÃºt":3466,"win":3467,"ĭnh":3468,"ĠcÆ°Æ¡ng":3469,"Ġmá»įc":3470,"Ġthá»ķ":3471,"Ġdá»Ł":3472,"ĠchÄĥn":3473,"ĠthÃ©p":3474,"Ġmá»ıng":3475,"ern":3476,"ĠPaul":3477,"ĠEl":3478,"ĠOk":3479,"Ġcá»±u":3480,"&#":3481,"10":3482,"Ba":3483,"RI":3484,"di":3485,"ĠnÃªu":3486,"ĠvÆ°á»£ng":3487,"Ġdá»ĳc":3488,"ĠÄĳá»£t":3489,"ĠkhÃ©o":3490,"Ġtháº±ng":3491,"ĠCÃ¡ch":3492,"ĠCÃ¡m":3493,"Ġ23":3494,"ĠKh":3495,"ĠLáº¡p":3496,"Ġngá»«a":3497,"org":3498,"Ġ75":3499,"eph":3500,"ÃĢ":3501,"ĠnÃ¡t":3502,"ĠlÆ°á»£t":3503,"ĠsÃ´i":3504,"ĠdÅ©ng":3505,"Ġcháº£":3506,"ĠNA":3507,"uá»³":3508,"end":3509,"ĠKhÃ¡":3510,"ĠhÃ´i":3511,"ide":3512,"Ġst":3513,"Ġráº½":3514,"Ġvá»Ĺ":3515,"Ġqui":3516,"ĠxÃ´i":3517,"Ġchá»£":3518,"Ġmá»ī":3519,"amin":3520,"ĠAt":3521,"ĠPr":3522,"ĠthoÃ¡i":3523,"ity":3524,"ĠAnd":3525,"ĠHarv":3526,"ĠCharles":3527,"Kh":3528,"Máº·t":3529,"khÃ´ng":3530,"ney":3531,"Ġnáº£n":3532,"Ġhung":3533,"ĠmÃły":3534,"ĠhoÃłi":3535,"ĠphÃ¡c":3536,"ĠHáº£i":3537,"ĠPet":3538,"Ġháº¡ch":3539,"ĠDer":3540,"Å©i":3541,"old":3542,"Cá»©":3543,"Nhá»":3544,"Phá»":3545,"Ġvang":3546,"ĠtráºŃt":3547,"Ġdá»Ļi":3548,"ott":3549,"Ġrad":3550,"Ġbá»Ĺng":3551,"ĠTalk":3552,"ĠbÃ¡ch":3553,"ĠRá»ĵi":3554,"ates":3555,"Ġ194":3556,"ĠNghá»ĩ":3557,"ĠChiáº¿n":3558,"ago":3559,"Ġtháº§m":3560,"ĠnÃ©n":3561,"ĠFrank":3562,"ĠiPh":3563,"bert":3564,"Ġtiá»ħn":3565,"ĠÄĳáº½":3566,"ĠvÃµ":3567,"Ġmen":3568,"Ġbáº¥y":3569,"ĠgÃ¡c":3570,"Ġchua":3571,"ĠxÄĥng":3572,"Ġnghiá»ĩt":3573,"ĠTá»±":3574,"Ġtrá»«u":3575,"lie":3576,"Ġ2007":3577,"Má»¥c":3578,"uck":3579,"ĠxÃŃu":3580,"ĠGeorge":3581,"PM":3582,"ner":3583,"Ġvan":3584,"Ġmuá»ĳi":3585,"ĠbÃ¬a":3586,"Ġngháº":3587,"Ġhá»¥t":3588,"Ġná»¥":3589,"ens":3590,"Ġpho":3591,"ish":3592,"Ġcá»ķng":3593,"Loáº¡i":3594,"PhÃ":3595,"TED":3596,"ean":3597,"lad":3598,"ĠÄĳÃł":3599,"há»į":3600,"ĠlÆ¡":3601,"Ġláº¯c":3602,"Ġtháº³m":3603,"ĠxÃ©":3604,"ĠxÃŃch":3605,"ĠMal":3606,"low":3607,"ipedia":3608,"Ġruá»ĵi":3609,"ĠiPhone":3610,"Sá»ĳ":3611,"Tin":3612,"nhá»¯ng":3613,"´n":3614,"Ġá»ĳc":3615,"ĠlÃºa":3616,"Ġmá»Ļng":3617,"Ã¡u":3618,"ĠsÃºc":3619,"Ġtrá»Ļm":3620,"Ġgiáº·t":3621,"ĠhÃ³c":3622,"ĠCáºŃu":3623,"ĠNob":3624,"ĠApp":3625,"ary":3626,"Trung":3627,"imer":3628,"Ġsoáº¡n":3629,"Ġvá»¥n":3630,"ĠMichael":3631,"HÃłng":3632,"Há»ĩ":3633,"ThÃ´ng":3634,"cel":3635,"toc":3636,"Ġá»ĳm":3637,"ĠmÆ°Æ¡i":3638,"ĠbÆ°á»Ľ":3639,"ĠgÅ©i":3640,"ĠrÅ©":3641,"Ġthe":3642,"ĠxÆ°á»Łng":3643,"ĠxÆ°á»Ľng":3644,"Ġchá»£t":3645,"ĠTom":3646,"ĠThomas":3647,"ĠtÃŃm":3648,"ĠTrans":3649,"atch":3650,"ĠJu":3651,"ĠNgh":3652,"ĠInd":3653,"umb":3654,"Ġof":3655,"ĠThÃ¡nh":3656,"ĠObama":3657,"HÃ¬nh":3658,"TÃªn":3659,"Ġal":3660,"Ġáº¿ch":3661,"á»©c":3662,"ĠmÆ°á»£n":3663,"ĠtrÃ¡ng":3664,"Ġngáº«m":3665,"ania":3666,"ÃŃt":3667,"Ã¹m":3668,"Ġcháº½":3669,"ĠhÃ©t":3670,"ĠÄĳá»Ļn":3671,"Ġ---":3672,"ĠkhoÃ¡ng":3673,"Ġ22":3674,"ĠSah":3675,"ĠDi":3676,"ĠJos":3677,"ĠNgÃ¢n":3678,"ĠOh":3679,"Ġ99":3680,"thal":3681,"ivi":3682,"ĠHarvard":3683,"BÃªn":3684,"Ká»ĥ":3685,"náº¿u":3686,"pt":3687,"ĠcÆ°á»£c":3688,"ĠvÃ¡n":3689,"ĠlÃ¢n":3690,"Ġbáº©n":3691,"ĠtrÃ¡n":3692,"ĠÄĳá»ĩ":3693,"ĠnhÆ°á»Ŀng":3694,"Ġcá»ĳng":3695,"Ġquáº·c":3696,"áº±n":3697,"Ġdá»Ĺ":3698,"ink":3699,"ĠnhÃło":3700,"ĠNháº":3701,"ĠBig":3702,"Ġquyáº¿n":3703,"ĠAdam":3704,"ĠRom":3705,"ĠRobert":3706,"ĠSmith":3707,"ĠWikipedia":3708,"BÃłi":3709,"cÃ´":3710,"eah":3711,"ue":3712,"ĠlÃ¡nh":3713,"Ġmáº¿n":3714,"Ġbáº¥m":3715,"ÄĲiá»ĥm":3716,"ĠgÃ¬n":3717,"ĠCam":3718,"ĠbÃ¡m":3719,"Ġnháº¡t":3720,"iss":3721,"icon":3722,"ĠFre":3723,"ĠOr":3724,"Ġ2009":3725,"QuÃ¡":3726,"berg":3727,"Ġlá»ģu":3728,"ĠFrancisco":3729,"Ġhacker":3730,"ĠAngeles":3731,"ĠNobel":3732,"May":3733,"PA":3734,"Sao":3735,"mp":3736,"uk":3737,"ĳc":3738,"ĠsÃ´":3739,"Ġsho":3740,"Ġhiáº¿p":3741,"ota":3742,"Ġsáº¯m":3743,"Ġná»ĵng":3744,"ĠsÃ¡o":3745,"oran":3746,"ali":3747,"ĠRichard":3748,"Ġrá»Ĺng":3749,"ĠmÃ£nh":3750,"ĠÃ´m":3751,"Ġxá»ī":3752,"ĠChá»§":3753,"attan":3754,"Ġruá»Ļt":3755,"ĠParis":3756,"ĠKhoa":3757,"ĠNASA":3758,"tocin":3759,"dro":3760,"ix":3761,"ĠcÃłi":3762,"ĠnÃ´":3763,"ĠlÃ¹ng":3764,"Ġluá»¹":3765,"Ġnhá»ĩn":3766,"ĠchÃ´n":3767,"Ġmá»ķ":3768,"Ġphun":3769,"ĠLÃł":3770,"ĠGab":3771,"Ġ36":3772,"ĠNgÃły":3773,"ush":3774,"hÃ¡u":3775,"azon":3776,"Ġlogic":3777,"Ġradio":3778,"..":3779,"Bá»ĳ":3780,"len":3781,"Ġváº¡ch":3782,"Ġthung":3783,"Ġgiá»įt":3784,"ĠTor":3785,"Ġlá»ĵng":3786,"Ġtháº¥m":3787,"ĠAlex":3788,"ĠGr":3789,"ĠxuÃ¢n":3790,"ĠWeb":3791,"Ġ2005":3792,"Quan":3793,"udio":3794,"aptop":3795,"ĠSahara":3796,"cri":3797,"eh":3798,"tor":3799,"ĠsÃ©t":3800,"Ġtriá»ĩt":3801,"ĠrÃ£":3802,"Ġvá»Ŀ":3803,"ĠthÆ°á»£ng":3804,"ĠxÄĥm":3805,"Ġlá»¡":3806,"ĠCop":3807,"ĠMÃ¬nh":3808,"hia":3809,"ĠNÄĥm":3810,"ĠDan":3811,"ĠDÃ¢n":3812,"eth":3813,"Ġchá»įc":3814,"ace":3815,"ĠHoÃł":3816,"rop":3817,"Chiáº¿c":3818,"Ġinch":3819,"ĠNhÄ©":3820,"Ġhuynh":3821,"ĠhÃ£m":3822,"bur":3823,"me":3824,"tÃ´":3825,"xin":3826,"Ġoh":3827,"ĠtÃª":3828,"Ġtivi":3829,"ĠvÃ²i":3830,"ĠlÄĥng":3831,"ĠlÃ©o":3832,"ĠmÃ³ng":3833,"ĠbÃ³c":3834,"Ġrun":3835,"Ġcá»į":3836,"anhattan":3837,"ĠCÆ¡":3838,"ĠLeg":3839,"ĠGu":3840,"raham":3841,"age":3842,"azz":3843,"heimer":3844,"ĠDarwin":3845,"ĠDerek":3846,"cript":3847,"An":3848,"Nháº":3849,"our":3850,"ria":3851,"wood":3852,"zheimer":3853,"Ġáº©m":3854,"ĠÄĳc":3855,"ĠvÃ²":3856,"Ġquáº¡":3857,"ant":3858,"ĠTiáº¿n":3859,"ĠCl":3860,"ĠMan":3861,"ĠMad":3862,"ĠManhattan":3863,"erry":3864,"Ġtá»±u":3865,"Ġ27":3866,"ĠSÄ©":3867,"Ġvá»ĭnh":3868,"ilicon":3869,"Cha":3870,"ĠAlzheimer":3871,"Ġoxytocin":3872,"ToÃłn":3873,"ĠGreen":3874,"ĠSteve":3875,"Báº£n":3876,"ca":3877,"cago":3878,"ja":3879,"line":3880,"ss":3881,"ĠÃ¡i":3882,"Ġtuá»·":3883,"Ġli":3884,"Ġvá»©t":3885,"Ġchá»Ľp":3886,"ĠkhiÃªm":3887,"Ġcháº±m":3888,"Ġmá»³":3889,"ĠCÃ¢u":3890,"ĠLib":3891,"ala":3892,"ĠRw":3893,"ĠVen":3894,"ĠQuá»¹":3895,"ĠchuÃ´ng":3896,"ĠWor":3897,"ĠkÃ¬a":3898,"ĠCarol":3899,"ĠAmazon":3900,"ĠJames":3901,"SD":3902,"ThÃ¡":3903,"gs":3904,"Ġnáº¿p":3905,"ĠlÆ°á»¡i":3906,"Ġluá»ĵng":3907,"Ġlaptop":3908,"Ġbá»ĳc":3909,"Ġkm":3910,"Ġngáº©n":3911,"ĠÄĳÃ³m":3912,"ĠxÃł":3913,"ĠTiáº¿ng":3914,"ĠchÃ¹":3915,"ĠHaw":3916,"Ġ26":3917,"ĠSe":3918,"ĠSy":3919,"ĠSub":3920,"oster":3921,"ĠII":3922,"uss":3923,"Ġnhiá»ħu":3924,"oca":3925,"ĠChicago":3926,"ĠBoston":3927,"ĠvÃµng":3928,"Láº¥y":3929,"mm":3930,"tit":3931,"Ġ000":3932,"ĠkiÃªng":3933,"ĠngÆ°ng":3934,"Ġgáº¡ch":3935,"Ġron":3936,"Ġtháº¯t":3937,"Ġbá»ĵi":3938,"ĠhoÃłnh":3939,"Ġdá»ĭp":3940,"air":3941,"ĠHay":3942,"iá»ħu":3943,"ĠÄĳoáº¡t":3944,"ĠWal":3945,"Thiáº¿t":3946,"ThÃłnh":3947,"ĠMark":3948,"ĠMartin":3949,"Ġ1990":3950,"Ġlui":3951,"ĠRwanda":3952,"Dá»":3953,"TÆ°á»Łng":3954,"fi":3955,"per":3956,"vá»":3957,"Ġáº¥u":3958,"Ġcent":3959,"ĠÄĳÃºc":3960,"ĠÄĳuá»ĳi":3961,"Ġvacc":3962,"Ġsá»į":3963,"ĠgáºŃy":3964,"ĠTal":3965,"ĠnhÃ³c":3966,"ĠMe":3967,"ĠkhoÄĥn":3968,"Æ°á»Łi":3969,"ĠAd":3970,"ĠLat":3971,"Ġngá»Ľ":3972,"ĠÄĳÃ´la":3973,"rian":3974,"ĠStan":3975,"ĠThá»Ŀi":3976,"Ġtuá»µ":3977,"Ġ250":3978,"Ġnano":3979,"rew":3980,"£m":3981,"Ńng":3982,"Ġcu":3983,"ĠÄĳáºŃm":3984,"Ġgolf":3985,"oth":3986,"Ġbá»ĥ":3987,"ĠhoÃ£n":3988,"ĠhÃŃt":3989,"Ġmá»¡":3990,"ĠSam":3991,"imb":3992,"Nghá»ĩ":3993,"athan":3994,"Ġrá»ī":3995,"ĠEn":3996,"Ġ600":3997,"ĠháºŃn":3998,"Ġhydro":3999,"ĠNhÃ¢n":4000,"ĠMont":4001,"ĠTá»ķng":4002,"illiam":4003,"ridge":4004,"Al":4005,"ez":4006,"lick":4007,"thá»":4008,"Ġtiá»ĩm":4009,"Ġváº£":4010,"Ġngá»Ļt":4011,"Ġnhá»§":4012,"ĠnÃłn":4013,"ĠÄĲáº£ng":4014,"ĠSinh":4015,"ĠGates":4016,"ĠDel":4017,"Nghe":4018,"NgoÃłi":4019,"ure":4020,"ĠghÃª":4021,"ĠUy":4022,"ÄĳÃ¢y":4023,"Ġhá»ķng":4024,"ĠApple":4025,"ĠTranscript":4026,"ĠSubtit":4027,"ĠSubtitles":4028,"TÃ¬nh":4029,"mer":4030,"ny":4031,"oft":4032,"½n":4033,"Ġon":4034,"Ġcanh":4035,"ĠÄĳiá»ģn":4036,"Ġvá»Ļi":4037,"Ġlam":4038,"ĠbÄĥn":4039,"Ġbáº§y":4040,"ĠgÃ£y":4041,"Ġgom":4042,"Ġchuyá»ģn":4043,"ĠgiáºŃt":4044,"ĠCo":4045,"emen":4046,"ĠAc":4047,"ĠSw":4048,"ĠGal":4049,"ĠDá»±":4050,"ĠViá»ĩt":4051,"ĠJon":4052,"ust":4053,"ĠOx":4054,"iano":4055,"ĠiP":4056,"ĠnhÃ¡nh":4057,"Ġquá»·":4058,"ĠBrow":4059,"Ġngháº½n":4060,"Báº¯t":4061,"lar":4062,"ĠÆ°Æ¡ng":4063,"Ġváº¥t":4064,"Ġbáº©m":4065,"Ġgien":4066,"Ġhoan":4067,"ĠCoca":4068,"ĠgiÃ¡p":4069,"ĠPark":4070,"ĠKoran":4071,"Ġ2004":4072,"red":4073,"ida":4074,"QuÃ½":4075,"Bá»ĩnh":4076,"ĠTimes":4077,"Ġmicro":4078,"Phá»¥":4079,"Lá»":4080,"Mar":4081,"na":4082,"ster":4083,"ÃĤ":4084,"Ġor":4085,"Ńi":4086,"Ġlá»į":4087,"Ġmáº§m":4088,"Ġbáº»":4089,"ĠsÃºp":4090,"ĠtrÃºng":4091,"Ġdáº¡i":4092,"ĠchÃły":4093,"ĠthiÃªng":4094,"Ġbá»ĵ":4095,"ĠTas":4096,"Ġdá»ĩt":4097,"ini":4098,"ĠCE":4099,"ĠBáº±ng":4100,"ale":4101,"ĠJack":4102,"ĠFlor":4103,"Ġ95":4104,"Ġ2006":4105,"ĠÄĳá»ĳm":4106,"ĠCháº³ng":4107,"NÆ¡i":4108,"OK":4109,"TÃ¡c":4110,"car":4111,"Æ¯":4112,"Ġuy":4113,"ĠÃło":4114,"ĠtÃ¹ng":4115,"Ġváº·t":4116,"Ġlá»Ļt":4117,"ĠsÆ°á»Ľng":4118,"Ġráº¡p":4119,"ĠÄĳá»¥ng":4120,"Ġnhá»ĭ":4121,"ĠnÃ³n":4122,"ĠxÃ¡ch":4123,"ĠTÆ°":4124,"ĠhÃ´ng":4125,"int":4126,"inson":4127,"ĠMRI":4128,"enz":4129,"esh":4130,"ĠphiÃªu":4131,"Ġphá»ĳt":4132,"ĠJe":4133,"ĠChrist":4134,"ĠNÃ³i":4135,"Ġxoáº¯n":4136,"Tá»ķ":4137,"Ġxá»©":4138,"GiÃ¡o":4139,"Ġ1960":4140,"ĠHá»£p":4141,"ĠGabby":4142,"ĠvÃ²m":4143,"Cáº§n":4144,"David":4145,"Qua":4146,"Tá»ĳt":4147,"uel":4148,"Ġuá»ĳn":4149,"Ńp":4150,"ĠvÆ°Æ¡ng":4151,"Ġrá»Ļn":4152,"ĠrÃ¬a":4153,"Ġtá»ĭch":4154,"Ġque":4155,"ongo":4156,"ÄĲáº¥y":4157,"ĠBur":4158,"ĠBab":4159,"Ġ28":4160,"ĠKing":4161,"ĠLÃ½":4162,"alia":4163,"ĠWilliam":4164,"Ġ195":4165,"ĠTheo":4166,"Ġ2003":4167,"ĠStar":4168,"Ġ1970":4169,"NghÄ©a":4170,"ĠNhÃ¬n":4171,"ĠPalest":4172,"LoÃłi":4173,"chá»":4174,"go":4175,"váºŃy":4176,"we":4177,"Ġclip":4178,"Ġmá»ĳc":4179,"Ġbiáº¿m":4180,"Ġthá»ĳt":4181,"ĠdáºŃp":4182,"ĠkhÃ¹ng":4183,"ĠcÃ¡p":4184,"Ġtháº¯n":4185,"Ġkhan":4186,"Ġkhen":4187,"Ġnháº¥p":4188,"Ġcáº£ng":4189,"ĠCamb":4190,"ĠMy":4191,"ĠMac":4192,"Ġká»ģ":4193,"enry":4194,"ĠSim":4195,"ĠKhá»":4196,"ĠKar":4197,"ĠGo":4198,"ĠGand":4199,"Ġ32":4200,"ĠDá»":4201,"ĠRio":4202,"ĠVan":4203,"ile":4204,"ĠWhi":4205,"ĠWat":4206,"Ġ65":4207,"omb":4208,"ĠChÃł":4209,"ĠChuyá»ĩn":4210,"ThÆ°á»Ŀng":4211,"igh":4212,"igami":4213,"ther":4214,"Ġ120":4215,"own":4216,"ĠtÃ´m":4217,"Ġ2011":4218,"NghiÃªn":4219,"izza":4220,"Ġvaccine":4221,"Ġorigami":4222,"BÆ°á»Ľc":4223,"ChÃº":4224,"Tube":4225,"ger":4226,"khi":4227,"to":4228,"Ġel":4229,"Ġlau":4230,"Ġbá»±c":4231,"ĠbÃºa":4232,"Ġkem":4233,"Ġkáº½":4234,"Ġpiano":4235,"Ġcá»§ng":4236,"ĠTuyá»ĩt":4237,"ĠnhÃ£":4238,"ÄĲÆ¡n":4239,"ĠchÃŃp":4240,"ĠnhÃłm":4241,"ĠMic":4242,"Ġkhoai":4243,"Ġká»ĩ":4244,"ĠNor":4245,"ĠBÃłi":4246,"ĠAh":4247,"Ġsá»Ńng":4248,"ĠPháºŃt":4249,"ĠLad":4250,"Ġá»§i":4251,"ĠthoÃ¡ng":4252,"ĠWar":4253,"ĠUg":4254,"outh":4255,"Äĳá»ĥ":4256,"ĠchÃ³c":4257,"ĠZe":4258,"ect":4259,"ThÃªm":4260,"Ġax":4261,"ĠÄĳá»ĩm":4262,"ĠTasman":4263,"Dá»±":4264,"ba":4265,"lu":4266,"ĠtÄĥm":4267,"ĠÄĳinh":4268,"ĠmÃ©p":4269,"Ġkáº¹p":4270,"ĠsÆ°á»Ŀn":4271,"ĠtrÃ¹m":4272,"ĠchÆ°á»Ľng":4273,"Ġtam":4274,"Ġxá»Ļn":4275,"ĠchoÃ¡ng":4276,"ĠTes":4277,"Ġdá»ĵn":4278,"Ġmá»Ľ":4279,"ĠBush":4280,"Ġphe":4281,"ĠphÆ¡i":4282,"Ġvá»ĭt":4283,"Tráº»":4284,"NguyÃªn":4285,"Ġrá»¡":4286,"ĠThÃłnh":4287,"ĠYemen":4288,"Giá»įng":4289,"ĠhÃ¡i":4290,"unt":4291,"ĠghÃ©":4292,"ĠthÆ¡m":4293,"hana":4294,"tron":4295,"ĠhuÃ½t":4296,"ght":4297,"Ġstudio":4298,"mpic":4299,"AR":4300,"Cola":4301,"Kháº":4302,"MÃ¡y":4303,"NÆ°á»Ľc":4304,"con":4305,"lob":4306,"van":4307,"á»Ľ":4308,"Ġtáº¡ng":4309,"Ġtriá»ģu":4310,"ĠtrÃ¨o":4311,"Ġgai":4312,"Ġgáº¡t":4313,"Ġdai":4314,"Ġthiá»ģn":4315,"ĠCA":4316,"ĠMay":4317,"ĠNÃªn":4318,"ĠBá»ĳ":4319,"Ġtá»ĳng":4320,"arah":4321,"ĠKÃ¬":4322,"ĠÄĳom":4323,"Ġngá»¥c":4324,"ĠGia":4325,"Ġ3000":4326,"ĠTrá»":4327,"ĠmÃ´t":4328,"Ġrá»Ĺi":4329,"ille":4330,"itz":4331,"ĠFord":4332,"ĠÄĲá»ı":4333,"lyn":4334,"iban":4335,"Ġdá»ĭu":4336,"ĠPháº§n":4337,"rosoft":4338,"ĠHiggs":4339,"ĠbÆ°á»Ľm":4340,"ĠWorld":4341,"ĠOxford":4342,"ĠUganda":4343,"dy":4344,"ĠÃ¢u":4345,"ĭt":4346,"ĠtÃºng":4347,"ĠmÆ°u":4348,"ĠngÆ°":4349,"ĠhÃłn":4350,"ĠrÃ¢u":4351,"ĠrÃ¨n":4352,"Ġtang":4353,"Ġgieo":4354,"otle":4355,"ĠnhÃ©t":4356,"ĠCongo":4357,"ĠNL":4358,"ĠNan":4359,"ĠBu":4360,"ĠSu":4361,"Ġkháº©n":4362,"Ġphiáº¿n":4363,"ĠLED":4364,"Ġtrá»įn":4365,"ĠGen":4366,"Trá»Ł":4367,"ĠViá»ĩc":4368,"Ġ1950":4369,"eda":4370,"Äĳiá»ģu":4371,"ĠYouTube":4372,"Nhá»Ŀ":4373,"ĠLego":4374,"ĠSyria":4375,"ĠCambridge":4376,"500":4377,"kg":4378,"ªnh":4379,"Ġam":4380,"įn":4381,"Ġtáº©y":4382,"Ġváº§n":4383,"ĠbÃ³n":4384,"Ġsc":4385,"ĠhÆ°ng":4386,"ĠdÃª":4387,"ĠÄĳá»¥c":4388,"ane":4389,"ÃŃn":4390,"ĠTuy":4391,"ĠTá»ĳt":4392,"onald":4393,"ĠhÃ¢m":4394,"ĠCy":4395,"Ġháº»":4396,"ĠMah":4397,"Ġtrá»ħ":4398,"Ġdol":4399,"ĠPer":4400,"ĠKim":4401,"Ġngá»¥":4402,"Ġngá»«":4403,"ĠGhana":4404,"Ġ33":4405,"etro":4406,"ati":4407,"itch":4408,"ĠWall":4409,"ĠEric":4410,"ĠChÃło":4411,"ÄĲá»©a":4412,"ower":4413,"Giáº£":4414,"ĠBrook":4415,"ropy":4416,"Tiáº¿ng":4417,"lÃł":4418,"oáº¡n":4419,"ten":4420,"ze":4421,"¥i":4422,"ĭa":4423,"ĠÄĳÃ²n":4424,"Ġváº¡n":4425,"Ġbanh":4426,"Ġbá»Ļc":4427,"Ġgh":4428,"Ġpizza":4429,"Ġdáº¹p":4430,"Ġcá»ĵn":4431,"Ġvá»įt":4432,"áº¥ng":4433,"ĠcÃ³c":4434,"ĠchiÃªm":4435,"á»ĳp":4436,"Ġxay":4437,"ĠthÃ¨":4438,"ÄĲÆ°á»Ŀng":4439,"Ġphá»ĵng":4440,"ĠMand":4441,"eop":4442,"Ġtrá»«ng":4443,"ĠNÃło":4444,"ero":4445,"ĠAs":4446,"ari":4447,"ĠPl":4448,"ĠLester":4449,"ora":4450,"ĠOly":4451,"ĠHoÃłng":4452,"right":4453,"ChÆ°a":4454,"Ġjazz":4455,"anderthal":4456,"ĠNeanderthal":4457,"ĠPeter":4458,"Ġshow":4459,"BÃ¡c":4460,"MT":4461,"Ste":4462,"ef":4463,"fe":4464,"mon":4465,"sau":4466,"thÃ":4467,"ven":4468,"´i":4469,"Ġac":4470,"ĠÆ°á»Ľt":4471,"ĠÄĳÃ¨":4472,"Ġváº¯ng":4473,"Ġváº©n":4474,"ĠlÃ´":4475,"ĠlÃª":4476,"Ġbuá»ĵng":4477,"Ġser":4478,"Ġrá»ĳt":4479,"Ġpound":4480,"ĠdÆ¡i":4481,"Ġnha":4482,"Ġvá»Ľ":4483,"Ġchay":4484,"Ġnhá»Ļ":4485,"ĠnghiÃªng":4486,"cho":4487,"Ġbá»ĵn":4488,"ĠTex":4489,"ĠTony":4490,"ĠphÃ¡o":4491,"ĠMÃł":4492,"ere":4493,"ĠHenry":4494,"Ġquad":4495,"ĠShi":4496,"ĠSing":4497,"Ġngá»£i":4498,"Ġngá»Ńi":4499,"ĠTrÃªn":4500,"aser":4501,"Ġ2001":4502,"ĠÃ´tÃ´":4503,"thur":4504,"oph":4505,"ardo":4506,"ĠXÃ´":4507,"ulin":4508,"ylv":4509,"ĠâĢĶ":4510,"ĠScot":4511,"ĠJoe":4512,"ĠPhÃ²ng":4513,"ĠStanford":4514,"ĠFlorida":4515,"ĠMicrosoft":4516,"á»Ľc":4517,"ĠTexas":4518,"12":4519,"BM":4520,"Ban":4521,"enh":4522,"hua":4523,"Ġáº¥p":4524,"Ġent":4525,"á»«":4526,"ĠnÃ¢u":4527,"Ġnuá»ĳt":4528,"ĠbÆ°u":4529,"Ġbáº«y":4530,"ĠkÃ¬m":4531,"ĠngÃ¢y":4532,"ĠdÆ°a":4533,"Ġnhi":4534,"Æ°á»£m":4535,"Ġxáº£o":4536,"ĠnhÃ´":4537,"ĠChÃ¡u":4538,"ĠBon":4539,"ĠHans":4540,"ĠAp":4541,"ĠPat":4542,"ĠLuáºŃt":4543,"ĠTrÆ°á»Ľc":4544,"ĠbÃ¡t":4545,"Ġbá»ıng":4546,"NgÆ°á»£c":4547,"ĠVir":4548,"Ġ....":4549,"ĠHoward":4550,"ĠUn":4551,"agen":4552,"ĠÃĤm":4553,"ake":4554,"Ġtháº¡o":4555,"aniel":4556,"Ná»ģn":4557,"Ġonline":4558,"ÃĤm":4559,"Æ¯á»Ľc":4560,"ĠthÃ¨m":4561,"Ġentropy":4562,"18":4563,"200":4564,"kins":4565,"oot":4566,"sulin":4567,"¡c":4568,"Ġtáº£o":4569,"Ġcay":4570,"ĠÄĳáº¯m":4571,"Ġnáº¡p":4572,"Ġbáº¿n":4573,"Ġbáº©y":4574,"áº¿m":4575,"Ġrá»±c":4576,"ĠdÃ¢ng":4577,"ĠchiÃªn":4578,"Ġthen":4579,"Ã¬u":4580,"Ġtao":4581,"ĠquáºŃn":4582,"Ġxáº¿":4583,"Ġpháº¿":4584,"chia":4585,"ÄĲa":4586,"ĠMÃ¡y":4587,"ĠNord":4588,"ĠÄĲÃ´i":4589,"ĠSáº½":4590,"ory":4591,"ĠvirÃºt":4592,"ĠJer":4593,"ĠJim":4594,"ole":4595,"ĠWolf":4596,"Ġ85":4597,"GiÃ¡":4598,"ĠBron":4599,"ĠShak":4600,"ĠxoÃ¡y":4601,"ĠVá»ĭnh":4602,"Ġ1980":4603,"ĠAbraham":4604,"ĠYout":4605,"ollywood":4606,"ĠchÃ¹m":4607,"ĠTaliban":4608,"ĠOlympic":4609,"19":4610,"40":4611,"John":4612,"MÃłu":4613,"nes":4614,"rap":4615,"se":4616,"ts":4617,"Ġuá»·":4618,"Ġcá»Ļ":4619,"ĠnÃŃn":4620,"Ġlay":4621,"ĠngÆ°Æ¡i":4622,"Ġgay":4623,"Ġdiá»ģu":4624,"Ġthiáº¿p":4625,"Ġthuá»³":4626,"Ġnhá»ĵi":4627,"Ġkhiáº¿u":4628,"ÄĲá»Ļt":4629,"ÄĲá»ĵng":4630,"ĠMu":4631,"emp":4632,"ĠBay":4633,"ĠBol":4634,"ĠÄĲáº¡o":4635,"ĠSouth":4636,"ĠKy":4637,"ĠviÃªm":4638,"ĠRock":4639,"ĠVÆ°Æ¡ng":4640,"ata":4641,"Ġ2050":4642,"rog":4643,"agh":4644,"Ġnhuá»Ļm":4645,"ĠPhÃ¡t":4646,"ĠluÃ¢n":4647,"ĠBá»ĩnh":4648,"ĠRosling":4649,"ĠBrown":4650,"Ġdollar":4651,"Ġnhá»Ļn":4652,"ĠYoutube":4653,"CH":4654,"bá»Łi":4655,"da":4656,"den":4657,"ĠláºŃu":4658,"ĠsÃ¹ng":4659,"Ġtrinh":4660,"Ġtrá»Ļi":4661,"Ġgá»Ļp":4662,"Ġtháº¯p":4663,"ĠxÃ´":4664,"ĠxÃ¡":4665,"Ġxáº£":4666,"ĠkhÄĥng":4667,"Ġnghiá»ģn":4668,"anz":4669,"ĠTur":4670,"ona":4671,"ĠhÃ©":4672,"ĠhÃ¢n":4673,"ino":4674,"ĠCÃ¹ng":4675,"ĠCap":4676,"ĠMor":4677,"ĠMáº¡ch":4678,"ĠHer":4679,"Ã©n":4680,"ĠÄĲa":4681,"ĠÄĲÃ£":4682,"ĠSi":4683,"ĠLÃºc":4684,"Ġ31":4685,"ĠDe":4686,"Ġkhuáº¥t":4687,"Ġsoi":4688,"ĠVÃ´":4689,"ĠVÄĥn":4690,"Ġ700":4691,"Char":4692,"Chá»§":4693,"Chá»ĭ":4694,"ever":4695,"ĠArist":4696,"Ġbá»ķng":4697,"arket":4698,"PhÆ°Æ¡ng":4699,"urger":4700,"ĠMá»Ĺi":4701,"ĠNá»¯":4702,"ĠLatin":4703,"ĠNorden":4704,"15":4705,"Váº«n":4706,"my":4707,"rut":4708,"yan":4709,"Ãģ":4710,"ĠÃ¢n":4711,"á»·":4712,"Ġtw":4713,"Ġcai":4714,"Ġlá»Ļi":4715,"ĠlÆ°á»£m":4716,"Ġmar":4717,"Ġmá»įt":4718,"Ġbáº¿":4719,"Ġkeo":4720,"Ġsáº¿p":4721,"ĠsÃ³i":4722,"ĠtrÃªu":4723,"ĠngÃ´":4724,"Ġngá»Ļ":4725,"ĠgáºŃp":4726,"Ġray":4727,"Ġria":4728,"ĠnhÄĥn":4729,"Ġxen":4730,"Ġdá»¡":4731,"ĠMil":4732,"ĠkhoÃ¡n":4733,"Ġ29":4734,"ĠÄĲan":4735,"ĠÄĲá»ĵng":4736,"ĠAir":4737,"ĠSer":4738,"ĠGore":4739,"ĠDV":4740,"ĠDa":4741,"ĠDetro":4742,"aland":4743,"ĠRay":4744,"elson":4745,"eton":4746,"Ġ55":4747,"ison":4748,"oll":4749,"ĠWil":4750,"ĠFor":4751,"ĠNghe":4752,"Ġchip":4753,"ĠHoáº·c":4754,"Ġ800":4755,"reet":4756,"Ġinsulin":4757,"ĠGiÃ¡ng":4758,"ĠGiá»Ľi":4759,"Ġcuáº£":4760,"lobal":4761,"ĠScotland":4762,"ĠAristotle":4763,"ĠDetroit":4764,"AM":4765,"EC":4766,"cÃ¡c":4767,"gin":4768,"gar":4769,"kel":4770,"mad":4771,"tan":4772,"§y":4773,"Ġtua":4774,"Ġcáº©u":4775,"Ġne":4776,"Ġnit":4777,"Ġváº«y":4778,"Ġlaser":4779,"Ġsáº£nh":4780,"ĠtrÆ°Æ¡ng":4781,"Ġráº£i":4782,"Ġdang":4783,"ĠkhÃ©p":4784,"ĠkhÃ¢u":4785,"Ã¢t":4786,"Ġkhe":4787,"Ġbá»Ľi":4788,"ĠTÃ¬nh":4789,"ĠThÃ´ng":4790,"Ġháº£":4791,"ĠMos":4792,"ĠMel":4793,"ĠMill":4794,"ĠBal":4795,"ĠBrian":4796,"ĠHill":4797,"ĠAri":4798,"Ġkhá»ĳn":4799,"ĠSal":4800,"ĠLong":4801,"espe":4802,"ĠVic":4803,"Ġrá»ķ":4804,"apore":4805,"ĠEar":4806,"ĠEur":4807,"ĠOs":4808,"lian":4809,"ThÆ°a":4810,"ĠhÃ¡n":4811,"ĠStreet":4812,"ĠUSD":4813,"ave":4814,"ĠGiai":4815,"evin":4816,"iana":4817,"ansas":4818,"ĠbÃ³p":4819,"sha":4820,"ĠBlack":4821,"onesia":4822,"ĠIndonesia":4823,"burgh":4824,"vá»Ľi":4825,"ĠCEO":4826,"ĠCyrus":4827,"Ġháº»o":4828,"ĠMandela":4829,"ĠBronx":4830,"arketing":4831,"BC":4832,"CÃ¡":4833,"NÃ£o":4834,"Sh":4835,"bÃ¢y":4836,"do":4837,"hay":4838,"ies":4839,"ke":4840,"nia":4841,"rá»ĵi":4842,"ux":4843,"ĠtÆ¡":4844,"ĠÄĳÃłng":4845,"ĠnÃ£y":4846,"Ġváº·n":4847,"ĠlÆ°á»£n":4848,"ĠngÆ¡i":4849,"Ġgiáº¿ng":4850,"Ġthá»ģ":4851,"Ġdev":4852,"Ġtá»¥t":4853,"ĠxÃłi":4854,"Ġchá»ĳn":4855,"oto":4856,"ĠTit":4857,"ÄĲi":4858,"Ġsá»ıi":4859,"Ġkhoang":4860,"ĠHá»ĩ":4861,"ĠÄĲáº¿":4862,"ence":4863,"ĠAv":4864,"Ġkhá»ĳc":4865,"ĠSom":4866,"ĠKáº¿t":4867,"ĠDis":4868,"ĠRo":4869,"ĠVÃŃ":4870,"oop":4871,"Ġcháº·ng":4872,"ĠPhÆ°Æ¡ng":4873,"ĠphÃ´i":4874,"ĠbÃ¹n":4875,"celand":4876,"ĠPalestine":4877,"ĠWatson":4878,"ĠLaden":4879,"ĠShakespe":4880,"80":4881,"BI":4882,"CC":4883,"Chi":4884,"Car":4885,"Háº¯n":4886,"PT":4887,"bá»ĳt":4888,"col":4889,"ear":4890,"ium":4891,"jo":4892,"Ġnáº¡":4893,"Ġnuá»ĳi":4894,"Ġnáº¯p":4895,"Ġnáº¿m":4896,"ĠvÃ¡ch":4897,"ĠlÃ¡ch":4898,"ĠliÃªng":4899,"Ġmi":4900,"ĠmuÃ´n":4901,"Ġmarketing":4902,"Ġsp":4903,"Ġngáº¯t":4904,"ĠngÃło":4905,"ĠvÃłn":4906,"ĠhÄĥng":4907,"ĠhÃłu":4908,"ĠrÃ²":4909,"Ġráº·ng":4910,"ĠÄĳá»įng":4911,"ĠnhÆ°á»£c":4912,"que":4913,"Ġquáº¡t":4914,"Ġxi":4915,"ĠxÆ¡":4916,"Ġkhiáº¿t":4917,"ĠÄĳÃ£i":4918,"á»įng":4919,"Ġlá»©a":4920,"Ġlá»Ńng":4921,"ĠCD":4922,"ĠMat":4923,"ĠMur":4924,"ĠBáº¯t":4925,"Ġloa":4926,"ĠHÃ´m":4927,"ĠÄĲi":4928,"ĠÄĲáº§u":4929,"ĠÄĲiá»ĩn":4930,"ĠÄĳá»ĵn":4931,"Ġbá»Ļi":4932,"ĠKn":4933,"atar":4934,"ilet":4935,"Ġmáº¹o":4936,"ĠEver":4937,"ĠÄĲá»ĭa":4938,"ĠGiáº£i":4939,"ĠQuan":4940,"ivers":4941,"pha":4942,"Ġlogo":4943,"ĠbÃªnh":4944,"Okay":4945,"ĠCarolina":4946,"ThÃ¡ng":4947,"ĠMontana":4948,"ĠZealand":4949,"Ġtweet":4950,"ĠDVD":4951,"ĠVictor":4952,"In":4953,"MA":4954,"SW":4955,"hai":4956,"oint":4957,"ville":4958,"Ġ+":4959,"īa":4960,"ĠtÃ¡t":4961,"Ġclick":4962,"ĠÄĳan":4963,"ĠÄĳun":4964,"ĠvÃ¡y":4965,"Ġláº¥n":4966,"Ġlen":4967,"Ġmil":4968,"Ġbon":4969,"Ġkil":4970,"Ġsuá»ĳi":4971,"Ġhiáº¿u":4972,"ĠdÃ¢u":4973,"ĠquÄĥng":4974,"ĠthÃª":4975,"oton":4976,"anth":4977,"ĠTam":4978,"ĠTed":4979,"Ġdá»Ŀi":4980,"ÄĲáº·c":4981,"Ġtoa":4982,"Ġtoilet":4983,"eron":4984,"ĠHollywood":4985,"amine":4986,"ĠÄĲÃ´":4987,"ĠSá»©c":4988,"ĠSilicon":4989,"ĠPro":4990,"Ġá»ª":4991,"Ġ37":4992,"Ġngoáº¡n":4993,"TrÃ¡i":4994,"ĠIr":4995,"ĠVal":4996,"Ġrá»ĩt":4997,"Ġchui":4998,"Ġchuá»Ļng":4999,"ollo":5000,"ĠEt":5001,"ome":5002,"ĠChiáº¿c":5003,"ĠYo":5004,"Ġ2002":5005,"ĠStew":5006,"Quay":5007,"ĠCháº¯c":5008,"Ġelec":5009,"Ġscan":5010,"ĠVirgin":5011,"Ġdevil":5012,"ĠShakespeare":5013,"25":5014,"Bill":5015,"Hy":5016,"Jo":5017,"KhÃ":5018,"VáºŃt":5019,"bo":5020,"din":5021,"ech":5022,"eat":5023,"mi":5024,"rin":5025,"si":5026,"sk":5027,"ston":5028,"ye":5029,"¥a":5030,"ĠÆ¡":5031,"ĠÃªm":5032,"Ġop":5033,"ĠtÆ°á»Ľc":5034,"Ġtáº¡c":5035,"Ġcal":5036,"Ġcáº¯n":5037,"Ġcua":5038,"ĠÄĳá»©t":5039,"Ġchuá»ĳi":5040,"ĠcÃ¡n":5041,"ÄĲiá»ĩn":5042,"ÄĲoáº¡n":5043,"Ġná»©t":5044,"ĠCáº£":5045,"ĠMá»Ļc":5046,"hic":5047,"ĠNÆ°á»Ľc":5048,"ĠBáº¥t":5049,"Ġkhá»Ń":5050,"aron":5051,"ĠPop":5052,"Ġá»ıi":5053,"ĠDen":5054,"Ġnháº¡o":5055,"ĠIBM":5056,"ĠIceland":5057,"Ġ46":5058,"ĠFer":5059,"Ġ1930":5060,"omp":5061,"ewis":5062,"ĠNewton":5063,"agos":5064,"Ġ1999":5065,"ylon":5066,"ĠAmy":5067,"ĠnhÃ¡t":5068,"ĠToÃłn":5069,"Ġquá»µ":5070,"ĠLá»Ľn":5071,"ĠDelhi":5072,"ĠGandhi":5073,"thÃ¬":5074,"Ġelectron":5075,"BJ":5076,"Kiá»ĥu":5077,"Phi":5078,"TÃŃnh":5079,"Xem":5080,"giá»":5081,"har":5082,"ni":5083,"nie":5084,"pi":5085,"so":5086,"ui":5087,"ves":5088,"¥y":5089,"ĠÃ´i":5090,"ħn":5091,"ĠÄĳáº¡m":5092,"ĠlÃ³t":5093,"Ġbar":5094,"Ġkiá»ģm":5095,"ĠtrÃ³i":5096,"Ġngáº£":5097,"Ġthá»ĳn":5098,"Ġcá»įc":5099,"Ġhá»Ł":5100,"Ġtá»Ľ":5101,"Ġkhinh":5102,"Ġdá»ĵi":5103,"Ãºm":5104,"Ġsá»©a":5105,"ĠMer":5106,"ĠMag":5107,"ĠNÆ¡i":5108,"ĠBÃ¡c":5109,"ĠSand":5110,"ĠKu":5111,"ĠLau":5112,"ĠLar":5113,"ĠGold":5114,"ĠDon":5115,"TrÃ´ng":5116,"ose":5117,"ĠRed":5118,"eland":5119,"ĠVÃło":5120,"ĠJac":5121,"oly":5122,"ĠWright":5123,"ĠFri":5124,"Ġcháº¡p":5125,"Ġ1900":5126,"ĠThay":5127,"ChÃł":5128,"Ġcafe":5129,"eck":5130,"Khoa":5131,"ĠAtlan":5132,"ĠSingapore":5133,"ĠWolfram":5134,"Ar":5135,"CL":5136,"Cá»Ļng":5137,"Há»":5138,"Tuyá»ĩt":5139,"WK":5140,"af":5141,"aj":5142,"aeda":5143,"burg":5144,"ij":5145,"las":5146,"nÃªn":5147,"nik":5148,"¨n":5149,"¹n":5150,"Ãįt":5151,"ĠÂ":5152,"Ġtáº»":5153,"ngÆ°á»Ŀi":5154,"Ġcáº¡o":5155,"ĠcÆ°á»¡i":5156,"ĠÄĳÃŃnh":5157,"ĠnhÃº":5158,"Ġnáº¿n":5159,"Ġnáº·c":5160,"Ġná»Ļp":5161,"ĠvÆ°á»Ľng":5162,"Ġlá»įt":5163,"Ġbin":5164,"ĠsÆ°á»Łi":5165,"Ġtre":5166,"ĠgÄĥng":5167,"Ġha":5168,"Ġthá»ı":5169,"Ġthá»«ng":5170,"Ġrong":5171,"ĠdÃło":5172,"Ġquáº©n":5173,"ĠgiÃłn":5174,"Ġxá»ĳp":5175,"Ġnháº¥c":5176,"ĠTay":5177,"ĠTáº¡o":5178,"ĠTanz":5179,"Ġhoi":5180,"ĠcháºŃt":5181,"ĠCáº§u":5182,"Æ°Æ¡c":5183,"Ġsá»Ŀ":5184,"ĠMike":5185,"ĠMiss":5186,"ĠBi":5187,"ĠBob":5188,"ĠBud":5189,"ĠHan":5190,"ĠHÃłnh":5191,"ames":5192,"ĠSk":5193,"ĠSá»ĳ":5194,"ĠphÃłn":5195,"ĠLo":5196,"ĠLin":5197,"ĠLou":5198,"ĠGÃ´":5199,"ĠDÃ¹":5200,"Há»įc":5201,"eld":5202,"ato":5203,"Ġrá»Ľt":5204,"Ġchá»įi":5205,"ĠWi":5206,"hop":5207,"ĠphÃŃch":5208,"row":5209,"Ġngá»§i":5210,"opia":5211,"ĠÄĳá»ĳn":5212,"ĠThá»ĳng":5213,"ĠNhiá»ģu":5214,"HoÃłn":5215,"Ġok":5216,"ĠQuÃ¢n":5217,"ĠArg":5218,"ĠZimb":5219,"Ġ2012":5220,"ĠChile":5221,"Ġnguá»Ļi":5222,"ĠColumb":5223,"ThÃ¬":5224,"NghÄ©":5225,"ĠCharlie":5226,"ĠLeon":5227,"ational":5228,"ĠAndrew":5229,"BA":5230,"DÆ°á»Ŀng":5231,"Global":5232,"Ráº±ng":5233,"SÃ¡u":5234,"Tá»±":5235,"km":5236,"mar":5237,"táº¥t":5238,"uit":5239,"well":5240,"yd":5241,"³t":5242,"ĠÃ´n":5243,"Ġáº¯c":5244,"Ġenz":5245,"Ġtiá»ĩt":5246,"Ġcáº±n":5247,"ĠvÃ£":5248,"ĠbÃ¬":5249,"Ġbá»įt":5250,"Ġgáº¯t":5251,"Ġhao":5252,"Ġcá»Ľ":5253,"ĠthiÃªu":5254,"Ġxáº¥p":5255,"Ġchá»ĳc":5256,"ĠTin":5257,"uyá»ħn":5258,"ÄĲÆ°Æ¡ng":5259,"ĠClin":5260,"Ġphá»Ľt":5261,"ĠkhoÃ¡c":5262,"Ġtrá»ĩ":5263,"ĠNo":5264,"ĠNelson":5265,"ĠtÃŃt":5266,"ering":5267,"eryl":5268,"ĠHam":5269,"ame":5270,"ĠLak":5271,"Ġá»§":5272,"ors":5273,"TrÆ°á»Ŀng":5274,"ĠRam":5275,"ĠRand":5276,"ĠVáº¥n":5277,"ĠWe":5278,"ters":5279,"hoáº·c":5280,"ĠNgÃ´i":5281,"liz":5282,"oid":5283,"rey":5284,"Chris":5285,"ĠAlbert":5286,"ĠAlpha":5287,"ulia":5288,"ĠChá»ĭ":5289,"entina":5290,"ĠArthur":5291,"Ġ1984":5292,"ĠScott":5293,"inda":5294,"ĠAlexander":5295,"ĠJeff":5296,"chá»ī":5297,"ight":5298,"ĠBrooklyn":5299,"100":5300,"CA":5301,"Geo":5302,"Gia":5303,"Kinh":5304,"St":5305,"VÅ©":5306,"bum":5307,"lash":5308,"way":5309,"Ġtuá»Ļc":5310,"ĠcÆ°a":5311,"ĠÄĳiáº¿u":5312,"ĠnhÃºng":5313,"há»ĭ":5314,"hÃ£y":5315,"ĠvÃ¹i":5316,"ĠtrÃ¡":5317,"ĠtrÃłng":5318,"Ġngáº¡o":5319,"Ġngá»įc":5320,"Ġgo":5321,"Ġgáº¡o":5322,"ĠvÃłnh":5323,"ĠrÃ¬u":5324,"Ġpop":5325,"Ġposter":5326,"ĠdÆ°ng":5327,"Ġdáº³ng":5328,"Ġvá»±ng":5329,"Ġnhá»¥c":5330,"Ġtháº£y":5331,"iá»ģng":5332,"Ġbá»ī":5333,"Ġbá»Ŀi":5334,"Ġlá»¥a":5335,"Ġmá»ĭ":5336,"ĠMatt":5337,"ĠBot":5338,"ĠBao":5339,"ĠHu":5340,"ĠÄĲá»Ļng":5341,"ĠAus":5342,"ĠgiÃ¡ng":5343,"Ġdop":5344,"Ġphanh":5345,"ĠKi":5346,"ĠKat":5347,"ĠLang":5348,"ĠLee":5349,"Ġá»«":5350,"ost":5351,"etti":5352,"NgÃ´n":5353,"Ġkhuáº¿ch":5354,"ĠIg":5355,"Ġ48":5356,"ican":5357,"ĠJord":5358,"Ġ2030":5359,"use":5360,"ĠThiáº¿t":5361,"ĠYeah":5362,"rab":5363,"ĠTEDGlobal":5364,"Ġgá»Ľm":5365,"ĠhÃ¡o":5366,"Vá»Ĺ":5367,"ardy":5368,"abeth":5369,"Cháº¥t":5370,"Quáº£":5371,"ull":5372,"iff":5373,"ĠQuáº£ng":5374,"ive":5375,"ĠmÃ¬n":5376,"ĠMoore":5377,"ierra":5378,"ĠThÃ´i":5379,"ĠPhá»¥":5380,"ĠHigh":5381,"ĠKhÃ¡n":5382,"ĠNghiÃªn":5383,"ĠVenice":5384,"ĠHawai":5385,"ĠParkinson":5386,"Ġaxit":5387,"Ġghen":5388,"enhagen":5389,"Ãģnh":5390,"ĠDisney":5391,"ĠVirginia":5392,"ĠTanzania":5393,"lizabeth":5394,"Dan":5395,"DÆ°á»Ľi":5396,"FG":5397,"MÃ¹a":5398,"RA":5399,"Sp":5400,"Sá»©c":5401,"ThÃº":5402,"eas":5403,"fa":5404,"hh":5405,"mo":5406,"ool":5407,"rr":5408,"tamin":5409,"uáº§n":5410,"zler":5411,"ĩch":5412,"ĠcÃłnh":5413,"ĠÄĥ":5414,"ĠÄĳáº·n":5415,"Ġná»Ļ":5416,"há»ģ":5417,"Ġváº¯t":5418,"Ġven":5419,"ĠlÃ¡ng":5420,"ĠmÃ¡c":5421,"Ġmet":5422,"ĠmÃ©o":5423,"Ġbuá»ĵ":5424,"Ġkg":5425,"Ġkiá»ģu":5426,"Ġgl":5427,"Ġchinh":5428,"Ġnhá»©c":5429,"Ġnhá»įn":5430,"Ġcá»§i":5431,"Ġtá»Ł":5432,"Ġpháº£":5433,"ĠchoÃłng":5434,"ĠTÃłi":5435,"ĠTel":5436,"Ġlá»¥t":5437,"Ġhon":5438,"Ġná»Ľi":5439,"ĠCN":5440,"ĠCÅ©ng":5441,"ĠCas":5442,"ĠchÃŃch":5443,"ĠMas":5444,"ĠNick":5445,"ĠHiá»ĩn":5446,"ĠAg":5447,"ĠPower":5448,"ĠKal":5449,"ĠKÃŃnh":5450,"ĠGil":5451,"ĠDr":5452,"Å©a":5453,"alem":5454,"Ġvitamin":5455,"elp":5456,"elly":5457,"eter":5458,"Ġnháº¡i":5459,"Ġ44":5460,"ics":5461,"ĠJill":5462,"ily":5463,"ĠFar":5464,"ĠNgay":5465,"Thá»īnh":5466,"usalem":5467,"ĠPhil":5468,"ops":5469,"aze":5470,"Giáº£i":5471,"Ġtá»¥ng":5472,"aine":5473,"ĠToÃł":5474,"ĠColomb":5475,"ĠMoz":5476,"ĠTháº§n":5477,"ĠBosnia":5478,"ĠGeorg":5479,"ucks":5480,"Ġalbum":5481,"ĠCopenhagen":5482,"ĠiPod":5483,"ĠTeszler":5484,"Kháº£":5485,"ĠJerusalem":5486,"Ġopera":5487,"ĠArgentina":5488,"ĠClinton":5489,"Ġdopamine":5490,"Ġbuá»ĵm":5491,"IA":5492,"JH":5493,"LiÃªn":5494,"Lá»Ŀi":5495,"Oh":5496,"Sá»Ń":5497,"cá»":5498,"gi":5499,"ken":5500,"lÃłm":5501,"ned":5502,"sy":5503,"ÃĶi":5504,"Ġah":5505,"áº³n":5506,"ĠcÃło":5507,"ĠÄĳÆ°Æ¡c":5508,"Ġná»±c":5509,"Ġnáº¥c":5510,"ĠlÆ°á»Ŀi":5511,"ĠliÃªu":5512,"Ġmu":5513,"Ġman":5514,"ĠmÃ´ng":5515,"Ġbá»±":5516,"ĠsÆ°Æ¡ng":5517,"Ġsilicon":5518,"Ġhuá»³":5519,"Ġthá»ĳi":5520,"Ġdiá»ħu":5521,"Ġvá»īa":5522,"Ġnhá»ĳt":5523,"Ġquáº§y":5524,"ĠTemp":5525,"ÄĲá»Ļng":5526,"ÄĲÃ¡ng":5527,"Ġtoáº¡":5528,"ĠMi":5529,"ĠMin":5530,"Ġkhoe":5531,"hidi":5532,"hiopia":5533,"ĠBÄĥng":5534,"ĠBir":5535,"erom":5536,"ĠÄĲáº¿n":5537,"ena":5538,"ĠPort":5539,"ĠLine":5540,"Ġviol":5541,"ellow":5542,"isa":5543,"ĠJenn":5544,"ĠJones":5545,"oln":5546,"ĠWow":5547,"Ġ193":5548,"ĠCha":5549,"ĠkÃ©p":5550,"ĠHoÃ¡":5551,"reg":5552,"Chiáº¿n":5553,"ĠUá»·":5554,"Má»Ľi":5555,"oug":5556,"ĠGiÃ¡":5557,"iberia":5558,"ĠCarl":5559,"ĠCarn":5560,"ĠJohnny":5561,"ĠAmer":5562,"ThÃŃ":5563,"hammad":5564,"ĠMá»¥c":5565,"incoln":5566,"ĠThÃ¬":5567,"ĠLuÃ¢n":5568,"ĠJoshua":5569,"ĠBabylon":5570,"ylvia":5571,"PTCH":5572,"ĠStewart":5573,"ĠColumbia":5574,"13":5575,"70":5576,"CÃłng":5577,"Láº¡i":5578,"Mich":5579,"Rob":5580,"TÃ³m":5581,"men":5582,"wich":5583,"Ġáº£":5584,"Ġao":5585,"áº¤n":5586,"ĠcÃºi":5587,"ĠÄĳáº¯ng":5588,"ĠÄĳáº§m":5589,"Ġlung":5590,"ĠlÃºng":5591,"ĠlÃ©n":5592,"Ġkiáº¿p":5593,"nhÆ°":5594,"áº¡y":5595,"ĠgÃ¡n":5596,"Ġgáº§y":5597,"Ġgá»ĳm":5598,"Ġráº£nh":5599,"ĠrÃ¹a":5600,"Ġdáº¡n":5601,"Ġtaxi":5602,"ĠnÃ³c":5603,"Ġxáº»":5604,"Ġchá»ķ":5605,"ĠmÃłi":5606,"cher":5607,"ĠTer":5608,"ĠchÃªnh":5609,"ĠMov":5610,"ĠNep":5611,"ĠBell":5612,"ĠHÃ¬nh":5613,"ĠHung":5614,"ĠHÃłng":5615,"ĠHir":5616,"ĠAR":5617,"ĠSá»Ń":5618,"ĠSky":5619,"ĠSierra":5620,"Ġphiá»ĩn":5621,"Ġpherom":5622,"ĠPau":5623,"ĠPri":5624,"ĠKhan":5625,"Ġá»Ľt":5626,"Ġ38":5627,"Ġ350":5628,"ĠTráº¯ng":5629,"ĠxuÃ´i":5630,"ĠDu":5631,"ĠDaniel":5632,"ĠbÃ¡u":5633,"ello":5634,"ila":5635,"itt":5636,"ĠWest":5637,"ĠWalk":5638,"ĠFort":5639,"ĠEv":5640,"acy":5641,"urt":5642,"ĠPhilad":5643,"Ġ86":5644,"Ġgá»¥c":5645,"ChÆ°Æ¡ng":5646,"ChÃło":5647,"thay":5648,"ĠgÃ³t":5649,"ĠXem":5650,"ĠsuÃ½t":5651,"ĠThá»§":5652,"ifer":5653,"utan":5654,"ĠVá»ģ":5655,"Ġ130":5656,"ĠGiá»ĳng":5657,"ĠnhÃ¡y":5658,"ĠCá»¥c":5659,"ĠCá»©u":5660,"ather":5661,"kyo":5662,"ĠLeone":5663,"derson":5664,"Ġmá»īa":5665,"ĠJoseph":5666,"Nháº¡c":5667,"ĠiPad":5668,"Ġacid":5669,"ECD":5670,"ĠVictoria":5671,"ĠEthiopia":5672,"ĠZimbab":5673,"ĠHawaii":5674,"Ġhuá»³nh":5675,"PTCHA":5676,"Bá»įn":5677,"Cuá»ĳn":5678,"HÃłnh":5679,"MÃ´":5680,"Máº¥y":5681,"Má»ĳi":5682,"Mark":5683,"OL":5684,"PhÃ¡":5685,"Paul":5686,"Quy":5687,"SÃ¡ng":5688,"Tiáº¿n":5689,"Tuá»ķi":5690,"grap":5691,"off":5692,"rge":5693,"ule":5694,"vÃŃt":5695,"Äĳi":5696,"Ġz":5697,"ĠÆ°Æ¡i":5698,"á»«ng":5699,"Ġtáº¡":5700,"ĠcÃ´i":5701,"ĠcÄĥm":5702,"ĠÄĳÆ°á»Ŀi":5703,"ĠÄĳiá»ĥu":5704,"Ġsá»Ļ":5705,"Ġsáº¥u":5706,"ĠngÃ¢m":5707,"Ġhen":5708,"Ġthá»ī":5709,"Ġrock":5710,"ĠchÃł":5711,"Ġhá»©c":5712,"Ġtháº£n":5713,"Ġquáº¥n":5714,"Ġgiáº§y":5715,"ĠxÃ¬":5716,"ĠxÃło":5717,"otter":5718,"Ġbá»ĩ":5719,"ĠTÆ°Æ¡ng":5720,"ĠTÃ¬m":5721,"Ġcháº£o":5722,"ĠchÃ©o":5723,"ĠnhÃŃ":5724,"ĠCÃ¡":5725,"ĠCity":5726,"Æ°Æ¡m":5727,"Ġbá»ĭt":5728,"ĠMT":5729,"ĠBh":5730,"erson":5731,"ĠÄĲÃło":5732,"ĠShe":5733,"ĠSiberia":5734,"ĠLincoln":5735,"ĠGod":5736,"Ġngoáº·t":5737,"Ġvirut":5738,"ĠbÃ©n":5739,"ĠIt":5740,"Ġ42":5741,"ĠQatar":5742,"ĠJay":5743,"ĠJes":5744,"ĠJane":5745,"ĠJulia":5746,"ĠEx":5747,"ĠNghá»ĭ":5748,"Ġtá»īa":5749,"ĠlÃ£i":5750,"ĠOp":5751,"ĠOECD":5752,"Ġ72":5753,"Ġ96":5754,"ooh":5755,"rib":5756,"ĠNews":5757,"ĠÄĲá»ĭnh":5758,"Ġcá»Ńu":5759,"igan":5760,"ÄĳÆ°á»£c":5761,"Ġxá»ķ":5762,"Ġoxi":5763,"ula":5764,"ulu":5765,"uba":5766,"ĠAnderson":5767,"ĠQuÃ¡":5768,"utnik":5769,"NhÃ³m":5770,"Ġ140":5771,"ĠEmma":5772,"ennis":5773,"ĠToÃ¡n":5774,"ĠBerkel":5775,"Ġeur":5776,"ĠBroad":5777,"uper":5778,"ĠPhá»¥c":5779,"Ġmá»īm":5780,"ladesh":5781,"ĠGreenland":5782,"ĠStarb":5783,"ĠSimon":5784,"ĠNorth":5785,"ĠTasmanian":5786,"ĠMaya":5787,"ĠMuhammad":5788,"shahidi":5789,"ĠSomalia":5790,"George":5791,"Ġtá»Łm":5792,"azeera":5793,"ĠZimbabwe":5794,"ĠBerkeley":5795,"Adam":5796,"CÄĥn":5797,"Donald":5798,"Há»ĵi":5799,"OX":5800,"So":5801,"bor":5802,"ble":5803,"ih":5804,"jamin":5805,"mart":5806,"tÃ´ng":5807,"vÃło":5808,"wen":5809,"¹o":5810,"Ġ=":5811,"Ġion":5812,"Ĥn":5813,"ĠtÃ½":5814,"ĠtÃ²i":5815,"ĠcÆ°ng":5816,"ĠcÃły":5817,"ĠcÃºng":5818,"ĠÄĳiáº¿c":5819,"Ġváº§y":5820,"Ġmáº§u":5821,"Ġmá»Ļc":5822,"Ġngá»±":5823,"Ġnguá»µ":5824,"Ġgas":5825,"Ġhamb":5826,"Ġrá»ĵng":5827,"ĠráºŃm":5828,"ĠdÃ¬":5829,"ĠÄĳá»±":5830,"ĠÄĳá»Ĺi":5831,"Ġnham":5832,"Æ¡c":5833,"Ġquáº¥y":5834,"ĠxÃ¡o":5835,"ĠxÃ³t":5836,"Ġgiá»¥c":5837,"ĠTÃ¢m":5838,"Ġhor":5839,"Ã¹n":5840,"ÄĲáº¡i":5841,"ĠCamp":5842,"ĠMau":5843,"ĠsÃ¡p":5844,"ĠNet":5845,"ĠNike":5846,"ĠBá»ĵ":5847,"ĠBali":5848,"ĠHav":5849,"ĠÄĲá»ĵ":5850,"ĠSus":5851,"ĠSun":5852,"ĠSud":5853,"ĠSarah":5854,"ĠmÃ¡nh":5855,"ĠPenn":5856,"ĠLaw":5857,"ĠLewis":5858,"ĠGh":5859,"ĠTriá»ģu":5860,"ĠTráº»":5861,"ĠDub":5862,"ĠRon":5863,"Ġ5000":5864,"ĠVi":5865,"ĠJeop":5866,"ĠJazeera":5867,"ĠÃĶ":5868,"aska":5869,"iti":5870,"ĠFOX":5871,"Ġ192":5872,"ĠNgoáº¡i":5873,"ade":5874,"ĠThÆ°Æ¡ng":5875,"ĠThuáºŃt":5876,"obi":5877,"uron":5878,"une":5879,"Ġxoa":5880,"ĠSteph":5881,"opa":5882,"ĠXanh":5883,"Ġxá»ĭt":5884,"ĠchÃ³p":5885,"Ġ180":5886,"Ġ185":5887,"Ġhip":5888,"ĠBrit":5889,"egie":5890,"Ġ160":5891,"ĠKenned":5892,"ĠTokyo":5893,"Cá»¥":5894,"ĠSputnik":5895,"rence":5896,"ĠBangladesh":5897,"ĠLuther":5898,"Khu":5899,"ĠbÆ°á»Ľu":5900,"thalate":5901,"ĠrÃ£nh":5902,"thá»±c":5903,"ĠWhit":5904,"ĠEarth":5905,"ĠAtlanta":5906,"ĠLeonardo":5907,"ĠÄĥng":5908,"elphia":5909,"ĠColombia":5910,"ĠCarnegie":5911,"ĠPhiladelphia":5912,"ĠStarbucks":5913,"ĠStephen":5914,"ĠKennedy":5915,"99":5916,"Cá»ĳ":5917,"ChÃ¡u":5918,"DA":5919,"DÃ¢n":5920,"Dá»±a":5921,"EA":5922,"Khá»":5923,"MS":5924,"NC":5925,"SS":5926,"Táº¥m":5927,"bie":5928,"ha":5929,"lay":5930,"lem":5931,"med":5932,"rick":5933,"sc":5934,"shi":5935,"zÆ¡":5936,"ħu":5937,"Ġtest":5938,"Ġcm":5939,"Ġna":5940,"ĠvÃ´i":5941,"ĠvÃ¡c":5942,"Ġviá»ģn":5943,"Ġláº§y":5944,"Ġbl":5945,"ĠbÃ´i":5946,"Ġbáº§m":5947,"Ġsand":5948,"Ġtriá»ħn":5949,"ĠrÃł":5950,"Ġpoly":5951,"ĠduyÃªn":5952,"Ġchiáº¿t":5953,"Ġgiun":5954,"ĠxÃ¢u":5955,"Ġxáº¯n":5956,"Ġchá»ĵn":5957,"ĠTáº¡ng":5958,"ait":5959,"Ġcháº£i":5960,"ĠchÃ©n":5961,"ÄĲÃłn":5962,"inburgh":5963,"ĠMinh":5964,"ember":5965,"Ġtrá»Ľ":5966,"Ġtrá»Ĺi":5967,"ĠBel":5968,"ĠBas":5969,"ĠBert":5970,"ĠHa":5971,"ĠHad":5972,"amas":5973,"ĠÄĲÃ´n":5974,"Ġkhá»ĳng":5975,"ĠSiÃªu":5976,"Ġyeah":5977,"ĠPol":5978,"ĠKhÃ":5979,"ĠKam":5980,"ĠKelly":5981,"ĠLoáº¡i":5982,"ĠGran":5983,"aly":5984,"ĠRobot":5985,"ĠRog":5986,"ette":5987,"Nguá»ĵn":5988,"Ġ58":5989,"ĠVáºŃt":5990,"apagos":5991,"ild":5992,"olas":5993,"omen":5994,"ĠThÆ°a":5995,"ĠPhilip":5996,"Ġghim":5997,"opatch":5998,"ĠAlice":5999,"ava":6000,"ĠchÃ³i":6001,"eller":6002,"Ġ1996":6003,"Ġ1998":6004,"Ġtá»¥i":6005,"phone":6006,"phere":6007,"Ġhá»ĳc":6008,"ĠBá»©c":6009,"ĠMichigan":6010,"ĠEdinburgh":6011,"ĠCopern":6012,"ĠHawk":6013,"ĠGalapagos":6014,"Tá»ķng":6015,"ĠTasmania":6016,"ĠNanopatch":6017,"ĠnhÃ´m":6018,"ĠApollo":6019,"ĠEverest":6020,"ĠLakota":6021,"ĠHungary":6022,"graphic":6023,"ihad":6024,"Ġhamburger":6025,"Ben":6026,"Háº³n":6027,"Jos":6028,"Kiáº¿n":6029,"OPA":6030,"Suy":6031,"TS":6032,"Táº¿":6033,"cy":6034,"eon":6035,"nÃ´":6036,"oz":6037,"pu":6038,"ray":6039,"tt":6040,"tim":6041,"tháºŃt":6042,"zona":6043,"ĠáºŃp":6044,"Ġooh":6045,"Ġtá»Ļt":6046,"ĠÄĳáº¯c":6047,"Ġno":6048,"Ġve":6049,"ĠvÃ¡":6050,"ĠvÅ©ng":6051,"Ġviá»ĩt":6052,"Ġláº«y":6053,"ĠbÃłnh":6054,"ĠbÃłng":6055,"Ġbit":6056,"ĠsáºŃp":6057,"ĠngÆ°á»Ľc":6058,"Ġngáº·t":6059,"Ġnguyá»ĩt":6060,"Ġgel":6061,"ĠgáºŃt":6062,"Ġgiá»ģng":6063,"Ġghá»ģ":6064,"Ġhel":6065,"Ġthá»§ng":6066,"Ġdáº¥n":6067,"ĠnhÆ°á»£ng":6068,"Ġrap":6069,"ĠphÃ´ng":6070,"ĠTáº¿":6071,"aig":6072,"airo":6073,"Ġcháº±ng":6074,"inn":6075,"ĠMap":6076,"eman":6077,"ĠNÃ´":6078,"ĠNair":6079,"ĠNational":6080,"ĠBá»ĳn":6081,"ĠBoy":6082,"ĠHol":6083,"ĠSol":6084,"ĠSad":6085,"ĠSÃ¡u":6086,"ĠSuper":6087,"ial":6088,"ĠKr":6089,"ĠKevin":6090,"ĠKansas":6091,"ĠLáº¡t":6092,"ĠLeb":6093,"ĠquÃ¡ng":6094,"ĠGar":6095,"ĠTruyá»ģn":6096,"ĠbÃ¡ng":6097,"ĠRes":6098,"ĠRoy":6099,"Ġkhuáº¥y":6100,"ĠIM":6101,"ĠViáº¿t":6102,"ĠES":6103,"ĠOak":6104,"ura":6105,"Ġ74":6106,"Ġ98":6107,"unk":6108,"Vá»ĭ":6109,"ĠUshahidi":6110,"ocr":6111,"Ġox":6112,"ĠAnas":6113,"ĠQuay":6114,"ĠQuÃ½":6115,"Ġáº¢o":6116,"Ġ1995":6117,"ĠJohnson":6118,"attle":6119,"ĠCá»©":6120,"ĠBern":6121,"ĠEdward":6122,"inceton":6123,"ĠPrinceton":6124,"umbai":6125,"ĠNháº¥t":6126,"osterone":6127,"ĠJackson":6128,"ĠTrá»ĭ":6129,"opher":6130,"ĠArizona":6131,"giá»Ŀ":6132,"ĠTempest":6133,"ĠMovember":6134,"ĠNepal":6135,"ĠSudan":6136,"ĠJeopardy":6137,"14":6138,"90":6139,"AK":6140,"Biá»ĥu":6141,"Einstein":6142,"HC":6143,"Hiá»ĥn":6144,"Káº¿":6145,"RW":6146,"SC":6147,"Suá»ĳt":6148,"Tá»ĳi":6149,"Tuáº§n":6150,"ax":6151,"bao":6152,"ct":6153,"cent":6154,"eith":6155,"fur":6156,"iel":6157,"mÃ´n":6158,"pháº":6159,"rÃ´":6160,"vis":6161,"zz":6162,"±n":6163,"Ġet":6164,"Ġamin":6165,"ĠÆ¯á»Ľc":6166,"Ġtáº£n":6167,"Ġtáº·c":6168,"ĠtÆ°á»Ľi":6169,"ĠcÃ²i":6170,"Ġcáº©m":6171,"ĠÄĳáºŃy":6172,"ĠÄĳáº¯p":6173,"ĠnÃ¡o":6174,"Ġvuá»ĳt":6175,"Ġviáº¿ng":6176,"Ġme":6177,"Ġmao":6178,"Ġmáº·n":6179,"ĠbÃ£":6180,"ĠsuÃ´n":6181,"ĠtrÆ¡n":6182,"ĠtrÃ¹":6183,"Ġgram":6184,"ĠhiÃªn":6185,"Ġreo":6186,"Ġnhai":6187,"Ġcá»«":6188,"Ġnhá»įc":6189,"Ġtháº¹n":6190,"á»±u":6191,"Ġsáº¹o":6192,"ĠphÃ¬nh":6193,"ĠTÃªn":6194,"ĠTah":6195,"onto":6196,"Ġná»ĵi":6197,"ĠCor":6198,"ĠCuá»ĳi":6199,"ĠCairo":6200,"Ġbá»ĭch":6201,"ĠMáº·c":6202,"ĠMáº¡ng":6203,"ĠMumbai":6204,"emy":6205,"Ġká»µ":6206,"ĠBeet":6207,"ĠHel":6208,"ĠÄĲÃłi":6209,"ĠAch":6210,"ĠSá»":6211,"ĠPep":6212,"ĠKháº":6213,"ĠLai":6214,"ĠLuc":6215,"ĠGro":6216,"ĠDie":6217,"ĠDoug":6218,"osau":6219,"NgÃłnh":6220,"Ġ52":6221,"ater":6222,"atur":6223,"Ġ43":6224,"ĠQua":6225,"icus":6226,"ĠEle":6227,"Ġ190":6228,"hoven":6229,"omet":6230,"ado":6231,"ĠYÃªu":6232,"rah":6233,"ĠHoÃłn":6234,"Ġ93":6235,"Ġ900":6236,"ĠlÃŃt":6237,"ree":6238,"ĠInter":6239,"Chá»¯":6240,"ĠXu":6241,"ĠAlaska":6242,"Tá»Ľi":6243,"ÄĳÃ£":6244,"ĠGiÃ¡m":6245,"ump":6246,"QuÃŃ":6247,"ChÃ¢u":6248,"ĠAnn":6249,"Giai":6250,"ĠprÃ´":6251,"ĠâĢ¦":6252,"ĠÃģo":6253,"achel":6254,"ĠBerlin":6255,"ĠTime":6256,"ĠPhá»ĳ":6257,"PhÃŃa":6258,"ĠCameron":6259,"And":6260,"field":6261,"ĠCAPTCHA":6262,"Ġenzy":6263,"Ġviolin":6264,"Michael":6265,"Ġthá»īu":6266,"ribati":6267,"Ġtestosterone":6268,"Bá»ĳn":6269,"Cáº£nh":6270,"Ed":6271,"NG":6272,"Peter":6273,"Quyá»ģn":6274,"Richard":6275,"SB":6276,"Sinh":6277,"VÄĥn":6278,"br":6279,"cÅ©ng":6280,"cou":6281,"hm":6282,"hol":6283,"kr":6284,"sw":6285,"uz":6286,"word":6287,"yc":6288,"Ġ)":6289,"Ġq":6290,"Ġen":6291,"Ġáº§m":6292,"Ġit":6293,"ĠcÃ¢m":6294,"ĠÄĳÃª":6295,"Ġnang":6296,"Ġnai":6297,"Ġvv":6298,"Ġlá»ĳ":6299,"Ġlá»Ļng":6300,"Ġliá»ħu":6301,"Ġbo":6302,"ĠkiÃªu":6303,"Ġsáº¡c":6304,"Ġngáº§n":6305,"Ġnguá»":6306,"ĠgÃ´n":6307,"Ġgáº§m":6308,"ĠhÆ°Æ¡":6309,"ĠrÃ²ng":6310,"ĠrÃ¡ch":6311,"Ġdáº¥y":6312,"Ġcá»Ĺi":6313,"Ġchanh":6314,"Ġquáº³ng":6315,"Ġgiang":6316,"Ġxá»Ł":6317,"Ġchá»Ļ":6318,"Ġchá»ķi":6319,"ĠthÃ¢":6320,"ĠthÃ¬nh":6321,"Ġhá»įng":6322,"Ġnháº½":6323,"ĠTiá»ģn":6324,"ÄĲáº·t":6325,"ines":6326,"ĠCuba":6327,"Ġháº¯c":6328,"Ġsá»¥t":6329,"ĠMus":6330,"ĠMÃ¹a":6331,"ĠMama":6332,"Ġtrá»ı":6333,"Ġká»ĭ":6334,"ĠNhá»":6335,"ĠNathan":6336,"ĠBáº£y":6337,"ĠHal":6338,"ĠHá»ĵng":6339,"ĠÄĲÆ°a":6340,"ĠÄĲá»ĳi":6341,"ĠSn":6342,"ĠSen":6343,"ias":6344,"Ġphao":6345,"ĠKá»¹":6346,"ĠKur":6347,"ĠLáº§n":6348,"Ġngá»£p":6349,"ĠDick":6350,"orm":6351,"Trang":6352,"ĠÃŃn":6353,"alay":6354,"alin":6355,"imet":6356,"oshi":6357,"ĠRad":6358,"ĠRid":6359,"ĠIvan":6360,"ister":6361,"ĠQuyá»ģn":6362,"ĠJers":6363,"ĠbazÆ¡":6364,"Ġláº½o":6365,"ĠFox":6366,"ĠEve":6367,"ĠElizabeth":6368,"hoo":6369,"ustin":6370,"Ġ64":6371,"ĠThung":6372,"ĠOli":6373,"obs":6374,"ring":6375,"Ġbanjo":6376,"ĠUr":6377,"ington":6378,"eyer":6379,"Má»©c":6380,"oud":6381,"ĠYorker":6382,"tech":6383,"Ġfan":6384,"QuÃ¢n":6385,"ĠQuáº§n":6386,"ĠhÃ¨n":6387,"Ġ1994":6388,"Ġgames":6389,"ĠGiá»įng":6390,"ĠScr":6391,"anna":6392,"anny":6393,"Ġ1975":6394,"ĠMcC":6395,"ĠCá»§a":6396,"ĠLá»ĭch":6397,"ĠRomo":6398,"...":6399,"ĠSeattle":6400,"Lá»ĭch":6401,"ChÃºa":6402,"ĠLesterland":6403,"Charles":6404,"garet":6405,"ĠLouis":6406,"ĠKiribati":6407,"ĠCNN":6408,"ĠSkype":6409,"ĠJesus":6410,"ĠÄĳá»±Æ¡c":6411,"ĠHavard":6412,"Ġsandwich":6413,"ĠBeethoven":6414,"ĠJersey":6415,"AO":6416,"Biáº¿t":6417,"CÃ¢y":6418,"GM":6419,"James":6420,"MG":6421,"NÄĥng":6422,"RG":6423,"RNA":6424,"SR":6425,"Sá»":6426,"Tim":6427,"Thomas":6428,"Women":6429,"XL":6430,"XÃ£":6431,"cÃ²n":6432,"cal":6433,"cus":6434,"ead":6435,"iro":6436,"ms":6437,"rat":6438,"rina":6439,"tháº":6440,"tel":6441,"tháº¿":6442,"tion":6443,"uela":6444,"¨ng":6445,"²i":6446,"ģu":6447,"áºµn":6448,"ĠÄĤn":6449,"ĠÄĳÃºt":6450,"ĠnÃ²ng":6451,"Ġnáº¥ng":6452,"ĠmiÃªn":6453,"ĠmÄ©":6454,"ĠmÆ°á»Ŀng":6455,"Ġbe":6456,"ĠbÃº":6457,"Ġbus":6458,"Ġki":6459,"ĠkÃ¨n":6460,"ĠtrÃºt":6461,"Ġgáº·m":6462,"Ġrá»įi":6463,"Ġráº¡c":6464,"Ġráº©y":6465,"Ġpass":6466,"ĠdÃ¨":6467,"ĠthÃł":6468,"Ġtá»©":6469,"ĠxÃ³i":6470,"Ġpháº«n":6471,"Ġgiá»ħu":6472,"Ġnháº¥m":6473,"ĠTá»ĳi":6474,"ĠTun":6475,"ĠTÃŃnh":6476,"aid":6477,"aus":6478,"Ġsá»«ng":6479,"Ġbá»ĭp":6480,"ĠMet":6481,"ĠMass":6482,"ĠMitch":6483,"ĠNic":6484,"ĠBM":6485,"ĠBÃªn":6486,"ĠloÃ©":6487,"ĠHom":6488,"ene":6489,"ĠAng":6490,"ĠAsh":6491,"ĠArab":6492,"Ġkhá»Ŀ":6493,"ĠSylvia":6494,"Ġphthalate":6495,"ĠLi":6496,"áº¹o":6497,"Ġ34":6498,"ĠTranh":6499,"ĠDÄ©":6500,"ĠDoh":6501,"ĠDav":6502,"ori":6503,"Ġthuá»Ł":6504,"imee":6505,"iÃªt":6506,"ĠIP":6507,"Tháº¥y":6508,"ĠVer":6509,"Ġ450":6510,"ĠJerry":6511,"ĠWill":6512,"ĠFGM":6513,"Ġláº¡y":6514,"ĠThÆ°":6515,"ĠOn":6516,"ĠOreg":6517,"ĠChad":6518,"lipp":6519,"thew":6520,"opy":6521,"able":6522,"inea":6523,"illa":6524,"aza":6525,"ĠConn":6526,"iva":6527,"ĠArch":6528,"Ġtháº¡c":6529,"ĠIsland":6530,"Ġ1997":6531,"allon":6532,"ĠCháº¿t":6533,"ĠGeographic":6534,"ĠMcG":6535,"ĠMcK":6536,"athon":6537,"ĠPhÆ°á»£ng":6538,"ĠbuÃ´ng":6539,"ĠBlue":6540,"ToÃł":6541,"Ġkhuya":6542,"ĠGreat":6543,"ĠBeach":6544,"ĠBenjamin":6545,"ĠOkay":6546,"ĠJulian":6547,"ĠToronto":6548,"ĠGrand":6549,"ĠGuinea":6550,"ĠTesla":6551,"ĠPeru":6552,"ĠShir":6553,"aghetti":6554,"Ġmarathon":6555,"ĠEuropa":6556,"Ġspaghetti":6557,"ĠthÃªu":6558,"otonin":6559,"ĠFried":6560,"ĠTaylor":6561,"ĠJefferson":6562,"ĠKatrina":6563,"ĠJordan":6564,"ĠBhutan":6565,"ĠFOXO":6566,"ĠBertie":6567,"ĠHawking":6568,"timore":6569,"ĠDiego":6570,"couver":6571,"ĠhÆ°Æ¡u":6572,"Ġpassword":6573,"ĠDoha":6574,"ĠOregon":6575,"11":6576,"75":6577,"Fran":6578,"LÆ°á»£ng":6579,"Mong":6580,"Niá»ģm":6581,"SE":6582,"Sai":6583,"TÃłi":6584,"Tiá»ģn":6585,"Vi":6586,"Xe":6587,"XÃ©t":6588,"bá»ĳn":6589,"cÃ¡i":6590,"eng":6591,"eff":6592,"fred":6593,"ject":6594,"ko":6595,"ráº±ng":6596,"rit":6597,"tá»«":6598,"¡y":6599,"ĠÆ°á»Ľp":6600,"áº¢":6601,"Ġtem":6602,"Ġteen":6603,"ngh":6604,"ĠcÃµi":6605,"ĠÄĳiá»ģm":6606,"ĠÄĳáº«m":6607,"ĠÄĳáº¥ng":6608,"ĠnÃ´i":6609,"ĠnÃ´n":6610,"Ġnáº·n":6611,"ĠvÃ³c":6612,"Ġlon":6613,"Ġlink":6614,"Ġmiá»ĩt":6615,"Ġbáº§n":6616,"ĠkiÃªm":6617,"Ġsáº£y":6618,"Ġsáº¥m":6619,"Ġtro":6620,"ĠtrÃ¢u":6621,"Ġnguyá»ģn":6622,"Ġgá»Łi":6623,"ĠrÃłnh":6624,"Ġráº¡ng":6625,"Ġráº¡ch":6626,"Ġprog":6627,"Ġdáº«u":6628,"ĠcÃ¡u":6629,"Ġnhá»ķ":6630,"Ġchá»ĩch":6631,"otos":6632,"anon":6633,"anic":6634,"ĠTiÃªn":6635,"Ġhoáº¡n":6636,"onacc":6637,"ÄĲá»Ļ":6638,"ÄĲáº¥t":6639,"ĠCP":6640,"ĠCao":6641,"ĠCen":6642,"ĠCur":6643,"Ġsá»¡":6644,"Nhiá»ĩm":6645,"Ġtop":6646,"ĠMÃ´i":6647,"ĠMÃª":6648,"ĠMoh":6649,"ĠBiá»ĥn":6650,"ĠBlo":6651,"ĠHim":6652,"ĠHáº¯n":6653,"ĠHall":6654,"ĠÄĲáº·c":6655,"ĠAur":6656,"ĠSÃ¡ng":6657,"ĠcÆ¡m":6658,"Ġphu":6659,"ĠPier":6660,"ĠKib":6661,"ĠLÃ¢m":6662,"Ġtrá»įt":6663,"ĠGá»Ńi":6664,"ĠGeh":6665,"ĠTrÄĥng":6666,"ĠTreas":6667,"Ġxuáº©n":6668,"ĠDÃłn":6669,"TrÃ²":6670,"alore":6671,"ĠviÃª":6672,"osh":6673,"ĠRa":6674,"ĠRod":6675,"Ġthoa":6676,"eta":6677,"etown":6678,"NgÃ¢n":6679,"ĠIm":6680,"Ġ54":6681,"Ġrá»¥ng":6682,"Ġ4000":6683,"ĠQaeda":6684,"ĠJan":6685,"ĠJess":6686,"app":6687,"ita":6688,"ĠFib":6689,"ĠFBI":6690,"Ġ2020":6691,"ĠNguyÃªn":6692,"act":6693,"ĠChuyáº¿n":6694,"Ġ77":6695,"Ġ82":6696,"Ġ97":6697,"oir":6698,"rie":6699,"ĠÄĲá»Ŀi":6700,"ideo":6701,"ĠStir":6702,"ĠState":6703,"rane":6704,"ĠUN":6705,"ĠUkr":6706,"agan":6707,"ager":6708,"Ġ125":6709,"abad":6710,"ĠAllen":6711,"Tá»ī":6712,"oul":6713,"owitz":6714,"Ġfile":6715,"ChÃ¢n":6716,"Ġcanxi":6717,"ĠArt":6718,"awa":6719,"Ġ1992":6720,"ĠEmily":6721,"ĠhÃ£nh":6722,"ĠxÃŃt":6723,"ĠMcDonald":6724,"athem":6725,"ĠBá»Ŀ":6726,"ĠRoss":6727,"ĠBangalore":6728,"Ná»Ĺi":6729,"ĠSchw":6730,"eeney":6731,"ĠSteven":6732,"ĠNghÄ©a":6733,"ĠRome":6734,"Ġshock":6735,"ĠGrace":6736,"ĠVenez":6737,"Dá»¯":6738,"ĠmicroRNA":6739,"ĠVancouver":6740,"ĠWarren":6741,"ĠPlato":6742,"Ġserotonin":6743,"ĠKyoto":6744,"Ġneuron":6745,"ĠBaltimore":6746,"KhÃ³":6747,"Ġcalo":6748,"Ġmá»ĭn":6749,"Ġmetan":6750,"ĠWalker":6751,"ĠLawrence":6752,"ĠRoger":6753,"ĠNairobi":6754,"ĠLebanon":6755,"ĠOakland":6756,"ĠTunis":6757,"onacci":6758,"ĠHimalay":6759,"ĠTreasure":6760,"ĠVenezuela":6761,"60":6762,"600":6763,"AG":6764,"BÃ¬nh":6765,"Buá»ķi":6766,"CE":6767,"Di":6768,"Eric":6769,"GG":6770,"Hiá»ĩu":6771,"Ju":6772,"Ken":6773,"LuáºŃt":6774,"LÃ²ng":6775,"LuÃ´n":6776,"MÃ¬nh":6777,"Matt":6778,"Nam":6779,"Sam":6780,"Táº¡o":6781,"VÃ¹ng":6782,"ire":6783,"lÃª":6784,"lav":6785,"má»":6786,"met":6787,"va":6788,"yo":6789,"²m":6790,"µng":6791,"Ġ#":6792,"ĠtÃº":6793,"Ġcat":6794,"ĠvÃª":6795,"Ġláº©n":6796,"Ġmá»Ļi":6797,"ĠmÃºt":6798,"Ġbáº¡t":6799,"Ġsáº£i":6800,"ĠsÃºt":6801,"Ġsun":6802,"ĠngÃ¡ch":6803,"ĠgÃ²":6804,"ĠgÃło":6805,"ĠgÃ¡y":6806,"Ġgallon":6807,"Ġhun":6808,"ĠrÆ°á»Łi":6809,"Ġduá»Ĺi":6810,"Ġdáº«m":6811,"Ġtá»ĥ":6812,"ĠquáºŃt":6813,"ĠgiÃ²n":6814,"ĠxÃ´ng":6815,"ange":6816,"Ġbá»¥c":6817,"ĠTi":6818,"ĠTy":6819,"ĠTiáº¿p":6820,"ĠTenn":6821,"ĠTeh":6822,"ÄĲÃ¢u":6823,"ÄĲÆ°a":6824,"ÄĲÃ¡m":6825,"ĠMot":6826,"ĠloÃł":6827,"erb":6828,"ĠHÃ¡t":6829,"enberg":6830,"ĠAaron":6831,"ĠAimee":6832,"ĠSil":6833,"ĠSá»ĳng":6834,"ĠSMS":6835,"aren":6836,"Ġyou":6837,"Ġphai":6838,"ĠPap":6839,"ĠPink":6840,"ĠPanth":6841,"ĠPotter":6842,"ĠKiáº¿n":6843,"ĠKle":6844,"ĠKeith":6845,"ĠLim":6846,"ĠLov":6847,"ĠLock":6848,"ĠGl":6849,"ĠGan":6850,"ĠGord":6851,"ĠGaza":6852,"ĠDol":6853,"TrÃŃ":6854,"ese":6855,"ĠRáº±ng":6856,"ĠRick":6857,"ĠRuss":6858,"Ġthoi":6859,"NgÃ´i":6860,"NgÃłi":6861,"ĠIQ":6862,"ĠIl":6863,"ĠVol":6864,"ĠVinc":6865,"ition":6866,"ĠFr":6867,"ĠFellow":6868,"ĠFDA":6869,"ĠEc":6870,"Thá»ĭ":6871,"usd":6872,"Ġ68":6873,"EDI":6874,"ĠnghÃªnh":6875,"obyl":6876,"obule":6877,"ĠYale":6878,"Ġ78":6879,"lider":6880,"rig":6881,"rich":6882,"riel":6883,"ream":6884,"Cheryl":6885,"nett":6886,"ĠStock":6887,"ings":6888,"ĠXÃ£":6889,"ĠXÃ¢y":6890,"aba":6891,"ĠAlb":6892,"Tá»©c":6893,"aks":6894,"Ġ404":6895,"ĠMario":6896,"Ġ110":6897,"ibo":6898,"mann":6899,"manuel":6900,"ife":6901,"ecca":6902,"ĠSher":6903,"uce":6904,"eech":6905,"phen":6906,"over":6907,"ĠCá»ķ":6908,"berry":6909,"Ġquá»³":6910,"ĠSaudi":6911,"ĠJoel":6912,"ĠBeat":6913,"ĠJamai":6914,"ĠWiki":6915,"ernobyl":6916,"Ġ1945":6917,"ĠFranklin":6918,"PhÃ¢n":6919,"ĠSweeney":6920,"ĠJonathan":6921,"ĠGando":6922,"ĠaxÃŃt":6923,"ĠCAD":6924,"Ġnitric":6925,"ĠMurray":6926,"Joe":6927,"echn":6928,"ĠDenis":6929,"ĠnhÃºn":6930,"Ġgluc":6931,"ĠAmerican":6932,"PhÃ¡t":6933,"Ġhorm":6934,"ĠSusan":6935,"ĠDubai":6936,"ĠCopernicus":6937,"osaurus":6938,"ĠOliver":6939,"otoshop":6940,"ĠFibonacci":6941,"ĠStirling":6942,"ĠTehran":6943,"ĠPantheon":6944,".&":6945,"45":6946,"AV":6947,"Am":6948,"Báº£o":6949,"BÃ¡o":6950,"Cam":6951,"Daniel":6952,"Háº¡t":6953,"Jon":6954,"Jim":6955,"Jenn":6956,"Ká»":6957,"MÆ°á»Ŀi":6958,"Mart":6959,"PH":6960,"RC":6961,"XÃ¢y":6962,"báº±ng":6963,"bin":6964,"cháº":6965,"let":6966,"mail":6967,"och":6968,"pkins":6969,"sia":6970,"tz":6971,"tic":6972,"ww":6973,"¡n":6974,"£c":6975,"µm":6976,"ÃĶ":6977,"Æł":6978,"Ġ00":6979,"ĠuyÃªn":6980,"Ġáº£m":6981,"áº¨n":6982,"Ġter":6983,"Ġcomp":6984,"ĠÄĳÅ©a":6985,"Ġná»įc":6986,"ĠvÄĥng":6987,"ĠvÃ£n":6988,"Ġlanh":6989,"Ġláº«m":6990,"Ġmau":6991,"Ġbiáº¿ng":6992,"Ġson":6993,"ĠsÆ°ng":6994,"ĠgÃ¢n":6995,"Ġgra":6996,"Ġthá»¥c":6997,"ĠrÃ¡n":6998,"Ġdá»ĳt":6999,"Ġchen":7000,"Ġchuá»ĵng":7001,"Ġhá»Ŀi":7002,"Ġchá»Ńng":7003,"Ġnháº£m":7004,"ont":7005,"Ġcháº¯t":7006,"ĠnhÃ¬":7007,"ĠMáº¯t":7008,"ĠMed":7009,"ĠMak":7010,"ĠMeyer":7011,"emala":7012,"ĠNá»Ļi":7013,"ĠBil":7014,"ĠBah":7015,"ĠHong":7016,"ĠHÆ¡n":7017,"ĠHáº§u":7018,"ĠHas":7019,"ĠÄĲÆ°á»Ŀng":7020,"ĠÄĲáº¡t":7021,"ĠAil":7022,"ĠAli":7023,"ĠSho":7024,"ĠSáº¯p":7025,"arry":7026,"ĠPu":7027,"ĠKay":7028,"ĠLáº¡i":7029,"ĠLen":7030,"ĠLoÃłi":7031,"ĠLike":7032,"Ġngá»Ńa":7033,"ĠGay":7034,"ĠGáº§n":7035,"ĠGer":7036,"ĠGiÃª":7037,"ĠTrÆ°á»Łng":7038,"ĠDAR":7039,"ĠÃ¡t":7040,"esa":7041,"esk":7042,"Ãµm":7043,"elli":7044,"ĠIx":7045,"Ġ53":7046,"Ġ57":7047,"ĠVÅ©":7048,"ĠVik":7049,"atz":7050,"atemala":7051,"Ġ47":7052,"ĠJud":7053,"Ġvá»¥ng":7054,"ason":7055,"oli":7056,"ĠWh":7057,"ĠEast":7058,"ĠEss":7059,"hoa":7060,"oman":7061,"ĠOtt":7062,"urch":7063,"ĠChÆ°Æ¡ng":7064,"ĠChernobyl":7065,"ĠYves":7066,"ĠkÃ©n":7067,"Ġ84":7068,"rir":7069,"rof":7070,"Chá»©ng":7071,"ĠStone":7072,"aha":7073,"thony":7074,"ĠUCL":7075,"aga":7076,"Tá»«ng":7077,"oux":7078,"ĠNhiÃªn":7079,"tral":7080,"Ġfoot":7081,"ĠMary":7082,"extin":7083,"ĠQuáº£n":7084,"insky":7085,"awi":7086,"ĠVá»¥":7087,"Bá»ı":7088,"ĠCaltech":7089,"ĠHarlem":7090,"Ġ1989":7091,"ĠSanta":7092,"ambia":7093,"ĠIrag":7094,"Ġluáº©n":7095,"ĠPalm":7096,"ĠMoMA":7097,"ĠKhoáº£ng":7098,"ĠAbu":7099,"astian":7100,"oko":7101,"ĠxÃ©n":7102,"ĠJuli":7103,"ĠFree":7104,"ĠTora":7105,"ThÃ¡ch":7106,"Dá»ĭch":7107,"vá»ģ":7108,"ĠLatinh":7109,"ĠJonas":7110,"sterdam":7111,"ĠWilliams":7112,"ĠKhá»ĳi":7113,"ĠWhite":7114,"ĠTitus":7115,"colate":7116,"ĠLangley":7117,"Speech":7118,"ĠMozart":7119,"Robert":7120,"Ġpheromone":7121,"ĠOprah":7122,"shire":7123,"ĠTahrir":7124,"ĠPepsi":7125,"ĠMitchell":7126,"Ġprogeria":7127,"ĠGehry":7128,"ĠTenness":7129,"ĠDolby":7130,"Báº£y":7131,"CP":7132,"CÆ°á»Ŀi":7133,"ChÃºc":7134,"DR":7135,"Dáº§u":7136,"DÃ¹ng":7137,"EG":7138,"Hans":7139,"IPA":7140,"LÃªn":7141,"Lee":7142,"MÃ´i":7143,"Má»Ł":7144,"Máº¥t":7145,"MED":7146,"MRI":7147,"SM":7148,"TM":7149,"TáºŃp":7150,"Táº¡p":7151,"Tho":7152,"Talk":7153,"ZK":7154,"ban":7155,"cÃ¢u":7156,"cia":7157,"jev":7158,"kar":7159,"key":7160,"kansas":7161,"lot":7162,"mud":7163,"moud":7164,"ois":7165,"sin":7166,"stein":7167,"sylv":7168,"yon":7169,"¡i":7170,"¬a":7171,"Ġar":7172,"Ġis":7173,"ĠÃºt":7174,"Ġaw":7175,"ım":7176,"Ġtáº¥u":7177,"ĠtÃºp":7178,"ĠtuÃ´n":7179,"Ġcá»Ļi":7180,"ĠcáºŃt":7181,"Ġcello":7182,"Ġcopy":7183,"ĠÄĳáº¥m":7184,"Ġnung":7185,"ĠnhÃºt":7186,"Ġnoi":7187,"ĠnÃ¡u":7188,"ĠvÃ¡ng":7189,"Ġláº§u":7190,"ĠmÃŃ":7191,"ĠsÃªn":7192,"Ġsáº£o":7193,"Ġtru":7194,"ĠngÃ³":7195,"ĠngÆ¡":7196,"Ġngáº¥t":7197,"Ġngáº¥m":7198,"Ġgáº·t":7199,"Ġrá»Ļ":7200,"ĠrÆ¡":7201,"Ġpen":7202,"Ġdáº·n":7203,"Ġnhoi":7204,"ĠchiÃªu":7205,"Ġthiá»ĥn":7206,"Ġchá»¯ng":7207,"ote":7208,"ano":7209,"any":7210,"Ġgiá»Ł":7211,"ĠTu":7212,"ĠTá»Ń":7213,"ĠTob":7214,"ĠTarah":7215,"ĠhoÃ¡n":7216,"ĠhoÃ³c":7217,"ĠcháºŃ":7218,"ĠhÃ³t":7219,"ĠCáº§n":7220,"ĠCáº£nh":7221,"ĠCoo":7222,"ĠClo":7223,"Ġháº±n":7224,"Ġsá»¥c":7225,"Ġsá»¥n":7226,"Ġphá»ĵn":7227,"Ġbá»ĭa":7228,"Ġkhoáº£":7229,"Ġkhoanh":7230,"ĠkhoÃ¡t":7231,"ĠNov":7232,"ĠNBA":7233,"ĠBo":7234,"ĠBuá»ķi":7235,"Ġloang":7236,"ĠloÃ£ng":7237,"ĠHi":7238,"ĠHáº¡":7239,"ĠÄĲáº¥y":7240,"ĠSis":7241,"ĠSara":7242,"Ġdoo":7243,"Ġyo":7244,"ĠPy":7245,"ĠPor":7246,"ĠPas":7247,"ĠKáº»":7248,"ĠLáºŃp":7249,"ĠLas":7250,"Ġá»ľ":7251,"ĠGit":7252,"ĠGol":7253,"ĠGri":7254,"ĠGary":7255,"ĠTriá»ĥn":7256,"ĠDáº¡":7257,"ĠDiana":7258,"Trá»«":7259,"ĠRyan":7260,"eline":7261,"ĠVua":7262,"Ġrá»ĩ":7263,"Ġrá»¥i":7264,"Ġ41":7265,"ĠÃģn":7266,"asa":7267,"aster":7268,"ĠWoo":7269,"ĠFed":7270,"ĠEs":7271,"ĠEcon":7272,"leans":7273,"ĠNgÆ°Æ¡i":7274,"Ġ6000":7275,"adi":7276,"ĠOoh":7277,"obo":7278,"ĠChÆ°a":7279,"ĠChen":7280,"ĠTEDWomen":7281,"ĠTEDMED":7282,"ĠChÃ¢n":7283,"Ġdaf":7284,"Ġwatt":7285,"Ġ10000":7286,"ĠStein":7287,"iger":7288,"ingo":7289,"ĠAlfred":7290,"Tá»ĩ":7291,"aki":7292,"ough":7293,"ĠKá»·":7294,"ĠKá»ĥ":7295,"umara":7296,"ows":7297,"icholas":7298,"ĠChá»ĳng":7299,"ĠThÃ¡p":7300,"epler":7301,"artz":7302,"ĠArkansas":7303,"ookie":7304,"awatt":7305,"ipp":7306,"KhÃ¡i":7307,"ĠHarry":7308,"achus":7309,"Phong":7310,"Ġblogger":7311,"ĠnhoÃ¡ng":7312,"ĠColl":7313,"ĠNhÃ³m":7314,"ĠPhong":7315,"inder":7316,"ĠPalextin":7317,"ĠRose":7318,"etts":7319,"ĠThÃŃ":7320,"Nhá»Ľ":7321,"ĠOrleans":7322,"Ġ360":7323,"ĠGuatemala":7324,"ĠLiberia":7325,"ĠSamuel":7326,"Ġkáº½m":7327,"ĠNorman":7328,"untu":7329,"ĠUnivers":7330,"ĠMoses":7331,"ĠOscar":7332,"ĠMatthew":7333,"Internet":7334,"ĠIreland":7335,"ĠLoan":7336,"ĠGilbert":7337,"ĠPennsylv":7338,"ĠESG":7339,"ĠBloom":7340,"ĠviÃªc":7341,"ĠAilen":7342,"ĠEssex":7343,"ĠToraja":7344,"ĠTennessee":7345,"ĠTarahumara":7346,"ĠCooper":7347,"ĠPennsylvania":7348,"300":7349,"98":7350,"AS":7351,"Bay":7352,"BÃŃ":7353,"DI":7354,"Hz":7355,"Há»Ļi":7356,"Le":7357,"PP":7358,"Point":7359,"Robot":7360,"TD":7361,"TÃ¬m":7362,"Táº§m":7363,"Tom":7364,"Well":7365,"Yeah":7366,"box":7367,"cm":7368,"cam":7369,"fli":7370,"gg":7371,"gen":7372,"gie":7373,"hr":7374,"ios":7375,"leton":7376,"má»įi":7377,"pson":7378,"tail":7379,"uch":7380,"vi":7381,"«m":7382,"Ġest":7383,"áº©ng":7384,"ĠÄ©":7385,"ĠÄĳáº£":7386,"ĠÄĳong":7387,"ĠÄĳÃ¹i":7388,"Ġnáº¡i":7389,"Ġneo":7390,"Ġnáº¡t":7391,"Ġnáº¥p":7392,"ĠnÃ¡ch":7393,"ĠnÃºm":7394,"Ġváº¥p":7395,"ĠlÃ¬nh":7396,"Ġlá»ĳc":7397,"Ġluá»ĵn":7398,"ĠlÃ³ng":7399,"Ġmem":7400,"ĠmÄĥng":7401,"Ã´c":7402,"ĠsÃłnh":7403,"ĠsÃ²":7404,"ĠrÃ¢m":7405,"Ġráº¯m":7406,"Ġráº«y":7407,"ĠdÃ©p":7408,"Ġcá»£t":7409,"ĠthuyÃªn":7410,"Ġhá»īnh":7411,"Ġxao":7412,"ĠthÃ©t":7413,"Ġchocolate":7414,"che":7415,"chi":7416,"ĠTinh":7417,"ĠTÃ¡m":7418,"ĠTso":7419,"Ġhop":7420,"aire":7421,"ĠhÃ¹":7422,"ĠCa":7423,"ĠCom":7424,"ĠChÃºc":7425,"Ġsá»§a":7426,"Ġtour":7427,"ĠMÃ£":7428,"ĠMÆ°á»Ŀi":7429,"ĠMÃłu":7430,"ĠMathem":7431,"ĠkhoÃ©":7432,"ĠNar":7433,"ĠNÃ£o":7434,"ĠBy":7435,"ĠBÃ³ng":7436,"ĠBow":7437,"erat":7438,"ĠHot":7439,"ĠHiá»ĩu":7440,"ĠHamp":7441,"aman":7442,"ĠÄĲÃ¢u":7443,"ĠÄĲá»Ļc":7444,"ĠAz":7445,"ĠAye":7446,"ĠSá»Ł":7447,"ĠSá»¹":7448,"ĠSÃ¡ch":7449,"ĠSri":7450,"ĠSOPA":7451,"ĠPic":7452,"ĠPart":7453,"ĠPost":7454,"ĠKÃ´ng":7455,"ĠKer":7456,"ĠKiá»ĥm":7457,"ĠKent":7458,"ĠLab":7459,"ĠLev":7460,"ĠLáº¡y":7461,"Ġvá»ĭn":7462,"Ġá»Ŀ":7463,"Ġngá»Ŀi":7464,"ĠGG":7465,"ĠGraham":7466,"ĠDai":7467,"ĠDiá»ħn":7468,"ĠDor":7469,"ĠDun":7470,"ĠRu":7471,"ĠRow":7472,"ĠRiv":7473,"elt":7474,"elle":7475,"ets":7476,"ĠIK":7477,"ats":7478,"atica":7479,"Ġrá»£":7480,"icut":7481,"ĠJar":7482,"ilot":7483,"iley":7484,"its":7485,"ites":7486,"itra":7487,"ĠWin":7488,"ĠWood":7489,"ĠFound":7490,"ĠEng":7491,"hod":7492,"Ġ67":7493,"adore":7494,"Ġvá»ĩt":7495,"ĠThula":7496,"ĠOl":7497,"ĠHopkins":7498,"Ġ76":7499,"ĠTEDTalk":7500,"ebastian":7501,"Ġ94":7502,"Giá»¯a":7503,"Tham":7504,"Ġwater":7505,"Chu":7506,"Chuyáº¿n":7507,"ĠIntel":7508,"Ġ1500":7509,"ĠnghiÃ£":7510,"agu":7511,"ĠbÃŃp":7512,"eyn":7513,"ĠAll":7514,"ĠAlan":7515,"ĠThá»Ń":7516,"out":7517,"Ġ1800":7518,"Hoáº¡t":7519,"trol":7520,"ĠMaryl":7521,"ĠMarsh":7522,"ĠChá»Ŀ":7523,"ĠChá»©c":7524,"Pháº£n":7525,"Ġtháº§u":7526,"ĠBrand":7527,"ĠBrad":7528,"ĠBruce":7529,"ĠShah":7530,"ĠCarr":7531,"ĠCarter":7532,"ĠJohns":7533,"Ġ2013":7534,"KhÃ¡c":7535,"Ġgamma":7536,"ĠAmsterdam":7537,"eek":7538,"ĠLanka":7539,"Ġ1985":7540,"Ġ1988":7541,"ĠSci":7542,"annah":7543,"ambi":7544,"oga":7545,"ogy":7546,"itha":7547,"oyager":7548,"ĠBarb":7549,"ĠBarack":7550,"ToÃ¡n":7551,"ĠBeau":7552,"astle":7553,"ĠCraig":7554,"oke":7555,"ĠAndr":7556,"ĠMalay":7557,"ĠJulie":7558,"NháºŃn":7559,"ĠLibya":7560,"ĠBrowne":7561,"ĠChristopher":7562,"ĠPalestin":7563,"ĠKarl":7564,"ĠGoering":7565,"ĠAhmed":7566,"ecticut":7567,"dyss":7568,"Ġngá»«Æ¡i":7569,"Stephen":7570,"ĠBayes":7571,"ĠSioux":7572,"ĠMiller":7573,"colm":7574,"Ġmilimet":7575,"ĠIráº¯c":7576,"ĠYoung":7577,"stone":7578,"ĠWeibo":7579,"ĠAustr":7580,"moor":7581,"ĠPowerPoint":7582,"ĠHiroshi":7583,"holm":7584,"ĠScratch":7585,"ĠConnecticut":7586,"ĠKibera":7587,"ĠJamaica":7588,"Ġglucose":7589,"ĠUCLA":7590,"ĠFreeSpeech":7591,"jevo":7592,"lotte":7593,"ĠcháºŃu":7594,"Ġrá»ĩp":7595,"achusetts":7596,"flix":7597,"ĠMathematica":7598,"ĠMaryland":7599,"16":7600,"AT":7601,"Be":7602,"Buá»ĵn":7603,"Bob":7604,"Ca":7605,"CÆ¡n":7606,"CÃº":7607,"Diá»ħn":7608,"Google":7609,"KB":7610,"Miá»ħn":7611,"OC":7612,"OS":7613,"Qaeda":7614,"SF":7615,"Sáº£n":7616,"VÃ¢y":7617,"aa":7618,"bes":7619,"cáº£m":7620,"cop":7621,"dit":7622,"eus":7623,"horn":7624,"kh":7625,"lau":7626,"mÃ©t":7627,"mond":7628,"minder":7629,"oon":7630,"ráº¥t":7631,"ress":7632,"su":7633,"táº¡i":7634,"uh":7635,"uchia":7636,"vin":7637,"wa":7638,"west":7639,"wait":7640,"xter":7641,"©y":7642,"Ã©c":7643,"Ã§a":7644,"ĠÆ°Æ¡m":7645,"ķng":7646,"Ġcáº·n":7647,"Ġcock":7648,"ĠÄĳáº§n":7649,"ĠÄĳÆ°á»Ľc":7650,"Ġvon":7651,"Ġváº¡t":7652,"ĠvÆ°á»£n":7653,"ĠlÆ°":7654,"Ġlá»Ł":7655,"Ġmeg":7656,"ĠbÃ´":7657,"Ġsuyá»ħn":7658,"ĠtrÆ¡":7659,"ĠtrÆ°á»Ľng":7660,"ĠngÃł":7661,"ĠngÃµ":7662,"ĠngÃ³c":7663,"ĠngÃ²i":7664,"Ġngáº©ng":7665,"Ġráº§u":7666,"Ġráº§m":7667,"Ġpar":7668,"Ġdáº¿":7669,"Ġdem":7670,"Ġdáº¡t":7671,"Ġdáº±n":7672,"ĠÄĳá»ħ":7673,"Ġcá»ıi":7674,"Ġcá»ĵng":7675,"Ġquáº·ng":7676,"ĠgiÃ´ng":7677,"ĠmÃło":7678,"ĠTáºŃp":7679,"ĠTar":7680,"ĠTáº¡m":7681,"oney":7682,"ĠkhÃ¡nh":7683,"ĠcháºŃp":7684,"ĠchÃ¨o":7685,"ĠchÃ¨n":7686,"ĠhÃª":7687,"ĠhÃ³m":7688,"ÄĲá»Ļi":7689,"Ġná»ĥ":7690,"ĠCá»ĳ":7691,"ĠCro":7692,"ĠCIA":7693,"ĠMÃły":7694,"ĠMen":7695,"ĠMid":7696,"ĠMir":7697,"ĠMBA":7698,"hio":7699,"ĠNI":7700,"ĠNi":7701,"ĠBÃ¡o":7702,"ĠBach":7703,"Ġloanh":7704,"ĠHá»ĵ":7705,"ĠHaz":7706,"ĠHut":7707,"ĠHind":7708,"ĠÄĲá»ĳc":7709,"ĠSa":7710,"ĠSai":7711,"ĠSel":7712,"iag":7713,"ars":7714,"arin":7715,"Ġyoga":7716,"Ġphiá»ĩt":7717,"ĠPan":7718,"ĠPit":7719,"ĠPur":7720,"ĠPIPA":7721,"ĠKos":7722,"ĠKab":7723,"ĠKiva":7724,"ĠKepler":7725,"ĠLá»Ŀi":7726,"ĠLimb":7727,"Ġngá»£m":7728,"ĠGul":7729,"ĠTrÃŃ":7730,"ĠDanh":7731,"ĠDave":7732,"oro":7733,"Truyá»ģn":7734,"alie":7735,"osev":7736,"ely":7737,"etas":7738,"Ngoáº¡i":7739,"ĠImp":7740,"Tháº§y":7741,"ĠVáº«n":7742,"atÃ´ng":7743,"atma":7744,"ise":7745,"icerat":7746,"ĠJean":7747,"ĠJustin":7748,"ape":7749,"apminder":7750,"ĠÃįt":7751,"itic":7752,"ĠWy":7753,"ĠWis":7754,"ĠWind":7755,"Ġ1991":7756,"Ġ1993":7757,"lev":7758,"ĠNguá»ĵn":7759,"ady":7760,"ĠThanh":7761,"ĠOxy":7762,"ĠOdyss":7763,"urn":7764,"Ġ7000":7765,"Ġ89":7766,"ĠTEDster":7767,"ĠchÃ¡nh":7768,"Thuá»ĳc":7769,"unch":7770,"roÃ§a":7771,"ĠÄĲá»£i":7772,"reat":7773,"ĠInst":7774,"ĠStand":7775,"ĠXáº¿p":7776,"aby":7777,"ĠThá»ĭ":7778,"Äĳáº¿n":7779,"hane":7780,"ĠGiao":7781,"ĠchÃ³t":7782,"owan":7783,"iflu":7784,"ĠQuáº£":7785,"Giao":7786,"ĠShar":7787,"Ġproton":7788,"ipcar":7789,"ĠHarris":7790,"phua":7791,"ovo":7792,"Ġruá»Ļng":7793,"Ġ1986":7794,"ĠChild":7795,"ĠScoop":7796,"ĠBaxter":7797,"nÃ³i":7798,"asso":7799,"ĠRobinson":7800,"ĠCharlotte":7801,"ĠMonter":7802,"ĠGreg":7803,"ortis":7804,"Ġmá»ĵm":7805,"ĠLá»ħ":7806,"ĠNauy":7807,"organ":7808,"Ġ1940":7809,"ĠIndiana":7810,"ĠDiet":7811,"uke":7812,"ĠGuard":7813,"ĠLibÄĥng":7814,"ĠWalmart":7815,"ĠCoch":7816,"ĠDá»ĭch":7817,"ĠBonnet":7818,"rogen":7819,"everly":7820,"ĠmaratÃ´ng":7821,"ĠWilson":7822,"ĠMelinda":7823,"Carol":7824,"ĠTamiflu":7825,"ĠJacqu":7826,"ĠLinux":7827,"ĠNoel":7828,"ĠPhillip":7829,"Ġeuro":7830,"ĠBroadmoor":7831,"NCRA":7832,"ĠGrant":7833,"ĠqÃºi":7834,"Ġchá»Ļp":7835,"ĠHomo":7836,"ĠCentral":7837,"ĠMoham":7838,"má»Ĺi":7839,"Ġcatadore":7840,"ĠPapua":7841,"ĠBahamas":7842,"ĠIxaren":7843,"ĠSarajevo":7844,"ĠEconom":7845,"ĠIKEA":7846,"ĠFoundation":7847,"ĠMalaysia":7848,"ĠAustralia":7849,"Ġcocktail":7850,"iceratops":7851,"24":7852,"29":7853,"AA":7854,"Ah":7855,"At":7856,"Bon":7857,"Báº¥y":7858,"BÃ¡nh":7859,"ET":7860,"Fre":7861,"Is":7862,"Jeff":7863,"Kevin":7864,"Prin":7865,"Quá»ĳc":7866,"TB":7867,"TH":7868,"Tinh":7869,"TiÃªu":7870,"Ung":7871,"Viá»ĩn":7872,"VáºŃn":7873,"Wow":7874,"Yáº¿u":7875,"bus":7876,"cer":7877,"eu":7878,"fer":7879,"fus":7880,"gan":7881,"gey":7882,"gram":7883,"hn":7884,"hy":7885,"ju":7886,"jan":7887,"kho":7888,"lÃ´":7889,"nd":7890,"phÃ":7891,"pin":7892,"rl":7893,"rett":7894,"sá»±":7895,"thia":7896,"viá»ĩc":7897,"val":7898,"vet":7899,"vent":7900,"yota":7901,"zero":7902,"¢t":7903,"Ġad":7904,"Ġep":7905,"Ķn":7906,"ĠtÃºm":7907,"ĠcÃ²":7908,"Ġcoc":7909,"Ġcortis":7910,"ĠÄĳÄĥ":7911,"ĠÄĳuá»":7912,"Ġni":7913,"ĠnÃ¨":7914,"Ġlá»Ļc":7915,"ĠlÃµm":7916,"Ġbá»Ł":7917,"Ġsh":7918,"Ġsen":7919,"Ġsal":7920,"ĠtrÅ©ng":7921,"Ġgt":7922,"Ġganh":7923,"Ġgeo":7924,"ĠgÃ£i":7925,"ĠhÅ©":7926,"Ġthá»ģm":7927,"Ãªt":7928,"ĠrÃ¹ng":7929,"ĠrÄĥn":7930,"ĠrÃ³t":7931,"Ġpa":7932,"ĠdÃ³":7933,"ĠdÃŃ":7934,"ĠdiÃªm":7935,"Ġnhan":7936,"Ġnhen":7937,"Ġvá»ĵng":7938,"Ġvá»Ľt":7939,"Ġchk":7940,"Ġchang":7941,"ĠchÆ°ng":7942,"Ġchuá»ĵn":7943,"Ġchat":7944,"Ġnhá»ĳi":7945,"Ġtá»£n":7946,"ĠnÃłnh":7947,"ĠquÃ¢y":7948,"anistan":7949,"Ġrain":7950,"Ġgiá»ı":7951,"Ġbá»«a":7952,"ĠTÃłng":7953,"ĠTÆ°á»Łng":7954,"ĠTÃ¢n":7955,"ĠTáº¡p":7956,"aomi":7957,"ĠnÄĥn":7958,"ĠnhÃŃm":7959,"ĠnhÃ³t":7960,"Ġná»ī":7961,"á»ĵn":7962,"Nhiáº¿p":7963,"Ġtoken":7964,"ĠMP":7965,"ĠMÃ´ng":7966,"ĠMob":7967,"ĠMell":7968,"ĠMeg":7969,"ĠMull":7970,"his":7971,"ĠNin":7972,"ĠNÄĥng":7973,"ĠNico":7974,"ĠBP":7975,"ĠBiáº¿n":7976,"ĠBÃ¡n":7977,"ĠBá»įn":7978,"ĠBre":7979,"ĠBBC":7980,"ery":7981,"ĠHit":7982,"ĠHun":7983,"ĠHum":7984,"ĠÄĲÃ¡ng":7985,"ĠAst":7986,"ĠSI":7987,"ĠSuy":7988,"ĠSur":7989,"ĠSolly":7990,"arak":7991,"ĠphÆ°á»Ľc":7992,"ĠPC":7993,"ĠPe":7994,"ĠPac":7995,"ĠPilot":7996,"ĠKáº¿":7997,"ĠKas":7998,"ĠKid":7999,"ĠKins":8000,"ĠKate":8001,"ĠLA":8002,"ĠLy":8003,"ĠLeo":8004,"Ġá»¨ng":8005,"ĠGe":8006,"ĠGwen":8007,"ĠGapminder":8008,"ĠTriceratops":8009,"Ġxua":8010,"ĠDJ":8011,"ĠDÃ¢y":8012,"ĠDem":8013,"ĠDes":8014,"ĠDur":8015,"ĠDean":8016,"ĠDonald":8017,"orth":8018,"Trá»įng":8019,"imÃ©t":8020,"osphere":8021,"ĠReb":8022,"ĠRub":8023,"ĠRec":8024,"ĠReg":8025,"ĠRivers":8026,"ĠRachel":8027,"elyn":8028,"Ġ56":8029,"ĠVel":8030,"ĠViv":8031,"ĠVÆ°á»Ŀn":8032,"ĠVoyager":8033,"atan":8034,"isco":8035,"Ġrá»¯a":8036,"ĠJava":8037,"Ġdiox":8038,"ĠWang":8039,"ĠWol":8040,"ĠWide":8041,"ĠFlick":8042,"ĠEEG":8043,"Ġ101":8044,"Ġ1920":8045,"Ġ1918":8046,"ader":8047,"ĠThuyáº¿t":8048,"ĠOw":8049,"ĠOhio":8050,"ĠChu":8051,"Ġ750":8052,"Ġlab":8053,"Ġgá»ī":8054,"ĠÄĲá»©a":8055,"Ġwoo":8056,"Christ":8057,"Chá»¥p":8058,"ĠStr":8059,"ĠUp":8060,"ĠUt":8061,"agas":8062,"load":8063,"Ġsul":8064,"ĠAlg":8065,"ĠAlt":8066,"ohen":8067,"Ġnhuáº§n":8068,"Ġ187":8069,"Ġ188":8070,"Ġ401":8071,"umann":8072,"ĠoÃł":8073,"ĠMarc":8074,"ĠMars":8075,"ĠMaria":8076,"ĠMargaret":8077,"Ġ2500":8078,"ĠChá»¯":8079,"ubarak":8080,"ibb":8081,"ĠThÃ¡ng":8082,"arty":8083,"ĠBroth":8084,"ĠShaw":8085,"ffiti":8086,"Ġ2015":8087,"Ġ1983":8088,"ĠChim":8089,"anne":8090,"linois":8091,"ĠTweet":8092,"Ġ1973":8093,"Ġ1979":8094,"ĠColor":8095,"ĠRobb":8096,"ĠBá»ı":8097,"ĠMichel":8098,"ĠPhotoshop":8099,"Ġ1965":8100,"rene":8101,"ĠBilly":8102,"ĠTháºŃm":8103,"Ġjihad":8104,"etty":8105,"ĠCru":8106,"ĠCritic":8107,"ynthia":8108,"ĠNá»ķ":8109,"ĠNá»Ĺi":8110,"ĠRezero":8111,"PhÃ³ng":8112,"PhÃ²ng":8113,"ĠNháºŃn":8114,"cÃ´la":8115,"ants":8116,"ĠClark":8117,"ĠWales":8118,"thá»©":8119,"thá»Ŀi":8120,"ĠAccent":8121,"Marco":8122,"Ġ1957":8123,"Ġká»ģnh":8124,"ĠWater":8125,"ĠBuff":8126,"ĠMahmoud":8127,"ĠMahatma":8128,"tsburgh":8129,"Charlie":8130,"KhÃŃ":8131,"Arthur":8132,"ĠBiosphere":8133,"ĠLinus":8134,"ĠvÃ£nh":8135,"lashy":8136,"ĠgoÃ¡":8137,"ĠAgnes":8138,"ĠGeorgia":8139,"ĠJennifer":8140,"ĠHirsh":8141,"ĠCampuchia":8142,"ĠNetflix":8143,"ĠIMF":8144,"ocrates":8145,"Ġamino":8146,"ĠprÃ´tein":8147,"Ġenzyme":8148,"Ġnguá»Ŀi":8149,"ĠthÃ¢y":8150,"ĠMassachusetts":8151,"ĠArchie":8152,"ĠFriedman":8153,"ĠAurora":8154,"ĠTunisia":8155,"ĠGordon":8156,"ĠIllinois":8157,"ĠVinci":8158,"ĠStockholm":8159,"ĠDenisov":8160,"Ká»³":8161,"Ġgraffiti":8162,"ĠrÆ¡m":8163,"ĠSisy":8164,"Ġestrogen":8165,"ĠHampshire":8166,"ĠHiroshima":8167,"ĠPittsburgh":8168,"ĠOdysseus":8169,"ĠMonterey":8170,"ĠGuardian":8171,"ĠCochrane":8172,"Prince":8173,"Ġcortisol":8174,"ĠMellon":8175,"ĠHunter":8176,"ĠFlickr":8177,"ĠAccenture":8178,"17":8179,"400":8180,"65":8181,"66":8182,"800":8183,"95":8184,"Ad":8185,"BR":8186,"BÃłn":8187,"Brian":8188,"CT":8189,"DJ":8190,"Dáº¥u":8191,"DÃ²ng":8192,"Hi":8193,"Iá»":8194,"Jay":8195,"LÃŃ":8196,"Lá»±c":8197,"Lá»±a":8198,"MM":8199,"Náº¡n":8200,"Ná»Ļi":8201,"Pat":8202,"RN":8203,"Sang":8204,"TT":8205,"TÆ°":8206,"Tai":8207,"TÃ¢m":8208,"Tá»ĳc":8209,"Váº»":8210,"aff":8211,"bab":8212,"chÃ":8213,"cáº£":8214,"cas":8215,"corn":8216,"dÃ¹":8217,"eed":8218,"ior":8219,"ira":8220,"ji":8221,"ku":8222,"lam":8223,"lic":8224,"lair":8225,"mb":8226,"ment":8227,"nick":8228,"oac":8229,"rk":8230,"ráºŃp":8231,"rass":8232,"rne":8233,"sen":8234,"wick":8235,"xon":8236,"yle":8237,"zone":8238,"·ng":8239,"ĠhÃº":8240,"Ġau":8241,"ĠÃºp":8242,"Ġáº¯p":8243,"Ġusd":8244,"ĠÆł":8245,"á»¯":8246,"ĠtÃ©":8247,"Ġten":8248,"Ġcou":8249,"Ġciv":8250,"ĠÄĳÃªn":8251,"ĠÄĳÃ¹ng":8252,"ĠvÆ¡":8253,"ĠlÃº":8254,"Ġláº¹":8255,"Ġmm":8256,"ĠmÃ¹ng":8257,"Ġmáº¯ng":8258,"ĠbÃ¹a":8259,"Ġbeat":8260,"ĠbiÃªt":8261,"Ġsáº§u":8262,"ĠtrÄĥn":8263,"ĠtrÃ²ng":8264,"Ġtrans":8265,"Ġngáº§u":8266,"ĠngÆ°á»£ng":8267,"Ġngáº¡t":8268,"ĠgÃłng":8269,"Ġgoogle":8270,"Ġhuyá»ĩn":8271,"ĠrÃªn":8272,"ĠrÃ¨m":8273,"Ġdáº·t":8274,"ĠnhÃłn":8275,"Ġnhung":8276,"quez":8277,"Ġvá»ĥ":8278,"Ġvá»¥t":8279,"Ġchao":8280,"ĠchÅ©ng":8281,"Ġchuá»Ļc":8282,"Ġnhá»©ng":8283,"Ġhá»ĳt":8284,"Ġxiáº¿t":8285,"Ġkhay":8286,"Ġchá»«":8287,"Ġchá»«a":8288,"ĠthÃ²i":8289,"anc":8290,"Ġrao":8291,"Ġgiá»Ŀi":8292,"chan":8293,"Ġnháº§y":8294,"ĠTuyÃªn":8295,"ĠTÃłu":8296,"ĠTod":8297,"onia":8298,"onie":8299,"ais":8300,"aiza":8301,"Ġcháº§n":8302,"ĠchÃ©m":8303,"ĠhÃ©o":8304,"ĠnhÃµm":8305,"ÄĲo":8306,"ÄĲáº¡o":8307,"ÄĲÃªm":8308,"ĠnghÄ©nh":8309,"ĠCod":8310,"ĠCass":8311,"ĠComp":8312,"ĠCá»±u":8313,"ĠClev":8314,"ĠCohen":8315,"Ġsá»¯ng":8316,"Ġsá»ĵi":8317,"Ġphá»ī":8318,"ĠphÃ¡ch":8319,"Nhu":8320,"Nhiá»ĩt":8321,"ĠtoÃ¡i":8322,"ĠMard":8323,"ĠMedia":8324,"ĠMBI":8325,"ĠMubarak":8326,"ema":8327,"Ġtrá»Ŀ":8328,"ĠNG":8329,"ĠNat":8330,"ĠNáº¥m":8331,"ĠNik":8332,"ĠNev":8333,"ĠBÃŃ":8334,"ĠBÆ°á»Ľc":8335,"ĠBit":8336,"ĠBand":8337,"ĠBÃ¡nh":8338,"ĠBart":8339,"ĠBalk":8340,"erk":8341,"uá»ĩ":8342,"ĠHon":8343,"ĠHey":8344,"ĠHud":8345,"ĠHmm":8346,"ĠHunt":8347,"ams":8348,"amie":8349,"ĠÄĲang":8350,"ĠÄĲÃłn":8351,"ĠÄĲÆ°Æ¡ng":8352,"ĠÄĲáº£o":8353,"ĠÄĲÃªm":8354,"ĠABC":8355,"Ġkhá»©u":8356,"ĠSW":8357,"ĠSar":8358,"ĠSag":8359,"ĠSinc":8360,"ĠSáºµn":8361,"ĠSobule":8362,"Ġkháº¯t":8363,"ĠmÃ¡ch":8364,"Ġyáº¿n":8365,"Ġphoton":8366,"ĠPo":8367,"ĠPia":8368,"ĠPho":8369,"ĠPach":8370,"ĠPerry":8371,"ĠPoint":8372,"Ġháº¡c":8373,"ĠKap":8374,"ĠKir":8375,"ĠLáº¥y":8376,"ĠLes":8377,"ĠLuáºŃn":8378,"ĠLiz":8379,"ĠLyn":8380,"Ġngá»¡":8381,"ĠGÃ¬":8382,"ĠGard":8383,"ĠGilli":8384,"ĠGlad":8385,"Ġ39":8386,"ĠTrá»Ł":8387,"ĠTrÃ²":8388,"ĠDD":8389,"ĠDeb":8390,"ĠDanny":8391,"imo":8392,"esar":8393,"esome":8394,"ĠRem":8395,"ĠRab":8396,"ĠRich":8397,"ĠRep":8398,"ĠVÃłi":8399,"ĠVÃłng":8400,"Ġsofa":8401,"ĠViá»ħn":8402,"Ġrá»£n":8403,"icill":8404,"ĠJR":8405,"ĠJoh":8406,"ĠJihad":8407,"ĠJason":8408,"ileo":8409,"ĠFul":8410,"ĠEb":8411,"ĠEvan":8412,"ĠEDI":8413,"tern":8414,"ĠNguy":8415,"ĠNgÃ´n":8416,"Ġtuá»Ļt":8417,"acre":8418,"hÃ¡n":8419,"adus":8420,"ĠPhilipp":8421,"ĠChin":8422,"ĠChurch":8423,"raft":8424,"---":8425,"ĠHouse":8426,"liot":8427,"Ġ8000":8428,"Ġlaze":8429,"ÄĲá»©c":8430,"ÄĲá»ĭnh":8431,"Ġgá»£n":8432,"ThiÃªn":8433,"unes":8434,"rov":8435,"Vá»£":8436,"Vá»¥":8437,"ĠÄĲá»©ng":8438,"Ġwow":8439,"Chuyá»ĥn":8440,"idro":8441,"ĠStudio":8442,"ĠUng":8443,"inger":8444,"ĠXe":8445,"lock":8446,"Tá»·":8447,"Äĳá»":8448,"ĠGian":8449,"iki":8450,"Ġlá»ĵi":8451,"umi":8452,"Ġfor":8453,"ĠMarco":8454,"ords":8455,"ryn":8456,"ryst":8457,"ĠAnthony":8458,"ĠTá»«ng":8459,"uten":8460,"Giáº¥c":8461,"egal":8462,"dez":8463,"ĠuÃ½":8464,"ĠSheph":8465,"ĠAfganistan":8466,"ucky":8467,"ffe":8468,"Ġbá»ķn":8469,"ĠâĢĭ":8470,"ĠKend":8471,"ĠhÃ²m":8472,"ĠCanyon":8473,"ĠChia":8474,"Khoáº£nh":8475,"PhiÃªn":8476,"ĠnhÃ¡p":8477,"ĠToyota":8478,"stream":8479,"eka":8480,"ThÃ´i":8481,"ĠHyder":8482,"rice":8483,"Ġ1962":8484,"ĠBlu":8485,"ĠTháº§y":8486,"ĠBaref":8487,"ĠJoey":8488,"ĠeBay":8489,"uga":8490,"ĠJamie":8491,"Ná»Ńa":8492,"ĠbÃ¹m":8493,"ĠNaj":8494,"ĠSchool":8495,"ĠHigg":8496,"cken":8497,"ĠMax":8498,"ĠReu":8499,"ĠHeh":8500,"Ġmicr":8501,"ĠPhÃŃa":8502,"ĠNeil":8503,"ĠElvis":8504,"ĠKhu":8505,"Ġ1949":8506,"ĠMalawi":8507,"celadus":8508,"ĠTransition":8509,"ĠJuan":8510,"ĠDiam":8511,"ĠRoman":8512,"ĠFred":8513,"ĠFreud":8514,"Ġ365":8515,"burn":8516,"ouri":8517,"ĠClay":8518,"ĠClonie":8519,"ĠVenter":8520,"mmm":8521,"Dá»ħ":8522,"othy":8523,"ĠEnceladus":8524,"ĠCERN":8525,"ĠChristian":8526,"ĠBurn":8527,"Steve":8528,"ĠBono":8529,"ĠOlympics":8530,"nesota":8531,"ĠCape":8532,"ĠSerra":8533,"Ġneu":8534,"ĠnitÆ¡":8535,"ĠEuro":8536,"ĠOsama":8537,"Ġbonobo":8538,"ĠLarry":8539,"ĠReddit":8540,"ĠÂ¼":8541,"ĠnhÃºm":8542,"Ġokay":8543,"ĠHamlet":8544,"Ġá»«m":8545,"ĠCasey":8546,"ĠMozambi":8547,"ĠMinnesota":8548,"ĠARN":8549,"ĠPrize":8550,"ĠDuol":8551,"ĠExxon":8552,"Ġ1858":8553,"Ġhelium":8554,"Ġoxide":8555,"ĠHelen":8556,"ĠElec":8557,"ĠSnow":8558,"ĠKurd":8559,"ĠDavis":8560,"áº¢nh":8561,"ĠUkraine":8562,"ĠKlein":8563,"ĠRussell":8564,"Ġhormones":8565,"Martin":8566,"Ġcomplex":8567,"ĠBilbao":8568,"ĠShow":8569,"ĠGayla":8570,"ĠViking":8571,"ĠJudy":8572,"ĠOttoman":8573,"muddin":8574,"Ġpenicill":8575,"ĠPyth":8576,"ĠPicasso":8577,"ĠEngland":8578,"ĠMarshall":8579,"ĠBarbara":8580,"Ġdemo":8581,"ĠKosovo":8582,"ĠKabul":8583,"osevelt":8584,"ĠÄĳuá»£c":8585,"ĠHitler":8586,"ĠRiverside":8587,"ĠColorado":8588,"Ġcivic":8589,"ĠSinclair":8590,"ĠBarefoot":8591,"ĠMozambique":8592,"Ġpenicillin":8593,"37":8594,"48":8595,"59":8596,"AC":8597,"Amy":8598,"BÃ©":8599,"Clay":8600,"DE":8601,"Danh":8602,"Dáº§n":8603,"Dar":8604,"EL":8605,"ES":8606,"El":8607,"Gáº¥p":8608,"HO":8609,"JK":8610,"Jac":8611,"KÃŃnh":8612,"LV":8613,"LÅ©":8614,"Larry":8615,"Máº«u":8616,"Mur":8617,"Máº¡ng":8618,"NÃły":8619,"Nathan":8620,"OV":8621,"PL":8622,"Rory":8623,"Sal":8624,"She":8625,"TÃ´n":8626,"Vai":8627,"VÃ²ng":8628,"YÃªu":8629,"bi":8630,"bÃª":8631,"bar":8632,"bul":8633,"cola":8634,"castle":8635,"dor":8636,"dad":8637,"dale":8638,"fia":8639,"fri":8640,"gill":8641,"ht":8642,"ii":8643,"ien":8644,"ming":8645,"more":8646,"oit":8647,"par":8648,"ráº¯c":8649,"ret":8650,"sson":8651,"uj":8652,"uza":8653,"xo":8654,"yson":8655,"zy":8656,"Ġ@":8657,"ĠÆ°ng":8658,"Ġeo":8659,"Ġáº¡t":8660,"Ġuyá»ĥn":8661,"Ġas":8662,"Ġed":8663,"Ġare":8664,"á»ª":8665,"Ġtáº±m":8666,"ngay":8667,"ngÃły":8668,"Ġcl":8669,"ĠÄĳÃ¡i":8670,"ĠnÆ°Æ¡ng":8671,"Ġnáº¹p":8672,"ĠniÃªm":8673,"ĠvÃ³i":8674,"Ġlá»±":8675,"Ġláº£ng":8676,"ĠlÃ³c":8677,"Ġluyáº¿n":8678,"Ġluá»µ":8679,"Ġlá»ĳp":8680,"Ġmy":8681,"ĠmÃ³":8682,"ĠmÃ²ng":8683,"Ġmod":8684,"Ġmix":8685,"Ġblu":8686,"Ġsiáº¿t":8687,"Ġsil":8688,"Ġsá»įc":8689,"Ġsex":8690,"Ġtrau":8691,"Ġtráº·c":8692,"Ġnga":8693,"ĠngÃ¹ng":8694,"ĠgÃ¹":8695,"Ġgáº«u":8696,"Ġhiá»ģu":8697,"Ġhot":8698,"Ġhiá»ģn":8699,"Ġhidro":8700,"Ġthá»Ľ":8701,"Ġthá»¥t":8702,"Ġráº§y":8703,"ĠdÆ¡":8704,"ĠÄĳá»Ŀ":8705,"Ġnhuyá»ħn":8706,"ĠkhÃ©t":8707,"ĠchÄ©a":8708,"Ġtháº©n":8709,"ĠcÃ¡cbon":8710,"Ġquot":8711,"ĠquÄ©":8712,"Ġkhong":8713,"ĠÄĳÃ£ng":8714,"Ġchá»ĵi":8715,"otton":8716,"Ġnghiáº¿n":8717,"anor":8718,"Ġrang":8719,"chester":8720,"Ġnháº£":8721,"Ä©u":8722,"ĠTH":8723,"ĠTáº¡":8724,"ĠTai":8725,"ĠTiá»ĥu":8726,"ĠTÃ¡i":8727,"ĠTide":8728,"ĠTulu":8729,"Ġlá»ıi":8730,"Ġlá»¥i":8731,"Ġhooc":8732,"oni":8733,"Ġdá»«a":8734,"ĠCorn":8735,"Ġsá»ĩt":8736,"ĠMao":8737,"ĠMolly":8738,"ĠNÃ´ng":8739,"ĠNÃºi":8740,"ĠNicholas":8741,"ĠBK":8742,"ĠBong":8743,"ĠBiáº¿t":8744,"ĠBin":8745,"ĠBac":8746,"ĠBul":8747,"ĠBion":8748,"ĠBall":8749,"ĠBond":8750,"ĠBeth":8751,"ĠBagh":8752,"ĠHiáº¿n":8753,"ĠHuck":8754,"ĠHuss":8755,"ĠHome":8756,"ĠÄĲo":8757,"ĠÄĲiá»ĥm":8758,"enix":8759,"ĠAI":8760,"ĠAth":8761,"ĠAut":8762,"ĠSÃ´ng":8763,"ĠSum":8764,"ĠSony":8765,"ĠSean":8766,"ĠSaf":8767,"Ġhá»Ļt":8768,"ĠmÃ¡ng":8769,"aro":8770,"ĠphÃł":8771,"ĠPin":8772,"ĠPre":8773,"ĠPran":8774,"ĠKI":8775,"ĠKob":8776,"ĠLá»±c":8777,"ĠLáº¡nh":8778,"ĠLake":8779,"ĠLHC":8780,"áº¹t":8781,"Ġngá»ı":8782,"ĠGall":8783,"ĠGood":8784,"ĠGowan":8785,"ĠTrÃ¬nh":8786,"ĠTrin":8787,"ĠTrÃ¢n":8788,"ĠTráº¡m":8789,"ĠTroy":8790,"ĠDC":8791,"ĠDay":8792,"ĠDep":8793,"ĠDolly":8794,"ĠDennis":8795,"Tranh":8796,"Trá»Ŀi":8797,"alth":8798,"alog":8799,"Ġphá»¥ng":8800,"ĠRNA":8801,"ĠRiley":8802,"eli":8803,"iÃªc":8804,"Ġthoáº¡t":8805,"ete":8806,"atin":8807,"ischer":8808,"ĠQuá»·":8809,"ĠJoy":8810,"ilton":8811,"ito":8812,"olph":8813,"ĠFood":8814,"ĠEiff":8815,"leep":8816,"uston":8817,"Ġ62":8818,"Ġ63":8819,"Ġ66":8820,"Ġ650":8821,"ĠThu":8822,"ĠThÆ°á»Ŀng":8823,"ĠThÆ°á»Łng":8824,"ĠOz":8825,"ĠnghÃª":8826,"uria":8827,"ĠChechn":8828,"Ġtrá»¥i":8829,"rag":8830,"ĠHoff":8831,"Ġ88":8832,"eber":8833,"Thu":8834,"rik":8835,"rove":8836,"Vá»«a":8837,"rea":8838,"rez":8839,"Ġwhi":8840,"Chryst":8841,"idi":8842,"Chá»ĵng":8843,"Chá»įn":8844,"ĠStef":8845,"istor":8846,"ĠUC":8847,"ĠThá»ĥ":8848,"Ġwebcam":8849,"ineering":8850,"ĠGiáº¥c":8851,"ĠGiff":8852,"trino":8853,"Ġrobots":8854,"Cháº¡y":8855,"Ġft":8856,"Ġflash":8857,"ĠChá»§ng":8858,"Ġvá»£t":8859,"iba":8860,"ĠdÄ©a":8861,"ChÃ¬a":8862,"azar":8863,"ĠAnton":8864,"ĠAnne":8865,"Ġnháº¹n":8866,"ĠTá»¥i":8867,"ĠBrend":8868,"ĠZetas":8869,"ĠIstan":8870,"Ġáº¢nh":8871,"Ġuáº¥t":8872,"ĠCargill":8873,"Ġ2014":8874,"Bá»Ĺng":8875,"KhÃ¡ch":8876,"Ġ05":8877,"phus":8878,"ove":8879,"ĠDoanh":8880,"Ġ1982":8881,"Ġ1987":8882,"enny":8883,"aina":8884,"annel":8885,"stan":8886,"Cá»§a":8887,"ĠRobics":8888,"athy":8889,"shmi":8890,"ĠBá»ī":8891,"ĠBá»ĭ":8892,"ĠMichoac":8893,"ĠSpring":8894,"ĠSplashy":8895,"Ġ1968":8896,"ĠBank":8897,"ĠBlair":8898,"ĠSaund":8899,"urga":8900,"Ġváº¹t":8901,"ĠMá»Ľi":8902,"Ná»¯":8903,"ĠLuke":8904,"ĠReagan":8905,"ĠHead":8906,"ĠHeather":8907,"ĠPhÃ¢n":8908,"Ġná»ģu":8909,"ĠNeumann":8910,"ĠKhÆ¡":8911,"endo":8912,"ĠKhÃ¡c":8913,"ĠAndy":8914,"KhuÃ´n":8915,"Ġ1948":8916,"Ġngháº¹n":8917,"ensp":8918,"enstein":8919,"ĠRoma":8920,"ĠsÃ´cÃ´la":8921,"ĠGabriel":8922,"meister":8923,"ĠLibby":8924,"ĠStanley":8925,"ĠActor":8926,"Lá»Ľp":8927,"ĠKhá»§ng":8928,"ĠDá»ħ":8929,"ARS":8930,"ĠGene":8931,"ĠBrooks":8932,"Stef":8933,"ĠBonnie":8934,"Ġdollars":8935,"ĠAviv":8936,"ĠRoosevelt":8937,"ĠKnee":8938,"antha":8939,"stonia":8940,"ĠFerris":8941,"ĠJacob":8942,"ĠMissouri":8943,"ĠBudrus":8944,"ĠWired":8945,"ĠNoah":8946,"ĠKaluza":8947,"ĠFarmer":8948,"cá»¥":8949,"ĠTerence":8950,"Ġpheromones":8951,"ĠPauling":8952,"ĠFortune":8953,"ĠBroadway":8954,"ĠWhitacre":8955,"Ġblah":8956,"Ġbloop":8957,"Ġpolymer":8958,"ĠKhÃŃ":8959,"Joseph":8960,"ĠSaddam":8961,"pháº§n":8962,"Ġmeerk":8963,"ĠAchill":8964,"ĠKháº£":8965,"ĠSenegal":8966,"tháºŃm":8967,"Ġbeep":8968,"ĠOnline":8969,"ĠShirley":8970,"Frank":8971,"engineering":8972,"nghÄ©a":8973,"ĠJesse":8974,"ĠHimalayas":8975,"ĠDARPA":8976,"ĠCloud":8977,"ĠCollins":8978,"ĠUniversity":8979,"ĠhÃ¹m":8980,"ĠByrne":8981,"ĠKentucky":8982,"ĠRufus":8983,"ĠScience":8984,"ĠNIH":8985,"ĠWindows":8986,"ĠJacques":8987,"agascar":8988,"ĠAlgeria":8989,"ĠAltos":8990,"ĠSisyphus":8991,"ĠlÃºn":8992,"ĠCassini":8993,"ĠCleveland":8994,"ĠSagmeister":8995,"ĠGillian":8996,"ĠHyderabad":8997,"ĠDuolingo":8998,"ĠBaghdad":8999,"ĠHussein":9000,"ĠGowanus":9001,"ĠEiffel":9002,"ĠChechnya":9003,"ĠIstanbul":9004,"ĠRobicsek":9005,"ĠSaunders":9006,"Ġmeerkat":9007,"33":9008,"700":9009,"97":9010,"AL":9011,"AN":9012,"Alex":9013,"Arist":9014,"Br":9015,"Bren":9016,"Cáº§u":9017,"Cal":9018,"CÃ¡nh":9019,"Chia":9020,"Der":9021,"Elizabeth":9022,"GV":9023,"Gá»įi":9024,"HP":9025,"HQ":9026,"Im":9027,"JM":9028,"Ká»¹":9029,"KÃŃch":9030,"Lu":9031,"MW":9032,"Man":9033,"Mang":9034,"Náº¥m":9035,"OOC":9036,"Par":9037,"Rá»ĳt":9038,"Rachel":9039,"Song":9040,"Shi":9041,"Sim":9042,"SÃ¡ch":9043,"Tay":9044,"Thi":9045,"Tony":9046,"Tunes":9047,"UE":9048,"Viáº¿t":9049,"Xu":9050,"cow":9051,"cul":9052,"cock":9053,"ds":9054,"die":9055,"fel":9056,"kin":9057,"láº¡i":9058,"lia":9059,"máº·c":9060,"mor":9061,"mat":9062,"mit":9063,"nháº":9064,"nis":9065,"nic":9066,"ps":9067,"point":9068,"press":9069,"rd":9070,"rt":9071,"ru":9072,"ras":9073,"sáº½":9074,"sey":9075,"tinh":9076,"tes":9077,"tol":9078,"tra":9079,"uana":9080,"vÃŃ":9081,"vold":9082,"wl":9083,"war":9084,"·c":9085,"Ì£":9086,"Ġ_":9087,"Ġes":9088,"Ġub":9089,"Ġteo":9090,"ĠtÃ³t":9091,"Ġtennis":9092,"ĠÄĳu":9093,"ĠÄĳÆ¡":9094,"Ġnu":9095,"Ġnáº¥y":9096,"Ġnom":9097,"Ġnick":9098,"ĠnÄ©a":9099,"há»ĭch":9100,"ĠvÃ©t":9101,"Ġlt":9102,"Ġláº£":9103,"Ġlim":9104,"Ġliáº¿c":9105,"ĠmáºŃu":9106,"Ġmoi":9107,"Ġmag":9108,"Ġby":9109,"Ġbung":9110,"ĠbÃªu":9111,"ĠbÃ¡i":9112,"Ġbáº·m":9113,"Ġbiá»ħu":9114,"ĠkÃ©t":9115,"ĠsÃłi":9116,"ĠtrÃłnh":9117,"Ġtrá»ĵi":9118,"Ġngáº¥y":9119,"ĠngÃłng":9120,"Ġngháº¿":9121,"Ġngáº¡ch":9122,"ĠngÃ¡p":9123,"Ġgr":9124,"Ġgu":9125,"ĠgÃłn":9126,"Ġgoi":9127,"Ġgara":9128,"Ġgáº«y":9129,"Ġhec":9130,"Ġhead":9131,"Ġthá»±":9132,"Ãªng":9133,"Ãªin":9134,"Ġráº¡n":9135,"ĠrÃ²i":9136,"Ġdá»Ļt":9137,"ĠdÃ¬m":9138,"ĠdáºŃt":9139,"ĠchÆ°á»Ŀng":9140,"ĠchiÃªc":9141,"ĠthÃłng":9142,"Ġhá»Ľt":9143,"Ġtá»ħ":9144,"Ġquá»ĩ":9145,"ĠgiÄĥng":9146,"ĠgiÅ©":9147,"Ġgiáº¥m":9148,"ĠgiÃ¹m":9149,"ĠxÃª":9150,"Ġkha":9151,"Ġchá»Ńi":9152,"Ġpháº¿t":9153,"aya":9154,"ayan":9155,"Ġsáº·c":9156,"Ġbá»ıi":9157,"Ġbá»«ng":9158,"Ġbá»©t":9159,"ĠTÃ¡c":9160,"ĠTiÃªu":9161,"ĠTuyáº¿t":9162,"ĠTul":9163,"ĠTuc":9164,"ĠTij":9165,"Ġdá»ım":9166,"aijan":9167,"ĠchÃª":9168,"ĠnhÃ²m":9169,"ÄĲá»ĵ":9170,"ÄĲá»įc":9171,"aux":9172,"inas":9173,"ĠCL":9174,"ĠCÃ¢y":9175,"ĠCáº£ng":9176,"ĠCáº¥p":9177,"ĠCos":9178,"ĠCháº¿":9179,"ĠCPhi":9180,"ĠCoke":9181,"Ġháº¯t":9182,"Ġsá»ī":9183,"ĠMÃ´":9184,"ĠMá»Ł":9185,"ĠMÃłn":9186,"ĠMáº¥y":9187,"ĠMam":9188,"ĠMá»ĳi":9189,"ĠMun":9190,"ĠMitra":9191,"hieu":9192,"Ġtrá»ģ":9193,"Ġtrá»£n":9194,"Ġká»īnh":9195,"ĠNO":9196,"ĠNaomi":9197,"ĠBai":9198,"ĠBÃłn":9199,"ĠBÃ©":9200,"ĠHÆ°ng":9201,"ĠHem":9202,"ĠHÃºp":9203,"ĠHob":9204,"ĠHub":9205,"ĠHurt":9206,"ĠHannah":9207,"ĠHLV":9208,"ĠÄĲÆ¡n":9209,"ĠÄĲÃ¡nh":9210,"enos":9211,"ĠAung":9212,"ĠAss":9213,"Ġquark":9214,"Ġkhá»ĳ":9215,"ĠSo":9216,"ĠShan":9217,"ĠSir":9218,"ĠSach":9219,"ĠSaul":9220,"ĠSlow":9221,"ĠSleep":9222,"Ġyum":9223,"iá»ħm":9224,"ĠPav":9225,"ĠPine":9226,"ĠPants":9227,"ĠKa":9228,"ĠKong":9229,"ĠKÃŃch":9230,"ĠKerry":9231,"ĠLÃ²ng":9232,"ĠLá»ĩ":9233,"ĠLind":9234,"ĠLagos":9235,"ĠLinda":9236,"ĠLOL":9237,"ĠLHQ":9238,"Ġá»ªm":9239,"Ġngá»©a":9240,"ĠGoog":9241,"ĠGram":9242,"ĠGros":9243,"ĠGup":9244,"Ġngoáº¡c":9245,"ĠTrÃ´ng":9246,"Ġxui":9247,"ĠDÃ²ng":9248,"ĠDod":9249,"ĠDyson":9250,"oren":9251,"alo":9252,"Ġthun":9253,"ĠRap":9254,"ĠRagu":9255,"els":9256,"Nghi":9257,"ĠIN":9258,"ĠINCRA":9259,"ĠViÃªn":9260,"ĠVÃ²ng":9261,"ĠVáº«y":9262,"ĠVui":9263,"ĠVila":9264,"Ġrá»§a":9265,"ashi":9266,"itan":9267,"ology":9268,"ĠWell":9269,"ĠWhoa":9270,"ĠFi":9271,"ĠEsk":9272,"ĠEstonia":9273,"hov":9274,"house":9275,"ĠthÆ°c":9276,"ushi":9277,"omon":9278,"ĠOla":9279,"ĠOne":9280,"liu":9281,"Ġ83":9282,"Ġ92":9283,"Giá»¯":9284,"ÄĲá»ĭa":9285,"unn":9286,"uno":9287,"roject":9288,"ĠNewcastle":9289,"reen":9290,"ides":9291,"idad":9292,"Chá»©":9293,"ĠSting":9294,"ahn":9295,"igrut":9296,"theo":9297,"thus":9298,"ophia":9299,"Ġnhá»Ŀn":9300,"agram":9301,"ĠXDR":9302,"Ġ1200":9303,"abel":9304,"abian":9305,"abama":9306,"ĠAlabama":9307,"ĠThá»©c":9308,"Má»Ŀi":9309,"ould":9310,"ĠGiáº£":9311,"ĠGiÃ¡c":9312,"ĠGiÃºp":9313,"Howard":9314,"Ġoan":9315,"ifi":9316,"acker":9317,"ĠTá»Ľ":9318,"ĠZambia":9319,"Ġmafia":9320,"egas":9321,"egrass":9322,"Ġup":9323,"ĠShack":9324,"ĠEmmanuel":9325,"Bá»ĭ":9326,"ippi":9327,"yloid":9328,"ĠGiá»¯a":9329,"ersburg":9330,"Ġ170":9331,"ĠÃģnh":9332,"ocks":9333,"Ġláº»o":9334,"ĠPháº£n":9335,"ĠCháº¥t":9336,"ĠnhoÃł":9337,"Ġ1974":9338,"Ġ1976":9339,"pper":9340,"ĠGeoff":9341,"á»ĩn":9342,"ĠMcChryst":9343,"ĠCollider":9344,"ĠTháºŃp":9345,"derick":9346,"ugust":9347,"ugata":9348,"illie":9349,"ĠHá»ıi":9350,"ĠThÃªm":9351,"ĠNá»ģn":9352,"ĠDarfur":9353,"dies":9354,"ĠKhai":9355,"ĠPetersburg":9356,"Ġ1947":9357,"ĠNghÄ©":9358,"ĠNghiá»ĩp":9359,"ĠNháº£y":9360,"ĠNháº¡c":9361,"issippi":9362,"ĠFreeman":9363,"ixon":9364,"....":9365,"ĠTorosaurus":9366,"ehr":9367,"ĠMadagascar":9368,"ĠchÃ¹i":9369,"Ġcents":9370,"ĠMech":9371,"ĠMead":9372,"ĠGalileo":9373,"Ġmicrophone":9374,"Lá»£i":9375,"Ġnhá»ĭn":9376,"ĠSimpson":9377,"ĠKaren":9378,"ĠDá»¥c":9379,"ĠnhÃ£ng":9380,"ĠLady":9381,"Kháº¯p":9382,"ĠTrá»¥c":9383,"ĠNano":9384,"ĠBuenos":9385,"ĠSuu":9386,"ĠPlay":9387,"Ġseries":9388,"Ġpounds":9389,"ĠHansen":9390,"ĠJimmy":9391,"ĠBolt":9392,"ĠKyi":9393,"ĠRockett":9394,"ĠDeep":9395,"ĠAires":9396,"ĠAirstream":9397,"ĠForbes":9398,"ĠMoscow":9399,"ĠHills":9400,"ĠAriely":9401,"ĠBlackberry":9402,"ĠTitanic":9403,"ĠProject":9404,"ski":9405,"ĠKuwait":9406,"ĠLaramie":9407,"lasma":9408,"ĠSkid":9409,"ĠWii":9410,"Ġenzim":9411,"ĠRandolph":9412,"ĠBotsw":9413,"ĠJordans":9414,"Ġgluten":9415,"ĠMaslow":9416,"ĠGeorgetown":9417,"Ġmuá»Ļi":9418,"ĠAmerica":9419,"Ġeureka":9420,"borough":9421,"Khá»ĳi":9422,"Khá»§ng":9423,"ĠHadron":9424,"Ġ747":9425,"Ġenzym":9426,"mstrong":9427,"ĠArabia":9428,"ĠMcGon":9429,"ĠSchwartz":9430,"ĠvÃªnh":9431,"Ġsunphua":9432,"erbaijan":9433,"ĠPinker":9434,"ingsuit":9435,"ĠWikiLe":9436,"Jonathan":9437,"Jennifer":9438,"tzmann":9439,"ĠJuliet":9440,"Ġawesome":9441,"ĠTobago":9442,"ĠPascal":9443,"hrvold":9444,"eynman":9445,"trolux":9446,"ĠAndroid":9447,"ĠEconomist":9448,"Ġsalad":9449,"ĠVivian":9450,"ĠOwens":9451,"ĠUtah":9452,"ĠHirshhorn":9453,"ĠNevada":9454,"ĠBitco":9455,"ĠHudson":9456,"ĠKaplan":9457,"ĠGladwell":9458,"ĠDDT":9459,"ĠNajmuddin":9460,"mingham":9461,"ĠBKT":9462,"ĠPrego":9463,"ĠGiffords":9464,"Ġubuntu":9465,"Ġngháº¿ch":9466,"ĠTucson":9467,"ĠHurtigrut":9468,"ĠGupta":9469,"ĠMcChrystal":9470,"ĠHurtigruten":9471,"05":9472,"38":9473,"Af":9474,"Angel":9475,"BS":9476,"CN":9477,"CR":9478,"Cr":9479,"CÃ´n":9480,"Col":9481,"Cháº¿":9482,"Card":9483,"DU":9484,"Es":9485,"FL":9486,"Fi":9487,"GB":9488,"Ghi":9489,"Gab":9490,"HS":9491,"Háº±ng":9492,"Hiá»ĩp":9493,"IY":9494,"ICE":9495,"Jack":9496,"LM":9497,"Lau":9498,"Lá»ĳi":9499,"Lewis":9500,"Ma":9501,"Máº¯t":9502,"Má»±c":9503,"MÃ³n":9504,"No":9505,"NÃ´ng":9506,"Os":9507,"Quyá»ĥn":9508,"Sá»Ł":9509,"San":9510,"Sarah":9511,"Sylvia":9512,"Sphere":9513,"Sebastian":9514,"Tiá»ĩn":9515,"VÃ´":9516,"VÆ°á»£t":9517,"Xa":9518,"ahoo":9519,"bá»":9520,"bal":9521,"bro":9522,"bach":9523,"beta":9524,"cuá»Ļc":9525,"ced":9526,"dt":9527,"day":9528,"ful":9529,"ga":9530,"gy":9531,"hasa":9532,"jad":9533,"kut":9534,"lÆ¡":9535,"mÃ´":9536,"nest":9537,"nish":9538,"oxy":9539,"ofi":9540,"pen":9541,"pera":9542,"rot":9543,"rai":9544,"sain":9545,"tu":9546,"táº¡o":9547,"teo":9548,"vald":9549,"work":9550,"xÆ¡":9551,"znet":9552,"zka":9553,"§u":9554,"¹t":9555,"ÃĮ":9556,"à¸":9557,"Ġáº¯t":9558,"Ġer":9559,"Ġoli":9560,"Ġorgan":9561,"Ŀng":9562,"á»ªm":9563,"áº¤":9564,"áºµng":9565,"ĠtÃ¬":9566,"ĠtÃ£":9567,"Ġtáº¿t":9568,"Ġtuá»ĳc":9569,"Ġtuá»ĳi":9570,"ĠtÃ¡ng":9571,"Ġtáº¹o":9572,"Ġcau":9573,"ĠcÃºc":9574,"ĠcÃłm":9575,"Ġcass":9576,"Ġcoll":9577,"Ġcotton":9578,"Ġnáº¯n":9579,"Ġnap":9580,"hÃ¨o":9581,"ĠvÆ¡i":9582,"Ġváº£y":9583,"Ġvali":9584,"Ġlá»įi":9585,"ĠlÄĥm":9586,"ĠlÃ¹a":9587,"ĠlÃ¬a":9588,"ĠlÃ¹n":9589,"Ġlá»±u":9590,"Ġmáº«n":9591,"ĠmÃºc":9592,"ĠmÃ¨":9593,"Ġbáº¡":9594,"Ġbáº½":9595,"ĠbÃºp":9596,"Ġbla":9597,"Ġkang":9598,"Ġsáº¥y":9599,"Ġsá»įt":9600,"ĠsÃ©c":9601,"Ġngáº¥u":9602,"ĠngÃ¡y":9603,"Ġguá»ĵng":9604,"Ġguit":9605,"ĠhÆ¡":9606,"Ġhem":9607,"ĠhuyÃªn":9608,"Ġhit":9609,"Ġrem":9610,"Ġdáº£":9611,"Ġdes":9612,"ĠdÃ£n":9613,"Ġnheo":9614,"quare":9615,"Ġvá»¯a":9616,"Ġvá»«ng":9617,"ĠcÃ³ng":9618,"Ġchuá»ĳt":9619,"Ġhá»§":9620,"Ã£nh":9621,"ĠquÃ¡c":9622,"ĠquáºŃy":9623,"ĠgiÅ©a":9624,"ĠxÃ¹":9625,"Ġxiáº¿c":9626,"Ġxáº»o":9627,"Ġkhuá»·":9628,"ĠthÃ²":9629,"ĠpháºŃt":9630,"Ġpháº©u":9631,"Ġpháº§m":9632,"Ġgiá»¡n":9633,"Ġnháº±ng":9634,"Ġcáº£u":9635,"Ġbá»£":9636,"Ġbá»£m":9637,"ĠTan":9638,"ĠTÃ´n":9639,"ĠTut":9640,"ĠTNC":9641,"Ġlá»ķ":9642,"Ġlá»Ľi":9643,"ons":9644,"Ġdá»ĥ":9645,"Ġcháº§m":9646,"ĠchÃ²i":9647,"ĠchÃ²m":9648,"ĠhÃ£n":9649,"Ġmá»ĭt":9650,"aust":9651,"inia":9652,"iness":9653,"inawa":9654,"Ġná»Ľt":9655,"ĠCart":9656,"ĠCash":9657,"ĠCeline":9658,"á»ĵm":9659,"Ġtoan":9660,"ĠtoÃ¡t":9661,"ĠMáº¥t":9662,"ĠMai":9663,"ĠMis":9664,"ĠMik":9665,"ĠMul":9666,"ĠMore":9667,"ĠMod":9668,"ĠMá»Ŀi":9669,"ĠMorg":9670,"ĠMAS":9671,"ĠMOOC":9672,"ĠkhoÃ©t":9673,"ĠsÃ¡n":9674,"ĠNR":9675,"ĠNap":9676,"ĠNiá»ģm":9677,"ĠNSA":9678,"ĠNino":9679,"ĠNixon":9680,"ĠBB":9681,"ĠBuy":9682,"ĠBáº£ng":9683,"ĠBÃ¡ch":9684,"ĠBak":9685,"ĠBog":9686,"ĠBeverly":9687,"ĠloÃ¡t":9688,"ĠHS":9689,"ĠHor":9690,"ĠHand":9691,"ĠHeb":9692,"ĠHáº¡nh":9693,"ĠHart":9694,"ĠHipp":9695,"ĠHAL":9696,"ĠÄĲH":9697,"ĠÄĲÃłng":9698,"ĠÄĲáº¥u":9699,"ĠAw":9700,"ĠATM":9701,"ĠSin":9702,"ĠSá»ĳt":9703,"ĠSue":9704,"ĠphÃłm":9705,"ĠPR":9706,"ĠPi":9707,"ĠPao":9708,"ĠPhÃºc":9709,"ĠPear":9710,"ĠKw":9711,"ĠKan":9712,"ĠKoh":9713,"ĠKris":9714,"ĠKros":9715,"ĠKant":9716,"ĠLem":9717,"ĠLÆ°á»£ng":9718,"ĠLow":9719,"ĠLight":9720,"ĠLisa":9721,"ĠLife":9722,"áº¹n":9723,"Ġá»¥":9724,"Ġá»ī":9725,"Ġá»Ķn":9726,"Ġngá»Ĺng":9727,"ĠGut":9728,"ĠGell":9729,"ĠGould":9730,"Ġngoáº·c":9731,"ĠTráº¡i":9732,"ĠTrang":9733,"ĠDam":9734,"ĠDom":9735,"ĠDew":9736,"ĠDáº¡ng":9737,"ĠDak":9738,"ĠDow":9739,"ĠDev":9740,"ĠDown":9741,"ĠDhar":9742,"ĠDuke":9743,"ĠDIY":9744,"Tri":9745,"Trá»":9746,"Tráº£i":9747,"ima":9748,"imp":9749,"Ãµng":9750,"ĠRas":9751,"ĠRho":9752,"ĠRah":9753,"ĠRá»ĵng":9754,"ĠRain":9755,"ĠRica":9756,"ĠRaj":9757,"ĠRIA":9758,"elop":9759,"elling":9760,"Ġquyá»ĩn":9761,"Ngá»":9762,"Ngá»ĵi":9763,"Nghá»ĭch":9764,"ĠIV":9765,"ĠIce":9766,"ĠkhÃŃt":9767,"Tháº±ng":9768,"TháºŃp":9769,"Ġ59":9770,"Ġsound":9771,"Ġsocola":9772,"ĠVáº¡n":9773,"ĠVáºŃn":9774,"ĠVib":9775,"ĠVá»įng":9776,"ĠVideo":9777,"ĠViag":9778,"atra":9779,"Ġrá»ĥ":9780,"ĠQuyáº¿t":9781,"ĠJans":9782,"ĠJaw":9783,"ĠJake":9784,"ĠJobs":9785,"Ġbass":9786,"ĠÃĬ":9787,"ilm":9788,"illo":9789,"ility":9790,"ilever":9791,"ilocks":9792,"aste":9793,"Ġding":9794,"itor":9795,"ital":9796,"ited":9797,"itiba":9798,"olulu":9799,"ĠWong":9800,"ĠWatt":9801,"ĠFoster":9802,"ĠFez":9803,"ĠFull":9804,"ĠFaiza":9805,"ĠEr":9806,"ĠEngel":9807,"ĠEames":9808,"Ġ103":9809,"ĠNgá»įn":9810,"ĠNgoÃłi":9811,"Thá»©c":9812,"oma":9813,"adema":9814,"ĠThuá»·":9815,"ĠThatch":9816,"ĠOm":9817,"ĠOld":9818,"ĠnghÃ©n":9819,"oblog":9820,"urich":9821,"ĠChe":9822,"ĠChap":9823,"ĠChand":9824,"ĠChev":9825,"ĠChuck":9826,"ĠYellow":9827,"Ġ71":9828,"Ġ73":9829,"Ġ79":9830,"lif":9831,"Giá»Ľi":9832,"Ġgá»«ng":9833,"ThÆ°Æ¡ng":9834,"ĠÄĲá»§":9835,"ider":9836,"idge":9837,"Chá»Ĺ":9838,"Chá»Ŀ":9839,"ign":9840,"istry":9841,"tha":9842,"than":9843,"rani":9844,"ĠUhm":9845,"ague":9846,"ĠXc":9847,"loSphere":9848,"ĠbÃŃt":9849,"avi":9850,"avel":9851,"Äĳá»ĳi":9852,"oczka":9853,"ĠNhanh":9854,"ĠNhiá»ĩm":9855,"sonian":9856,"hanol":9857,"teau":9858,"Ġxá»Ľi":9859,"Ġxá»Ńa":9860,"Ġ186":9861,"ieg":9862,"Cháº¿t":9863,"Ġfáº£i":9864,"Ġform":9865,"Ġfont":9866,"ĠMarx":9867,"Ġ25000":9868,"Ġ1100":9869,"ChÃŃn":9870,"azo":9871,"rylic":9872,"acking":9873,"icklider":9874,"ivia":9875,"ives":9876,"GiÃ³":9877,"heim":9878,"ĠBrent":9879,"ĠArmstrong":9880,"ĠZipcar":9881,"ions":9882,"erto":9883,"deen":9884,"ody":9885,"odka":9886,"Ġ2100":9887,"achi":9888,"acht":9889,"Ġrupi":9890,"ĠHaidt":9891,"Ġ1981":9892,"ĠnÆ¡ron":9893,"ĠiTunes":9894,"aint":9895,"ĠPháº«u":9896,"ĠnhÃ¡i":9897,"ĠnhÃ¡m":9898,"annes":9899,"annica":9900,"ĠCháº¡y":9901,"Cá»Ńa":9902,"Ġ1972":9903,"Ġ1977":9904,"Ġ1978":9905,"ĠColle":9906,"ĠBá»¯a":9907,"ĠPalin":9908,"Ġ1969":9909,"ĠMount":9910,"iza":9911,"ĠNight":9912,"ĠRossy":9913,"ĠBarbie":9914,"anium":9915,"Ġje":9916,"ugu":9917,"ĠChopin":9918,"Ná»ķi":9919,"ĠSchul":9920,"ĠPhá»ķ":9921,"ĠCruz":9922,"ĠKhal":9923,"endor":9924,"ĠKhÃ¡m":9925,"ĠAtkins":9926,"ĠAndes":9927,"ĠHarvey":9928,"Khung":9929,"otto":9930,"Ġngháº¹t":9931,"ĠJosh":9932,"ĠOrkut":9933,"ĠOrnish":9934,"Ġxá»īn":9935,"ethyl":9936,"ĠGreenville":9937,"Dá»«ng":9938,"ĠSamantha":9939,"Alain":9940,"ĠCous":9941,"ĠCode":9942,"usty":9943,"reddies":9944,"Margaret":9945,"esha":9946,"Ġ1953":9947,"weil":9948,"ĠMyhrvold":9949,"ĠGogh":9950,"therland":9951,"ĠAhmad":9952,"consin":9953,"ĠSutherland":9954,"ĠGenev":9955,"Ġháº»m":9956,"ĠPercy":9957,"Ġngá»«oi":9958,"efeller":9959,"monia":9960,"Ġacrylic":9961,"ĠPatel":9962,"ĠUnilever":9963,"ĠJeremy":9964,"ĠRockefeller":9965,"ĠTurk":9966,"ĠSiri":9967,"ĠEarle":9968,"ĠTitan":9969,"Chim":9970,"Carl":9971,"ĠCDC":9972,"ĠKnight":9973,"Ġmili":9974,"Ġkilomet":9975,"ĠValley":9976,"ĠValdez":9977,"skey":9978,"Ġcalor":9979,"ĠPope":9980,"ĠSandy":9981,"ĠKuznet":9982,"ĠGoldilocks":9983,"ĠAtlantic":9984,"ĠMississippi":9985,"ĠBudap":9986,"marin":9987,"ĠAlberta":9988,"ĠMatthieu":9989,"ĠBotton":9990,"ĠAustin":9991,"ĠIgbo":9992,"rrrr":9993,"ĠDrori":9994,"ĠFarm":9995,"cá»§a":9996,"ĠPaulo":9997,"ĠPaula":9998,"ittle":9999,"ĠEvans":10000,"ĠEvelyn":10001,"atherine":10002,"otterdam":10003,"ĠSheila":10004,"borazo":10005,"ĠBritish":10006,"ĠBritannica":10007,"scape":10008,"ĠResnick":10009,"Ġetc":10010,"Ġethanol":10011,"ĠLucy":10012,"ĠEleanor":10013,"Andrew":10014,"Ġboom":10015,"ĠNhá»Ŀ":10016,"ĠRidge":10017,"ĠIPCC":10018,"ĠVerme":10019,"ĠShirky":10020,"ĠJanine":10021,"ĠAllende":10022,"ĠSilver":10023,"ĠBeatles":10024,"Ġterawatt":10025,"ĠMakoko":10026,"Thoáº£":10027,"ĠPorter":10028,"ĠGriff":10029,"ĠBowl":10030,"ĠAzerbaijan":10031,"ĠHindu":10032,"ĠGulf":10033,"ĠWisconsin":10034,"ĠInstagram":10035,"Ġadren":10036,"ĠPeace":10037,"Christopher":10038,"ĠBrothers":10039,"ĠChimborazo":10040,"ĠRobbins":10041,"Ġcoumarin":10042,"ĠMarduk":10043,"ĠBandura":10044,"ĠHonolulu":10045,"ĠPhoenix":10046,"ĠReport":10047,"Ġmicroblog":10048,"ĠDiamond":10049,"Ġneutron":10050,"ĠElectrolux":10051,"ĠSnowden":10052,"ĠKurdistan":10053,"Ġsexy":10054,"ĠBionic":10055,"ĠHoffman":10056,"Aristotle":10057,"tolemy":10058,"ĠTijuana":10059,"ĠSachs":10060,"ĠKaaba":10061,"ĠBotswana":10062,"ĠWikiLeaks":10063,"ICEF":10064,"Ġoliu":10065,"Ġcollagen":10066,"Ġguitar":10067,"ĠKrosoczka":10068,"ĠRhode":10069,"ĠRIAA":10070,"ĠThatcher":10071,"ĠYellowstone":10072,"21":10073,"27":10074,"42":10075,"64":10076,"84":10077,"Alan":10078,"Biáº¿n":10079,"BÄĥng":10080,"Bra":10081,"CD":10082,"CS":10083,"Don":10084,"DNA":10085,"Dean":10086,"EE":10087,"ESC":10088,"Gr":10089,"GÃ£":10090,"HI":10091,"Háº¿t":10092,"HÆ¡i":10093,"Har":10094,"HÆ°á»Ľng":10095,"Hom":10096,"Háº¡nh":10097,"Hub":10098,"Henry":10099,"II":10100,"JO":10101,"JS":10102,"Jean":10103,"Jane":10104,"Jake":10105,"Ki":10106,"Káº»":10107,"LB":10108,"LS":10109,"LuáºŃn":10110,"Luc":10111,"ML":10112,"MÃłn":10113,"Mal":10114,"Má»¹":10115,"Mic":10116,"Mah":10117,"Mike":10118,"MCA":10119,"NH":10120,"Nic":10121,"New":10122,"Ong":10123,"PI":10124,"Pesa":10125,"Ra":10126,"RÃło":10127,"RiÃªng":10128,"Rock":10129,"Rives":10130,"SK":10131,"Sus":10132,"Sá»ĳng":10133,"Sec":10134,"Seth":10135,"Script":10136,"TO":10137,"TÆ°á»Ŀng":10138,"Tiá»ĥu":10139,"Tá»Ļi":10140,"Tá»Ń":10141,"TÃ¡m":10142,"Táº§ng":10143,"Uhm":10144,"Vui":10145,"XÆ°Æ¡ng":10146,"XÃ¡c":10147,"You":10148,"Yves":10149,"bs":10150,"bot":10151,"biáº¿t":10152,"bia":10153,"bart":10154,"bell":10155,"ball":10156,"bage":10157,"ces":10158,"cÃ¡ch":10159,"cli":10160,"cles":10161,"craft":10162,"down":10163,"ea":10164,"eing":10165,"gÃ´":10166,"gic":10167,"gli":10168,"gendor":10169,"kina":10170,"kley":10171,"kheim":10172,"lÃ´ng":10173,"lap":10174,"lett":10175,"min":10176,"master":10177,"nÄĥm":10178,"ness":10179,"ooth":10180,"pur":10181,"rel":10182,"sa":10183,"sus":10184,"ty":10185,"tá»":10186,"tar":10187,"tá»ĳi":10188,"tain":10189,"vo":10190,"viáº¿t":10191,"vian":10192,"vir":10193,"wan":10194,"wey":10195,"wind":10196,"witz":10197,"xa":10198,"yw":10199,"yama":10200,"¬m":10201,"´m":10202,"Ã¶":10203,"Ġ*":10204,"Ġáº¯ng":10205,"Ġoi":10206,"Ġib":10207,"ĠÃ¹n":10208,"Ńch":10209,"á»ī":10210,"á»ľ":10211,"á»¨ng":10212,"Ġtáº§u":10213,"ĠtÆ¡i":10214,"Ġtuyá»ģn":10215,"ĠcÃłn":10216,"ĠcÃ²ng":10217,"Ġcuá»ĳc":10218,"Ġcom":10219,"Ġcáº±m":10220,"Ġcáº³ng":10221,"ĠÄĳay":10222,"ĠÄĳÃłnh":10223,"ĠÄĳung":10224,"ĠÄĳÃŃt":10225,"Ġnáº§n":10226,"Ġnao":10227,"Ġnua":10228,"ĠnÃ²i":10229,"Ġnáº»o":10230,"ĠnÃŃt":10231,"Ġvo":10232,"Ġvs":10233,"Ġle":10234,"Ġláº·t":10235,"Ġlit":10236,"ĠliÃªm":10237,"ĠlÆ°Æ¡n":10238,"Ġmon":10239,"ĠmÃº":10240,"Ġmáº©n":10241,"Ġmáº«m":10242,"Ġbáº¥p":10243,"ĠbÃ¨n":10244,"Ġkar":10245,"Ġsin":10246,"ĠsÃ¢m":10247,"Ġsáº£ng":10248,"ĠsÃło":10249,"Ġsáº§m":10250,"Ġsushi":10251,"Ġtrc":10252,"Ġtry":10253,"Ġtriá»ģn":10254,"Ġtruá»µ":10255,"Ġgá»Ļt":10256,"Ġgá»Ł":10257,"Ġgáº¯m":10258,"Ġgá»įt":10259,"ĠgÆ°Æ¡m":10260,"Ġgaga":10261,"Ġhal":10262,"Ġhep":10263,"Ġthá»Ľt":10264,"Ãªnh":10265,"Ġre":10266,"Ġroi":10267,"Ġrá»įc":10268,"ĠpH":10269,"Ġpost":10270,"Ġdot":10271,"Ġder":10272,"Ġden":10273,"Ġdá»Ļng":10274,"Ġdiá»ĩp":10275,"ĠdÃ£i":10276,"Ġdum":10277,"ĠdÃ¬u":10278,"Ġthon":10279,"Ġnhá»¡":10280,"Ġnhá»«ng":10281,"Ġhá»£t":10282,"Æ¡ng":10283,"Ġtháº·ng":10284,"ĠnÃłi":10285,"Ġquai":10286,"ĠxiÃªn":10287,"ĠxÃ³c":10288,"ĠthÃ¢u":10289,"othic":10290,"Ġpháº¥t":10291,"Ġchon":10292,"Ġcholes":10293,"anet":10294,"ance":10295,"chel":10296,"ÃŃu":10297,"Ġbá»Ľ":10298,"Ġbá»ĵng":10299,"ĠTe":10300,"ĠThÃº":10301,"ĠTon":10302,"ĠTáº§m":10303,"ĠTá»Ļi":10304,"ĠTil":10305,"ĠTho":10306,"ĠTus":10307,"ĠTab":10308,"ĠTill":10309,"ĠThom":10310,"Ġlá»¯":10311,"Ġhoc":10312,"Ġhoo":10313,"onte":10314,"aim":10315,"ĠhÃ³i":10316,"ĠnhÃ³i":10317,"ÄĲiá»ĥn":10318,"ÄĲÃ¡nh":10319,"Ġmá»¥n":10320,"Ġná»©c":10321,"ĠCH":10322,"ĠCung":10323,"ĠCáº¯t":10324,"ĠCookie":10325,"ĠCSF":10326,"Ġháº¥n":10327,"Ġtoi":10328,"ĠMiá»ģn":10329,"ĠMack":10330,"ĠMann":10331,"ĠMania":10332,"ĠMaine":10333,"eme":10334,"him":10335,"Ġtrá»ķ":10336,"ĠNad":10337,"ĠNow":10338,"ĠNok":10339,"ĠBáº§u":10340,"ĠBau":10341,"ĠBiá»ĩt":10342,"ĠBus":10343,"ĠBut":10344,"ĠBlog":10345,"ĠBeck":10346,"ĠloÃ©t":10347,"Ġlove":10348,"eren":10349,"eral":10350,"eros":10351,"erinc":10352,"ĠHáº£":10353,"ĠHang":10354,"ĠHÃ¡n":10355,"ĠHos":10356,"ĠHell":10357,"ĠHers":10358,"ĠHatz":10359,"amer":10360,"Ġ220":10361,"ĠÄĲoáº¡n":10362,"enburg":10363,"encia":10364,"ĠAy":10365,"ĠAud":10366,"ĠAust":10367,"ĠAgar":10368,"ĠAugust":10369,"ĠSl":10370,"ĠSáº£n":10371,"ĠSes":10372,"ĠSac":10373,"ĠSard":10374,"ĠSlick":10375,"ĠSOL":10376,"ĠStern":10377,"ĠSARS":10378,"Ġkháº½":10379,"arth":10380,"Ġphen":10381,"Ġphiáº¿m":10382,"ĠPT":10383,"ĠPen":10384,"ĠPent":10385,"ĠPSA":10386,"ĠPMT":10387,"ĠPtolemy":10388,"ĠKil":10389,"ĠKey":10390,"ĠKrist":10391,"ĠKool":10392,"ĠthÃ¡n":10393,"ĠLáº¯ng":10394,"ĠLess":10395,"ĠLuria":10396,"ĠGa":10397,"ĠGÃ¡i":10398,"ĠGambia":10399,"ĠTra":10400,"ĠTriáº¿t":10401,"ĠTráº¡ch":10402,"ĠTrÃ¡nh":10403,"Ġxuá»ĵng":10404,"ĠDÃ¹ng":10405,"ĠDáº¥u":10406,"ĠDÆ°á»Ľi":10407,"ĠDaw":10408,"ĠDall":10409,"ĠDamas":10410,"orio":10411,"orex":10412,"ority":10413,"Tráº§m":10414,"TrÃ¡ch":10415,"als":10416,"esel":10417,"escop":10418,"osia":10419,"oslav":10420,"ĠRan":10421,"ĠRÄĥn":10422,"ĠRÃµ":10423,"ĠRev":10424,"ĠRonald":10425,"ĠRory":10426,"ĠRoll":10427,"elah":10428,"etz":10429,"ĠxÃ£y":10430,"Ngáº¯n":10431,"Ngáº¡c":10432,"ĠIan":10433,"ĠIow":10434,"ĠIda":10435,"ĠVas":10436,"ĠVill":10437,"ĠVul":10438,"ĠVent":10439,"ĠVegas":10440,"aton":10441,"Ġ49":10442,"ĠQuyá»ĥn":10443,"ĠJen":10444,"ĠJet":10445,"ĠJob":10446,"ĠJur":10447,"ĠJazz":10448,"apa":10449,"ilyn":10450,"ase":10451,"asy":10452,"Ġdiesel":10453,"ols":10454,"olis":10455,"ĠWag":10456,"ĠWoff":10457,"ĠWHO":10458,"ĠFB":10459,"ĠFin":10460,"ĠFow":10461,"ĠFek":10462,"ĠFern":10463,"ĠFlow":10464,"ĠFear":10465,"ĠFild":10466,"ĠFeynman":10467,"ĠEis":10468,"ĠEbert":10469,"Ġcháº¡c":10470,"Ġ1910":10471,"terol":10472,"homa":10473,"ĠNgÃł":10474,"ĠNgá»±a":10475,"Thá»ĳng":10476,"usion":10477,"andi":10478,"andon":10479,"acorex":10480,"Ġ61":10481,"adda":10482,"ĠOut":10483,"oban":10484,"ĠPhim":10485,"ĠChÆ¡i":10486,"ĠChuyÃªn":10487,"ĠChaz":10488,"ĠChamp":10489,"ĠYug":10490,"ĠHod":10491,"ĠHoáº¡":10492,"ĠHouston":10493,"Ġ91":10494,"Ġtháº£nh":10495,"ĠchÃ¡o":10496,"Ġ20000":10497,"ÄĲá»ģ":10498,"ÄĲá»©ng":10499,"ThÆ°":10500,"ThuáºŃt":10501,"Thuyáº¿t":10502,"rio":10503,"riet":10504,"roc":10505,"ĠÃ´xy":10506,"ĠÄĲá»ģ":10507,"real":10508,"read":10509,"Ġwi":10510,"Ġwingsuit":10511,"ChÃłng":10512,"neth":10513,"ĠInuit":10514,"igal":10515,"igman":10516,"iguel":10517,"oplin":10518,"ĠUh":10519,"ĠUNA":10520,"ĠUSA":10521,"ĠUSB":10522,"ĠmÃªnh":10523,"ĠXá»Ń":10524,"loyd":10525,"ĠsuÃ´ng":10526,"abi":10527,"ability":10528,"ĠAlloSphere":10529,"Tá»Ŀ":10530,"akh":10531,"occo":10532,"ĠNamib":10533,"Ġxá»ı":10534,"trÃªn":10535,"iker":10536,"umen":10537,"iev":10538,"icha":10539,"Cháº£":10540,"ĠfMRI":10541,"Ġfischer":10542,"Ġfilm":10543,"Quáº§n":10544,"Ġcá»¡i":10545,"lahoma":10546,"ento":10547,"iane":10548,"ians":10549,"ird":10550,"ift":10551,"azi":10552,"ext":10553,"ĠAnna":10554,"ĠQueen":10555,"ĠTá»ī":10556,"Ġvá»ın":10557,"ĠhuÃ½":10558,"Giáº£m":10559,"artu":10560,"ĠArn":10561,"ĠZach":10562,"ector":10563,"ega":10564,"Ġ1600":10565,"ĠShin":10566,"ĠShreddies":10567,"ĠVá»ĭ":10568,"Ġ1400":10569,"Bá»Ŀi":10570,"ĠprotÃªin":10571,"Ġ1300":10572,"KhÃ¡m":10573,"yll":10574,"NASA":10575,"ĠFrans":10576,"erial":10577,"ĠCanal":10578,"ĠDoyle":10579,"ĠnÆ¡trino":10580,"enna":10581,"ains":10582,"Ġláº»n":10583,"amble":10584,"undy":10585,"ĠMcMur":10586,"ĠMcLu":10587,"ĠdÃ²m":10588,"ĠCá»¥":10589,"Ġtá»ĭt":10590,"Ġimp":10591,"ĠPalmer":10592,"ĠtuÃ½p":10593,"ĠMonster":10594,"Ġ1963":10595,"linger":10596,"ĠTháº£o":10597,"ĠTháº¥y":10598,"ĠBarric":10599,"ĠBarcel":10600,"ĠParik":10601,"ĠKhoáº»":10602,"ĠJourn":10603,"ĠWash":10604,"ĠGrey":10605,"ĠEdison":10606,"ĠMá»«ng":10607,"ĠTEDxB":10608,"Ġcacbonat":10609,"ĠLá»£i":10610,"Ġcode":10611,"rospera":10612,"ĠHá»Ĺ":10613,"uprof":10614,"ĠNá»Ńa":10615,"ĠLuton":10616,"ĠMaas":10617,"ĠHealth":10618,"ĠHeidi":10619,"ĠPhÃ©p":10620,"ĠOkinawa":10621,"ĠOklahoma":10622,"ĠKhÃ¡ch":10623,"ĠAtala":10624,"Khal":10625,"Ġradar":10626,"ĠFrankie":10627,"isher":10628,"ĠMalcolm":10629,"ĠMalthus":10630,"ĠIndia":10631,"ĠJose":10632,"ĠAdams":10633,"ĠSmithsonian":10634,"ĠRichards":10635,"ĠAlexis":10636,"Ġinches":10637,"burst":10638,"ĠManju":10639,"ĠMadrid":10640,"alaam":10641,"ĠchÃ¹n":10642,"Ġvaccin":10643,"ĠEnron":10644,"ĠCoast":10645,"ĠCount":10646,"Lá»Ľn":10647,"ĠBurkina":10648,"ĠBabbage":10649,"ĠKarachi":10650,"ĠDá»«ng":10651,"ĠWhirl":10652,"ĠWarner":10653,"Kháº©u":10654,"ĠGiacom":10655,"Ġamyloid":10656,"zeiro":10657,"Ġghiáº¿c":10658,"eopathy":10659,"ĠAspen":10660,"Ġshows":10661,"mont":10662,"Ġseri":10663,"ĠBoltzmann":10664,"ĠBolivia":10665,"ĠTuring":10666,"ĠCapetown":10667,"ĠMorris":10668,"ĠMorocco":10669,"ĠMilan":10670,"ĠSergey":10671,"ĠMills":10672,"ĠMilly":10673,"ĠHillary":10674,"ĠUSDA":10675,"earch":10676,"Ġtweets":10677,"Phim":10678,"Philip":10679,"ĠMerced":10680,"ĠDonna":10681,"ĠFriend":10682,"ijerinc":10683,"ĠMission":10684,"ĠRandi":10685,"ĠAlberto":10686,"ĠPowerpoint":10687,"ĠmuÃ´ng":10688,"ĠMinority":10689,"ĠBirmingham":10690,"ĠPortland":10691,"ĠARES":10692,"acyOS":10693,"urtis":10694,"ĠItaly":10695,"ĠJaneiro":10696,"ĠKamen":10697,"ilding":10698,"ĠPhilips":10699,"Joshua":10700,"Ġheli":10701,"ĠMaps":10702,"ĠSolomon":10703,"ĠResearch":10704,"ĠESP":10705,"ocracyOS":10706,"ĠEdwards":10707,"pháº£i":10708,"ĠSá»Ńa":10709,"ĠGround":10710,"Edward":10711,"Ġnguá»ĩch":10712,"ĠthÃ¢t":10713,"ĠNhá»ĭp":10714,"ĠNathaniel":10715,"ĠRadcli":10716,"ĠMcCain":10717,"Sá»£i":10718,"ĠBMW":10719,"áº¢o":10720,"ĠPierre":10721,"ĠJessica":10722,"ĠUNESC":10723,"ĠUkraina":10724,"oulder":10725,"ĠHimalaya":10726,"Julian":10727,"Samuel":10728,"Ġsunf":10729,"ĠMotor":10730,"ĠMotors":10731,"ĠLove":10732,"ĠLocke":10733,"ĠGanÄĳi":10734,"ĠEcua":10735,"RCK":10736,"ĠMeyerowitz":10737,"ĠHasbro":10738,"ĠPugh":10739,"ĠWhole":10740,"adija":10741,"ĠHotmail":10742,"ĠJarrett":10743,"hodops":10744,"Chuá»Ļt":10745,"Ġparab":10746,"ĠÄĳá»ħnh":10747,"ĠMidwest":10748,"ĠHutch":10749,"ĠSeligman":10750,"ĠImprov":10751,"ĠStandford":10752,"abyte":10753,"ĠChildren":10754,"ĠDietrich":10755,"ĠPhillips":10756,"ĠMohamed":10757,"ventist":10758,"Ġepoxy":10759,"ĠJavaScript":10760,"Ġdioxit":10761,"ĠCruzeiro":10762,"ĠBuffett":10763,"ĠDenisovan":10764,"ĠhÃºp":10765,"ĠÆłn":10766,"Ġtransistor":10767,"ÄĲoÃ¡n":10768,"ĠNikola":10769,"ĠGarden":10770,"ĠJohannes":10771,"ĠPhilippines":10772,"ĠPython":10773,"ĠÄĲoÃłn":10774,"ĠKIPP":10775,"ĠTrinidad":10776,"Ġwhiskey":10777,"ĠStefan":10778,"ĠSprings":10779,"Stefan":10780,"Brenda":10781,"Simon":10782,"wln":10783,"ĠTulley":10784,"ĠCosta":10785,"ĠHubble":10786,"ĠGross":10787,"ĠEskimo":10788,"ĠMcGonigal":10789,"valds":10790,"ĠtÃ¬n":10791,"Ġremix":10792,"ĠMOOCs":10793,"ĠNRK":10794,"ĠGeneva":10795,"ĠKuznets":10796,"ĠBudapest":10797,"Malcolm":10798,"gendorfer":10799,"Ġibuprof":10800,"Ġcholesterol":10801,"ĠPMTCT":10802,"escope":10803,"ĠIowa":10804,"ĠFowler":10805,"ĠFeki":10806,"ĠFildes":10807,"ĠYugoslav":10808,"ĠNamibia":10809,"Ġfischeri":10810,"ĠMcMurdo":10811,"ĠMcLuhan":10812,"ĠBarcelona":10813,"ĠJournal":10814,"ĠWhirlwind":10815,"ijerinck":10816,"ĠRadcliffe":10817,"ĠUNESCO":10818,"Ġibuprofen":10819,"150":10820,"22":10821,"23":10822,"54":10823,"78":10824,"86":10825,"Ab":10826,"BO":10827,"BiÃªn":10828,"Báº£ng":10829,"Bar":10830,"Bá»ĳi":10831,"Bath":10832,"Barry":10833,"CO":10834,"Can":10835,"Cá»±c":10836,"Cáº¥u":10837,"Cáº£i":10838,"Cynthia":10839,"DD":10840,"DÃ¢y":10841,"Day":10842,"Doug":10843,"Ex":10844,"FN":10845,"GF":10846,"Graham":10847,"Gever":10848,"Gwen":10849,"HD":10850,"Hu":10851,"Hiáº¿n":10852,"Hiá»ĥu":10853,"HáºŃu":10854,"IS":10855,"Iran":10856,"ISA":10857,"ISD":10858,"JB":10859,"JE":10860,"JN":10861,"JY":10862,"Kiá»ģu":10863,"Kia":10864,"Kim":10865,"La":10866,"Linh":10867,"MU":10868,"Máº£nh":10869,"Mel":10870,"Mik":10871,"Mann":10872,"Ne":10873,"NháºŃt":10874,"Nelson":10875,"OB":10876,"OR":10877,"OW":10878,"PR":10879,"Pal":10880,"Prospera":10881,"RP":10882,"Ray":10883,"Ron":10884,"Rick":10885,"Rog":10886,"Roy":10887,"Rá»«ng":10888,"SI":10889,"Sc":10890,"Sm":10891,"Ser":10892,"Sing":10893,"Sobule":10894,"TA":10895,"TÃ´":10896,"Tam":10897,"TÄĥng":10898,"Tal":10899,"Táº¡m":10900,"Tuá»³":10901,"VM":10902,"Vo":10903,"Video":10904,"War":10905,"William":10906,"Xung":10907,"bard":10908,"bee":10909,"buntu":10910,"can":10911,"cáº§n":10912,"cut":10913,"du":10914,"don":10915,"dáº«n":10916,"dol":10917,"ding":10918,"dore":10919,"dog":10920,"dney":10921,"eal":10922,"for":10923,"gu":10924,"gus":10925,"gers":10926,"gate":10927,"hem":10928,"hman":10929,"here":10930,"iet":10931,"jin":10932,"ks":10933,"kw":10934,"khÃ¡":10935,"koff":10936,"kowitz":10937,"lass":10938,"mins":10939,"mark":10940,"mapa":10941,"nhá»":10942,"non":10943,"ners":10944,"national":10945,"name":10946,"pop":10947,"res":10948,"ril":10949,"rad":10950,"roir":10951,"sp":10952,"sá»ĳ":10953,"sky":10954,"sler":10955,"side":10956,"shoo":10957,"tÃª":10958,"tuy":10959,"tia":10960,"thÃ¡":10961,"too":10962,"ugh":10963,"via":10964,"ved":10965,"vey":10966,"vani":10967,"wal":10968,"worth":10969,"zo":10970,"zan":10971,"zon":10972,"zac":10973,"zweil":10974,"¡m":10975,"Ã¸":10976,"ïľ":10977,"Ġ(":10978,"ĠÃ³":10979,"ĠÃª":10980,"Ġang":10981,"Ġap":10982,"Ġom":10983,"Ġáº©u":10984,"Ġout":10985,"Ġïľ":10986,"ķn":10987,"Ļng":10988,"á»ģu":10989,"áºł":10990,"ĠtÃł":10991,"Ġtong":10992,"ĠtÆ°ng":10993,"ĠtÃło":10994,"Ġtáº¥p":10995,"Ġtáº©m":10996,"ĠtÄ©u":10997,"ĠcÃºt":10998,"Ġcáº¡ch":10999,"ĠcÃ¹a":11000,"Ġcta":11001,"ĠcÃ¹n":11002,"Ġcoban":11003,"ĠnÃ¡":11004,"Ġnin":11005,"Ġnáº¡o":11006,"ĠnÃ¡i":11007,"Ġnet":11008,"ĠnhÃºc":11009,"Ġnuc":11010,"ĠnÃ´m":11011,"Ġváº¯n":11012,"ĠvÃ¡t":11013,"ĠlÃ¬":11014,"Ġláº±ng":11015,"ĠlÃ¡n":11016,"Ġles":11017,"ĠlÃ²i":11018,"Ġliá»ĩng":11019,"Ġláº±n":11020,"Ġmáº£y":11021,"ĠmÆ°á»£t":11022,"Ġmail":11023,"Ġmini":11024,"Ġbai":11025,"ĠbÃ²ng":11026,"Ġbuá»ĳt":11027,"Ġbuc":11028,"Ġbridge":11029,"Ġburger":11030,"háº§u":11031,"nhiá»ģu":11032,"ĠsÃª":11033,"Ġsá»Łi":11034,"ĠsÆ°a":11035,"ĠtrÄ©":11036,"Ġtruá»":11037,"ĠngÃ´ng":11038,"ĠngÃ¡n":11039,"ĠngÃ³ng":11040,"Ġngá»ĳn":11041,"ĠngáºŃm":11042,"ĠngÆ°á»Łi":11043,"Ġgao":11044,"ĠgÃłi":11045,"Ġgáº¥m":11046,"Ġguga":11047,"Ġhe":11048,"ĠhÄĥm":11049,"ĠrÃ¬":11050,"Ġruy":11051,"Ġren":11052,"ĠrÃ¡ng":11053,"ĠrÃ¡o":11054,"Ġrá»ĳn":11055,"ĠrÃ¢t":11056,"Ġpl":11057,"Ġper":11058,"Ġparty":11059,"Ġdáº»":11060,"Ġdáº§m":11061,"ĠnhÄ©":11062,"qui":11063,"Ġvá»ĵ":11064,"Ġchy":11065,"Ġchannel":11066,"Ġthong":11067,"ĠthÆ¡i":11068,"Ġhá»¯ng":11069,"Ġhá»£m":11070,"Ġquáº¥t":11071,"ĠquÃłng":11072,"á»±ng":11073,"Ġgiáº±ng":11074,"ĠgiÆ°Æ¡ng":11075,"ĠgiÃµi":11076,"ĠxÆ°á»Ľc":11077,"ĠxÃ¡t":11078,"Ġxáº©y":11079,"Ġxáº¯p":11080,"Äĥt":11081,"Ġpháº©y":11082,"ayne":11083,"Ġsáº¯n":11084,"cha":11085,"chang":11086,"Ġnháº©m":11087,"Ġnháºµn":11088,"Ġnháº±n":11089,"anga":11090,"ÃŃp":11091,"Ġbá»§a":11092,"Ġbá»ĩn":11093,"ĠTG":11094,"ĠTQ":11095,"ĠTang":11096,"ĠTen":11097,"ĠTuá»ķi":11098,"ĠTat":11099,"ĠTak":11100,"ĠTown":11101,"ĠTata":11102,"ĠTech":11103,"ĠTuáº§n":11104,"onen":11105,"onchi":11106,"Ġdá»©a":11107,"aik":11108,"aipur":11109,"Ġcháº¥u":11110,"ĠchÃ¹ng":11111,"ĠnhÃ¢t":11112,"ÄĲáº¥u":11113,"Ġmá»ģn":11114,"aucas":11115,"inner":11116,"ĠCT":11117,"ĠCÃłng":11118,"ĠCuá»ĳn":11119,"ĠCÄĥn":11120,"ĠCáº©n":11121,"ĠCá»Ń":11122,"ĠCit":11123,"ĠCÃ¡nh":11124,"ĠCed":11125,"ĠCab":11126,"ĠCav":11127,"ĠCron":11128,"ĠCox":11129,"ĠCiti":11130,"ĠCreat":11131,"ĠCynthia":11132,"ĠCurtis":11133,"ĠCaucas":11134,"Ġháº¥u":11135,"Ġcontain":11136,"Nhanh":11137,"Nhung":11138,"Ġ----":11139,"ĠMw":11140,"ĠMÃ¢y":11141,"ĠMang":11142,"ĠMiáº¿n":11143,"ĠMes":11144,"ĠMÃ³c":11145,"ĠMoi":11146,"ĠMÃ£i":11147,"ĠMick":11148,"ĠMall":11149,"ĠMach":11150,"ĠMug":11151,"ĠMilli":11152,"ĠMatch":11153,"ĠMaid":11154,"ĠMistry":11155,"eoul":11156,"ĠnháºŃm":11157,"hium":11158,"hicÃ´":11159,"Ġká»ģn":11160,"ĠNH":11161,"ĠNiáº¿t":11162,"ĠNab":11163,"ĠNou":11164,"ĠNeg":11165,"ĠNash":11166,"ĠBR":11167,"ĠBj":11168,"ĠBis":11169,"ĠBri":11170,"ĠBran":11171,"ĠBed":11172,"ĠBess":11173,"ĠBorn":11174,"ĠBass":11175,"ĠBoran":11176,"ĠBati":11177,"ĠBurger":11178,"ĠBetty":11179,"ĠBundy":11180,"ĠBoulder":11181,"ĠBRCK":11182,"Ġlol":11183,"errof":11184,"ĠHÃ´n":11185,"ĠHáº¡t":11186,"ĠHard":11187,"ĠHab":11188,"ĠHep":11189,"ĠHama":11190,"amen":11191,"ĠÄĲÃ¡":11192,"ĠÄĲáº·t":11193,"ĠÄĲen":11194,"ĠÄĲá»Ļi":11195,"ĠÄĲáº¹p":11196,"ĠAO":11197,"ĠAk":11198,"ĠAqu":11199,"ĠAicha":11200,"ĠSÃ£o":11201,"ĠSat":11202,"ĠSÃ³ng":11203,"ĠSlo":11204,"ĠSav":11205,"ĠSev":11206,"ĠSamb":11207,"ĠSok":11208,"ĠSivers":11209,"ĠSebastian":11210,"ĠSAT":11211,"ĠSval":11212,"ĠSAN":11213,"ĠSophia":11214,"ĠSaint":11215,"ĠSalaam":11216,"ĠSeoul":11217,"Ġbá»Ļn":11218,"Ġkháº£i":11219,"Ġdow":11220,"arter":11221,"aroid":11222,"ĠphÄĥng":11223,"ĠphÅ©":11224,"ĠPM":11225,"ĠPad":11226,"ĠPew":11227,"ĠPash":11228,"ĠKÃŃ":11229,"ĠKev":11230,"ĠKohn":11231,"ĠKath":11232,"ĠKind":11233,"ĠKemp":11234,"ĠKaf":11235,"ĠKiev":11236,"ĠLÃ¡":11237,"ĠLÆ°Æ¡ng":11238,"ĠLam":11239,"ĠLáº½":11240,"ĠLiv":11241,"ĠLip":11242,"ĠLaman":11243,"ĠLazar":11244,"Ġtrá»įc":11245,"Ġá»Ĳ":11246,"ĠGuy":11247,"ĠGang":11248,"ĠGiáº¿t":11249,"ĠGiÃªng":11250,"ĠGle":11251,"ĠGra":11252,"ĠGun":11253,"ĠGlas":11254,"ĠGamble":11255,"ÄĲÃ³ng":11256,"Ġngoi":11257,"ĠTráº£":11258,"ĠTrib":11259,"ĠTrek":11260,"ĠTracy":11261,"ĠDig":11262,"ĠDry":11263,"ĠDut":11264,"ĠDink":11265,"ĠDurga":11266,"ĠDMCA":11267,"orge":11268,"TráºŃn":11269,"Trá»ĵng":11270,"aler":11271,"alah":11272,"aline":11273,"ally":11274,"alph":11275,"alach":11276,"ĠthuÃ½":11277,"eson":11278,"esia":11279,"ĠRao":11280,"ĠRic":11281,"ĠRey":11282,"ĠRud":11283,"ĠRoth":11284,"ĠRá»«ng":11285,"ĠRatan":11286,"ĠRumi":11287,"ĠROV":11288,"ĠRotterdam":11289,"ĠRISD":11290,"elin":11291,"ella":11292,"ellie":11293,"elile":11294,"NgÆ°Æ¡i":11295,"Ġkhua":11296,"ĠIGF":11297,"ĠVÆ°á»£t":11298,"ĠVish":11299,"ator":11300,"isch":11301,"iser":11302,"isel":11303,"Ġrá»ı":11304,"Ġrá»¥t":11305,"ĠQuy":11306,"icip":11307,"ĠJr":11308,"ĠJoplin":11309,"aph":11310,"aso":11311,"asca":11312,"asthan":11313,"oleros":11314,"ĠWI":11315,"ĠWT":11316,"ĠWond":11317,"ĠWald":11318,"ĠWound":11319,"ĠWool":11320,"ĠFM":11321,"ĠFl":11322,"ĠFir":11323,"ĠFren":11324,"ĠFitz":11325,"ĠFlem":11326,"ĠFire":11327,"ĠFaso":11328,"ĠErik":11329,"ĠvÃŃt":11330,"Ġchá»ĭt":11331,"ĠNgá»":11332,"Thá»ĥ":11333,"andt":11334,"andro":11335,"acs":11336,"acey":11337,"adio":11338,"ĠThr":11339,"ĠThan":11340,"ĠThuá»ĳc":11341,"urf":11342,"uri":11343,"urman":11344,"ĠChina":11345,"ĠYos":11346,"ĠYun":11347,"ĠYahoo":11348,"eway":11349,"ĠHoáº¡t":11350,"Ġ9000":11351,"Ġsá»Łn":11352,"oooo":11353,"oing":11354,"ÄĲá»§":11355,"ÄĲá»Ŀi":11356,"ÄĲá»£i":11357,"Thanh":11358,"ĠChÃŃn":11359,"rive":11360,"unta":11361,"roe":11362,"rect":11363,"Ġwe":11364,"Ġwww":11365,"Chiá»ģu":11366,"ChuyÃªn":11367,"Chuá»Ĺi":11368,"Chá»«ng":11369,"Ġá»ķng":11370,"ĠSty":11371,"ĠStep":11372,"ĠStud":11373,"ĠStore":11374,"ahaha":11375,"igai":11376,"thu":11377,"rann":11378,"ĠUsain":11379,"edic":11380,"Ġcabin":11381,"agon":11382,"agra":11383,"ĠXa":11384,"ĠXuyÃªn":11385,"tone":11386,"abe":11387,"abbal":11388,"abasca":11389,"ĠAlley":11390,"aka":11391,"akshmi":11392,"avin":11393,"aver":11394,"Äĳá»«ng":11395,"ocaust":11396,"tec":11397,"iller":11398,"illia":11399,"Ġxá»ĭ":11400,"Doanh":11401,"Ġ1850":11402,"Hoa":11403,"HoÃł":11404,"try":11405,"trÆ°á»Ľc":11406,"trand":11407,"ika":11408,"ikh":11409,"ĠoÃ¡i":11410,"Ġozone":11411,"Ġfu":11412,"Ġfiss":11413,"ĠMarie":11414,"ĠMarcus":11415,"ĠMartha":11416,"ĠMarilyn":11417,"ullinger":11418,"ĠtrÃ¬u":11419,"Ġbá»ģnh":11420,"ĠChá»©ng":11421,"ĠChá»įn":11422,"Ġhipp":11423,"Ġhá»ķn":11424,"laes":11425,"ental":11426,"ĠtÃ´t":11427,"ude":11428,"ĠAnat":11429,"ĠQuÃªn":11430,"ĠQuix":11431,"ĠConst":11432,"ĠTá»·":11433,"ĠcÃºn":11434,"esta":11435,"head":11436,"ĠBrin":11437,"ĠBren":11438,"ĠZero":11439,"ĠZurich":11440,"ĠZabbal":11441,"ĠZullinger":11442,"awton":11443,"ego":11444,"egeren":11445,"ĠIsabel":11446,"ĠShel":11447,"ĠSheryl":11448,"Ġdá»ĭnh":11449,"ĠADHD":11450,"ucc":11451,"ĠVá»ĩ":11452,"ĠtÃ¡p":11453,"ĠCarroÃ§a":11454,"Ġ2016":11455,"Ã´mÃ©t":11456,"odesk":11457,"ĠCalcut":11458,"ĠGiá»¯":11459,"ĠAmanda":11460,"ĠHarold":11461,"ĠHarriet":11462,"ĠbÃ³i":11463,"arkoz":11464,"enne":11465,"ghar":11466,"Ġ50000":11467,"ĠScrab":11468,"Ġ240":11469,"ĠnhÃ¡c":11470,"ĠToáº£":11471,"ĠBraxin":11472,"ĠBragg":11473,"há»ĩn":11474,"stock":11475,"ĠCháº£":11476,"ĠCháº¥m":11477,"amburg":11478,"undi":11479,"Cá»¥m":11480,"Ġ30000":11481,"ĠRobbie":11482,"athai":11483,"ĠHyper":11484,"ramento":11485,"ĠPholeros":11486,"Ġcarb":11487,"ĠcarroÃ§a":11488,"ĠBerry":11489,"ĠBergen":11490,"ĠPalo":11491,"ĠTahi":11492,"ĠSpeed":11493,"Ġ1967":11494,"ĠMoon":11495,"2010":11496,"2011":11497,"ĠBlak":11498,"ĠBlanc":11499,"ĠBarn":11500,"ĠBose":11501,"ĠEddy":11502,"ugger":11503,"ĠBehar":11504,"ĠBennett":11505,"arez":11506,"anderson":11507,"ĠTEDxS":11508,"Ġaah":11509,"illion":11510,"ĠHá»¯u":11511,"ĠCrick":11512,"oker":11513,"aptree":11514,"ĠReed":11515,"ĠReader":11516,"ĠmicrÃ´":11517,"ĠAngela":11518,"ĠEllen":11519,"ĠElias":11520,"ĠKhiáº¿n":11521,"ĠKhadija":11522,"ephal":11523,"ĠKhÃ¡ng":11524,"ĠAtten":11525,"ĠPrick":11526,"ĠAndre":11527,"ĠDereck":11528,"ĠDerartu":11529,"Nhá»ĭp":11530,"Phá»ķi":11531,"ĠTalks":11532,"ĠFrankenstein":11533,"ishman":11534,"ĠMali":11535,"ĠAppalach":11536,"ĠOrwell":11537,"ĠTorvalds":11538,"ĠWebb":11539,"ĠWebster":11540,"Ġcá»įp":11541,"ĠLegadema":11542,"Ann":11543,"ourne":11544,"ĠManchester":11545,"ĠMadison":11546,"ĠGreene":11547,"jahi":11548,"SDA":11549,"ĠSeng":11550,"ĠSydney":11551,"ĠWalt":11552,"ĠWalter":11553,"ĠcentimÃ©t":11554,"ĠMeegeren":11555,"ĠAdventist":11556,"ĠcuÃ´c":11557,"othar":11558,"ĠEnri":11559,"ĠMontreal":11560,"ĠAcc":11561,"ĠAct":11562,"ĠAction":11563,"ĠAcumen":11564,"ĠSwaptree":11565,"ĠJonny":11566,"Marc":11567,"ĠFlorence":11568,"intosh":11569,"ĠBurma":11570,"Ġ1954":11571,"ĠStarck":11572,"ĠMacintosh":11573,"ĠKhá»ķng":11574,"ĠKarmapa":11575,"ĠWarcraft":11576,"luid":11577,"lulo":11578,"Ġtango":11579,"ĠSuz":11580,"ĠSughar":11581,"Ġamen":11582,"Ġammonia":11583,"ĠTuynis":11584,"ĠMahab":11585,"ĠNeanderthals":11586,"Steven":11587,"mons":11588,"ĠPatrick":11589,"2008":11590,"emple":11591,"ĠBolte":11592,"ĠTurbo":11593,"ĠHercul":11594,"ĠForer":11595,"garia":11596,"ĠMoskowitz":11597,"ĠMello":11598,"ĠSally":11599,"ĠSalinas":11600,"ĠOslo":11601,"Shbab":11602,"ĠSomali":11603,"ĠEveryw":11604,"Ġmiles":11605,"ĠkilÃ´mÃ©t":11606,"ĠTamil":11607,"ĠValent":11608,"ĠSteward":11609,"Joel":11610,"eats":11611,"ĠPopcorn":11612,"ĠFerr":11613,"ĠFergus":11614,"pire":11615,"ĠMaggie":11616,"ĠSandberg":11617,"Há»ıi":11618,"ĠBieber":11619,"ĠHany":11620,"Stew":11621,"ĠHuang":11622,"ĠHugh":11623,"ĠDisneyland":11624,"ĠTelescope":11625,"ĠMason":11626,"ĠDracorex":11627,"ĠGeorges":11628,"ĠiPods":11629,"Ġmuá»ĵi":11630,"ĠBirds":11631,"Ġ1938":11632,"ĠPrius":11633,"ĠMaui":11634,"ĠSunni":11635,"ĠSunitha":11636,"ĠGhrai":11637,"ĠDublin":11638,"Ġ1926":11639,"Ġ1929":11640,"haas":11641,"ĠKhÃ³":11642,"ĠKamkw":11643,"ĠGranny":11644,"ĠHolocaust":11645,"Ġoxit":11646,"ĠBernard":11647,"ĠBerners":11648,"ĠGrove":11649,"ĠDouglas":11650,"ĠInterval":11651,"ĠInternational":11652,"brot":11653,"ycephal":11654,"Ġboong":11655,"Ġchá»Ļi":11656,"ĠKurzweil":11657,"ĠRadio":11658,"ĠRidley":11659,"ĠUrugu":11660,"Sá»£":11661,"ĠNicol":11662,"ĠNicolas":11663,"ĠAngola":11664,"ĠAshdown":11665,"ĠMcKay":11666,"ĠCuritiba":11667,"ĠMÃªhicÃ´":11668,"ĠPierson":11669,"ĠUNICEF":11670,"oulli":11671,"ĠKlee":11672,"ĠEcosia":11673,"ĠAlbania":11674,"Ġhormone":11675,"cháº³ng":11676,"Ġterroir":11677,"ĠMedic":11678,"ĠHasan":11679,"ĠPuerto":11680,"ĠDARwln":11681,"ĠmÃŃa":11682,"ĠToby":11683,"ĠBoeing":11684,"ĠGrier":11685,"ĠFeder":11686,"Ġmeme":11687,"ĠParticip":11688,"ĠKermit":11689,"ĠDaily":11690,"ĠDunlap":11691,"ĠRiver":11692,"ĠRives":11693,"ĠWinky":11694,"ĠCarrillo":11695,"laug":11696,"ĠHazleton":11697,"ĠHutu":11698,"ĠPanama":11699,"Caroline":11700,"ĠMohammed":11701,"Bonnie":11702,"vetson":11703,"Ġcocaine":11704,"ĠMeggendorfer":11705,"ĠMullins":11706,"ĠKaspar":11707,"ĠKinsey":11708,"ĠKinshasa":11709,"ĠRebecca":11710,"ĠRuby":11711,"Ġsulfur":11712,"Ġ1879":11713,"ĠClarke":11714,"chÃŃnh":11715,"Ġbeatbox":11716,"ĠBartok":11717,"ĠBalkans":11718,"amsala":11719,"ĠPachycephal":11720,"ĠKirk":11721,"ĠRabin":11722,"ĠFuller":11723,"ĠChurchill":11724,"ĠShephelah":11725,"ĠKendall":11726,"ĠBluet":11727,"ĠReuters":11728,"ĠBurns":11729,"Darwin":11730,"Ġmodem":11731,"ĠhoocmÃ´n":11732,"ĠCornell":11733,"ĠBacon":11734,"ĠBulgaria":11735,"ĠAutodesk":11736,"ĠPranav":11737,"ĠKobe":11738,"ĠGallup":11739,"ĠDepp":11740,"ĠBrenda":11741,"ĠMichoacÃ¡n":11742,"ĠCloudburst":11743,"Derek":11744,"ĠnuÃ´ng":11745,"Ġnickname":11746,"Ġhecta":11747,"ĠGrameen":11748,"Ġupload":11749,"ĠShackleton":11750,"ĠMeadow":11751,"ĠBitcoin":11752,"áº¤y":11753,"Ġnapot":11754,"ĠhÆ¡p":11755,"Ġkhuá»·u":11756,"ĠTNCs":11757,"ĠMorgana":11758,"ĠPaolo":11759,"ĠDakota":11760,"ĠDharamsala":11761,"ĠRajasthan":11762,"ĠViagra":11763,"ĠEngelbart":11764,"ĠOldenburg":11765,"ĠChandler":11766,"ĠCollege":11767,"ĠCousteau":11768,"ĠVermeer":11769,"ĠBionicle":11770,"Brazil":11771,"Susan":11772,"Secret":11773,"Ġlithium":11774,"Ġmonkey":11775,"ĠNokia":11776,"ĠAusten":11777,"ĠSesame":11778,"ĠSacramento":11779,"ĠKoolhaas":11780,"ĠJurvetson":11781,"ĠWagner":11782,"ĠWofford":11783,"ĠhuÃ½ch":11784,"ĠArnold":11785,"Ġimpact":11786,"minster":11787,"Ġnucle":11788,"Ġchannelr":11789,"changing":11790,"Ġcontainer":11791,"ĠMilliken":11792,"ĠMaidan":11793,"ĠBorane":11794,"ĠBatiuk":11795,"errofluid":11796,"ĠSvalbard":11797,"ĠKindle":11798,"ĠLazarus":11799,"ĠWounded":11800,"ĠYunus":11801,"Ġfission":11802,"ĠQuixote":11803,"ĠZabbaleen":11804,"ĠCalcutta":11805,"arkozy":11806,"ĠScrabble":11807,"ĠAttenborough":11808,"ĠTuynisi":11809,"ĠEverywhere":11810,"ĠFerguson":11811,"ĠGhraib":11812,"ĠUruguay":11813,"ĠKasparov":11814,"03":11815,"28":11816,"250":11817,"47":11818,"53":11819,"55":11820,"57":11821,"68":11822,"72":11823,"77":11824,"85":11825,"96":11826,"AW":11827,"Av":11828,"Aaron":11829,"Bi":11830,"Bot":11831,"BÃ¡n":11832,"Biá»ĥn":11833,"BÃ£i":11834,"Bern":11835,"BÃ¹m":11836,"Beat":11837,"Beverly":11838,"Co":11839,"CSE":11840,"DH":11841,"Dam":11842,"Deb":11843,"Dáº¡ng":11844,"Dá»įc":11845,"DAR":11846,"Dave":11847,"Dennis":11848,"EP":11849,"En":11850,"GhÃ":11851,"GÃ³c":11852,"Gá»Ńi":11853,"Greg":11854,"Gá»ĵm":11855,"HÆ°Æ¡ng":11856,"Hiáº¿m":11857,"IM":11858,"IP":11859,"JU":11860,"Jar":11861,"Ko":11862,"KÄ©":11863,"KÃ©o":11864,"LG":11865,"LP":11866,"Li":11867,"LÃ¢u":11868,"Leo":11869,"LÃ¡i":11870,"LáºŃp":11871,"LÄ©nh":11872,"Láº¡y":11873,"MÃ¢y":11874,"Muá»ĳn":11875,"MÃły":11876,"Mor":11877,"Mua":11878,"Mad":11879,"MÃ£i":11880,"Muá»Ĺi":11881,"NY":11882,"Nan":11883,"Náº±m":11884,"Nick":11885,"Nicholas":11886,"Oxy":11887,"PO":11888,"Pau":11889,"Quyáº¿t":11890,"Rá»":11891,"RáºŃp":11892,"Ryan":11893,"Radio":11894,"SJ":11895,"SÃ¢u":11896,"SÃ¢n":11897,"SÃ¡n":11898,"Sun":11899,"Stan":11900,"Suz":11901,"TG":11902,"TP":11903,"TÃ¹":11904,"Tes":11905,"Tuyáº¿n":11906,"Tiá»ģm":11907,"Tá»±a":11908,"Tiáº¿c":11909,"US":11910,"Uá»·":11911,"USC":11912,"VC":11913,"Van":11914,"ViÃªn":11915,"Von":11916,"Vua":11917,"Vik":11918,"VÃĮ":11919,"Wide":11920,"XuyÃªn":11921,"YB":11922,"Ze":11923,"ahi":11924,"bÃł":11925,"báº¯t":11926,"bÄĥng":11927,"bine":11928,"bek":11929,"borg":11930,"bright":11931,"bourne":11932,"cÆ°á»Ŀi":11933,"cÃ´ng":11934,"cav":11935,"cester":11936,"cover":11937,"dÃ¹ng":11938,"dul":11939,"duc":11940,"eid":11941,"fl":11942,"found":11943,"gá»įi":11944,"gim":11945,"get":11946,"gow":11947,"gio":11948,"hl":11949,"hÃłng":11950,"hall":11951,"ius":11952,"jaim":11953,"ki":11954,"kj":11955,"kháº":11956,"káº¿t":11957,"kman":11958,"lá»":11959,"lanh":11960,"láº§n":11961,"lÃºc":11962,"lim":11963,"ltan":11964,"ml":11965,"mal":11966,"mes":11967,"mel":11968,"mand":11969,"main":11970,"mund":11971,"mwood":11972,"mouth":11973,"nhÃ":11974,"nÆ¡":11975,"nee":11976,"nload":11977,"pl":11978,"pm":11979,"po":11980,"py":11981,"pon":11982,"pho":11983,"plex":11984,"pont":11985,"rom":11986,"rate":11987,"sore":11988,"tÃªn":11989,"tÆ¡":11990,"tai":11991,"tÆ°Æ¡ng":11992,"tuyá»ĩt":11993,"tuá»ĳt":11994,"tiáº¿p":11995,"top":11996,"tiáº¿ng":11997,"talk":11998,"uff":11999,"váº¥n":12000,"vre":12001,"wo":12002,"wart":12003,"ware":12004,"yad":12005,"zi":12006,"zu":12007,"zbek":12008,"¡o":12009,"£ng":12010,"ÄĤn":12011,"ĠÍ":12012,"Ġuá»":12013,"Ġat":12014,"Ġus":12015,"Ġur":12016,"Ġik":12017,"Ġall":12018,"Ġapp":12019,"ĠÌ£":12020,"á»ĭ":12021,"á»§a":12022,"Ġtáº¡t":12023,"nge":12024,"ngÆ°á»£c":12025,"ngal":12026,"Ġcá»Ļc":12027,"ĠcÃºp":12028,"Ġcuá»ĳng":12029,"Ġcáº¡c":12030,"Ġcuá»ĵn":12031,"Ġcol":12032,"Ġcáº§y":12033,"Ġcard":12034,"Ġcá»Ļm":12035,"ĠÄĳÃ´n":12036,"ĠÄĳÃºp":12037,"ĠÄĳuá»ĳc":12038,"ĠÄĳÃłu":12039,"ĠnÃª":12040,"Ġnong":12041,"Ġnot":12042,"Ġnanh":12043,"Ġnic":12044,"há»įc":12045,"hÃ´m":12046,"ĠvÃ¨":12047,"Ġvac":12048,"ĠvÃºt":12049,"Ġváº§ng":12050,"ĠvÃ¢t":12051,"ĠlÃ¡c":12052,"ĠlÆ¡i":12053,"ĠlÃºp":12054,"Ġliáº¿m":12055,"Ġliá»ģm":12056,"ĠlÃºt":12057,"Ġlist":12058,"Ġláº©m":12059,"Ġlike":12060,"Ġlbs":12061,"Ġmo":12062,"Ġmáº§y":12063,"ĠmÃºi":12064,"Ġmá»ĳng":12065,"ĠmÄĥt":12066,"Ġbr":12067,"ĠbáºŃp":12068,"Ġbáº¹":12069,"ĠbÃºng":12070,"Ġbig":12071,"Ġbow":12072,"Ġbut":12073,"Ġbye":12074,"Ġkung":12075,"nham":12076,"ĠsÃ³":12077,"Ġsáº¡o":12078,"Ġsap":12079,"ĠsiÃªng":12080,"Ġsmart":12081,"Ġtrit":12082,"Ġngai":12083,"Ġgháº":12084,"ĠgÃ²n":12085,"ĠgÆ°á»£ng":12086,"Ġgal":12087,"Ġgoro":12088,"Ġhinh":12089,"Ġhigh":12090,"Ġthá»ĩ":12091,"Ġthá»įc":12092,"ĠrÃ´i":12093,"Ġran":12094,"ĠrÃ¡m":12095,"Ġrou":12096,"Ġrip":12097,"ĠrÃŃt":12098,"Ġread":12099,"Ġpanh":12100,"Ġpic":12101,"Ġplay":12102,"Ġpoker":12103,"Ġppm":12104,"ĠdÃł":12105,"Ġdáº¿n":12106,"Ġdiá»ĥn":12107,"Ġdáº§y":12108,"Ġdata":12109,"Ġduá»ĩ":12110,"Ġnhiá»ĩn":12111,"Ġnhiáº¿m":12112,"Ġnhuá»µ":12113,"Ġcá»Ł":12114,"ĠchÃłi":12115,"Ġcheck":12116,"ĠcÃ¡ng":12117,"Ġthinh":12118,"Ġthink":12119,"Ġthali":12120,"Ġnhá»£":12121,"Ġhá»Ŀ":12122,"Ġhá»ķi":12123,"Ġhá»¡i":12124,"Ġquá»Ł":12125,"Ġquáº¯t":12126,"Ġquáº§ng":12127,"Ġgig":12128,"Ġgiáº§u":12129,"Ġxy":12130,"ĠxÆ¡i":12131,"ĠxÆ°ng":12132,"Ġxáº¡c":12133,"ĠkhÆ°":12134,"uyn":12135,"ĠthÃ£i":12136,"ĠthÃ³c":12137,"otic":12138,"ĠpháºŃp":12139,"ĠnghÃłnh":12140,"Ġnghiá»ħm":12141,"Ġchoi":12142,"anine":12143,"Ġsá»±c":12144,"Ġgiá»Ľ":12145,"cht":12146,"chai":12147,"angi":12148,"angel":12149,"ĠphÃŃt":12150,"ĠÄĳá»ĥu":12151,"ÃŃc":12152,"ĠTÃ¹":12153,"ĠTao":12154,"ĠTÆ°á»£ng":12155,"ĠTáº·c":12156,"ĠTÆ°á»Ľng":12157,"ĠTib":12158,"ĠTake":12159,"ĠTable":12160,"ĠTechn":12161,"ĠTá»ĵn":12162,"ĠTibb":12163,"Ġlá»¯a":12164,"Ġhom":12165,"onim":12166,"ĠkhiÃªng":12167,"Ġdá»ģ":12168,"aise":12169,"Ġcháº¯p":12170,"ĠchÃ¨":12171,"ĠhÃ©c":12172,"ĠhÃ²ng":12173,"ĠhÃ£o":12174,"ÄĲÃ´ng":12175,"ÄĲiÃªn":12176,"ÄĲáº±ng":12177,"ÄĲáº£ng":12178,"ÄĲom":12179,"ÄĲÃ¡p":12180,"Ã²m":12181,"Ġmá»§":12182,"Ġmá»Ńa":12183,"Ġná»ĩ":12184,"ĠCÆ¡n":12185,"ĠCÃºc":12186,"ĠCel":12187,"ĠCáº§m":12188,"ĠCis":12189,"ĠCac":12190,"ĠCad":12191,"ĠCob":12192,"ĠCup":12193,"ĠCour":12194,"ĠCSI":12195,"ĠClaes":12196,"ĠÄĳich":12197,"Ġbá»ĭu":12198,"Ġtoáº¡i":12199,"Ġtomor":12200,"ĠMR":12201,"ĠMS":12202,"ĠMr":12203,"ĠMong":12204,"ĠMáº¡i":12205,"ĠMÃ´n":12206,"ĠMiá»ħn":12207,"ĠMáºŃt":12208,"ĠMÃ³n":12209,"ĠMut":12210,"ĠMain":12211,"ĠMiz":12212,"ĠMash":12213,"ĠMmm":12214,"ĠMecca":12215,"ĠMiguel":12216,"emite":12217,"emens":12218,"hip":12219,"Ġtrá»ĩt":12220,"Ġtrá»Ľn":12221,"ĠNY":12222,"ĠNot":12223,"ĠNiÃªn":12224,"ĠNit":12225,"ĠNÃ¨":12226,"ĠNeb":12227,"ĠNuÃ´i":12228,"ĠNak":12229,"ĠNir":12230,"ĠNina":12231,"ĠNation":12232,"ĠNatur":12233,"ĠNFL":12234,"ĠNhá»ĩn":12235,"ĠBou":12236,"ĠBib":12237,"ĠBaz":12238,"ĠBest":12239,"ĠBenn":12240,"ĠBann":12241,"ĠBike":12242,"ĠBorg":12243,"ĠBuck":12244,"ĠBumb":12245,"ĠBoot":12246,"Ġloi":12247,"ĠloÃ£":12248,"Ġloai":12249,"Ġlocav":12250,"erd":12251,"erv":12252,"eric":12253,"erman":12254,"eridge":12255,"uá»Ĺng":12256,"ĠHÆ°á»Ľng":12257,"ĠHex":12258,"ĠHorn":12259,"ĠHij":12260,"ĠHardy":12261,"ĠHacker":12262,"ĠHamburg":12263,"Ã©li":12264,"amela":12265,"Ġ230":12266,"ĠÄĲÃ¡c":12267,"ĠÄĲáº·ng":12268,"ĠÄĲÃ¡m":12269,"enbach":12270,"ĠAB":12271,"ĠAx":12272,"ĠAra":12273,"ĠAid":12274,"ĠAah":12275,"ĠAber":12276,"ĠAudio":12277,"Ġkhá»ĵng":12278,"ĠST":12279,"ĠSÃ´":12280,"ĠSang":12281,"ĠSÃºng":12282,"ĠSit":12283,"ĠSÃ¡t":12284,"ĠSeb":12285,"ĠSid":12286,"ĠSek":12287,"ĠSox":12288,"ĠSAM":12289,"ĠSave":12290,"ĠSax":12291,"ĠSatur":12292,"ĠSagan":12293,"ĠSzy":12294,"ĠSugata":12295,"ĠSquare":12296,"ĠSarkozy":12297,"Ġkháº¡o":12298,"iath":12299,"aran":12300,"aroo":12301,"arsh":12302,"Ġyao":12303,"Ġyard":12304,"Ġyáº¿m":12305,"ĠphÆ°á»Ŀng":12306,"Ġphung":12307,"Ġphos":12308,"Ġphotoshop":12309,"Ġmáº¡t":12310,"ĠPH":12311,"ĠPa":12312,"ĠPhÃº":12313,"ĠPle":12314,"ĠPand":12315,"ĠPed":12316,"ĠPack":12317,"ĠPall":12318,"ĠPatt":12319,"ĠPass":12320,"ĠPRI":12321,"ĠPollo":12322,"ĠPunk":12323,"ĠPAC":12324,"ĠPBS":12325,"ĠPimp":12326,"ĠPunta":12327,"ĠKÄ©":12328,"ĠKiá»ĥu":12329,"ĠKia":12330,"ĠKun":12331,"ĠKaz":12332,"ĠKick":12333,"ĠKite":12334,"ĠKare":12335,"ĠLM":12336,"ĠLÃª":12337,"ĠLÃªn":12338,"ĠLáº§u":12339,"ĠLao":12340,"ĠLÃ©":12341,"ĠLÃ£o":12342,"ĠLáº¡c":12343,"ĠLet":12344,"ĠLah":12345,"ĠLord":12346,"ĠLenn":12347,"ĠLog":12348,"ĠLink":12349,"ĠLunch":12350,"ĠLoren":12351,"ĠLGB":12352,"ĠLicklider":12353,"ĠLotto":12354,"ĠLittle":12355,"Ġá»¦":12356,"Ġá»ĭ":12357,"Ġá»Ľn":12358,"Ġngá»Ĺ":12359,"Ġngá»¥m":12360,"ĠGam":12361,"ĠGag":12362,"ĠGart":12363,"ĠGoran":12364,"ĠGlobal":12365,"ĠGensp":12366,"ĠGNH":12367,"Ġ330":12368,"Ġngoáº±n":12369,"ĠTreo":12370,"ĠTril":12371,"ĠTree":12372,"ĠTrá»įng":12373,"ĠTreat":12374,"Ġxun":12375,"ĠDB":12376,"ĠDE":12377,"ĠDh":12378,"ĠDÆ°á»£c":12379,"ĠDÆ°á»Ŀng":12380,"ĠDÃ£y":12381,"ĠDiÃªm":12382,"ĠDah":12383,"ĠDana":12384,"ĠData":12385,"ĠDiff":12386,"ĠDáº¡y":12387,"orp":12388,"Tráº§n":12389,"TrÃŃch":12390,"alt":12391,"alat":12392,"ĠÃ¡ch":12393,"ime":12394,"esley":12395,"esca":12396,"Ġkháº£m":12397,"osa":12398,"ĠRang":12399,"ĠRen":12400,"ĠRol":12401,"ĠRus":12402,"ĠRáº±m":12403,"ĠRÆ°á»£u":12404,"ĠRico":12405,"ĠRup":12406,"ĠRice":12407,"ĠRemen":12408,"ĠRCA":12409,"ĠRita":12410,"ĠRhod":12411,"ĠRift":12412,"ĠbÃ©t":12413,"etor":12414,"etter":12415,"etri":12416,"Nguy":12417,"Nghá»ģ":12418,"ĠkhuÃ¢n":12419,"ĠID":12420,"ĠIT":12421,"ĠISA":12422,"ĠIphone":12423,"ĠIdol":12424,"Tháº£m":12425,"Ġ51":12426,"Ġsolo":12427,"ĠVon":12428,"ĠVá»±c":12429,"ĠVit":12430,"ĠVani":12431,"ĠkÃŃt":12432,"ision":12433,"ismet":12434,"ĠmÃ´tÃ´":12435,"icini":12436,"ĠJal":12437,"ĠJak":12438,"ĠJPL":12439,"Ġdich":12440,"itus":12441,"olan":12442,"olic":12443,"oloch":12444,"ĠWit":12445,"ĠWho":12446,"ĠWid":12447,"ĠWord":12448,"ĠWuj":12449,"ĠFE":12450,"ĠFan":12451,"ĠFam":12452,"ĠFlin":12453,"ĠFide":12454,"ĠFinn":12455,"ĠFabian":12456,"ĠEG":12457,"ĠEg":12458,"ĠEp":12459,"ĠEy":12460,"ĠEco":12461,"ĠEst":12462,"ĠEPA":12463,"ĠElyn":12464,"Ġ102":12465,"Ġ105":12466,"ĠdÃ¹i":12467,"Ġ1919":12468,"lebee":12469,"hou":12470,"ĠNgá»¯":12471,"Ġtuá»ĵi":12472,"Ġtulip":12473,"Ġvun":12474,"usta":12475,"acama":12476,"hÃ¡y":12477,"oming":12478,"adah":12479,"Ġvá»ĩc":12480,"ĠThÆ¡":12481,"ĠThaler":12482,"ĠOt":12483,"ĠOff":12484,"ĠOMG":12485,"ĠOmmm":12486,"oby":12487,"uru":12488,"ĠChao":12489,"ĠChung":12490,"ĠChem":12491,"ĠChek":12492,"ĠYR":12493,"ĠYor":12494,"ĠYour":12495,"ĠmÃ¹n":12496,"ĠHog":12497,"ĠHood":12498,"ebe":12499,"Ġáºµm":12500,"Ġ911":12501,"ĠchÃ¡c":12502,"ĠlÃŃp":12503,"ÄĲá»ķi":12504,"Ġghita":12505,"Ġgá»Ŀ":12506,"Thiá»ĩt":12507,"Thuyá»ģn":12508,"Thiáº¿u":12509,"ĠhÃ¡m":12510,"rip":12511,"rix":12512,"riam":12513,"rika":12514,"unner":12515,"Ġanalog":12516,"rod":12517,"ĠÄĲá»ķi":12518,"Chung":12519,"Ġ100000":12520,"ĠSte":12521,"ĠStalin":12522,"ĠStrat":12523,"Ġ156":12524,"Ġ15000":12525,"ophis":12526,"ĠUl":12527,"ĠUSC":12528,"ĠUzbek":12529,"Ġgeneric":12530,"agall":12531,"Ġthich":12532,"ĠcÆ°Ãº":12533,"ĠXo":12534,"ĠXML":12535,"loud":12536,"Ġ12000":12537,"ablan":12538,"ĠAless":12539,"ĠAllan":12540,"ĠAlto":12541,"ĠThá»ĭt":12542,"akis":12543,"akka":12544,"aven":12545,"avicini":12546,"Äĳa":12547,"Äĳang":12548,"Äĳá»Ļng":12549,"Äĳun":12550,"Äĳá»ĵng":12551,"ocure":12552,"ĠNhi":12553,"hanie":12554,"ĠGib":12555,"ĠGiáº£m":12556,"ĠGirl":12557,"illus":12558,"Ġ1890":12559,"ĠsÆ¡m":12560,"iks":12561,"owatt":12562,"owski":12563,"Ġoanh":12564,"Ġoai":12565,"ĠoÃ¡t":12566,"Ġfus":12567,"Ġfacebook":12568,"Ġfear":12569,"Ġfax":12570,"Ġferrofluid":12571,"ĠMarin":12572,"ĠMarrow":12573,"Qui":12574,"Quáº£ng":12575,"Ġduplex":12576,"ĠChá»©":12577,"ĠChá»īnh":12578,"ĠChá»ĵng":12579,"ubs":12580,"lying":12581,"lawa":12582,"entin":12583,"ĠThÃ¡ch":12584,"ianne":12585,"Pháº¥n":12586,"irut":12587,"ious":12588,"icket":12589,"ĠAnim":12590,"ĠAnnie":12591,"ĠQuÃ¡c":12592,"ĠConc":12593,"ĠConan":12594,"ĠControl":12595,"ĠTá»©":12596,"ĠTá»Ŀ":12597,"ĠTá»Ľi":12598,"ival":12599,"arta":12600,"ĠBruss":12601,"ĠBruno":12602,"ĠAria":12603,"ĠArmen":12604,"ĠArcher":12605,"ĠZig":12606,"ĠZuck":12607,"uá»µt":12608,"awat":12609,"eca":12610,"ecom":12611,"egrove":12612,"ĠShap":12613,"ĠCarson":12614,"ĠCarib":12615,"ĠCaribb":12616,"Ġbioph":12617,"ĠEmpire":12618,"Bá»ģ":12619,"iper":12620,"yler":12621,"Ġ03":12622,"Ġ09":12623,"ĠKenyan":12624,"Ġ175":12625,"Ġ178":12626,"ĠAmjad":12627,"ĠÃģc":12628,"ĠHaring":12629,"achim":12630,"ĠCannes":12631,"ĠDool":12632,"ĠChip":12633,"ĠChilÃª":12634,"ĠToxo":12635,"ĠToonchi":12636,"station":12637,"maer":12638,"ĠTwo":12639,"ĠTwain":12640,"ppam":12641,"assel":12642,"oglob":12643,"ĠMcAf":12644,"bergh":12645,"ĠRobin":12646,"ĠHydro":12647,"ĠPhiáº¿n":12648,"Ġcaramen":12649,"ĠBerg":12650,"ĠBerkley":12651,"ricia":12652,"Ġtá»§a":12653,"ĠTaj":12654,"ĠMons":12655,"ĠMoney":12656,"ĠMonica":12657,"ĠMonkey":12658,"ĠSpec":12659,"Ġ1964":12660,"Ġ1966":12661,"ĠLear":12662,"ĠLead":12663,"ĠLeague":12664,"ĠLehman":12665,"ĠBanjo":12666,"ĠNiger":12667,"ĠTháº¥t":12668,"ĠParavicini":12669,"ĠJonh":12670,"ĠBosch":12671,"aniyama":12672,"deric":12673,"Ġjump":12674,"ĠAbb":12675,"ĠAbdul":12676,"ĠEden":12677,"ugg":12678,"ugo":12679,"ĠBear":12680,"ĠBeijerinck":12681,"ĠSmart":12682,"ĠSmall":12683,"ĠMá»©c":12684,"ĠBene":12685,"ĠBenedic":12686,"Emily":12687,"ĠTEDxR":12688,"ĠTEDxT":12689,"ĠChoir":12690,"ĠBrohi":12691,"Ġcool":12692,"ĠLaf":12693,"ĠScha":12694,"ĠCrimer":12695,"ckx":12696,"Ġdefri":12697,"aptist":12698,"ĠMaathai":12699,"ĠReich":12700,"Ġthá»ķng":12701,"ĠEll":12702,"ĠNATO":12703,"ĠAtacama":12704,"ĠPretor":12705,"Ġ1941":12706,"nerability":12707,"ĠTommy":12708,"ĠTombo":12709,"ĠNghiá»ĩm":12710,"ĠRomeo":12711,"ĠCamero":12712,"ĠCamden":12713,"ĠFrederick":12714,"ĠGray":12715,"roponte":12716,"Nháº¥t":12717,"ĠMaddie":12718,"ĠWorcester":12719,"ĠWormwood":12720,"ThÃ¡i":12721,"ĠSears":12722,"ĠWalters":12723,"ĠMarket":12724,"Dá»¥ng":12725,"ĠAdria":12726,"ĠEnsler":12727,"Albert":12728,"ĠGalen":12729,"ĠJackie":12730,"carbon":12731,"ĠJeanny":12732,"ĠChristakis":12733,"ĠBabble":12734,"Ġ1952":12735,"Ġ1956":12736,"Ġ1958":12737,"Ġ1959":12738,"ĠTheodore":12739,"chá»©":12740,"ĠMySp":12741,"ĠMycop":12742,"ĠMyesha":12743,"ĠKarol":12744,"ĠDá»¯":12745,"gerald":12746,"ĠAhn":12747,"ĠCAO":12748,"ĠBueller":12749,"ĠSufi":12750,"tenberg":12751,"eople":12752,"eroin":12753,"arius":12754,"venia":12755,"ĠlÃªnh":12756,"ĠApophis":12757,"ĠPatton":12758,"ĠVirtu":12759,"ĠUnited":12760,"ĠMujahi":12761,"ĠRockwell":12762,"rogram":12763,"ĠTurin":12764,"ĠMormon":12765,"ĠHerz":12766,"ĠHerbie":12767,"ĠSiemens":12768,"Ġxenlulo":12769,"ĠMilk":12770,"ĠMilton":12771,"ĠAirbus":12772,"ĠWilk":12773,"Ġneon":12774,"ĠMelbourne":12775,"ĠSalt":12776,"ĠBlackawton":12777,"ĠAvatar":12778,"ĠAvelile":12779,"ĠDiscover":12780,"CCOB":12781,"ĠkilÃ´":12782,"Ġkilowatt":12783,"ĠProv":12784,"ĠProzac":12785,"ĠProduc":12786,"ĠYochai":12787,"Billy":12788,"Ġcalori":12789,"ĠDenver":12790,"giá»ĳng":12791,"ĠMerckx":12792,"ĠMagell":12793,"ĠSandel":12794,"ĠKuiper":12795,"ĠLauren":12796,"ĠLaurel":12797,"ĠGoldman":12798,"ĠGoldstein":12799,"ĠJacobs":12800,"Há»Ĺ":12801,"iji":12802,"ĠÂ©":12803,"ĠÂ¾":12804,"ĠBobby":12805,"ĠHanson":12806,"ĠSkerry":12807,"ĠZimbardo":12808,"ĠLeonard":12809,"ydia":12810,"ĠHamas":12811,"ĠHamilton":12812,"orska":12813,"ĠRandy":12814,"ĠWei":12815,"ĠWeiff":12816,"CAPTCHA":12817,"ĠCasa":12818,"ĠCasablan":12819,"Ġ442":12820,"ĠFargo":12821,"cá»©":12822,"giÃ¡":12823,"ĠMiner":12824,"ThÃŃch":12825,"ĠTeresa":12826,"itty":12827,"PhÃ¡i":12828,"ĠnhÃŃch":12829,"ĠMTV":12830,"ĠGodin":12831,"ĠItalia":12832,"ĠCampbell":12833,"ĠGhonim":12834,"ĠRonson":12835,"ĠWhites":12836,"ĠBasque":12837,"ĠHaas":12838,"ĠPolaroid":12839,"ĠKamal":12840,"alympic":12841,"ĠCopernican":12842,"Benjamin":12843,"iall":12844,"ĠRoyal":12845,"unker":12846,"ĠBernoulli":12847,"Ġgrams":12848,"ĠTahltan":12849,"ĠKháº£o":12850,"Ġ1904":12851,"Andrea":12852,"sworth":12853,"ycin":12854,"ĠMusica":12855,"ĠScrubs":12856,"ĠNicole":12857,"ĠWilly":12858,"ĠMcKean":12859,"anical":12860,"appos":12861,"ĠTiVo":12862,"ĠType":12863,"erbread":12864,"ĠLima":12865,"ĠLimpop":12866,"ĠLovegrove":12867,"ĠGlass":12868,"ĠVolta":12869,"ĠVolvo":12870,"ĠVincent":12871,"ĠFraser":12872,"rigami":12873,"ĠBeatrice":12874,"Amanda":12875,"Camera":12876,"Cameron":12877,"Jonas":12878,"Jimmy":12879,"ĠGitHub":12880,"ĠGoliath":12881,"ĠEsther":12882,"ĠCollusion":12883,"ĠBloomberg":12884,"ĠCommons":12885,"ĠPartners":12886,"ĠPostSecret":12887,"ĠKerala":12888,"ĠJared":12889,"ĠOlson":12890,"ĠAllah":12891,"ĠBradley":12892,"ĠAhmedabad":12893,"Beau":12894,"uhuh":12895,"Ġmegawatt":12896,"ĠMiranda":12897,"ĠImperial":12898,"ĠWyoming":12899,"ĠWislawa":12900,"ĠTEDsters":12901,"Freeman":12902,"Israel":12903,"khoáº£ng":12904,"Ġcocain":12905,"ĠÄĳÄĥc":12906,"ĠÄĳÄĥt":12907,"ĠMobile":12908,"ĠSING":12909,"ĠPilots":12910,"ĠDemocracyOS":12911,"ĠDesign":12912,"ĠRecord":12913,"Ġdioxide":12914,"Ġ250000":12915,"ĠCruise":12916,"mborska":12917,"ĠToday":12918,"ĠCompany":12919,"ĠNGO":12920,"ĠKendal":12921,"ugaad":12922,"ĠReuther":12923,"DER":12924,"Ellen":12925,"ĠedX":12926,"Ġblues":12927,"Ġbluegrass":12928,"Ġhotdog":12929,"ĠAthabasca":12930,"ĠPinot":12931,"ĠJoyce":12932,"ĠFoods":12933,"ĠHeads":12934,"ĠAchilles":12935,"Paris":12936,"presso":12937,"Ġmagie":12938,"Ġbyte":12939,"ĠAssange":12940,"ĠPavlo":12941,"ĠLindbergh":12942,"NghiÃªm":12943,"ĠMechanical":12944,"Gabby":12945,"ĠNapster":12946,"ĠBogota":12947,"ĠHorowitz":12948,"ĠHebrew":12949,"ĠHippocrates":12950,"ĠDewey":12951,"Ġsoundscape":12952,"ĠCheval":12953,"iegel":12954,"Ġjeans":12955,"ĠSchulz":12956,"Ġcalorie":12957,"Kiran":12958,"virus":12959,"Ġkarate":12960,"ĠTonya":12961,"ĠBusiness":12962,"ĠHosni":12963,"ĠHatzalah":12964,"ĠSardinia":12965,"artheid":12966,"ĠPTSD":12967,"ĠLessig":12968,"ĠDallas":12969,"ĠRolls":12970,"ĠIdaho":12971,"ĠVulnerability":12972,"ĠJenkins":12973,"ĠFernand":12974,"ĠUNAIDS":12975,"akhstan":12976,"ĠQueens":12977,"yllis":12978,"ĠBarricelli":12979,"ĠCounty":12980,"ĠGiacometti":12981,"ĠMercedes":12982,"Ġparabol":12983,"ĠYugoslavia":12984,"Neil":12985,"Roger":12986,"Sergey":12987,"Singapore":12988,"Warren":12989,"Ġninja":12990,"Ġbucardo":12991,"ĠCedars":12992,"ĠCronin":12993,"ĠCreative":12994,"ĠCaucasus":12995,"ĠNoujaim":12996,"ĠNegroponte":12997,"ĠHepburn":12998,"ĠSlovenia":12999,"ĠSANCCOB":13000,"Ġdownload":13001,"ĠKevlar":13002,"ĠLamanites":13003,"ĠGleeson":13004,"ĠGlasgow":13005,"ĠDryBath":13006,"aphne":13007,"ĠFitzgerald":13008,"ĠFleming":13009,"ĠThrun":13010,"ĠYosemite":13011,"ĠStygim":13012,"ĠStuds":13013,"ĠHyperCard":13014,"ĠPrickly":13015,"ĠEnriquez":13016,"ĠParticipant":13017,"ĠBluetooth":13018,"Ġchannelrhodops":13019,"Oxytocin":13020,"Tesla":13021,"Ġuranium":13022,"Ġikigai":13023,"Ġnicot":13024,"Ġvacxin":13025,"Ġbowling":13026,"Ġsmartphone":13027,"Ġtritium":13028,"Ġpicnic":13029,"ĠTibet":13030,"ĠTibbits":13031,"Ġtomorrow":13032,"ĠMizzone":13033,"ĠBannister":13034,"ĠBorges":13035,"ĠBumblebee":13036,"Ġlocavore":13037,"ĠSAMS":13038,"ĠSaxe":13039,"ĠSzymborska":13040,"ĠPandora":13041,"ĠPollock":13042,"ĠLGBT":13043,"ĠGenspace":13044,"ĠISAF":13045,"ĠVanier":13046,"ĠWujec":13047,"ĠBrussels":13048,"ĠCaribbean":13049,"oglobin":13050,"ĠMcAfee":13051,"Ġdefriend":13052,"ĠCameroon":13053,"ĠMySpace":13054,"ĠMycoplasma":13055,"ĠVirtual":13056,"ĠWeiffenbach":13057,"ĠCasablanca":13058,"ĠLimpopo":13059,"ĠStygimoloch":13060}