#version: 0.2 - Trained by `huggingface/tokenizers`
á »
á º
Ġ t
n g
Ġ c
Ã ł
Ġ Ä
ĠÄ ĳ
Ġ n
h á»
h Ã
Ġ v
Ġ l
Æ °
Ġ m
Ġ ,
Ġ b
Ã ³
Ġ .
Ġ k
i á»
h áº
Ã ´
Ã ¡
n h
Ġ s
Ġt r
Æ° á»
áº ¡
á» Ļ
Ġ ng
Ġ g
Ġl Ãł
áº ¿
Ã´ i
Ġv Ãł
Ġ h
Ġt há»
áº £
Ã ª
Ġ r
hÃ º
á»Ļ t
Ġ p
Ġ d
ĠÄĳ á»
Ġn h
Ġt Ã´i
q u
Ġc á»
Ġv á»
Ġm á»Ļt
áº ¥
Ġc Ã³
Ġk hÃ
Ġc h
hÃº ng
Ãª n
Ġc Ã¡
Ġt h
Ã ¬
¯ ng
Ġn há»
á» ĳ
iá» ĩ
Ã ¢
Ġ há»
Ŀ i
Æ ¡
Ľ i
Ġnhá» ¯ng
Ġt háº
Ġcá» §
Ġc hÃºng
Ġcá»§ a
´ ng
i áº¿
Ġt á»
áº¡ n
Ġt a
Ã £
ĠcÃ¡ c
Ġn Ãł
Ġ qu
iá» ģ
ĠkhÃ ´ng
Æ°á» £
Ġn Ã³
á» Ł
áº §
o ng
áº Ń
Æ°á» Ŀi
á» ±
Ġg i
ĠÄĳ Ã³
Ġ x
iá»ģ u
Ġng Æ°á»Ŀi
Ġb áº¡n
Ġk h
áº¥ t
áº¡ i
Ġtr ong
Ġthá» ĥ
Æ°á»£ c
u y
ĠnÃł y
ĠÄĳ Ã£
Ġc há»
Ä ĥ
ĠÄĳ Æ°á»£c
Ġt hÃ
Ã¢ y
Ġnh Æ°
Ġhá» į
o t
Ġ &
Ġp háº
Ġvá» Ľi
Ġng h
qu ot
Ġch o
a n
V Ãł
a y
Ġr a
Ġs áº
Ġs á»±
Ġg iá»
Ġm Ãł
ĠlÃł m
c h
Ã´ ng
áº ±
Ġn háº
a ng
Ġp hÃ
Ġ á»Ł
i Ãªn
á» į
áº± ng
ĠÄĳá» ĥ
Ġc áº£
Ġvá» ģ
Ã Ń
Ã¬ nh
Ġsáº ½
Ġb á»
u á»ĳ
iá» ĥ
Æ¡ n
iáº¿ t
£ i
ĠÄĳ iá»ģu
Ä ©
áº ·
Ġtháº ¿
Ġ T
Ġl á»
Ġh o
o n
Æ°á» Ľ
áº¿ n
áº§ u
Ġtá» «
áº ¯
Ãł nh
Ġkh i
© ng
uy á»
a nh
ĠkhÃ ¡
Ã ¹
Ġs á»ĳ
i nh
± c
ĠnÃ³ i
áº§ n
a o
Ġd á»
a i
Ġc háº
© c
iá»ĩ n
Ġc hÃ
Ã º
Ġn Äĥ
ĠÄĳ áº¿n
Ġtháº ¥
Ġ 1
Ġ hÃ
Ġ ?
Ġpháº £i
Ġn hÃ
iá»ĩ c
Æ°á» Ŀ
Æ°á»Ľ c
Ä Ĳ
Ã ²
Ġr áº±ng
ĠvÃł o
Ġg Ã¬
Æ°á»Ŀ ng
ĠÄĳ ang
Ãł n
Ġm á»
Ġv iá»ĩc
a u
Ġl áº¡i
Ġv áºŃ
Ġtháº¥ y
Ġngh Ä©
ĠÄĳ á»Ļ
Ġr áº¥t
ĠcÃ¡c h
Ã ½
i n
Ġh Æ¡n
Ġn á»
áº¥ y
Ġ C
Ġnh iá»ģu
Æ° Æ¡
Ãł i
¢ n
Ġ háº
áº£ n
Ã¹ ng
Ġthá» ±c
iáº¿ n
ĠÄĳ áº§u
T Ã´i
Æ°Æ¡ ng
¥ t
ĠÄĳ Ã¢y
Ġ -
Ġhá»į c
Ġc on
ĠkhÃ¡ c
ķ i
Ã¢ u
á»į i
Ġchá» ī
áº¡ o
Ġs á»
áº¿ u
Ġc Ã´ng
Ġtr Ãªn
á» ĵ
ĠcÃ¡ i
Ã¡ c
ĠnÃł o
Ġb iáº¿t
áº¿ t
Ġv Ã¬
ĠÄĳá» ģ
u ng
ĠchÃ Ń
uyá» ĩ
Ãł ng
Ġp há»
iá»ĩ u
ĠphÃ ¡
N h
ĠnÄĥ m
Å ©ng
Æ¡ i
uá»ĳ n
ĠÄĳ i
Ġthá» ©
Ġdá» ¥
Ġth Ãłnh
á»Ļ c
Ġ :
Ġ- -
áº¯ t
Æ° ng
Ġc Å©ng
Ġnh Ãł
C hÃºng
u á»Ļc
ĳ ng
Ġbá» ĭ
Ġt o
Ġ M
áº »
Ġqu an
Ġkh o
Ġm uá»ĳn
Ġs Ã¡
Ġtháº Ń
e o
e m
Ġnháº Ń
Ġm Ã¬nh
h i
Ġtr á»
¯ a
Ġnháº ¥t
Ġk á»
Nh Æ°ng
Ġ N
Æ°á» Ł
Ġt áº¡o
áº «
Æ°á»Ł ng
Ġ B
ĠÄĳá»Ļ ng
Ġt á»ĳ
Ġgiá» Ľi
ĠchÃŃ nh
ĠnhÆ° ng
Ġl o
Ġn Ãªn
Ġgi áº£
á»Ł i
ĠváºŃ y
áº· t
§ n
ģ n
Ãł y
Ġlá» Ľ
¬ nh
Ãª u
ĠhÃ ¬nh
Æ° a
Ã² n
ı i
iá»ĥ u
Ġh iá»ĩn
Ġt ÃŃ
Ġgiá» Ŀ
Ã¢ n
Ġsá»ĳ ng
uyá»ĩ n
Ġt iáº¿
Ġt áº¡i
ĠnháºŃ n
Ġm á»įi
Ã¡ i
Æ°á»£ ng
áº¥ n
Ġn áº¿u
e r
u á»
Ġ H
¬ n
Ġqu y
Ġc uá»Ļc
Ã ©
Ġc áº§n
ĥ n
a m
Ġh ay
Ã¡ n
Ġtá» ±
áº· c
áºŃ p
u áºŃ
Ġ 2
á»ĵ i
ĠthÃ ¬
Ã¢ m
ĠÄĳá» ĭ
0 0
ĠÄ Ĳ
ĠÄĳá» ĵ
Ġt áº¥t
Ġ Ã´ng
Ġ áº¥y
e n
Ġtá» Ľi
Ġb á»Łi
Ġth eo
Ġb áº¯t
Ġc Ã²n
iá»ĥ m
ĠnhÃ ¬n
Ġlá»Ľ n
Ġ A
ĠÄĳ Ã¡
Ġc Ã¹ng
áº« n
Ġb áº±ng
Ġ Ã½
Ġcáº£ m
iá»ĥ n
Ġt áº¿
Ãº c
Ġdá»¥ ng
Ġcá» ©
Ġl Ãªn
ĠtháºŃ t
Ġs au
Ġgi Ã¡
Ġb áº£n
Ġc Ã¢u
Ġ anh
Ġt in
Ġs ao
Ġqu a
Ġthá» Ŀi
Ġch uyá»ĩn
Ġk há»
Ġtr á»Ł
Ġ S
iá»ĩ m
Ġb á»Ļ
Ã´ n
ĠnhÃ ¢n
Ġng Ãły
Ġc Æ¡
Ġhá» Ļ
Ġs inh
Äĥ n
Ġk háº
ĳ i
Ĺ i
¥ c
ĠthÃ Ń
áº£ ng
áº£ nh
ĠnÄĥ ng
Ġsá» Ń
ĠphÃ¡ t
Ġtr Æ°á»Ľc
Ġn Æ°á»Ľc
i a
ĠÄĳá» ķi
iá»ĩ t
Ġto Ãłn
Ġm Ã¡
Ã¬ m
Ġpháº §n
Ġn Æ¡i
Ġgi a
Ġd o
ĠthÃ ´ng
Ġd á»±
Ġnh au
Ġt Ã¬m
a r
Ġmá» Ľi
Ġth ay
Ġ y
Ġv áº¥n
ĠÄĳá»ĭ nh
Ġhá» ĩ
Ġtr Æ°á»Ŀng
Ġng há»
Ġnh iÃªn
ĠtÃŃ nh
Ġp h
iá» ħ
Ġtr Ã¬nh
Ġm áº¡
Ġtá»ĳ t
Ġt Æ°á»Łng
Ġk áº¿t
Äĥ ng
ĠváºŃ t
Ġl Ã½
Ġh Ãłng
Ġhá» ıi
¿ t
Ġ P
Ġháº ¡
£ p
Ġ K
á»± c
ĠmÃ¡ y
Ġ áº£nh
á»ĳ i
uáºŃ t
ĠT Ã´i
ĠthÃ ¡
Ġhá» £p
Ġ L
áº¡ t
Ġm áº·t
¯ c
N Ã³
Ġh Ãłnh
Ġtiáº¿ p
Ġná» ¯a
Ġk inh
ÄĲ Ã¢y
³ ng
Ġgi an
Ġthá» ©c
Ġhá»Ļ i
Ġtr á»į
Ġvá» ĭ
áºŃ y
Ġth iáº¿t
áº ¹
Ãł o
Ġch iáº¿
áº¥ u
uy Ãªn
Ń a
Ġ á»
Ġx em
Ġl iá»ĩu
Ġr á»ĵi
Ġtrá»į ng
Ġho Ã¡
uá» ķi
ĠthÃŃ ch
Ġc Ã´
áº ©
áº£ o
ĩ nh
ĠÄĳá»ĵ ng
iá»ħ n
Ġgiáº£ i
i Ãªu
Ġtr áº»
Ġl Æ°á»£ng
Ġh ai
ĠÄĳ o
Ġqu Ã¡
Ġ ai
Ġng á»
Ġth Æ°á»Ŀng
Ġb áº¥t
ĠvÃł i
áº ½
ĠÄĳá»ģ u
Ġt iÃªn
Ġ G
ĠÄĳá» ĳi
ĠsÃ¡ ng
á»Ļ ng
Ġtr áº£
Ġh iá»ĥu
Ġt Ã¢m
Ġn ay
ÄĲ Ã³
Ġlo áº¡i
Ġgiá» ĳng
V Ã¬
áº£ y
Ġl áº§n
Ġcá»© u
Ġt hÃº
Ġthá» ĳng
ĭ ch
Ġbá» ĩnh
Ġb ao
B áº¡n
Ġ 3
Ã² ng
Ġv iÃªn
Ãº ng
£ y
Ġnghá» ĩ
iá»ģ n
ĠÄĳ iá»ĥm
hÃº t
Ġng o
ĠnghÄ© a
Ġg á»įi
ĠT r
Ġnhá» ı
V áºŃy
áº ¯ng
ĠÄĳ Æ°a
Ġx u
Ġho Ãłn
Ġt Æ°Æ¡ng
Ġngh iá»ĩm
Ġqu áº£
Ġt Ã¡c
ĠÄĳ Æ°á»Ŀng
Ġ D
uyá» ĥn
o r
Ġv áº«n
uyá»ĩ t
Å ©
Ġcá» ĳ
Äĥ m
Ġx áº£y
T r
uyá» ģn
á»ĳ c
Ġchiáº¿ c
Ġth uáºŃt
M á»Ļt
Ġb iá»ĩt
Ġ ÃŃ
Ġd Ã¹ng
ĠÄĳ áº¡i
a l
há» ¯ng
Ġb Ãªn
Ġtá»« ng
Ġho áº·c
Ġd Ã¢n
Ġtr iá»ĥn
Ġch uyá»ĥn
iá»ĩ p
Ġl Ãºc
Ã£ o
Ġd iá»ħn
Ġtrá» ĭ
Ġquy áº¿t
« ng
Ġc ao
Ġngh e
Ġth u
Ãº p
ĠÄ ĥn
Ġd áº¡
u Ã´n
uá»ĳ c
Ġt uyá»ĩt
áº¯ c
Ġc áº§u
Ġtá» ķ
Ġmá» Ĺi
uá»ĳ i
Ġv i
Ġkho áº£ng
Ġl á»±c
Ġk áº¿
Ġcháº ¥t
Ġphá» ¥
Ġ Ã¡
Ġb Ã¡
áº¥ p
i m
C Ã³
Ġlá» Ŀi
ĠgiÃ¡ o
ĠÄĳ áº¥t
Ġgi Ãºp
e s
² ng
Ġ em
Ġ Æ¡n
Ã µ
© a
Ġtr ung
Ġchá» §
áº© n
Ġb áº£o
H á»į
Ġná» ¯
Ġkháº £
Ġt iáº¿n
o s
Ġháº ¿t
ĠphÃ ²ng
Æ°á» Ľi
Ġ R
e l
Ġt Ã¬nh
Ġch Æ°a
Ġngh iÃªn
hÃ ´ng
Ġxu áº¥t
Æ°á»Ľ ng
Ġ VÃł
Ġx e
Ġm ang
á» ¹
Ġl iÃªn
ĠphÃ ¢n
Ġtr anh
Ġb Ãłi
ĠkhÃ ³
ĠÄĳ Æ¡n
áº¯ n
Ġn Ã£o
Ġt áºŃp
Ġtr uyá»ģn
¥ p
Ġt uá»ķi
ĠÄĳ Ãºng
ĠÄĳ iá»ĩn
Ġph Æ°Æ¡ng
Ġb Ã¬nh
ÄĲ iá»ģu
ĠÄĳ áº·t
© m
Ġt Æ°á»£ng
i Ãª
Ġta y
uá»ĳ ng
Ġb iáº¿n
u á»ĵ
Ġt iá»ģn
Ġgiá» ¯a
Ġy Ãªu
Ġs áº£n
© p
Ġtiáº¿ ng
Ġth o
Ġb Ã©
áº· p
Ġng ay
Ġquy á»
Ġkho a
áºŃ n
ĠhÃ £y
áº¡ c
áº§ m
Ġl áº¥y
Ġbá» ı
N áº¿u
Ġtr ÃŃ
e t
Ġnháº ¡
Ġx Ã£
N g
Ġg áº§n
Ġho áº¡t
N há»¯ng
Ġch iáº¿n
Ġthá» ĭ
Ġkh u
ĠÄĳÃ¡ ng
ĠsÃ¡ ch
Ġp hi
Ġ I
Ġpháº ©m
ĠthÃ ¢n
ĠphÃ¡ p
Ġh iá»ĩu
ĠkhÃ Ń
Ġc uá»ĳi
ĠÄĳá» Ŀi
Ġch Æ¡i
T háº
Ã£ y
Ġ 5
Ġm áº¥t
Ġm inh
uy áº¿t
Ġsá» ©c
á»Ļ i
Ġká» ĥ
Ġs o
ĠhÃ ´
ĠM á»¹
į ng
Ġ V
uá»ĵ n
Ġmáº¡ nh
Ġk ÃŃ
a t
Ġngh iá»ĩp
Ã³ c
i s
Ġngo Ãłi
K hi
ĠÃŃ t
Ġd áº«n
Ġl áºŃp
Ġt Ãłi
ĠÄĳ áº¥y
Ġm Ã´
¯ p
« a
Ġlo Ãłi
Ġká» ³
Ġbá» ©c
Ġt inh
Ġr á»
Ġl uÃ´n
uáºŃ n
Ġ 4
Ġdá»± ng
Ġx Ã¢y
Ġ Q
Ġt iÃªu
Ã© t
Ġphá» ĳ
Ġchá» į
Ġt Ãªn
Ġv Ã´
Ġc á»Ļng
Ġv Äĥn
Ġ Ã¢m
Ġchá» ©ng
Ġtá» Ń
i c
Ġh Æ°á»Ľng
Ġhá» ĵ
áºŃ t
Ġnháº¡ c
Ġ J
Ġthá» Ń
Ġv iáº¿t
a p
ĠÄĳ Ã¢u
Ġchá» ©c
Ġng uyÃªn
Ġk iáº¿n
Ġqu á»ĳc
u a
Ġá» ©ng
Ġvá» Ŀi
Ġchá»į n
Ġgi áº£n
Ġquyá» ģn
Ġcháº ¿
Ġb a
ĠÄĳ áº·c
Ġb á»ĳ
Ġcháº ¿t
Ġt Æ°
iáº¿ m
Ġb Ãło
Ġmáº¡ ng
Ġc áº¥p
Ġs uy
Ġ Ã
Ġtr iá»ĩu
Ġb Ãł
³ m
Ġt Äĥng
Tr ong
Ġvá» ¥
Ġtháº §n
Ġná» ģn
ĠÄĳ áº¡o
Ġl áº½
ĠÄĳá» ©a
£ n
i l
áº¡ p
Ġs Ä©
Ġkhá» ıi
áº£ m
Ġch u
ĠmÃł u
C Ã¡c
á» Ń
a s
Ġd i
ĠÄĳÃ¡ nh
Ġcá» ¥
Ġm áº¹
Ġg áº·p
ĠthÃ¡ ng
¯ n
Ġd Æ°á»Ľi
Ġtá» ĵ
i t
o l
ª m
áº¥ m
Ġc hÃºt
Ġx uá»ĳng
áº¹ p
Ġ W
Ġg áº¯ng
Ã¢ ng
áº§ y
Ġ. .
áºŃ u
Ġ F
ĠphÃ ©p
Ġqu anh
ĠnhÃ ³m
Ġdá» ĭch
Ġm á»Ł
Ġvá» ±c
Ġx Ã¡c
Ġkh iáº¿n
Ġ E
Ġdá» ¯
Ġ Ã¡n
Ġ %
Ġch ia
ĠC hÃºng
Ġb ay
Ã¡ ch
00 0
¢ u
Ġth am
ĠthÃ ªm
Ġtr Ã²
Ġth uyáº¿t
Ġmá» ©c
Ġnh anh
Ġqu ay
ĠthÃ ´
Ġdáº¡ ng
Ġc hÃº
Ġcháº ¡
ĠÄĳ Ãłn
Ġcá» ±c
Ã³ ng
Ġg Ã¢y
Ġr Ãµ
Ġvá» įng
Ġ1 0
Ġng uá»ĵn
ĠA nh
Ġv Ã¹ng
Ġho áº¡
Ġcáº£ nh
áº« u
ĠÄĳ áº¹p
ĠbÃ¡ o
Ġtá» ¥c
Ã ¨
Ġd Ã¹
Ġgi Ã¡c
Ġcháº ¯c
ĠsÃ¡ t
Ġc Ãłng
Ġx a
Ġdá» ħ
v Ãł
ĠÄĳá» §
B Ã¢y
Ġc Ã¢y
Ġb Ã¢y
áº¯ m
Ġv ÃŃ
Ã¡ t
iÃª ng
Ġtr ang
K hÃ´ng
Ġphi m
Ġnhá» Ľ
ĠphÃ Ńa
Ġb iá»ĥu
Ġh Æ°á»Łng
Æ° u
ĠhÃ´ m
ĠÄĳo áº¡n
Ġd uy
Ġ.. .
Ġchá» ĭ
Ġ1 9
Ġ2 0
Ġv Å©
Ġk Ã¬
Ġcháº ³ng
l e
Ġtr Ã¡i
Ġk iá»ĥm
Ġl áº¡
Ġth Æ°Æ¡ng
t er
Ķ ng
§ ng
h o
ĠN g
Ġd Ãłi
Ġv Ã²ng
ĠQ uá»ĳc
Ń t
Ġl uáºŃn
Ġngá» ¯
Ġpháº £n
ĠÄĳ Ã´i
T há»
Ġt u
ĠÄĳ áº§y
uy áº¿n
Ġdá»¥ c
Ġlá» £i
áº£ i
Ġk ia
Ġgiáº£ m
H Ã£y
Ġth uá»ĳc
ĠtháºŃ m
Ġk iáº¿m
Ġt y
Ġv u
Ġvá» «a
ĠchÃ ¢n
ĠtÃŃ ch
Ġtr Äĥm
Ġth Æ°
u s
ĠthÃ´ i
ap os
an d
a c
Æ°á» ¡
Ġ ;
ĠTr ung
ĠÄĳ Ã¬nh
iáº¿ u
Ġháº¡ n
Ãł u
Ġgi ao
Ġb Æ°á»Ľc
Ġlá» ĩ
Ġl ai
ĠÄĳ Ã´
Ġ 6
Tháº ¿
Ġs Ã¢u
Ġtá» ī
hÃ ¡
Ġm Ã´i
Ġto Ã¡n
Ġtráº£ i
Ġtrá» Ŀi
iá»ģ m
Ġtá»ĵ n
E D
Ġd iá»ĩn
Ġr á»Ļng
Ġgiá» ¯
Ġphá» ¥c
Ġth anh
į c
Ġm Ã£
Ġl Ã£
Ġd Ãłnh
Ġn á»ĳi
ĠÄĳá»ĭ a
ĠÄĳo Ã¡n
o m
Ġl Ã²ng
a d
Ġth uá»Ļc
uá»ĳ t
Ġr iÃªng
Ġch i
Ġvá» ĩ
Ġt áº¡p
Ġsá» £
Ġm áº¯t
ĠÄĳá» ©ng
Ġháº §
Ġ !
Ġmá» ¥c
Ġná» ķi
ĠT h
Ġdáº¡ y
Ġphá» §
Ġ O
Ġs ai
Ġv áº»
ĠÄĳ áº¡t
Ġc Äĥn
Ġng hÃ
ĠthÃº c
Ġká» ¹
Ġl uáºŃt
Ġsáº »
o b
Ġm áº«u
Ġx ung
Ġtá»ĳ i
Ġlá» ĭch
u r
ĠP hi
ĠÃ¡ nh
Ġb Ãłn
ĠÄĳá» įc
Ġlá»Ľ p
ĠC h
Ġtrá» ¥
Ġká» ·
Ġ Y
Ġy áº¿u
Ãł m
Ġkháº ¯p
Ġvu i
Ġtr Ã´ng
Ġkho áº»
Ġt iáº¿t
Ġch Æ°Æ¡ng
Ġcháº¡ y
Ġng á»ĵi
Ġg Ã¡i
ĠphÃ Ń
Ġp hÃºt
Ġc áºŃu
Ġc uá»ĳn
Ġm á»ĳi
áº· ng
Ġk Ã©
Ġb uá»ķi
Ġsáº ¯c
hÃº c
Æ°á»£ t
Ġtrá» £
Ġcháº ¯n
Ġs uá»ĳt
Ġháº§ u
Ġk iá»ĩn
r a
á»± a
- -
e w
Ġb iá»ĥn
Ġtr Ãºc
Ġm Ã¹
Ã Ķng
Ġch ung
ĠH o
Ġ 7
l i
Ġng Ã´n
Ġm ua
Ġdo anh
Ġk iá»ĥu
Ġs Æ°
Ġ 8
ĠT ED
Ġcá» Ńa
e b
Ġ áº
ĠváºŃ n
Ġ 9
ĠcÃ¡ nh
Ġ& #
ĠkhÃ¡ m
Ġs á»Ł
Ġng áº¡c
Ġtháº £
Ġx Ãºc
Ġx Ã©t
Ġr Ãłng
Ġl Ã¢u
o o
Ġtho áº¡i
Ġtu áº§n
Ġb Ã¡n
Ġpháº ¡
áº± m
o i
Ġh iá»ĥm
áº¡ nh
Ġhá»ĵ i
G iá»
ĠchÃ ¡
Ġl ÃŃ
Ġc áº¥u
Ãº t
Ġnh iá»ĩm
ĠN Ã³
Æ°á»¡ ng
Ġphá» ©c
Ġth iÃªn
ĠkÃŃ ch
A nh
Ġc ung
á»į n
Ä© nh
Ġn áº±m
Ġch uyÃªn
Ġchá» ¥p
ĠnháºŃ p
Ġ2 00
Ġl a
Ġb Ã³ng
áº¡ ng
ĠB áº¡n
uá» ·
Ġng Ã´i
á»į c
ÄĲ á»
B á»Łi
ĠthÃ¡ i
Ġc áº¡nh
Ġk áº»
¯ u
ĠÄĳá»Ļ c
Ġv iá»ĩn
Ġháº¡ nh
Ġb Äĥng
Ġhá» ¯u
áº¿ p
Ġg hi
Ġho Ãł
Ġng Ãłnh
Ġchá» ©
Ġchá» Ĺ
Ġtr Æ°á»Łng
Ġv áº½
Ġkhá» §ng
ĠtháºŃ p
ĠÃŃ ch
µ n
Ġg á»
iÃª m
ĠÄĳ a
ı ng
X in
háº ¿
Ġchu áº©n
Ġb Ã¡c
Ġtr a
T h
Ġp hÃºc
Ġqu Ã½
Ġth iáº¿u
Ġchá»ĭ u
Ġhá» ģ
Ġháº Ń
Ng Æ°á»Ŀi
Ġl áº¯ng
Ġx anh
Ġt áº¥m
áº© y
Ġtá» ĩ
ĠC hÃ
Ġsáº µn
Ġn iá»ĩm
ĠhÃ ¡
Ġnh iÃªu
Ġpháº¡ m
Ġtá» ©c
r i
Ã¡ m
Ġkh Äĥn
Ġtr ai
ĠK hÃ´ng
Ġt Ã¡i
S au
ĠÄĳ au
u n
Ġ an
Ġsáº ¯p
Ãº i
ĠÃ¡ p
Ġh Æ¡i
r o
áº¡ ch
Ġd ung
¥ n
u Ã´i
Ã³ n
Ġchá» ĳng
Ġl áº¡c
á»ĳ ng
Ġtháº¥ t
Ãª m
T áº¥t
Ġm áº·c
Ġ NhÆ°ng
Ġm ong
Ġcáº£ i
Ġdá»± a
ĠÄĳÃ³ ng
ĠchÃ ¢u
Nh Æ°
Ġx á»Ń
V á»
C áº£m
Ġl á»±a
Ġtr á»±c
á»Ļ n
á»Ń i
á» ŀ
N Ãªn
ĠÄĳá»Ļ i
« u
Ġb an
ĠbÃ¡ nh
ĠháºŃ u
Ġcá» ķ
Ġtá»ķ ng
Ġx in
Ġkhá» ķ
Ġn á»Ļi
Ġkháº ¯c
Ġv Æ°á»£t
Ġm áºŃt
Ġd a
Ġx áº¥u
Ġt áº§m
Ġch Äĥm
ĠN ew
Ġ áº©n
Ġtá» ·
T áº¡i
Ġd áº§n
Ġto Ãł
Ġ Ã´
Ġg á»Ńi
ÃŃ ch
© t
Ġth iá»ĩn
Ġhá» ©ng
Ġháº¡ t
ĠÄĲ á»
Ġt im
Ġ3 0
¨ o
r e
Ġng uy
¤ n
Ġh y
Ġl Æ°u
Ġd anh
Ġtr áº¡ng
Ġch iá»ģu
Ġnh iá»ĩt
ĠlÃ£ nh
Ġ w
ĠÄĳ á»Ļt
Ã¡ nh
Ġd áº§u
C h
Ġn iá»ģm
Ġt á»Ļi
ĠnghÃ ¨o
Ġnh iá»ħ
n et
Ġn áº¡n
Ġngo áº¡i
Giá» Ŀ
Ġc áºŃn
ĠI n
Ġs ang
Ġáº ¤n
Ġ1 00
Ġchá» ¯a
Ġ in
Ġch a
ĠkÃŃ nh
Ġ ung
ĠÄĳ áº¥u
Ġx o
i d
C há»
Ġd áº¥u
ĠÄĳ áº©y
Thá» ±c
Ã¡ ng
ĠÄĲ Ã³
Ġá» ķ
ĠS t
Ġná» Ĺi
Ġg hÃ
ĠhÃ¡ t
Ġm ay
Ġ5 0
Ġthá» §
ĠkÃ© o
Ã£ i
Ġngá» §
ĠÄĳ en
ĠthÃ¡ ch
ĠkhÃ¡ ch
Ġt áº¯c
Ġ1 5
ĠÄĲ á»Ļ
Ġgi áº¥y
ĠChÃ ¢u
Ġng Æ°á»£c
Ġn uÃ´i
Ġg á»ĵ
iáº¿ p
Ġb áº¡i
Ġ Æ°á»Ľc
ī nh
± ng
Ł i
V Ã¢ng
Ġchá» ¯
ĠT Ã¢y
Ġqu áº£n
Ġso Ã¡t
a h
Ġlá» Ĺi
Ġt iá»ĩn
Ġl Ä©nh
Ġcá» Ń
Ġngh i
Ġná» Ńa
i g
Ġm áº¯c
is t
t h
Ġhoáº¡ ch
Ġm Æ¡
r an
Ġgá»ĵ m
Ġnhiá»ħ m
ĵ ng
Ġd Æ°Æ¡ng
Ġtá»ĳ c
Ġkh iá»ĥn
ÄĲá» ĥ
Ġt áº£
Ġs Ã³c
Ġc áº¯t
o p
Ãµ i
ter net
Ġg Ã³
Ġháº¡ i
Ġg iáº¿t
háº Ńt
Ġtháº ³ng
ĠM á»Ļt
Ġ U
ĠÄĳá» ĳ
Ġqu en
e d
Ġb Ãły
Ġd Ã¢y
Ġqu Ã¢n
Ġt Ãłu
Ġc a
Ġkhá» ĳi
Tháº Ńt
ĠÄĳ Ã´ng
ĠÄĳ ÃŃch
ĠN há»¯ng
Ġchiáº¿ u
i ng
Ġl Æ°á»Ľi
ĠÄĳá» ©c
C Ã¡i
Ġg en
Ġnhá» Ŀ
Ġtháº¥ p
Ġd Ã²ng
ar d
Ġm Ãª
a g
áº¯ p
Ġb áº§u
Ġth i
ĠC Ã³
Ġngá» Ŀ
Ġc Æ°
ĠÄĳ Ãªm
Ġn iÃªn
Ġl Ã¡i
Ġ X
ĠÄĳá» ķ
Ġd Ãłng
ĠphÃ ³ng
S á»±
Ġc Æ°á»Ŀi
Ġkh ai
Ġs Ãłng
Ġhá» Ĺ
Ġcháº ·
l o
Ġng áº¯n
Ġr á»ĳi
Ġx áº¿p
Ġcháº ¥p
Ġg á»ĳc
á»ĵ ng
Ġt áºŃn
Ġph ong
Ġn Ã´ng
Ġg áº¥p
ĠÄĲ Ã¢y
ĠÄĳ em
Ġ /
ĠÄĳá» ¡
Ġb áº¡o
Ġgi Ã¢y
Ġl áº¯m
Ġs Ã¢n
Ġká» ī
Ġb ÃŃ
Ġtr Ã¡ch
Ġg áº¯n
Ġv ai
ĠcÃ¡ o
Ġbá»ĳ n
Ġc Ã¢n
9 1
t on
ĠÄĳá» £i
9 3
C Ã´
Ń m
Ġng Ãłn
Ġt Ã´n
Ġs u
Ġpháº «u
e y
áº§ ng
Ã Ŀ
Ġh Ãłi
Ġ1 2
Ġx uyÃªn
a b
Ġth Æ¡
ĠÃ Ĥ
Ġnháº £y
Ġch uyáº¿n
Ġs iÃªu
Ġho a
Ġdá» «ng
ĠA l
T á»
Ġthá» ¥
ĠT há»
uá» Ĺi
Ń n
Ġk Ä©
ĠmÃł n
ĠH Ã£y
Ġnghá» ĭ
M á»
a k
Ġk Ã½
Ġw eb
Ġl ao
Ġt áº§ng
Ġch im
Ġgi ai
ĠÄĳ áº£m
o h
Ġ áº£o
Ġt áº£i
Ã¡ o
Ġháº ¥p
d eo
Ġvi deo
Ġphá» ķ
a v
Ã¨ n
in e
or k
o u
Ġkhá» Łi
Ġng Äĥn
Ġt Ã¹
Ġnháº ¯c
ĳ n
Ġrá» «ng
³ n
Ġchá»ī nh
Ä ĳ
o c
¹ ng
Ġg Ã³c
Ġtháº £i
ĠkhÃ¡ i
iáº¿ ng
Ġ hÃºt
Ġngh iÃªm
Ġhá»Ļ p
Ġ Nh
Ġl uyá»ĩn
Ġm Ã³n
Ġn am
Ġk Ãª
Ġá»ķ n
ĠÃĤ u
Ġkh uÃ´n
Ġl Ã¡
Ġgi Ãłu
ĠtÃŃ n
ĠY ork
s on
Ġc áºŃp
ĠN am
Ġchu á»Ļt
h an
ob ot
ĠIn ternet
ģ m
Ġgi Ãł
M á»įi
Ġc oi
Ġl iá»ĩt
Ġng Ã¢n
ĠÄĳá» ı
ĠÄĳÃ¡ m
Ġt uyáº¿n
Ġpháº Ńn
Ġt áº¥n
Ġtháº ¯ng
ĠC hÃº
ĠH á»į
Ġtr ao
Ġtrá» «
R á»ĵi
t e
ĠÄĳ áº£o
Ġh uá»·
Ġta i
ĠG i
il l
Ġn áº·ng
Ġm Ã´n
Ġnh u
Ġx á»
ĠT áº¡i
Ġchá» ©a
Ġháº ³n
ĠK á»
Vá» Ľi
Ġd áºŃy
Ġmá» ģm
ĠN áº¿u
ĠHo a
Ġv Ã¢n
D o
ĠnÃ³ ng
T uy
Ġm áº¥y
Ã³ t
ĠphÃ ¹
ĠchÃ ³
Ġmáº¡ ch
ĠchÃ ³ng
ĠchÃ¡ u
Chá» ī
L Ãłm
Ġ á»ĳng
ĭ p
Ġm áº½
ĠB áº¯c
ĠmÃ¹ a
ĠÄĳ iá»ĥn
Ġb uá»Ļc
Ġquyá» ĥn
Ġs Ã³ng
Ġtr Ã¹ng
Ġd Æ°á»¡ng
Ġth iá»ĩu
ĠmÃ¡ u
Ġt uá»
Ġ1 8
ĠhÃ £i
Ġl inh
H o
£ o
Ġc Å©
Ġrá» Ŀi
Ġtháº£ o
ĠChÃº a
Ġs Æ¡
áº¡ m
Ġchá»§ ng
V ÃŃ
ĠkhÃ¡ n
Ġ uá»ĳng
Ġd Ãµi
t r
ĠÄĳ iÃªn
i k
Ġt áº£ng
Ġr obot
Ġchá» Ŀ
Ġlá» ĵ
Ġtá»ĵ i
Ġl á»Ļ
Ã² i
Ġ4 0
u m
Ġlo áº¡n
Ġl áº§m
i e
Ġvá» ¯ng
ĠÄĳÃ¡ p
Ġb uá»ĵn
¥ m
ĠÄĲ iá»ģu
Ġm áº¯n
o w
Ġsá»Ń a
© u
Ġ o
ĠkhÃ ´
Ġth Æ°á»Łng
á»ĳ t
ĠgÃ³ p
Ġl an
ĠTr Ã¡i
ĠKá» ³
Ġt Æ°á»Ŀng
Ġtr Ã¡nh
ĠT háº¿
Ġkhá»ķ ng
i ch
Ġm iá»ħn
ĠÄĳÃ³ i
Ġkho áº£n
ĠÄĳ Ã¨n
Ġláº¡ nh
C háº
H iá»ĩn
Ġ f
Ġch Ãłng
Ġm Ã¡i
Ġá» §ng
Ġtá»ķ n
ĠM ar
Ġc Æ¡n
Ġb áº£ng
Ġtr áº¯ng
ĠTr ong
Ġt á»Ļc
Ġl áº«n
or d
Q u
Ġm áº£nh
Ġ2 5
e v
ĠÄĳá» īnh
áº¥ c
Ġd iá»ĩu
Ġtá» Ŀ
Ľ m
Ġn Ãºi
Ġphá» ıng
Ġt iá»ĥu
ĠÄĳ Ãło
u l
Ġtr Ã¬
Ġbá» ģ
ĠÄĲ Ã´ng
Ġgiá» įng
Ġtá»ĳ n
Ġ áº¥n
Ń nh
Ġtr áºŃn
ĠÃ¡ o
Ġtr á»ĵng
Ġqu Ãªn
ĠC Ã¡c
Ġháº £o
Ġgiá» ıi
Ġr Æ¡i
C Ã¢u
Ġd u
Ġqu áº£ng
ĠNg Æ°á»Ŀi
ĠmÃ£ i
Ġcháº¡ m
Ã¹ a
ĠC há»
C Ã²n
Ġc áº§m
Ġk im
Ġcá» ¡
VÃł o
Ġkhu áº©n
Ġb ang
Ġb áºŃt
Ġvá» ĳn
Ġbá» ģn
Ġpháº ¥n
ĠnghÃ ¬n
ĠsÃ¡ nh
C ho
Ġt iá»ģm
ĠÄĳ Æ°Æ¡ng
ist an
Ġkho Ã¡
ĠhÃ´ n
Ġl Æ°Æ¡ng
Ġnghá» ī
ĠvÃł ng
Ġcháº ¥m
Ġchiáº¿ m
Ġho áº£ng
Ġmá» Ŀi
Ġn áº¯m
ĠkhÃŃ ch
áº ³ng
Ġc am
Má» Ĺi
u b
Ġh iá»ĥn
Ġvá» £
Ġbá» ¯a
Ġphá» ĳi
Ġngá» «ng
Ġh i
Ġh Ãło
ĠÄĳ iá»ĩu
ĠlÃł ng
Ġvá» ¡
Ġlá» Ńa
C on
Ġ VÃ¬
Ġthá»ĭ t
l y
Ġt Ã¡ch
Ġv Ä©
Ġg háº¿
Ġhá» ķ
Ġ1 1
Ġqu áº§n
Ġx Æ°Æ¡ng
l a
áº· m
Ġch uá»Ĺi
Ġná» ķ
Ġr Ãºt
Ġd Æ°á»Ŀng
ĠÄĳá» «ng
ĠH á»ĵi
en t
Ġ ong
Ġká» ĭch
Ġkháº ©u
Ġb iÃªn
Ġs Ã³t
Ġcháº £y
oo g
i b
ĠÄĳ áº±ng
ĠT hÃ¡
Ġgi Ã³
ĠK hi
Ġsá» Ľm
Ġlo áº¡t
Ġtho Ã¡t
Ġcháº Ńm
Ġchá» ĵng
i an
Ġs áº¡ch
Ġt Ãłn
Ġt áº¯t
Ġd Ä©
ĠÃ Ķng
P háº
Ġ VáºŃy
Ġb Ã¨
Ġgi áº¥c
ÃŃ nh
ĠÄĲ áº¡i
Ġt Ã´
oog le
C hÃ
Ã³ m
ĠV Ã¢ng
i r
Ġl áº·p
Ġtháº §
Ġnghá» ģ
ĳ t
Ġgá» £i
Ġsu áº¥t
i o
Ġm Å©
m an
Tá» «
i f
Ġqu á»¹
Ġkhá» ©
Æ°Æ¡ i
Ġ8 0
a z
e x
r y
Ġl á»ĳi
Ġtr Æ°ng
ĠphÃ ª
Ġlá» Ĺ
ac k
Ġng áº¡i
ĠchÃ ¬
Ġt Ãºi
Ġs Ã´ng
ĠnhÃ ©
e p
Ġt Ã¡n
Ġtr áº¡i
ic k
u d
± m
Ġtrá» ¯
Ġng uyá»ĩn
R áº¥t
Ġd áº·m
ĠA n
ĠQ u
T a
Ġk iá»ĩm
Ġth Æ°á»Ľc
ĠC on
Ng Ãły
© n
ĠÄĳ Äĥng
Ġv iá»ħn
Thá» ©
Ġcá» Ŀ
áº· n
¢ m
Ġn Ã©
Ġqu ang
Ġsá» ¹
ĠÄĳ uá»ķi
Ä© a
ĠkhÃ¡ ng
ĠC áº£m
ĵ i
Ġc Ãł
Ġn Ã¢ng
Ġnháº ¹
ĠT á»
Ġb Æ¡i
u t
Ġvá» ı
Ġbá» ¥
ĠG oogle
ĠkÃ© m
Ġnháº ¯n
ĠghÃ ©p
Ġc Ãº
Ġth Äĥm
Æ°á»¡ i
i v
Ġsá»ĳ t
Ġph iÃªn
Ġ6 0
oh n
V áº¥n
Ġthá» Ł
Ġr áº»
es t
Ġkho áº£nh
Ġtháº£ m
Ġh u
t Ã´i
Ġt Ãłng
ĠnháºŃ t
Tr Ãªn
Ġv áº¿t
Ġl áº·ng
Ġná» Ĺ
Ġtho áº£
G i
h e
Ġb á»įn
Ġho ang
on e
ĠsÃ¡ u
Ġxo ay
N Äĥm
Ġc an
Ġl á»įc
Ġtr Ã²n
an s
á»į t
ar t
Tr Æ°á»Ľc
Ġtr á»ĳng
Ġbá» Ŀ
ĠhÃ ¹ng
Ġháº ¹
ĠB r
ĠP hÃ¡
ĠÄĳ iá»ĩp
in s
¥ u
ĠA r
Ġ Æ°u
ĠN háºŃt
b on
ĠÄĳ áº³ng
ĠL Ãłm
ĠmÃ¹ i
ĠÄĳ áº¿
Ġv oi
Ġng áº«u
Ġlá» ¥c
Ġdo áº¡
B Ãł
Ġ Z
ĠÄĳ am
Ġb Ã²
ĠlÃł nh
ĠC Ã´
uá» µ
am p
oo k
a w
ĠlÃŃ nh
e c
§ i
ĠÄĳá» ±ng
Ãº a
ÄĲ Æ°á»£c
el l
N hÃ
Ġthá» «a
Ġth uáºŃn
Ġtháº ¡
I V
ĠÄĲ áº¥t
ĠthÃ¡ c
L iá»ĩu
Ġr Ã¡c
Ġth uá»·
ĠB á»Łi
ĠÄĳo Ãłn
± a
Ġc áº¥y
c hÃºng
Ľ t
Ġm a
Ġp r
ÄĲ áº§u
uá»ĵ ng
ĠtrÃŃ ch
i on
Ġnh uáºŃn
Ġth ang
Ġcháº· t
ĠH IV
e g
ĠÄĳ áº¡p
Ġhá»į p
Ġgiáº£ ng
er a
ĠÄĳ e
Ġta n
er t
Ġl Æ°á»£c
Ġm iáº¿ng
ĠlÃ£ ng
Ġc Ã£i
Ġnhá» ±a
Æ°á»Ŀ n
or e
d e
Ġt áºŃt
Ġl áº¯p
Ġkháº ¥u
ĩ t
Ġ1 6
ĠA f
Ġcháº· n
ĠI s
5 0
Ġth ai
ĠhÃ ¨
ĠgiÃ¡ m
Ġngo Ã¡i
e in
Ġh uy
Ġch Ãło
Ġlá» ħ
Ġmá» «ng
ĠÄĳ Ã²i
Ġng ang
Ġy Ãªn
es s
Ġáº ¢
ChÃ Ńnh
V iá»ĩc
Ġh uá»ĳng
Ġd iá»ĩt
ĠtháºŃ n
u á»Ļn
Ġ $
Ġ u
Ġm áº¡i
Ġm Ã¢y
Ġth ao
Ġcáº£ n
NÃ³ i
Ġ19 9
ĠÄĲá» ©c
Ġh Æ°Æ¡ng
Ġtá» ¥
ĠthÃ ¹
ĠS h
al l
Ġm Ã¬
á»ĳ n
Ġdá» ĭ
Ġsá» ķ
Ġxo Ã¡
Ġk o
Ġtr i
ĠchÃ ©p
ĠA D
áº© u
Ġ9 0
ĠAf g
H ay
ĠÄĳ Ã¹a
Ġv ong
ĠÄĳá» ĳng
Ġtháº¥ u
Ġsá» £i
or n
u c
Ġv Ãº
Ġtr Ãłn
ĠcÃ¡ t
g e
r us
Ġc áº·p
Ġcá» ©ng
ĠV á»
C uá»ĳi
Ľ n
Ġt Ã¡
Ġtá» ı
ĠC ar
ĠÃ¡ m
f f
Ġm áºŃp
ĠJ ohn
Ã¨ o
Ġ20 1
Ġt uyÃªn
Ġm á»±c
Ġb om
ĠcÃ¡ m
Ġnháº ±m
Ġ1 4
Ġph iáº¿u
l es
Ġb i
Ġs Ãºng
ĠkhÃ Ńa
Ġnhá» ĭp
Ng ay
ĠE m
Ġb á»ĳi
Ġb áº¯n
Ġtr Ãło
Ġh iáº¿m
Ġsá» ¥p
ĠchÃ¡ n
ĠAD N
B á»
Ġt iÃªm
Ġ7 0
L Ãºc
Ġk Ãªu
Ġh Ãł
Ġm Ã³c
nh Æ°ng
Ġng á»įn
at t
Ã´ m
Ġkh ung
Ġlá» «a
Ġpr ot
Ġ Ã³c
Ġl iá»ģn
Ġtr iáº¿t
Ġd á»ĳi
Ġho Ãłng
Ã© p
ĠPhÃ¡ p
ĠAfg han
C Ã¡ch
i p
Ġ Xin
áºŃ c
Ġ1 3
ĠbÃ© o
Ġgá» Ĺ
Ġc Ã´n
ĠÄĳ ua
Ġcá» ¥c
Æ°á»£ u
Nh Ãł
ĠA i
C Ã´ng
K hÃ¡
o d
y l
Ľ p
Ġg am
Ġthá» Ŀ
r is
Ġ 0
Ġm Æ°a
â Ģ
Ġc Äĥng
Ġbá» ķ
ĠC al
Ġkháº£ o
Ġtháº§ y
Ġb áºŃc
Ġhá» ĳi
Ġmáº¡ c
ĠG iá»
Ġtho áº£i
C Ã¡m
ĠÄĳ áºŃp
Ġn áº¥m
Ġl Å©
Ġng Æ°á»¡ng
ĠT háºŃt
¯ t
Ġ âĢ
Ġchá» ĳt
Ġmá» ı
ĠS á»±
N A
e et
Ġ Ã¡c
Ġchá» ĳi
ai l
er s
ĠK en
Ġt Ã¡o
Ġth uyá»ģn
Ġhu áº¥n
C Å©ng
Ġm Ã©t
Th eo
ĠThÃ¡ i
Ġtr áº§m
Ġr Æ°á»£u
Ġnh Å©ng
Ġ1 7
ÄĲ á»ĳi
Ġá» Ĵ
Ġhá»Ĺ n
¯ m
ĠA m
ĠghÃ ©t
e e
ĠF ran
Ġá» ©c
L Ãł
Ġb iá»ĩn
Ġb áº£y
Ġkh uyáº¿n
ĠhÃ ²
ĠÃ ģ
Ġv Ã¢ng
Ġs ong
ĠB áº£n
N Ãło
ĠÄĳ áº¯t
Ġn Ãºt
Ġch e
ĠC Ã´ng
Ġtá»ī nh
Ho áº·c
Ġng Ã³n
Ġcá» ı
ĠI ran
ĠchÃ¡ y
Th ay
Ġ áº¡
Ġtr uy
ĠphÃ¡ n
Ġhá»ĵ n
ĠTh uá»µ
M Ãł
Ġthá» į
av id
Ġxá» ©ng
á» Ŀi
Ġm áº¡o
ĠhÃ £
ĠH ar
ĠAfghan istan
p h
y a
Ġt Ãºc
Ġth iá»ĥu
on d
Ġháº ¯n
Nh iá»ģu
Ġ2 1
ĠÄĲ Æ°á»£c
£ t
Ġs Äĥn
Ġg á»įn
ĠL an
lo g
ĠmÅ© i
ĵ n
Ġcá» ¥t
Ġgi áºŃn
ĠkhÃ¡ t
D Ã¹
l and
o v
x y
Ġ á»ĵ
Ġb Ã´ng
Ġd inh
Ġcá» Ĺ
ĠC Ã¡i
Ġtrá» ©ng
Ġtháº¡ ch
Ġprot ein
Ġm ai
Ġkh iáº¿p
A i
a ch
Ġt ia
Ġd Ãły
Ġth iá»ĩp
Ã£ n
Ġthu Ãª
Ġrá» §i
Vá» ģ
Ġ Ãł
ĠÄĳ áº¯n
Ġn áº¥u
Ġr u
er ia
Ġc á»Ļt
Ġl á»Ļn
Ġm á»Ļ
Ġm Ã²
Ġb inh
Ġh Æ°á»Ľc
Ġx ong
ĠH ai
ĠthÃ¡ nh
Ġb á»Ļt
Ġb Ã£i
Ġk áº¹
Ġgi Ãłnh
ÄĲ Ãºng
ĠC an
ĠÄĲ Ãºng
Ġt Ã³c
Ġb Ã³
Ġng Å©
Æ°á»Ľ t
ĠL iÃªn
ĠÄĳá»ĳ c
t a
Ĺ ng
ĠÄĳ Ãłi
Ġtr uyá»ĩn
Ġr Äĥng
Ġx Æ°a
ĠphÃ ³
ĠT V
Ġcháº ©n
ĠD o
Ġ19 8
ĠÄĳá»ĳ t
H ai
Ġd á»įc
iá»ĩ ng
ĠmÃ¡ t
ar k
Ġthu áº§n
ĠNh Ãł
t i
Ġb áº¡c
Ġh uyáº¿t
Ġr Æ°á»¡i
ĠT áº¥t
Ġn Æ¡
Ġm iá»ģn
Ġr o
Ġchá» «ng
ĠC hi
ra el
Ġt áº·ng
ĠÄĳ Ä©a
Ġg Æ°Æ¡ng
Ã½ t
Cháº ³ng
Ġ áº¥m
Ġh iáº¿n
Ġr áº¯c
Ġx Ã¢m
Ġnháº ¥n
en n
ĠnÃ© m
g h
Ġ i
Ġv Æ°á»Ŀn
Ġng Ãłi
Ġnhá» ī
ai n
Ġcá»ĳ t
ic o
oc k
Ġtr á»Ļn
iáº¿ c
Ġx áº¡
ĠkhÃ³ c
ĠÃ Ŀ
Ġl áº»
Ġth an
Ġqu Ãª
Ã¹ i
am a
Ġ5 00
Ã¨ m
į t
Ġc áº©n
ac eb
Ġtuá» ³
ĠIs rael
H áº§u
Ġng u
Ġd ÃŃnh
ĠS c
ĠP háº
aceb ook
K ho
P h
c o
Ġm iá»ĩng
Ġr Ãło
ĠÄĳá» Ľn
ar a
ad a
Ġt áº¡m
Ġb áº¯c
Ġtháº ©m
in a
Ġtuá» ĩ
Ġm iÃªu
Ã¡ y
Ġch ai
ĠÄĳÃ³ n
ĠB á»Ļ
Ġ2 4
Ġháº¹ n
C áºŃu
Ġm áº©u
Ġs a
Ġng áº§m
Ġlá» ıng
Ġphá» ķi
Ġcá»ĳ c
I D
³ i
Ġt Ã²
Ġg Ãł
ĠnhÃ ¡
ĠÄĳÃ¡ y
áº© m
Ġnháº¡ y
ĠÄĳ áºŃu
Ġb log
an n
ĠT o
Ġvu Ã´ng
Ġ Æ¡i
Ġb áº¡ch
Ġh iá»ĩp
Ġháº¡ ng
Ġtho áº£ng
te in
Ġc Æ°á»Ŀng
Ġl Ã£o
ĠB ra
ĠS an
le y
Ġgam e
Ġt Ã¢y
há» ĩ
Ġl y
Ġk iÃªn
Ġtr Ã´i
Ġhá» ĳ
Ġqu Ã¡i
ĠF acebook
if orn
B áº±ng
s t
Ġthá» £
Ġr á»ĵ
Ġd Ãłn
Ã£ ng
Ġho áº¡i
ĠCal iforn
H Ã´m
S áº½
l in
Ġtr áº¯c
Ġp in
Ġqu Ã¡n
ĠC háº
Ġháº ±ng
Pháº §n
ĠCaliforn ia
Ġt Ã³m
Ġn Æ°á»Ľng
Ġl eo
Ġhá» ©a
Ġcháº ¥n
ĠM Ä©
am b
ĠÄĳ áº£ng
Ġl Ã¢y
Ġtr áº¡m
Ġqu Ã©t
Ġgi Æ°á»Ŀng
Ġgi Ãły
Ġn Ã©t
Ġng Ã£
Ġng á»±a
e k
m a
ĠÄĳ eo
Ġr Ã´
Ġnh o
Ġch Äĥng
ĠC á»±c
un d
Ġl Æ°ng
Ã¬ a
Ġx ÃŃ
ĠT w
ĠB a
al k
C á»
Ġt uyáº¿t
Ġm áº»
Ġ19 7
ĠmÃ£ n
n Ã³
Ġt Ä©nh
Ġv áº¯c
Ġtiáº¿ c
ĠD NA
ĠÄĳáº¿ m
p p
Ġm Ã¨o
ĠG eo
as s
ex ico
c e
o g
³ c
á» ĩ
Ġn inh
Ġk Ã¨m
Ġtr Äĥng
ĠM c
it h
Ġbá»¥ ng
Ġt Ã¡m
Ġc ong
Ġd Ã²
Ġd Ã¡n
áº« y
and a
« n
Ġl Äĥn
Ġd Ã£
Ġhá» ıng
ĠC á»
ĠC ol
ĠI ra
at e
ĠgÃ³ i
b er
o áº¡i
r on
Ġt uy
Ġqu Ãł
Ġkh uyÃªn
Tháº Ńm
ĠTh e
T hÃ
Ġ Ã©p
Ġt iá»ĩc
Ġv inh
Ġtr áº§n
áº« m
Ġem ail
Ng h
it e
Ġgá» ¡
Ġl Ã´i
Ġh Æ°
Ġgi áº¥u
ĠthÃ ³i
uá» ¹
Ġ3 00
ĠR ob
ID S
o Ãłi
Ġcá» ±
Ġlá» ģ
Ġlá» ĩnh
Ġdá» ©t
ÄĲ Ã£
Ġmá» Ŀ
ĠM exico
ĠCh ar
z il
Ġl Ã¢m
Ġtr á»ĳn
Ġng on
Ġg Ã£
Ġh eo
Ġtá» ĭ
Ġ2 000
Ġph iá»ģn
ĠÃ ļ
Ġcá»¥ m
ĠchÃ¬ m
ĠCan ada
Ġt ung
Ġl u
Ġl áº·n
Ġb Ã£o
Ġd Æ°
ĠN hÃ
at h
ĠlÃ£ m
ĠkÃª nh
C uá»Ļc
s h
Ġ im
Ġ and
Ġb uÃ´n
Ã¡ p
Ġng á»įt
Ġg Ãµ
ĠÄĳá» ±c
Ġkh ao
D P
d am
k y
Ġgi Æ¡
ĠB á»
ĠD avid
ĠNg a
f ord
l er
Ġ Æ°
Ġc áº¥t
Ġd ao
Ġth Äĥng
Ġgi Ã¡n
Ġmá» ĩnh
ĠH y
Ġvi rus
NhÃ ¬n
ĠÃļ c
Ġs Ãłn
ĠM ich
Ġkho an
Ġthu áº¿
r am
á» ĥ
Ġtr Æ°a
Ġh ang
Ġh Ãłm
Ġthá» ķi
qu ang
Ġqu ÃŃ
ĠA IDS
ĠP h
ĠL iá»ĩu
ĠcÃº m
ond on
Ġc ar
Ġl ang
Ġb áºŃn
Ġb áº¿p
Ġd Ã¡ng
in d
Ġsá» ¯a
Giá» ĳng
ĠBra zil
t in
Ġt Æ°Æ¡i
Ġv a
Ġl Ãµi
Ġb Ã¹ng
Ġx inh
au l
ĠB er
ĠR áºŃp
ĠChá» ī
m Ãł
Ġt Ã¢n
ĠlÃł n
Ġd Æ°á»£c
Æ°á»£ n
ĠL ondon
Ġbá»¥ i
L áº§n
Ġc áº¥m
Ġn áº£y
Ġs an
Ġng áº¯m
Ġr Ã©t
ĠphÃ ¬
ÄĲ Ã´i
Ġá» ŀ
ĠquÃ¡ t
ĠKen ya
o y
r ic
Ġt áº¯m
Ġb u
á»Ļ m
Ġtháº »
Ġháº £i
ĠÄĲ iá»ĥn
Ġkhá» ī
ĠP al
Ġtu Ã½
Ġcam era
3 0
Ġl iá»ģu
Ġl Æ°á»Ŀng
Ġs Æ°u
Ġtá» §
ĠT a
ĠM on
ĠS p
Ġ19 6
Ġo xy
m á»Ļt
Ġ Æ°a
Ġc Æ°á»Ľi
Ġm uá»Ĺi
Ã³ i
ĠM o
hi ng
Ġthá»ĭ nh
it ter
li ng
ĠâĢ ĵ
C áº£
i z
© o
Ġl Æ°á»Ľt
Ġs ay
Ġs Æ¡n
Ġr Ã£i
ĠH á»Ļi
ĠthÃ¡ p
ĠL e
ĠchÃº a
ĠkhÃ´ n
Cháº ¯c
r en
Ġtr Æ°á»£t
ĠthÃ ¹ng
VÃł i
Ġnháº «n
ĠC O
ĠM á»įi
ĠÄĲá» «ng
ĠIra q
Ġn á»Ł
Ġn an
Ġng áºŃp
Ġng á»ĳc
Ġnháº ¯m
Ġtrá» ¥c
ĠB an
ĠthÃ¡ m
Ġthu a
ĠkÃŃ n
2 0
b áº¡n
Ġt Æ°á»Ľng
Ġn á»ĳt
Ġthá» īnh
Ġp hÃº
ĠnÃł ng
Ġgi am
ĠchÃ ¢m
ĠthÃŃ nh
Ġph a
ĠK inh
Ġ4 00
Ġbá»ĳ t
Ġf eet
Pháº £i
L Ã½
Ġd Ã¡m
Ġqu á»
Ġqu Ã£ng
Ġx Ã³m
ÄĲ áº¿n
ĠN ig
ĠB l
ĠB ill
ĠR os
h am
Ġd áº¯t
ĠT háº
ĠB ar
Ġkhá» Ľp
S A
Ġc áºŃy
Ġc uá»Ļn
Ġn áº¯ng
Ġs ung
Ġth iá»ĩt
an a
ĠphÃ¡ i
Ġ15 0
b y
Ġl Ã´ng
Ġb Æ¡
Ġra u
Æ°á»Ľ p
Ġto áº£
ĠP ar
ĠthÃ¡ o
ĠG DP
li p
Ġpháº¡ t
ĠTw itter
Ķ i
Ġm áº¡n
Ġb ong
Ġtr Ãł
Ġg áº¥u
ĠT im
ĠnhÃ £n
áº» o
Ġháº§ m
ĠCh ris
ÄĲá» «ng
KhÃ¡ n
D Ä©
T o
n e
Ġt uyá»ĥn
Ġc Æ°á»¡ng
ĠÄĳ uÃ´i
Ġn á»į
Ġd Ã£y
Ġvá» Ł
Ġkh uy
Ġkh Æ¡i
on y
ĠB Ã¢y
ĠS au
ĠK ho
ĠJ o
ĠTá» ķ
M áº·c
áº¿ ch
Ġch Æ°á»Ľc
ol f
ĠW as
G áº§n
Ġt i
ĠÄĳ Ã¢m
Ġs li
Ġnhá» Ł
Ġbá» Ľt
ĠM áº¹
ĠB os
Ã© o
ĠTr á»Ŀi
Ġthu áº«n
ĠTh iÃªn
oo d
ins tein
v er
Ġ e
ng el
Ġl Ã¡t
Ġm uá»Ļn
an i
ĠS ao
Ġhá»ĩ t
Ho Ã¡
ĠchÃ¬ a
K áº¿t
T iáº¿p
d er
Ġl Ã²
Ġl Ã¹i
Ġb á»į
Ġth Æ°a
Ġchá» Ł
Ġchá» ¥c
Ġra nh
Ġmá» ĩt
ĠÄĳi Ãªu
Ġlo g
ĠG re
ĠD Æ°Æ¡ng
ĠGeo r
B áº¥t
a el
Ġ j
á» Ĵ
Ġho áº£
Ġmá» ¹
ĠB ang
Ġláº¡ m
ĠhÃ² n
Ġsli de
C Ã¹ng
Ġc ac
Ġv ua
Ġb Ãºt
Ġng á»±c
Ġpháº ³ng
Ġná» £
ĠÄĳá»ĵ i
ĠA b
ĠE d
ĠthÃ´ n
ur g
ĠY ou
ĠHo áº£
ĠGi Ã¡o
Kho áº£ng
hing ton
v Ã¬
x i
§ m
Ġv áº¹
Æ° Æ¡n
Ġm Ãºa
Ġk hÃºc
Ġtr áº¥n
Ġg Ã¡nh
ĠÄĳá» Ľi
Ġnháº ·
ĠC áºŃp
Ġsá» ©
ho m
ĠNh a
Ġá»ĵ n
u g
z a
Ġm áº¥u
Ġsá»ĳ c
ĠM I
Ġká» ĭp
ĠB e
or t
ĠV iá»ĩn
ĠChÃ Ńnh
ĠThá» ±c
Ġcar bon
k a
Ġv áº£i
Ġr ung
Ġcá» Łi
Ġmá» ıi
ĠS m
et t
Ġrá» ħ
ĠJ am
Ch uyá»ĩn
ĠWas hington
s ite
Ġd uyá»ĩt
á»ĳ m
áºŃ m
Ġngh iá»ĩn
ĠM á»
ĠB en
ĠH Ãł
ar e
ol a
and er
ik e
ĠkhÃ´ i
E m
M áº¹
c Ã³
Ġh Æ°u
Ġr Ã¡p
Ġcá» ĳi
ĠthÃ ¢m
ĠM áº·t
Ġnghá» ĭch
Ġngo an
ĠTED x
Ġin ternet
Ġweb site
ĠFran c
ĠhÃ£ ng
ĠNig eria
Ġb Ãª
Ġkh iáº¿m
ĠC ho
ĠN Ãły
Ġkháº ³ng
ĠTr Æ°á»Ŀng
Ġhá»ĵ ng
Ġnháº· t
H Æ¡n
N á»
Ġ a
Ġc uá»ĵng
Ġv Ã¢y
Ġl Æ°á»¡ng
Ġm Ã¢u
Ġnh iáº¿p
Ġth a
Ġmá» ĵ
in c
ĠC uá»Ļc
ĠÄĳá»ĭ ch
le x
C Æ¡
i er
Ġg an
Ġsáº ¯t
ĠkhÃ³ i
il li
ĠW ik
ĠphÃŃ m
ĠThá» ķ
tr ess
ub e
Ġháº¹ p
ĠVá» Ľi
Bá» ©c
Ġcac bon
ĠMI T
l an
Ġv Æ°Æ¡n
Ġl áºŃt
Ġr áº¯n
on es
Ġ1 000
ĠB ro
ĠL á»
Ġc o
ĠÄĳ Ãłm
Ġm áº£ng
Ġkh uyáº¿t
ĠÄĳÃ¡ o
ĠP ak
ĠL os
Ġ3 5
Thá» Ŀi
Ġ200 8
Äĳ Ã³
P S
l d
r os
ĠÄĳ áº»
Ġn on
Ġl ong
Ġg á»ĳi
Ġcá» «u
ĠphÃ ´
Ġkho Ã¡i
ĠB Ãł
ĠH á»
ĠH á»įc
ĠL a
ĠÄĳo an
Ġrá» Ńa
as t
Thá» Ń
O k
§ a
Ġc áº¡n
Ġs tress
ĠB Ã¬nh
ĠTh Æ°á»£ng
ĠO K
ed ia
ĠGiá» Ŀ
hom as
u p
w ard
Ġt áº§n
Ġc Æ°á»Ľp
Ġm anh
Ġb Ã¹
Ġs áº¡n
Ġd Ã¢m
Ġd áº»o
ĠmÃł ng
ĠT hÃ
Ġmá» ĵi
ĠchÃŃ n
ĠN a
ĠS ch
ĠP há»
Ġ4 5
ic a
ol ly
ĠÄĲá» ĥ
ĠFranc is
ĠPak istan
B ao
e en
Ġ NhÆ°
ĠÄĳ áº¡n
Ġl áºŃn
Ġtr eo
Ġtr Ã¢n
Ġh ack
Ġd áº¡o
Ġd áº£i
ĠC r
Ġlá»ĩ ch
Ġváº¹ n
o k
v e
¥ ng
Ġc áº¯m
ĠÄĳ áº¡c
Ġlá» £n
ĠH ig
al d
as h
ich ard
ĠbÆ¡ m
R Ãµ
c k
y n
Ġt Ã´ng
Ġc áº¯p
Ġv Ä©nh
Ġd e
Ġlá» Ŀ
ĠÄĳá»ģ n
ĠN á»
Ġquy Ãªn
ĠL u
ap t
ĠNg Ãłi
tr ong
B á»Ļ
p e
ĩ n
Ġb á»įc
Ġb áº¯p
Ġk iá»ĩt
Ġnh Ãłng
Ġkhi Ãªu
ĠC Ã²n
ĠM a
ĠH Ãłn
ĠH iá»ĩp
am i
ĠD ar
ĠR e
ic e
ĠE instein
Ġtu Ã¢n
ĠSt ev
Ġgen e
Ġkáº¹ o
Ġkáº¹ t
Ġbu Ã½t
Ġkhuy nh
c om
l or
o x
r ist
Ġv Ã©
Ġl áº¥p
Ġm Ã²n
Ġb ia
Ġh am
Ġh uyá»ģn
Ġd á»įn
Ġnháº §m
ĠC á»Ļng
ĠB áº£o
ĠH e
ĠG PS
ri d
ĠTá» «
Ġ201 0
o und
ĠÄĳ ai
Ġm ic
á»Ļ p
ĠÄĳá» Ĺ
Ġtháº ¯c
Ġgi Ã£n
ĠA ngel
ĠP hÃ
es ter
at ion
ĠÃ Ģ
ĠchÃº c
ac c
ĠO b
ĠThá» ©
ĠHai ti
ĠPháº £i
T Æ°Æ¡ng
f t
Ġ amp
Ġv ay
Ġl Å©ng
Ġm Æ°á»Ŀi
Ġtr Ãº
Ġg a
Ġr áºŃp
Ġx Ã¡m
Ġná» ģ
ĠN e
Ġtá»± a
ĠR áº¥t
el a
ĠÃ Ķi
NhÃ ¢n
r Ãºt
w in
ĭ nh
Ġc Æ°Æ¡ng
Ġm á»įc
Ġthá» ķ
Ġd á»Ł
Ġch Äĥn
ĠthÃ ©p
Ġmá» ıng
er n
ĠP aul
ĠE l
ĠO k
Ġcá»± u
& #
1 0
B a
R I
d i
Ġn Ãªu
Ġv Æ°á»£ng
Ġd á»ĳc
ĠÄĳá» £t
ĠkhÃ ©o
Ġtháº ±ng
ĠC Ã¡ch
ĠC Ã¡m
Ġ2 3
ĠK h
ĠL áº¡p
Ġngá» «a
or g
Ġ7 5
ep h
Ã Ģ
Ġn Ã¡t
Ġl Æ°á»£t
Ġs Ã´i
Ġd Å©ng
Ġcháº £
ĠN A
uá» ³
en d
ĠK hÃ¡
ĠhÃ´ i
id e
Ġs t
Ġr áº½
Ġvá» Ĺ
Ġqu i
Ġx Ã´i
Ġchá» £
Ġmá» ī
am in
ĠA t
ĠP r
Ġtho Ã¡i
it y
ĠAn d
ĠHar v
ĠChar les
K h
M áº·t
k hÃ´ng
n ey
Ġn áº£n
Ġh ung
ĠmÃł y
Ġho Ãłi
ĠphÃ¡ c
ĠH áº£i
ĠP et
Ġháº¡ ch
ĠD er
Å© i
ol d
Cá» ©
N há»
P há»
Ġv ang
Ġtr áºŃt
Ġd á»Ļi
ot t
Ġra d
Ġbá» Ĺng
ĠT alk
ĠbÃ¡ ch
ĠR á»ĵi
at es
Ġ19 4
ĠNg há»ĩ
ĠCh iáº¿n
ag o
Ġtháº§ m
ĠnÃ© n
ĠFran k
Ġi Ph
b ert
Ġt iá»ħn
ĠÄĳ áº½
Ġv Ãµ
Ġm en
Ġb áº¥y
Ġg Ã¡c
Ġch ua
Ġx Äĥng
Ġngh iá»ĩt
ĠT á»±
Ġtrá» «u
li e
Ġ200 7
Má» ¥c
uc k
ĠxÃŃ u
ĠGeor ge
P M
n er
Ġv an
Ġm uá»ĳi
Ġb Ã¬a
Ġng háº
Ġhá» ¥t
Ġná» ¥
en s
Ġph o
is h
Ġcá»ķ ng
L oáº¡i
P hÃ
T ED
e an
l ad
ĠÄĳ Ãł
há» į
Ġl Æ¡
Ġl áº¯c
Ġtháº ³m
Ġx Ã©
Ġx ÃŃch
ĠM al
lo w
ip edia
Ġru á»ĵi
ĠiPh one
S á»ĳ
T in
n há»¯ng
´ n
Ġ á»ĳc
Ġl Ãºa
Ġm á»Ļng
Ã¡ u
Ġs Ãºc
Ġtr á»Ļm
Ġgi áº·t
ĠhÃ ³c
ĠC áºŃu
ĠN ob
ĠA pp
ar y
Tr ung
im er
Ġso áº¡n
Ġvá»¥ n
ĠMich ael
H Ãłng
H á»ĩ
T hÃ´ng
c el
t oc
Ġ á»ĳm
Ġm Æ°Æ¡i
Ġb Æ°á»Ľ
Ġg Å©i
Ġr Å©
Ġth e
Ġx Æ°á»Łng
Ġx Æ°á»Ľng
Ġchá» £t
ĠT om
ĠT homas
ĠtÃŃ m
ĠTr ans
at ch
ĠJ u
ĠNg h
ĠIn d
um b
Ġo f
ĠThÃ¡ nh
ĠOb ama
H Ã¬nh
T Ãªn
Ġ al
Ġ áº¿ch
á» ©c
Ġm Æ°á»£n
Ġtr Ã¡ng
Ġng áº«m
an ia
ÃŃ t
Ã¹ m
Ġcháº ½
ĠhÃ ©t
ĠÄĳá»Ļ n
Ġ-- -
Ġkho Ã¡ng
Ġ2 2
ĠS ah
ĠD i
ĠJ os
ĠNg Ã¢n
ĠO h
Ġ9 9
th al
iv i
ĠHarv ard
B Ãªn
K á»ĥ
n áº¿u
p t
Ġc Æ°á»£c
Ġv Ã¡n
Ġl Ã¢n
Ġb áº©n
Ġtr Ã¡n
ĠÄĳá» ĩ
Ġnh Æ°á»Ŀng
Ġcá» ĳng
Ġqu áº·c
áº± n
Ġdá» Ĺ
in k
ĠnhÃł o
ĠN háº
ĠB ig
Ġquy áº¿n
ĠA dam
ĠR om
ĠRob ert
ĠSm ith
ĠWik ipedia
B Ãłi
c Ã´
e ah
u e
Ġl Ã¡nh
Ġm áº¿n
Ġb áº¥m
ÄĲ iá»ĥm
ĠgÃ¬ n
ĠC am
ĠbÃ¡ m
Ġnháº¡ t
is s
ic on
ĠF re
ĠO r
Ġ200 9
Qu Ã¡
ber g
Ġlá»ģ u
ĠFrancis co
Ġhack er
ĠAngel es
ĠNob el
M ay
P A
S ao
m p
u k
ĳ c
Ġs Ã´
Ġs ho
Ġh iáº¿p
ot a
Ġsáº ¯m
Ġná» ĵng
ĠsÃ¡ o
or an
al i
ĠR ichard
Ġrá» Ĺng
ĠmÃ£ nh
ĠÃ´ m
Ġxá» ī
ĠChá» §
att an
Ġru á»Ļt
ĠPar is
ĠKho a
ĠNA SA
toc in
d ro
i x
Ġc Ãłi
Ġn Ã´
Ġl Ã¹ng
Ġl uá»¹
Ġnhá» ĩn
ĠchÃ ´n
Ġmá» ķ
Ġph un
ĠL Ãł
ĠG ab
Ġ3 6
ĠNg Ãły
us h
hÃ¡ u
az on
Ġlog ic
Ġrad io
. .
B á»ĳ
l en
Ġv áº¡ch
Ġth ung
Ġgiá» įt
ĠT or
Ġlá» ĵng
Ġtháº¥ m
ĠA lex
ĠG r
Ġxu Ã¢n
ĠW eb
Ġ200 5
Qu an
ud io
apt op
ĠSah ara
c ri
e h
t or
Ġs Ã©t
Ġtr iá»ĩt
Ġr Ã£
Ġvá» Ŀ
Ġth Æ°á»£ng
Ġx Äĥm
Ġlá» ¡
ĠC op
ĠM Ã¬nh
hi a
ĠN Äĥm
ĠD an
ĠD Ã¢n
et h
Ġchá»į c
ac e
ĠHo Ãł
ro p
Ch iáº¿c
Ġin ch
ĠNh Ä©
Ġhuy nh
ĠhÃ£ m
b ur
m e
t Ã´
x in
Ġ oh
Ġt Ãª
Ġt ivi
Ġv Ã²i
Ġl Äĥng
Ġl Ã©o
Ġm Ã³ng
Ġb Ã³c
Ġr un
Ġcá» į
anh attan
ĠC Æ¡
ĠL eg
ĠG u
ra ham
ag e
az z
he imer
ĠDar win
ĠDer ek
cri pt
A n
N háº
o ur
r ia
w ood
z heimer
Ġ áº©m
ĠÄĳ c
Ġv Ã²
Ġqu áº¡
an t
ĠT iáº¿n
ĠC l
ĠM an
ĠM ad
ĠM anhattan
er ry
Ġtá»± u
Ġ2 7
ĠS Ä©
Ġvá»ĭ nh
il icon
Ch a
ĠAl zheimer
Ġoxy tocin
To Ãłn
ĠGre en
ĠStev e
B áº£n
c a
c ago
j a
l ine
s s
Ġ Ã¡i
Ġt uá»·
Ġl i
Ġvá» ©t
Ġchá» Ľp
Ġkhi Ãªm
Ġcháº ±m
Ġmá» ³
ĠC Ã¢u
ĠL ib
al a
ĠR w
ĠV en
ĠQ uá»¹
Ġchu Ã´ng
ĠW or
ĠkÃ¬ a
ĠCar ol
ĠAm azon
ĠJam es
S D
T hÃ¡
g s
Ġn áº¿p
Ġl Æ°á»¡i
Ġl uá»ĵng
Ġl aptop
Ġb á»ĳc
Ġk m
Ġng áº©n
ĠÄĳÃ³ m
Ġx Ãł
ĠT iáº¿ng
ĠchÃ ¹
ĠH aw
Ġ2 6
ĠS e
ĠS y
ĠS ub
os ter
ĠI I
us s
Ġnhiá»ħ u
oc a
ĠChi cago
ĠBos ton
ĠvÃµ ng
L áº¥y
m m
t it
Ġ 000
Ġk iÃªng
Ġng Æ°ng
Ġg áº¡ch
Ġr on
Ġtháº ¯t
Ġbá» ĵi
Ġho Ãłnh
Ġdá» ĭp
ai r
ĠH ay
iá»ħ u
ĠÄĳo áº¡t
ĠW al
Th iáº¿t
Th Ãłnh
ĠMar k
ĠMar tin
Ġ199 0
Ġlu i
ĠRw anda
D á»
T Æ°á»Łng
f i
p er
v á»
Ġ áº¥u
Ġc ent
ĠÄĳ Ãºc
ĠÄĳ uá»ĳi
Ġv acc
Ġs á»į
Ġg áºŃy
ĠT al
ĠnhÃ ³c
ĠM e
Ġkho Äĥn
Æ°á»Ł i
ĠA d
ĠL at
Ġngá» Ľ
ĠÄĳÃ´ la
ri an
ĠSt an
ĠThá» Ŀi
Ġtuá» µ
Ġ25 0
Ġnan o
r ew
£ m
Ń ng
Ġc u
ĠÄĳ áºŃm
Ġg olf
ot h
Ġbá» ĥ
Ġho Ã£n
ĠhÃ Ńt
Ġmá» ¡
ĠS am
im b
Ng há»ĩ
at han
Ġrá» ī
ĠE n
Ġ6 00
ĠháºŃ n
Ġhy dro
ĠNhÃ ¢n
ĠMon t
ĠTá»ķ ng
illi am
rid ge
A l
e z
l ick
t há»
Ġt iá»ĩm
Ġv áº£
Ġng á»Ļt
Ġnhá» §
ĠnÃł n
ĠÄĲ áº£ng
ĠS inh
ĠG ates
ĠD el
Ng he
Ng oÃłi
ur e
ĠghÃ ª
ĠU y
Äĳ Ã¢y
Ġhá»ķ ng
ĠApp le
ĠTrans cript
ĠSub tit
ĠSubtit les
T Ã¬nh
m er
n y
o ft
½ n
Ġ on
Ġc anh
ĠÄĳ iá»ģn
Ġv á»Ļi
Ġl am
Ġb Äĥn
Ġb áº§y
Ġg Ã£y
Ġg om
Ġch uyá»ģn
Ġgi áºŃt
ĠC o
em en
ĠA c
ĠS w
ĠG al
ĠD á»±
ĠV iá»ĩt
ĠJ on
us t
ĠO x
ian o
Ġi P
ĠnhÃ¡ nh
Ġquá» ·
ĠBro w
Ġngháº ½n
B áº¯t
l ar
Ġ Æ°Æ¡ng
Ġv áº¥t
Ġb áº©m
Ġgi en
Ġho an
ĠC oca
ĠgiÃ¡ p
ĠP ark
ĠK oran
Ġ200 4
re d
id a
Qu Ã½
Bá» ĩnh
ĠTim es
Ġmic ro
Phá» ¥
L á»
M ar
n a
s ter
Ã Ĥ
Ġ or
Ń i
Ġl á»į
Ġm áº§m
Ġb áº»
Ġs Ãºp
Ġtr Ãºng
Ġd áº¡i
Ġch Ãły
Ġth iÃªng
Ġbá» ĵ
ĠT as
Ġdá» ĩt
in i
ĠC E
ĠB áº±ng
al e
ĠJ ack
ĠF lor
Ġ9 5
Ġ200 6
ĠÄĳá»ĳ m
ĠCháº ³ng
N Æ¡i
O K
T Ã¡c
c ar
Æ ¯
Ġ uy
Ġ Ãło
Ġt Ã¹ng
Ġv áº·t
Ġl á»Ļt
Ġs Æ°á»Ľng
Ġr áº¡p
ĠÄĳá» ¥ng
Ġnhá» ĭ
ĠnÃ³ n
Ġx Ã¡ch
ĠT Æ°
ĠhÃ ´ng
in t
in son
ĠM RI
en z
es h
Ġphi Ãªu
Ġphá»ĳ t
ĠJ e
ĠCh rist
ĠNÃ³ i
Ġxo áº¯n
Tá» ķ
Ġxá» ©
Gi Ã¡o
Ġ196 0
ĠHá» £p
ĠGab by
ĠvÃ² m
C áº§n
D avid
Q ua
T á»ĳt
u el
Ġ uá»ĳn
Ń p
Ġv Æ°Æ¡ng
Ġr á»Ļn
Ġr Ã¬a
Ġtá» ĭch
Ġqu e
ong o
ÄĲ áº¥y
ĠB ur
ĠB ab
Ġ2 8
ĠK ing
ĠL Ã½
al ia
ĠW illiam
Ġ19 5
ĠTh eo
Ġ200 3
ĠSt ar
Ġ197 0
Ngh Ä©a
ĠNhÃ ¬n
ĠPal est
L oÃłi
c há»
g o
v áºŃy
w e
Ġc lip
Ġm á»ĳc
Ġb iáº¿m
Ġthá» ĳt
Ġd áºŃp
ĠkhÃ ¹ng
ĠcÃ¡ p
Ġtháº ¯n
Ġkh an
Ġkh en
Ġnháº ¥p
Ġcáº£ ng
ĠC amb
ĠM y
ĠM ac
Ġká» ģ
en ry
ĠS im
ĠK há»
ĠK ar
ĠG o
ĠG and
Ġ3 2
ĠD á»
ĠR io
ĠV an
il e
ĠW hi
ĠW at
Ġ6 5
om b
ĠCh Ãł
ĠCh uyá»ĩn
Th Æ°á»Ŀng
ig h
ig ami
th er
Ġ12 0
ow n
ĠtÃ´ m
Ġ201 1
Ngh iÃªn
iz za
Ġvacc ine
Ġor igami
B Æ°á»Ľc
C hÃº
T ube
g er
k hi
t o
Ġ el
Ġl au
Ġb á»±c
Ġb Ãºa
Ġk em
Ġk áº½
Ġp iano
Ġcá»§ ng
ĠT uyá»ĩt
ĠnhÃ £
ÄĲ Æ¡n
ĠchÃŃ p
ĠnhÃł m
ĠM ic
Ġkho ai
Ġká» ĩ
ĠN or
ĠB Ãłi
ĠA h
Ġsá»Ń ng
ĠP háºŃt
ĠL ad
Ġá» §i
Ġtho Ã¡ng
ĠW ar
ĠU g
ou th
Äĳ á»ĥ
ĠchÃ³ c
ĠZ e
ec t
ThÃ ªm
Ġa x
ĠÄĳá»ĩ m
ĠTas man
D á»±
b a
l u
Ġt Äĥm
ĠÄĳ inh
Ġm Ã©p
Ġk áº¹p
Ġs Æ°á»Ŀn
Ġtr Ã¹m
Ġch Æ°á»Ľng
Ġta m
Ġx á»Ļn
Ġcho Ã¡ng
ĠT es
Ġdá» ĵn
Ġmá» Ľ
ĠB ush
Ġph e
Ġph Æ¡i
Ġvá»ĭ t
Tr áº»
Ng uyÃªn
Ġrá» ¡
ĠTh Ãłnh
ĠY emen
Giá» įng
ĠhÃ¡ i
un t
ĠghÃ ©
ĠthÆ¡ m
han a
tr on
Ġhu Ã½t
gh t
Ġst udio
mp ic
A R
C ola
K háº
M Ã¡y
N Æ°á»Ľc
c on
l ob
v an
á» Ľ
Ġt áº¡ng
Ġtr iá»ģu
Ġtr Ã¨o
Ġg ai
Ġg áº¡t
Ġd ai
Ġth iá»ģn
ĠC A
ĠM ay
ĠN Ãªn
ĠB á»ĳ
Ġtá»ĳ ng
ar ah
ĠK Ã¬
ĠÄĳo m
Ġngá» ¥c
ĠG ia
Ġ3 000
ĠTr á»
ĠmÃ´ t
Ġrá» Ĺi
il le
it z
ĠF ord
ĠÄĲá» ı
ly n
ib an
Ġdá»ĭ u
ĠPháº §n
ros oft
ĠHig gs
ĠbÆ°á»Ľ m
ĠWor ld
ĠOx ford
ĠUg anda
d y
Ġ Ã¢u
ĭ t
Ġt Ãºng
Ġm Æ°u
Ġng Æ°
Ġh Ãłn
Ġr Ã¢u
Ġr Ã¨n
Ġta ng
Ġgi eo
ot le
ĠnhÃ ©t
ĠC ongo
ĠN L
ĠN an
ĠB u
ĠS u
Ġkháº ©n
Ġph iáº¿n
ĠL ED
Ġtrá»į n
ĠG en
Tr á»Ł
ĠV iá»ĩc
Ġ19 50
ed a
Äĳ iá»ģu
ĠYou Tube
Nhá» Ŀ
ĠLeg o
ĠSy ria
ĠCamb ridge
5 00
k g
ª nh
Ġ am
į n
Ġt áº©y
Ġv áº§n
Ġb Ã³n
Ġs c
Ġh Æ°ng
Ġd Ãª
ĠÄĳá» ¥c
an e
ÃŃ n
ĠT uy
ĠT á»ĳt
on ald
ĠhÃ ¢m
ĠC y
Ġháº »
ĠM ah
Ġtrá» ħ
Ġdo l
ĠP er
ĠK im
Ġngá» ¥
Ġngá» «
ĠG hana
Ġ3 3
et ro
at i
it ch
ĠW all
ĠE ric
ĠCh Ãło
ÄĲá» ©a
ow er
Gi áº£
ĠBr ook
rop y
T iáº¿ng
l Ãł
o áº¡n
t en
z e
¥ i
ĭ a
ĠÄĳ Ã²n
Ġv áº¡n
Ġb anh
Ġb á»Ļc
Ġg h
Ġp izza
Ġd áº¹p
Ġcá» ĵn
Ġvá» įt
áº¥ ng
ĠcÃ³ c
Ġch iÃªm
á»ĳ p
Ġx ay
ĠthÃ ¨
ÄĲ Æ°á»Ŀng
Ġphá» ĵng
ĠM and
eo p
Ġtrá» «ng
ĠN Ãło
er o
ĠA s
ar i
ĠP l
ĠL ester
or a
ĠO ly
ĠHo Ãłng
ri ght
Ch Æ°a
Ġj azz
ander thal
ĠNe anderthal
ĠPet er
Ġsho w
B Ã¡c
M T
S te
e f
f e
m on
s au
t hÃ
v en
´ i
Ġ ac
Ġ Æ°á»Ľt
ĠÄĳ Ã¨
Ġv áº¯ng
Ġv áº©n
Ġl Ã´
Ġl Ãª
Ġb uá»ĵng
Ġs er
Ġr á»ĳt
Ġp ound
Ġd Æ¡i
Ġnh a
Ġvá» Ľ
Ġch ay
Ġnhá» Ļ
Ġngh iÃªng
ch o
Ġbá» ĵn
ĠT ex
ĠT ony
ĠphÃ¡ o
ĠM Ãł
er e
ĠH enry
Ġqua d
ĠS hi
ĠS ing
Ġngá» £i
Ġngá» Ńi
ĠTr Ãªn
as er
Ġ200 1
ĠÃ´ tÃ´
th ur
op h
ard o
ĠX Ã´
ul in
yl v
ĠâĢ Ķ
ĠSc ot
ĠJo e
ĠPhÃ ²ng
ĠStan ford
ĠFlor ida
ĠMic rosoft
á»Ľ c
ĠTex as
1 2
B M
B an
e nh
h ua
Ġ áº¥p
Ġ ent
á» «
Ġn Ã¢u
Ġn uá»ĳt
Ġb Æ°u
Ġb áº«y
Ġk Ã¬m
Ġng Ã¢y
Ġd Æ°a
Ġnh i
Æ°á»£ m
Ġx áº£o
ĠnhÃ ´
ĠC hÃ¡u
ĠB on
ĠH ans
ĠA p
ĠP at
ĠL uáºŃt
ĠTr Æ°á»Ľc
ĠbÃ¡ t
Ġbá»ı ng
Ng Æ°á»£c
ĠV ir
Ġ... .
ĠHo ward
ĠU n
ag en
ĠÃĤ m
ak e
Ġtháº¡ o
ani el
Ná» ģn
Ġon line
ÃĤ m
Æ¯ á»Ľc
ĠthÃ¨ m
Ġent ropy
1 8
2 00
k ins
o ot
s ulin
¡ c
Ġt áº£o
Ġc ay
ĠÄĳ áº¯m
Ġn áº¡p
Ġb áº¿n
Ġb áº©y
áº¿ m
Ġr á»±c
Ġd Ã¢ng
Ġch iÃªn
Ġth en
Ã¬ u
Ġta o
Ġqu áºŃn
Ġx áº¿
Ġpháº ¿
ch ia
ÄĲ a
ĠM Ã¡y
ĠN ord
ĠÄĲ Ã´i
ĠS áº½
or y
Ġvi rÃºt
ĠJ er
ĠJ im
ol e
ĠW olf
Ġ8 5
Gi Ã¡
ĠBr on
ĠSh ak
ĠxoÃ¡ y
ĠVá» ĭnh
Ġ198 0
ĠAb raham
ĠYou t
olly wood
ĠchÃ¹ m
ĠTal iban
ĠOly mpic
1 9
4 0
J ohn
M Ãłu
n es
r ap
s e
t s
Ġ uá»·
Ġc á»Ļ
Ġn ÃŃn
Ġl ay
Ġng Æ°Æ¡i
Ġg ay
Ġd iá»ģu
Ġth iáº¿p
Ġth uá»³
Ġnhá» ĵi
Ġkh iáº¿u
ÄĲ á»Ļt
ÄĲ á»ĵng
ĠM u
em p
ĠB ay
ĠB ol
ĠÄĲ áº¡o
ĠS outh
ĠK y
Ġvi Ãªm
ĠR ock
ĠV Æ°Æ¡ng
at a
Ġ20 50
ro g
ag h
Ġnhu á»Ļm
ĠPhÃ¡ t
Ġlu Ã¢n
ĠBá» ĩnh
ĠRos ling
ĠBrow n
Ġdol lar
Ġnhá»Ļ n
ĠYout ube
C H
b á»Łi
d a
d en
Ġl áºŃu
Ġs Ã¹ng
Ġtr inh
Ġtr á»Ļi
Ġg á»Ļp
Ġtháº ¯p
Ġx Ã´
Ġx Ã¡
Ġx áº£
Ġkh Äĥng
Ġngh iá»ģn
an z
ĠT ur
on a
ĠhÃ ©
ĠhÃ ¢n
in o
ĠC Ã¹ng
ĠC ap
ĠM or
ĠM áº¡ch
ĠH er
Ã© n
ĠÄĲ a
ĠÄĲ Ã£
ĠS i
ĠL Ãºc
Ġ3 1
ĠD e
Ġkhu áº¥t
Ġso i
ĠV Ã´
ĠV Äĥn
Ġ7 00
Ch ar
Chá» §
Chá» ĭ
ev er
ĠAr ist
Ġbá»ķ ng
ark et
Ph Æ°Æ¡ng
urg er
ĠMá» Ĺi
ĠNá» ¯
ĠLat in
ĠNord en
1 5
V áº«n
m y
r ut
y an
Ã ģ
Ġ Ã¢n
á» ·
Ġt w
Ġc ai
Ġl á»Ļi
Ġl Æ°á»£m
Ġm ar
Ġm á»įt
Ġb áº¿
Ġk eo
Ġs áº¿p
Ġs Ã³i
Ġtr Ãªu
Ġng Ã´
Ġng á»Ļ
Ġg áºŃp
Ġr ay
Ġr ia
Ġnh Äĥn
Ġx en
Ġdá» ¡
ĠM il
Ġkho Ã¡n
Ġ2 9
ĠÄĲ an
ĠÄĲ á»ĵng
ĠA ir
ĠS er
ĠG ore
ĠD V
ĠD a
ĠD etro
al and
ĠR ay
el son
et on
Ġ5 5
is on
ol l
ĠW il
ĠF or
ĠNg he
Ġchi p
ĠHo áº·c
Ġ8 00
re et
Ġin sulin
ĠGi Ã¡ng
ĠGiá» Ľi
Ġcu áº£
lob al
ĠScot land
ĠArist otle
ĠDetro it
A M
E C
c Ã¡c
g in
g ar
k el
m ad
t an
§ y
Ġt ua
Ġc áº©u
Ġn e
Ġn it
Ġv áº«y
Ġl aser
Ġs áº£nh
Ġtr Æ°Æ¡ng
Ġr áº£i
Ġd ang
ĠkhÃ ©p
ĠkhÃ ¢u
Ã¢ t
Ġkh e
Ġbá» Ľi
ĠT Ã¬nh
ĠT hÃ´ng
Ġháº £
ĠM os
ĠM el
ĠM ill
ĠB al
ĠB rian
ĠH ill
ĠA ri
Ġkhá» ĳn
ĠS al
ĠL ong
es pe
ĠV ic
Ġrá» ķ
ap ore
ĠE ar
ĠE ur
ĠO s
li an
Th Æ°a
ĠhÃ¡ n
ĠSt reet
ĠU SD
av e
ĠGi ai
ev in
ian a
ans as
ĠbÃ³ p
sh a
ĠBl ack
ones ia
ĠInd onesia
bur gh
vá» Ľi
ĠCE O
ĠCy rus
Ġháº» o
ĠMand ela
ĠBron x
arket ing
B C
C Ã¡
N Ã£o
S h
b Ã¢y
d o
h ay
i es
k e
n ia
r á»ĵi
u x
Ġt Æ¡
ĠÄĳ Ãłng
Ġn Ã£y
Ġv áº·n
Ġl Æ°á»£n
Ġng Æ¡i
Ġg iáº¿ng
Ġthá» ģ
Ġd ev
Ġtá» ¥t
Ġx Ãłi
Ġchá» ĳn
ot o
ĠT it
ÄĲ i
Ġsá» ıi
Ġkho ang
ĠH á»ĩ
ĠÄĲ áº¿
en ce
ĠA v
Ġkhá» ĳc
ĠS om
ĠK áº¿t
ĠD is
ĠR o
ĠV ÃŃ
oo p
Ġcháº· ng
ĠPh Æ°Æ¡ng
ĠphÃ´ i
ĠbÃ¹ n
cel and
ĠPalest ine
ĠWat son
ĠLad en
ĠShak espe
8 0
B I
C C
C hi
C ar
H áº¯n
P T
b á»ĳt
c ol
e ar
i um
j o
Ġn áº¡
Ġn uá»ĳi
Ġn áº¯p
Ġn áº¿m
Ġv Ã¡ch
Ġl Ã¡ch
Ġl iÃªng
Ġm i
Ġm uÃ´n
Ġm arketing
Ġs p
Ġng áº¯t
Ġng Ãło
ĠvÃł n
Ġh Äĥng
Ġh Ãłu
Ġr Ã²
Ġr áº·ng
ĠÄĳá» įng
Ġnh Æ°á»£c
qu e
Ġqu áº¡t
Ġx i
Ġx Æ¡
Ġkh iáº¿t
ĠÄĳÃ£ i
á»į ng
Ġlá» ©a
Ġlá» Ńng
ĠC D
ĠM at
ĠM ur
ĠB áº¯t
Ġlo a
ĠH Ã´m
ĠÄĲ i
ĠÄĲ áº§u
ĠÄĲ iá»ĩn
ĠÄĳá»ĵ n
Ġbá»Ļ i
ĠK n
at ar
il et
Ġmáº¹ o
ĠE ver
ĠÄĲá» ĭa
ĠGi áº£i
ĠQu an
iv ers
ph a
Ġlog o
ĠbÃª nh
Ok ay
ĠCarol ina
ThÃ¡ ng
ĠMont ana
ĠZe aland
Ġtw eet
ĠDV D
ĠVic tor
I n
M A
S W
h ai
o int
v ille
Ġ +
ī a
Ġt Ã¡t
Ġc lick
ĠÄĳ an
ĠÄĳ un
Ġv Ã¡y
Ġl áº¥n
Ġl en
Ġm il
Ġb on
Ġk il
Ġs uá»ĳi
Ġh iáº¿u
Ġd Ã¢u
Ġqu Äĥng
ĠthÃ ª
ot on
an th
ĠT am
ĠT ed
Ġdá» Ŀi
ÄĲ áº·c
Ġto a
Ġto ilet
er on
ĠH ollywood
am ine
ĠÄĲ Ã´
ĠS á»©c
ĠS ilicon
ĠP ro
Ġá» ª
Ġ3 7
Ġngo áº¡n
Tr Ã¡i
ĠI r
ĠV al
Ġrá» ĩt
Ġchu i
Ġchu á»Ļng
ol lo
ĠE t
om e
ĠCh iáº¿c
ĠY o
Ġ200 2
ĠSt ew
Qu ay
ĠCháº ¯c
Ġel ec
Ġsc an
ĠVir gin
Ġdev il
ĠShakespe are
2 5
B ill
H y
J o
K hÃ
V áºŃt
b o
d in
e ch
e at
m i
r in
s i
s k
s ton
y e
¥ a
Ġ Æ¡
Ġ Ãªm
Ġ op
Ġt Æ°á»Ľc
Ġt áº¡c
Ġc al
Ġc áº¯n
Ġc ua
ĠÄĳá» ©t
Ġch uá»ĳi
ĠcÃ¡ n
ÄĲ iá»ĩn
ÄĲ oáº¡n
Ġná» ©t
ĠC áº£
ĠM á»Ļc
hi c
ĠN Æ°á»Ľc
ĠB áº¥t
Ġkhá» Ń
ar on
ĠP op
Ġá» ıi
ĠD en
Ġnháº¡ o
ĠI BM
ĠI celand
Ġ4 6
ĠF er
Ġ19 30
om p
ew is
ĠNew ton
ag os
Ġ199 9
yl on
ĠAm y
ĠnhÃ¡ t
ĠTo Ãłn
Ġquá» µ
ĠLá» Ľn
ĠDel hi
ĠGand hi
thÃ ¬
Ġelec tron
B J
K iá»ĥu
P hi
T ÃŃnh
X em
g iá»
h ar
n i
n ie
p i
s o
u i
v es
¥ y
Ġ Ã´i
ħ n
ĠÄĳ áº¡m
Ġl Ã³t
Ġb ar
Ġk iá»ģm
Ġtr Ã³i
Ġng áº£
Ġthá» ĳn
Ġcá» įc
Ġhá» Ł
Ġtá» Ľ
Ġkhi nh
Ġdá» ĵi
Ãº m
Ġsá» ©a
ĠM er
ĠM ag
ĠN Æ¡i
ĠB Ã¡c
ĠS and
ĠK u
ĠL au
ĠL ar
ĠG old
ĠD on
Tr Ã´ng
os e
ĠR ed
el and
ĠVÃł o
ĠJ ac
ol y
ĠW right
ĠF ri
Ġcháº¡ p
Ġ19 00
ĠTh ay
Ch Ãł
Ġca fe
ec k
Kho a
ĠAt lan
ĠSing apore
ĠWolf ram
A r
C L
C á»Ļng
H á»
T uyá»ĩt
W K
a f
a j
a eda
b urg
i j
l as
n Ãªn
n ik
¨ n
¹ n
Ã įt
Ġ Â
Ġt áº»
ng Æ°á»Ŀi
Ġc áº¡o
Ġc Æ°á»¡i
ĠÄĳ ÃŃnh
Ġn hÃº
Ġn áº¿n
Ġn áº·c
Ġn á»Ļp
Ġv Æ°á»Ľng
Ġl á»įt
Ġb in
Ġs Æ°á»Łi
Ġtr e
Ġg Äĥng
Ġh a
Ġthá» ı
Ġthá» «ng
Ġr ong
Ġd Ãło
Ġqu áº©n
Ġgi Ãłn
Ġx á»ĳp
Ġnháº ¥c
ĠT ay
ĠT áº¡o
ĠT anz
Ġho i
Ġcháº Ńt
ĠC áº§u
Æ°Æ¡ c
Ġsá» Ŀ
ĠM ike
ĠM iss
ĠB i
ĠB ob
ĠB ud
ĠH an
ĠH Ãłnh
am es
ĠS k
ĠS á»ĳ
Ġph Ãłn
ĠL o
ĠL in
ĠL ou
ĠG Ã´
ĠD Ã¹
Há»į c
el d
at o
Ġrá» Ľt
Ġchá»į i
ĠW i
ho p
ĠphÃŃ ch
ro w
Ġngá»§ i
op ia
ĠÄĳá»ĳ n
ĠThá» ĳng
ĠNh iá»ģu
Ho Ãłn
Ġo k
ĠQu Ã¢n
ĠAr g
ĠZ imb
Ġ201 2
ĠChi le
Ġngu á»Ļi
ĠCol umb
ThÃ ¬
Ngh Ä©
ĠChar lie
ĠLe on
ation al
ĠAnd rew
B A
D Æ°á»Ŀng
G lobal
R áº±ng
S Ã¡u
T á»±
k m
m ar
t áº¥t
u it
w ell
y d
³ t
Ġ Ã´n
Ġ áº¯c
Ġ enz
Ġt iá»ĩt
Ġc áº±n
Ġv Ã£
Ġb Ã¬
Ġb á»įt
Ġg áº¯t
Ġh ao
Ġcá» Ľ
Ġth iÃªu
Ġx áº¥p
Ġchá» ĳc
ĠT in
uyá» ħn
ÄĲ Æ°Æ¡ng
ĠC lin
Ġphá» Ľt
Ġkho Ã¡c
Ġtrá» ĩ
ĠN o
ĠN elson
ĠtÃŃ t
er ing
er yl
ĠH am
am e
ĠL ak
Ġá» §
or s
Tr Æ°á»Ŀng
ĠR am
ĠR and
ĠV áº¥n
ĠW e
ter s
ho áº·c
ĠNg Ã´i
li z
oi d
re y
Ch ris
ĠAl bert
ĠAl pha
ul ia
ĠChá» ĭ
ent ina
ĠAr thur
Ġ198 4
ĠSc ott
ind a
ĠAlex ander
ĠJe ff
chá» ī
igh t
ĠBrook lyn
1 00
C A
G eo
G ia
K inh
S t
V Å©
b um
l ash
w ay
Ġt uá»Ļc
Ġc Æ°a
ĠÄĳ iáº¿u
Ġn hÃºng
há» ĭ
hÃ £y
Ġv Ã¹i
Ġtr Ã¡
Ġtr Ãłng
Ġng áº¡o
Ġng á»įc
Ġg o
Ġg áº¡o
ĠvÃł nh
Ġr Ã¬u
Ġp op
Ġp oster
Ġd Æ°ng
Ġd áº³ng
Ġvá» ±ng
Ġnhá» ¥c
Ġtháº £y
iá»ģ ng
Ġbá» ī
Ġbá» Ŀi
Ġlá» ¥a
Ġmá» ĭ
ĠM att
ĠB ot
ĠB ao
ĠH u
ĠÄĲ á»Ļng
ĠA us
ĠgiÃ¡ ng
Ġdo p
Ġph anh
ĠK i
ĠK at
ĠL ang
ĠL ee
Ġá» «
os t
et ti
Ng Ã´n
Ġkhu áº¿ch
ĠI g
Ġ4 8
ic an
ĠJ ord
Ġ20 30
us e
ĠTh iáº¿t
ĠY eah
ra b
ĠTED Global
Ġgá» Ľm
ĠhÃ¡ o
Vá» Ĺ
ard y
ab eth
Cháº ¥t
Qu áº£
ul l
if f
ĠQu áº£ng
iv e
ĠmÃ¬ n
ĠMo ore
ier ra
ĠThÃ ´i
ĠPhá» ¥
ĠHig h
ĠKhÃ¡ n
ĠNgh iÃªn
ĠVen ice
ĠHaw ai
ĠPark inson
Ġax it
Ġgh en
enh agen
Ãģ nh
ĠDis ney
ĠVirgin ia
ĠTanz ania
liz abeth
D an
D Æ°á»Ľi
F G
M Ã¹a
R A
S p
S á»©c
T hÃº
e as
f a
h h
m o
o ol
r r
t amin
u áº§n
z ler
ĩ ch
Ġc Ãłnh
ĠÄ ĥ
ĠÄĳ áº·n
Ġn á»Ļ
há» ģ
Ġv áº¯t
Ġv en
Ġl Ã¡ng
Ġm Ã¡c
Ġm et
Ġm Ã©o
Ġb uá»ĵ
Ġk g
Ġk iá»ģu
Ġg l
Ġch inh
Ġnhá» ©c
Ġnhá» įn
Ġcá»§ i
Ġtá» Ł
Ġpháº £
Ġcho Ãłng
ĠT Ãłi
ĠT el
Ġlá» ¥t
Ġho n
Ġná» Ľi
ĠC N
ĠC Å©ng
ĠC as
ĠchÃŃ ch
ĠM as
ĠN ick
ĠH iá»ĩn
ĠA g
ĠP ower
ĠK al
ĠK ÃŃnh
ĠG il
ĠD r
Å© a
al em
Ġvi tamin
el p
el ly
et er
Ġnháº¡ i
Ġ4 4
ic s
ĠJ ill
il y
ĠF ar
ĠNg ay
Thá» īnh
us alem
ĠPhi l
op s
az e
Gi áº£i
Ġtá»¥ ng
ain e
ĠTo Ãł
ĠCol omb
ĠMo z
ĠTháº §n
ĠBos nia
ĠGeor g
uck s
Ġal bum
ĠCop enhagen
ĠiP od
ĠTes zler
Kháº £
ĠJer usalem
Ġop era
ĠArg entina
ĠClin ton
Ġdop amine
Ġbuá»ĵ m
I A
J H
L iÃªn
L á»Ŀi
O h
S á»Ń
c á»
g i
k en
l Ãłm
n ed
s y
Ã Ķi
Ġ ah
áº ³n
Ġc Ãło
ĠÄĳ Æ°Æ¡c
Ġn á»±c
Ġn áº¥c
Ġl Æ°á»Ŀi
Ġl iÃªu
Ġm u
Ġm an
Ġm Ã´ng
Ġb á»±
Ġs Æ°Æ¡ng
Ġs ilicon
Ġh uá»³
Ġthá» ĳi
Ġd iá»ħu
Ġvá» īa
Ġnhá» ĳt
Ġqu áº§y
ĠT emp
ÄĲ á»Ļng
ÄĲ Ã¡ng
Ġto áº¡
ĠM i
ĠM in
Ġkho e
hi di
hi opia
ĠB Äĥng
ĠB ir
er om
ĠÄĲ áº¿n
en a
ĠP ort
ĠL ine
Ġvi ol
el low
is a
ĠJ enn
ĠJ ones
ol n
ĠW ow
Ġ19 3
ĠCh a
ĠkÃ© p
ĠHo Ã¡
re g
Ch iáº¿n
ĠU á»·
Má» Ľi
ou g
ĠGi Ã¡
ib eria
ĠCar l
ĠCar n
ĠJohn ny
ĠAm er
ThÃ Ń
ham mad
ĠMá» ¥c
inc oln
ĠThÃ ¬
ĠLu Ã¢n
ĠJos hua
ĠBab ylon
ylv ia
PT CH
ĠStew art
ĠColumb ia
1 3
7 0
C Ãłng
L áº¡i
M ich
R ob
T Ã³m
m en
w ich
Ġ áº£
Ġ ao
áº ¤n
Ġc Ãºi
ĠÄĳ áº¯ng
ĠÄĳ áº§m
Ġl ung
Ġl Ãºng
Ġl Ã©n
Ġk iáº¿p
nh Æ°
áº¡ y
Ġg Ã¡n
Ġg áº§y
Ġg á»ĳm
Ġr áº£nh
Ġr Ã¹a
Ġd áº¡n
Ġta xi
ĠnÃ³ c
Ġx áº»
Ġchá» ķ
ĠmÃł i
ch er
ĠT er
ĠchÃ ªnh
ĠM ov
ĠN ep
ĠB ell
ĠH Ã¬nh
ĠH ung
ĠH Ãłng
ĠH ir
ĠA R
ĠS á»Ń
ĠS ky
ĠS ierra
Ġph iá»ĩn
Ġph erom
ĠP au
ĠP ri
ĠK han
Ġá» Ľt
Ġ3 8
Ġ3 50
ĠTr áº¯ng
Ġxu Ã´i
ĠD u
ĠD aniel
ĠbÃ¡ u
el lo
il a
it t
ĠW est
ĠW alk
ĠF ort
ĠE v
ac y
ur t
ĠPhi lad
Ġ8 6
Ġgá» ¥c
Ch Æ°Æ¡ng
Ch Ãło
th ay
ĠgÃ³ t
ĠX em
Ġsu Ã½t
ĠThá» §
if er
ut an
ĠVá» ģ
Ġ13 0
ĠGiá» ĳng
ĠnhÃ¡ y
ĠCá» ¥c
ĠCá» ©u
ath er
ky o
ĠLe one
der son
Ġmá»ī a
ĠJos eph
Nháº ¡c
ĠiP ad
Ġac id
EC D
ĠVictor ia
ĠEt hiopia
ĠZimb ab
ĠHawai i
Ġhuá»³ nh
PTCH A
B á»įn
C uá»ĳn
H Ãłnh
M Ã´
M áº¥y
M á»ĳi
M ark
O L
P hÃ¡
P aul
Q uy
S Ã¡ng
T iáº¿n
T uá»ķi
g rap
o ff
r ge
u le
v ÃŃt
Ä ĳi
Ġ z
Ġ Æ°Æ¡i
á» «ng
Ġt áº¡
Ġc Ã´i
Ġc Äĥm
ĠÄĳ Æ°á»Ŀi
ĠÄĳ iá»ĥu
Ġs á»Ļ
Ġs áº¥u
Ġng Ã¢m
Ġh en
Ġthá» ī
Ġr ock
Ġch Ãł
Ġhá» ©c
Ġtháº £n
Ġqu áº¥n
Ġgi áº§y
Ġx Ã¬
Ġx Ãło
ot ter
Ġbá» ĩ
ĠT Æ°Æ¡ng
ĠT Ã¬m
Ġcháº £o
ĠchÃ ©o
ĠnhÃ Ń
ĠC Ã¡
ĠC ity
Æ°Æ¡ m
Ġbá»ĭ t
ĠM T
ĠB h
er son
ĠÄĲ Ãło
ĠS he
ĠS iberia
ĠL incoln
ĠG od
Ġngo áº·t
Ġvi rut
ĠbÃ© n
ĠI t
Ġ4 2
ĠQ atar
ĠJ ay
ĠJ es
ĠJ ane
ĠJ ulia
ĠE x
ĠNg há»ĭ
Ġtá»ī a
ĠlÃ£ i
ĠO p
ĠO ECD
Ġ7 2
Ġ9 6
oo h
ri b
ĠNew s
ĠÄĲá» ĭnh
Ġcá»Ń u
ig an
Äĳ Æ°á»£c
Ġxá» ķ
Ġo xi
ul a
ul u
ub a
ĠAn derson
ĠQu Ã¡
ut nik
NhÃ ³m
Ġ14 0
ĠEm ma
enn is
ĠTo Ã¡n
ĠBer kel
Ġe ur
ĠBro ad
up er
ĠPhá» ¥c
Ġmá»ī m
lad esh
ĠGreen land
ĠStar b
ĠSim on
ĠNor th
ĠTasman ian
ĠMay a
ĠMu hammad
sha hidi
ĠSom alia
Geo rge
Ġtá»Ł m
aze era
ĠZimbab we
ĠBerkel ey
A dam
C Äĥn
D onald
H á»ĵi
O X
S o
b or
b le
i h
j amin
m art
t Ã´ng
v Ãło
w en
¹ o
Ġ =
Ġ ion
Ĥ n
Ġt Ã½
Ġt Ã²i
Ġc Æ°ng
Ġc Ãły
Ġc Ãºng
ĠÄĳ iáº¿c
Ġv áº§y
Ġm áº§u
Ġm á»Ļc
Ġng á»±
Ġng uá»µ
Ġg as
Ġh amb
Ġr á»ĵng
Ġr áºŃm
Ġd Ã¬
ĠÄĳá» ±
ĠÄĳá» Ĺi
Ġnh am
Æ¡ c
Ġqu áº¥y
Ġx Ã¡o
Ġx Ã³t
Ġgiá» ¥c
ĠT Ã¢m
Ġho r
Ã¹ n
ÄĲ áº¡i
ĠC amp
ĠM au
ĠsÃ¡ p
ĠN et
ĠN ike
ĠB á»ĵ
ĠB ali
ĠH av
ĠÄĲ á»ĵ
ĠS us
ĠS un
ĠS ud
ĠS arah
ĠmÃ¡ nh
ĠP enn
ĠL aw
ĠL ewis
ĠG h
ĠTr iá»ģu
ĠTr áº»
ĠD ub
ĠR on
Ġ5 000
ĠV i
ĠJ eop
ĠJ azeera
ĠÃ Ķ
as ka
it i
ĠF OX
Ġ19 2
ĠNg oáº¡i
ad e
ĠTh Æ°Æ¡ng
ĠTh uáºŃt
ob i
ur on
un e
Ġxo a
ĠSt eph
op a
ĠX anh
Ġxá» ĭt
ĠchÃ³ p
Ġ18 0
Ġ18 5
Ġhi p
ĠBr it
eg ie
Ġ16 0
ĠKen ned
ĠTo kyo
Cá» ¥
ĠSp utnik
ren ce
ĠBang ladesh
ĠLu ther
Kh u
ĠbÆ°á»Ľ u
thal ate
ĠrÃ£ nh
thá» ±c
ĠWhi t
ĠEar th
ĠAtlan ta
ĠLeon ardo
ĠÄĥ ng
elp hia
ĠColomb ia
ĠCarn egie
ĠPhilad elphia
ĠStarb ucks
ĠSteph en
ĠKenned y
9 9
C á»ĳ
C hÃ¡u
D A
D Ã¢n
D á»±a
E A
K há»
M S
N C
S S
T áº¥m
b ie
h a
l ay
l em
m ed
r ick
s c
s hi
z Æ¡
ħ u
Ġt est
Ġc m
Ġn a
Ġv Ã´i
Ġv Ã¡c
Ġv iá»ģn
Ġl áº§y
Ġb l
Ġb Ã´i
Ġb áº§m
Ġs and
Ġtr iá»ħn
Ġr Ãł
Ġp oly
Ġd uyÃªn
Ġch iáº¿t
Ġgi un
Ġx Ã¢u
Ġx áº¯n
Ġchá» ĵn
ĠT áº¡ng
ai t
Ġcháº £i
ĠchÃ ©n
ÄĲ Ãłn
in burgh
ĠM inh
em ber
Ġtrá» Ľ
Ġtrá» Ĺi
ĠB el
ĠB as
ĠB ert
ĠH a
ĠH ad
am as
ĠÄĲ Ã´n
Ġkhá» ĳng
ĠS iÃªu
Ġy eah
ĠP ol
ĠK hÃ
ĠK am
ĠK elly
ĠL oáº¡i
ĠG ran
al y
ĠR obot
ĠR og
et te
Ng uá»ĵn
Ġ5 8
ĠV áºŃt
ap agos
il d
ol as
om en
ĠTh Æ°a
ĠPhi lip
Ġghi m
op atch
ĠAl ice
av a
ĠchÃ³ i
ell er
Ġ199 6
Ġ199 8
Ġtá»¥ i
ph one
ph ere
Ġhá»ĳ c
ĠBá» ©c
ĠMich igan
ĠEd inburgh
ĠCop ern
ĠHaw k
ĠGal apagos
Tá»ķ ng
ĠTasman ia
ĠNan opatch
ĠnhÃ´ m
ĠAp ollo
ĠEver est
ĠLak ota
ĠHung ary
grap hic
ih ad
Ġhamb urger
B en
H áº³n
J os
K iáº¿n
O PA
S uy
T S
T áº¿
c y
e on
n Ã´
o z
p u
r ay
t t
t im
t háºŃt
z ona
Ġ áºŃp
Ġ ooh
Ġt á»Ļt
ĠÄĳ áº¯c
Ġn o
Ġv e
Ġv Ã¡
Ġv Å©ng
Ġv iá»ĩt
Ġl áº«y
Ġb Ãłnh
Ġb Ãłng
Ġb it
Ġs áºŃp
Ġng Æ°á»Ľc
Ġng áº·t
Ġng uyá»ĩt
Ġg el
Ġg áºŃt
Ġg iá»ģng
Ġg há»ģ
Ġh el
Ġthá» §ng
Ġd áº¥n
Ġnh Æ°á»£ng
Ġra p
ĠphÃ ´ng
ĠT áº¿
ai g
ai ro
Ġcháº ±ng
in n
ĠM ap
em an
ĠN Ã´
ĠN air
ĠN ational
ĠB á»ĳn
ĠB oy
ĠH ol
ĠS ol
ĠS ad
ĠS Ã¡u
ĠS uper
ia l
ĠK r
ĠK evin
ĠK ansas
ĠL áº¡t
ĠL eb
ĠquÃ¡ ng
ĠG ar
ĠTr uyá»ģn
ĠbÃ¡ ng
ĠR es
ĠR oy
Ġkhu áº¥y
ĠI M
ĠV iáº¿t
ĠE S
ĠO ak
ur a
Ġ7 4
Ġ9 8
un k
Vá» ĭ
ĠU shahidi
oc r
Ġo x
ĠAn as
ĠQu ay
ĠQu Ã½
Ġáº¢ o
Ġ199 5
ĠJohn son
att le
ĠCá» ©
ĠBer n
ĠEd ward
inc eton
ĠPr inceton
umb ai
ĠNháº ¥t
oster one
ĠJack son
ĠTrá» ĭ
oph er
ĠAri zona
giá» Ŀ
ĠTemp est
ĠMov ember
ĠNep al
ĠSud an
ĠJeop ardy
1 4
9 0
A K
B iá»ĥu
E instein
H C
H iá»ĥn
K áº¿
R W
S C
S uá»ĳt
T á»ĳi
T uáº§n
a x
b ao
c t
c ent
e ith
f ur
i el
m Ã´n
p háº
r Ã´
v is
z z
± n
Ġ et
Ġ amin
Ġ Æ¯á»Ľc
Ġt áº£n
Ġt áº·c
Ġt Æ°á»Ľi
Ġc Ã²i
Ġc áº©m
ĠÄĳ áºŃy
ĠÄĳ áº¯p
Ġn Ã¡o
Ġv uá»ĳt
Ġv iáº¿ng
Ġm e
Ġm ao
Ġm áº·n
Ġb Ã£
Ġs uÃ´n
Ġtr Æ¡n
Ġtr Ã¹
Ġg ram
Ġh iÃªn
Ġr eo
Ġnh ai
Ġcá» «
Ġnhá» įc
Ġtháº ¹n
á»± u
Ġsáº ¹o
ĠphÃ ¬nh
ĠT Ãªn
ĠT ah
on to
Ġná» ĵi
ĠC or
ĠC uá»ĳi
ĠC airo
Ġbá»ĭ ch
ĠM áº·c
ĠM áº¡ng
ĠM umbai
em y
Ġká» µ
ĠB eet
ĠH el
ĠÄĲ Ãłi
ĠA ch
ĠS á»
ĠP ep
ĠK háº
ĠL ai
ĠL uc
ĠG ro
ĠD ie
ĠD oug
os au
Ng Ãłnh
Ġ5 2
at er
at ur
Ġ4 3
ĠQ ua
ic us
ĠE le
Ġ19 0
ho ven
om et
ad o
ĠY Ãªu
ra h
ĠHo Ãłn
Ġ9 3
Ġ9 00
ĠlÃŃ t
re e
ĠIn ter
Chá» ¯
ĠX u
ĠAl aska
Tá» Ľi
Äĳ Ã£
ĠGi Ã¡m
um p
Qu ÃŃ
ChÃ ¢u
ĠAn n
Gi ai
Ġpr Ã´
ĠâĢ ¦
ĠÃģ o
ach el
ĠBer lin
ĠTim e
ĠPhá» ĳ
PhÃ Ńa
ĠCam eron
An d
fi eld
ĠCA PTCHA
Ġenz y
Ġviol in
Mich ael
Ġthá»ī u
rib ati
Ġtest osterone
B á»ĳn
C áº£nh
E d
N G
P eter
Q uyá»ģn
R ichard
S B
S inh
V Äĥn
b r
c Å©ng
c ou
h m
h ol
k r
s w
u z
w ord
y c
Ġ )
Ġ q
Ġ en
Ġ áº§m
Ġ it
Ġc Ã¢m
ĠÄĳ Ãª
Ġn ang
Ġn ai
Ġv v
Ġl á»ĳ
Ġl á»Ļng
Ġl iá»ħu
Ġb o
Ġk iÃªu
Ġs áº¡c
Ġng áº§n
Ġng uá»
Ġg Ã´n
Ġg áº§m
Ġh Æ°Æ¡
Ġr Ã²ng
Ġr Ã¡ch
Ġd áº¥y
Ġcá» Ĺi
Ġch anh
Ġqu áº³ng
Ġgi ang
Ġx á»Ł
Ġchá» Ļ
Ġchá» ķi
ĠthÃ ¢
ĠthÃ ¬nh
Ġhá»į ng
Ġnháº ½
ĠT iá»ģn
ÄĲ áº·t
in es
ĠC uba
Ġháº ¯c
Ġsá» ¥t
ĠM us
ĠM Ã¹a
ĠM ama
Ġtrá» ı
Ġká» ĭ
ĠN há»
ĠN athan
ĠB áº£y
ĠH al
ĠH á»ĵng
ĠÄĲ Æ°a
ĠÄĲ á»ĳi
ĠS n
ĠS en
ia s
Ġph ao
ĠK á»¹
ĠK ur
ĠL áº§n
Ġngá» £p
ĠD ick
or m
Tr ang
ĠÃŃ n
al ay
al in
im et
os hi
ĠR ad
ĠR id
ĠI van
is ter
ĠQ uyá»ģn
ĠJ ers
Ġba zÆ¡
Ġláº½ o
ĠF ox
ĠE ve
ĠE lizabeth
ho o
us tin
Ġ6 4
ĠTh ung
ĠO li
ob s
ri ng
Ġban jo
ĠU r
ing ton
ey er
Má» ©c
ou d
ĠYork er
te ch
Ġf an
Qu Ã¢n
ĠQu áº§n
ĠhÃ¨ n
Ġ199 4
Ġgam es
ĠGiá» įng
ĠSc r
ann a
ann y
Ġ197 5
ĠMc C
ĠCá» §a
ĠLá» ĭch
ĠRom o
.. .
ĠSe attle
Lá» ĭch
ChÃº a
ĠLester land
Char les
gar et
ĠLou is
ĠKi ribati
ĠCN N
ĠSky pe
ĠJes us
ĠÄĳá»± Æ¡c
ĠHav ard
Ġsand wich
ĠBeet hoven
ĠJers ey
A O
B iáº¿t
C Ã¢y
G M
J ames
M G
N Äĥng
R G
R NA
S R
S á»
T im
T homas
W omen
X L
X Ã£
c Ã²n
c al
c us
e ad
i ro
m s
r at
r ina
t háº
t el
t háº¿
t ion
u ela
¨ ng
² i
ģ u
áº µn
ĠÄ Ĥn
ĠÄĳ Ãºt
Ġn Ã²ng
Ġn áº¥ng
Ġm iÃªn
Ġm Ä©
Ġm Æ°á»Ŀng
Ġb e
Ġb Ãº
Ġb us
Ġk i
Ġk Ã¨n
Ġtr Ãºt
Ġg áº·m
Ġr á»įi
Ġr áº¡c
Ġr áº©y
Ġp ass
Ġd Ã¨
Ġth Ãł
Ġtá» ©
Ġx Ã³i
Ġpháº «n
Ġgiá» ħu
Ġnháº ¥m
ĠT á»ĳi
ĠT un
ĠT ÃŃnh
ai d
au s
Ġsá» «ng
Ġbá»ĭ p
ĠM et
ĠM ass
ĠM itch
ĠN ic
ĠB M
ĠB Ãªn
Ġlo Ã©
ĠH om
en e
ĠA ng
ĠA sh
ĠA rab
Ġkhá» Ŀ
ĠS ylvia
Ġph thalate
ĠL i
áº¹ o
Ġ3 4
ĠTr anh
ĠD Ä©
ĠD oh
ĠD av
or i
Ġthu á»Ł
im ee
iÃª t
ĠI P
Tháº ¥y
ĠV er
Ġ4 50
ĠJ erry
ĠW ill
ĠF GM
Ġláº¡ y
ĠTh Æ°
ĠO n
ĠO reg
ĠCh ad
li pp
th ew
op y
ab le
ine a
ill a
az a
ĠCon n
iv a
ĠAr ch
Ġtháº¡ c
ĠIs land
Ġ199 7
all on
ĠCháº ¿t
ĠGeo graphic
ĠMc G
ĠMc K
ath on
ĠPh Æ°á»£ng
Ġbu Ã´ng
ĠBl ue
To Ãł
Ġkhuy a
ĠGre at
ĠBe ach
ĠBen jamin
ĠOk ay
ĠJu lian
ĠTor onto
ĠGr and
ĠGu inea
ĠTes la
ĠPer u
ĠShi r
agh etti
Ġmar athon
ĠEur opa
Ġsp aghetti
ĠthÃª u
oton in
ĠFri ed
ĠTay lor
ĠJeff erson
ĠKat rina
ĠJord an
ĠBh utan
ĠFOX O
ĠBert ie
ĠHawk ing
tim ore
ĠDie go
cou ver
ĠhÆ°Æ¡ u
Ġpass word
ĠDoh a
ĠOreg on
1 1
7 5
F ran
L Æ°á»£ng
M ong
N iá»ģm
S E
S ai
T Ãłi
T iá»ģn
V i
X e
X Ã©t
b á»ĳn
c Ã¡i
e ng
e ff
f red
j ect
k o
r áº±ng
r it
t á»«
¡ y
Ġ Æ°á»Ľp
áº ¢
Ġt em
Ġt een
ng h
Ġc Ãµi
ĠÄĳ iá»ģm
ĠÄĳ áº«m
ĠÄĳ áº¥ng
Ġn Ã´i
Ġn Ã´n
Ġn áº·n
Ġv Ã³c
Ġl on
Ġl ink
Ġm iá»ĩt
Ġb áº§n
Ġk iÃªm
Ġs áº£y
Ġs áº¥m
Ġtr o
Ġtr Ã¢u
Ġng uyá»ģn
Ġg á»Łi
Ġr Ãłnh
Ġr áº¡ng
Ġr áº¡ch
Ġp rog
Ġd áº«u
ĠcÃ¡ u
Ġnhá» ķ
Ġchá» ĩch
ot os
an on
an ic
ĠT iÃªn
Ġho áº¡n
on acc
ÄĲ á»Ļ
ÄĲ áº¥t
ĠC P
ĠC ao
ĠC en
ĠC ur
Ġsá» ¡
Nh iá»ĩm
Ġto p
ĠM Ã´i
ĠM Ãª
ĠM oh
ĠB iá»ĥn
ĠB lo
ĠH im
ĠH áº¯n
ĠH all
ĠÄĲ áº·c
ĠA ur
ĠS Ã¡ng
ĠcÆ¡ m
Ġph u
ĠP ier
ĠK ib
ĠL Ã¢m
Ġtrá»į t
ĠG á»Ńi
ĠG eh
ĠTr Äĥng
ĠTr eas
Ġxu áº©n
ĠD Ãłn
Tr Ã²
al ore
Ġvi Ãª
os h
ĠR a
ĠR od
Ġtho a
et a
et own
Ng Ã¢n
ĠI m
Ġ5 4
Ġrá» ¥ng
Ġ4 000
ĠQ aeda
ĠJ an
ĠJ ess
ap p
it a
ĠF ib
ĠF BI
Ġ20 20
ĠNg uyÃªn
ac t
ĠCh uyáº¿n
Ġ7 7
Ġ8 2
Ġ9 7
oi r
ri e
ĠÄĲá» Ŀi
id eo
ĠSt ir
ĠSt ate
ran e
ĠU N
ĠU kr
ag an
ag er
Ġ12 5
ab ad
ĠAl len
Tá» ī
ou l
ow itz
Ġf ile
ChÃ ¢n
Ġcan xi
ĠAr t
aw a
Ġ199 2
ĠEm ily
ĠhÃ£ nh
ĠxÃŃ t
ĠMc Donald
ath em
ĠBá» Ŀ
ĠRos s
ĠBang alore
Ná» Ĺi
ĠSch w
een ey
ĠStev en
ĠNgh Ä©a
ĠRom e
Ġsho ck
ĠGr ace
ĠVen ez
Dá» ¯
Ġmicro RNA
ĠVan couver
ĠWar ren
ĠPl ato
Ġser otonin
ĠKy oto
Ġne uron
ĠBal timore
KhÃ ³
Ġcal o
Ġmá»ĭ n
Ġmet an
ĠWalk er
ĠLaw rence
ĠRog er
ĠNair obi
ĠLeb anon
ĠOak land
ĠTun is
onacc i
ĠHim alay
ĠTreas ure
ĠVenez uela
6 0
6 00
A G
B Ã¬nh
B uá»ķi
C E
D i
E ric
G G
H iá»ĩu
J u
K en
L uáºŃt
L Ã²ng
L uÃ´n
M Ã¬nh
M att
N am
S am
T áº¡o
V Ã¹ng
i re
l Ãª
l av
m á»
m et
v a
y o
² m
µ ng
Ġ #
Ġt Ãº
Ġc at
Ġv Ãª
Ġl áº©n
Ġm á»Ļi
Ġm Ãºt
Ġb áº¡t
Ġs áº£i
Ġs Ãºt
Ġs un
Ġng Ã¡ch
Ġg Ã²
Ġg Ãło
Ġg Ã¡y
Ġg allon
Ġh un
Ġr Æ°á»Łi
Ġd uá»Ĺi
Ġd áº«m
Ġtá» ĥ
Ġqu áºŃt
Ġgi Ã²n
Ġx Ã´ng
ang e
Ġbá» ¥c
ĠT i
ĠT y
ĠT iáº¿p
ĠT enn
ĠT eh
ÄĲ Ã¢u
ÄĲ Æ°a
ÄĲ Ã¡m
ĠM ot
Ġlo Ãł
er b
ĠH Ã¡t
en berg
ĠA aron
ĠA imee
ĠS il
ĠS á»ĳng
ĠS MS
ar en
Ġy ou
Ġph ai
ĠP ap
ĠP ink
ĠP anth
ĠP otter
ĠK iáº¿n
ĠK le
ĠK eith
ĠL im
ĠL ov
ĠL ock
ĠG l
ĠG an
ĠG ord
ĠG aza
ĠD ol
Tr ÃŃ
es e
ĠR áº±ng
ĠR ick
ĠR uss
Ġtho i
Ng Ã´i
Ng Ãłi
ĠI Q
ĠI l
ĠV ol
ĠV inc
it ion
ĠF r
ĠF ellow
ĠF DA
ĠE c
Thá» ĭ
us d
Ġ6 8
ED I
ĠnghÃ ªnh
ob yl
ob ule
ĠY ale
Ġ7 8
li der
ri g
ri ch
ri el
re am
Ch eryl
net t
ĠSt ock
ing s
ĠX Ã£
ĠX Ã¢y
ab a
ĠAl b
Tá» ©c
ak s
Ġ40 4
ĠMar io
Ġ11 0
ib o
man n
man uel
if e
ec ca
ĠSh er
uc e
ee ch
ph en
ov er
ĠCá» ķ
ber ry
Ġquá» ³
ĠSau di
ĠJo el
ĠBe at
ĠJam ai
ĠWik i
ern obyl
Ġ194 5
ĠFrank lin
PhÃ ¢n
ĠSw eeney
ĠJon athan
ĠGand o
Ġax ÃŃt
ĠCA D
Ġnit ric
ĠMur ray
Jo e
ech n
ĠDen is
ĠnhÃº n
Ġgl uc
ĠAmer ican
PhÃ¡ t
Ġhor m
ĠSus an
ĠDub ai
ĠCopern icus
osau rus
ĠOli ver
otos hop
ĠFib onacci
ĠStir ling
ĠTeh ran
ĠPanth eon
. &
4 5
A V
A m
B áº£o
B Ã¡o
C am
D aniel
H áº¡t
J on
J im
J enn
K á»
M Æ°á»Ŀi
M art
P H
R C
X Ã¢y
b áº±ng
b in
c háº
l et
m ail
o ch
p kins
s ia
t z
t ic
w w
¡ n
£ c
µ m
Ã Ķ
Æ ł
Ġ 00
Ġ uyÃªn
Ġ áº£m
áº ¨n
Ġt er
Ġc omp
ĠÄĳ Å©a
Ġn á»įc
Ġv Äĥng
Ġv Ã£n
Ġl anh
Ġl áº«m
Ġm au
Ġb iáº¿ng
Ġs on
Ġs Æ°ng
Ġg Ã¢n
Ġg ra
Ġthá» ¥c
Ġr Ã¡n
Ġd á»ĳt
Ġch en
Ġch uá»ĵng
Ġhá» Ŀi
Ġchá» Ńng
Ġnháº £m
on t
Ġcháº ¯t
ĠnhÃ ¬
ĠM áº¯t
ĠM ed
ĠM ak
ĠM eyer
em ala
ĠN á»Ļi
ĠB il
ĠB ah
ĠH ong
ĠH Æ¡n
ĠH áº§u
ĠH as
ĠÄĲ Æ°á»Ŀng
ĠÄĲ áº¡t
ĠA il
ĠA li
ĠS ho
ĠS áº¯p
ar ry
ĠP u
ĠK ay
ĠL áº¡i
ĠL en
ĠL oÃłi
ĠL ike
Ġngá» Ńa
ĠG ay
ĠG áº§n
ĠG er
ĠG iÃª
ĠTr Æ°á»Łng
ĠD AR
ĠÃ¡ t
es a
es k
Ãµ m
el li
ĠI x
Ġ5 3
Ġ5 7
ĠV Å©
ĠV ik
at z
at emala
Ġ4 7
ĠJ ud
Ġvá»¥ ng
as on
ol i
ĠW h
ĠE ast
ĠE ss
ho a
om an
ĠO tt
ur ch
ĠCh Æ°Æ¡ng
ĠCh ernobyl
ĠY ves
ĠkÃ© n
Ġ8 4
ri r
ro f
Chá» ©ng
ĠSt one
ah a
th ony
ĠU CL
ag a
Tá» «ng
ou x
ĠNh iÃªn
tr al
Ġf oot
ĠMar y
ex tin
ĠQu áº£n
ins ky
aw i
ĠVá» ¥
Bá» ı
ĠCal tech
ĠHar lem
Ġ198 9
ĠSan ta
amb ia
ĠIra g
Ġlu áº©n
ĠPal m
ĠMo MA
ĠKho áº£ng
ĠAb u
ast ian
ok o
ĠxÃ© n
ĠJu li
ĠFre e
ĠTor a
ThÃ¡ ch
Dá» ĭch
vá» ģ
ĠLat inh
ĠJon as
ster dam
ĠWilliam s
ĠKhá» ĳi
ĠWhi te
ĠTit us
col ate
ĠLang ley
Sp eech
ĠMoz art
Rob ert
Ġpherom one
ĠOp rah
shi re
ĠTah rir
ĠPep si
ĠMitch ell
Ġprog eria
ĠGeh ry
ĠTenn ess
ĠDol by
B áº£y
C P
C Æ°á»Ŀi
C hÃºc
D R
D áº§u
D Ã¹ng
E G
H ans
I PA
L Ãªn
L ee
M Ã´i
M á»Ł
M áº¥t
M ED
M RI
S M
T M
T áºŃp
T áº¡p
T ho
T alk
Z K
b an
c Ã¢u
c ia
j ev
k ar
k ey
k ansas
l ot
m ud
m oud
o is
s in
s tein
s ylv
y on
¡ i
¬ a
Ġ ar
Ġ is
Ġ Ãºt
Ġ aw
ı m
Ġt áº¥u
Ġt Ãºp
Ġt uÃ´n
Ġc á»Ļi
Ġc áºŃt
Ġc ello
Ġc opy
ĠÄĳ áº¥m
Ġn ung
Ġn hÃºt
Ġn oi
Ġn Ã¡u
Ġv Ã¡ng
Ġl áº§u
Ġm ÃŃ
Ġs Ãªn
Ġs áº£o
Ġtr u
Ġng Ã³
Ġng Æ¡
Ġng áº¥t
Ġng áº¥m
Ġg áº·t
Ġr á»Ļ
Ġr Æ¡
Ġp en
Ġd áº·n
Ġnh oi
Ġch iÃªu
Ġth iá»ĥn
Ġchá» ¯ng
ot e
an o
an y
Ġgiá» Ł
ĠT u
ĠT á»Ń
ĠT ob
ĠT arah
Ġho Ã¡n
Ġho Ã³c
Ġcháº Ń
ĠhÃ ³t
ĠC áº§n
ĠC áº£nh
ĠC oo
ĠC lo
Ġháº ±n
Ġsá» ¥c
Ġsá» ¥n
Ġphá» ĵn
Ġbá»ĭ a
Ġkho áº£
Ġkho anh
Ġkho Ã¡t
ĠN ov
ĠN BA
ĠB o
ĠB uá»ķi
Ġlo ang
Ġlo Ã£ng
ĠH i
ĠH áº¡
ĠÄĲ áº¥y
ĠS is
ĠS ara
Ġdo o
Ġy o
ĠP y
ĠP or
ĠP as
ĠK áº»
ĠL áºŃp
ĠL as
Ġá» ľ
ĠG it
ĠG ol
ĠG ri
ĠG ary
ĠTr iá»ĥn
ĠD áº¡
ĠD iana
Tr á»«
ĠR yan
el ine
ĠV ua
Ġrá» ĩ
Ġrá» ¥i
Ġ4 1
ĠÃ ģn
as a
as ter
ĠW oo
ĠF ed
ĠE s
ĠE con
le ans
ĠNg Æ°Æ¡i
Ġ6 000
ad i
ĠO oh
ob o
ĠCh Æ°a
ĠCh en
ĠTED Women
ĠTED MED
ĠChÃ ¢n
Ġda f
Ġw att
Ġ100 00
ĠSt ein
ig er
ing o
ĠAl fred
Tá» ĩ
ak i
ou gh
ĠKá» ·
ĠKá» ĥ
um ara
ow s
ich olas
ĠChá» ĳng
ĠThÃ¡ p
ep ler
art z
ĠAr kansas
ook ie
aw att
ip p
KhÃ¡ i
ĠHar ry
ach us
Ph ong
Ġblog ger
Ġnho Ã¡ng
ĠCol l
ĠNhÃ ³m
ĠPh ong
ind er
ĠPal extin
ĠRos e
ett s
ĠThÃ Ń
Nhá» Ľ
ĠOr leans
Ġ36 0
ĠGu atemala
ĠLib eria
ĠSam uel
Ġkáº½ m
ĠNor man
unt u
ĠUn ivers
ĠMos es
ĠOs car
ĠMat thew
In ternet
ĠIr eland
ĠLo an
ĠGil bert
ĠPenn sylv
ĠES G
ĠBlo om
ĠviÃª c
ĠAil en
ĠEss ex
ĠTora ja
ĠTenness ee
ĠTarah umara
ĠCoo per
ĠPennsylv ania
3 00
9 8
A S
B ay
B ÃŃ
D I
H z
H á»Ļi
L e
P P
P oint
R obot
T D
T Ã¬m
T áº§m
T om
W ell
Y eah
b ox
c m
c am
f li
g g
g en
g ie
h r
i os
l eton
m á»įi
p son
t ail
u ch
v i
« m
Ġ est
áº ©ng
ĠÄ ©
ĠÄĳ áº£
ĠÄĳ ong
ĠÄĳ Ã¹i
Ġn áº¡i
Ġn eo
Ġn áº¡t
Ġn áº¥p
Ġn Ã¡ch
Ġn Ãºm
Ġv áº¥p
Ġl Ã¬nh
Ġl á»ĳc
Ġl uá»ĵn
Ġl Ã³ng
Ġm em
Ġm Äĥng
Ã´ c
Ġs Ãłnh
Ġs Ã²
Ġr Ã¢m
Ġr áº¯m
Ġr áº«y
Ġd Ã©p
Ġcá» £t
Ġth uyÃªn
Ġhá» īnh
Ġx ao
ĠthÃ ©t
Ġcho colate
ch e
ch i
ĠT inh
ĠT Ã¡m
ĠT so
Ġho p
ai re
ĠhÃ ¹
ĠC a
ĠC om
ĠC hÃºc
Ġsá» §a
Ġto ur
ĠM Ã£
ĠM Æ°á»Ŀi
ĠM Ãłu
ĠM athem
Ġkho Ã©
ĠN ar
ĠN Ã£o
ĠB y
ĠB Ã³ng
ĠB ow
er at
ĠH ot
ĠH iá»ĩu
ĠH amp
am an
ĠÄĲ Ã¢u
ĠÄĲ á»Ļc
ĠA z
ĠA ye
ĠS á»Ł
ĠS á»¹
ĠS Ã¡ch
ĠS ri
ĠS OPA
ĠP ic
ĠP art
ĠP ost
ĠK Ã´ng
ĠK er
ĠK iá»ĥm
ĠK ent
ĠL ab
ĠL ev
ĠL áº¡y
Ġvá»ĭ n
Ġá» Ŀ
Ġngá» Ŀi
ĠG G
ĠG raham
ĠD ai
ĠD iá»ħn
ĠD or
ĠD un
ĠR u
ĠR ow
ĠR iv
el t
el le
et s
ĠI K
at s
at ica
Ġrá» £
ic ut
ĠJ ar
il ot
il ey
it s
it es
it ra
ĠW in
ĠW ood
ĠF ound
ĠE ng
ho d
Ġ6 7
ad ore
Ġvá»ĩ t
ĠTh ula
ĠO l
ĠHo pkins
Ġ7 6
ĠTED Talk
eb astian
Ġ9 4
Giá» ¯a
Th am
Ġw ater
Ch u
Ch uyáº¿n
ĠIn tel
Ġ15 00
Ġnghi Ã£
ag u
ĠbÃŃ p
ey n
ĠAl l
ĠAl an
ĠThá» Ń
ou t
Ġ18 00
Ho áº¡t
tr ol
ĠMar yl
ĠMar sh
ĠChá» Ŀ
ĠChá» ©c
Pháº £n
Ġtháº§ u
ĠBr and
ĠBr ad
ĠBr uce
ĠSh ah
ĠCar r
ĠCar ter
ĠJohn s
Ġ201 3
KhÃ¡ c
Ġgam ma
ĠAm sterdam
ee k
ĠLan ka
Ġ198 5
Ġ198 8
ĠSc i
ann ah
amb i
og a
og y
ith a
oy ager
ĠBar b
ĠBar ack
To Ã¡n
ĠBe au
ast le
ĠCr aig
ok e
ĠAnd r
ĠMal ay
ĠJu lie
Nháº Ńn
ĠLib ya
ĠBrow ne
ĠChrist opher
ĠPalest in
ĠKar l
ĠGo ering
ĠAh med
ect icut
dy ss
Ġngá»« Æ¡i
Ste phen
ĠBay es
ĠSi oux
ĠMill er
col m
Ġmil imet
ĠIr áº¯c
ĠYo ung
ston e
ĠWe ibo
ĠAus tr
mo or
ĠPower Point
ĠHir oshi
hol m
ĠScr atch
ĠConn ecticut
ĠKib era
ĠJamai ca
Ġgluc ose
ĠUCL A
ĠFree Speech
jev o
lot te
ĠcháºŃ u
Ġrá»ĩ p
achus etts
fli x
ĠMathem atica
ĠMaryl and
1 6
A T
B e
B uá»ĵn
B ob
C a
C Æ¡n
C Ãº
D iá»ħn
G oogle
K B
M iá»ħn
O C
O S
Q aeda
S F
S áº£n
V Ã¢y
a a
b es
c áº£m
c op
d it
e us
h orn
k h
l au
m Ã©t
m ond
m inder
o on
r áº¥t
r ess
s u
t áº¡i
u h
u chia
v in
w a
w est
w ait
x ter
© y
Ã ©c
Ã §a
Ġ Æ°Æ¡m
ķ ng
Ġc áº·n
Ġc ock
ĠÄĳ áº§n
ĠÄĳ Æ°á»Ľc
Ġv on
Ġv áº¡t
Ġv Æ°á»£n
Ġl Æ°
Ġl á»Ł
Ġm eg
Ġb Ã´
Ġs uyá»ħn
Ġtr Æ¡
Ġtr Æ°á»Ľng
Ġng Ãł
Ġng Ãµ
Ġng Ã³c
Ġng Ã²i
Ġng áº©ng
Ġr áº§u
Ġr áº§m
Ġp ar
Ġd áº¿
Ġd em
Ġd áº¡t
Ġd áº±n
ĠÄĳá» ħ
Ġcá» ıi
Ġcá» ĵng
Ġqu áº·ng
Ġgi Ã´ng
ĠmÃł o
ĠT áºŃp
ĠT ar
ĠT áº¡m
on ey
ĠkhÃ¡ nh
Ġcháº Ńp
ĠchÃ ¨o
ĠchÃ ¨n
ĠhÃ ª
ĠhÃ ³m
ÄĲ á»Ļi
Ġná» ĥ
ĠC á»ĳ
ĠC ro
ĠC IA
ĠM Ãły
ĠM en
ĠM id
ĠM ir
ĠM BA
hi o
ĠN I
ĠN i
ĠB Ã¡o
ĠB ach
Ġlo anh
ĠH á»ĵ
ĠH az
ĠH ut
ĠH ind
ĠÄĲ á»ĳc
ĠS a
ĠS ai
ĠS el
ia g
ar s
ar in
Ġy oga
Ġph iá»ĩt
ĠP an
ĠP it
ĠP ur
ĠP IPA
ĠK os
ĠK ab
ĠK iva
ĠK epler
ĠL á»Ŀi
ĠL imb
Ġngá» £m
ĠG ul
ĠTr ÃŃ
ĠD anh
ĠD ave
or o
Tr uyá»ģn
al ie
os ev
el y
et as
Ng oáº¡i
ĠI mp
Tháº §y
ĠV áº«n
at Ã´ng
at ma
is e
ic erat
ĠJ ean
ĠJ ustin
ap e
ap minder
ĠÃ įt
it ic
ĠW y
ĠW is
ĠW ind
Ġ19 91
Ġ19 93
le v
ĠNg uá»ĵn
ad y
ĠTh anh
ĠO xy
ĠO dyss
ur n
Ġ7 000
Ġ8 9
ĠTED ster
ĠchÃ¡ nh
Th uá»ĳc
un ch
ro Ã§a
ĠÄĲá» £i
re at
ĠIn st
ĠSt and
ĠX áº¿p
ab y
ĠThá» ĭ
Äĳ áº¿n
han e
ĠGi ao
ĠchÃ³ t
ow an
if lu
ĠQu áº£
Gi ao
ĠSh ar
Ġprot on
ip car
ĠHar ris
ph ua
ov o
Ġru á»Ļng
Ġ198 6
ĠChi ld
ĠSc oop
ĠBa xter
nÃ³ i
ass o
ĠRob inson
ĠChar lotte
ĠMon ter
ĠGre g
ort is
Ġmá»ĵ m
ĠLá» ħ
ĠNa uy
org an
Ġ194 0
ĠInd iana
ĠDi et
uk e
ĠGu ard
ĠLib Äĥng
ĠWal mart
ĠCo ch
ĠDá» ĭch
ĠBon net
rog en
ever ly
Ġmar atÃ´ng
ĠWil son
ĠMel inda
Car ol
ĠTam iflu
ĠJac qu
ĠLin ux
ĠNo el
ĠPhil lip
Ġeur o
ĠBroad moor
NC RA
ĠGran t
Ġq Ãºi
Ġchá»Ļ p
ĠHom o
ĠCen tral
ĠMoh am
má» Ĺi
Ġcat adore
ĠPap ua
ĠBah amas
ĠIx aren
ĠSara jevo
ĠEcon om
ĠIK EA
ĠFound ation
ĠMalay sia
ĠAustr alia
Ġcock tail
icerat ops
2 4
2 9
A A
A h
A t
B on
B áº¥y
B Ã¡nh
E T
F re
I s
J eff
K evin
P rin
Q uá»ĳc
T B
T H
T inh
T iÃªu
U ng
V iá»ĩn
V áºŃn
W ow
Y áº¿u
b us
c er
e u
f er
f us
g an
g ey
g ram
h n
h y
j u
j an
k ho
l Ã´
n d
p hÃ
p in
r l
r ett
s á»±
t hia
v iá»ĩc
v al
v et
v ent
y ota
z ero
¢ t
Ġ ad
Ġ ep
Ķ n
Ġt Ãºm
Ġc Ã²
Ġc oc
Ġc ortis
ĠÄĳ Äĥ
ĠÄĳ uá»
Ġn i
Ġn Ã¨
Ġl á»Ļc
Ġl Ãµm
Ġb á»Ł
Ġs h
Ġs en
Ġs al
Ġtr Å©ng
Ġg t
Ġg anh
Ġg eo
Ġg Ã£i
Ġh Å©
Ġthá» ģm
Ãª t
Ġr Ã¹ng
Ġr Äĥn
Ġr Ã³t
Ġp a
Ġd Ã³
Ġd ÃŃ
Ġd iÃªm
Ġnh an
Ġnh en
Ġvá» ĵng
Ġvá» Ľt
Ġch k
Ġch ang
Ġch Æ°ng
Ġch uá»ĵn
Ġch at
Ġnhá» ĳi
Ġtá» £n
ĠnÃł nh
Ġqu Ã¢y
an istan
Ġra in
Ġgiá» ı
Ġbá» «a
ĠT Ãłng
ĠT Æ°á»Łng
ĠT Ã¢n
ĠT áº¡p
ao mi
ĠnÄĥ n
ĠnhÃ Ńm
ĠnhÃ ³t
Ġná» ī
á»ĵ n
Nh iáº¿p
Ġto ken
ĠM P
ĠM Ã´ng
ĠM ob
ĠM ell
ĠM eg
ĠM ull
hi s
ĠN in
ĠN Äĥng
ĠN ico
ĠB P
ĠB iáº¿n
ĠB Ã¡n
ĠB á»įn
ĠB re
ĠB BC
er y
ĠH it
ĠH un
ĠH um
ĠÄĲ Ã¡ng
ĠA st
ĠS I
ĠS uy
ĠS ur
ĠS olly
ar ak
Ġph Æ°á»Ľc
ĠP C
ĠP e
ĠP ac
ĠP ilot
ĠK áº¿
ĠK as
ĠK id
ĠK ins
ĠK ate
ĠL A
ĠL y
ĠL eo
Ġá» ¨ng
ĠG e
ĠG wen
ĠG apminder
ĠTr iceratops
Ġxu a
ĠD J
ĠD Ã¢y
ĠD em
ĠD es
ĠD ur
ĠD ean
ĠD onald
or th
Tr á»įng
im Ã©t
os phere
ĠR eb
ĠR ub
ĠR ec
ĠR eg
ĠR ivers
ĠR achel
el yn
Ġ5 6
ĠV el
ĠV iv
ĠV Æ°á»Ŀn
ĠV oyager
at an
is co
Ġrá» ¯a
ĠJ ava
Ġdi ox
ĠW ang
ĠW ol
ĠW ide
ĠF lick
ĠE EG
Ġ10 1
Ġ19 20
Ġ19 18
ad er
ĠTh uyáº¿t
ĠO w
ĠO hio
ĠCh u
Ġ7 50
Ġla b
Ġgá» ī
ĠÄĲá» ©a
Ġw oo
Ch rist
Chá» ¥p
ĠSt r
ĠU p
ĠU t
ag as
lo ad
Ġsu l
ĠAl g
ĠAl t
oh en
Ġnhu áº§n
Ġ18 7
Ġ18 8
Ġ40 1
um ann
Ġo Ãł
ĠMar c
ĠMar s
ĠMar ia
ĠMar garet
Ġ25 00
ĠChá» ¯
ub arak
ib b
ĠThÃ¡ ng
art y
ĠBr oth
ĠSh aw
ff iti
Ġ201 5
Ġ198 3
ĠChi m
ann e
lin ois
ĠTw eet
Ġ197 3
Ġ197 9
ĠCol or
ĠRob b
ĠBá» ı
ĠMich el
ĠPh otoshop
Ġ196 5
ren e
ĠBill y
ĠTháº Ńm
Ġj ihad
ett y
ĠCr u
ĠCr itic
yn thia
ĠNá» ķ
ĠNá» Ĺi
ĠRe zero
PhÃ ³ng
PhÃ ²ng
ĠNháº Ńn
cÃ´ la
ant s
ĠCl ark
ĠWal es
thá» ©
thá» Ŀi
ĠAc cent
Mar co
Ġ195 7
Ġká»ģ nh
ĠWat er
ĠBu ff
ĠMah moud
ĠMah atma
ts burgh
Char lie
KhÃ Ń
Ar thur
ĠBi osphere
ĠLin us
ĠvÃ£ nh
lash y
Ġgo Ã¡
ĠAg nes
ĠGeorg ia
ĠJenn ifer
ĠHir sh
ĠCamp uchia
ĠNet flix
ĠIM F
ocr ates
Ġamin o
ĠprÃ´ tein
Ġenzy me
Ġnguá» Ŀi
ĠthÃ¢ y
ĠMass achusetts
ĠArch ie
ĠFried man
ĠAur ora
ĠTunis ia
ĠGord on
ĠIl linois
ĠVinc i
ĠStock holm
ĠDenis ov
Ká» ³
Ġgra ffiti
ĠrÆ¡ m
ĠSis y
Ġest rogen
ĠHamp shire
ĠHiroshi ma
ĠPit tsburgh
ĠOdyss eus
ĠMonter ey
ĠGuard ian
ĠCoch rane
Prin ce
Ġcortis ol
ĠMell on
ĠHun ter
ĠFlick r
ĠAccent ure
1 7
4 00
6 5
6 6
8 00
9 5
A d
B R
B Ãłn
B rian
C T
D J
D áº¥u
D Ã²ng
H i
I á»
J ay
L ÃŃ
L á»±c
L á»±a
M M
N áº¡n
N á»Ļi
P at
R N
S ang
T T
T Æ°
T ai
T Ã¢m
T á»ĳc
V áº»
a ff
b ab
c hÃ
c áº£
c as
c orn
d Ã¹
e ed
i or
i ra
j i
k u
l am
l ic
l air
m b
m ent
n ick
o ac
r k
r áºŃp
r ass
r ne
s en
w ick
x on
y le
z one
· ng
Ġ hÃº
Ġ au
Ġ Ãºp
Ġ áº¯p
Ġ usd
Ġ Æł
á» ¯
Ġt Ã©
Ġt en
Ġc ou
Ġc iv
ĠÄĳ Ãªn
ĠÄĳ Ã¹ng
Ġv Æ¡
Ġl Ãº
Ġl áº¹
Ġm m
Ġm Ã¹ng
Ġm áº¯ng
Ġb Ã¹a
Ġb eat
Ġb iÃªt
Ġs áº§u
Ġtr Äĥn
Ġtr Ã²ng
Ġtr ans
Ġng áº§u
Ġng Æ°á»£ng
Ġng áº¡t
Ġg Ãłng
Ġg oogle
Ġh uyá»ĩn
Ġr Ãªn
Ġr Ã¨m
Ġd áº·t
Ġnh Ãłn
Ġnh ung
qu ez
Ġvá» ĥ
Ġvá» ¥t
Ġch ao
Ġch Å©ng
Ġch uá»Ļc
Ġnhá» ©ng
Ġhá» ĳt
Ġx iáº¿t
Ġkh ay
Ġchá» «
Ġchá» «a
ĠthÃ ²i
an c
Ġra o
Ġgiá» Ŀi
ch an
Ġnháº §y
ĠT uyÃªn
ĠT Ãłu
ĠT od
on ia
on ie
ai s
ai za
Ġcháº §n
ĠchÃ ©m
ĠhÃ ©o
ĠnhÃ µm
ÄĲ o
ÄĲ áº¡o
ÄĲ Ãªm
ĠnghÄ© nh
ĠC od
ĠC ass
ĠC omp
ĠC á»±u
ĠC lev
ĠC ohen
Ġsá» ¯ng
Ġsá» ĵi
Ġphá» ī
ĠphÃ¡ ch
Nh u
Nh iá»ĩt
Ġto Ã¡i
ĠM ard
ĠM edia
ĠM BI
ĠM ubarak
em a
Ġtrá» Ŀ
ĠN G
ĠN at
ĠN áº¥m
ĠN ik
ĠN ev
ĠB ÃŃ
ĠB Æ°á»Ľc
ĠB it
ĠB and
ĠB Ã¡nh
ĠB art
ĠB alk
er k
uá» ĩ
ĠH on
ĠH ey
ĠH ud
ĠH mm
ĠH unt
am s
am ie
ĠÄĲ ang
ĠÄĲ Ãłn
ĠÄĲ Æ°Æ¡ng
ĠÄĲ áº£o
ĠÄĲ Ãªm
ĠA BC
Ġkhá» ©u
ĠS W
ĠS ar
ĠS ag
ĠS inc
ĠS áºµn
ĠS obule
Ġkháº ¯t
ĠmÃ¡ ch
Ġy áº¿n
Ġph oton
ĠP o
ĠP ia
ĠP ho
ĠP ach
ĠP erry
ĠP oint
Ġháº¡ c
ĠK ap
ĠK ir
ĠL áº¥y
ĠL es
ĠL uáºŃn
ĠL iz
ĠL yn
Ġngá» ¡
ĠG Ã¬
ĠG ard
ĠG illi
ĠG lad
Ġ3 9
ĠTr á»Ł
ĠTr Ã²
ĠD D
ĠD eb
ĠD anny
im o
es ar
es ome
ĠR em
ĠR ab
ĠR ich
ĠR ep
ĠVÃł i
ĠVÃł ng
Ġso fa
ĠV iá»ħn
Ġrá» £n
ic ill
ĠJ R
ĠJ oh
ĠJ ihad
ĠJ ason
il eo
ĠF ul
ĠE b
ĠE van
ĠE DI
ter n
ĠNg uy
ĠNg Ã´n
Ġtu á»Ļt
ac re
hÃ¡ n
ad us
ĠPhi lipp
ĠCh in
ĠCh urch
ra ft
-- -
ĠHo use
li ot
Ġ8 000
Ġla ze
ÄĲá» ©c
ÄĲá» ĭnh
Ġgá» £n
Th iÃªn
un es
ro v
Vá» £
Vá» ¥
ĠÄĲá» ©ng
Ġw ow
Ch uyá»ĥn
id ro
ĠSt udio
ĠU ng
ing er
ĠX e
lo ck
Tá» ·
Äĳ á»
ĠGi an
ik i
Ġlá»ĵ i
um i
Ġf or
ĠMar co
ord s
ry n
ry st
ĠAn thony
ĠTá» «ng
ut en
Gi áº¥c
eg al
de z
Ġu Ã½
ĠSh eph
ĠAfg anistan
uc ky
ff e
Ġbá»ķ n
ĠâĢ ĭ
ĠKen d
ĠhÃ² m
ĠCan yon
ĠChi a
Kho áº£nh
Ph iÃªn
ĠnhÃ¡ p
ĠTo yota
st ream
ek a
ThÃ ´i
ĠHy der
ric e
Ġ196 2
ĠBl u
ĠTháº §y
ĠBar ef
ĠJo ey
Ġe Bay
ug a
ĠJam ie
Ná» Ńa
ĠbÃ¹ m
ĠNa j
ĠSch ool
ĠHig g
ck en
ĠMa x
ĠRe u
ĠHe h
Ġmic r
ĠPhÃ Ńa
ĠNe il
ĠEl vis
ĠKh u
Ġ194 9
ĠMal awi
cel adus
ĠTrans ition
ĠJu an
ĠDi am
ĠRom an
ĠFre d
ĠFre ud
Ġ36 5
bur n
our i
ĠCl ay
ĠCl onie
ĠVen ter
mm m
Dá» ħ
oth y
ĠEn celadus
ĠCE RN
ĠChrist ian
ĠBur n
Ste ve
ĠBon o
ĠOlympic s
nes ota
ĠCap e
ĠSer ra
Ġne u
Ġnit Æ¡
ĠEur o
ĠOs ama
Ġbon obo
ĠLar ry
ĠRed dit
ĠÂ ¼
ĠnhÃº m
Ġok ay
ĠHam let
Ġá»« m
ĠCas ey
ĠMoz ambi
ĠMin nesota
ĠAR N
ĠPri ze
ĠDu ol
ĠEx xon
Ġ185 8
Ġhel ium
Ġox ide
ĠHel en
ĠEle c
ĠSn ow
ĠKur d
ĠDav is
áº¢ nh
ĠUkr aine
ĠKle in
ĠRuss ell
Ġhorm ones
Mart in
Ġcomp lex
ĠBil bao
ĠSho w
ĠGay la
ĠVik ing
ĠJud y
ĠOtt oman
mud din
Ġpen icill
ĠPy th
ĠPic asso
ĠEng land
ĠMarsh all
ĠBarb ara
Ġdem o
ĠKos ovo
ĠKab ul
osev elt
ĠÄĳuá» £c
ĠHit ler
ĠRivers ide
ĠColor ado
Ġciv ic
ĠSinc lair
ĠBaref oot
ĠMozambi que
Ġpenicill in
3 7
4 8
5 9
A C
A my
B Ã©
C lay
D E
D anh
D áº§n
D ar
E L
E S
E l
G áº¥p
H O
J K
J ac
K ÃŃnh
L V
L Å©
L arry
M áº«u
M ur
M áº¡ng
N Ãły
N athan
O V
P L
R ory
S al
S he
T Ã´n
V ai
V Ã²ng
Y Ãªu
b i
b Ãª
b ar
b ul
c ola
c astle
d or
d ad
d ale
f ia
f ri
g ill
h t
i i
i en
m ing
m ore
o it
p ar
r áº¯c
r et
s son
u j
u za
x o
y son
z y
Ġ @
Ġ Æ°ng
Ġ eo
Ġ áº¡t
Ġ uyá»ĥn
Ġ as
Ġ ed
Ġ are
á» ª
Ġt áº±m
ng ay
ng Ãły
Ġc l
ĠÄĳ Ã¡i
Ġn Æ°Æ¡ng
Ġn áº¹p
Ġn iÃªm
Ġv Ã³i
Ġl á»±
Ġl áº£ng
Ġl Ã³c
Ġl uyáº¿n
Ġl uá»µ
Ġl á»ĳp
Ġm y
Ġm Ã³
Ġm Ã²ng
Ġm od
Ġm ix
Ġb lu
Ġs iáº¿t
Ġs il
Ġs á»įc
Ġs ex
Ġtr au
Ġtr áº·c
Ġng a
Ġng Ã¹ng
Ġg Ã¹
Ġg áº«u
Ġh iá»ģu
Ġh ot
Ġh iá»ģn
Ġh idro
Ġthá» Ľ
Ġthá» ¥t
Ġr áº§y
Ġd Æ¡
ĠÄĳá» Ŀ
Ġnh uyá»ħn
ĠkhÃ ©t
Ġch Ä©a
Ġtháº ©n
ĠcÃ¡c bon
Ġqu ot
Ġqu Ä©
Ġkh ong
ĠÄĳÃ£ ng
Ġchá» ĵi
ot ton
Ġngh iáº¿n
an or
Ġra ng
ch ester
Ġnháº £
Ä© u
ĠT H
ĠT áº¡
ĠT ai
ĠT iá»ĥu
ĠT Ã¡i
ĠT ide
ĠT ulu
Ġlá» ıi
Ġlá» ¥i
Ġho oc
on i
Ġdá» «a
ĠC orn
Ġsá» ĩt
ĠM ao
ĠM olly
ĠN Ã´ng
ĠN Ãºi
ĠN icholas
ĠB K
ĠB ong
ĠB iáº¿t
ĠB in
ĠB ac
ĠB ul
ĠB ion
ĠB all
ĠB ond
ĠB eth
ĠB agh
ĠH iáº¿n
ĠH uck
ĠH uss
ĠH ome
ĠÄĲ o
ĠÄĲ iá»ĥm
en ix
ĠA I
ĠA th
ĠA ut
ĠS Ã´ng
ĠS um
ĠS ony
ĠS ean
ĠS af
Ġhá»Ļ t
ĠmÃ¡ ng
ar o
Ġph Ãł
ĠP in
ĠP re
ĠP ran
ĠK I
ĠK ob
ĠL á»±c
ĠL áº¡nh
ĠL ake
ĠL HC
áº¹ t
Ġngá» ı
ĠG all
ĠG ood
ĠG owan
ĠTr Ã¬nh
ĠTr in
ĠTr Ã¢n
ĠTr áº¡m
ĠTr oy
ĠD C
ĠD ay
ĠD ep
ĠD olly
ĠD ennis
Tr anh
Tr á»Ŀi
al th
al og
Ġphá»¥ ng
ĠR NA
ĠR iley
el i
iÃª c
Ġtho áº¡t
et e
at in
is cher
ĠQ uá»·
ĠJ oy
il ton
it o
ol ph
ĠF ood
ĠE iff
le ep
us ton
Ġ6 2
Ġ6 3
Ġ6 6
Ġ6 50
ĠTh u
ĠTh Æ°á»Ŀng
ĠTh Æ°á»Łng
ĠO z
ĠnghÃ ª
ur ia
ĠCh echn
Ġtrá»¥ i
ra g
ĠHo ff
Ġ8 8
eb er
Th u
ri k
ro ve
Vá» «a
re a
re z
Ġw hi
Ch ryst
id i
Chá» ĵng
Chá» įn
ĠSt ef
ist or
ĠU C
ĠThá» ĥ
Ġweb cam
ine ering
ĠGi áº¥c
ĠGi ff
tr ino
Ġrobot s
Cháº ¡y
Ġf t
Ġf lash
ĠChá» §ng
Ġvá»£ t
ib a
ĠdÄ© a
ChÃ ¬a
az ar
ĠAn ton
ĠAn ne
Ġnháº¹ n
ĠTá» ¥i
ĠBr end
ĠZ etas
ĠIs tan
Ġáº¢ nh
Ġu áº¥t
ĠCar gill
Ġ201 4
Bá» Ĺng
KhÃ¡ ch
Ġ0 5
ph us
ov e
ĠDo anh
Ġ198 2
Ġ198 7
enn y
ain a
ann el
st an
Cá» §a
ĠRob ics
ath y
sh mi
ĠBá» ī
ĠBá» ĭ
ĠMich oac
ĠSp ring
ĠSp lashy
Ġ196 8
ĠBan k
ĠBl air
ĠSau nd
urg a
Ġváº¹ t
ĠMá» Ľi
Ná» ¯
ĠLu ke
ĠRe agan
ĠHe ad
ĠHe ather
ĠPhÃ ¢n
Ġná»ģ u
ĠNe umann
ĠKh Æ¡
end o
ĠKhÃ¡ c
ĠAnd y
Kh uÃ´n
Ġ194 8
Ġngháº ¹n
ens p
ens tein
ĠRom a
ĠsÃ´ cÃ´la
ĠGab riel
me ister
ĠLib by
ĠStan ley
ĠAc tor
Lá» Ľp
ĠKhá» §ng
ĠDá» ħ
AR S
ĠGen e
ĠBrook s
Ste f
ĠBon nie
Ġdollar s
ĠAv iv
ĠRo osevelt
ĠKn ee
anth a
ston ia
ĠFer ris
ĠJac ob
ĠMiss ouri
ĠBud rus
ĠWi red
ĠNo ah
ĠKal uza
ĠFar mer
cá» ¥
ĠTer ence
Ġpherom ones
ĠPau ling
ĠFort une
ĠBroad way
ĠWhit acre
Ġbl ah
Ġbl oop
Ġpoly mer
ĠKhÃ Ń
Jos eph
ĠSad dam
pháº §n
Ġme erk
ĠAch ill
ĠKháº £
ĠSen egal
tháº Ńm
Ġbe ep
ĠOn line
ĠShir ley
Fran k
eng ineering
ngh Ä©a
ĠJess e
ĠHimalay as
ĠDAR PA
ĠClo ud
ĠColl ins
ĠUnivers ity
ĠhÃ¹ m
ĠBy rne
ĠKent ucky
ĠRu fus
ĠSci ence
ĠNI H
ĠWind ows
ĠJacqu es
agas car
ĠAlg eria
ĠAlt os
ĠSisy phus
ĠlÃº n
ĠCass ini
ĠClev eland
ĠSag meister
ĠGilli an
ĠHyder abad
ĠDuol ingo
ĠBagh dad
ĠHuss ein
ĠGowan us
ĠEiff el
ĠChechn ya
ĠIstan bul
ĠRobics ek
ĠSaund ers
Ġmeerk at
3 3
7 00
9 7
A L
A N
A lex
A rist
B r
B ren
C áº§u
C al
C Ã¡nh
C hia
D er
E lizabeth
G V
G á»įi
H P
H Q
I m
J M
K á»¹
K ÃŃch
L u
M W
M an
M ang
N áº¥m
O OC
P ar
R á»ĳt
R achel
S ong
S hi
S im
S Ã¡ch
T ay
T hi
T ony
T unes
U E
V iáº¿t
X u
c ow
c ul
c ock
d s
d ie
f el
k in
l áº¡i
l ia
m áº·c
m or
m at
m it
n háº
n is
n ic
p s
p oint
p ress
r d
r t
r u
r as
s áº½
s ey
t inh
t es
t ol
t ra
u ana
v ÃŃ
v old
w l
w ar
· c
Ì £
Ġ _
Ġ es
Ġ ub
Ġt eo
Ġt Ã³t
Ġt ennis
ĠÄĳ u
ĠÄĳ Æ¡
Ġn u
Ġn áº¥y
Ġn om
Ġn ick
Ġn Ä©a
há» ĭch
Ġv Ã©t
Ġl t
Ġl áº£
Ġl im
Ġl iáº¿c
Ġm áºŃu
Ġm oi
Ġm ag
Ġb y
Ġb ung
Ġb Ãªu
Ġb Ã¡i
Ġb áº·m
Ġb iá»ħu
Ġk Ã©t
Ġs Ãłi
Ġtr Ãłnh
Ġtr á»ĵi
Ġng áº¥y
Ġng Ãłng
Ġng háº¿
Ġng áº¡ch
Ġng Ã¡p
Ġg r
Ġg u
Ġg Ãłn
Ġg oi
Ġg ara
Ġg áº«y
Ġh ec
Ġh ead
Ġthá» ±
Ãª ng
Ãª in
Ġr áº¡n
Ġr Ã²i
Ġd á»Ļt
Ġd Ã¬m
Ġd áºŃt
Ġch Æ°á»Ŀng
Ġch iÃªc
Ġth Ãłng
Ġhá» Ľt
Ġtá» ħ
Ġqu á»ĩ
Ġgi Äĥng
Ġgi Å©
Ġgi áº¥m
Ġgi Ã¹m
Ġx Ãª
Ġkh a
Ġchá» Ńi
Ġpháº ¿t
ay a
ay an
Ġsáº ·c
Ġbá» ıi
Ġbá» «ng
Ġbá» ©t
ĠT Ã¡c
ĠT iÃªu
ĠT uyáº¿t
ĠT ul
ĠT uc
ĠT ij
Ġdá» ım
ai jan
ĠchÃ ª
ĠnhÃ ²m
ÄĲ á»ĵ
ÄĲ á»įc
au x
in as
ĠC L
ĠC Ã¢y
ĠC áº£ng
ĠC áº¥p
ĠC os
ĠC háº¿
ĠC Phi
ĠC oke
Ġháº ¯t
Ġsá» ī
ĠM Ã´
ĠM á»Ł
ĠM Ãłn
ĠM áº¥y
ĠM am
ĠM á»ĳi
ĠM un
ĠM itra
hi eu
Ġtrá» ģ
Ġtrá» £n
Ġká» īnh
ĠN O
ĠN aomi
ĠB ai
ĠB Ãłn
ĠB Ã©
ĠH Æ°ng
ĠH em
ĠH Ãºp
ĠH ob
ĠH ub
ĠH urt
ĠH annah
ĠH LV
ĠÄĲ Æ¡n
ĠÄĲ Ã¡nh
en os
ĠA ung
ĠA ss
Ġqua rk
Ġkhá» ĳ
ĠS o
ĠS han
ĠS ir
ĠS ach
ĠS aul
ĠS low
ĠS leep
Ġy um
iá»ħ m
ĠP av
ĠP ine
ĠP ants
ĠK a
ĠK ong
ĠK ÃŃch
ĠK erry
ĠL Ã²ng
ĠL á»ĩ
ĠL ind
ĠL agos
ĠL inda
ĠL OL
ĠL HQ
Ġá» ªm
Ġngá» ©a
ĠG oog
ĠG ram
ĠG ros
ĠG up
Ġngo áº¡c
ĠTr Ã´ng
Ġxu i
ĠD Ã²ng
ĠD od
ĠD yson
or en
al o
Ġthu n
ĠR ap
ĠR agu
el s
Ng hi
ĠI N
ĠI NCRA
ĠV iÃªn
ĠV Ã²ng
ĠV áº«y
ĠV ui
ĠV ila
Ġrá» §a
as hi
it an
ol ogy
ĠW ell
ĠW hoa
ĠF i
ĠE sk
ĠE stonia
ho v
ho use
ĠthÆ° c
us hi
om on
ĠO la
ĠO ne
li u
Ġ8 3
Ġ9 2
Giá» ¯
ÄĲá» ĭa
un n
un o
ro ject
ĠNew castle
re en
id es
id ad
Chá» ©
ĠSt ing
ah n
ig rut
th eo
th us
op hia
Ġnhá»Ŀ n
ag ram
ĠX DR
Ġ12 00
ab el
ab ian
ab ama
ĠAl abama
ĠThá» ©c
Má» Ŀi
ou ld
ĠGi áº£
ĠGi Ã¡c
ĠGi Ãºp
Ho ward
Ġo an
if i
ack er
ĠTá» Ľ
ĠZ ambia
Ġma fia
eg as
eg rass
Ġu p
ĠSh ack
ĠEm manuel
Bá» ĭ
ip pi
yl oid
ĠGiá» ¯a
ers burg
Ġ17 0
ĠÃģ nh
ock s
Ġláº» o
ĠPháº £n
ĠCháº ¥t
Ġnho Ãł
Ġ197 4
Ġ197 6
pp er
ĠGeo ff
á»ĩ n
ĠMc Chryst
ĠCol lider
ĠTháº Ńp
der ick
ug ust
ug ata
illi e
ĠHá» ıi
ĠThÃ ªm
ĠNá» ģn
ĠDar fur
di es
ĠKh ai
ĠPet ersburg
Ġ194 7
ĠNgh Ä©
ĠNgh iá»ĩp
ĠNháº £y
ĠNháº ¡c
iss ippi
ĠFre eman
ix on
.. ..
ĠTor osaurus
eh r
ĠMad agascar
ĠchÃ¹ i
Ġcent s
ĠMe ch
ĠMe ad
ĠGal ileo
Ġmicro phone
Lá» £i
Ġnhá»ĭ n
ĠSim pson
ĠKar en
ĠDá» ¥c
ĠnhÃ£ ng
ĠLad y
Kháº ¯p
ĠTrá» ¥c
ĠNan o
ĠBu enos
ĠSu u
ĠPl ay
Ġser ies
Ġpound s
ĠHans en
ĠJim my
ĠBol t
ĠKy i
ĠRock ett
ĠDe ep
ĠAir es
ĠAir stream
ĠFor bes
ĠMos cow
ĠHill s
ĠAri ely
ĠBlack berry
ĠTit anic
ĠPro ject
sk i
ĠKu wait
ĠLar amie
las ma
ĠSk id
ĠWi i
Ġenz im
ĠRand olph
ĠBot sw
ĠJord ans
Ġgl uten
ĠMas low
ĠGeorg etown
Ġmu á»Ļi
ĠAmer ica
Ġeur eka
bor ough
Khá» ĳi
Khá» §ng
ĠHad ron
Ġ74 7
Ġenzy m
ms trong
ĠArab ia
ĠMcG on
ĠSchw artz
ĠvÃª nh
Ġsun phua
erb aijan
ĠPink er
ings uit
ĠWiki Le
Jon athan
Jenn ifer
tz mann
ĠJuli et
Ġaw esome
ĠTob ago
ĠPas cal
hr vold
eyn man
trol ux
ĠAndr oid
ĠEconom ist
Ġsal ad
ĠViv ian
ĠOw ens
ĠUt ah
ĠHirsh horn
ĠNev ada
ĠBit co
ĠHud son
ĠKap lan
ĠGlad well
ĠDD T
ĠNaj muddin
ming ham
ĠBK T
ĠPre go
ĠGiff ords
Ġub untu
Ġngháº¿ ch
ĠTuc son
ĠHurt igrut
ĠGup ta
ĠMcChryst al
ĠHurtigrut en
0 5
3 8
A f
A ngel
B S
C N
C R
C r
C Ã´n
C ol
C háº¿
C ard
D U
E s
F L
F i
G B
G hi
G ab
H S
H áº±ng
H iá»ĩp
I Y
I CE
J ack
L M
L au
L á»ĳi
L ewis
M a
M áº¯t
M á»±c
M Ã³n
N o
N Ã´ng
O s
Q uyá»ĥn
S á»Ł
S an
S arah
S ylvia
S phere
S ebastian
T iá»ĩn
V Ã´
V Æ°á»£t
X a
a hoo
b á»
b al
b ro
b ach
b eta
c uá»Ļc
c ed
d t
d ay
f ul
g a
g y
h asa
j ad
k ut
l Æ¡
m Ã´
n est
n ish
o xy
o fi
p en
p era
r ot
r ai
s ain
t u
t áº¡o
t eo
v ald
w ork
x Æ¡
z net
z ka
§ u
¹ t
Ã Į
à ¸
Ġ áº¯t
Ġ er
Ġ oli
Ġ organ
Ŀ ng
á» ªm
áº ¤
áº µng
Ġt Ã¬
Ġt Ã£
Ġt áº¿t
Ġt uá»ĳc
Ġt uá»ĳi
Ġt Ã¡ng
Ġt áº¹o
Ġc au
Ġc Ãºc
Ġc Ãłm
Ġc ass
Ġc oll
Ġc otton
Ġn áº¯n
Ġn ap
hÃ ¨o
Ġv Æ¡i
Ġv áº£y
Ġv ali
Ġl á»įi
Ġl Äĥm
Ġl Ã¹a
Ġl Ã¬a
Ġl Ã¹n
Ġl á»±u
Ġm áº«n
Ġm Ãºc
Ġm Ã¨
Ġb áº¡
Ġb áº½
Ġb Ãºp
Ġb la
Ġk ang
Ġs áº¥y
Ġs á»įt
Ġs Ã©c
Ġng áº¥u
Ġng Ã¡y
Ġg uá»ĵng
Ġg uit
Ġh Æ¡
Ġh em
Ġh uyÃªn
Ġh it
Ġr em
Ġd áº£
Ġd es
Ġd Ã£n
Ġnh eo
qu are
Ġvá» ¯a
Ġvá» «ng
ĠcÃ³ ng
Ġch uá»ĳt
Ġhá» §
Ã£ nh
Ġqu Ã¡c
Ġqu áºŃy
Ġgi Å©a
Ġx Ã¹
Ġx iáº¿c
Ġx áº»o
Ġkh uá»·
ĠthÃ ²
Ġpháº Ńt
Ġpháº ©u
Ġpháº §m
Ġgiá» ¡n
Ġnháº ±ng
Ġcáº£ u
Ġbá» £
Ġbá» £m
ĠT an
ĠT Ã´n
ĠT ut
ĠT NC
Ġlá» ķ
Ġlá» Ľi
on s
Ġdá» ĥ
Ġcháº §m
ĠchÃ ²i
ĠchÃ ²m
ĠhÃ £n
Ġmá» ĭt
au st
in ia
in ess
in awa
Ġná» Ľt
ĠC art
ĠC ash
ĠC eline
á»ĵ m
Ġto an
Ġto Ã¡t
ĠM áº¥t
ĠM ai
ĠM is
ĠM ik
ĠM ul
ĠM ore
ĠM od
ĠM á»Ŀi
ĠM org
ĠM AS
ĠM OOC
Ġkho Ã©t
ĠsÃ¡ n
ĠN R
ĠN ap
ĠN iá»ģm
ĠN SA
ĠN ino
ĠN ixon
ĠB B
ĠB uy
ĠB áº£ng
ĠB Ã¡ch
ĠB ak
ĠB og
ĠB everly
Ġlo Ã¡t
ĠH S
ĠH or
ĠH and
ĠH eb
ĠH áº¡nh
ĠH art
ĠH ipp
ĠH AL
ĠÄĲ H
ĠÄĲ Ãłng
ĠÄĲ áº¥u
ĠA w
ĠA TM
ĠS in
ĠS á»ĳt
ĠS ue
Ġph Ãłm
ĠP R
ĠP i
ĠP ao
ĠP hÃºc
ĠP ear
ĠK w
ĠK an
ĠK oh
ĠK ris
ĠK ros
ĠK ant
ĠL em
ĠL Æ°á»£ng
ĠL ow
ĠL ight
ĠL isa
ĠL ife
áº¹ n
Ġá» ¥
Ġá» ī
Ġá» Ķn
Ġngá» Ĺng
ĠG ut
ĠG ell
ĠG ould
Ġngo áº·c
ĠTr áº¡i
ĠTr ang
ĠD am
ĠD om
ĠD ew
ĠD áº¡ng
ĠD ak
ĠD ow
ĠD ev
ĠD own
ĠD har
ĠD uke
ĠD IY
Tr i
Tr á»
Tr áº£i
im a
im p
Ãµ ng
ĠR as
ĠR ho
ĠR ah
ĠR á»ĵng
ĠR ain
ĠR ica
ĠR aj
ĠR IA
el op
el ling
Ġquyá» ĩn
Ng á»
Ng á»ĵi
Ng há»ĭch
ĠI V
ĠI ce
ĠkhÃŃ t
Tháº ±ng
Tháº Ńp
Ġ5 9
Ġso und
Ġso cola
ĠV áº¡n
ĠV áºŃn
ĠV ib
ĠV á»įng
ĠV ideo
ĠV iag
at ra
Ġrá» ĥ
ĠQ uyáº¿t
ĠJ ans
ĠJ aw
ĠJ ake
ĠJ obs
Ġba ss
ĠÃ Ĭ
il m
il lo
il ity
il ever
il ocks
as te
Ġdi ng
it or
it al
it ed
it iba
ol ulu
ĠW ong
ĠW att
ĠF oster
ĠF ez
ĠF ull
ĠF aiza
ĠE r
ĠE ngel
ĠE ames
Ġ10 3
ĠNg á»įn
ĠNg oÃłi
Thá» ©c
om a
ad ema
ĠTh uá»·
ĠTh atch
ĠO m
ĠO ld
ĠnghÃ ©n
ob log
ur ich
ĠCh e
ĠCh ap
ĠCh and
ĠCh ev
ĠCh uck
ĠY ellow
Ġ7 1
Ġ7 3
Ġ7 9
li f
Giá» Ľi
Ġgá» «ng
Th Æ°Æ¡ng
ĠÄĲá» §
id er
id ge
Chá» Ĺ
Chá» Ŀ
ig n
ist ry
th a
th an
ran i
ĠU hm
ag ue
ĠX c
lo Sphere
ĠbÃŃ t
av i
av el
Äĳ á»ĳi
oc zka
ĠNh anh
ĠNh iá»ĩm
son ian
han ol
te au
Ġxá» Ľi
Ġxá» Ńa
Ġ18 6
ie g
Cháº ¿t
Ġf áº£i
Ġf orm
Ġf ont
ĠMar x
Ġ25 000
Ġ11 00
ChÃ Ńn
az o
ry lic
ack ing
ick lider
iv ia
iv es
Gi Ã³
he im
ĠBr ent
ĠAr mstrong
ĠZ ipcar
ion s
ert o
de en
od y
od ka
Ġ21 00
ach i
ach t
Ġru pi
ĠHai dt
Ġ198 1
ĠnÆ¡ ron
Ġi Tunes
ain t
ĠPháº «u
ĠnhÃ¡ i
ĠnhÃ¡ m
ann es
ann ica
ĠCháº ¡y
Cá» Ńa
Ġ197 2
Ġ197 7
Ġ197 8
ĠCol le
ĠBá» ¯a
ĠPal in
Ġ196 9
ĠMo unt
iz a
ĠNig ht
ĠRos sy
ĠBar bie
ani um
Ġj e
ug u
ĠCho pin
Ná» ķi
ĠSch ul
ĠPhá» ķ
ĠCr uz
ĠKh al
end or
ĠKhÃ¡ m
ĠAt kins
ĠAnd es
ĠHarv ey
Kh ung
ott o
Ġngháº ¹t
ĠJos h
ĠOr kut
ĠOr nish
Ġxá»ī n
eth yl
ĠGreen ville
Dá» «ng
ĠSam antha
Al ain
ĠCo us
ĠCo de
ust y
red dies
Mar garet
esh a
Ġ195 3
we il
ĠMy hrvold
ĠGo gh
ther land
ĠAh mad
con sin
ĠSu therland
ĠGen ev
Ġháº» m
ĠPer cy
Ġngá»« oi
ef eller
mon ia
Ġac rylic
ĠPat el
ĠUn ilever
ĠJer emy
ĠRock efeller
ĠTur k
ĠSi ri
ĠEar le
ĠTit an
Chi m
Car l
ĠCD C
ĠKn ight
Ġmil i
Ġkil omet
ĠVal ley
ĠVal dez
sk ey
Ġcal or
ĠPop e
ĠSand y
ĠKu znet
ĠGold ilocks
ĠAtlan tic
ĠMiss issippi
ĠBud ap
mar in
ĠAlbert a
ĠMatt hieu
ĠBot ton
ĠAus tin
ĠIg bo
rr rr
ĠDr ori
ĠFar m
cá» §a
ĠPau lo
ĠPau la
itt le
ĠEv ans
ĠEv elyn
ather ine
otter dam
ĠShe ila
bor azo
ĠBrit ish
ĠBrit annica
sc ape
ĠRes nick
Ġet c
Ġet hanol
ĠLuc y
ĠEle anor
And rew
Ġbo om
ĠNhá» Ŀ
ĠRid ge
ĠIP CC
ĠVer me
ĠShir ky
ĠJan ine
ĠAllen de
ĠSil ver
ĠBeat les
Ġter awatt
ĠMak oko
Tho áº£
ĠPor ter
ĠGri ff
ĠBow l
ĠAz erbaijan
ĠHind u
ĠGul f
ĠWis consin
ĠInst agram
Ġad ren
ĠPe ace
Christ opher
ĠBroth ers
ĠChim borazo
ĠRobb ins
Ġcou marin
ĠMard uk
ĠBand ura
ĠHon olulu
ĠPho enix
ĠRep ort
Ġmicr oblog
ĠDiam ond
Ġneu tron
ĠElec trolux
ĠSnow den
ĠKurd istan
Ġsex y
ĠBion ic
ĠHoff man
Arist otle
tol emy
ĠTij uana
ĠSach s
ĠKa aba
ĠBotsw ana
ĠWikiLe aks
ICE F
Ġoli u
Ġcoll agen
Ġguit ar
ĠKros oczka
ĠRho de
ĠRIA A
ĠThatch er
ĠYellow stone
2 1
2 7
4 2
6 4
8 4
A lan
B iáº¿n
B Äĥng
B ra
C D
C S
D on
D NA
D ean
E E
E SC
G r
G Ã£
H I
H áº¿t
H Æ¡i
H ar
H Æ°á»Ľng
H om
H áº¡nh
H ub
H enry
I I
J O
J S
J ean
J ane
J ake
K i
K áº»
L B
L S
L uáºŃn
L uc
M L
M Ãłn
M al
M á»¹
M ic
M ah
M ike
M CA
N H
N ic
N ew
O ng
P I
P esa
R a
R Ãło
R iÃªng
R ock
R ives
S K
S us
S á»ĳng
S ec
S eth
S cript
T O
T Æ°á»Ŀng
T iá»ĥu
T á»Ļi
T á»Ń
T Ã¡m
T áº§ng
U hm
V ui
X Æ°Æ¡ng
X Ã¡c
Y ou
Y ves
b s
b ot
b iáº¿t
b ia
b art
b ell
b all
b age
c es
c Ã¡ch
c li
c les
c raft
d own
e a
e ing
g Ã´
g ic
g li
g endor
k ina
k ley
k heim
l Ã´ng
l ap
l ett
m in
m aster
n Äĥm
n ess
o oth
p ur
r el
s a
s us
t y
t á»
t ar
t á»ĳi
t ain
v o
v iáº¿t
v ian
v ir
w an
w ey
w ind
w itz
x a
y w
y ama
¬ m
´ m
Ã ¶
Ġ *
Ġ áº¯ng
Ġ oi
Ġ ib
Ġ Ã¹n
Ń ch
á» ī
á» ľ
á» ¨ng
Ġt áº§u
Ġt Æ¡i
Ġt uyá»ģn
Ġc Ãłn
Ġc Ã²ng
Ġc uá»ĳc
Ġc om
Ġc áº±m
Ġc áº³ng
ĠÄĳ ay
ĠÄĳ Ãłnh
ĠÄĳ ung
ĠÄĳ ÃŃt
Ġn áº§n
Ġn ao
Ġn ua
Ġn Ã²i
Ġn áº»o
Ġn ÃŃt
Ġv o
Ġv s
Ġl e
Ġl áº·t
Ġl it
Ġl iÃªm
Ġl Æ°Æ¡n
Ġm on
Ġm Ãº
Ġm áº©n
Ġm áº«m
Ġb áº¥p
Ġb Ã¨n
Ġk ar
Ġs in
Ġs Ã¢m
Ġs áº£ng
Ġs Ãło
Ġs áº§m
Ġs ushi
Ġtr c
Ġtr y
Ġtr iá»ģn
Ġtr uá»µ
Ġg á»Ļt
Ġg á»Ł
Ġg áº¯m
Ġg á»įt
Ġg Æ°Æ¡m
Ġg aga
Ġh al
Ġh ep
Ġthá» Ľt
Ãª nh
Ġr e
Ġr oi
Ġr á»įc
Ġp H
Ġp ost
Ġd ot
Ġd er
Ġd en
Ġd á»Ļng
Ġd iá»ĩp
Ġd Ã£i
Ġd um
Ġd Ã¬u
Ġth on
Ġnhá» ¡
Ġnhá» «ng
Ġhá» £t
Æ¡ ng
Ġtháº ·ng
ĠnÃł i
Ġqu ai
Ġx iÃªn
Ġx Ã³c
ĠthÃ ¢u
ot hic
Ġpháº ¥t
Ġcho n
Ġcho les
an et
an ce
ch el
ÃŃ u
Ġbá» Ľ
Ġbá» ĵng
ĠT e
ĠT hÃº
ĠT on
ĠT áº§m
ĠT á»Ļi
ĠT il
ĠT ho
ĠT us
ĠT ab
ĠT ill
ĠT hom
Ġlá» ¯
Ġho c
Ġho o
on te
ai m
ĠhÃ ³i
ĠnhÃ ³i
ÄĲ iá»ĥn
ÄĲ Ã¡nh
Ġmá» ¥n
Ġná» ©c
ĠC H
ĠC ung
ĠC áº¯t
ĠC ookie
ĠC SF
Ġháº ¥n
Ġto i
ĠM iá»ģn
ĠM ack
ĠM ann
ĠM ania
ĠM aine
em e
hi m
Ġtrá» ķ
ĠN ad
ĠN ow
ĠN ok
ĠB áº§u
ĠB au
ĠB iá»ĩt
ĠB us
ĠB ut
ĠB log
ĠB eck
Ġlo Ã©t
Ġlo ve
er en
er al
er os
er inc
ĠH áº£
ĠH ang
ĠH Ã¡n
ĠH os
ĠH ell
ĠH ers
ĠH atz
am er
Ġ2 20
ĠÄĲ oáº¡n
en burg
en cia
ĠA y
ĠA ud
ĠA ust
ĠA gar
ĠA ugust
ĠS l
ĠS áº£n
ĠS es
ĠS ac
ĠS ard
ĠS lick
ĠS OL
ĠS tern
ĠS ARS
Ġkháº ½
ar th
Ġph en
Ġph iáº¿m
ĠP T
ĠP en
ĠP ent
ĠP SA
ĠP MT
ĠP tolemy
ĠK il
ĠK ey
ĠK rist
ĠK ool
ĠthÃ¡ n
ĠL áº¯ng
ĠL ess
ĠL uria
ĠG a
ĠG Ã¡i
ĠG ambia
ĠTr a
ĠTr iáº¿t
ĠTr áº¡ch
ĠTr Ã¡nh
Ġxu á»ĵng
ĠD Ã¹ng
ĠD áº¥u
ĠD Æ°á»Ľi
ĠD aw
ĠD all
ĠD amas
or io
or ex
or ity
Tr áº§m
Tr Ã¡ch
al s
es el
es cop
os ia
os lav
ĠR an
ĠR Äĥn
ĠR Ãµ
ĠR ev
ĠR onald
ĠR ory
ĠR oll
el ah
et z
ĠxÃ£ y
Ng áº¯n
Ng áº¡c
ĠI an
ĠI ow
ĠI da
ĠV as
ĠV ill
ĠV ul
ĠV ent
ĠV egas
at on
Ġ4 9
ĠQ uyá»ĥn
ĠJ en
ĠJ et
ĠJ ob
ĠJ ur
ĠJ azz
ap a
il yn
as e
as y
Ġdi esel
ol s
ol is
ĠW ag
ĠW off
ĠW HO
ĠF B
ĠF in
ĠF ow
ĠF ek
ĠF ern
ĠF low
ĠF ear
ĠF ild
ĠF eynman
ĠE is
ĠE bert
Ġcháº¡ c
Ġ19 10
ter ol
ho ma
ĠNg Ãł
ĠNg á»±a
Thá» ĳng
us ion
and i
and on
ac orex
Ġ6 1
ad da
ĠO ut
ob an
ĠPhi m
ĠCh Æ¡i
ĠCh uyÃªn
ĠCh az
ĠCh amp
ĠY ug
ĠHo d
ĠHo áº¡
ĠHo uston
Ġ9 1
Ġtháº£ nh
ĠchÃ¡ o
Ġ200 00
ÄĲá» ģ
ÄĲá» ©ng
Th Æ°
Th uáºŃt
Th uyáº¿t
ri o
ri et
ro c
ĠÃ´ xy
ĠÄĲá» ģ
re al
re ad
Ġw i
Ġw ingsuit
Ch Ãłng
net h
ĠIn uit
ig al
ig man
ig uel
op lin
ĠU h
ĠU NA
ĠU SA
ĠU SB
ĠmÃª nh
ĠX á»Ń
lo yd
Ġsu Ã´ng
ab i
ab ility
ĠAl loSphere
Tá» Ŀ
ak h
oc co
ĠNam ib
Ġxá» ı
tr Ãªn
ik er
um en
ie v
ich a
Cháº £
Ġf MRI
Ġf ischer
Ġf ilm
Qu áº§n
Ġcá»¡ i
la homa
ent o
ian e
ian s
ir d
if t
az i
ex t
ĠAn na
ĠQu een
ĠTá» ī
Ġvá»ı n
Ġhu Ã½
Gi áº£m
art u
ĠAr n
ĠZ ach
ec tor
eg a
Ġ16 00
ĠSh in
ĠSh reddies
ĠVá» ĭ
Ġ14 00
Bá» Ŀi
Ġprot Ãªin
Ġ13 00
KhÃ¡ m
yl l
NA SA
ĠFran s
eria l
ĠCan al
ĠDo yle
ĠnÆ¡ trino
enn a
ain s
Ġláº» n
amb le
und y
ĠMc Mur
ĠMc Lu
ĠdÃ² m
ĠCá» ¥
Ġtá»ĭ t
Ġim p
ĠPal mer
ĠtuÃ½ p
ĠMon ster
Ġ196 3
ling er
ĠTháº £o
ĠTháº ¥y
ĠBar ric
ĠBar cel
ĠPar ik
ĠKho áº»
ĠJo urn
ĠWas h
ĠGre y
ĠEd ison
ĠMá» «ng
ĠTEDx B
Ġcacbon at
ĠLá» £i
Ġco de
ros pera
ĠHá» Ĺ
up rof
ĠNá» Ńa
ĠLu ton
ĠMa as
ĠHe alth
ĠHe idi
ĠPhÃ ©p
ĠOk inawa
ĠOk lahoma
ĠKhÃ¡ ch
ĠAt ala
Kh al
Ġrad ar
ĠFrank ie
ish er
ĠMal colm
ĠMal thus
ĠInd ia
ĠJos e
ĠAdam s
ĠSmith sonian
ĠRichard s
ĠAlex is
Ġinch es
bur st
ĠMan ju
ĠMad rid
ala am
ĠchÃ¹ n
Ġvacc in
ĠEn ron
ĠCo ast
ĠCo unt
Lá» Ľn
ĠBur kina
ĠBab bage
ĠKar achi
ĠDá» «ng
ĠWhi rl
ĠWar ner
Kháº ©u
ĠGia com
Ġam yloid
ze iro
Ġgh iáº¿c
eop athy
ĠAs pen
Ġshow s
mon t
Ġser i
ĠBol tzmann
ĠBol ivia
ĠTur ing
ĠCap etown
ĠMor ris
ĠMor occo
ĠMil an
ĠSer gey
ĠMill s
ĠMill y
ĠHill ary
ĠUSD A
ear ch
Ġtweet s
Phi m
Phi lip
ĠMer ced
ĠDon na
ĠFri end
ij erinc
ĠMiss ion
ĠRand i
ĠAlbert o
ĠPower point
Ġmu Ã´ng
ĠMin ority
ĠBir mingham
ĠPort land
ĠAR ES
acy OS
urt is
ĠIt aly
ĠJane iro
ĠKam en
ild ing
ĠPhilip s
Jos hua
Ġhel i
ĠMap s
ĠSol omon
ĠRes earch
ĠES P
ocr acyOS
ĠEdward s
pháº £i
ĠSá» Ńa
ĠGro und
Ed ward
Ġnguá» ĩch
ĠthÃ¢ t
ĠNhá» ĭp
ĠNathan iel
ĠRad cli
ĠMcC ain
Sá» £i
ĠBM W
áº¢ o
ĠPier re
ĠJess ica
ĠUN ESC
ĠUkr aina
oul der
ĠHimalay a
Ju lian
Sam uel
Ġsun f
ĠMot or
ĠMot ors
ĠLov e
ĠLock e
ĠGan Äĳi
ĠEc ua
RC K
ĠMeyer owitz
ĠHas bro
ĠPu gh
ĠWh ole
adi ja
ĠHot mail
ĠJar rett
hod ops
Chu á»Ļt
Ġpar ab
ĠÄĳá»ħ nh
ĠMid west
ĠHut ch
ĠSel igman
ĠImp rov
ĠStand ford
aby te
ĠChild ren
ĠDiet rich
ĠPhillip s
ĠMoham ed
vent ist
Ġep oxy
ĠJava Script
Ġdiox it
ĠCru zeiro
ĠBuff ett
ĠDenisov an
ĠhÃº p
ĠÆł n
Ġtrans istor
ÄĲo Ã¡n
ĠNik ola
ĠGard en
ĠJoh annes
ĠPhilipp ines
ĠPyth on
ĠÄĲo Ãłn
ĠKI PP
ĠTrin idad
Ġwhi skey
ĠStef an
ĠSpring s
Stef an
Bren da
Sim on
wl n
ĠTul ley
ĠCos ta
ĠHub ble
ĠGros s
ĠEsk imo
ĠMcGon igal
vald s
ĠtÃ¬ n
Ġrem ix
ĠMOOC s
ĠNR K
ĠGenev a
ĠKuznet s
ĠBudap est
Mal colm
gendor fer
Ġib uprof
Ġcholes terol
ĠPMT CT
escop e
ĠIow a
ĠFow ler
ĠFek i
ĠFild es
ĠYug oslav
ĠNamib ia
Ġfischer i
ĠMcMur do
ĠMcLu han
ĠBarcel ona
ĠJourn al
ĠWhirl wind
ijerinc k
ĠRadcli ffe
ĠUNESC O
Ġibuprof en
1 50
2 2
2 3
5 4
7 8
8 6
A b
B O
B iÃªn
B áº£ng
B ar
B á»ĳi
B ath
B arry
C O
C an
C á»±c
C áº¥u
C áº£i
C ynthia
D D
D Ã¢y
D ay
D oug
E x
F N
G F
G raham
G ever
G wen
H D
H u
H iáº¿n
H iá»ĥu
H áºŃu
I S
I ran
I SA
I SD
J B
J E
J N
J Y
K iá»ģu
K ia
K im
L a
L inh
M U
M áº£nh
M el
M ik
M ann
N e
N háºŃt
N elson
O B
O R
O W
P R
P al
P rospera
R P
R ay
R on
R ick
R og
R oy
R á»«ng
S I
S c
S m
S er
S ing
S obule
T A
T Ã´
T am
T Äĥng
T al
T áº¡m
T uá»³
V M
V o
V ideo
W ar
W illiam
X ung
b ard
b ee
b untu
c an
c áº§n
c ut
d u
d on
d áº«n
d ol
d ing
d ore
d og
d ney
e al
f or
g u
g us
g ers
g ate
h em
h man
h ere
i et
j in
k s
k w
k hÃ¡
k off
k owitz
l ass
m ins
m ark
m apa
n há»
n on
n ers
n ational
n ame
p op
r es
r il
r ad
r oir
s p
s á»ĳ
s ky
s ler
s ide
s hoo
t Ãª
t uy
t ia
t hÃ¡
t oo
u gh
v ia
v ed
v ey
v ani
w al
w orth
z o
z an
z on
z ac
z weil
¡ m
Ã ¸
ï ľ
Ġ (
Ġ Ã³
Ġ Ãª
Ġ ang
Ġ ap
Ġ om
Ġ áº©u
Ġ out
Ġ ïľ
ķ n
Ļ ng
á» ģu
áº ł
Ġt Ãł
Ġt ong
Ġt Æ°ng
Ġt Ãło
Ġt áº¥p
Ġt áº©m
Ġt Ä©u
Ġc Ãºt
Ġc áº¡ch
Ġc Ã¹a
Ġc ta
Ġc Ã¹n
Ġc oban
Ġn Ã¡
Ġn in
Ġn áº¡o
Ġn Ã¡i
Ġn et
Ġn hÃºc
Ġn uc
Ġn Ã´m
Ġv áº¯n
Ġv Ã¡t
Ġl Ã¬
Ġl áº±ng
Ġl Ã¡n
Ġl es
Ġl Ã²i
Ġl iá»ĩng
Ġl áº±n
Ġm áº£y
Ġm Æ°á»£t
Ġm ail
Ġm ini
Ġb ai
Ġb Ã²ng
Ġb uá»ĳt
Ġb uc
Ġb ridge
Ġb urger
háº §u
nh iá»ģu
Ġs Ãª
Ġs á»Łi
Ġs Æ°a
Ġtr Ä©
Ġtr uá»
Ġng Ã´ng
Ġng Ã¡n
Ġng Ã³ng
Ġng á»ĳn
Ġng áºŃm
Ġng Æ°á»Łi
Ġg ao
Ġg Ãłi
Ġg áº¥m
Ġg uga
Ġh e
Ġh Äĥm
Ġr Ã¬
Ġr uy
Ġr en
Ġr Ã¡ng
Ġr Ã¡o
Ġr á»ĳn
Ġr Ã¢t
Ġp l
Ġp er
Ġp arty
Ġd áº»
Ġd áº§m
Ġnh Ä©
qu i
Ġvá» ĵ
Ġch y
Ġch annel
Ġth ong
Ġth Æ¡i
Ġhá» ¯ng
Ġhá» £m
Ġqu áº¥t
Ġqu Ãłng
á»± ng
Ġgi áº±ng
Ġgi Æ°Æ¡ng
Ġgi Ãµi
Ġx Æ°á»Ľc
Ġx Ã¡t
Ġx áº©y
Ġx áº¯p
Äĥ t
Ġpháº ©y
ay ne
Ġsáº ¯n
ch a
ch ang
Ġnháº ©m
Ġnháº µn
Ġnháº ±n
ang a
ÃŃ p
Ġbá» §a
Ġbá» ĩn
ĠT G
ĠT Q
ĠT ang
ĠT en
ĠT uá»ķi
ĠT at
ĠT ak
ĠT own
ĠT ata
ĠT ech
ĠT uáº§n
on en
on chi
Ġdá» ©a
ai k
ai pur
Ġcháº ¥u
ĠchÃ ¹ng
ĠnhÃ ¢t
ÄĲ áº¥u
Ġmá» ģn
au cas
in ner
ĠC T
ĠC Ãłng
ĠC uá»ĳn
ĠC Äĥn
ĠC áº©n
ĠC á»Ń
ĠC it
ĠC Ã¡nh
ĠC ed
ĠC ab
ĠC av
ĠC ron
ĠC ox
ĠC iti
ĠC reat
ĠC ynthia
ĠC urtis
ĠC aucas
Ġháº ¥u
Ġcon tain
Nh anh
Nh ung
Ġ-- --
ĠM w
ĠM Ã¢y
ĠM ang
ĠM iáº¿n
ĠM es
ĠM Ã³c
ĠM oi
ĠM Ã£i
ĠM ick
ĠM all
ĠM ach
ĠM ug
ĠM illi
ĠM atch
ĠM aid
ĠM istry
eo ul
ĠnháºŃ m
hi um
hi cÃ´
Ġká» ģn
ĠN H
ĠN iáº¿t
ĠN ab
ĠN ou
ĠN eg
ĠN ash
ĠB R
ĠB j
ĠB is
ĠB ri
ĠB ran
ĠB ed
ĠB ess
ĠB orn
ĠB ass
ĠB oran
ĠB ati
ĠB urger
ĠB etty
ĠB undy
ĠB oulder
ĠB RCK
Ġlo l
er rof
ĠH Ã´n
ĠH áº¡t
ĠH ard
ĠH ab
ĠH ep
ĠH ama
am en
ĠÄĲ Ã¡
ĠÄĲ áº·t
ĠÄĲ en
ĠÄĲ á»Ļi
ĠÄĲ áº¹p
ĠA O
ĠA k
ĠA qu
ĠA icha
ĠS Ã£o
ĠS at
ĠS Ã³ng
ĠS lo
ĠS av
ĠS ev
ĠS amb
ĠS ok
ĠS ivers
ĠS ebastian
ĠS AT
ĠS val
ĠS AN
ĠS ophia
ĠS aint
ĠS alaam
ĠS eoul
Ġbá»Ļ n
Ġkháº £i
Ġdo w
ar ter
ar oid
Ġph Äĥng
Ġph Å©
ĠP M
ĠP ad
ĠP ew
ĠP ash
ĠK ÃŃ
ĠK ev
ĠK ohn
ĠK ath
ĠK ind
ĠK emp
ĠK af
ĠK iev
ĠL Ã¡
ĠL Æ°Æ¡ng
ĠL am
ĠL áº½
ĠL iv
ĠL ip
ĠL aman
ĠL azar
Ġtrá»į c
Ġá» Ĳ
ĠG uy
ĠG ang
ĠG iáº¿t
ĠG iÃªng
ĠG le
ĠG ra
ĠG un
ĠG las
ĠG amble
ÄĲÃ³ ng
Ġngo i
ĠTr áº£
ĠTr ib
ĠTr ek
ĠTr acy
ĠD ig
ĠD ry
ĠD ut
ĠD ink
ĠD urga
ĠD MCA
or ge
Tr áºŃn
Tr á»ĵng
al er
al ah
al ine
al ly
al ph
al ach
Ġthu Ã½
es on
es ia
ĠR ao
ĠR ic
ĠR ey
ĠR ud
ĠR oth
ĠR á»«ng
ĠR atan
ĠR umi
ĠR OV
ĠR otterdam
ĠR ISD
el in
el la
el lie
el ile
Ng Æ°Æ¡i
Ġkhu a
ĠI GF
ĠV Æ°á»£t
ĠV ish
at or
is ch
is er
is el
Ġrá» ı
Ġrá» ¥t
ĠQ uy
ic ip
ĠJ r
ĠJ oplin
ap h
as o
as ca
as than
ol eros
ĠW I
ĠW T
ĠW ond
ĠW ald
ĠW ound
ĠW ool
ĠF M
ĠF l
ĠF ir
ĠF ren
ĠF itz
ĠF lem
ĠF ire
ĠF aso
ĠE rik
ĠvÃŃ t
Ġchá»ĭ t
ĠNg á»
Thá» ĥ
and t
and ro
ac s
ac ey
ad io
ĠTh r
ĠTh an
ĠTh uá»ĳc
ur f
ur i
ur man
ĠCh ina
ĠY os
ĠY un
ĠY ahoo
ew ay
ĠHo áº¡t
Ġ9 000
Ġsá»Ł n
oo oo
oi ng
ÄĲá» §
ÄĲá» Ŀi
ÄĲá» £i
Th anh
ĠChÃ Ńn
ri ve
un ta
ro e
re ct
Ġw e
Ġw ww
Ch iá»ģu
Ch uyÃªn
Ch uá»Ĺi
Chá» «ng
Ġá»ķ ng
ĠSt y
ĠSt ep
ĠSt ud
ĠSt ore
ah aha
ig ai
th u
ran n
ĠU sain
ed ic
Ġca bin
ag on
ag ra
ĠX a
ĠX uyÃªn
ton e
ab e
ab bal
ab asca
ĠAl ley
ak a
ak shmi
av in
av er
Äĳ á»«ng
oc aust
te c
ill er
ill ia
Ġxá» ĭ
Do anh
Ġ18 50
Ho a
Ho Ãł
tr y
tr Æ°á»Ľc
tr and
ik a
ik h
Ġo Ã¡i
Ġo zone
Ġf u
Ġf iss
ĠMar ie
ĠMar cus
ĠMar tha
ĠMar ilyn
ul linger
ĠtrÃ¬ u
Ġbá»ģ nh
ĠChá» ©ng
ĠChá» įn
Ġhi pp
Ġhá»ķ n
la es
ent al
ĠtÃ´ t
ud e
ĠAn at
ĠQu Ãªn
ĠQu ix
ĠCon st
ĠTá» ·
ĠcÃº n
est a
he ad
ĠBr in
ĠBr en
ĠZ ero
ĠZ urich
ĠZ abbal
ĠZ ullinger
aw ton
eg o
eg eren
ĠIs abel
ĠSh el
ĠSh eryl
Ġdá»ĭ nh
ĠAD HD
uc c
ĠVá» ĩ
ĠtÃ¡ p
ĠCar roÃ§a
Ġ201 6
Ã´m Ã©t
od esk
ĠCal cut
ĠGiá» ¯
ĠAm anda
ĠHar old
ĠHar riet
ĠbÃ³ i
ark oz
enn e
gh ar
Ġ500 00
ĠSc rab
Ġ24 0
ĠnhÃ¡ c
ĠTo áº£
ĠBra xin
ĠBra gg
há»ĩ n
st ock
ĠCháº £
ĠCháº ¥m
amb urg
und i
Cá» ¥m
Ġ300 00
ĠRob bie
ath ai
ĠHy per
ram ento
ĠPh oleros
Ġcar b
Ġcar roÃ§a
ĠBer ry
ĠBer gen
ĠPal o
ĠTa hi
ĠSp eed
Ġ196 7
ĠMo on
20 10
20 11
ĠBl ak
ĠBl anc
ĠBar n
ĠBos e
ĠEd dy
ug ger
ĠBe har
ĠBen nett
are z
ander son
ĠTEDx S
Ġa ah
illi on
ĠHá» ¯u
ĠCr ick
ok er
apt ree
ĠRe ed
ĠRe ader
Ġmic rÃ´
ĠAngel a
ĠEl len
ĠEl ias
ĠKh iáº¿n
ĠKh adija
eph al
ĠKhÃ¡ ng
ĠAt ten
ĠPr ick
ĠAnd re
ĠDer eck
ĠDer artu
Nhá» ĭp
Phá» ķi
ĠTalk s
ĠFrank enstein
ish man
ĠMal i
ĠApp alach
ĠOr well
ĠTor valds
ĠWeb b
ĠWeb ster
Ġcá»į p
ĠLeg adema
An n
our ne
ĠMan chester
ĠMad ison
ĠGreen e
ja hi
SD A
ĠSe ng
ĠSy dney
ĠWal t
ĠWal ter
Ġcent imÃ©t
ĠMe egeren
ĠAd ventist
Ġcu Ã´c
oth ar
ĠEn ri
ĠMont real
ĠAc c
ĠAc t
ĠAc tion
ĠAc umen
ĠSw aptree
ĠJon ny
Mar c
ĠFlor ence
int osh
ĠBur ma
Ġ195 4
ĠStar ck
ĠMac intosh
ĠKhá» ķng
ĠKar mapa
ĠWar craft
lu id
lu lo
Ġtang o
ĠSu z
ĠSu ghar
Ġam en
Ġam monia
ĠTuy nis
ĠMah ab
ĠNeanderthal s
Ste ven
mon s
ĠPat rick
200 8
emp le
ĠBol te
ĠTur bo
ĠHer cul
ĠFor er
gar ia
ĠMos kowitz
ĠMel lo
ĠSal ly
ĠSal inas
ĠOs lo
Sh bab
ĠSom ali
ĠEver yw
Ġmil es
Ġkil Ã´mÃ©t
ĠTam il
ĠVal ent
ĠStew ard
Jo el
eat s
ĠPop corn
ĠFer r
ĠFer gus
pi re
ĠMag gie
ĠSand berg
Há» ıi
ĠBi eber
ĠHan y
St ew
ĠHu ang
ĠHu gh
ĠDisney land
ĠTel escope
ĠMas on
ĠDr acorex
ĠGeorg es
ĠiPod s
Ġmu á»ĵi
ĠBir ds
Ġ193 8
ĠPri us
ĠMau i
ĠSun ni
ĠSun itha
ĠGh rai
ĠDub lin
Ġ192 6
Ġ192 9
ha as
ĠKhÃ ³
ĠKam kw
ĠGran ny
ĠHol ocaust
Ġox it
ĠBern ard
ĠBern ers
ĠGro ve
ĠDoug las
ĠInter val
ĠInter national
br ot
yc ephal
Ġbo ong
Ġchá»Ļ i
ĠKur zweil
ĠRad io
ĠRid ley
ĠUr ugu
Sá» £
ĠNic ol
ĠNic olas
ĠAng ola
ĠAsh down
ĠMcK ay
ĠCur itiba
ĠMÃª hicÃ´
ĠPier son
ĠUN ICEF
oul li
ĠKle e
ĠEc osia
ĠAlb ania
Ġhorm one
cháº ³ng
Ġter roir
ĠMed ic
ĠHas an
ĠPu erto
ĠDAR wln
ĠmÃŃ a
ĠTob y
ĠBo eing
ĠGri er
ĠFed er
Ġmem e
ĠPart icip
ĠKer mit
ĠDai ly
ĠDun lap
ĠRiv er
ĠRiv es
ĠWin ky
ĠCarr illo
lau g
ĠHaz leton
ĠHut u
ĠPan ama
Carol ine
ĠMoham med
Bon nie
vet son
Ġcoc aine
ĠMeg gendorfer
ĠMull ins
ĠKas par
ĠKins ey
ĠKins hasa
ĠReb ecca
ĠRub y
Ġsul fur
Ġ187 9
ĠClark e
chÃ Ńnh
Ġbeat box
ĠBart ok
ĠBalk ans
ams ala
ĠPach ycephal
ĠKir k
ĠRab in
ĠFul ler
ĠChurch ill
ĠSheph elah
ĠKend all
ĠBlu et
ĠReu ters
ĠBurn s
Dar win
Ġmod em
Ġhooc mÃ´n
ĠCorn ell
ĠBac on
ĠBul garia
ĠAut odesk
ĠPran av
ĠKob e
ĠGall up
ĠDep p
ĠBrend a
ĠMichoac Ã¡n
ĠCloud burst
Der ek
Ġnu Ã´ng
Ġnick name
Ġhec ta
ĠGram een
Ġup load
ĠShack leton
ĠMead ow
ĠBitco in
áº¤ y
Ġnap ot
ĠhÆ¡ p
Ġkhuá»· u
ĠTNC s
ĠMorg ana
ĠPao lo
ĠDak ota
ĠDhar amsala
ĠRaj asthan
ĠViag ra
ĠEngel bart
ĠOld enburg
ĠChand ler
ĠColle ge
ĠCous teau
ĠVerme er
ĠBionic le
Bra zil
Sus an
Sec ret
Ġlit hium
Ġmon key
ĠNok ia
ĠAust en
ĠSes ame
ĠSac ramento
ĠKool haas
ĠJur vetson
ĠWag ner
ĠWoff ord
ĠhuÃ½ ch
ĠArn old
Ġimp act
mins ter
Ġnuc le
Ġchannel r
chang ing
Ġcontain er
ĠMilli ken
ĠMaid an
ĠBoran e
ĠBati uk
errof luid
ĠSval bard
ĠKind le
ĠLazar us
ĠWound ed
ĠYun us
Ġfiss ion
ĠQuix ote
ĠZabbal een
ĠCalcut ta
arkoz y
ĠScrab ble
ĠAtten borough
ĠTuynis i
ĠEveryw here
ĠFergus on
ĠGhrai b
ĠUrugu ay
ĠKaspar ov
0 3
2 8
2 50
4 7
5 3
5 5
5 7
6 8
7 2
7 7
8 5
9 6
A W
A v
A aron
B i
B ot
B Ã¡n
B iá»ĥn
B Ã£i
B ern
B Ã¹m
B eat
B everly
C o
C SE
D H
D am
D eb
D áº¡ng
D á»įc
D AR
D ave
D ennis
E P
E n
G hÃ
G Ã³c
G á»Ńi
G reg
G á»ĵm
H Æ°Æ¡ng
H iáº¿m
I M
I P
J U
J ar
K o
K Ä©
K Ã©o
L G
L P
L i
L Ã¢u
L eo
L Ã¡i
L áºŃp
L Ä©nh
L áº¡y
M Ã¢y
M uá»ĳn
M Ãły
M or
M ua
M ad
M Ã£i
M uá»Ĺi
N Y
N an
N áº±m
N ick
N icholas
O xy
P O
P au
Q uyáº¿t
R á»
R áºŃp
R yan
R adio
S J
S Ã¢u
S Ã¢n
S Ã¡n
S un
S tan
S uz
T G
T P
T Ã¹
T es
T uyáº¿n
T iá»ģm
T á»±a
T iáº¿c
U S
U á»·
U SC
V C
V an
V iÃªn
V on
V ua
V ik
V ÃĮ
W ide
X uyÃªn
Y B
Z e
a hi
b Ãł
b áº¯t
b Äĥng
b ine
b ek
b org
b right
b ourne
c Æ°á»Ŀi
c Ã´ng
c av
c ester
c over
d Ã¹ng
d ul
d uc
e id
f l
f ound
g á»įi
g im
g et
g ow
g io
h l
h Ãłng
h all
i us
j aim
k i
k j
k háº
k áº¿t
k man
l á»
l anh
l áº§n
l Ãºc
l im
l tan
m l
m al
m es
m el
m and
m ain
m und
m wood
m outh
n hÃ
n Æ¡
n ee
n load
p l
p m
p o
p y
p on
p ho
p lex
p ont
r om
r ate
s ore
t Ãªn
t Æ¡
t ai
t Æ°Æ¡ng
t uyá»ĩt
t uá»ĳt
t iáº¿p
t op
t iáº¿ng
t alk
u ff
v áº¥n
v re
w o
w art
w are
y ad
z i
z u
z bek
¡ o
£ ng
Ä Ĥn
Ġ Í
Ġ uá»
Ġ at
Ġ us
Ġ ur
Ġ ik
Ġ all
Ġ app
Ġ Ì£
á» ĭ
á» §a
Ġt áº¡t
ng e
ng Æ°á»£c
ng al
Ġc á»Ļc
Ġc Ãºp
Ġc uá»ĳng
Ġc áº¡c
Ġc uá»ĵn
Ġc ol
Ġc áº§y
Ġc ard
Ġc á»Ļm
ĠÄĳ Ã´n
ĠÄĳ Ãºp
ĠÄĳ uá»ĳc
ĠÄĳ Ãłu
Ġn Ãª
Ġn ong
Ġn ot
Ġn anh
Ġn ic
há» įc
hÃ ´m
Ġv Ã¨
Ġv ac
Ġv Ãºt
Ġv áº§ng
Ġv Ã¢t
Ġl Ã¡c
Ġl Æ¡i
Ġl Ãºp
Ġl iáº¿m
Ġl iá»ģm
Ġl Ãºt
Ġl ist
Ġl áº©m
Ġl ike
Ġl bs
Ġm o
Ġm áº§y
Ġm Ãºi
Ġm á»ĳng
Ġm Äĥt
Ġb r
Ġb áºŃp
Ġb áº¹
Ġb Ãºng
Ġb ig
Ġb ow
Ġb ut
Ġb ye
Ġk ung
nh am
Ġs Ã³
Ġs áº¡o
Ġs ap
Ġs iÃªng
Ġs mart
Ġtr it
Ġng ai
Ġg háº
Ġg Ã²n
Ġg Æ°á»£ng
Ġg al
Ġg oro
Ġh inh
Ġh igh
Ġthá» ĩ
Ġthá» įc
Ġr Ã´i
Ġr an
Ġr Ã¡m
Ġr ou
Ġr ip
Ġr ÃŃt
Ġr ead
Ġp anh
Ġp ic
Ġp lay
Ġp oker
Ġp pm
Ġd Ãł
Ġd áº¿n
Ġd iá»ĥn
Ġd áº§y
Ġd ata
Ġd uá»ĩ
Ġnh iá»ĩn
Ġnh iáº¿m
Ġnh uá»µ
Ġcá» Ł
Ġch Ãłi
Ġch eck
ĠcÃ¡ ng
Ġth inh
Ġth ink
Ġth ali
Ġnhá» £
Ġhá» Ŀ
Ġhá» ķi
Ġhá» ¡i
Ġqu á»Ł
Ġqu áº¯t
Ġqu áº§ng
Ġgi g
Ġgi áº§u
Ġx y
Ġx Æ¡i
Ġx Æ°ng
Ġx áº¡c
Ġkh Æ°
uy n
ĠthÃ £i
ĠthÃ ³c
ot ic
Ġpháº Ńp
Ġngh Ãłnh
Ġngh iá»ħm
Ġcho i
an ine
Ġsá»± c
Ġgiá» Ľ
ch t
ch ai
ang i
ang el
ĠphÃ Ńt
ĠÄĳá»ĥ u
ÃŃ c
ĠT Ã¹
ĠT ao
ĠT Æ°á»£ng
ĠT áº·c
ĠT Æ°á»Ľng
ĠT ib
ĠT ake
ĠT able
ĠT echn
ĠT á»ĵn
ĠT ibb
Ġlá» ¯a
Ġho m
on im
Ġkhi Ãªng
Ġdá» ģ
ai se
Ġcháº ¯p
ĠchÃ ¨
ĠhÃ ©c
ĠhÃ ²ng
ĠhÃ £o
ÄĲ Ã´ng
ÄĲ iÃªn
ÄĲ áº±ng
ÄĲ áº£ng
ÄĲ om
ÄĲ Ã¡p
Ã² m
Ġmá» §
Ġmá» Ńa
Ġná» ĩ
ĠC Æ¡n
ĠC Ãºc
ĠC el
ĠC áº§m
ĠC is
ĠC ac
ĠC ad
ĠC ob
ĠC up
ĠC our
ĠC SI
ĠC laes
ĠÄĳi ch
Ġbá»ĭ u
Ġto áº¡i
Ġto mor
ĠM R
ĠM S
ĠM r
ĠM ong
ĠM áº¡i
ĠM Ã´n
ĠM iá»ħn
ĠM áºŃt
ĠM Ã³n
ĠM ut
ĠM ain
ĠM iz
ĠM ash
ĠM mm
ĠM ecca
ĠM iguel
em ite
em ens
hi p
Ġtrá» ĩt
Ġtrá» Ľn
ĠN Y
ĠN ot
ĠN iÃªn
ĠN it
ĠN Ã¨
ĠN eb
ĠN uÃ´i
ĠN ak
ĠN ir
ĠN ina
ĠN ation
ĠN atur
ĠN FL
ĠN há»ĩn
ĠB ou
ĠB ib
ĠB az
ĠB est
ĠB enn
ĠB ann
ĠB ike
ĠB org
ĠB uck
ĠB umb
ĠB oot
Ġlo i
Ġlo Ã£
Ġlo ai
Ġlo cav
er d
er v
er ic
er man
er idge
uá» Ĺng
ĠH Æ°á»Ľng
ĠH ex
ĠH orn
ĠH ij
ĠH ardy
ĠH acker
ĠH amburg
Ã© li
am ela
Ġ2 30
ĠÄĲ Ã¡c
ĠÄĲ áº·ng
ĠÄĲ Ã¡m
en bach
ĠA B
ĠA x
ĠA ra
ĠA id
ĠA ah
ĠA ber
ĠA udio
Ġkhá» ĵng
ĠS T
ĠS Ã´
ĠS ang
ĠS Ãºng
ĠS it
ĠS Ã¡t
ĠS eb
ĠS id
ĠS ek
ĠS ox
ĠS AM
ĠS ave
ĠS ax
ĠS atur
ĠS agan
ĠS zy
ĠS ugata
ĠS quare
ĠS arkozy
Ġkháº ¡o
ia th
ar an
ar oo
ar sh
Ġy ao
Ġy ard
Ġy áº¿m
Ġph Æ°á»Ŀng
Ġph ung
Ġph os
Ġph otoshop
Ġmáº¡ t
ĠP H
ĠP a
ĠP hÃº
ĠP le
ĠP and
ĠP ed
ĠP ack
ĠP all
ĠP att
ĠP ass
ĠP RI
ĠP ollo
ĠP unk
ĠP AC
ĠP BS
ĠP imp
ĠP unta
ĠK Ä©
ĠK iá»ĥu
ĠK ia
ĠK un
ĠK az
ĠK ick
ĠK ite
ĠK are
ĠL M
ĠL Ãª
ĠL Ãªn
ĠL áº§u
ĠL ao
ĠL Ã©
ĠL Ã£o
ĠL áº¡c
ĠL et
ĠL ah
ĠL ord
ĠL enn
ĠL og
ĠL ink
ĠL unch
ĠL oren
ĠL GB
ĠL icklider
ĠL otto
ĠL ittle
Ġá» ¦
Ġá» ĭ
Ġá» Ľn
Ġngá» Ĺ
Ġngá» ¥m
ĠG am
ĠG ag
ĠG art
ĠG oran
ĠG lobal
ĠG ensp
ĠG NH
Ġ3 30
Ġngo áº±n
ĠTr eo
ĠTr il
ĠTr ee
ĠTr á»įng
ĠTr eat
Ġxu n
ĠD B
ĠD E
ĠD h
ĠD Æ°á»£c
ĠD Æ°á»Ŀng
ĠD Ã£y
ĠD iÃªm
ĠD ah
ĠD ana
ĠD ata
ĠD iff
ĠD áº¡y
or p
Tr áº§n
Tr ÃŃch
al t
al at
ĠÃ¡ ch
im e
es ley
es ca
Ġkháº£ m
os a
ĠR ang
ĠR en
ĠR ol
ĠR us
ĠR áº±m
ĠR Æ°á»£u
ĠR ico
ĠR up
ĠR ice
ĠR emen
ĠR CA
ĠR ita
ĠR hod
ĠR ift
ĠbÃ© t
et or
et ter
et ri
Ng uy
Ng há»ģ
Ġkhu Ã¢n
ĠI D
ĠI T
ĠI SA
ĠI phone
ĠI dol
Tháº £m
Ġ5 1
Ġso lo
ĠV on
ĠV á»±c
ĠV it
ĠV ani
ĠkÃŃ t
is ion
is met
ĠmÃ´ tÃ´
ic ini
ĠJ al
ĠJ ak
ĠJ PL
Ġdi ch
it us
ol an
ol ic
ol och
ĠW it
ĠW ho
ĠW id
ĠW ord
ĠW uj
ĠF E
ĠF an
ĠF am
ĠF lin
ĠF ide
ĠF inn
ĠF abian
ĠE G
ĠE g
ĠE p
ĠE y
ĠE co
ĠE st
ĠE PA
ĠE lyn
Ġ10 2
Ġ10 5
ĠdÃ¹ i
Ġ19 19
le bee
ho u
ĠNg á»¯
Ġtu á»ĵi
Ġtu lip
Ġvu n
us ta
ac ama
hÃ¡ y
om ing
ad ah
Ġvá»ĩ c
ĠTh Æ¡
ĠTh aler
ĠO t
ĠO ff
ĠO MG
ĠO mmm
ob y
ur u
ĠCh ao
ĠCh ung
ĠCh em
ĠCh ek
ĠY R
ĠY or
ĠY our
ĠmÃ¹ n
ĠHo g
ĠHo od
eb e
Ġáº µm
Ġ9 11
ĠchÃ¡ c
ĠlÃŃ p
ÄĲá» ķi
Ġghi ta
Ġgá» Ŀ
Th iá»ĩt
Th uyá»ģn
Th iáº¿u
ĠhÃ¡ m
ri p
ri x
ri am
ri ka
un ner
Ġan alog
ro d
ĠÄĲá» ķi
Ch ung
Ġ100 000
ĠSt e
ĠSt alin
ĠSt rat
Ġ15 6
Ġ15 000
op his
ĠU l
ĠU SC
ĠU zbek
Ġgen eric
ag all
Ġthi ch
ĠcÆ° Ãº
ĠX o
ĠX ML
lo ud
Ġ12 000
ab lan
ĠAl ess
ĠAl lan
ĠAl to
ĠThá» ĭt
ak is
ak ka
av en
av icini
Äĳ a
Äĳ ang
Äĳ á»Ļng
Äĳ un
Äĳ á»ĵng
oc ure
ĠNh i
han ie
ĠGi b
ĠGi áº£m
ĠGi rl
ill us
Ġ18 90
ĠsÆ¡ m
ik s
ow att
ow ski
Ġo anh
Ġo ai
Ġo Ã¡t
Ġf us
Ġf acebook
Ġf ear
Ġf ax
Ġf errofluid
ĠMar in
ĠMar row
Qu i
Qu áº£ng
Ġdu plex
ĠChá» ©
ĠChá» īnh
ĠChá» ĵng
ub s
ly ing
la wa
ent in
ĠThÃ¡ ch
ian ne
Pháº ¥n
ir ut
io us
ick et
ĠAn im
ĠAn nie
ĠQu Ã¡c
ĠCon c
ĠCon an
ĠCon trol
ĠTá» ©
ĠTá» Ŀ
ĠTá» Ľi
iv al
art a
ĠBr uss
ĠBr uno
ĠAr ia
ĠAr men
ĠAr cher
ĠZ ig
ĠZ uck
uá»µ t
aw at
ec a
ec om
eg rove
ĠSh ap
ĠCar son
ĠCar ib
ĠCar ibb
Ġbi oph
ĠEm pire
Bá» ģ
ip er
yl er
Ġ0 3
Ġ0 9
ĠKen yan
Ġ17 5
Ġ17 8
ĠAm jad
ĠÃģ c
ĠHar ing
ach im
ĠCan nes
ĠDo ol
ĠChi p
ĠChi lÃª
ĠTo xo
ĠTo onchi
st ation
ma er
ĠTw o
ĠTw ain
pp am
ass el
og lob
ĠMc Af
ber gh
ĠRob in
ĠHy dro
ĠPh iáº¿n
Ġcar amen
ĠBer g
ĠBer kley
ric ia
Ġtá»§ a
ĠTa j
ĠMon s
ĠMon ey
ĠMon ica
ĠMon key
ĠSp ec
Ġ196 4
Ġ196 6
ĠLe ar
ĠLe ad
ĠLe ague
ĠLe hman
ĠBan jo
ĠNig er
ĠTháº ¥t
ĠPar avicini
ĠJo nh
ĠBos ch
ani yama
der ic
Ġj ump
ĠAb b
ĠAb dul
ĠEd en
ug g
ug o
ĠBe ar
ĠBe ijerinck
ĠSm art
ĠSm all
ĠMá» ©c
ĠBen e
ĠBen edic
Em ily
ĠTEDx R
ĠTEDx T
ĠCho ir
ĠBro hi
Ġco ol
ĠLa f
ĠSch a
ĠCr imer
ck x
Ġde fri
apt ist
ĠMa athai
ĠRe ich
Ġthá»ķ ng
ĠEl l
ĠNA TO
ĠAt acama
ĠPr etor
Ġ194 1
ner ability
ĠTom my
ĠTom bo
ĠNgh iá»ĩm
ĠRom eo
ĠCam ero
ĠCam den
ĠFre derick
ĠGr ay
rop onte
Nháº ¥t
ĠMad die
ĠWor cester
ĠWor mwood
ThÃ¡ i
ĠSe ars
ĠWal ters
ĠMark et
Dá» ¥ng
ĠAd ria
ĠEn sler
Al bert
ĠGal en
ĠJack ie
car bon
ĠJe anny
ĠChrist akis
ĠBab ble
Ġ195 2
Ġ195 6
Ġ195 8
Ġ195 9
ĠTheo dore
chá» ©
ĠMy Sp
ĠMy cop
ĠMy esha
ĠKar ol
ĠDá» ¯
ger ald
ĠAh n
ĠCA O
ĠBu eller
ĠSu fi
ten berg
eop le
ero in
ari us
ven ia
ĠlÃª nh
ĠAp ophis
ĠPat ton
ĠVir tu
ĠUn ited
ĠMu jahi
ĠRock well
rog ram
ĠTur in
ĠMor mon
ĠHer z
ĠHer bie
ĠSi emens
Ġxen lulo
ĠMil k
ĠMil ton
ĠAir bus
ĠWil k
Ġne on
ĠMel bourne
ĠSal t
ĠBlack awton
ĠAv atar
ĠAv elile
ĠDis cover
CC OB
Ġkil Ã´
Ġkil owatt
ĠPro v
ĠPro zac
ĠPro duc
ĠYo chai
Bill y
Ġcal ori
ĠDen ver
giá» ĳng
ĠMer ckx
ĠMag ell
ĠSand el
ĠKu iper
ĠLau ren
ĠLau rel
ĠGold man
ĠGold stein
ĠJac obs
Há» Ĺ
ij i
ĠÂ ©
ĠÂ ¾
ĠBob by
ĠHan son
ĠSk erry
ĠZimb ardo
ĠLeon ard
yd ia
ĠHam as
ĠHam ilton
ors ka
ĠRand y
ĠWe i
ĠWe iff
CA PTCHA
ĠCas a
ĠCas ablan
Ġ44 2
ĠFar go
cá» ©
gi Ã¡
ĠMin er
ThÃŃ ch
ĠTer esa
itt y
PhÃ¡ i
ĠnhÃŃ ch
ĠMT V
ĠGod in
ĠIt alia
ĠCamp bell
ĠGh onim
ĠRon son
ĠWhit es
ĠBas que
ĠHa as
ĠPol aroid
ĠKam al
aly mpic
ĠCopern ican
Ben jamin
ial l
ĠRoy al
unk er
ĠBern oulli
Ġgram s
ĠTah ltan
ĠKháº £o
Ġ190 4
And rea
sw orth
yc in
ĠMus ica
ĠScr ubs
ĠNic ole
ĠWill y
ĠMcK ean
anic al
app os
ĠTi Vo
ĠTy pe
erb read
ĠLim a
ĠLim pop
ĠLov egrove
ĠGl ass
ĠVol ta
ĠVol vo
ĠVinc ent
ĠFr aser
rig ami
ĠBeat rice
Am anda
Cam era
Cam eron
Jon as
Jim my
ĠGit Hub
ĠGol iath
ĠEs ther
ĠColl usion
ĠBloom berg
ĠCom mons
ĠPart ners
ĠPost Secret
ĠKer ala
ĠJar ed
ĠOl son
ĠAll ah
ĠBrad ley
ĠAhmed abad
Be au
uh uh
Ġmeg awatt
ĠMir anda
ĠImp erial
ĠWy oming
ĠWis lawa
ĠTEDster s
Fre eman
Is rael
kho áº£ng
Ġcoc ain
ĠÄĳÄĥ c
ĠÄĳÄĥ t
ĠMob ile
ĠSI NG
ĠPilot s
ĠDem ocracyOS
ĠDes ign
ĠRec ord
Ġdiox ide
Ġ2500 00
ĠCru ise
mb orska
ĠTod ay
ĠComp any
ĠNG O
ĠKend al
uga ad
ĠReu ther
DE R
El len
Ġed X
Ġblu es
Ġblu egrass
Ġhot dog
ĠAth abasca
ĠPin ot
ĠJoy ce
ĠFood s
ĠHead s
ĠAchill es
Par is
press o
Ġmag ie
Ġby te
ĠAss ange
ĠPav lo
ĠLind bergh
Nghi Ãªm
ĠMech anical
Gab by
ĠNap ster
ĠBog ota
ĠHor owitz
ĠHeb rew
ĠHipp ocrates
ĠDew ey
Ġsound scape
ĠChev al
ieg el
Ġje ans
ĠSchul z
Ġcalor ie
Ki ran
vir us
Ġkar ate
ĠTon ya
ĠBus iness
ĠHos ni
ĠHatz alah
ĠSard inia
arth eid
ĠPT SD
ĠLess ig
ĠDall as
ĠRoll s
ĠIda ho
ĠVul nerability
ĠJen kins
ĠFern and
ĠUNA IDS
akh stan
ĠQueen s
yll is
ĠBarric elli
ĠCount y
ĠGiacom etti
ĠMerced es
Ġparab ol
ĠYugoslav ia
Ne il
Rog er
Ser gey
Sing apore
War ren
Ġnin ja
Ġbuc ardo
ĠCed ars
ĠCron in
ĠCreat ive
ĠCaucas us
ĠNou jaim
ĠNeg roponte
ĠHep burn
ĠSlo venia
ĠSAN CCOB
Ġdow nload
ĠKev lar
ĠLaman ites
ĠGle eson
ĠGlas gow
ĠDry Bath
aph ne
ĠFitz gerald
ĠFlem ing
ĠThr un
ĠYos emite
ĠSty gim
ĠStud s
ĠHyper Card
ĠPrick ly
ĠEnri quez
ĠParticip ant
ĠBluet ooth
Ġchannelr hodops
Oxy tocin
Tes la
Ġur anium
Ġik igai
Ġnic ot
Ġvac xin
Ġbow ling
Ġsmart phone
Ġtrit ium
Ġpic nic
ĠTib et
ĠTibb its
Ġtomor row
ĠMiz zone
ĠBann ister
ĠBorg es
ĠBumb lebee
Ġlocav ore
ĠSAM S
ĠSax e
ĠSzy mborska
ĠPand ora
ĠPollo ck
ĠLGB T
ĠGensp ace
ĠISA F
ĠVani er
ĠWuj ec
ĠBruss els
ĠCaribb ean
oglob in
ĠMcAf ee
Ġdefri end
ĠCamero on
ĠMySp ace
ĠMycop lasma
ĠVirtu al
ĠWeiff enbach
ĠCasablan ca
ĠLimpop o
ĠStygim oloch
