#version: 0.2 - Trained by `huggingface/tokenizers`
á »
á º
Ġ t
n g
Ġ c
Ã ł
Ġ Ä
ĠÄ ĳ
Ġ n
h á»
h Ã
Ġ v
Ġ l
Æ °
Ġ m
Ġ ,
Ġ b
Ã ³
Ġ .
Ġ k
i á»
h áº
Ã ´
Ã ¡
n h
Ġ s
Ġt r
Æ° á»
áº ¡
á» Ļ
Ġ ng
Ġ g
Ġl Ãł
áº ¿
Ã´ i
Ġv Ãł
Ġ h
Ġt há»
áº £
Ġ r
Ã ª
hÃ º
á»Ļ t
Ġ p
Ġ d
ĠÄĳ á»
Ġt Ã´i
Ġn h
q u
Ġc á»
Ġv á»
Ġm á»Ļt
áº ¥
Ġc Ã³
Ġk hÃ
Ġc h
hÃº ng
Ãª n
Ġc Ã¡
Ġt h
Ã ¬
¯ ng
Ġn há»
á» ĳ
iá» ĩ
Ã ¢
Ġ há»
Ŀ i
Æ ¡
Ľ i
Ġnhá» ¯ng
Ġt háº
Ġc hÃºng
Ġcá» §
Ġcá»§ a
´ ng
i áº¿
Ġt á»
áº¡ n
Ġt a
Ã £
ĠcÃ¡ c
Ġn Ãł
Ġ qu
iá» ģ
ĠkhÃ ´ng
Æ°á» £
Ġn Ã³
á» Ł
áº §
o ng
áº Ń
Æ°á» Ŀi
á» ±
Ġg i
ĠÄĳ Ã³
Ġ x
iá»ģ u
Ġng Æ°á»Ŀi
Ġb áº¡n
Ġk h
áº¥ t
áº¡ i
Ġtr ong
Ġthá» ĥ
Æ°á»£ c
u y
ĠnÃł y
ĠÄĳ Ã£
Ġc há»
Ä ĥ
ĠÄĳ Æ°á»£c
Ġt hÃ
Ġnh Æ°
Ã¢ y
Ġhá» į
o t
Ġ &
Ġp háº
Ġvá» Ľi
Ġng h
qu ot
Ġch o
a n
V Ãł
a y
Ġr a
Ġs áº
Ġs á»±
Ġg iá»
Ġm Ãł
ĠlÃł m
c h
Ã´ ng
áº ±
Ġn háº
a ng
Ġp hÃ
á» į
Ġ á»Ł
i Ãªn
áº± ng
ĠÄĳá» ĥ
Ġc áº£
Ġvá» ģ
Ã Ń
Ã¬ nh
Ġsáº ½
Ġb á»
u á»ĳ
Æ¡ n
iáº¿ t
iá» ĥ
£ i
ĠÄĳ iá»ģu
Ä ©
áº ·
Ġtháº ¿
Ġ T
Ġl á»
Ġh o
o n
Æ°á» Ľ
áº¿ n
áº§ u
áº ¯
Ġtá» «
Ġkh i
Ãł nh
© ng
uy á»
a nh
ĠkhÃ ¡
Ã ¹
± c
ĠnÃ³ i
Ġs á»ĳ
áº§ n
i nh
a o
Ġd á»
a i
Ġc háº
Ġc hÃ
© c
iá»ĩ n
Ã º
Ġn Äĥ
ĠÄĳ áº¿n
Ġtháº ¥
Ġ 1
Ġ hÃ
Ġ ?
Ġpháº £i
Ġn hÃ
iá»ĩ c
Æ°á» Ŀ
Æ°á»Ľ c
Ã ²
Ä Ĳ
Ġr áº±ng
ĠvÃł o
Ġg Ã¬
ĠÄĳ ang
Æ°á»Ŀ ng
Ġm á»
Ġv iá»ĩc
Ãł n
a u
Ġl áº¡i
Ġv áºŃ
Ġtháº¥ y
Ġngh Ä©
ĠÄĳ á»Ļ
Ġr áº¥t
ĠcÃ¡c h
Ã ½
Ġh Æ¡n
i n
Ġn á»
áº¥ y
Ġ C
Ġnh iá»ģu
Æ° Æ¡
Ãł i
¢ n
áº£ n
Ġ háº
Ġthá» ±c
Ã¹ ng
iáº¿ n
T Ã´i
Æ°Æ¡ ng
ĠÄĳ áº§u
¥ t
ĠÄĳ Ã¢y
Ġ -
Ġhá»į c
ĠkhÃ¡ c
Ġc on
ķ i
á»į i
Ġchá» ī
Ã¢ u
áº¡ o
Ġs á»
Ġc Ã´ng
áº¿ u
Ġtr Ãªn
á» ĵ
Ã¡ c
ĠcÃ¡ i
ĠnÃł o
Ġb iáº¿t
áº¿ t
Ġv Ã¬
ĠÄĳá» ģ
ĠchÃ Ń
u ng
Ãł ng
Ġp há»
uyá» ĩ
iá»ĩ u
ĠphÃ ¡
N h
ĠnÄĥ m
Å ©ng
Æ¡ i
ĠÄĳ i
uá»ĳ n
Ġthá» ©
Ġdá» ¥
Ġth Ãłnh
á»Ļ c
Ġ :
áº¯ t
Ġ- -
Æ° ng
Ġc Å©ng
Ġnh Ãł
C hÃºng
u á»Ļc
ĳ ng
Ġbá» ĭ
Ġt o
Ġ M
áº »
Ġkh o
Ġqu an
Ġm uá»ĳn
Ġs Ã¡
Ġtháº Ń
e o
e m
Ġnháº Ń
¯ a
Ġm Ã¬nh
h i
Ġtr á»
Ġnháº ¥t
Ġk á»
Nh Æ°ng
Æ°á» Ł
Ġ N
ĠchÃŃ nh
áº «
Ġt áº¡o
Æ°á»Ł ng
ĠÄĳá»Ļ ng
Ġt á»ĳ
Ġ B
Ġgiá» Ľi
ĠnhÆ° ng
Ġl o
Ġn Ãªn
Ġgi áº£
á»Ł i
ĠváºŃ y
ģ n
Ãł y
áº· t
§ n
¬ nh
Ġlá» Ľ
ĠhÃ ¬nh
Ãª u
Æ° a
Ã² n
ı i
Ġh iá»ĩn
iá»ĥ u
Ġgiá» Ŀ
Ġt ÃŃ
Ã¢ n
Ġsá»ĳ ng
uyá»ĩ n
Ġt iáº¿
Ġt áº¡i
Ġm á»įi
ĠnháºŃ n
Ã¡ i
áº¥ n
Ġn áº¿u
Æ°á»£ ng
u á»
e r
Ġqu y
Ġ H
¬ n
Ġc uá»Ļc
Ã ©
Ġc áº§n
a m
ĥ n
Ã¡ n
Ġh ay
Ġtá» ±
áº· c
áºŃ p
u áºŃ
á»ĵ i
Ġ 2
ĠthÃ ¬
Ã¢ m
ĠÄĳá» ĭ
0 0
ĠÄĳá» ĵ
ĠÄ Ĳ
Ġt áº¥t
Ġ áº¥y
Ġ Ã´ng
Ġtá» Ľi
Ġb áº¯t
e n
Ġth eo
Ġb á»Łi
Ġc Ã²n
Ġ A
Ġlá»Ľ n
iá»ĥ m
ĠnhÃ ¬n
ĠÄĳ Ã¡
Ġc Ã¹ng
áº« n
Ġ Ã½
Ġb áº±ng
iá»ĥ n
Ġcáº£ m
Ġt áº¿
Ġdá»¥ ng
Ãº c
Ġcá» ©
Ġl Ãªn
ĠtháºŃ t
Ġs au
Ġ anh
Ġb áº£n
Ġc Ã¢u
Ġgi Ã¡
Ġt in
Ġs ao
Ġthá» Ŀi
Ġqu a
Ġch uyá»ĩn
Ġtr á»Ł
Ġk há»
ĠnhÃ ¢n
Ġng Ãły
Ġ S
iá»ĩ m
Ã´ n
Ġb á»Ļ
Ġc Æ¡
Ġhá» Ļ
Äĥ n
Ġk háº
Ġs inh
Ĺ i
ĳ i
¥ c
áº£ nh
ĠthÃ Ń
áº£ ng
ĠnÄĥ ng
Ġsá» Ń
Ġtr Æ°á»Ľc
ĠphÃ¡ t
Ġn Æ°á»Ľc
i a
ĠÄĳá» ķi
iá»ĩ t
Ġm Ã¡
Ġto Ãłn
Ġpháº §n
Ã¬ m
Ġn Æ¡i
Ġgi a
ĠthÃ ´ng
Ġd o
Ġnh au
Ġd á»±
a r
Ġt Ã¬m
Ġmá» Ľi
Ġ y
Ġth ay
ĠÄĳá»ĭ nh
Ġv áº¥n
Ġhá» ĩ
Ġng há»
Ġtr Æ°á»Ŀng
Ġnh iÃªn
Ġtr Ã¬nh
ĠtÃŃ nh
Ġp h
iá» ħ
Ġm áº¡
Ġtá»ĳ t
Ġk áº¿t
Ġt Æ°á»Łng
Äĥ ng
ĠváºŃ t
Ġh Ãłng
Ġl Ã½
Ġhá» ıi
¿ t
Ġ P
£ p
Ġ áº£nh
Ġháº ¡
ĠmÃ¡ y
Ġ K
á»± c
uáºŃ t
á»ĳ i
ĠT Ã´i
ĠthÃ ¡
Ġhá» £p
Ġ L
áº¡ t
¯ c
Ġm áº·t
Ġtiáº¿ p
N Ã³
Ġh Ãłnh
Ġná» ¯a
Ġk inh
³ ng
ÄĲ Ã¢y
Ġgi an
Ġthá» ©c
Ġvá» ĭ
Ġhá»Ļ i
Ġth iáº¿t
Ġtr á»į
áº ¹
Ġ á»
áºŃ y
Ãł o
Ń a
Ġch iáº¿
áº¥ u
uy Ãªn
Ġr á»ĵi
Ġx em
Ġl iá»ĩu
Ġho Ã¡
Ġtrá»į ng
uá» ķi
ĠthÃŃ ch
ĩ nh
áº ©
ĠÄĳá»ĵ ng
Ġc Ã´
áº£ o
iá»ħ n
Ġgiáº£ i
i Ãªu
Ġh ai
Ġtr áº»
Ġqu Ã¡
Ġl Æ°á»£ng
Ġ ai
ĠÄĳ o
Ġb áº¥t
ĠvÃł i
ĠÄĳá»ģ u
Ġth Æ°á»Ŀng
Ġng á»
áº ½
Ġ G
Ġt iÃªn
ĠÄĳá» ĳi
ĠsÃ¡ ng
á»Ļ ng
Ġtr áº£
Ġlo áº¡i
Ġn ay
Ġh iá»ĥu
Ġt Ã¢m
áº£ y
Ġl áº§n
ÄĲ Ã³
Ġgiá» ĳng
V Ã¬
Ġt hÃº
Ġbá» ĩnh
Ġcá»© u
Ġthá» ĳng
Ġb ao
ĭ ch
Ġ 3
B áº¡n
Ġv iÃªn
Ã² ng
Ãº ng
Ġnghá» ĩ
£ y
iá»ģ n
ĠÄĳ iá»ĥm
Ġng o
hÃº t
ĠnghÄ© a
Ġg á»įi
Ġnhá» ı
ĠT r
áº ¯ng
V áºŃy
ĠÄĳ Æ°a
Ġt Æ°Æ¡ng
Ġx u
Ġho Ãłn
Ġqu áº£
Ġngh iá»ĩm
ĠÄĳ Æ°á»Ŀng
uyá» ĥn
Ġ D
Ġt Ã¡c
Ġv áº«n
o r
Ġx áº£y
uyá» ģn
T r
uyá»ĩ t
Äĥ m
Ġcá» ĳ
Å ©
á»ĳ c
Ġchiáº¿ c
Ġth uáºŃt
Ġb iá»ĩt
M á»Ļt
Ġ ÃŃ
Ġd Ã¹ng
ĠÄĳ áº¡i
há» ¯ng
a l
Ġtá»« ng
Ġb Ãªn
Ġd Ã¢n
Ġho áº·c
Ġtr iá»ĥn
Ġch uyá»ĥn
iá»ĩ p
Ġl Ãºc
Ġd iá»ħn
Ã£ o
Ġquy áº¿t
« ng
Ġngh e
Ãº p
Ġtrá» ĭ
Ġth u
Ġc ao
ĠÄ ĥn
u Ã´n
Ġd áº¡
Ġv i
áº¯ c
Ġt uyá»ĩt
Ġmá» Ĺi
Ġc áº§u
uá»ĳ c
uá»ĳ i
Ġkho áº£ng
Ġk áº¿
Ġtá» ķ
Ġl á»±c
Ġcháº ¥t
Ġ Ã¡
Ġphá» ¥
áº¥ p
i m
Ġb Ã¡
C Ã³
Ġgi Ãºp
² ng
Ġlá» Ŀi
Ġ em
ĠÄĳ áº¥t
ĠgiÃ¡ o
e s
Ġ Æ¡n
© a
Ã µ
Ġtr ung
Ġchá» §
áº© n
H á»į
o s
Ġt iáº¿n
Ġkháº £
Ġb áº£o
ĠphÃ ²ng
Ġháº ¿t
Ġná» ¯
Æ°á» Ľi
Ġ R
Ġch Æ°a
e l
Æ°á»Ľ ng
Ġxu áº¥t
hÃ ´ng
Ġt Ã¬nh
Ġngh iÃªn
Ġx e
Ġ VÃł
ĠÄĳ Æ¡n
Ġm ang
Ġl iÃªn
á» ¹
ĠphÃ ¢n
ĠkhÃ ³
áº¯ n
¥ p
Ġb Ãłi
Ġtr anh
Ġt uá»ķi
ĠÄĳ Ãºng
Ġtr uyá»ģn
Ġt áºŃp
ĠÄĳ iá»ĩn
Ġn Ã£o
Ġph Æ°Æ¡ng
Ġb Ã¬nh
ÄĲ iá»ģu
ĠÄĳ áº·t
© m
Ġt Æ°á»£ng
Ġta y
uá»ĳ ng
u á»ĵ
Ġb iáº¿n
i Ãª
Ġt iá»ģn
© p
Ġs áº£n
Ġtiáº¿ ng
Ġgiá» ¯a
Ġy Ãªu
Ġth o
Ġquy á»
áº§ m
áºŃ n
áº· p
Ġb Ã©
Ġng ay
Ġkho a
ĠhÃ £y
áº¡ c
N áº¿u
Ġbá» ı
Ġl áº¥y
Ġtr ÃŃ
Ġg áº§n
Ġho áº¡t
Ġx Ã£
e t
Ġnháº ¡
N g
N há»¯ng
Ġkh u
ĠÄĳÃ¡ ng
Ġch iáº¿n
ĠsÃ¡ ch
Ġthá» ĭ
Ġp hi
ĠthÃ ¢n
Ġpháº ©m
Ġ I
ĠphÃ¡ p
ĠÄĳá» Ŀi
Ġh iá»ĩu
Ġc uá»ĳi
ĠkhÃ Ń
T háº
Ã£ y
Ġm áº¥t
Ġch Æ¡i
Ġ 5
uy áº¿t
Ġsá» ©c
Ġká» ĥ
á»Ļ i
Ġm inh
Ġs o
ĠhÃ ´
uá»ĵ n
į ng
Ġ V
ĠM á»¹
Ġmáº¡ nh
Ġngh iá»ĩp
Ġk ÃŃ
Ã³ c
Ġt Ãłi
Ġngo Ãłi
a t
ĠÃŃ t
K hi
Ġd áº«n
i s
¯ p
Ġl áºŃp
Ġchá» į
Ġbá» ©c
ĠÄĳ áº¥y
« a
Ġm Ã´
Ġká» ³
Ġlo Ãłi
Ġ 4
Ġl uÃ´n
uáºŃ n
Ġt inh
Ġx Ã¢y
Ġr á»
Ġdá»± ng
Ġt iÃªu
Ġc á»Ļng
Ġphá» ĳ
Ġv Ã´
Ã© t
Ġ Q
Ġt Ãªn
Ġchá» ©ng
Ġv Äĥn
Ġtá» Ń
Ġ Ã¢m
Ġh Æ°á»Ľng
áºŃ t
i c
Ġhá» ĵ
Ġchá»į n
Ġb Ãł
Ġ J
Ġnháº¡ c
Ġv iáº¿t
a p
Ġthá» Ń
Ġá» ©ng
ĠÄĳ Ã¢u
Ġk iáº¿n
Ġng uyÃªn
Ġquyá» ģn
Ġqu á»ĳc
Ġchá» ©c
u a
Ġgi áº£n
Ġvá» Ŀi
ĠÄĳ áº·c
Ġb a
Ġcháº ¿
iáº¿ m
Ġb Ãło
Ġmáº¡ ng
Ġcháº ¿t
Ġt Æ°
Ġc áº¥p
Ġb á»ĳ
Ġvá» ¥
Ġs uy
Ġtr iá»ĩu
Ġ Ã
Tr ong
Ġt Äĥng
³ m
Ġl áº½
Ġtháº §n
ĠÄĳ áº¡o
ĠÄĳá» ©a
Ġná» ģn
áº¡ p
Ġs Ä©
á» Ń
£ n
ĠmÃł u
i l
Ġch u
áº£ m
Ġkhá» ıi
C Ã¡c
a s
Ġm áº¹
ĠÄĳÃ¡ nh
i t
Ġcá» ¥
Ġtá» ĵ
Ġd i
Ġg áº·p
ĠthÃ¡ ng
¯ n
Ġd Æ°á»Ľi
Ġc hÃºt
ª m
áº¥ m
o l
Ġx uá»ĳng
áº¹ p
Ġg áº¯ng
Ġ W
ĠphÃ ©p
Ã¢ ng
Ġ Ã¡n
Ġdá» ĭch
Ġqu anh
áº§ y
áºŃ u
Ġ. .
Ġ F
Ġkh iáº¿n
ĠnhÃ ³m
Ġm á»Ł
Ġ %
Ġvá» ±c
Ġx Ã¡c
Ġch ia
Ġdá» ¯
Ġ E
Ã¡ ch
00 0
ĠC hÃºng
Ġb ay
Ġth am
ĠthÃ ªm
¢ u
Ġnh anh
Ġmá» ©c
Ġtr Ã²
Ġth uyáº¿t
Ġc hÃº
Ã³ ng
Ġqu ay
ĠthÃ ´
Ġdáº¡ ng
Ġ1 0
ĠÄĳ Ãłn
Ġvá» įng
Ġcháº ¡
Ġcá» ±c
Ġg Ã¢y
Ġr Ãµ
Ġng uá»ĵn
Ġho áº¡
Ġv Ã¹ng
Ġcáº£ nh
ĠA nh
áº« u
Ã ¨
ĠbÃ¡ o
v Ãł
ĠÄĳ áº¹p
Ġtá» ¥c
Ġc Ãłng
Ġd Ã¹
Ġgi Ã¡c
Ġdá» ħ
ĠsÃ¡ t
Ġcháº ¯c
Ġtr ang
B Ã¢y
Ġx a
áº¯ m
Ġv ÃŃ
Ġc Ã¢y
Ġb Ã¢y
Ã¡ t
ĠÄĳá» §
iÃª ng
K hÃ´ng
Ġnhá» Ľ
ĠphÃ Ńa
Æ° u
Ġchá» ĭ
Ġh Æ°á»Łng
ĠhÃ´ m
Ġphi m
Ġd uy
Ġb iá»ĥu
ĠÄĳo áº¡n
Ġcháº ³ng
l e
Ġ2 0
Ġ.. .
Ġtr Ã¡i
Ġk iá»ĥm
Ġk Ã¬
Ġ1 9
Ġv Å©
Ġl áº¡
Ķ ng
Ġth Æ°Æ¡ng
§ ng
h o
t er
Ġd Ãłi
Ġv Ã²ng
ĠN g
Ń t
ĠQ uá»ĳc
Ġl uáºŃn
ĠÄĳ Ã´i
Ġpháº £n
T há»
Ġngá» ¯
Ġt u
uy áº¿n
ĠÄĳ áº§y
áº£ i
Ġlá» £i
Ġk ia
Ġdá»¥ c
Ġgiáº£ m
ĠtháºŃ m
Ġk iáº¿m
H Ã£y
Ġth uá»ĳc
Ġt y
Ġv u
ĠchÃ ¢n
Ġvá» «a
ap os
Ġtr Äĥm
ĠtÃŃ ch
ĠthÃ´ i
Ġth Æ°
u s
Ġ ;
ĠÄĳ Ã¬nh
a c
Æ°á» ¡
an d
Ġb Æ°á»Ľc
Ġ 6
Ġlá» ĩ
Ġgi ao
Ãł u
iáº¿ u
ĠTr ung
Tháº ¿
Ġl ai
Ġháº¡ n
Ġtá» ī
ĠÄĳ Ã´
Ġtá»ĵ n
Ġs Ã¢u
Ġtráº£ i
E D
hÃ ¡
Ġm Ã´i
Ġtrá» Ŀi
iá»ģ m
Ġto Ã¡n
Ġd iá»ĩn
Ġphá» §
Ġr á»Ļng
Ġm Ã£
Ġs ai
Ġth anh
Ġt áº¡p
Ġgiá» ¯
Ġphá» ¥c
Ġd Ãłnh
uá»ĳ t
į c
Ġn á»ĳi
a d
Ġl Ã£
Ġl Ã²ng
ĠÄĳo Ã¡n
Ġth uá»Ļc
ĠÄĳá»ĭ a
Ġr iÃªng
Ġch i
o m
Ġsá» £
ĠÄĳá» ©ng
Ġm áº¯t
Ġvá» ĩ
Ġná» ķi
Ġháº §
Ġ !
Ġmá» ¥c
Ġdáº¡ y
ĠT h
Ġv áº»
ĠÄĳ áº¡t
ĠthÃº c
Ġ O
Ġng hÃ
Ġc Äĥn
Ġl uáºŃt
Ġká» ¹
Ġsáº »
Ġx ung
Ġm áº«u
Ġtá»ĳ i
o b
Ġlá» ĭch
u r
ĠP hi
Ġb Ãłn
ĠÃ¡ nh
ĠÄĳá» įc
Ġlá»Ľ p
ĠC h
Ġ Y
Ġch Æ°Æ¡ng
Ãł m
Ġtrá» ¥
Ġká» ·
Ġy áº¿u
á»± a
Ġkháº ¯p
Ġtr Ã´ng
Ġvu i
Ġt iáº¿t
Ġkho áº»
Ġng á»ĵi
Ġcháº¡ y
Ġg Ã¡i
Ġp hÃºt
ĠphÃ Ń
Ġc áºŃu
Ġsáº ¯c
áº· ng
Ġb uá»ķi
Ġk Ã©
Ġc uá»ĳn
Ġs uá»ĳt
Ġtrá» £
Æ°á»£ t
Ġm á»ĳi
Ġb iá»ĥn
Ġcháº ¯n
hÃº c
Ġk iá»ĩn
Ġháº§ u
Ġch ung
Ã Ķng
Ġm Ã¹
- -
r a
Ġ 7
Ġtr Ãºc
e w
ĠH o
l i
Ġm ua
Ġng Ã´n
Ġs Æ°
Ġdo anh
Ġcá» Ńa
Ġk iá»ĥu
Ġpháº ¡
ĠT ED
Ġ 8
Ġ 9
Ġ áº
e b
ĠkhÃ¡ m
Ġs á»Ł
Ġng áº¡c
ĠcÃ¡ nh
ĠváºŃ n
Ġb Ã¡n
Ġtho áº¡i
Ġtu áº§n
Ġtháº £
Ġx Ã©t
Ġ& #
Ġx Ãºc
Ġl Ã¢u
Ġr Ãłng
o o
G iá»
Ġl ÃŃ
áº± m
o i
Ġc áº¥u
Ġh iá»ĥm
ĠchÃ ¡
Ãº t
Ġhá»ĵ i
áº¡ nh
Ġnh iá»ĩm
Ġphá» ©c
ĠN Ã³
Æ°á»¡ ng
A nh
Ġth iÃªn
ĠkÃŃ ch
Ġc ung
Ġch uyÃªn
Ġchá» ¥p
Ġb Ã³ng
ĠnháºŃ p
á»į n
Ä© nh
B á»Łi
Ġl a
Ġn áº±m
Ġ2 00
áº¡ ng
á»į c
uá» ·
Ġk áº»
ÄĲ á»
ĠB áº¡n
Ġng Ã´i
Ġv iá»ĩn
ĠthÃ¡ i
¯ u
Ġc áº¡nh
áº¿ p
ĠÄĳá»Ļ c
Ġng Ãłnh
Ġg hi
Ġhá» ¯u
Ġb Äĥng
Ġchá» ©
Ġho Ãł
Ġháº¡ nh
Ġchá» Ĺ
µ n
ĠtháºŃ p
Ġb Ã¡c
Ġtr Æ°á»Łng
Ġkhá» §ng
Ġv áº½
ĠÄĳ a
ĠÃŃ ch
iÃª m
Ġg á»
háº ¿
T h
Ġchá»ĭ u
Ġchu áº©n
X in
ı ng
Ġtr a
Ġpháº¡ m
Ġth iáº¿u
Ġqu Ã½
Ġl áº¯ng
Ġp hÃºc
áº© y
Ġsáº µn
Ġl á»±a
Ġhá» ģ
Ġtá» ĩ
Ġx anh
Ġt áº¥m
Ġháº Ń
Ng Æ°á»Ŀi
Ġsáº ¯p
ĠC hÃ
Ġkh Äĥn
Ġn iá»ĩm
Ã¡ m
Ġnh iÃªu
áº¡ ch
r i
ĠhÃ ¡
ĠÃ¡ p
Ġt Ã¡i
Ġtá» ©c
ĠK hÃ´ng
S au
Ġ an
ĠÄĳ au
u n
Ġtr ai
Ãº i
Ġh Æ¡i
Ġx á»Ń
r o
Ġchá» ĳng
¥ n
Ġl áº¡c
Ãª m
Ġd ung
u Ã´i
Ã³ n
Ġtháº¥ t
á»ĳ ng
ĠÄĳÃ³ ng
T áº¥t
Ġm áº·c
Ġm ong
Ġ NhÆ°ng
Ġcáº£ i
Nh Æ°
Ġdá»± a
ĠchÃ ¢u
V á»
Ġtr á»±c
á»Ń i
N Ãªn
C áº£m
á» ŀ
« u
á»Ļ n
ĠÄĳá»Ļ i
Ġx in
Ġcá» ķ
Ġb an
Ġd a
ĠháºŃ u
Ġm áºŃt
ĠbÃ¡ nh
© t
Ġkhá» ķ
Ġto Ãł
Ġtá»ķ ng
Ġkháº ¯c
Ġn á»Ļi
Ġch Äĥm
Ġ Ã´
Ġg á»Ńi
Ġx áº¥u
Ġt áº§m
Ġd áº§n
T áº¡i
Ġv Æ°á»£t
Ġ áº©n
ĠN ew
ĠÄĲ á»
Ġt im
Ġtá» ·
ÃŃ ch
Ġhá» ©ng
¨ o
Ġth iá»ĩn
Ġl Æ°u
Ġ3 0
Ġháº¡ t
¤ n
Ġng uy
r e
Ġtr áº¡ng
Ġh y
Ġch iá»ģu
Ġt á»Ļi
Ġd áº§u
Ġd anh
ĠlÃ£ nh
Ġ w
Ã¡ nh
Ġn iá»ģm
Ġnh iá»ĩt
ĠÄĳ á»Ļt
ĠnghÃ ¨o
Ġn áº¡n
Giá» Ŀ
C h
Ġngo áº¡i
Ġnh iá»ħ
n et
Ġc áºŃn
Ġs ang
Ġáº ¤n
Ġ1 00
Ġá» ķ
Ġ in
ĠI n
Ġchá» ¯a
Thá» ±c
ĠÄĳ áº©y
i d
Ġx o
Ġch a
ĠkÃŃ nh
C há»
ĠÄĳ áº¥u
Ġd áº¥u
Ġ ung
Ġná» Ĺi
ĠS t
Ã¡ ng
ĠÄĲ Ã³
ĠÄĳ en
Ġg hÃ
Ġthá» §
Ġ5 0
ĠkÃ© o
Ã£ i
Ġngá» §
Ġt áº¯c
ĠthÃ¡ ch
Ġm ay
ĠkhÃ¡ ch
ĠhÃ¡ t
Ġgi áº¥y
ĠÄĲ á»Ļ
iáº¿ p
Ġ1 5
ĠChÃ ¢u
Ġng Æ°á»£c
Ġg á»ĵ
ī nh
Ġchá» ¯
Ġn uÃ´i
Ġqu áº£n
Ġb áº¡i
Ġso Ã¡t
± ng
Ġ Æ°á»Ľc
ĠT Ã¢y
Ł i
V Ã¢ng
a h
Ġhoáº¡ ch
Ġcá» Ń
t h
Ġm áº¯c
Ġlá» Ĺi
i g
Ġt iá»ĩn
Ġná» Ńa
Ġm Æ¡
Ġngh i
is t
Ġl Ä©nh
Ġgá»ĵ m
r an
ĵ ng
Ġs Ã³c
Ġtá»ĳ c
Ġnhiá»ħ m
Ġkh iá»ĥn
o p
Ġd Æ°Æ¡ng
ÄĲá» ĥ
Ġt áº£
Ġc áº¯t
Ġg Ã³
Ãµ i
ter net
Ġg iáº¿t
Ġháº¡ i
ĠÄĳ Ã´ng
Ġtháº ³ng
Ġb Ãły
háº Ńt
Ġd Ã¢y
ĠÄĳá» ĳ
Ġkhá» ĳi
Ġc a
ĠM á»Ļt
Ġ U
Ġqu en
Ġt Ãłu
e d
ĠÄĳ ÃŃch
ĠN há»¯ng
Tháº Ńt
i ng
Ġqu Ã¢n
Ġnhá» Ŀ
C Ã¡i
ĠÄĳá» ©c
Ġth i
Ġtháº¥ p
Ġchiáº¿ u
Ġl Æ°á»Ľi
Ġb áº§u
Ġg en
áº¯ p
Ġn iÃªn
Ġm Ãª
Ġs Ãłng
ĠC Ã³
a g
Ġngá» Ŀ
Ġd Ã²ng
Ġx áº¿p
ar d
Ġ X
ĠÄĳ Ãªm
Ġc Æ°
Ġd Ãłng
Ġcháº ¥p
Ġl Ã¡i
ĠÄĳá» ķ
S á»±
Ġg á»ĳc
Ġhá» Ĺ
Ġkh ai
ĠphÃ ³ng
Ġt áºŃn
Ġc Æ°á»Ŀi
Ġng áº¯n
Ġcháº ·
ĠÄĳá» ¡
l o
Ġr á»ĳi
Ġg áº¥p
á»ĵ ng
Ġph ong
ĠÄĲ Ã¢y
Ġl áº¯m
ĠcÃ¡ o
ĠÄĳ em
Ġ /
Ġn Ã´ng
Ġgi Ã¢y
Ġc Ã¢n
Ġb áº¡o
Ġká» ī
Ġb ÃŃ
Ġs Ã¢n
Ġtr Ã¡ch
Ġg áº¯n
Ġbá»ĳ n
Ġv ai
t on
Ġpháº «u
Ń m
ĠÄĳá» £i
9 1
C Ã´
Ġng Ãłn
9 3
Ġt Ã´n
áº§ ng
e y
Ã Ŀ
Ġs u
Ġh Ãłi
Ġ1 2
Ġnghá» ĭ
Ġk Ä©
Ġth Æ¡
Ġx uyÃªn
Ġnháº £y
Ġdá» «ng
ĠA l
a b
d eo
Ġch uyáº¿n
ĠÃ Ĥ
Ġvi deo
Ġs iÃªu
ĠT há»
T á»
Ġho a
Ġthá» ¥
uá» Ĺi
Ń n
Ġk Ã½
Ġt áº£i
M á»
Ġgi ai
ĠH Ã£y
Ġw eb
ĠmÃł n
a k
Ġl ao
Ġt áº§ng
ĠÄĳ áº£m
Ã¡ o
Ġt Ã¹
Ġch im
Ġphá» ķ
Ã¨ n
Ġ áº£o
o h
Ġháº ¥p
o u
a v
Ġnháº ¯c
Ġchá»ī nh
Ġng Äĥn
Ġkhá» Łi
³ n
in e
or k
¹ ng
Ä ĳ
Ġrá» «ng
ĳ n
Ġá»ķ n
ĠkhÃ¡ i
o c
Ġg Ã³c
Ġtháº £i
Ġk Ãª
Ġ hÃºt
iáº¿ ng
Ġngh iÃªm
Ġhá»Ļ p
Ġm Ã³n
Ġgi Ãłu
Ġ Nh
Ġl Ã¡
Ġchu á»Ļt
ĠÃĤ u
Ġt áº¥n
Ġn am
Ġl uyá»ĩn
ĠN am
s on
ģ m
ĠtÃŃ n
Ġc áºŃp
Ġkh uÃ´n
ĠY ork
M á»įi
ĠIn ternet
h an
ĠÄĳÃ¡ m
ob ot
Ġgi Ãł
Ġc oi
Ġng Ã¢n
Ġt uyáº¿n
Ġl iá»ĩt
Ġtr ao
Ġpháº Ńn
ĠH á»į
ĠÄĳá» ı
Ġl áº§m
Ġtháº ¯ng
ĠC hÃº
R á»ĵi
Ġmá» ģm
Ġháº ³n
Ġtrá» «
ĠG i
t e
Ġh uá»·
Ġd áºŃy
ĠT áº¡i
il l
Vá» Ľi
ĠÄĳ áº£o
Ġn áº·ng
Ġnh u
Ġta i
Ġmáº¡ ch
Ġm Ã´n
Ġx á»
ĠN áº¿u
Ġv Ã¢n
Ġchá» ©a
ĠK á»
ĠHo a
T uy
Ġm áº¥y
Ã³ t
D o
ĠchÃ ³ng
ĠnÃ³ ng
L Ãłm
ĠphÃ ¹
Ġquyá» ĥn
ĠmÃ¹ a
V ÃŃ
Ġ uá»ĳng
ĭ p
ĠÄĳ iá»ĥn
ĠchÃ ³
ĠchÃ¡ u
Ġ á»ĳng
Ġm áº½
Ġth iá»ĩu
ĠmÃ¡ u
Ġs Ã³ng
Ġ1 8
ĠhÃ £i
£ o
Chá» ī
Ġb uá»Ļc
ĠB áº¯c
Ġchá»§ ng
Ġt uá»
Ġtr Ã¹ng
Ġc Å©
áº¡ m
Ġd Æ°á»¡ng
H o
Ġl inh
ĠÄĳ iÃªn
ĠkhÃ¡ n
Ġrá» Ŀi
Ġtháº£ o
u m
Ġs Æ¡
Ã² i
t r
ĠChÃº a
Ġd Ãµi
Ġ4 0
Ġchá» Ŀ
Ġt áº£ng
Ġlá» ĵ
Ġlo áº¡n
Ġtá»ĵ i
i k
¥ m
Ġl á»Ļ
Ġr obot
ĠÄĲ iá»ģu
i e
Ġvá» ¯ng
ĠÄĳÃ¡ p
Ġb uá»ĵn
ĠgÃ³ p
o w
Ġm áº¯n
á»ĳ t
Ġsá»Ń a
Ġth Æ°á»Łng
ĠÄĳ Ã¨n
Ġl an
© u
Ġ o
ĠkhÃ ´
ĠT háº¿
Ġtr Ã¡nh
ĠTr Ã¡i
Ġt Æ°á»Ŀng
Ġkho áº£n
ĠKá» ³
i ch
Ġkhá»ķ ng
Ġm áº£nh
H iá»ĩn
Ġ f
Ġm iá»ħn
C háº
Ġtr áº¯ng
Ġch Ãłng
ĠÄĳÃ³ i
Ġt á»Ļc
Ġá» §ng
Ġláº¡ nh
Ġm Ã¡i
Q u
Ġl áº«n
Ġtá»ķ n
ĠM ar
Ġc Æ¡n
Ġ2 5
ĠTr ong
or d
e v
Ġb áº£ng
ĠÄĳá» īnh
Ľ m
Ġtá» Ŀ
áº¥ c
Ġn Ãºi
Ġd iá»ĩu
Ġt iá»ĥu
Ġtr Ã¬
Ġphá» ıng
Ġtá»ĳ n
ĠÄĲ Ã´ng
Ġháº £o
u l
Ġbá» ģ
C Ã¢u
Ń nh
ĠÄĳ Ãło
Ġqu Ãªn
Ġr Æ¡i
Ġgiá» įng
Ġgiá» ıi
ĠÃ¡ o
Ġ áº¥n
Ġtr áºŃn
ĠC Ã¡c
Ġkhu áº©n
ĠmÃ£ i
Ġtr á»ĵng
C Ã²n
Ã¹ a
Ġd u
Ġqu áº£ng
VÃł o
Ġcháº¡ m
Ġcá» ¡
ĠNg Æ°á»Ŀi
Ġc áº§m
Ġb ang
ĠC há»
Ġb áºŃt
C ho
Ġk im
ĠÄĳ Æ°Æ¡ng
Ġvá» ĳn
ĠnghÃ ¬n
Ġbá» ģn
Ġl Æ°Æ¡ng
Ġqu áº§n
Ġpháº ¥n
Ġcháº ¥m
Ġmá» Ŀi
Ġkho Ã¡
ĠsÃ¡ nh
ĠhÃ´ n
Ġt iá»ģm
Ġnghá» ī
u b
Ġc am
Ġn áº¯m
ist an
ĠvÃł ng
Ġchiáº¿ m
Má» Ĺi
áº ³ng
Ġh i
Ġhá» ķ
Ġho áº£ng
ĠkhÃŃ ch
Ġt Ã¡ch
Ġd Æ°á»Ŀng
Ġphá» ĳi
Ġh Ãło
Ġvá» £
Ġngá» «ng
Ġh iá»ĥn
Ġbá» ¯a
ĠÄĳ iá»ĩu
Ġv Ä©
Ġlá» Ńa
Ġthá»ĭ t
C on
Ġg háº¿
ĠlÃł ng
Ġr Ãºt
Ġvá» ¡
Ġ1 1
Ġ VÃ¬
ĠÄĳá» «ng
Ġx Æ°Æ¡ng
l a
l y
Ġs Ã³t
Ġch uá»Ĺi
áº· m
Ġná» ķ
Ġká» ĭch
ĠH á»ĵi
en t
Ġkháº ©u
oo g
Ġ ong
ĠÄĳ áº±ng
Ġb iÃªn
Ġcháº £y
Ġsá» Ľm
i b
ĠT hÃ¡
Ġlo áº¡t
ĠK hi
Ġgi Ã³
Ġtho Ã¡t
Ġchá» ĵng
Ġt áº¯t
Ġcháº Ńm
ĠÃ Ķng
ĠV Ã¢ng
C hÃ
P háº
ÃŃ nh
Ġnghá» ģ
i r
i an
Ġt Ãłn
Ġs áº¡ch
Ġd Ä©
Ġ VáºŃy
Ġt Ã´
Ġb Ã¨
Ġkhá» ©
oog le
m an
Ġl áº·p
Ã³ m
Ġgi áº¥c
ĠÄĲ áº¡i
ĳ t
r y
Ġtháº §
Ġgá» £i
Ġsu áº¥t
i f
Ġm Å©
Ġtr Æ°ng
a z
i o
Tá» «
± m
Ġ8 0
Ġqu á»¹
ĠnhÃ ©
Æ°Æ¡ i
Ġk iá»ĩm
ĠchÃ ¬
ac k
ĠÄĳ Äĥng
e x
ĠphÃ ª
Ġlá» Ĺ
Ġtrá» ¯
Ġt Ãºi
Ġl á»ĳi
Ġng áº¡i
Ġtr áº¡i
Ġs Ã´ng
R áº¥t
e p
Ġt Ã¡n
ĠC on
ĠA n
Ng Ãły
ic k
T a
u d
© n
Ġng uyá»ĩn
Ġd áº·m
Ġth Æ°á»Ľc
ĠkhÃ¡ ng
ĠQ u
Ġv iá»ħn
Thá» ©
¢ m
áº· n
ĠÄĳ uá»ķi
Ġn Ã©
Ġcá» Ŀ
Ġsá» ¹
Ġqu ang
Ġnháº ¹
Ä© a
ĠghÃ ©p
ĵ i
Ġc Ãł
Ġthá» Ł
Ġbá» ¥
ĠC áº£m
Ġ6 0
Ġn Ã¢ng
Ġvá» ı
ĠT á»
Ġph iÃªn
ĠG oogle
u t
Ġb Æ¡i
Ġth Äĥm
ĠkÃ© m
i v
Ġnháº ¯n
Æ°á»¡ i
Ġsá»ĳ t
t Ã´i
Ġc Ãº
Tr Ãªn
oh n
V áº¥n
Ġl áº·ng
es t
Ġv áº¿t
Ġr áº»
Ġkho áº£nh
Ġtháº£ m
Ġl á»įc
Ġh u
Ġná» Ĺ
ĠnháºŃ t
Ġtho áº£
N Äĥm
Ġt Ãłng
ĠsÃ¡ u
Ġxo ay
G i
an s
á»į t
on e
h e
Ġb á»įn
ar t
Tr Æ°á»Ľc
Ġho ang
Ġháº ¹
B Ãł
Ġc an
Ġtr Ã²n
Ġtr á»ĳng
Ġbá» Ŀ
ĠhÃ ¹ng
in s
ĠÄĳ iá»ĩp
Ġng áº«u
ĠB r
ĠP hÃ¡
ĠA r
ĠmÃ¹ i
¥ u
Ġ Æ°u
ĠÄĳ áº³ng
ĠlÃł nh
Ġthá» «a
ĠL Ãłm
Ġv oi
ĠN háºŃt
uá» µ
am p
b on
e c
ĠÄĳ áº¿
Ġdo áº¡
ĠÄĳ am
Ġlá» ¥c
ĠC Ã´
§ i
Ġ Z
Ġb Ã²
ĠÄĳá» ±ng
ÄĲ Æ°á»£c
oo k
a w
Ġr Ã¡c
Ġth uáºŃn
ĠlÃŃ nh
c hÃºng
Ġth uá»·
el l
N hÃ
Ãº a
ĠÄĲ áº¥t
ĠthÃ¡ c
Ġtháº ¡
ĠÄĳo Ãłn
I V
L iá»ĩu
Ľ t
ĠB á»Łi
uá»ĵ ng
Ġcháº· t
± a
ĠÄĳ áº¡p
Ġm a
Ġth ang
Ġc áº¥y
Ġnh uáºŃn
ÄĲ áº§u
Ġp r
ĠtrÃŃ ch
i on
e g
Ġc Ã£i
Ġhá»į p
er a
ĠH IV
ĠÄĳ e
Ġgiáº£ ng
d e
ĩ t
Ġta n
Æ°á»Ŀ n
er t
V iá»ĩc
Ġl Æ°á»£c
Ġm iáº¿ng
Ġnhá» ±a
Ġngo Ã¡i
or e
ĠlÃ£ ng
ĠÄĲá» ©c
Ġt áºŃt
Ġl áº¯p
Ġ1 6
ĠgiÃ¡ m
Ġkháº ¥u
Ġy Ãªn
5 0
ĠhÃ ¨
ĠA f
Ġcháº· n
ChÃ Ńnh
Ġd iá»ĩt
ĠtháºŃ n
ĠI s
ĠÄĳ Ã²i
Ġh uy
Ġth ai
ĠA D
NÃ³ i
e in
Ġch Ãło
Ġtá» ¥
Ġlá» ħ
ĠchÃ ©p
Ġmá» «ng
es s
Ġáº ¢
u c
Ġt Ã¡
Ġm Ã¢y
Ġng ang
Ġh uá»ĳng
Ġth ao
Ġm áº¡i
Ġcáº£ n
u á»Ļn
Ġ $
Ġ u
ĠÄĳá» ĳng
Ġcá» ©ng
á»ĳ n
ĠthÃ ¹
ĠS h
Ġ19 9
ĠÄĳ Ã¹a
Ġtr Ãłn
Ġh Æ°Æ¡ng
Ġsá» ķ
Ġsá» £i
áº© u
or n
al l
Ġxo Ã¡
H ay
Ġm Ã¬
Ġk o
Ġdá» ĭ
Ġ1 4
Ġtr i
Ã¨ o
Ġ9 0
ĠAf g
Ġv ong
Ġnháº ±m
Ġtháº¥ u
ĠC ar
Ġ20 1
C uá»ĳi
L Ãºc
Ľ n
Ġv Ãº
ĠcÃ¡ t
Ġtá» ı
ĠAD N
g e
r us
Ġc áº·p
ĠÃ¡ m
ĠV á»
f f
Ġb i
Ġtr Ãło
ĠcÃ¡ m
ĠJ ohn
B á»
Ġt uyÃªn
Ġm áºŃp
Ġm á»±c
Ġb om
Ġh iáº¿m
ĠE m
l es
Ġb á»ĳi
Ġph iáº¿u
Ġb áº¯n
Ġs Ãºng
Ġth uyá»ģn
Ng ay
Ġ7 0
Ġm Ã³c
nh Æ°ng
ĠkhÃ Ńa
Ġnhá» ĭp
Ġsá» ¥p
ĠchÃ¡ n
Ġt iÃªm
Ã´ m
Ġlá» «a
at t
Ġk Ãªu
Ġh Ãł
Æ°á»£ u
Ġkh ung
Ġho Ãłng
ĠA i
Ġ Xin
ĠÄĳ áºŃp
Ġng á»įn
Ġd á»ĳi
Ġ1 3
Ġ Ã³c
Ġl iá»ģn
Ġtr iáº¿t
Ġcá» ¥c
áºŃ c
Ã© p
Ġpr ot
C Ã¡ch
i p
Ġkháº£ o
ĠbÃ© o
Ġgá» Ĺ
ĠPhÃ¡ p
ĠAfg han
Ľ p
C Ã´ng
K hÃ¡
o d
Ġc Ã´n
ĠÄĳ ua
ĠC al
Nh Ãł
y l
Ġ 0
Ġg am
Ġthá» Ŀ
Ġtho áº£i
C Ã¡m
r is
Ġc Äĥng
Ġm Æ°a
Ġb áºŃc
Ġbá» ķ
ai l
â Ģ
Ġ Ã¡c
Ġmáº¡ c
ĠG iá»
Ġtháº§ y
¯ t
Ġl Å©
Ġng Æ°á»¡ng
Ġhá» ĳi
ĠS á»±
Ġt Ã¡o
Ġn áº¥m
Ġr Æ°á»£u
ĠT háºŃt
er s
Th eo
e et
Ġ âĢ
Ġchá» ĳi
Ġchá» ĳt
ÄĲ á»ĳi
Ġmá» ı
N A
ĠA m
ĠK en
Ġá» Ĵ
Ġhá»Ĺ n
C Å©ng
ĠThÃ¡ i
Ġhu áº¥n
Ġm Ã©t
Ġ1 7
ĠÃ ģ
¯ m
Ġtr áº§m
Ġnh Å©ng
ĠhÃ ²
ĠghÃ ©t
Ġn Ãºt
Ġv Ã¢ng
Ġs ong
Ġá» ©c
ĠF ran
e e
Ġ áº¡
Ġkh uyáº¿n
ĠchÃ¡ y
Th ay
Ġch e
L Ãł
N Ãło
Ġb iá»ĩn
Ġb áº£y
ĠB áº£n
Ġtá»ī nh
Ġtr uy
Ho áº·c
ĠÄĳ áº¯t
Ġcá» ı
ĠC Ã´ng
ĠphÃ¡ n
ĠI ran
ĠTh uá»µ
Ġng Ã³n
Ġhá»ĵ n
M Ãł
Ġgi áºŃn
ĠH ar
ĠL an
av id
Ġxá» ©ng
A i
p h
£ t
á» Ŀi
Ġm áº¡o
Ġthá» į
Ġth iá»ĥu
ĠhÃ £
Nh iá»ģu
y a
on d
Ġ2 1
ĠÄĲ Æ°á»£c
ĠAfghan istan
Ġt Ãºc
Ġkh iáº¿p
Ġháº ¯n
ĵ n
ĠÄĳ áº¯n
Ġs Äĥn
Ġg á»įn
ĠkhÃ¡ t
lo g
ĠmÅ© i
o v
Ġ Ãł
Ġ á»ĵ
Ġm ai
Ġb Ã´ng
Ġcá» Ĺ
Ġcá» ¥t
Ã£ n
ĠC Ã¡i
D Ã¹
l and
x y
Ġr u
Ġd inh
Ġd Ãły
Ġtrá» ©ng
Ġtháº¡ ch
Ġprot ein
Ġt ia
Ġb Ã³
Ġx ong
ĠH ai
Ġrá» §i
Vá» ģ
a ch
į t
Ġn áº¥u
Ġth iá»ĩp
Ġthu Ãª
Ġb inh
Ġk áº¹
Ġh Æ°á»Ľc
ĠphÃ ³
Ġcháº ©n
er ia
Ġ i
Ġc á»Ļt
Ġl á»Ļn
Ġm á»Ļ
Ġm Ã²
Ġb á»Ļt
Ġb Ã£i
Ġh uyáº¿t
ĠC an
ĠÄĲ Ãºng
ar k
ĠthÃ¡ nh
H ai
Ġng Å©
Ġgi Ãłnh
Æ°á»Ľ t
ÄĲ Ãºng
ĠmÃ¡ t
ĠÄĳá»ĳ c
ĠÄĳá»ĳ t
Ġt Ã³c
ĠÄĳ Ãłi
Ġtr uyá»ĩn
Ġchá» «ng
ĠL iÃªn
ĠD o
Ġthu áº§n
t a
Ĺ ng
Ġb áº¡c
Ġr Äĥng
Ġr Æ°á»¡i
Ġd á»įc
Ġx Æ°a
ĠT V
ai n
Ġ19 8
ĠNh Ãł
iá»ĩ ng
ĠT áº¥t
t i
Ġm iá»ģn
Ġh iáº¿n
Ġr o
Ġt áº·ng
ĠÄĳ Ä©a
Ġn Æ¡
Ġg Æ°Æ¡ng
Ġnháº ¥n
Ã½ t
ĠC hi
Ġcá»ĳ t
ra el
ĠnÃ© m
Ġ áº¥m
Ġr áº¯c
Ġnhá» ī
Ġx Ã¢m
Cháº ³ng
Ġng Ãłi
Ġch ai
en n
g h
Ġv Æ°á»Ŀn
Ġl áº»
Ġtr á»Ļn
iáº¿ c
am a
ĠS c
Ġ5 00
ic o
oc k
Ġd ÃŃnh
Ġth an
Ġqu Ãª
Ġx áº¡
Ã¹ i
ĠkhÃ³ c
ĠÃ Ŀ
Ġt áº¡m
Ġng u
Ġ2 4
ar a
Ã¨ m
Ġtuá» ³
H áº§u
Ġc áº©n
ac eb
ĠIs rael
K ho
P h
c o
Ġb áº¯c
Ã¡ y
Ġtháº ©m
ĠnhÃ ¡
ĠP háº
Ġtho áº£ng
ad a
Ġtuá» ĩ
aceb ook
Ġm iÃªu
Ġm iá»ĩng
Ġr Ãło
ĠÄĳá» Ľn
ĠÄĳÃ¡ y
Ġháº¹ n
Ġm áº©u
in a
Ġphá» ķi
³ i
Ġs a
Ġng áº§m
ĠÄĳÃ³ n
ĠB á»Ļ
áº© m
C áºŃu
Ġ Æ¡i
Ġhá» ©a
Ġlá» ıng
Ġcá»ĳ c
Ġnháº¡ y
I D
Ġt Ã²
Ġg Ãł
ĠT o
Ġc Æ°á»Ŀng
ĠÄĳ áºŃu
Ġb log
Ġtr Ã´i
Ġr á»ĵ
an n
Ġvu Ã´ng
B áº±ng
há» ĩ
Ġb áº¡ch
Ġh iá»ĩp
ĠS an
Ġháº¡ ng
te in
if orn
H Ã´m
Ġl y
Ġl Ã£o
Ġhá» ĳ
Ã£ ng
ĠB ra
le y
Pháº §n
ĠCal iforn
Ġgam e
Ġt Ã¢y
Ġk iÃªn
Ġtr áº¯c
Ġd Ãłn
Ġqu Ã¡i
Ġho áº¡i
Ġcháº ¥n
ĠF acebook
ĠCaliforn ia
l in
s t
Ġng Ã£
Ġthá» £
Ġr Ã´
Ġp in
Ġháº ±ng
S áº½
Ġl Ã¢y
Ġqu Ã¡n
Ġgi Æ°á»Ŀng
ĠC háº
am b
Ġt uyáº¿t
Ġt Ã³m
Ġc ong
Ġn Æ°á»Ľng
Ġl eo
Ġtr áº¡m
Ġnh o
Ġqu Ã©t
Ġgi Ãły
ĠM Ä©
ĠÄĳ áº£ng
Ġng á»±a
ĠT w
Ġn Ã©t
un d
e k
m a
ĠÄĳ eo
Ġm áº»
Ġm Ã¨o
Ġch Äĥng
Ã¬ a
Ġx ÃŃ
ĠC á»±c
ĠB a
Ġ19 7
ĠmÃ£ n
C á»
Ġl Æ°ng
al k
Ġt Ä©nh
Ġtiáº¿ c
n Ã³
á» ĩ
Ġv áº¯c
ĠG eo
ĠD NA
Ġbá»¥ ng
ĠÄĳáº¿ m
o áº¡i
p p
Ġn inh
as s
ex ico
c e
o g
³ c
Ġt Ã¡m
Ġk Ã¨m
Ġtr Äĥng
Ġd Ã²
Ġd Ã¡n
Ġlá» ĩnh
ĠC á»
ĠM c
áº« y
Ġ3 00
Tháº Ńm
it e
it h
and a
Ġd Ã£
b er
« n
Ġl Äĥn
Ġhá» ıng
Ġqu Ãł
Ġkh uyÃªn
Ġdá» ©t
ĠC ol
ĠI ra
at e
ĠgÃ³ i
r on
Ġt uy
Ġt iá»ĩc
Ġv inh
Ġng on
ĠthÃ ³i
áº« m
Ġem ail
Ng h
ĠTh e
T hÃ
Ġ Ã©p
Ġtr áº§n
Ġtá» ĭ
Ġgi áº¥u
ÄĲ Ã£
Ġ2 000
Ġgá» ¡
ĠchÃ¬ m
Ġl u
Ġl Ã´i
Ġtr á»ĳn
Ġg Ã£
Ġh Æ°
Ġlá» ģ
uá» ¹
Ġph iá»ģn
ĠR ob
ĠÃ ļ
ĠCh ar
ID S
o Ãłi
Ġcá» ±
Ġmá» Ŀ
ĠM exico
ĠN hÃ
ĠCan ada
C uá»Ļc
z il
Ġl Ã¢m
Ġg Ãµ
Ġh eo
Ġcá»¥ m
k y
Ġ im
Ġt ung
Ġl áº·n
Ġb Ã£o
Ġd Æ°
ĠB á»
at h
ĠlÃ£ m
ĠkÃª nh
s h
Ġ and
Ġc áº¥t
Ġb uÃ´n
Ã¡ p
Ġng á»įt
ĠÄĳá» ±c
Ġgi Æ¡
Ġkh ao
Ġkho an
ĠD avid
ĠÃļ c
D P
d am
f ord
Ġb áºŃn
Ġthu áº¿
ĠNg a
NhÃ ¬n
l er
Ġ Æ°
Ġtr Æ°a
Ġd ao
Ġth Äĥng
Ġgi Ã¡n
Ġmá» ĩnh
ĠM ich
ĠH y
Ġvi rus
m Ãł
r am
Ġl Ãµi
Ġs Ãłn
Ġh Ãłm
Ġthá» ķi
Ġtháº »
Giá» ĳng
ond on
á» ĥ
Ġl ang
ĠlÃł n
Ġh ang
qu ang
Ġqu ÃŃ
ĠA IDS
ĠP h
ĠL iá»ĩu
ĠcÃº m
t in
Ġt Æ°Æ¡i
Ġc ar
Ġb Ã¹ng
Ġb áº¿p
Ġd Ã¡ng
Ġx inh
in d
Ġsá» ¯a
ĠR áºŃp
ĠChá» ī
ĠBra zil
Ġv a
Ġs an
Ġs Æ°u
á»Ļ m
Æ°á»£ n
au l
ĠB er
ĠL ondon
ĠquÃ¡ t
Ġbá»¥ i
Ġt Ã¢n
Ġc áº¥m
Ġb u
Ġd Æ°á»£c
ĠphÃ ¬
ÄĲ Ã´i
Ġá» ŀ
it ter
L áº§n
Ġt áº¯m
Ġn áº£y
Ġl iá»ģu
Ġng áº¯m
Ġr Ã©t
ĠM o
ĠM on
ĠÄĲ iá»ĥn
Ġkhá» ī
Ġtu Ã½
Ġcam era
ĠKen ya
i z
r ic
Ġ Æ°a
Ġr Ã£i
Ġtá» §
ĠthÃ ¹ng
VÃł i
Ġháº £i
ĠP al
Ġ4 00
ĠchÃº a
3 0
m á»Ļt
Ġl Æ°á»Ŀng
Ã³ i
ĠT a
hi ng
ĠS p
ĠL e
Ġ19 6
Ġpháº¡ t
Ġo xy
o y
Ġc Æ°á»Ľi
Ġm uá»Ĺi
Ġng áºŃp
ĠnÃł ng
Ġgi am
Ġthá»ĭ nh
li ng
ĠkhÃ´ n
Cháº ¯c
ĠâĢ ĵ
C áº£
© o
Ġl Æ°á»Ľt
Ġs ay
Ġs Æ¡n
Ġng á»ĳc
Ġp hÃº
Ġd Ã£y
ĠM á»įi
ĠB l
ĠH á»Ļi
ĠthÃ¡ p
Ġthu a
ĠÄĲá» «ng
r en
Ġtr Æ°á»£t
Ġthá» īnh
Ġnháº «n
ĠC O
Ġtrá» ¥c
Ġph a
ĠIra q
Ķ i
Ġt Æ°á»Ľng
Ġn á»Ł
Ġn an
Ġqu á»
Ġqu Ã£ng
Ġx Ã³m
Ġnháº ¯m
ĠchÃ ¢m
ÄĲ áº¿n
ĠB an
ĠthÃ¡ m
ĠkÃŃ n
2 0
L Ã½
b áº¡n
Ġn á»ĳt
Æ°á»Ľ p
ĠthÃŃ nh
ĠK inh
ĠR os
Ġbá»ĳ t
Ġf eet
Pháº £i
Ġn áº¯ng
Ġd Ã¡m
ĠN ig
ĠB ill
Ġkhá» Ľp
ĠTw itter
h am
Ġc áºŃy
Ġd áº¯t
Ġth iá»ĩt
ĠT háº
ĠB ar
S A
Ġc uá»Ļn
Ġm áº¡n
Ġs ung
Ġkh uy
Ġkh Æ¡i
an a
Ġra u
ĠphÃ¡ i
Ġto áº£
ĠthÃ¡ o
Ġ15 0
b y
n e
Ġc Æ°á»¡ng
Ġl Ã´ng
Ġb Æ¡
Ġtr Ãł
Ġg áº¥u
ĠT im
on y
ĠB os
ĠP ar
ĠG DP
li p
D Ä©
M áº¹
Ġt uyá»ĥn
ĠÄĳ uÃ´i
Ġn á»į
Ġb ong
ĠnhÃ £n
áº» o
ĠK ho
Ġháº§ m
ĠCh ris
ÄĲá» «ng
KhÃ¡ n
M áº·c
T o
áº¿ ch
Ġvá» Ł
Ġch Æ°á»Ľc
Ġbá» Ľt
Ġmá» ĩt
ĠB Ã¢y
Ġlo g
ĠS au
ĠJ o
ĠW as
ĠTá» ķ
G áº§n
K áº¿t
Ġnhá» Ł
Ġra nh
Ã© o
Ġhá»ĩ t
ĠTr á»Ŀi
Ġthu áº«n
ol f
ĠY ou
T iáº¿p
v er
á» Ĵ
Ġt i
ng el
ĠÄĳ Ã¢m
Ġl Ã¡t
Ġs li
Ġmá» ¹
ĠC áºŃp
ĠM áº¹
ĠS ao
ĠTh iÃªn
oo d
Ho Ã¡
ĠchÃ¬ a
ins tein
ĠhÃ² n
B áº¥t
a el
d er
§ m
Ġ e
Ġm uá»Ļn
Ġng á»±c
Ġth Æ°a
an i
ĠGeo r
Ġl Ã²
Ġl Ã¹i
Ġb á»į
Ġchá» Ł
Ġchá» ¥c
Ġho áº£
ĠÄĳi Ãªu
ĠB e
ĠG re
ĠD Æ°Æ¡ng
Ġláº¡ m
x i
Ġ j
Ġk hÃºc
Ġká» ĭp
ĠB ang
Kho áº£ng
hing ton
Ġsli de
C Ã¹ng
Ġc ac
Ġv ua
Ġb Ãª
Ġb Ãºt
Ġtr áº¥n
Ġg Ã¡nh
Ġpháº ³ng
Ġsá»ĳ c
Ġmá» ıi
Ġná» £
Ġsá» ©
ĠH Ãł
ĠÄĳá»ĵ i
ĠA b
ĠE d
ĠthÃ´ n
ur g
ĠHo áº£
ĠGi Ã¡o
v Ã¬
Ġv áº¹
Æ° Æ¡n
Ġm Ãºa
ĠÄĳá» Ľi
Ġnháº ·
ĠV iá»ĩn
ho m
ĠThá» ±c
ĠNh a
Ġá»ĵ n
c Ã³
u g
z a
Ġv áº£i
Ġm áº¥u
Ġnh iáº¿p
ĠM I
or t
ĠChÃ Ńnh
Ġcar bon
ĠWas hington
k a
s ite
Ġh Æ°u
Ġr ung
Ġcá» Łi
ĠthÃ ¢m
Ġngh iá»ĩn
ĠB en
ĠS m
Ġnghá» ĭch
et t
Ġrá» ħ
Ġhá»ĵ ng
ĠJ am
Ch uyá»ĩn
Ġin ternet
ub e
H Æ¡n
Ġd uyá»ĩt
Ġth a
á»ĳ m
áºŃ m
ĠM á»
ĠM áº·t
ar e
ol a
and er
Ġweb site
ik e
ĠkhÃ´ i
ĠFran c
ĠhÃ£ ng
E m
N á»
Ġr Ã¡p
Ġcá» ĳi
ĠC ho
ĠN Ãły
Ġkháº ³ng
Ġngo an
ĠTED x
ĠNig eria
Ġ a
Ġc uá»ĵng
Ġv Ã¢y
Ġl Æ°á»¡ng
Ġm Ã¢u
Ġkh iáº¿m
Ġmá» ĵ
ĠTr Æ°á»Ŀng
Ġnháº· t
C Æ¡
Ġc o
Ġr áº¯n
Ġsáº ¯t
in c
ĠC uá»Ļc
ĠB Ãł
ĠÄĳá»ĭ ch
ĠL á»
il li
le x
Thá» Ŀi
ĠphÃŃ m
Ġháº¹ p
Bá» ©c
i er
Ġg an
ĠkhÃ³ i
ĠW ik
ĠThá» ķ
tr ess
ĠVá» Ľi
Ġcac bon
ĠMI T
l an
Ġc Æ°á»Ľp
Ġv Æ°Æ¡n
Ġl áºŃt
Ġkh uyáº¿t
on es
Ġ1 000
ĠB ro
ĠÄĳÃ¡ o
ĠL os
ic a
as t
Äĳ Ã³
P S
r os
ĠÄĳ áº»
ĠÄĳ Ãłm
Ġn on
Ġm áº£ng
Ġb Ã¹
ĠchÃŃ n
ĠH á»įc
ĠP ak
ĠÄĳo an
Ġ3 5
Ġ200 8
l d
Ġt Ã´ng
Ġl ong
Ġg á»ĳi
Ġcá» «u
ĠphÃ ´
Ġkho Ã¡i
ĠH á»
ĠL a
Ġrá» Ńa
Thá» Ń
O k
u p
§ a
Ġc áº¡n
Ġs áº¡n
Ġs tress
Ġd Ã¢m
Ġmá» ĵi
ĠB Ã¬nh
Ġ4 5
ĠTh Æ°á»£ng
ĠO K
ĠÄĲá» ĥ
ed ia
ĠGiá» Ŀ
hom as
ĠFranc is
w ard
Ġt áº§n
Ġm anh
Ġh ack
Ġd áº»o
ĠmÃł ng
ĠT hÃ
ĠN a
ĠS ch
ĠP há»
ol ly
Ġlá»ĩ ch
ĠPak istan
B ao
R Ãµ
e en
Ġ NhÆ°
Ġc áº¯p
ĠÄĳ áº¡n
Ġl áºŃn
Ġb ia
Ġtr eo
Ġtr Ã¢n
Ġd áº¡o
Ġd áº£i
Ġnháº §m
ĠC r
Ġváº¹ n
o k
v e
¥ ng
Ġc áº¯m
ĠÄĳ áº¡c
Ġv Ä©nh
Ġd á»įn
Ġlá» Ŀ
Ġlá» £n
ĠM a
Ġquy Ãªn
ĠH ig
al d
as h
ĠSt ev
tr ong
ich ard
Ġkáº¹ t
ĠbÆ¡ m
c k
y n
Ġl Æ°á»£t
Ġk iá»ĩt
Ġd e
ĠC Ã²n
ĠÄĳá»ģ n
ĠN á»
ĠH e
ĠL u
ĠD ar
ĠR e
ap t
ĠNg Ãłi
Ġtu Ã¢n
ri d
Ġbu Ã½t
B á»Ļ
p e
Ã Ģ
ĩ n
Ġv Ã©
Ġl áº¥p
Ġm ic
Ġb á»įc
Ġb áº¯p
á»Ļ p
Ġh uyá»ģn
Ġnh Ãłng
Ġkhi Ãªu
ĠH Ãłn
ĠH iá»ĩp
am i
ĠG PS
ic e
ĠE instein
Ġgen e
ĠThá» ©
Ġ201 0
Ġkáº¹ o
Ġkhuy nh
c om
l or
o x
r ist
Ġ amp
Ġm Ã²n
Ġh am
Ġd Å©ng
Ġvá» Ĺ
Ġtháº ¯c
Ġgi Ã£n
ĠC á»Ļng
ĠB áº£o
ĠA ngel
ĠP hÃ
ĠÃ Ģ
ĠÃ Ķi
ĠTá» «
B a
f t
o und
ĠÄĳ ai
ĠÄĳá» Ĺ
ĠÄĳá» £t
Ġx Ã¡m
Ġtá»± a
es ter
at ion
ĠchÃº c
ac c
ĠO b
Ġ7 5
ĠHai ti
ĠPháº £i
T Æ°Æ¡ng
r Ãºt
w in
Ġc Æ°Æ¡ng
Ġv ay
Ġl Å©ng
Ġm Æ°á»Ŀi
Ġtr Ãº
Ġg a
Ġr áºŃp
Ġná» ģ
ĠN e
ĠR áº¥t
el a
ĠO k
NhÃ ¢n
d i
ĭ nh
Ġn Ãªu
Ġm á»įc
Ġthá» ķ
Ġd á»Ł
Ġch Äĥn
ĠthÃ ©p
Ġmá» ıng
er n
Ġ2 3
ĠP aul
Å© i
ol d
ĠE l
uc k
Ġcá»± u
& #
1 0
R I
Ġv Æ°á»£ng
Ġd á»ĳc
ĠkhÃ ©o
Ġtháº ±ng
Ġqu i
ot t
ĠC Ã¡ch
ĠC Ã¡m
ĠK h
ĠL áº¡p
Ġngá» «a
or g
ep h
ĠHar v
k hÃ´ng
Ġn Ã¡t
Ġs Ã´i
Ġr áº½
Ġx Ã´i
Ġcháº £
ĠN A
uá» ³
en d
ĠK hÃ¡
Ġtho Ã¡i
ĠhÃ´ i
id e
ĠChar les
M áº·t
n ey
Ġn áº£n
Ġs t
Ġg Ã¡c
Ġchá» £
Ġgiá» įt
Ġho Ãłi
Ġmá» ī
ĠphÃ¡ c
ĠH áº£i
am in
ĠA t
ĠP r
it y
ĠNg há»ĩ
ĠAn d
Cá» ©
K h
Ġtr áºŃt
Ġg áº¡ch
Ġh ung
ĠmÃł y
en s
ĠP et
Ġháº¡ ch
ĠD er
Ġ19 4
ĠCh iáº¿n
ag o
Ġtháº§ m
Ġi Ph
L oáº¡i
N há»
P há»
Ġv ang
Ġb áº¥y
Ġng háº
Ġd á»Ļi
Ġx Äĥng
Ġngh iá»ĩt
Ġra d
Ġbá» Ĺng
ĠT á»±
ĠT alk
ar y
ĠbÃ¡ ch
ĠR á»ĵi
at es
Má» ¥c
ĠnÃ© n
ĠFran k
ĠxÃŃ u
b ert
l ad
Ġt iá»ħn
ĠÄĳ áº½
há» į
Ġv Ãµ
Ġm en
Ġm á»Ļng
Ġb Ã¬a
Ġtr á»Ļm
Ġch ua
Ġtrá» «u
Ġvá»¥ n
li e
Ġ200 7
Ġcá»ķ ng
ĠGeor ge
P M
n er
Ġv an
Ġm uá»ĳi
Ġg Å©i
Ġhá» ¥t
Ġx Ã©
Ġná» ¥
ĠC áºŃu
ĠM al
Ġph o
is h
ĠiPh one
H á»ĩ
P hÃ
T in
T ED
e an
´ n
ĠÄĳ Ãł
Ġl Æ¡
Ġl áº¯c
Ġtháº ³m
Ġx ÃŃch
ĠÄĳá»Ļ n
lo w
ip edia
Ġru á»ĵi
ĠMich ael
S á»ĳ
n há»¯ng
Ġ á»ĳc
Ġl Ãºa
Ã¡ u
Ġs Ãºc
Ġcá» ĳng
Ġqu áº·c
Ġgi áº·t
ĠhÃ ³c
ĠN ob
Ġ2 2
ĠA pp
ĠTr ans
Tr ung
im er
Ġso áº¡n
ĠNg h
ĠIn d
Qu Ã¡
H Ãłng
T Ãªn
T hÃ´ng
c el
t oc
Ġ á»ĳm
Ġm Æ°Æ¡i
Ġb Æ°á»Ľ
Ġb áº¥m
Ġr Å©
Ġth e
Ġx Æ°á»Łng
Ġx Æ°á»Ľng
Ġchá» £t
ĠT om
ĠT homas
ĠhÃ ©t
ĠtÃŃ m
at ch
ĠJ u
ĠÃ´ m
um b
Ġo f
ĠThÃ¡ nh
ĠOb ama
ĠHarv ard
B Ãªn
H Ã¬nh
n áº¿u
Ġ al
Ġ áº¿ch
á» ©c
Ġn Ã´
Ġm áº¿n
Ġm Æ°á»£n
Ġtr Ã¡ng
Ġng áº«m
Ġnh Æ°á»Ŀng
an ia
áº± n
ÃŃ t
Ã¹ m
Ġcháº ½
Ġ-- -
Ġkho Ã¡ng
ĠS ah
ĠD i
ĠJ os
ĠNg Ã¢n
ĠO h
Ġ9 9
th al
iv i
Ġru á»Ļt
K á»ĥ
p t
Ġc Æ°á»£c
Ġv Ã¡n
Ġl Ã¢n
Ġl Ã¡nh
Ġb áº©n
Ġtr Ã¡n
Ġh iáº¿p
ĠÄĳá» ĩ
ĠT or
Ġdá» Ĺ
in k
ĠC am
ĠnhÃł o
ĠN háº
ĠB ig
Ġquy áº¿n
ĠA dam
ĠbÃ¡ m
ĠR om
Ġnháº¡ t
ĠRob ert
ĠSm ith
ĠWik ipedia
ĠFrancis co
ĠAngel es
B Ãłi
S ao
c Ã´
e ah
u e
u k
Ġv áº¡ch
Ġv Ã²i
Ġs ho
ÄĲ iá»ĥm
ĠgÃ¬ n
is s
ic on
ĠF re
ĠO r
Ġ200 9
ber g
Ġlá»ģ u
Ġhack er
ĠNob el
. .
M ay
P A
m p
ĳ c
Ġl Ã¹ng
Ġs Ã´
ot a
Ġsáº ¯m
ĠchÃ ´n
Ġná» ĵng
ĠsÃ¡ o
Ġph un
Ġxu Ã¢n
or an
al i
ĠR ichard
Ġrá» Ĺng
hÃ¡ u
ĠmÃ£ nh
Ġxá» ī
ĠChá» §
az z
att an
ĠPar is
ĠKho a
ĠNA SA
toc in
d ro
i x
Ġc Ãłi
Ġl uá»¹
Ġnhá» ĩn
Ġlá» ĵng
Ġtháº¥ m
Ġmá» ķ
ĠL Ãł
ĠG ab
Ġ3 6
ĠNg Ãły
us h
Qu an
az on
Ġlog ic
Ġrad io
B á»ĳ
l en
t Ã´
t or
Ġth ung
Ġcháº ±m
hi a
ĠA lex
ĠG r
ĠW eb
ac e
Ġ200 5
Ġin ch
ud io
apt op
ĠSah ara
c a
c ri
e h
o ur
Ġs Ã©t
Ġtr iá»ĩt
Ġr Ã£
Ġr un
Ġcá» į
Ġvá» Ŀ
Ġth Æ°á»£ng
Ġx Äĥm
Ġlá» ¡
ĠC op
ĠM Ã¬nh
ĠN Äĥm
Ġvá»ĭ nh
ĠD an
ĠD Ã¢n
et h
Ġchá»į c
ĠHo Ãł
ro p
Ch iáº¿c
ĠNh Ä©
Ġhuy nh
ĠhÃ£ m
ĠBos ton
ĠDar win
b ur
m e
x in
Ġ oh
Ġt Ãª
Ġt ivi
Ġv Ã²
Ġl Äĥng
Ġl Ã©o
Ġm Ã³ng
Ġb Ã³c
ĠT iáº¿n
anh attan
ĠC Æ¡
ĠL eg
ĠG u
ra ham
Ch a
ag e
he imer
Ġi P
ĠDer ek
cri pt
A n
B áº£n
N háº
c ago
r ia
w ood
z heimer
Ġ áº©m
ĠÄĳ c
Ġl i
Ġl uá»ĵng
Ġvá» ©t
Ġqu áº¡
ĠÄĳÃ³ m
an t
Ġkhi Ãªm
ĠchÃ ¹
ĠC l
ĠM an
ĠM ad
ĠM anhattan
er ry
Ġtá»± u
Ġ2 7
ĠS Ä©
ĠR w
il icon
Ġchu Ã´ng
ĠkÃ¬ a
ĠAl zheimer
Ġlu i
Ġoxy tocin
To Ãłn
ĠGre en
ĠStev e
S D
T hÃ¡
j a
l ine
s s
v á»
Ġ Ã¡i
Ġt uá»·
Ġng áº©n
Ġchá» Ľp
Ġmá» ³
ĠC Ã¢u
Ġ2 6
ĠS e
ĠS y
ĠL ib
ĠÄĳo áº¡t
al a
ĠI I
ĠV en
ĠQ uá»¹
ĠW or
Ġnhiá»ħ u
ĠCar ol
ĠAm azon
ĠJam es
L áº¥y
g s
Ġn áº¿p
Ġl Æ°á»¡i
Ġl aptop
Ġb á»ĳc
Ġk m
Ġtháº ¯t
Ġx Ãł
ĠT iáº¿ng
Ġdá» ĭp
ĠH aw
ĠS ub
os ter
us s
Ġ6 00
Th iáº¿t
ri an
oc a
ĠChi cago
ĠvÃµ ng
ĠRw anda
e z
f i
m m
t há»
t it
Ġ 000
ĠÄĳ Ãºc
Ġk iÃªng
Ġng Æ°ng
Ġr on
Ġbá» ĵi
Ġho Ãłnh
Ġho Ã£n
ai r
Ġkho Äĥn
Æ°á»Ł i
ĠH ay
ĠS w
iá»ħ u
Ġngá» Ľ
ĠW al
Th Ãłnh
ĠSt an
ĠMar k
ĠMar tin
Ġ25 0
Ġ199 0
ĠMon t
A l
D á»
T Æ°á»Łng
p er
Ġ áº¥u
Ġc u
Ġc anh
Ġc ent
ĠÄĳ uá»ĳi
Ġv acc
Ġs á»į
Ġg áºŃy
ĠnÃł n
ĠT al
ĠnhÃ ³c
ĠC E
ĠC o
ĠM e
ĠA d
ĠS am
ĠP ark
ĠL at
ĠÄĳÃ´ la
ĠThá» Ŀi
Ġtuá» µ
Ġnan o
illi am
r ew
£ m
Ń ng
Ġt iá»ĩm
ĠÄĳ áºŃm
Ġg olf
Ġch Ãły
ot h
Ġbá» ĥ
ĠhÃ Ńt
Ġmá» ¡
ĠG al
im b
Ng há»ĩ
at han
Ġrá» ī
ĠE n
ĠháºŃ n
Ġhy dro
Äĳ Ã¢y
ĠNhÃ ¢n
ĠTá»ķ ng
rid ge
T Ã¬nh
l ick
o ft
t o
½ n
Ġv áº£
Ġv á»Ļi
Ġm á»ĳc
Ġb Äĥn
Ġng á»Ļt
Ġch uyá»ģn
Ġnhá» §
ĠÄĲ áº£ng
ĠS inh
ĠG ates
ĠD á»±
ĠD el
Ng he
Ng oÃłi
ur e
ĠghÃ ª
ĠU y
Ġhá»ķ ng
ĠnhÃ¡ nh
Ġngháº ½n
ĠApp le
ĠTrans cript
ĠSub tit
ĠSubtit les
m er
n y
Ġ on
ĠÄĳ iá»ģn
Ġl am
Ġb áº§y
Ġb áº©m
Ġg Ã£y
Ġg om
Ġgi áºŃt
em en
ĠA c
ĠV iá»ĩt
ĠJ on
ĠO x
re d
ian o
Bá» ĩnh
Ġquá» ·
ĠBro w
Ġmic ro
B áº¯t
L á»
T á»ĳt
l ar
Ġ Æ°Æ¡ng
Ġv áº¥t
Ġl á»į
Ġs Ãºp
Ġr á»Ļn
Ġd áº¡i
Ġgi en
Ġho an
ĠC oca
ĠgiÃ¡ p
ĠK oran
it t
us t
Ġ9 5
Ġ200 4
id a
Qu Ã½
ĠTim es
Phá» ¥
M ar
n a
s ter
Ã Ĥ
Ġ uy
Ġ or
Ń i
Ġm áº§m
Ġb áº»
Ġtr Ãºng
Ġth iÃªng
Ġnháº ¥p
Ġbá» ĵ
ĠT as
Ġdá» ĩt
ĠhÃ ´ng
in i
ĠB áº±ng
Ġ2 8
al e
Ġphi Ãªu
ĠJ ack
ĠF lor
ĠNÃ³ i
Ġ200 6
ĠÄĳá»ĳ m
Ġ201 1
ĠCháº ³ng
ĠNhÃ ¬n
N Æ¡i
O K
T Ã¡c
c ar
Æ ¯
Ġ Ãło
Ġt Ã¹ng
Ġv áº·t
Ġl á»Ļt
Ġs Æ°á»Ľng
Ġr áº¡p
ĠÄĳá» ¥ng
Ġnhá» ĭ
Ġqu e
ĠnÃ³ n
Ġx Ã¡ch
ĠT Æ°
in son
ĠM RI
en z
ĠK ing
es h
Ġphá»ĳ t
ĠJ e
ĠW illiam
ĠCh rist
Ġxo áº¯n
ĠSt ar
Tá» ķ
Ġxá» ©
Gi Ã¡o
ec t
Ngh Ä©a
Ġ196 0
ĠHá» £p
ĠGab by
ĠvÃ² m
C áº§n
D avid
Q ua
T ube
u el
Ġ uá»ĳn
Ń p
Ġv Æ°Æ¡ng
Ġr Ã¬a
Ġd áºŃp
ĠkhÃ ¹ng
ĠcÃ¡ p
Ġtá» ĭch
ong o
Ġkh an
ÄĲ áº¥y
Ġká» ģ
ĠB ur
ĠB ab
ĠK há»
ĠL Ã½
Ġ3 2
al ia
il e
Ġ19 5
Ġ6 5
ĠTh eo
Ġ200 3
ĠtÃ´ m
Ġ197 0
ĠPal est
B Æ°á»Ľc
D á»±
L oÃłi
c há»
g o
g er
k hi
v áºŃy
w e
Ġc lip
Ġb iáº¿m
Ġthá» ĳt
Ġtháº ¯n
Ġkh en
Ġcáº£ ng
in t
ĠC amb
ĠnhÃł m
ĠM y
ĠM ic
ĠM ac
en ry
ĠS im
ĠP háºŃt
ĠK ar
ĠG o
ĠG and
ĠD á»
ĠR io
ĠV an
ĠW hi
ĠW at
om b
ĠCh Ãł
ĠCh uyá»ĩn
Th Æ°á»Ŀng
th er
ig h
ig ami
Ġ12 0
ĠchÃ³ c
ow n
Ngh iÃªn
iz za
Ġa x
Ġvacc ine
Ġor igami
C hÃº
Ġ el
Ġl au
Ġb á»±c
Ġb Ãºa
Ġk em
Ġk áº½
Ġng Æ°
Ġp iano
Ġcá»§ ng
Ġcho Ã¡ng
ĠT uyá»ĩt
ĠnhÃ £
ÄĲ Æ¡n
ĠchÃŃ p
Ġkho ai
Ġká» ĩ
ĠN or
Ġtá»ĳ ng
ĠB Ãłi
ĠA h
Ġsá»Ń ng
ĠL ad
Ġá» §i
ĠÄĳo m
Ġtho Ã¡ng
Ng uyÃªn
ĠW ar
un t
ĠU g
ou th
Äĳ á»ĥ
han a
ĠZ e
ThÃ ªm
ĠÄĳá»ĩ m
ĠTas man
N Æ°á»Ľc
b a
l u
Ġt Äĥm
ĠÄĳ inh
Ġm Ã©p
Ġk áº¹p
Ġs Æ°á»Ŀn
Ġtr Ã¹m
Ġg áº¡t
Ġch Æ°á»Ľng
Ġta m
Ġx á»Ļn
ĠT es
Ġdá» ĵn
Ġmá» Ľ
ĠB ush
Ġph e
Ġph Æ¡i
ĠK Ã¬
ĠK im
Ġvá»ĭ t
Tr áº»
ĠmÃ´ t
Ġrá» ¡
ĠTh Ãłnh
ĠY emen
Giá» įng
ĠhÃ¡ i
ĠÄĲá» ı
ĠghÃ ©
ĠthÆ¡ m
tr on
Ġhu Ã½t
gh t
ĠYou Tube
ros oft
Ġst udio
mp ic
A R
C ola
K háº
M Ã¡y
c on
l ob
v an
á» Ľ
Ġt Ãºng
Ġt áº¡ng
Ġtr iá»ģu
Ġtr Ã¨o
Ġg ai
Ġh Ãłn
Ġd ai
Ġth iá»ģn
ĠC A
ĠM ay
ĠN Ãªn
ĠB á»ĳ
ĠS u
ar ah
Ġngá» ¥c
ĠG ia
Ġ3 000
ĠTr á»
ĠV iá»ĩc
Ġrá» Ĺi
il le
it z
ĠF ord
ly n
ib an
Ġdá»ĭ u
ĠPháº §n
ĠHig gs
ĠbÆ°á»Ľ m
ĠWor ld
ĠOx ford
ĠUg anda
d y
k g
ª nh
Ġ Ã¢u
ĭ t
Ġt áº©y
Ġn ÃŃ
Ġm Æ°u
Ġr Ã¢u
Ġr Ã¨n
Ġta ng
Ġgi eo
ot le
ĠnhÃ ©t
ĠC ongo
Ġháº »
ĠM ah
ĠN L
ĠN an
ĠB u
Ġkháº ©n
Ġph iáº¿n
ĠL ED
Ġtrá»į n
ĠG en
ĠG hana
Ġ3 3
Tr á»Ł
Ġ19 50
ÄĲá» ©a
ed a
Äĳ iá»ģu
Gi áº£
Nhá» Ŀ
ĠLeg o
ĠSy ria
ĠCamb ridge
5 00
o ot
t hÃ
Ġ am
į n
Ġv áº§n
Ġb Ã³n
Ġs c
Ġg h
Ġh Æ°ng
Ġd Ãª
Ġd áº¹p
ĠÄĳá» ¥c
Ġcá» ĵn
Ġvá» įt
an e
ĠT uy
ĠT á»ĳt
on ald
ĠhÃ ¢m
ĠC y
Ġtrá» ħ
ĠN Ãło
er o
ĠA p
Ġdo l
ar i
ĠP er
Ġngá» ¥
Ġngá» «
Ġvi Ãªm
et ro
at i
it ch
ĠW all
ĠE ric
ĠCh Ãło
ow er
ĠBr ook
Ġsho w
rop y
S te
T iáº¿ng
l Ãł
o áº¡n
s au
z e
¥ i
Ġ Æ°á»Ľt
ĭ a
ĠÄĳ Ã²n
Ġv áº¡n
Ġl Ãª
Ġb anh
Ġb á»Ļc
áº¿ m
Ġp izza
áº¥ ng
ĠcÃ³ c
Ġch ay
Ġch iÃªm
á»ĳ p
Ġx ay
ĠthÃ ¨
Ġngh iÃªng
ch o
ÄĲ Æ°á»Ŀng
Ġphá» ĵng
ĠM and
eo p
Ġtrá» «ng
ĠA s
ĠP l
ĠL ester
or a
ĠV ir
ĠJ im
as er
ĠO ly
ĠHo Ãłng
ri ght
Ch Æ°a
ĠYou t
Ġj azz
ander thal
ĠNe anderthal
ĠPet er
ĠStan ford
ĠMic rosoft
B Ã¡c
M T
e f
f e
m on
v en
´ i
Ġ áº¥p
Ġ ac
ĠÄĳ Ã¨
ĠÄĳ áº¯m
Ġn uá»ĳt
Ġv áº¯ng
Ġv áº©n
Ġl Ã´
Ġb uá»ĵng
Ġs er
Ġr á»ĳt
Ġp ound
Ġd Æ¡i
Ġnh a
Ġnh i
Ġvá» Ľ
Ġnhá» Ļ
Ġqu áºŃn
Ġbá» ĵn
ĠT ex
ĠT ony
ĠC hÃ¡u
ĠphÃ¡ o
ĠM Ãł
ĠM Ã¡y
er e
ĠH enry
Ã© n
Ġqua d
ĠS hi
ĠS ing
ĠL uáºŃt
Ġngá» £i
Ġngá» Ńi
ĠTr Ãªn
Ġbá»ı ng
Ġ200 1
ĠÃ´ tÃ´
th ur
op h
ard o
ĠX Ã´
ak e
ul in
yl v
ĠâĢ Ķ
ĠSc ot
ĠJo e
ĠPhÃ ²ng
ĠFlor ida
á»Ľ c
ĠYout ube
ĠTex as
1 2
B M
B an
e nh
h ua
m y
t en
Ġ ent
á» «
Ġn Ã¢u
Ġl ay
Ġb Æ°u
Ġb áº«y
Ġk Ã¬m
Ġng Ã¢y
Ġd Æ°a
Æ°á»£ m
Ġx áº£o
ĠnhÃ ´
ĠB on
ĠH ans
ĠP at
ĠTr Æ°á»Ľc
ĠbÃ¡ t
Ng Æ°á»£c
at a
Ġ... .
ĠHo ward
ĠU n
ag en
ĠÃĤ m
Ġtháº¡ o
ani el
Ná» ģn
ĠCE O
Ġon line
ÃĤ m
Æ¯ á»Ľc
ĠthÃ¨ m
Ġent ropy
1 8
2 00
4 0
M Ãłu
k ins
s ulin
¡ c
Ġt áº£o
Ġc ay
Ġn áº¡p
Ġb áº¿n
Ġb áº©y
Ġr á»±c
Ġd Ã¢ng
Ġch iÃªn
Ġth en
Ġth iáº¿p
Ã¬ u
Ġta o
Ġx Ã¡
Ġx áº¿
Ġpháº ¿
ch ia
ĠT an
ÄĲ a
ĠN ord
ĠÄĲ Ã´i
ĠÄĲ áº¡o
ĠS áº½
or y
Ġvi rÃºt
Ġkhu áº¥t
ĠV Ã´
ĠJ er
ol e
ĠW olf
Ġ8 5
Chá» ĭ
Gi Ã¡
ĠBr on
ĠSh ak
ĠxoÃ¡ y
ĠVá» ĭnh
Ġ198 0
ĠBá» ĩnh
ĠAb raham
olly wood
ĠchÃ¹ m
ĠTal iban
ĠOly mpic
1 9
J ohn
n es
r ap
s e
y an
Ġ uá»·
Ġ op
Ġc á»Ļ
Ġng Æ°Æ¡i
Ġg ay
Ġd iá»ģu
Ġth uá»³
Ġnhá» ĵi
Ġx áº£
Ġkh iáº¿u
Ġngh iá»ģn
ÄĲ á»Ļt
ÄĲ á»ĵng
ĠM u
em p
ĠB ay
ĠB ol
ĠÄĲ a
ĠS outh
ĠK y
Ġ3 1
ĠR ock
ĠV Æ°Æ¡ng
ĠV Äĥn
Ġ20 50
ro g
Chá» §
ag h
Ġnhu á»Ļm
ĠPhÃ¡ t
Ġlu Ã¢n
ĠRos ling
ĠBrow n
ĠnÃŃ n
Ġdol lar
Ġnhá»Ļ n
1 5
C H
E C
b á»Łi
d a
d en
g in
Ã ģ
Ġ Ã¢n
Ġt w
Ġl áºŃu
Ġm á»įt
Ġs Ã¹ng
Ġtr inh
Ġtr á»Ļi
Ġng á»Ļ
Ġg á»Ļp
Ġtháº ¯p
Ġx Ã´
Ġx en
Ġkh Äĥng
ĠT ur
on a
ĠhÃ ©
ĠhÃ ¢n
in o
ĠC Ã¹ng
ĠC ap
ĠM or
ĠM el
ĠM áº¡ch
ĠB rian
ĠH er
ĠÄĲ Ã£
ĠA v
ĠS i
ar th
ĠL Ãºc
ĠD e
el son
Ġso i
Ġ7 00
Ch ar
ev er
ĠAr ist
Ġbá»ķ ng
ĠGiá» Ľi
ĠbÃ³ p
ark et
Ph Æ°Æ¡ng
ĠBl ack
urg er
ĠMá» Ĺi
ĠNá» ¯
Ġcu áº£
ĠLat in
ĠNord en
V áº«n
r ut
s ton
¹ n
á» ·
Ġc ai
Ġn áº¿m
Ġl á»Ļi
Ġl aser
Ġl Æ°á»£m
Ġm ar
Ġb áº¿
Ġk eo
Ġs áº¿p
Ġs Ã³i
Ġtr Ãªu
Ġng Ã´
Ġg áºŃp
Ġr ay
Ġr ia
Ġnh Äĥn
Ġkh e
ĠT hÃ´ng
Ġdá» ¡
Ġháº £
Ġsá» ıi
ĠM il
Ġkho Ã¡n
ĠB al
Ġ2 9
ĠÄĲ an
ĠÄĲ á»ĵng
ĠA ir
ĠS er
ĠG ore
ĠD V
ĠD a
ĠD etro
al and
ĠR ay
et on
Ġ5 5
is on
ol l
ĠW il
ĠF or
ĠE ur
ĠNg he
Ġchi p
ĠHo áº·c
li an
Ġ8 00
re et
Ġin sulin
ĠGi Ã¡ng
ev in
vá» Ľi
lob al
Ġháº» o
ĠScot land
ĠArist otle
ĠDetro it
A M
C Ã¡
N Ã£o
b Ã¢y
c Ã¡c
k el
m ad
r á»ĵi
§ y
Ġt ua
Ġc áº©u
Ġn e
Ġn it
Ġv áº·n
Ġv áº«y
Ġl Æ°á»£n
Ġs áº£nh
Ġtr Æ°Æ¡ng
Ġthá» ģ
Ġr áº£i
Ġd ang
ĠkhÃ ©p
ĠkhÃ ¢u
Ã¢ t
Ġbá» Ľi
ĠT Ã¬nh
ĠM os
ĠM ill
Ġkho ang
ĠH ill
ĠA ri
Ġkhá» ĳn
ĠS al
ĠL ong
es pe
ĠV ÃŃ
ĠV ic
at ar
Ġrá» ķ
ap ore
ĠO s
Th Æ°a
ĠhÃ¡ n
ĠSt reet
ĠU SD
av e
ĠGi ai
ĠGi áº£i
ian a
ans as
sh a
ones ia
ĠbÃ¹ n
ĠInd onesia
bur gh
ĠCy rus
ĠMand ela
ĠBron x
arket ing
8 0
B C
C hi
S h
b á»ĳt
d o
g ar
h ay
i es
k e
n ia
t an
u x
Ġt Æ¡
ĠÄĳ Ãłng
Ġn Ã£y
Ġn áº¯p
Ġl Ã¡ch
Ġng Æ¡i
Ġng áº¯t
Ġg iáº¿ng
ĠvÃł n
Ġr áº·ng
Ġd ev
ĠÄĳá» įng
Ġtá» ¥t
Ġx i
Ġx Ãłi
Ġchá» ĳn
ot o
ĠT it
Ãº m
ÄĲ i
ĠC D
ĠH Ã´m
ĠH á»ĩ
ĠÄĲ i
ĠÄĲ áº¿
en ce
Ġkhá» ĳc
ĠS om
ĠK áº¿t
ĠG old
ĠD is
ĠR o
Ġmáº¹ o
oo p
Ġcháº· ng
ĠPh Æ°Æ¡ng
ĠbÃª nh
ĠphÃ´ i
cel and
ĠPalest ine
ĠWat son
ĠLad en
ĠVir gin
ĠShak espe
B I
C C
H áº¯n
P T
c ol
e ar
i um
j o
ī a
Ġt Æ°á»Ľc
Ġt áº¡c
ĠÄĳ an
Ġn áº¡
Ġn uá»ĳi
Ġv Ã¡ch
Ġl iÃªng
Ġm i
Ġm uÃ´n
Ġm il
Ġm arketing
Ġs p
Ġng Ãło
Ġh Äĥng
Ġh Ãłu
Ġr Ã²
ĠÄĳá» ©t
Ġnh Æ°á»£c
qu e
Ġqu áº¡t
Ġx Æ¡
Ġkh iáº¿t
ĠÄĳÃ£ i
ĠthÃ ª
á»į ng
ĠT ed
Ġlá» ©a
Ġlá» Ńng
ĠM at
ĠM ur
ĠB áº¯t
Ġlo a
er on
ĠÄĳá»ĵ n
ĠÄĲ áº§u
ĠÄĲ iá»ĩn
Ġbá»Ļ i
ĠP ro
ĠK n
il et
ĠE ver
ĠCh iáº¿c
ĠÄĲá» ĭa
ag os
ĠQu an
iv ers
ph a
Ġquá» µ
Ġlog o
ĠLá» Ľn
Ok ay
ThÃ¡ ng
ĠCarol ina
ĠMont ana
ĠZe aland
Ġtw eet
ĠDV D
ĠVic tor
I n
K hÃ
M A
S W
h h
h ai
o int
s i
s k
v ille
¥ a
Ġ +
Ġt Ã¡t
Ġc al
Ġc lick
ĠÄĳ un
Ġv Ã¡y
Ġl áº¥n
Ġl en
Ġb on
Ġk il
Ġs uá»ĳi
Ġh iáº¿u
Ġd Ã¢u
ĠcÃ¡ n
Ġhá» Ł
Ġtá» Ľ
Ġqu Äĥng
ot on
an th
ĠT am
Ġkhi nh
Ġdá» Ŀi
ÄĲ iá»ĩn
ÄĲ áº·c
Ġto a
Ġto ilet
ĠB áº¥t
ĠH ollywood
am ine
ĠÄĲ Ã´
Ġkhá» Ń
ĠS á»©c
ĠS ilicon
Ġá» ª
Ġá» ıi
Ġ3 7
Ġngo áº¡n
ĠD r
Tr Ã¡i
ĠI r
ĠV al
Ġ4 6
Ġrá» ĩt
Ġchu i
Ġchu á»Ļng
ol lo
ĠE t
om e
ĠY o
Ġ200 2
ĠSt ew
Qu ay
ĠCháº ¯c
igh t
Ġel ec
thÃ ¬
Ġsc an
Ġdev il
ĠShakespe are
2 5
B ill
H y
J o
R áº±ng
V áºŃt
X em
b o
d in
e ch
e at
h ar
m i
n i
n ie
r in
y e
Ġ Æ¡
Ġ Ãªm
Ġc áº¯n
Ġc ua
Ġch uá»ĳi
Ġgi Ãłn
ÄĲ oáº¡n
Ġná» ©t
ĠC áº£
ĠM á»Ļc
hi c
ĠN Æ°á»Ľc
ar on
ĠP op
ĠD en
Ġnháº¡ o
ĠI BM
ĠI celand
ĠF er
Ġ19 30
om p
ew is
ĠNew ton
Ġngá»§ i
Ġ199 9
yl on
ĠAm y
ĠnhÃ¡ t
ĠTo Ãłn
ĠiP ad
ĠDel hi
ĠGand hi
Ġelec tron
B J
K iá»ĥu
P hi
T ÃŃnh
a j
g iá»
p i
s o
u i
v es
¥ y
Ġ Ã´i
ħ n
ĠÄĳ áº¡m
Ġn á»Ļp
Ġv Æ°á»Ľng
Ġl Ã³t
Ġl á»įt
Ġb ar
Ġb á»įt
Ġk iá»ģm
Ġtr Ã³i
Ġng áº£
Ġthá» ĳn
Ġcá» įc
Ġnháº ¥c
ĠT in
Ġdá» ĵi
Ġsá» ©a
ĠM er
ĠM ag
ĠN Æ¡i
ĠB i
ĠB Ã¡c
ĠS and
ĠK u
ĠL au
ĠL ar
Ġá» «
ĠD on
Tr Ã´ng
os e
ĠR ed
el and
ĠVÃł o
Ġchá»į i
ĠJ ac
it s
ol y
ĠW right
ĠF ri
Ġcháº¡ p
Ġ19 00
ĠTh ay
Ch Ãł
Ġca fe
Ho Ãłn
iv e
ec k
ĠSc ott
Kho a
ĠAt lan
ĠSing apore
ĠWolf ram
A r
C L
C ar
C á»Ļng
H á»
T á»±
T uyá»ĩt
W K
a f
a eda
b urg
i j
l as
n Ãªn
n ik
¨ n
Ã įt
Ã Ķi
Ġ Â
Ġt áº»
ng Æ°á»Ŀi
Ġc áº¡o
Ġc Æ°á»¡i
Ġc áº±n
ĠÄĳ ÃŃnh
Ġn hÃº
Ġn áº¿n
Ġn áº·c
Ġv Ã£
Ġb in
Ġs Æ°á»Łi
Ġtr e
Ġtr Ãłng
Ġg Äĥng
ĠvÃł nh
Ġh a
Ġthá» ı
Ġthá» «ng
Ġr ong
Ġd Ãło
Ġcá» Ľ
Ġqu áº©n
Ġx á»ĳp
ĠT ay
ĠT áº¡o
Ġho i
Ġcháº Ńt
ĠC áº§u
Æ°Æ¡ c
Ġsá» Ŀ
ĠM ike
ĠM iss
ĠN elson
ĠB ob
ĠB ud
ĠH an
ĠH Ãłnh
am es
ĠS k
ĠS á»ĳ
Ġph Ãłn
ĠL o
ĠL in
ĠL ou
Ġá» §
ĠG Ã´
ĠD Ã¹
Há»į c
el d
at o
Ġrá» Ľt
ĠW e
ĠW i
ho p
ĠphÃŃ ch
ro w
op ia
ĠÄĳá»ĳ n
ĠThá» ĳng
ĠNh iá»ģu
Ġo k
ĠChá» ĭ
ĠQu Ã¢n
ĠAr g
ĠZ imb
Ġ201 2
ĠChi le
Ġngu á»Ļi
ĠCol umb
Ngh Ä©
ThÃ ¬
ĠChar lie
ĠLe on
ation al
ĠAnd rew
ĠTan z
ĠVirgin ia
B A
D Æ°á»Ŀng
G lobal
S Ã¡u
c á»
k m
m o
m ar
t áº¥t
u it
w ell
y d
³ t
Ġ Ã´n
Ġ áº¯c
Ġ enz
Ġt iá»ĩt
Ġc Æ°a
Ġm Ã´ng
Ġb Ã¬
Ġtr Ã¡
Ġg áº¯t
Ġh ao
Ġp op
Ġth iÃªu
Ġnhá» ĳt
Ġx áº¥p
Ġchá» ĳc
Ġlá» ¥a
uyá» ħn
ÄĲ Æ°Æ¡ng
ĠC lin
Ġphá» Ľt
Ġkho Ã¡c
Ġtrá» ĩ
ĠN o
ĠtÃŃ t
er ing
er yl
ĠH am
am e
ĠL ak
or s
Tr Æ°á»Ŀng
ĠR am
ĠR and
Ng Ã´n
Ġkhu áº¿ch
ĠV áº¥n
Ġ4 8
ho áº·c
ter s
ĠNg Ã´i
Thá» īnh
ĠTh iáº¿t
li z
oi d
re y
Ch ris
ĠAl bert
ĠAl pha
ul ia
ent ina
ĠAr thur
ĠAm er
Ġ198 4
ĠnhÃ¡ y
ind a
ĠAlex ander
ĠJe ff
chá» ī
Ġax it
Ġgh en
ĠBrook lyn
Ãģ nh
1 00
C A
G eo
G ia
K inh
S t
V Å©
b um
g i
l ash
w ay
Ġt uá»Ļc
ĠÄĳ iáº¿u
Ġn hÃºng
há» ĭ
hÃ £y
Ġv Ã¹i
Ġl iÃªu
Ġl Ã©n
Ġm Ã©o
Ġb uá»ĵ
Ġk iá»ģu
Ġng áº¡o
Ġng á»įc
Ġg o
Ġg áº¡o
Ġr Ã¬u
Ġp oster
Ġd Æ°ng
Ġd áº³ng
Ġvá» ±ng
Ġnhá» ¥c
Ġtháº £y
iá»ģ ng
Ġbá» ī
Ġbá» Ŀi
Ġmá» ĭ
ĠC as
ĠM att
ĠB ot
ĠB ao
ĠH u
ĠÄĲ á»Ļng
ĠA us
ĠgiÃ¡ ng
Ġdo p
Ġph anh
ĠK i
ĠK at
ĠL ang
ĠL ee
os t
el p
et ti
Ġnháº¡ i
ĠI g
ic an
ĠJ ord
Ġ20 30
us e
ĠY eah
ra b
ĠTED Global
Ġgá» Ľm
ĠhÃ¡ o
Vá» Ĺ
ard y
ab eth
Cháº ¥t
Qu áº£
ul l
if f
ĠQu áº£ng
Ġtá»¥ ng
ĠmÃ¬ n
ain e
ĠMo ore
ier ra
ĠThÃ ´i
ĠPhá» ¥
ĠHig h
ĠKhÃ¡ n
ĠNgh iÃªn
ĠiP od
ĠVen ice
ĠHaw ai
ĠPark inson
enh agen
ĠDis ney
ĠTanz ania
liz abeth
Ġbuá»ĵ m
D an
D Æ°á»Ľi
F G
M Ã¹a
R A
S p
S á»©c
T hÃº
e as
f a
o ol
r r
t amin
u áº§n
z ler
ĩ ch
Ġc Ãłnh
ĠÄ ĥ
ĠÄĳ áº·n
Ġn á»Ļ
há» ģ
Ġv áº¯t
Ġv en
Ġl Ã¡ng
Ġm u
Ġm Ã¡c
Ġm et
Ġb l
Ġb á»±
Ġk g
Ġg l
Ġvá» īa
Ġch iáº¿t
Ġch inh
Ġnhá» ©c
Ġnhá» įn
Ġtháº ¹n
Ġcá»§ i
Ġtá» Ł
Ġqu áº§y
Ġpháº £
Ġcho Ãłng
ĠT Ãłi
ĠT el
Ġlá» ¥t
Ġho n
ÄĲ á»Ļng
Ġná» Ľi
ĠC N
ĠC Å©ng
ĠchÃŃ ch
ĠM as
ĠN ick
ĠH iá»ĩn
ĠA g
ĠP ower
ĠK al
ĠK ÃŃnh
ĠG il
ĠTr áº¯ng
ĠD ou
Å© a
al em
Ġvi tamin
el ly
et er
Ġ4 4
ic s
ĠJ ill
il y
ĠF ar
ĠNg ay
us alem
ĠPhi l
op s
az e
Gi áº£i
ĠTo Ãł
ĠCol omb
ĠMo z
ĠTháº §n
ĠBos nia
ĠGeor g
uck s
Ġal bum
ĠCop enhagen
ĠTes zler
Kháº £
ĠJer usalem
Ġop era
ĠArg entina
ĠClin ton
Ġdop amine
C Ãłng
I A
J H
L áº¡i
L iÃªn
L á»Ŀi
M ich
O h
S á»Ń
k en
l Ãłm
n ed
s c
s y
Ġ ah
áº ³n
Ġc Ãło
ĠÄĳ áº§m
ĠÄĳ Æ°Æ¡c
Ġn á»±c
Ġn áº¥c
Ġl Æ°á»Ŀi
Ġl Ãºng
Ġm an
Ġs Æ°Æ¡ng
Ġs ilicon
Ġh uá»³
Ġthá» ĳi
Ġr Ã¹a
Ġd iá»ħu
Ġta xi
ĠT emp
ĠchÃ ªnh
ÄĲ Ã¡ng
Ġto áº¡
ĠM i
ĠM in
Ġkho e
hi di
hi opia
ĠB Äĥng
ĠB ir
ĠB ell
er om
ĠÄĲ áº¿n
en a
ĠA R
ĠP ort
ĠL ine
Ġvi ol
el low
is a
ĠJ enn
ĠJ ones
ol n
ĠW ow
Ġ19 3
ĠPhi lad
ĠCh a
ĠkÃ© p
ĠHo Ã¡
re g
Ch iáº¿n
Ch Æ°Æ¡ng
Ch Ãło
ĠU á»·
ĠX em
Má» Ľi
ĠGi Ã¡
ib eria
ĠCar l
ĠCar n
ĠJohn ny
ThÃ Ń
ky o
ham mad
der son
ĠMá» ¥c
inc oln
ĠThÃ ¬
ĠLu Ã¢n
ĠJos hua
ĠBab ylon
ylv ia
PT CH
ĠStew art
ĠColumb ia
1 3
7 0
P hÃ¡
R ob
S Ã¡ng
T Ã³m
b le
m en
r ay
w ich
Ġ áº£
Ġ ao
áº ¤n
Ġc Ãºi
ĠÄĳ áº¯ng
Ġl ung
Ġk iáº¿p
nh Æ°
áº¡ y
Ġg Ã¡n
Ġg áº§y
Ġg á»ĳm
Ġr áº£nh
Ġd áº¡n
Ġtháº £n
ĠnÃ³ c
Ġx áº»
Ġchá» ķ
ĠmÃł i
ch er
ĠT er
ĠM ov
ĠN ep
ĠH Ã¬nh
ĠH ung
ĠH Ãłng
ĠH ir
ĠS á»Ń
ĠS ky
ĠS ierra
Ġph iá»ĩn
Ġph erom
ĠP au
ĠP ri
ĠK han
Ġá» Ľt
Ġ3 8
Ġ3 50
Ġngo áº·t
Ġxu Ã´i
ĠD u
ĠD aniel
ĠbÃ¡ u
el lo
ĠI t
il a
ĠW est
ĠW alk
ĠF ort
ĠE v
ac y
ĠTh uáºŃt
ĠO p
ur t
Ġ8 6
Ġgá» ¥c
th ay
ĠgÃ³ t
Ġsu Ã½t
ĠThá» §
ul u
if er
ĠAn derson
ut an
ĠVá» ģ
Ġ13 0
ĠGiá» ĳng
ĠCá» ¥c
ĠCá» ©u
ath er
ĠLe one
Ġmá»ī a
ĠJos eph
Nháº ¡c
Ġac id
EC D
ĠVictor ia
ĠEt hiopia
ĠZimb ab
ĠHawai i
Ġhuá»³ nh
PTCH A
B á»įn
C uá»ĳn
C Äĥn
H Ãłnh
M Ã´
M áº¥y
M á»ĳi
M ark
O L
P aul
Q uy
T iáº¿n
T uá»ķi
g rap
m art
o ff
r ge
u le
v ÃŃt
Ä ĳi
Ġ z
Ġ Æ°Æ¡i
ħ u
á» «ng
Ġt áº¡
Ġc Ã´i
Ġc Ãºng
Ġc Äĥm
ĠÄĳ Æ°á»Ŀi
ĠÄĳ iá»ĥu
Ġv iá»ģn
Ġs á»Ļ
Ġs áº¥u
Ġng Ã¢m
Ġng uá»µ
Ġh en
Ġthá» ī
Ġr á»ĵng
Ġr ock
Ġch Ãł
Ġhá» ©c
Ġqu áº¥n
Ġgi áº§y
Ġx Ã¬
Ġx Ãło
Ġhá»į ng
ot ter
Ġbá» ĩ
ĠT Æ°Æ¡ng
ĠT Ã¬m
on to
Ġcháº £o
ĠchÃ ©o
ĠnhÃ Ń
ĠC Ã¡
ĠC ity
Æ°Æ¡ m
Ġbá»ĭ t
ĠM T
ĠB h
er son
ĠH av
ĠÄĲ Ãło
ĠS he
ĠS iberia
ĠmÃ¡ nh
ĠL incoln
ĠG od
Ġvi rut
ĠbÃ© n
Ġ4 2
ĠQ atar
ĠJ ay
ĠJ es
ĠJ ane
ĠJ ulia
ap agos
ĠE x
ĠNg há»ĭ
Ġtá»ī a
ĠlÃ£ i
ĠO ECD
Ġ7 2
Ġ9 6
oo h
ri b
ĠNew s
ĠÄĲá» ĭnh
Ġcá»Ń u
ig an
Äĳ Æ°á»£c
Ġxá» ķ
Ġo xi
ul a
ub a
ĠQu Ã¡
ut nik
NhÃ ³m
Ġ14 0
ĠEm ma
enn is
ĠTo Ã¡n
ĠTo kyo
ĠBer kel
Ġe ur
ĠBro ad
up er
ĠPhá» ¥c
Ġmá»ī m
lad esh
ĠGreen land
thá» ±c
ĠGal apagos
ĠStar b
ĠSim on
ĠNor th
ĠTasman ian
ĠMay a
ĠMu hammad
sha hidi
ĠSom alia
Geo rge
elp hia
Ġtá»Ł m
aze era
ĠPhilad elphia
ĠZimbab we
ĠBerkel ey
A dam
D onald
H á»ĵi
O X
S o
T áº¿
b or
i h
j amin
t Ã´ng
t háºŃt
v Ãło
w en
¹ o
Ġ =
Ġ ion
Ĥ n
Ġt Ã½
Ġt Ã²i
Ġc m
Ġc Æ°ng
Ġc Ãły
ĠÄĳ iáº¿c
Ġv áº§y
Ġm áº§u
Ġm á»Ļc
Ġng á»±
Ġg as
Ġh amb
Ġr áºŃm
Ġd Ã¬
ĠÄĳá» ±
ĠÄĳá» Ĺi
Ġnh am
Æ¡ c
Ġqu áº¥y
Ġx Ã¡o
Ġx Ã³t
Ġgiá» ¥c
ĠT Ã¢m
Ġho r
Ã¹ n
ai t
ÄĲ áº¡i
ĠC amp
ĠM au
ĠsÃ¡ p
ĠN et
ĠN ike
ĠB á»ĵ
ĠB ali
ĠÄĲ á»ĵ
ĠS us
ĠS un
ĠS ud
ĠS arah
ĠP enn
ĠK am
ĠL aw
ĠL oáº¡i
ĠL ewis
ĠG h
ĠTr iá»ģu
ĠTr áº»
ĠD ub
ĠR on
Ġ5 000
ĠV i
ĠJ eop
ĠJ azeera
ĠÃ Ķ
as ka
it i
ĠF OX
ĠE arth
Ġ19 2
ĠNg oáº¡i
ad e
ĠTh Æ°Æ¡ng
ob i
ur on
un e
Ġxo a
ĠSt eph
op a
ĠX anh
av a
Ġxá» ĭt
ĠchÃ³ p
Ġ18 0
Ġ18 5
Ġhi p
eg ie
Ġ16 0
ĠKen ned
ph one
Cá» ¥
ĠMc C
ĠSp utnik
ren ce
ĠBang ladesh
ĠLu ther
Kh u
ĠbÆ°á»Ľ u
thal ate
ĠrÃ£ nh
ĠWhi t
ĠAtlan ta
ĠLeon ardo
ĠÄĥ ng
ĠColomb ia
ĠCarn egie
ĠStarb ucks
ĠSteph en
ĠKenned y
9 9
C á»ĳ
C hÃ¡u
D A
D Ã¢n
D á»±a
E A
K há»
M S
N C
S S
T áº¥m
b ie
h a
l ay
l em
m ed
r ick
s hi
t t
t im
z Æ¡
Ġt est
ĠÄĳ áº¯p
Ġn a
Ġv Ã´i
Ġv Ã¡c
Ġl áº§y
Ġb Ã´i
Ġb áº§m
Ġs and
Ġtr iá»ħn
Ġthá» §ng
Ġr Ãł
Ġp oly
Ġd uyÃªn
Ġgi un
Ġx Ã¢u
Ġx áº¯n
Ġchá» ĵn
ĠT áº¡ng
Ġcháº £i
ĠchÃ ©n
ÄĲ Ãłn
in burgh
ĠM inh
em ber
Ġtrá» Ľ
Ġtrá» Ĺi
ĠB el
ĠB as
ĠB ert
ĠH a
ĠH ad
am as
ĠÄĲ Ã´n
Ġkhá» ĳng
ĠS iÃªu
Ġy eah
ĠP ol
ĠK hÃ
ĠK evin
ĠK elly
ĠquÃ¡ ng
ĠG ran
al y
ĠR obot
ĠR og
et te
Ng uá»ĵn
Ġ5 8
ĠV áºŃt
il d
ol as
om en
ĠTh Æ°a
ĠPhi lip
Ġ7 4
Ġghi m
op atch
ĠAl ice
ĠchÃ³ i
ĠBr it
ell er
Ġtá»¥ i
Ġ199 6
Ġ199 8
att le
ĠÃģ o
ph ere
Ġhá»ĳ c
ĠCá» ©
ĠBá» ©c
ĠMich igan
ĠEd inburgh
ĠTor onto
ĠCop ern
ĠHaw k
Tá»ķ ng
ĠTasman ia
ĠNan opatch
ĠAp ollo
ĠnhÃ´ m
ĠEver est
ĠLak ota
ĠHung ary
grap hic
ih ad
Ġhamb urger
9 0
B en
H áº³n
J os
K iáº¿n
N G
O PA
Q uyá»ģn
S C
S uy
T S
a x
c y
e on
n Ã´
o z
p u
t háº¿
z ona
Ġ áºŃp
Ġ ooh
Ġt á»Ļt
ĠÄĳ áº¯c
Ġn o
Ġn Ã¡o
Ġv e
Ġv Ã¡
Ġv Å©ng
Ġv iá»ĩt
Ġl áº«y
Ġb Ãłnh
Ġb Ãłng
Ġs áºŃp
Ġng Æ°á»Ľc
Ġng áº·t
Ġng uyá»ĩt
Ġg el
Ġg áºŃt
Ġg iá»ģng
Ġg há»ģ
Ġh el
Ġd áº¥n
Ġnh Æ°á»£ng
Ġra p
ĠphÃ ´ng
ĠT áº¿
ai g
ai ro
Ġcháº ±ng
in n
Ġná» ĵi
ĠC or
ĠM ap
em an
ĠN Ã´
ĠN air
ĠN ational
ĠB á»ĳn
ĠB oy
ĠH ol
ĠS ol
ĠS ad
ĠS Ã¡u
ĠS uper
ia l
ĠK r
ĠK ansas
ĠL ai
ĠL áº¡t
ĠL eb
ĠL uc
ĠTr uyá»ģn
ĠbÃ¡ ng
ĠR es
ĠR oy
Ng Ãłnh
Ġkhu áº¥y
ĠI M
Ġ5 2
ĠV iáº¿t
ĠE S
ĠO ak
ur a
Ġ9 8
un k
Vá» ĭ
ĠU shahidi
oc r
ĠGi Ã¡m
Ġo x
Ġf an
Ġf or
ĠCon n
ĠAn as
ĠQu ay
ĠQu Ã½
Ġáº¢ o
Ġ199 5
ĠJohn son
ĠBer n
Ġkhuy a
ĠEd ward
inc eton
ĠPr inceton
umb ai
ĠCam eron
ĠNháº ¥t
oster one
ĠJack son
ĠTrá» ĭ
oph er
ĠAri zona
giá» Ŀ
Mich ael
ĠTemp est
ĠMov ember
ĠNep al
ĠSud an
ĠJeop ardy
1 4
A K
B iá»ĥu
E instein
H C
H iá»ĥn
K áº¿
R W
S uá»ĳt
T á»ĳi
T uáº§n
b ao
c t
c Å©ng
c ent
e ith
f ur
i el
k r
m Ã´n
p háº
r Ã´
v is
z z
± n
Ġ áº§m
Ġ et
Ġ amin
Ġ Æ¯á»Ľc
Ġt áº£n
Ġt áº·c
Ġt Æ°á»Ľi
Ġc Ã²i
Ġc áº©m
ĠÄĳ Ãª
ĠÄĳ áºŃy
Ġv uá»ĳt
Ġv iáº¿ng
Ġm e
Ġm ao
Ġm áº·n
Ġb Ã£
Ġs uÃ´n
Ġtr Æ¡n
Ġtr Ã¹
Ġg ram
Ġh iÃªn
Ġr eo
Ġnh ai
Ġcá» «
Ġcá» Ĺi
Ġnhá» įc
Ġqu áº³ng
á»± u
Ġsáº ¹o
Ġgiá» ħu
ĠphÃ ¬nh
ĠT Ãªn
ĠT ah
ĠC uá»ĳi
ĠC airo
Ġbá»ĭ ch
ĠM áº·c
ĠM áº¡ng
ĠM Ã¹a
ĠM umbai
em y
Ġká» µ
ĠB eet
ĠH el
ĠÄĲ Ãłi
ĠA ch
ĠS á»
ĠP ep
ĠK háº
ĠL áº§n
Ġngá» £p
ĠG ar
ĠG ro
Ġ3 4
ĠD ie
os au
ĠR ad
at er
at ur
Ġ4 3
ĠQ ua
ic us
ĠE le
Ġ19 0
ho ven
us tin
ad o
om et
ĠY Ãªu
ra h
ĠHo Ãłn
Ġ9 3
Ġ9 00
ĠlÃŃ t
re e
ĠIn ter
id eo
Chá» ¯
ĠX u
ĠAl aska
Tá» Ľi
ou d
Äĳ Ã£
um p
Qu ÃŃ
ChÃ ¢u
ĠAn n
Gi ai
ĠAr t
Ġpr Ã´
ĠâĢ ¦
ach el
ĠBer lin
ĠTim e
ĠPhá» ĳ
PhÃ Ńa
.. .
An d
ĠSe attle
fi eld
ĠCA PTCHA
Ġenz y
ĠDou g
Ġviol in
Ġthá»ī u
rib ati
Ġtest osterone
B iáº¿t
B á»ĳn
C áº£nh
E G
E d
P eter
R ichard
S B
S inh
V Äĥn
b r
c Ã²n
c ou
h m
h ol
m ail
r áº±ng
s w
u z
w ord
y c
y o
Ġ )
Ġ q
Ġ en
Ġ it
Ġc Ã¢m
Ġn ang
Ġn ai
Ġn Ã´n
Ġv v
Ġl á»ĳ
Ġl á»Ļng
Ġl iá»ħu
Ġm Ä©
Ġm iá»ĩt
Ġb o
Ġk iÃªu
Ġs áº¡c
Ġtr o
Ġng áº§n
Ġng uá»
Ġg Ã´n
Ġg áº§m
Ġh Æ°Æ¡
Ġr Ã²ng
Ġr Ã¡ch
Ġr áº©y
Ġd áº¥y
Ġd áº«u
Ġch anh
Ġgi ang
Ġx á»Ł
Ġchá» Ļ
Ġchá» ķi
ĠthÃ ¢
ĠthÃ ¬nh
Ġnháº ½
ĠT iá»ģn
ÄĲ áº·t
in es
ĠC uba
Ġháº ¯c
Ġsá» ¡
Ġsá» ¥t
Nh iá»ĩm
ĠM us
ĠM ama
Ġtrá» ı
Ġká» ĭ
ĠN há»
ĠN athan
ĠB áº£y
ĠH al
ĠH á»ĵng
ĠÄĲ Æ°a
ĠÄĲ á»ĳi
ĠS n
ĠS en
ia s
Ġph ao
ĠK á»¹
ĠK ur
áº¹ o
ĠD ick
Tr ang
ĠÃŃ n
al ay
al in
im et
os hi
ĠR id
ĠI van
is ter
ĠQ uyá»ģn
ĠJ ers
Ġba zÆ¡
Ġláº½ o
ĠF ox
ĠE ve
ĠE lizabeth
ho o
Ġ6 4
ĠTh ung
ĠO li
ob s
ri ng
Ġban jo
th ew
ĠU r
ing ton
ey er
Má» ©c
ĠYork er
te ch
Qu Ã¢n
ĠQu áº§n
ĠhÃ¨ n
Ġ199 4
Ġgam es
ĠGiá» įng
ĠSc r
ann a
ann y
Ġ197 5
ĠCá» §a
Ġbu Ã´ng
Ná» Ĺi
ĠLá» ĭch
ĠStev en
ĠRom o
Lá» ĭch
itt le
ChÃº a
ĠLester land
Char les
gar et
ĠLou is
ĠKi ribati
ĠCN N
ĠSky pe
ĠHav ard
ĠJes us
ĠÄĳá»± Æ¡c
tim ore
Ġsand wich
ĠBeet hoven
ĠJers ey
A O
C Ã¢y
G M
J ames
M G
N Äĥng
N iá»ģm
R G
R NA
S R
S á»
T im
T homas
W omen
X L
X Ã£
c Ã¡i
c al
c us
e ad
f red
i ro
m s
r at
r ina
t háº
t el
t ion
u ela
¨ ng
² i
ģ u
áº µn
ĠÄ Ĥn
ĠÄĳ Ãºt
ĠÄĳ áº«m
Ġn Ã²ng
Ġn áº·n
Ġn áº¥ng
Ġm iÃªn
Ġm Æ°á»Ŀng
Ġb e
Ġb Ãº
Ġb us
Ġk i
Ġk Ã¨n
Ġtr Ãºt
Ġg áº·m
Ġr á»įi
Ġr áº¡c
Ġp ass
Ġd Ã¨
Ġth Ãł
Ġnhá» ķ
Ġtá» ©
Ġqu áºŃt
Ġx Ã³i
Ġpháº «n
Ġnháº ¥m
ĠT á»ĳi
ĠT un
ĠT ÃŃnh
ai d
au s
Ġsá» «ng
Ġbá»ĭ p
ĠM et
ĠM ass
ĠM itch
ĠN ic
ĠB M
ĠB Ãªn
ĠB iá»ĥn
Ġlo Ã©
er y
ĠH om
en e
ĠA ng
ĠA sh
ĠA rab
Ġkhá» Ŀ
ĠS ylvia
Ġph thalate
ĠL i
ĠG ary
ĠTr anh
ĠD Ä©
ĠD oh
ĠD av
or i
Ġthu á»Ł
im ee
os h
iÃª t
ĠI P
Tháº ¥y
Ġ4 50
ĠJ erry
ĠW ill
ĠF GM
Ġláº¡ y
ĠTh Æ°
ĠO n
ĠO reg
ĠCh ad
li pp
op y
ĠU kr
ab le
Tá» ī
ine a
ill a
Ġf ile
az a
iv a
ĠAr ch
ec ca
Ġtháº¡ c
ĠIs land
Ġ199 7
all on
ĠCháº ¿t
ĠGeo graphic
ĠMc G
ĠMc K
ath on
ĠPh Æ°á»£ng
ĠBl ue
To Ãł
ĠBe ach
ĠGre at
ĠBen jamin
ĠOk ay
ĠJu lian
ĠGr and
ĠGu inea
ĠTes la
ĠPer u
ĠShi r
agh etti
Ġmar athon
ĠBal timore
ĠEur opa
Ġsp aghetti
ĠthÃª u
KhÃ ³
Ġcal o
oton in
ĠFri ed
ĠTay lor
ĠJeff erson
ĠKat rina
ĠJord an
ĠBh utan
ĠFOX O
ĠBert ie
ĠHawk ing
ĠDie go
cou ver
ĠhÆ°Æ¡ u
Ġpass word
ĠDoh a
ĠOreg on
1 1
7 5
F ran
L Æ°á»£ng
L uÃ´n
M ong
S E
S ai
T Ãłi
T iá»ģn
V i
X e
X Ã©t
b á»ĳn
e ng
e ff
j ect
k o
l av
t á»«
w w
¡ y
µ ng
Ġ Æ°á»Ľp
áº ¢
Ġt em
Ġt een
ng h
Ġc Ãµi
ĠÄĳ iá»ģm
ĠÄĳ áº¥ng
Ġn Ã´i
Ġv Ãª
Ġv Ã³c
Ġl on
Ġl áº©n
Ġl ink
Ġb áº§n
Ġb it
Ġk iÃªm
Ġs áº£y
Ġs áº¥m
Ġtr Ã¢u
Ġng uyá»ģn
Ġg á»Łi
Ġr Ãłnh
Ġr áº¡ng
Ġr áº¡ch
Ġr Æ°á»Łi
Ġp rog
ĠcÃ¡ u
Ġchá» ĩch
ot os
an on
an ic
ĠT y
ĠT iÃªn
Ġho áº¡n
on acc
ÄĲ á»Ļ
ÄĲ áº¥t
Ġmá» ©t
ĠC P
ĠC ao
ĠC en
ĠC ur
Ġto p
ĠM Ã´i
ĠM Ãª
ĠM oh
ĠB lo
ĠH im
ĠH áº¯n
ĠH all
ĠÄĲ áº·c
ĠA ur
ĠS il
ĠS Ã¡ng
ĠcÆ¡ m
Ġph u
ĠP ier
ĠK ib
ĠL Ã¢m
Ġtrá»į t
ĠG an
ĠG á»Ńi
ĠG eh
ĠTr Äĥng
ĠTr eas
Ġxu áº©n
ĠD Ãłn
Tr Ã²
al ore
Ġvi Ãª
ĠR a
ĠR od
Ġtho a
et a
et own
Ng Ã¢n
ĠI m
Ġ5 4
ĠV er
Ġ4 000
Ġrá» ¥ng
ĠQ aeda
ĠJ an
ĠJ ess
ap p
it a
ĠF ib
ĠF BI
Ġ20 20
ĠNg uyÃªn
ac t
ĠCh uyáº¿n
Ġ7 7
Ġ8 2
Ġ9 7
oi r
ri e
ri ch
ĠÄĲá» Ŀi
ĠSt ir
ĠSt ate
ran e
ĠU N
ag an
ag er
Ġ12 5
ĠAl len
ab ad
ou l
ow itz
ChÃ ¢n
Ġcan xi
aw a
Ġ199 2
ĠEm ily
ph en
ĠhÃ£ nh
ĠxÃŃ t
ĠMc Donald
ĠBá» Ŀ
ath em
ĠRos s
ĠBang alore
ĠSch w
een ey
ĠNgh Ä©a
ĠRom e
Ġsho ck
ĠGr ace
vá» ģ
ĠVen ez
Dá» ¯
Ġmicro RNA
ĠVan couver
ĠWar ren
ĠPl ato
Ġser otonin
ĠKy oto
Ġne uron
Ġmá»ĭ n
Ġmet an
PhÃ¡ t
ĠWalk er
ĠLaw rence
ĠRog er
ĠNair obi
ĠLeb anon
ĠOak land
ĠTun is
onacc i
ĠHim alay
ĠTreas ure
ĠVenez uela
6 0
6 00
A G
B Ã¬nh
B uá»ķi
C E
C Æ°á»Ŀi
D i
E ric
G G
H iá»ĩu
J u
J im
K en
L uáºŃt
L Ã²ng
M Ã¬nh
M att
N am
S am
T M
T áº¡o
V Ã¹ng
i re
l Ãª
m á»
m et
r it
s ia
v a
² m
Ġ #
Ġt Ãº
Ġc at
Ġn Ãºm
Ġm á»Ļi
Ġm Ãºt
Ġb áº¡t
Ġs áº£i
Ġs Ãºt
Ġs un
Ġng Ã¡ch
Ġg Ã²
Ġg Ãło
Ġg Ã¡y
Ġg allon
Ġh un
Ġp en
Ġd uá»Ĺi
Ġd áº«m
Ġtá» ĥ
Ġgi Ã²n
Ġx Ã´ng
ang e
Ġbá» ¥c
ĠT i
ĠT iáº¿p
ĠT enn
ĠT eh
on t
ÄĲ Ã¢u
ÄĲ Æ°a
ÄĲ Ã¡m
ĠM ot
ĠB Ã³ng
Ġlo Ãł
er b
er man
ĠH Ã¡t
en berg
ĠA li
ĠA aron
ĠA imee
ĠS ho
ĠS á»ĳng
ĠS MS
ar en
Ġy ou
Ġph ai
ĠP ap
ĠP ink
ĠP anth
ĠP otter
ĠK iáº¿n
ĠK le
ĠK eith
ĠL im
ĠL ov
ĠL ock
ĠG l
ĠG ord
ĠG aza
ĠTr Æ°á»Łng
ĠD ol
Tr ÃŃ
es e
ĠR áº±ng
ĠR ick
ĠR uss
Ġtho i
Ng Ã´i
Ng Ãłi
ĠI Q
ĠI l
ĠV ol
ĠV inc
it ion
ĠF r
ĠF ellow
ĠF DA
ĠE c
Thá» ĭ
us d
Ġ6 8
ED I
ĠnghÃ ªnh
ob yl
ob ule
ĠY ale
Ġ7 8
li der
ri g
ri el
re am
Ch eryl
net t
ĠSt ock
ing s
ĠX Ã£
ĠX Ã¢y
ĠAl b
ab a
Tá» ©c
Tá» «ng
ak s
Ġ40 4
ĠMar io
Ġ11 0
ib o
man uel
if e
ins ky
uc e
ĠCar r
ee ch
ĠCá» ķ
ber ry
Ġquá» ³
ĠSau di
ĠJo el
ĠBe at
ĠJam ai
ĠWik i
ern obyl
Ġ194 5
ĠFrank lin
PhÃ ¢n
ThÃ¡ ch
ĠSw eeney
ĠJon athan
ĠWilliam s
ĠGand o
Ġax ÃŃt
ĠCA D
ston e
Ġnit ric
ĠMur ray
Jo e
ech n
ĠDen is
ĠnhÃº n
ĠAmer ican
Ġgl uc
Ġhor m
ĠSus an
ĠDub ai
ĠCopern icus
ĠConn ect
osau rus
ĠOli ver
otos hop
ĠFib onacci
ĠStir ling
ĠTeh ran
ĠPanth eon
. &
4 5
A V
A m
B áº£o
B Ã¡o
C am
C hÃºc
D aniel
H áº¡t
J on
J enn
K á»
M Æ°á»Ŀi
M art
P H
R C
X Ã¢y
b áº±ng
b in
c háº
c Ã¢u
l et
o ch
p kins
s in
t z
t ic
¡ n
£ c
µ m
Ã Ķ
Æ ł
Ġ 00
Ġ uyÃªn
Ġ áº£m
Ġ Ãºt
áº ¨n
Ġt er
Ġc omp
ĠÄĳ Å©a
Ġn á»įc
Ġv Äĥng
Ġv Ã£n
Ġl anh
Ġl áº«m
Ġm au
Ġb iáº¿ng
Ġs on
Ġs Æ°ng
Ġng Æ¡
Ġng áº¥t
Ġg Ã¢n
Ġg ra
Ġthá» ¥c
Ġr Ã¡n
Ġd á»ĳt
Ġch en
Ġch uá»ĵng
Ġhá» Ŀi
Ġchá» Ńng
an y
Ġnháº £m
Ġho Ã¡n
Ġcháº ¯t
ĠnhÃ ¬
ĠM áº¯t
ĠM ed
ĠM ak
ĠM eyer
em ala
ĠN á»Ļi
ĠB il
ĠB ah
er at
ĠH ong
ĠH Æ¡n
ĠH áº§u
ĠH as
ĠÄĲ Æ°á»Ŀng
ĠÄĲ áº¡t
ĠA il
ĠS áº¯p
ar ry
ĠP u
ĠK ay
ĠL áº¡i
ĠL en
ĠL oÃłi
ĠL ike
Ġngá» Ńa
ĠG ay
ĠG áº§n
ĠG iÃª
ĠG ol
ĠD áº¡
ĠD AR
ĠÃ¡ t
es a
es k
Ãµ m
el li
ĠI x
Ġ5 3
Ġ5 7
ĠV Å©
ĠV ik
at z
at emala
Ġ4 7
Ġrá» ĩ
ĠJ ud
Ġvá»¥ ng
as on
ol i
ĠW h
ĠE ast
ĠE ss
ho a
om an
ĠO tt
ur ch
ĠCh Æ°Æ¡ng
ĠCh Æ°a
ĠCh ernobyl
ĠY ves
ĠkÃ© n
Ġ8 4
ri r
ro f
Ġ100 00
Chá» ©ng
ĠSt one
ah a
th ony
ĠU CL
ag a
ou x
ĠNh iÃªn
tr al
Ġf oot
ĠMar y
man n
ex tin
ĠQu áº£n
art z
aw i
ĠVá» ¥
Bá» ı
ĠCal tech
ĠHar lem
Ġ198 9
ĠSan ta
amb ia
ĠIra g
Ġlu áº©n
ĠMo MA
ĠPal m
ĠKho áº£ng
ĠAb u
ast ian
ok o
ĠxÃ© n
ĠJu li
ĠTor a
ĠFre e
Dá» ĭch
ĠLat inh
ĠJon as
ster dam
ĠKhá» ĳi
ĠWhi te
ĠTit us
col ate
ĠLang ley
Sp eech
ĠMoz art
Rob ert
Ġpherom one
ĠOp rah
shi re
ĠTah rir
ĠPep si
ĠMitch ell
Ġprog eria
ĠGeh ry
ĠTenn ess
ĠDol by
B áº£y
C P
D R
D áº§u
D Ã¹ng
H ans
I PA
L Ãªn
L ee
M Ã´i
M á»Ł
M áº¥t
M ED
M RI
S M
T áºŃp
T áº¡p
T ho
T alk
Z K
b an
c m
c ia
j an
j ev
k ar
k ey
k ansas
l ot
m ud
m oud
o is
s tein
s ylv
y on
¡ i
¬ a
Ġ ar
Ġ is
Ġ aw
ı m
Ġt áº¥u
Ġt Ãºp
Ġt uÃ´n
Ġc á»Ļi
Ġc áºŃt
Ġc ello
Ġc opy
ĠÄĳ áº¥m
Ġn ung
Ġn hÃºt
Ġn oi
Ġn Ã¡u
Ġv áº¥p
Ġv Ã¡ng
Ġl áº§u
Ġm ÃŃ
Ġm Äĥng
Ġs Ãªn
Ġs Ã²
Ġs áº£o
Ġtr u
Ġng Ã³
Ġng áº¥m
Ġg áº·t
Ġr á»Ļ
Ġr Æ¡
Ġr áº«y
Ġd áº·n
Ġnh oi
Ġch iÃªu
Ġth iá»ĥn
Ġth uyÃªn
Ġchá» ¯ng
ot e
an o
Ġgiá» Ł
ĠT u
ĠT á»Ń
ĠT ob
ĠT arah
Ġho Ã³c
Ġcháº Ń
ĠhÃ ¹
ĠhÃ ³t
ĠC áº§n
ĠC áº£nh
ĠC oo
ĠC lo
Ġháº ±n
Ġsá» ¥c
Ġsá» ¥n
Ġphá» ĵn
Ġbá»ĭ a
Ġkho áº£
Ġkho anh
Ġkho Ã©
Ġkho Ã¡t
ĠN ov
ĠN BA
ĠB o
ĠB uá»ķi
Ġlo ang
Ġlo Ã£ng
ĠH i
ĠH áº¡
ĠÄĲ áº¥y
ĠS á»¹
ĠS is
ĠS Ã¡ch
ĠS ara
Ġdo o
Ġy o
ĠP y
ĠP an
ĠP or
ĠP as
ĠK áº»
ĠL áºŃp
ĠL as
Ġá» ľ
ĠG ri
ĠTr iá»ĥn
ĠD iana
Tr á»«
ĠR yan
el t
el ine
Ġ5 6
ĠV ua
Ġ4 1
Ġrá» ¥i
ap e
ĠÃ ģn
as a
as ter
ĠW oo
ĠF ed
ĠE s
ĠE con
le ans
ĠNg Æ°Æ¡i
Ġ6 000
ad i
ĠO oh
ob o
ĠCh en
ĠTED Women
ĠTED MED
ĠChÃ ¢n
Ġda f
Ġw att
ĠSt ein
ing o
ĠAl fred
ĠThá» Ń
Tá» ĩ
ak i
ou t
ĠKá» ·
ĠKá» ĥ
um ara
ow s
ich olas
ĠChá» ĳng
ĠThÃ¡ p
ep ler
ĠAr kansas
ook ie
aw att
ip p
KhÃ¡ i
ĠHar ry
ach us
Ph ong
Ġblog ger
Ġnho Ã¡ng
ĠCol l
ĠNhÃ ³m
ĠPh ong
ind er
ĠPal extin
ĠRos e
ett s
ĠThÃ Ń
Nhá» Ľ
ĠMal ay
ĠOr leans
Ġ36 0
ĠGu atemala
ĠLib eria
ĠSam uel
Ġkáº½ m
ĠNor man
unt u
Ste phen
ĠUn ivers
ĠMos es
ĠOs car
ĠMat thew
In ternet
ĠIr eland
ĠLo an
Ġbl ah
ĠGil bert
ĠPenn sylv
ĠGran t
ĠES G
ĠBlo om
ĠviÃª c
ĠAil en
Ġrá»ĩ p
ĠEss ex
ĠTora ja
ĠTenness ee
ĠTarah umara
ĠCoo per
ĠPennsylv ania
3 00
9 8
A S
B ay
B ÃŃ
D I
H z
H á»Ļi
L e
P P
P oint
R obot
T D
T Ã¬m
T áº§m
T om
W ell
Y eah
b ox
c am
f li
g g
g en
g ie
h r
i os
l eton
m á»įi
p son
t ail
u ch
v i
v iá»ĩc
v in
« m
Ã ©c
Ġ est
ķ ng
áº ©ng
ĠÄ ©
ĠÄĳ áº£
ĠÄĳ ong
ĠÄĳ Æ°á»Ľc
ĠÄĳ Ã¹i
Ġn áº¡i
Ġn eo
Ġn áº¡t
Ġn áº¥p
Ġn Ã¡ch
Ġl Ã¬nh
Ġl á»ĳc
Ġl uá»ĵn
Ġl Ã³ng
Ġm em
Ã´ c
Ġs Ãłnh
Ġr Ã¢m
Ġr áº¯m
Ġd Ã©p
Ġcá» £t
Ġhá» īnh
Ġx ao
ĠthÃ ©t
Ġcho colate
ĠmÃł o
ch e
ch i
ĠT inh
ĠT áºŃp
ĠT Ã¡m
ĠT so
Ġho p
ai re
ĠC a
ĠC om
ĠC hÃºc
Ġsá» §a
Ġto ur
ĠM Ã£
ĠM Æ°á»Ŀi
ĠM Ãłu
ĠM athem
ĠN i
ĠN ar
ĠN Ã£o
ĠB y
ĠB ow
er m
ĠH ot
ĠH iá»ĩu
ĠH amp
am an
ĠÄĲ Ã¢u
ĠÄĲ á»Ļc
ĠA z
ĠA ye
ĠS á»Ł
ĠS ri
ĠS OPA
ĠP ic
ĠP art
ĠP itt
ĠP ost
ĠK Ã´ng
ĠK iá»ĥm
ĠK ent
ĠL ab
ĠL ev
ĠL áº¡y
Ġvá»ĭ n
Ġá» Ŀ
Ġngá» Ŀi
ĠG G
ĠG it
ĠG raham
ĠD anh
ĠD ai
ĠD iá»ħn
ĠD or
ĠD ur
ĠD un
ĠR u
ĠR eb
ĠR ow
ĠR iv
el le
et s
ĠI K
at s
at ica
Ġrá» £
ic ut
ĠJ ar
ĠJ ustin
il ot
il ey
it es
it ra
ĠW in
ĠW ood
ĠF ound
ĠE ng
ho d
Ġ6 7
ad ore
Ġvá»ĩ t
ĠTh anh
ĠTh ula
ĠO l
Ġ7 6
ĠHo pkins
ĠTED Talk
Ġ9 4
eb astian
Giá» ¯a
Th am
Ġw ater
Ch u
Ch uyáº¿n
ĠIn tel
Ġ15 00
ig er
Ġnghi Ã£
ag u
ĠbÃŃ p
ey n
ĠAl l
ĠAl an
Äĳ áº¿n
Ġ18 00
Ho áº¡t
tr ol
Ġ40 1
ĠMar yl
ĠMar sh
ĠChá» Ŀ
ĠChá» ©c
Pháº £n
Ġtháº§ u
ĠBr and
ĠBr ad
ĠBr uce
ĠSh er
ĠSh ah
ĠCar ter
Ġ201 3
ĠJohn s
KhÃ¡ c
Ġgam ma
ĠAm sterdam
ee k
ĠLan ka
Ġ198 5
Ġ198 8
ĠSc i
ann ah
amb i
og a
og y
ith a
oy ager
ĠBar b
ĠBar ack
To Ã¡n
ĠBe au
ast le
ĠCr aig
ok e
ĠAnd r
ĠJu lie
Nháº Ńn
ĠLib ya
ĠBrow ne
ĠChrist opher
ĠPalest in
ĠKar l
ĠGo ering
ĠAh med
dy ss
Ġngá»« Æ¡i
ĠBay es
ĠSi oux
ĠMill er
col m
Ġmil imet
ĠIr áº¯c
ĠYo ung
Ġá»« m
ĠWe ibo
mo or
ĠAus tr
ĠPower Point
ĠHir oshi
hol m
ĠScr atch
ĠKib era
ĠJamai ca
Ġgluc ose
ĠConnect icut
ĠUCL A
ĠFree Speech
jev o
lot te
ĠcháºŃ u
achus etts
ĠMalay sia
fli x
ĠMathem atica
ĠMaryl and
1 6
A T
B e
B uá»ĵn
B ob
C a
C Æ¡n
C Ãº
D iá»ħn
G oogle
K B
M iá»ħn
O C
O S
Q aeda
S F
S áº£n
V Ã¢y
a a
b es
c áº£m
c op
d it
e us
g ram
h orn
k h
l au
m Ã©t
m ond
m inder
o on
r áº¥t
r ess
s u
t áº¡i
u h
u chia
w a
w est
w ait
x ter
© y
Ã §a
Ġ Æ°Æ¡m
Ġc áº·n
Ġc ock
ĠÄĳ Äĥ
ĠÄĳ áº§n
Ġv on
Ġv áº¡t
Ġv Æ°á»£n
Ġl Æ°
Ġl á»Ł
Ġm eg
Ġb Ã´
Ġs uyá»ħn
Ġtr Æ¡
Ġtr Æ°á»Ľng
Ġng Ãł
Ġng Ãµ
Ġng Ã³c
Ġng Ã²i
Ġng áº©ng
Ġr áº§u
Ġr Äĥn
Ġr áº§m
Ġp ar
Ġd áº¿
Ġd em
Ġd áº¡t
Ġd áº±n
ĠÄĳá» ħ
qu ez
Ġcá» ıi
Ġcá» ĵng
Ġvá» ĵng
Ġqu áº·ng
Ġgi Ã´ng
ĠT ar
ĠT áº¡m
on ey
ĠkhÃ¡ nh
Ġcháº Ńp
ĠchÃ ¨o
ĠchÃ ¨n
ĠhÃ ª
ĠhÃ ³m
ÄĲ á»Ļi
Ġná» ĥ
Ġná» ī
ĠC á»ĳ
ĠC ro
ĠC IA
á»ĵ n
ĠM Ãły
ĠM en
ĠM id
ĠM ir
ĠM BA
hi o
ĠN I
ĠB Ã¡o
ĠB ry
ĠB ach
Ġlo anh
ĠH á»ĵ
ĠH az
ĠH ut
ĠH ind
ĠÄĲ á»ĳc
ĠS a
ĠS uy
ĠS ai
ĠS el
ia g
ar s
ar in
Ġy oga
Ġph iá»ĩt
ĠP e
ĠP ur
ĠP IPA
ĠK os
ĠK ab
ĠK iva
ĠK epler
ĠL á»Ŀi
ĠL imb
Ġngá» £m
ĠG ul
ĠTr ÃŃ
ĠD ave
or o
Tr uyá»ģn
al ie
os ev
el y
et as
Ng oáº¡i
ĠI mp
Tháº §y
ĠV áº«n
at Ã´ng
at ma
is e
ic ill
ic erat
ĠJ ean
ĠJ ava
ap minder
ĠÃ įt
it ic
ĠW y
ĠW is
ĠW ind
ĠE ar
le v
Ġ19 91
Ġ19 93
ĠNg uá»ĵn
ad y
ĠO xy
ĠO dyss
ur n
Ġ7 000
ĠTED ster
Ġ8 9
ĠchÃ¡ nh
Th uá»ĳc
un ch
ro Ã§a
ĠÄĲá» £i
re at
ĠIn st
ĠSt and
ist or
ĠX áº¿p
ab y
ĠThá» ĭ
han e
ĠGi ao
Ġnhu áº§n
ĠchÃ³ t
ow an
if lu
ĠQu áº£
Gi ao
ĠSh ar
Ġprot on
ip car
ĠHar ris
ph ua
ov o
ov er
Ġru á»Ļng
Ġ198 6
ĠChi ld
ĠSc oop
ĠBa xter
nÃ³ i
ass o
ĠRob inson
ĠChar lotte
ĠMon ter
ĠBl u
ĠGre g
ort is
Ġmá»ĵ m
ĠLá» ħ
ĠNa uy
org an
Ġ194 0
ĠInd iana
ĠDi et
uk e
ĠGu ard
ĠLib Äĥng
ĠWal mart
ĠCo ch
ĠDá» ĭch
ĠBon net
rog en
ĠMel inda
ever ly
Ġmar atÃ´ng
ĠWil son
ĠTam iflu
ĠJac qu
Car ol
ĠLin ux
ĠNo el
ĠPhil lip
Ġeur o
ĠBroad moor
NC RA
Ġq Ãºi
Ġchá»Ļ p
ĠHom o
ĠCen tral
ĠMoh am
má» Ĺi
Ġcat adore
Ġpen icill
ĠPap ua
ĠBah amas
ĠIx aren
ĠSara jevo
ĠEcon om
ĠIK EA
ĠFound ation
ĠAustr alia
Ġcock tail
icerat ops
Ġpenicill in
2 4
2 9
A A
A h
A t
B on
B áº¥y
B Ã¡nh
E T
F re
I s
J eff
K evin
P rin
Q uá»ĳc
T B
T H
T inh
T iÃªu
U ng
V iá»ĩn
V áºŃn
W ow
Y áº¿u
b us
c er
e u
f er
f us
g an
g ey
h n
h y
j u
k ho
l Ã´
m at
m ing
n d
p hÃ
p in
r l
r ett
s á»±
s burgh
t hia
v al
v et
v ent
y ota
z ero
¢ t
Ġ ad
Ġ ep
Ķ n
Ġt Ãºm
Ġc Ã²
Ġc oc
Ġc ortis
ĠÄĳ Ãªn
ĠÄĳ uá»
Ġn i
Ġn Ã¨
Ġl á»Ļc
Ġl Ãµm
Ġb á»Ł
Ġs h
Ġs en
Ġs al
Ġtr Å©ng
Ġtr ans
Ġg t
Ġg anh
Ġg eo
Ġg Ã£i
Ġh Å©
Ġthá» ģm
Ġr Ã¹ng
Ġr Ã³t
Ãª t
Ġp a
Ġd Ã³
Ġd ÃŃ
Ġd iÃªm
Ġnh an
Ġnh en
Ġvá» Ľt
Ġch k
Ġch ang
Ġch Å©ng
Ġch Æ°ng
Ġch uá»ĵn
Ġch at
Ġnhá» ©ng
Ġnhá» ĳi
Ġtá» £n
ĠnÃł nh
Ġqu Ã¢y
an istan
Ġra in
Ġgiá» ı
Ġbá» «a
ĠT Ãłng
ĠT Æ°á»Łng
ĠT Ã¢n
ĠT áº¡p
ao mi
ĠnÄĥ n
ĠnhÃ Ńm
ĠnhÃ ³t
Nh iáº¿p
Ġto ken
ĠM P
ĠM Ã´ng
ĠM ob
ĠM ell
ĠM eg
ĠM ull
hi s
ĠN in
ĠN Äĥng
ĠN ico
ĠB P
ĠB iáº¿n
ĠB Ã¡n
ĠB á»įn
ĠB re
ĠB BC
ĠH on
ĠH it
ĠH un
ĠH um
ĠÄĲ Ã¡ng
ĠA ED
ĠA st
ĠS I
ĠS ur
ĠS olly
ar ak
Ġph Æ°á»Ľc
ĠP C
ĠP ac
ĠP ilot
ĠK áº¿
ĠK as
ĠK id
ĠK ins
ĠK ate
ĠL A
ĠL y
ĠL eo
Ġá» ¨ng
ĠG e
ĠG wen
ĠG apminder
ĠTr iceratops
Ġxu a
ĠD J
ĠD Ã¢y
ĠD em
ĠD es
ĠD ean
ĠD onald
or th
Tr á»įng
im Ã©t
os s
os phere
ĠR ub
ĠR ec
ĠR eg
ĠR ivers
ĠR achel
el yn
ĠV el
ĠV iv
ĠV Æ°á»Ŀn
ĠV oyager
at an
is co
Ġrá» ¯a
Ġdi ox
ĠW ang
ĠW ol
ĠW ide
ĠF lick
ĠE EG
Ġ10 1
Ġ19 20
Ġ19 18
Ġ6 6
ad er
ĠTh uyáº¿t
ĠO w
ĠO hio
ĠCh u
Ġ7 50
Ġla b
Ġgá» ī
ĠÄĲá» ©a
Ġw oo
Ġw ow
Ch rist
Chá» ¥p
ĠSt r
ĠU p
ĠU t
ag as
lo ad
Ġsu l
ĠAl g
ĠAl t
oh en
ou gh
Ġ18 7
Ġ18 8
um ann
Ġo Ãł
ĠMar c
ĠMar s
ĠMar ia
ĠMar garet
Ġ25 00
ĠChá» ¯
ub arak
ib b
ĠThÃ¡ ng
art y
ĠBr oth
ĠSh aw
Ġ201 5
ff ord
ff iti
Ġ198 3
ĠChi m
ann e
lin ois
ĠTw eet
Ġ197 3
Ġ197 9
ĠCol or
ĠRob b
ĠBá» ı
ĠMich el
ĠPh otoshop
Ġ196 5
ren e
ĠBill y
ĠTháº Ńm
Ġj ihad
ett y
ĠCr u
ĠCr itic
yn thia
ĠNá» ķ
ĠNá» Ĺi
ĠRe zero
PhÃ ³ng
PhÃ ²ng
ĠNháº Ńn
cÃ´ la
ant s
ĠCl ark
thá» ©
thá» Ŀi
ĠWal es
ĠAc cent
Mar co
Ġká»ģ nh
Ġ195 7
ĠMah moud
ĠMah atma
ĠBu ff
ĠJim my
Char lie
KhÃ Ń
ĠBi osphere
Ar thur
ĠvÃ£ nh
ĠLin us
ĠAmer ica
lash y
Ġgo Ã¡
ĠCas ey
ĠAg nes
ĠGeorg ia
ĠAR N
ĠJenn ifer
ĠHir sh
ĠCamp uchia
ĠNet flix
ĠIM F
ocr ates
Ġamin o
ĠprÃ´ tein
Ġenzy me
Ġnguá» Ŀi
ĠthÃ¢ y
ittle B
ĠMass achusetts
ĠUkr aine
ĠArch ie
ĠFried man
ĠAur ora
ĠTunis ia
ĠGord on
ĠIl linois
ĠVinc i
ĠStock holm
ĠDenis ov
Ká» ³
Ġgra ffiti
ĠrÆ¡ m
ĠSis y
Ġest rogen
ĠHamp shire
ĠPitt sburgh
ĠHiroshi ma
ĠOdyss eus
ĠMonter ey
ĠGuard ian
ĠCoch rane
Prin ce
Ġcortis ol
ĠMell on
ĠHun ter
ĠFlick r
ĠAccent ure
1 7
4 00
6 5
8 00
9 5
A d
B R
B Ãłn
B rian
C T
D J
D áº¥u
D Ã²ng
E R
H i
I á»
J ay
L ÃŃ
L á»±c
L á»±a
M M
N áº¡n
N á»Ļi
P at
R N
S ang
T T
T Æ°
T ai
T Ã¢m
T á»ĳc
V áº»
b ab
c hÃ
c áº£
c as
c orn
d Ã¹
e ed
h t
i en
i or
i ra
j i
k u
l am
l ic
l air
m b
m ent
n ick
o ac
p s
r k
r áºŃp
r ass
r ne
s en
w ick
x on
y le
z one
· ng
Ġ hÃº
Ġ au
Ġ eo
Ġ Ãºp
Ġ as
Ġ áº¯p
Ġ usd
Ġ Æł
á» ¯
Ġt Ã©
Ġt en
Ġc ou
Ġc iv
ĠÄĳ Ã¹ng
Ġv Æ¡
Ġl Ãº
Ġl áº¹
Ġl uá»µ
Ġl ittleB
Ġm m
Ġm Ã¹ng
Ġm áº¯ng
Ġb Ã¹a
Ġb eat
Ġb iÃªt
Ġs áº§u
Ġtr Äĥn
Ġtr Ã²ng
Ġng áº§u
Ġng Æ°á»£ng
Ġng áº¡t
Ġg Ãłng
Ġg oogle
Ġh uyá»ĩn
Ġr Ãªn
Ġr Ã¨m
Ġd áº·t
Ġnh Ãłn
Ġnh ung
Ġvá» ĥ
Ġvá» ¥t
Ġch ao
Ġch uá»Ļc
Ġhá» ĳt
Ġgi áº¥m
Ġx iáº¿t
Ġkh ay
Ġchá» «
Ġchá» «a
ĠthÃ ²i
Ġngh iáº¿n
an c
Ġra o
Ġgiá» Ŀi
ch an
Ġnháº §y
ĠT uyÃªn
ĠT Ãłu
ĠT od
on ia
on ie
ai s
ai za
Ġcháº §n
ĠchÃ ©m
ĠhÃ ©o
ĠnhÃ µm
ÄĲ o
ÄĲ áº¡o
ÄĲ Ãªm
ĠnghÄ© nh
ĠC od
ĠC ass
ĠC omp
ĠC á»±u
ĠC lev
ĠC ohen
Ġsá» ¯ng
Ġsá» ĵi
Ġphá» ī
ĠphÃ¡ ch
Nh u
Nh iá»ĩt
Ġto Ã¡i
ĠM ard
ĠM edia
ĠM BI
ĠM ubarak
em a
Ġtrá» Ŀ
ĠN G
ĠN at
ĠN áº¥m
ĠN Ãºi
ĠN ik
ĠN ev
ĠB ÃŃ
ĠB Æ°á»Ľc
ĠB and
ĠB Ã¡nh
ĠB art
ĠB alk
uá» ĩ
er k
ĠH ey
ĠH ud
ĠH mm
ĠH unt
am s
am ie
ĠÄĲ ang
ĠÄĲ Ãłn
ĠÄĲ Æ°Æ¡ng
ĠÄĲ áº£o
ĠÄĲ Ãªm
ĠA BC
Ġkhá» ©u
ĠS W
ĠS ar
ĠS ag
ĠS inc
ĠS áºµn
ĠS obule
Ġkháº ¯t
ĠmÃ¡ ch
Ġy áº¿n
Ġph oton
ĠP o
ĠP ia
ĠP ho
ĠP re
ĠP ach
ĠP erry
ĠP oint
Ġháº¡ c
ĠK ap
ĠK ir
ĠL áº¥y
ĠL es
ĠL uáºŃn
ĠL iz
ĠL yn
Ġngá» ¡
ĠG Ã¬
ĠG er
ĠG ard
ĠG illi
ĠG lad
Ġ3 9
ĠTr á»Ł
ĠTr Ã²
ĠD D
ĠD eb
ĠD anny
al th
im o
es ar
es ome
ĠR em
ĠR ab
ĠR ich
ĠR ep
ĠVÃł i
ĠVÃł ng
Ġso fa
ĠV iá»ħn
Ġrá» £n
ĠJ R
ĠJ oh
ĠJ azz
ĠJ ihad
ĠJ ason
il eo
ĠF ul
ĠE b
ĠE van
ĠE DI
ter n
ĠNg uy
ĠNg Ã´n
Ġtu á»Ļt
ac re
Ġ6 50
hÃ¡ n
ad us
ĠPhi lipp
ĠCh in
ĠCh urch
-- -
ra ft
ĠHo use
li ot
Ġ8 000
Ġla ze
ÄĲá» ©c
ÄĲá» ĭnh
Ġgá» £n
Th iÃªn
ri k
un es
ro v
Vá» £
Vá» ¥
ĠÄĲá» ©ng
Ch uyá»ĥn
id ro
ĠSt udio
ĠU ng
ing er
ĠX e
lo ck
ĠAl ab
Tá» ·
Äĳ á»
ĠGi an
um i
Ġlá»ĵ i
ik i
ĠMar co
ĠdÄ© a
ry st
ĠAn thony
ĠTá» «ng
ut en
Gi áº¥c
eg al
de z
uc ky
Ġu Ã½
ĠSh eph
ĠAfg anistan
ff e
Ġbá»ķ n
ĠâĢ ĭ
ĠKen d
ĠhÃ² m
ĠCan yon
ĠChi a
Kho áº£nh
Ph iÃªn
ĠnhÃ¡ p
ĠTo yota
st ream
ek a
ThÃ ´i
ĠBá» ĭ
ĠHy der
ric e
Ġ196 2
ĠTháº §y
ĠBar ef
ĠJo ey
Ġe Bay
ug a
ĠJam ie
Ná» Ńa
ĠbÃ¹ m
ĠNa j
ĠSch ool
ĠMa x
ĠHig g
ck en
ĠHe h
ĠHe ad
ĠRe u
Ġmic r
ĠPhÃ ¢n
ĠPhÃ Ńa
ĠNe il
ĠEl vis
uck er
ĠKh u
Ġ194 9
ĠMal awi
ĠTrans ition
cel adus
ĠJu an
ĠDi am
ĠRom an
ĠFre d
ĠFre ud
Ġ36 5
our i
bur n
ĠCl ay
ĠCl onie
ĠVen ter
mm m
Dá» ħ
ĠCE RN
ĠCo de
oth y
ĠEn celadus
ĠChrist ian
ĠBur n
Ste ve
ĠBon o
ĠOlympic s
nes ota
ĠCap e
ston ia
ĠSer ra
ĠEur o
Ġne u
Ġnit Æ¡
ĠOs ama
Ġbon obo
ĠLar ry
ĠRed dit
ĠÂ ¼
ĠnhÃº m
Ġok ay
ĠHam let
ĠMoz ambi
ĠMin nesota
ĠPri ze
ĠDu ol
ĠEx xon
Ġ185 8
Ġhel ium
Ġox ide
ĠHel en
ĠEle c
ĠSn ow
ĠKur d
ĠDav is
áº¢ nh
ĠSho w
ĠKle in
ĠRuss ell
Ġhorm ones
Mart in
Ġcomp lex
ĠBil bao
ĠGay la
ĠVik ing
ĠJud y
ĠOtt oman
mud din
ĠhÃ¹ m
ĠPy th
ĠPic asso
ĠEng land
ĠMarsh all
ĠBarb ara
Ġdem o
ĠKos ovo
ĠKab ul
osev elt
ĠÄĳuá» £c
ĠHit ler
ĠRivers ide
ĠColor ado
Ġciv ic
ĠlittleB its
ĠSinc lair
ĠAlab ama
ĠBaref oot
ĠMozambi que
3 7
4 8
5 9
6 4
A C
A my
B Ã©
C lay
D anh
D áº§n
D ar
E L
E S
E l
G áº¥p
H O
J K
J ac
K ÃŃnh
L V
L Å©
L arry
M áº«u
M ur
M áº¡ng
N Ãły
N athan
O V
P L
R ory
S al
S he
T iá»ĩn
T hi
T Ã´n
V ai
V Ã²ng
Y Ãªu
a ff
b i
b Ãª
b ar
b ul
c ola
c astle
d or
d ad
d ie
d ale
f ia
f ri
g ill
i i
m áº·c
o it
p ar
r áº¯c
r et
s son
u j
u za
x o
y son
z y
· c
Ġ @
Ġ Æ°ng
Ġ áº¡t
Ġ uyá»ĥn
Ġ ed
Ġ are
á» ª
Ġt áº±m
ng ay
ng Ãły
Ġc l
ĠÄĳ Ã¡i
Ġn Æ°Æ¡ng
Ġn áº¹p
Ġn om
Ġn iÃªm
Ġv Ã³i
Ġl á»±
Ġl áº£ng
Ġl Ã³c
Ġl uyáº¿n
Ġl á»ĳp
Ġm y
Ġm Ã³
Ġm Ã²ng
Ġm od
Ġm ix
Ġb lu
Ġs iáº¿t
Ġs il
Ġs á»įc
Ġs ex
Ġtr au
Ġtr áº·c
Ġng a
Ġng Ã¹ng
Ġg Ã¹
Ġg áº«u
Ġh iá»ģu
Ġh ot
Ġh iá»ģn
Ġh idro
Ġthá» Ľ
Ġthá» ¥t
Ġr áº§y
Ġd Æ¡
ĠÄĳá» Ŀ
Ġnh uyá»ħn
ĠkhÃ ©t
Ġch Ä©a
Ġtháº ©n
ĠcÃ¡c bon
Ġqu ot
Ġqu Ä©
Ġkh ong
ĠÄĳÃ£ ng
Ġchá» ĵi
ot ton
an or
Ġra ng
Ġsáº ·c
ch ester
Ġnháº £
Ä© u
ĠT H
ĠT áº¡
ĠT ai
ĠT iá»ĥu
ĠT Ã¡i
ĠT ide
ĠT ulu
Ġlá» ıi
Ġlá» ¥i
Ġho oc
on i
Ġdá» «a
ĠC orn
Ġsá» ĩt
ĠM ao
ĠM olly
Ġtrá» ģ
ĠN Ã´ng
ĠN icholas
ĠB K
ĠB ong
ĠB iáº¿t
ĠB in
ĠB it
ĠB ac
ĠB ul
ĠB ion
ĠB all
ĠB ond
ĠB eth
ĠB agh
ĠH iáº¿n
ĠH ub
ĠH uck
ĠH uss
ĠH ome
ĠÄĲ o
ĠÄĲ iá»ĥm
en ix
ĠA I
ĠA th
ĠA ut
ĠA TM
ĠS Ã´ng
ĠS um
ĠS ony
ĠS ean
ĠS af
Ġhá»Ļ t
ĠmÃ¡ ng
ar o
Ġph Ãł
ĠP in
ĠP ran
ĠK I
ĠK ob
ĠL á»±c
ĠL áº¡nh
ĠL ake
ĠL HC
áº¹ t
Ġngá» ı
ĠG all
ĠG ood
ĠG owan
ĠTr Ã¬nh
ĠTr in
ĠTr Ã¢n
ĠTr áº¡m
ĠTr oy
ĠD C
ĠD ay
ĠD ep
ĠD olly
ĠD ennis
or m
Tr anh
Tr á»Ŀi
al og
Ġphá»¥ ng
ĠR NA
ĠR ain
ĠR iley
el i
iÃª c
Ġtho áº¡t
et e
at in
is cher
ĠQ uá»·
ĠJ oy
il ton
it o
ol ph
ĠF ood
ĠE iff
ĠE stonia
le ep
us ton
Ġ6 2
Ġ6 3
ĠTh u
ĠTh Æ°á»Ŀng
ĠTh Æ°á»Łng
ĠO z
ĠnghÃ ª
ur ia
ĠCh echn
Ġtrá»¥ i
ra g
ĠHo ff
Ġ8 8
Giá» ¯
Th u
ro ve
Vá» «a
re a
re z
Ġw hi
Ch ryst
id i
Chá» ĵng
Chá» įn
ĠSt ef
th eo
ĠU C
ĠmÃª nh
ĠThá» ĥ
Ġweb cam
ine ering
ĠGi áº¥c
ĠGi fford
tr ino
Ġrobot s
Ġo an
Ġf t
Ġf lash
Cháº ¡y
ĠChá» §ng
Ġvá»£ t
ib a
ChÃ ¬a
if i
az ar
ĠAn ton
ĠAn ne
Ġnháº¹ n
ĠTá» ¥i
ĠBr end
ĠZ etas
ĠIs tan
Ġáº¢ nh
Ġu áº¥t
ĠCar gill
Ġ201 4
Bá» Ĺng
KhÃ¡ ch
Ġ0 5
ph us
ov e
ĠDo anh
ain a
Ġ198 2
Ġ198 7
enn y
ann el
st an
Cá» §a
ĠRob ics
ĠBá» ī
ath y
sh mi
ĠMich oac
ĠSp ring
ĠSp lashy
Ġ196 8
ĠBl air
ĠBan k
ĠSau nd
urg a
Ġváº¹ t
ĠMá» Ľi
Ná» ¯
ĠHe ather
ĠLu ke
ĠRe agan
Ġná»ģ u
ĠNe umann
ĠKh Æ¡
end o
ĠKhÃ¡ c
ĠAnd y
Kh uÃ´n
ens p
ens tein
Ġ194 7
Ġ194 8
Ġngháº ¹n
ĠNgh Ä©
ĠRom a
ĠsÃ´ cÃ´la
ĠGab riel
me ister
ĠLib by
ĠStan ley
ĠAc tor
Lá» Ľp
ĠKhá» §ng
ĠDá» ħ
ĠWat er
AR S
ĠGen e
ĠBrook s
Ste f
ĠBon nie
Ġdollar s
ĠAv iv
ĠRo osevelt
ĠKn ee
ĠKn ight
anth a
ĠFer ris
ĠJac ob
ĠMiss ouri
ĠBud rus
ĠWi red
cá» ¥
ĠNo ah
Ġbl oop
ĠKal uza
ĠFar mer
ĠTer ence
Ġpherom ones
ĠPau ling
ĠFort une
ĠBroad way
ĠWhit acre
Ġpoly mer
ĠKhÃ Ń
Ġ74 7
Jos eph
ĠSad dam
pháº §n
Ġme erk
ĠAch ill
ĠKháº £
ĠSen egal
tháº Ńm
Ġbe ep
ĠOn line
ĠShir ley
Fran k
eng ineering
ngh Ä©a
ĠvÃª nh
ĠJess e
ĠHimalay as
ĠDAR PA
ĠClo ud
ĠColl ins
ĠUnivers ity
ĠBy rne
ĠKent ucky
ĠRu fus
ĠSci ence
ĠNI H
ĠWind ows
ĠJacqu es
agas car
ĠAlg eria
ĠAlt os
ĠSisy phus
ĠlÃº n
ĠCass ini
ĠClev eland
ĠSag meister
ĠGilli an
ĠHyder abad
ĠDuol ingo
ĠBagh dad
ĠHuss ein
ĠGowan us
ĠEiff el
ĠChechn ya
ĠIstan bul
ĠRobics ek
ĠSaund ers
Ġmeerk at
3 3
7 00
9 7
A L
A N
A lex
A rist
B r
B ren
C N
C áº§u
C al
C Ã¡nh
C hia
D er
E lizabeth
G V
G á»įi
H P
H Q
I m
J M
K á»¹
K ÃŃch
L u
M W
M an
M ang
N áº¥m
O OC
P ar
Q uyá»ĥn
R á»ĳt
R achel
S á»Ł
S ong
S hi
S im
S Ã¡ch
T ay
T ony
T unes
U E
V iáº¿t
V ideo
X u
c ow
c ul
c ock
d s
f el
k in
l áº¡i
l ia
m or
n háº
n is
n ic
p oint
p ress
r d
r t
r u
r as
s áº½
t s
t inh
t es
t ol
t ra
u ana
v ÃŃ
v old
w l
w ar
¹ t
Ì £
Ġ _
Ġ es
Ġ ub
áº µng
Ġt eo
Ġt Ã³t
Ġt ennis
Ġt áº¹o
Ġc Ãłm
Ġc áº±m
ĠÄĳ u
ĠÄĳ Æ¡
Ġn u
Ġn ao
Ġn áº¥y
Ġn ick
Ġn Ä©a
há» ĭch
Ġv Ã©t
Ġl t
Ġl áº£
Ġl im
Ġl iáº¿c
Ġm áºŃu
Ġm oi
Ġm ag
Ġb y
Ġb ung
Ġb Ãªu
Ġb Ã¡i
Ġb áº·m
Ġb iá»ħu
Ġk Ã©t
Ġs Ãłi
Ġtr Ãłnh
Ġtr á»ĵi
Ġng áº¥y
Ġng Ãłng
Ġng áº¥u
Ġng háº¿
Ġng áº¡ch
Ġng Ã¡p
Ġg r
Ġg u
Ġg Ãłn
Ġg oi
Ġg ara
Ġg áº«y
Ġh uyÃªn
Ġh ec
Ġh ead
Ġthá» ±
Ġr áº¡n
Ġr Ã²i
Ãª ng
Ãª in
Ġd á»Ļt
Ġd Ã¬m
Ġd áºŃt
Ġch Æ°á»Ŀng
Ġch iÃªc
Ġth Ãłng
Ġhá» Ľt
Ġtá» ħ
Ġqu á»ĩ
Ġgi Äĥng
Ġgi Å©
Ġgi Ã¹m
Ġx Ãª
Ġkh a
Ġchá» Ńi
Ġpháº ¿t
ay a
ay an
Ġbá» ıi
Ġbá» «ng
Ġbá» ©t
ĠT Ã¡c
ĠT iÃªu
ĠT uyáº¿t
ĠT ul
ĠT uc
ĠT ij
Ġdá» ım
ai jan
ĠchÃ ª
ĠnhÃ ²m
ÄĲ á»ĵ
ÄĲ á»įc
au x
in as
Ġná» Ľt
ĠC L
ĠC Ã¢y
ĠC Ãłng
ĠC áº¯t
ĠC áº£ng
ĠC áº¥p
ĠC os
ĠC it
ĠC háº¿
ĠC Phi
ĠC oke
Ġháº ¯t
Ġsá» ī
ĠM Ã´
ĠM á»Ł
ĠM ai
ĠM Ãłn
ĠM áº¥y
ĠM am
ĠM á»ĳi
ĠM un
ĠM itra
hi eu
Ġtrá» £n
Ġká» īnh
ĠN O
ĠN aomi
ĠB ai
ĠB Ãłn
ĠB Ã©
ĠH Æ°ng
ĠH em
ĠH Ãºp
ĠH ob
ĠH urt
ĠH annah
ĠH LV
ĠÄĲ Æ¡n
ĠÄĲ Ã¡nh
en os
ĠA ung
ĠA ss
Ġqua rk
Ġkhá» ĳ
ĠS o
ĠS han
ĠS ir
ĠS ach
ĠS aul
ĠS low
ĠS leep
Ġy um
iá»ħ m
ĠP av
ĠP ine
ĠP ants
ĠK a
ĠK ong
ĠK ÃŃch
ĠK erry
ĠL Ã²ng
ĠL á»ĩ
ĠL ind
ĠL agos
ĠL inda
ĠL OL
ĠL HQ
Ġá» ªm
Ġngá» ©a
ĠG oog
ĠG ram
ĠG ros
ĠG up
Ġngo áº¡c
ĠTr Ã´ng
Ġxu i
ĠD Ã²ng
ĠD ig
ĠD od
ĠD yson
or en
al o
Ġthu n
ĠR ap
ĠR aj
ĠR agu
el s
Ng hi
ĠI D
ĠI N
ĠI NCRA
Ġ5 9
ĠV iÃªn
ĠV Ã²ng
ĠV áº«y
ĠV ui
ĠV ila
Ġrá» §a
as hi
it an
ol ulu
ol ogy
ĠW ell
ĠW att
ĠW hoa
ĠF i
ĠE sk
ho v
ho use
ĠthÆ° c
us hi
om on
ĠO la
ĠO ne
ĠY os
li u
Ġ8 3
Ġ9 2
eb er
ÄĲá» ĭa
un n
un o
ro ject
ĠNew castle
re en
id es
id ad
Chá» ©
ĠSt ing
ah n
th an
th us
ig rut
op hia
Ġnhá»Ŀ n
ag ram
ĠX DR
Ġ12 00
ĠAl lo
ab el
ab ian
ĠThá» ©c
Má» Ŀi
ou ld
ĠGi áº£
ĠGi Ã¡c
ĠGi Ãºp
Ġ18 6
Ho ward
ack er
ĠTá» Ľ
ĠZ ambia
Ġma fia
eg as
eg rass
Ġu p
ĠSh ack
Bá» ĭ
ĠEm manuel
ip pi
yl oid
ĠGiá» ¯a
ers burg
Ġ17 0
ĠÃģ nh
Ġláº» o
ock s
ĠPháº £n
ĠCháº ¥t
Ġnho Ãł
Ġ197 2
Ġ197 4
Ġ197 6
á»ĩ n
ĠGeo ff
pp er
ĠMc Chryst
ĠCol lider
ĠMo unt
ĠTháº Ńp
der ick
ĠBe ar
ug ust
ug ata
illi e
ĠHá» ıi
ĠThÃ ªm
ĠNá» ģn
ĠDar fur
di es
ĠKh ai
ĠPet ersburg
Ġngháº ¹t
ĠNgh iá»ĩp
ĠTor osaurus
ĠNháº £y
ĠNháº ¡c
iss ippi
ĠFre eman
.. ..
ix on
eh r
ĠchÃ¹ i
ĠMad agascar
Ġcent s
ĠMe ch
ĠMe ad
ĠGal ileo
Ġmicro phone
Lá» £i
Ġnhá»ĭ n
ĠSim pson
ĠKar en
ĠDá» ¥c
ĠnhÃ£ ng
ĠLad y
Kháº ¯p
ĠSu u
ĠTrá» ¥c
ĠNan o
ĠBu enos
ĠPl ay
Ġser ies
Ġpound s
ĠHans en
ĠBol t
ĠKy i
ĠRock ett
ĠDe ep
ĠBlack berry
ĠAir es
ĠAir stream
ĠFor bes
ĠMos cow
ĠHill s
ĠAri ely
ĠTit anic
Ġmil i
ĠPro ject
sk i
ĠKu wait
ĠLar amie
las ma
ĠSk id
ĠWi i
Ġenz im
ĠRand olph
ĠBot sw
ĠJord ans
Ġmu á»Ļi
Ġgl uten
ĠMas low
ĠGeorg etown
Ġeur eka
bor ough
Khá» ĳi
Khá» §ng
ĠHad ron
Ġenzy m
ms trong
ĠArab ia
ĠMcG on
ĠSil ver
ĠSchw artz
Ġsun phua
erb aijan
ĠPink er
ings uit
ĠWiki Le
Jon athan
Jenn ifer
tz mann
ĠJuli et
Ġaw esome
ĠTob ago
ĠPas cal
hr vold
eyn man
trol ux
ĠAndr oid
ĠPe ace
ĠEconom ist
ming ham
Ġsal ad
ĠHon olulu
ĠViv ian
ĠOw ens
ĠUt ah
ĠHirsh horn
ĠNev ada
ĠHud son
ĠPre go
ĠKap lan
ĠGlad well
ĠDD T
ĠNaj muddin
ĠBK T
ĠBit co
ĠGifford s
Ġub untu
Ġngháº¿ ch
ĠTuc son
ĠHurt igrut
ĠGup ta
ĠMcChryst al
ĠHurtigrut en
0 5
2 7
3 8
A f
A ngel
B S
C R
C r
C Ã´n
C ol
C háº¿
C ard
D U
E s
F L
F i
G B
G hi
G ab
H S
H áº±ng
H áº¿t
H iá»ĩp
I Y
I CE
J ack
L M
L au
L á»ĳi
L ewis
M a
M áº¯t
M á»±c
M á»¹
M Ã³n
N o
N Ã´ng
O s
S c
S an
S arah
S ylvia
S phere
S ebastian
T á»Ļi
T Ã¡m
V Ã´
V Æ°á»£t
X a
a hoo
b á»
b Ãł
b al
b ro
b ach
b eta
c uá»Ļc
c ed
d t
d ay
f ul
g a
g y
h asa
j ad
k ut
l Æ¡
m Ã´
n est
n ish
o xy
o fi
p en
p era
r ot
r ai
s ey
s ain
t u
t áº¡o
t eo
v ald
w ork
x Æ¡
z net
z ka
§ u
Ã Į
à ¸
Ġ áº¯t
Ġ er
Ġ ap
Ġ oli
Ġ organ
Ŀ ng
Ń ch
á» ªm
áº ¤
Ġt Ã¬
Ġt Ã£
Ġt áº¿t
Ġt uyá»ģn
Ġt uá»ĳc
Ġt uá»ĳi
Ġt Ã¡ng
Ġc au
Ġc Ãºc
Ġc ass
Ġc oll
Ġc otton
Ġn áº¯n
Ġn ap
hÃ ¨o
Ġv Æ¡i
Ġv áº£y
Ġv ali
Ġl e
Ġl á»įi
Ġl Äĥm
Ġl Ã¹a
Ġl Ã¬a
Ġl Ã¹n
Ġl á»±u
Ġm Ãº
Ġm áº«n
Ġm Ãºc
Ġm Ã¨
Ġb áº¡
Ġb áº½
Ġb Ãºp
Ġb áº¥p
Ġb la
Ġk ang
Ġs áº¥y
Ġs á»įt
Ġs Ã©c
Ġng Ã¡y
Ġg uá»ĵng
Ġg uit
Ġh Æ¡
Ġh em
Ġh it
Ġr em
Ġd áº£
Ġd es
Ġd Ã£n
Ġnh eo
qu are
Ġvá» ¯a
Ġvá» «ng
ĠcÃ³ ng
Ġch uá»ĳt
Ġhá» §
Ã£ nh
Ġqu Ã¡c
Ġqu áºŃy
Ġgi Å©a
Ġx Ã¹
Ġx iáº¿c
Ġx áº»o
Ġkh uá»·
ĠthÃ ²
Ġpháº Ńt
Ġpháº ©u
Ġpháº §m
Ġgiá» ¡n
Ġnháº ±ng
Ġcáº£ u
Ġbá» £
Ġbá» £m
ĠT Ã´n
ĠT ut
ĠT NC
Ġlá» ķ
Ġlá» Ľi
on s
Ġdá» ĥ
Ġcháº §m
ĠchÃ ²i
ĠchÃ ²m
ĠhÃ £n
ÄĲ Ã¡nh
Ġmá» ĭt
au st
in ia
in ess
in awa
ĠC art
ĠC ash
ĠC eline
á»ĵ m
Ġto an
Ġto Ã¡t
ĠM áº¥t
ĠM iá»ģn
ĠM is
ĠM ik
ĠM ul
ĠM ore
ĠM od
ĠM á»Ŀi
ĠM org
ĠM AS
ĠM OOC
Ġkho Ã©t
ĠsÃ¡ n
em ite
ĠN R
ĠN ap
ĠN iá»ģm
ĠN SA
ĠN ino
ĠN ixon
ĠB B
ĠB uy
ĠB áº§u
ĠB áº£ng
ĠB Ã¡ch
ĠB ak
ĠB og
ĠB everly
Ġlo Ã¡t
er en
ĠH S
ĠH or
ĠH and
ĠH eb
ĠH áº¡nh
ĠH art
ĠH ipp
ĠH AL
ĠÄĲ H
ĠÄĲ Ãłng
ĠÄĲ en
ĠÄĲ áº¥u
ĠA w
ĠS in
ĠS á»ĳt
ĠS ue
Ġph Ãłm
ĠP R
ĠP i
ĠP ao
ĠP hÃºc
ĠP ear
ĠK w
ĠK an
ĠK oh
ĠK ris
ĠK ros
ĠK ant
ĠL em
ĠL Æ°á»£ng
ĠL ow
ĠL ight
ĠL isa
ĠL ife
áº¹ n
Ġá» ¥
Ġá» ī
Ġá» Ķn
Ġngá» Ĺng
ĠG ut
ĠG ell
ĠG mail
ĠG ould
Ġngo áº·c
ĠTr áº¡i
ĠTr ang
ĠD M
ĠD am
ĠD om
ĠD ew
ĠD áº¡ng
ĠD ak
ĠD ow
ĠD ev
ĠD own
ĠD har
ĠD uke
ĠD IY
Tr i
Tr á»
Tr áº£i
im a
im p
Ãµ ng
ĠR I
ĠR as
ĠR ho
ĠR ah
ĠR á»ĵng
ĠR ica
ĠR IA
el op
el ling
Ġquyá» ĩn
Ng á»
Ng á»ĵi
Ng há»ĭch
ĠI V
ĠI ce
ĠkhÃŃ t
Tháº ±ng
Tháº Ńp
Ġso und
Ġso cola
ĠV áº¡n
ĠV áºŃn
ĠV ib
ĠV á»įng
ĠV ideo
ĠV iag
at ra
Ġrá» ĥ
ĠQ uyá»ĥn
ĠQ uyáº¿t
ĠJ ans
ĠJ aw
ĠJ ake
ĠJ obs
Ġba ss
ĠÃ Ĭ
il m
il lo
il ity
il ever
il ocks
as te
it or
it al
it ed
it iba
Ġdi ng
ĠW ong
ĠF oster
ĠF ez
ĠF ull
ĠF aiza
ĠE r
ĠE ngel
ĠE ames
Ġ10 3
ĠNg á»įn
ĠNg oÃłi
Thá» ©c
ad ema
om a
ĠTh uá»·
ĠTh atch
ĠO m
ĠO ld
ĠnghÃ ©n
ob log
ur ich
ĠCh e
ĠCh ap
ĠCh and
ĠCh ev
ĠCh uck
ĠY ellow
Ġ7 1
Ġ7 3
Ġ7 9
li f
Giá» Ľi
Ġgá» «ng
Th Æ°
Th Æ°Æ¡ng
ĠÄĲá» §
id ge
Chá» Ĺ
Chá» Ŀ
th a
ig n
ist ry
ran i
ĠU hm
ag ue
ĠX c
ĠbÃŃ t
av i
av el
Äĳ á»ĳi
oc zka
ĠNh anh
ĠNh iá»ĩm
son ian
han ol
te au
Ġxá» Ľi
Ġxá» Ńa
ie g
ie v
Ġf áº£i
Ġf ont
Cháº ¿t
ĠMar x
Ġ25 000
Ġ11 00
ChÃ Ńn
ry lic
az o
ack ing
ick lider
iv ia
iv es
Gi Ã³
he im
art u
ĠBr ent
ĠAr mstrong
ĠZ ipcar
ion s
de en
ert o
Ġ14 00
Bá» Ŀi
od y
od ka
Ġ21 00
Ġru pi
ĠHai dt
ach i
ach t
Ġi Tunes
ain t
Ġ198 1
ĠnÆ¡ ron
ĠnhÃ¡ i
ĠnhÃ¡ m
ĠPháº «u
ann es
ann ica
lin t
ĠCháº ¡y
amb le
Ġ197 7
Ġ197 8
Cá» Ńa
ĠCá» ¥
ĠCol le
ĠBá» ¯a
iz a
ĠPal in
Ġ196 9
ĠRos sy
ĠNig ht
ĠBar bie
ani um
Ġj e
ug u
Ná» ķi
ĠCho pin
ĠSch ul
ĠPhá» ķ
ĠCr uz
ĠMa as
ĠHe alth
ott o
ĠKh al
ĠHarv ey
end or
ĠKhÃ¡ m
ĠAt kins
ĠAnd es
Kh ung
ĠJos h
ĠOr kut
ĠOr nish
Ġxá»ī n
our ne
eth yl
ĠchÃ¹ n
ĠGreen ville
Al ain
Dá» «ng
ĠCo us
ĠSam antha
red dies
ust y
Mar garet
esh a
Ġ195 3
we il
ĠMy hrvold
ĠGo gh
ther land
ĠAh mad
con sin
ĠSu therland
Ġháº» m
ĠGen ev
ĠPer cy
Ġngá»« oi
ef eller
mon ia
Ġac rylic
ĠPat el
ĠUn ilever
ĠJer emy
ĠRock efeller
ĠTur k
ĠSi ri
Chi m
ĠTit an
ĠCD C
ĠGold man
ĠGold ilocks
sk ey
Ġcal or
Ġkil omet
ĠDr ori
ĠVal ley
ĠVal dez
ĠPop e
ĠSand y
ĠKu znet
ĠAtlan tic
Car l
ĠMiss issippi
ĠBud ap
cá» ©
cá» §a
mar in
ĠAlbert a
ĠMatt hieu
ĠBot ton
ĠAus tin
ĠIg bo
rr rr
ĠFar m
sc ape
ĠPau lo
ĠPau la
ĠEv ans
ĠEv elyn
ather ine
otter dam
ĠShe ila
bor azo
ĠKam en
ĠBrit ish
ĠBrit annica
ĠLuc y
ĠRes nick
Ġet c
Ġet hanol
ĠEle anor
And rew
Ġbo om
ĠNhá» Ŀ
ĠRid ge
ĠIP CC
ĠShir ky
ĠVer me
ĠJan ine
ĠAllen de
ĠBeat les
Ġter awatt
ĠMak oko
Tho áº£
ĠPor ter
ĠGri ff
ĠBow l
ĠAz erbaijan
ĠReb ecca
ĠBry an
ĠHind u
ĠGul f
ĠWis consin
ĠEar le
ĠInst agram
Ġad ren
Ġtrans istor
oss um
Christ opher
ĠBroth ers
ĠChim borazo
ĠRobb ins
Ġcou marin
ĠMard uk
ĠBand ura
ĠPho enix
ĠRep ort
Ġmicr oblog
ĠDiam ond
Ġneu tron
ĠElec trolux
ĠSnow den
ĠKurd istan
Ġsex y
ĠBion ic
ĠHoff man
Arist otle
tol emy
ĠTij uana
ĠSach s
ĠKa aba
ĠYos emite
ĠBotsw ana
ĠWikiLe aks
ICE F
Ġoli u
Ġcoll agen
Ġguit ar
ĠKros oczka
ĠRho de
ĠRIA A
ĠThatch er
ĠYellow stone
2 1
4 2
8 4
A lan
B iáº¿n
B Äĥng
B ra
C D
C S
D on
D NA
D ean
E E
E SC
G r
G Ã£
H I
H Æ¡i
H ar
H Æ°á»Ľng
H om
H áº¡nh
H ub
H enry
I I
I S
J O
J S
J ean
J ane
J ake
K i
K Ä©
K áº»
L B
L S
L uáºŃn
L uc
M L
M Ãłn
M áº£nh
M al
M ic
M ah
M ike
N H
N ic
N ew
O ng
P I
P esa
R a
R Ãło
R iÃªng
R ock
R ives
S K
S us
S á»ĳng
S ec
S eth
S cript
T O
T Æ°á»Ŀng
T iá»ĥu
T á»Ń
T áº§ng
U hm
V ui
X Æ°Æ¡ng
X Ã¡c
Y ou
Y ves
b s
b ot
b iáº¿t
b ia
b art
b ell
b all
b age
b ourne
c es
c Ã¡ch
c li
c les
c raft
d ney
d own
e a
e id
e ing
g Ã´
g ic
g li
g endor
k ina
k ley
k heim
l Ã´ng
l ap
l ett
m in
m al
m el
m ore
m aster
n Äĥm
n ess
o oth
p ur
r el
s a
s us
t y
t á»
t ar
t á»ĳi
t ain
v o
v iáº¿t
v ir
v ian
w an
w ey
w ind
w itz
x a
y w
y ama
z i
¬ m
´ m
Ã ¶
Ġ (
Ġ *
Ġ áº¯ng
Ġ oi
Ġ ib
Ġ Ã¹n
Ġ out
á» ī
á» ľ
á» ¨ng
Ġt áº§u
Ġt Æ¡i
Ġc Ãłn
Ġc Ã²ng
Ġc uá»ĳc
Ġc om
Ġc Ãºt
Ġc áº³ng
ĠÄĳ ay
ĠÄĳ Ãłnh
ĠÄĳ ung
ĠÄĳ ÃŃt
Ġn áº§n
Ġn ua
Ġn Ã²i
Ġn áº»o
Ġn ÃŃt
Ġv o
Ġv s
Ġl áº·t
Ġl it
Ġl iÃªm
Ġl Æ°Æ¡n
Ġm on
Ġm áº©n
Ġm áº«m
Ġb Ã¨n
Ġk ar
Ġs in
Ġs Ã¢m
Ġs áº£ng
Ġs Ãło
Ġs áº§m
Ġs ushi
Ġtr c
Ġtr y
Ġtr iá»ģn
Ġtr uá»µ
Ġg á»Ļt
Ġg á»Ł
Ġg áº¯m
Ġg á»įt
Ġg Æ°Æ¡m
Ġg aga
Ġh al
Ġh ep
Ġthá» Ľt
Ġr e
Ġr oi
Ġr á»įc
Ġr Ã¡m
Ãª nh
Ġp H
Ġp ost
Ġd ot
Ġd er
Ġd en
Ġd á»Ļng
Ġd iá»ĩp
Ġd Ã£i
Ġd um
Ġd Ã¬u
Ġth on
Ġnhá» ¡
Ġnhá» «ng
Ġhá» £t
Æ¡ ng
Ġtháº ·ng
ĠnÃł i
Ġqu ai
Ġx iÃªn
Ġx Ã³c
ĠthÃ ¢u
ot hic
Ġpháº ¥t
Ġcho n
Ġcho les
an et
an ce
Ġsáº ¯n
ch el
Ġbá» Ľ
Ġbá» ĵng
ĠT e
ĠT hÃº
ĠT on
ĠT áº§m
ĠT á»Ļi
ĠT il
ĠT ho
ĠT us
ĠT ab
ĠT ill
ĠT hom
Ġlá» ¯
Ġho c
Ġho o
on te
ai m
ĠhÃ ³i
ĠnhÃ ³i
ÄĲ iá»ĥn
Ġmá» ¥n
Ġná» ©c
ĠC H
ĠC ung
ĠC á»Ń
ĠC ookie
ĠC SF
Ġháº ¥n
Ġto i
ĠM ack
ĠM ann
ĠM ania
ĠM aine
em e
hi m
Ġtrá» ķ
ĠN ad
ĠN ow
ĠN ok
ĠB au
ĠB iá»ĩt
ĠB us
ĠB ut
ĠB log
ĠB eck
Ġlo Ã©t
Ġlo ve
er al
er os
er inc
ĠH áº£
ĠH ang
ĠH Ã¡n
ĠH os
ĠH ell
ĠH ers
ĠH atz
am er
Ġ2 20
ĠÄĲ oáº¡n
en burg
en cia
ĠA y
ĠA ud
ĠA ust
ĠA gar
ĠA ugust
ĠS l
ĠS áº£n
ĠS es
ĠS ac
ĠS ard
ĠS lick
ĠS OL
ĠS tern
ĠS ARS
Ġbá»Ļ n
Ġkháº ½
Ġph en
Ġph iáº¿m
ĠP T
ĠP en
ĠP ent
ĠP SA
ĠP MT
ĠP tolemy
ĠK er
ĠK il
ĠK ey
ĠK rist
ĠK ool
ĠK iev
ĠthÃ¡ n
ĠL áº¯ng
ĠL ess
ĠL uria
ĠG a
ĠG Ã¡i
ĠG ambia
ĠG amble
ĠTr a
ĠTr iáº¿t
ĠTr áº¡ch
ĠTr Ã¡nh
Ġxu á»ĵng
ĠD Ã¹ng
ĠD áº¥u
ĠD Æ°á»Ľi
ĠD aw
ĠD all
ĠD amas
or io
or ex
or ity
Tr áº§m
Tr Ã¡ch
al s
es el
es cop
os ia
os lav
ĠR an
ĠR Äĥn
ĠR Ãµ
ĠR ev
ĠR onald
ĠR ory
ĠR oll
el ah
ĠxÃ£ y
et z
Ng áº¯n
Ng áº¡c
ĠI an
ĠI ow
ĠI da
ĠV as
ĠV ill
ĠV ul
ĠV ent
ĠV egas
Ġ4 9
ĠJ en
ĠJ et
ĠJ ob
ĠJ ur
ap a
il yn
as e
as y
as than
Ġdi esel
ol s
ol is
ĠW ag
ĠW off
ĠW HO
ĠF B
ĠF I
ĠF in
ĠF ow
ĠF ek
ĠF ern
ĠF low
ĠF oot
ĠF ear
ĠF ild
ĠF eynman
ĠE is
ĠE bert
ĠE rik
Ġcháº¡ c
Ġ19 10
ho ma
ter ol
ĠNg Ãł
ĠNg á»±a
Thá» ĳng
us ion
ac orex
and i
and on
and ro
Ġ6 1
ad da
ĠO ut
ob an
ĠPhi m
ĠCh Æ¡i
ĠCh uyÃªn
ĠCh az
ĠCh amp
ĠY ug
ĠHo d
ĠHo áº¡
ĠHo uston
Ġ9 1
Ġtháº£ nh
ĠchÃ¡ o
Ġ200 00
ÄĲá» ģ
ÄĲá» ©ng
Th uáºŃt
Th uyáº¿t
ri o
ri et
ro c
ĠÃ´ xy
ĠÄĲá» ģ
re al
re ad
Ġw i
Ġw ingsuit
Ch Ãłng
net h
ĠIn uit
id er
Chá» «ng
ig al
ig man
ig uel
op lin
ĠU h
ĠU NA
ĠU SA
ĠU SB
ĠX á»Ń
lo yd
Ġsu Ã´ng
ab i
ab ility
Tá» Ŀ
ak h
oc co
ĠNam ib
Ġxá» ı
um en
tr Ãªn
tr Æ°á»Ľc
ik er
ich a
Ġf MRI
Ġf ischer
Ġf ilm
Cháº £
Qu áº§n
Ġcá»¡ i
la homa
ent o
ir d
ian e
ian s
ry n
if t
az i
ex t
ĠAn na
ĠQu een
Ġvá»ı n
ĠTá» ī
Ġhu Ã½
Gi áº£m
ĠAr n
ec tor
ĠZ ach
eg a
Ġ16 00
ĠSh in
ĠSh reddies
ĠVá» ĭ
Ġ13 00
Ġprot Ãªin
KhÃ¡ m
yl l
NA SA
ĠFran s
eria l
ĠCan al
ĠDo yle
ain s
ĠnÆ¡ trino
enn a
Ġláº» n
und y
ĠdÃ² m
ĠMc Mur
ĠMc Lu
Ġtá»ĭ t
Ġim p
ĠMon ster
ĠtuÃ½ p
ĠPal mer
Ġ196 3
ling er
ĠTháº £o
ĠTháº ¥y
ĠBar ric
ĠBar cel
ĠPar ik
ĠKho áº»
ĠJo urn
ĠWas h
ĠGre y
ĠEd ison
ĠMá» «ng
ĠTEDx B
Ġco de
ĠLá» £i
Ġcacbon at
ros pera
ĠHá» Ĺ
up rof
ĠNá» Ńa
ĠHe idi
ĠLu ton
ĠPhÃ ©p
ĠOk inawa
ĠOk lahoma
ĠKhÃ¡ ch
ĠAt ala
Kh al
Ġrad ar
ĠFrank ie
ĠMal colm
ĠMal thus
ish er
ĠInd ia
ĠJos e
ĠAdam s
ĠSmith sonian
ĠRichard s
ĠAlex is
Ġinch es
bur st
ĠMan ju
ĠMad rid
ĠSy dney
ala am
Ġvacc in
ĠCo ast
ĠCo unt
ĠEn ron
Lá» Ľn
ĠBur kina
ĠBab bage
ĠKhá» ķng
ĠKar achi
ĠDá» «ng
ĠWhi rl
ĠWar ner
Kháº ©u
ĠGia com
ĠMah ab
Ġam yloid
Ġgh iáº¿c
Ġshow s
ze iro
eop athy
ĠAs pen
mon t
Ġser i
Ġop ossum
ĠBol tzmann
ĠBol ivia
ĠTur ing
ĠCap etown
ĠMor ris
ĠMor occo
ĠMel bourne
ĠAv atar
arth eid
ĠMil an
ĠSer gey
ĠMill s
ĠMill y
ĠHill ary
ĠUSD A
ear ch
Ġtweet s
Phi m
Phi lip
ĠMer ced
ĠBi eber
ĠDon na
ĠFri end
ij erinc
ĠMiss ion
ĠRand i
ĠAlbert o
Ġmu Ã´ng
ĠPower point
ĠMin ority
ĠBir mingham
ĠAR ES
ĠPort land
ĠIt aly
acy OS
urt is
ĠJane iro
ĠMcC ain
ild ing
ĠPhilip s
Jos hua
Ġhel i
ĠMap s
ĠSol omon
ĠRes earch
ĠES P
ocr acyOS
ĠEdward s
pháº £i
ĠSá» Ńa
ĠGro und
ĠRad cli
Ed ward
Ġnguá» ĩch
ĠthÃ¢ t
ĠNhá» ĭp
ĠNathan iel
Sá» £i
ĠBM W
ĠUkr aina
áº¢ o
ĠPier re
ĠGan Äĳi
ĠJess ica
ĠUN ESC
oul der
ĠHimalay a
Ju lian
Sam uel
Ġsun f
ĠMot or
ĠMot ors
ĠLov e
ĠLock e
ĠEc ua
RC K
ĠMeyer owitz
ĠHas bro
ĠPu gh
ĠWh ole
adi ja
ĠHot mail
ĠJar rett
hod ops
Chu á»Ļt
Ġpar ab
ĠÄĳá»ħ nh
ĠMid west
ĠHut ch
ĠSel igman
ĠImp rov
ĠJava Script
ĠStand ford
aby te
ĠChild ren
ĠDiet rich
ĠPhillip s
ĠMoham ed
vent ist
Ġep oxy
Ġdiox it
ĠCru zeiro
ĠBuff ett
ĠDenisov an
ĠhÃº p
ĠÆł n
ÄĲo Ã¡n
ĠNik ola
ĠGard en
ĠJoh annes
ĠPhilipp ines
ĠPyth on
ĠHub ble
ĠÄĲo Ãłn
ĠKI PP
ĠTrin idad
Ġwhi skey
ĠStef an
ĠSpring s
Stef an
Bren da
Sim on
wl n
ĠTul ley
ĠCos ta
ĠGros s
ĠRaj asthan
ĠEsk imo
ĠAllo Sphere
ĠMcGon igal
vald s
ĠtÃ¬ n
Ġrem ix
ĠMOOC s
ĠNR K
ĠRI SD
ĠGenev a
ĠKuznet s
ĠBudap est
Mal colm
gendor fer
Ġib uprof
Ġcholes terol
ĠPMT CT
escop e
ĠIow a
ĠFow ler
ĠFek i
ĠFild es
ĠYug oslav
ĠNamib ia
Ġfischer i
ĠMcMur do
ĠMcLu han
ĠBarcel ona
ĠJourn al
ĠWhirl wind
ijerinc k
ĠRadcli ffe
ĠUNESC O
Ġibuprof en
1 50
2 2
2 3
5 4
6 6
7 8
8 6
A b
B O
B iÃªn
B áº£ng
B ar
B á»ĳi
B ath
B arry
C O
C an
C á»±c
C áº¥u
C áº£i
C ynthia
D D
D Ã¢y
D ay
D ou
E x
F N
G F
G raham
G ever
G wen
H D
H u
H iáº¿n
H iá»ĥu
H áºŃu
I ran
J B
J E
J N
J Y
K iá»ģu
K ia
K im
L a
L inh
M U
M el
M ik
M ann
N e
N háºŃt
N elson
O B
O R
O W
P R
P al
P rospera
R ay
R on
R ick
R og
R oy
R á»«ng
S I
S m
S er
S ing
S obule
T A
T Ã´
T am
T Äĥng
T al
T áº¡m
T uá»³
U S
V M
V o
W ar
W illiam
X ung
b ard
b ee
b untu
c á»ĳ
c an
c áº§n
c ut
c ov
d u
d on
d áº«n
d ol
d ing
d ore
d og
e al
f or
g u
g us
g ers
g ate
h em
h man
h ere
i et
j in
k s
k w
k hÃ¡
k off
k owitz
l ass
m ins
m ark
m apa
n j
n há»
n on
n ers
n ational
n ame
p op
r es
r il
r ad
r oir
s p
s á»ĳ
s ky
s ler
s ide
s hoo
t Ãª
t uy
t ia
t hÃ¡
t oo
u gh
v ia
v ed
v ey
v ani
w al
w orth
z o
z an
z on
z ac
z weil
¡ m
Ã ¸
ï ľ
Ġ Ã³
Ġ Ãª
Ġ ang
Ġ ol
Ġ om
Ġ áº©u
Ġ ïľ
ķ n
Ļ ng
á» ģu
áº ł
Ġt Ãł
Ġt ong
Ġt Æ°ng
Ġt Ãło
Ġt áº¥p
Ġt áº©m
Ġt Ä©u
Ġc Ãºp
Ġc áº¡ch
Ġc Ã¹a
Ġc ta
Ġc Ã¹n
Ġc oban
Ġn Ã¡
Ġn ong
Ġn in
Ġn áº¡o
Ġn Ã¡i
Ġn et
Ġn hÃºc
Ġn uc
Ġn Ã´m
Ġv áº¯n
Ġv Ã¡t
Ġl Ã¬
Ġl áº±ng
Ġl Ã¡n
Ġl es
Ġl Ã²i
Ġl iá»ĩng
Ġl áº©m
Ġl áº±n
Ġm áº£y
Ġm Æ°á»£t
Ġm ail
Ġm ini
Ġb ai
Ġb Ã²ng
Ġb uá»ĳt
Ġb uc
Ġb ridge
Ġb urger
Ġk Ã¨
háº §u
nh iá»ģu
Ġs Ãª
Ġs á»Łi
Ġs Æ°a
Ġtr Ä©
Ġtr uá»
Ġng Ã´ng
Ġng Ã¡n
Ġng Ã³ng
Ġng á»ĳn
Ġng áºŃm
Ġng Æ°á»Łi
Ġg ao
Ġg Ãłi
Ġg áº¥m
Ġg uga
Ġh e
Ġh Äĥm
Ġr Ã´i
Ġr Ã¬
Ġr uy
Ġr en
Ġr Ã¡ng
Ġr Ã¡o
Ġr á»ĳn
Ġr Ã¢t
Ġp l
Ġp arty
Ġd áº»
Ġd áº§m
Ġnh Ä©
qu i
Ġvá» ĵ
Ġch y
Ġch annel
Ġth ong
Ġth Æ¡i
Ġhá» ¯ng
Ġhá» £m
Ġqu áº¥t
Ġqu Ãłng
á»± ng
Ġgi áº±ng
Ġgi Æ°Æ¡ng
Ġgi Ãµi
Ġx Æ°á»Ľc
Ġx Ã¡t
Ġx áº©y
Ġx áº¯p
Äĥ t
Ġpháº ©y
ay ne
ch a
ch ang
Ġnháº ©m
Ġnháº µn
Ġnháº ±n
ang a
ÃŃ p
Ġbá» §a
Ġbá» ĩn
ĠT G
ĠT Q
ĠT ang
ĠT en
ĠT uá»ķi
ĠT at
ĠT ak
ĠT own
ĠT ata
ĠT ech
ĠT uáº§n
ĠT á»ĵn
on en
on chi
Ġdá» ©a
ai k
ai pur
Ġcháº ¥u
ĠchÃ ¹ng
ĠnhÃ ¢t
ÄĲ áº¥u
Ġmá» ģn
au cas
in ner
ĠC T
ĠC uá»ĳn
ĠC Äĥn
ĠC áº©n
ĠC at
ĠC Ã¡nh
ĠC ed
ĠC ab
ĠC av
ĠC ron
ĠC ox
ĠC iti
ĠC reat
ĠC ynthia
ĠC urtis
ĠC aucas
Ġháº ¥u
Ġcon tain
Nh anh
Nh ung
Ġ-- --
ĠM w
ĠM Ã¢y
ĠM ang
ĠM iáº¿n
ĠM es
ĠM Ã³c
ĠM oi
ĠM Ã£i
ĠM ick
ĠM ut
ĠM all
ĠM ach
ĠM ug
ĠM illi
ĠM atch
ĠM aid
ĠM istry
eo ul
ĠnháºŃ m
hi um
hi cÃ´
Ġká» ģn
ĠN H
ĠN iáº¿t
ĠN ab
ĠN ou
ĠN eg
ĠN ash
ĠB R
ĠB j
ĠB is
ĠB ri
ĠB ran
ĠB ed
ĠB ess
ĠB orn
ĠB ass
ĠB oran
ĠB ati
ĠB urger
ĠB etty
ĠB undy
ĠB oulder
ĠB RCK
Ġlo l
er rof
ĠH Ã´n
ĠH áº¡t
ĠH ard
ĠH ab
ĠH ep
ĠH ama
am en
ĠÄĲ Ã¡
ĠÄĲ áº·t
ĠÄĲ á»Ļi
ĠÄĲ áº¹p
ĠA O
ĠA k
ĠA qu
ĠA icha
ĠS S
ĠS Ã£o
ĠS at
ĠS Ã³ng
ĠS lo
ĠS av
ĠS ev
ĠS amb
ĠS ok
ĠS ivers
ĠS ebastian
ĠS AT
ĠS val
ĠS AN
ĠS ophia
ĠS aint
ĠS alaam
ĠS eoul
Ġkháº £i
Ġdo w
ar ter
ar oid
Ġph Äĥng
Ġph Å©
ĠP M
ĠP ad
ĠP ew
ĠP ash
ĠK ÃŃ
ĠK ev
ĠK ohn
ĠK ath
ĠK ind
ĠK emp
ĠK af
ĠK erm
ĠL Ã¡
ĠL Æ°Æ¡ng
ĠL am
ĠL áº½
ĠL iv
ĠL ip
ĠL aman
ĠL azar
Ġtrá»į c
Ġá» Ĳ
Ġngá» ¥m
ĠG uy
ĠG ang
ĠG iáº¿t
ĠG iÃªng
ĠG le
ĠG ra
ĠG un
ĠG las
ÄĲÃ³ ng
Ġngo i
ĠTr áº£
ĠTr ib
ĠTr ek
ĠTr acy
ĠD ry
ĠD ut
ĠD ink
ĠD urga
or ge
Tr áºŃn
Tr á»ĵng
al er
al ah
al ine
al ly
al ph
al ach
Ġthu Ã½
es on
es ia
ĠR ao
ĠR ic
ĠR ey
ĠR ud
ĠR oth
ĠR á»«ng
ĠR atan
ĠR umi
ĠR OV
ĠR otterdam
el in
el la
el lie
el ile
Ng Æ°Æ¡i
Ġkhu a
ĠI phone
ĠI GF
ĠV Æ°á»£t
ĠV ish
at or
is ch
is er
is el
Ġrá» ı
Ġrá» ¥t
ĠQ uy
ic ip
ĠJ r
ĠJ oplin
ap h
as o
as ca
ol eros
ĠW I
ĠW T
ĠW ord
ĠW ond
ĠW ald
ĠW ound
ĠW ool
ĠF M
ĠF l
ĠF ir
ĠF ren
ĠF itz
ĠF lem
ĠF ire
ĠF aso
ĠvÃŃ t
Ġchá»ĭ t
ĠNg á»
Thá» ĥ
ac s
ac ey
and t
ad io
ĠTh r
ĠTh an
ĠTh uá»ĳc
ur f
ur i
ur man
ĠCh ung
ĠCh ina
ĠY un
ĠY ahoo
ew ay
ĠHo g
ĠHo áº¡t
Ġ9 000
Ġsá»Ł n
oo oo
oi ng
ÄĲá» §
ÄĲá» Ŀi
ÄĲá» £i
ÄĲá» ķi
Th anh
ĠChÃ Ńn
ri ve
un ta
ro e
re ct
Ġw e
Ġw ww
Ch iá»ģu
Ch uyÃªn
Ch uá»Ĺi
Ġ100 000
Ġá»ķ ng
ĠSt y
ĠSt ep
ĠSt ud
ĠSt ore
ah aha
th u
ig ai
ran n
Ġca bin
ĠU sain
ed ic
ag on
ag ra
ĠX a
ĠX o
ĠX uyÃªn
ĠX uá»ĳng
ĠAl ess
ĠAl ley
ab e
ab bal
ab asca
ak a
ak shmi
av in
av er
Äĳ á»«ng
oc aust
ĠGi áº£m
te c
ill er
ill ia
Ġxá» ĭ
Do anh
Ġ18 50
Ho a
Ho Ãł
tr y
tr and
ik a
ik h
Ġo Ã¡i
Ġo zone
Ġf u
Ġf iss
ĠMar ie
ĠMar cus
ĠMar tha
ĠMar ilyn
ĠtrÃ¬ u
ul linger
Ġbá»ģ nh
ĠChá» ©ng
ĠChá» įn
Ġhi pp
Ġhá»ķ n
la es
ent al
ĠtÃ´ t
ĠCon st
ĠAn at
ĠAn ony
ud e
ĠQu Ãªn
ĠQu ix
ĠTá» ·
ĠcÃº n
est a
he ad
ĠBr in
ĠBr en
ĠZ ero
ĠZ urich
ĠZ abbal
ĠZ ullinger
aw ton
eg o
eg eren
ĠIs abel
ĠAD HD
uc c
ĠtÃ¡ p
ĠSh el
ĠSh eryl
Ġdá»ĭ nh
ĠCar roÃ§a
Ġ201 6
ĠVá» ĩ
Ã´m Ã©t
od esk
ĠCal cut
ĠGiá» ¯
ĠAm anda
ĠHar old
ĠHar riet
ĠbÃ³ i
ark oz
enn e
gh ar
ĠSc rab
Ġ500 00
Ġ24 0
ĠnhÃ¡ c
ĠTo áº£
há»ĩ n
ĠBra xin
ĠBra gg
st ock
ĠCháº £
ĠCháº ¥m
amb urg
und i
Cá» ¥m
Ġ300 00
ĠRob bie
ath ai
ĠHy per
ram ento
ĠPh oleros
Ġcar b
Ġcar roÃ§a
ĠBer ry
ĠBer gen
ĠMo on
ĠPal o
ĠTa hi
ĠSp eed
Ġ196 7
ĠBl ak
ĠBl anc
20 10
20 11
ĠBar n
ĠBos e
ĠBe har
ĠEd dy
ug ger
ĠBen nett
are z
ander son
ĠTEDx S
Ġa ah
illi on
ĠHá» ¯u
ĠCr ick
ok er
ĠRe ed
ĠRe ader
apt ree
Ġmic rÃ´
ĠAngel a
ĠEl len
ĠEl ias
ĠKh iáº¿n
ĠKh adija
eph al
ĠKhÃ¡ ng
ĠAt ten
ĠPr ick
ĠAnd re
ĠDer eck
ĠDer artu
Nhá» ĭp
Phá» ķi
ĠTalk s
ĠFrank enstein
ĠMal i
ish man
ĠApp alach
ĠTor valds
ĠOr well
ĠWeb b
ĠWeb ster
Ġcá»į p
ĠLeg adema
An n
ĠMan chester
ĠMad ison
ĠGreen e
SD A
ja hi
ĠSe ng
ĠSw aptree
ĠWal t
ĠWal ter
ĠMont real
Ġcu Ã´c
Ġcent imÃ©t
ĠMe egeren
ĠAd ventist
oth ar
ĠEn ri
ĠAc c
ĠAc t
ĠAc tion
ĠAc umen
ĠJon ny
Mar c
ĠFlor ence
ĠStar ck
ĠBur ma
Ġ195 4
int osh
ĠMac intosh
ĠKar mapa
ĠWar craft
lu id
lu lo
ĠSu z
ĠSu fi
ĠSu ghar
ĠnÃŃ u
Ġtang o
Ġam en
Ġam monia
ĠTuy nis
Ste ven
ĠlÃª nh
ĠNeanderthal s
mon s
ĠPat rick
200 8
emp le
ĠBol te
ĠTur bo
ĠMel lo
ĠHer cul
ĠFor er
ĠMos kowitz
ĠSal ly
ĠSal inas
ĠOs lo
Sh bab
gar ia
ĠSom ali
Ġmil es
ĠEver yw
hh h
Ġkil Ã´mÃ©t
ĠTam il
ĠDr ucker
ĠDr acorex
ĠVal ent
ĠStew ard
Jo el
eat s
ĠPop corn
ĠFer r
ĠFer gus
pi re
ĠMag gie
ĠSand berg
Há» ıi
ĠHan y
ĠWe i
mo us
St ew
ĠHu ang
ĠHu gh
ĠiPod s
ĠDisney land
Ġmu á»ĵi
ĠTel escope
ĠMas on
ĠGeorg es
ĠBir ds
Ġ193 8
ĠPri us
ĠMau i
ĠSun ni
ĠSun itha
ĠKam kw
ĠGh rai
ĠDub lin
Ġ192 6
Ġ192 9
ha as
ĠKhÃ ³
ĠGran ny
ĠHol ocaust
Ġox it
ĠBern ard
ĠBern ers
ĠGro ve
ĠRad io
ĠInter val
ĠInter national
ĠDoug las
EG O
br ot
yc ephal
Ġbo ong
Ġchá»Ļ i
ĠKur zweil
ĠRid ley
ĠUr ugu
Sá» £
ĠNic ol
ĠNic olas
ĠAng ola
ĠAsh down
ĠMcK ay
ĠCur itiba
ĠMÃª hicÃ´
ĠPier son
ĠUN ICEF
oul li
Jim my
ĠKle e
ĠEc osia
ĠAlb ania
ĠCarr illo
Ġhorm one
cháº ³ng
Ġter roir
ĠMed ic
ĠHas an
ĠPu erto
ĠDAR wln
ĠmÃŃ a
ĠTob y
ĠBo eing
ĠPan ama
ĠGri er
ĠFed er
Ġmem e
ĠPart icip
ĠDai ly
ĠDun lap
ĠRiv er
ĠRiv es
ĠWin ky
lau g
ĠÄĳÄĥ c
ĠHaz leton
ĠHut u
ĠBlu et
Carol ine
ĠMoham med
Bon nie
vet son
Ġcoc aine
ĠMeg gendorfer
ĠMull ins
ĠKas par
ĠKins ey
ĠKins hasa
ĠRub y
ĠRec ord
Ġsul fur
Ġ187 9
ĠClark e
chÃ Ńnh
Ġbeat box
ĠBart ok
ĠBalk ans
ams ala
ĠPach ycephal
ĠKir k
ĠRab in
ĠFul ler
ĠChurch ill
ĠSheph elah
ĠKend all
ĠReu ters
ĠBurn s
Dar win
Ġmod em
Ġhooc mÃ´n
ĠCorn ell
ĠBac on
ĠBul garia
ĠAut odesk
ĠPran av
ĠKob e
ĠGall up
ĠDep p
ĠBrend a
ĠMichoac Ã¡n
ĠCloud burst
Der ek
Ġnu Ã´ng
Ġnick name
Ġhec ta
ĠCit iz
ĠGram een
Ġup load
ĠShack leton
ĠMead ow
ĠBitco in
Sc ott
Ġap artheid
áº¤ y
Ġnap ot
ĠhÆ¡ p
Ġkhuá»· u
ĠTNC s
ĠMorg ana
ĠPao lo
ĠDM CA
ĠDak ota
ĠDhar amsala
ĠViag ra
ĠEngel bart
ĠOld enburg
ĠChand ler
ĠColle ge
ĠCous teau
ĠVerme er
ĠBionic le
Bra zil
Sus an
Sec ret
Ġlit hium
Ġmon key
ĠNok ia
ĠAust en
ĠSes ame
ĠSac ramento
ĠKool haas
ĠJur vetson
ĠWag ner
ĠWoff ord
ĠhuÃ½ ch
ĠArn old
Ġimp act
Dou g
mins ter
Ġnuc le
Ġchannel r
chang ing
Ġcontain er
ĠMilli ken
ĠMaid an
ĠBoran e
ĠBati uk
errof luid
ĠSval bard
ĠKind le
ĠKerm it
ĠLazar us
ĠWound ed
ĠYun us
Ġfiss ion
ĠAnony mous
ĠQuix ote
ĠZabbal een
ĠCalcut ta
arkoz y
ĠScrab ble
ĠAtten borough
ĠTuynis i
ĠEveryw here
ĠFergus on
ĠGhrai b
ĠUrugu ay
ĠKaspar ov
0 3
2 8
2 50
3 5
4 7
5 3
5 5
5 7
6 8
7 2
7 7
8 5
9 6
A W
A v
A aron
B i
B ot
B Ã¡n
B iá»ĥn
B Ã£i
B ern
B Ã¹m
B eat
B everly
C o
C SE
D H
D am
D eb
D áº¡ng
D á»įc
D AR
D ave
D ennis
D ER
E O
E P
E n
G hÃ
G Ã³c
G á»Ńi
G reg
G á»ĵm
H Æ°Æ¡ng
H iáº¿m
I M
I P
J U
J ar
K o
K iáº¿m
K Ã©o
L G
L P
L i
L Ã¢u
L eo
L Ã¡i
L áºŃp
L Ä©nh
L áº¡y
M Ã¢y
M uá»ĳn
M Ãły
M or
M ua
M ad
M Ã£i
M uá»Ĺi
N Y
N ot
N an
N áº±m
N ick
N icholas
O xy
P O
P au
Q uyáº¿t
R á»
R áºŃp
R yan
R adio
S J
S Ã¢u
S Ã¢n
S Ã¡n
S un
S tan
S uz
T G
T P
T Ã¹
T es
T uyáº¿n
T iá»ģm
T á»±a
T iáº¿c
U á»·
U SC
V C
V an
V iÃªn
V on
V ua
V ik
V ÃĮ
W ide
X uyÃªn
Y B
Z e
a hi
b áº¯t
b Äĥng
b ine
b ek
b org
b right
c Æ°á»Ŀi
c Ã´ng
c av
c ester
c tor
d Ã¹ng
d ul
d uc
f l
f ound
g á»įi
g im
g et
g ow
g io
h l
h Ãłng
h all
i us
i Not
j aim
k i
k j
k háº
k áº¿t
k man
l á»
l anh
l áº§n
l Ãºc
l im
l tan
m l
m es
m and
m und
m wood
m outh
n hÃ
n Æ¡
n ee
n load
p l
p m
p o
p y
p on
p ho
p lex
p ont
r om
r ate
s ore
t Ãªn
t Æ¡
t ai
t Æ°Æ¡ng
t uyá»ĩt
t uá»ĳt
t iáº¿p
t op
t iáº¿ng
t alk
u ff
v áº¥n
v it
v re
w o
w art
w are
x em
y ad
z u
z bek
¡ o
£ ng
Ä Ĥn
Ġ Í
Ġ uá»
Ġ at
Ġ us
Ġ ur
Ġ ik
Ġ all
Ġ app
Ġ Ì£
á» ĭ
á» §a
Ġt áº¡t
ng e
ng Æ°á»£c
ng al
Ġc á»Ļc
Ġc uá»ĳng
Ġc áº¡c
Ġc uá»ĵn
Ġc ol
Ġc áº§y
Ġc ard
Ġc á»Ļm
ĠÄĳ Ã´n
ĠÄĳ Ãºp
ĠÄĳ uá»ĳc
ĠÄĳ Ãłu
Ġn Ãª
Ġn ot
Ġn anh
Ġn ic
há» įc
hÃ ´m
Ġv iá»ĥn
Ġv Ã¨
Ġv ac
Ġv Ãºt
Ġv áº§ng
Ġv Ã¨o
Ġv Ã¢t
Ġl Ã¡c
Ġl Æ¡i
Ġl Ãºp
Ġl Ã©t
Ġl iáº¿m
Ġl iá»ģm
Ġl Ãºt
Ġl ist
Ġl ike
Ġl bs
Ġm o
Ġm áº§y
Ġm Ãºi
Ġm á»ĳng
Ġm Äĥt
Ġb r
Ġb áºŃp
Ġb áº¹
Ġb Ãºng
Ġb ig
Ġb ow
Ġb ut
Ġb ye
Ġk ung
nh am
Ġs Ã³
Ġs áº¡o
Ġs ap
Ġs iÃªng
Ġs mart
Ġtr it
Ġng ai
Ġng uÃ´i
Ġg háº
Ġg Ã²n
Ġg Æ°á»£ng
Ġg al
Ġg oro
Ġh inh
Ġh igh
Ġthá» ĩ
Ġthá» įc
Ġr an
Ġr ou
Ġr ip
Ġr ÃŃt
Ġr ead
Ġp anh
Ġp er
Ġp ic
Ġp lay
Ġp oker
Ġp pm
Ġd Ãł
Ġd áº¿n
Ġd iá»ĥn
Ġd áº§y
Ġd ata
Ġd uá»ĩ
Ġnh iá»ĩn
Ġnh iáº¿m
Ġnh uá»µ
Ġcá» Ł
Ġch Ãłi
Ġch eck
ĠcÃ¡ ng
Ġth inh
Ġth ink
Ġth ali
Ġnhá» £
Ġhá» Ŀ
Ġhá» ķi
Ġhá» ¡i
Ġtá» §i
Ġqu á»Ł
Ġqu áº¯t
Ġqu áº§ng
Ġgi g
Ġgi áº§u
Ġx y
Ġx Æ¡i
Ġx Æ°ng
Ġx áº¡c
Ġkh Æ°
uy n
ĠthÃ £i
ĠthÃ ³c
ot ic
Ġpháº Ńp
Ġngh Ãłnh
Ġngh iá»ħm
Ġcho i
an ine
Ġsá»± c
Ġgiá» Ľ
ch t
ch ai
ang i
ang el
ĠphÃ Ńt
ĠÄĳá»ĥ u
ÃŃ c
ÃŃ n
ĠT iáº¿t
ĠT Ã¹
ĠT ao
ĠT Æ°á»£ng
ĠT áº·c
ĠT Æ°á»Ľng
ĠT ib
ĠT ake
ĠT able
ĠT echn
ĠT ibb
Ġlá» ¯a
Ġho m
on im
Ġkhi Ãªng
Ġdá» ģ
ai se
Ġcháº ¯p
ĠchÃ ¨
ĠhÃ ©c
ĠhÃ ²ng
ĠhÃ £o
Ã² m
ÄĲ Ã´ng
ÄĲ iÃªn
ÄĲ áº±ng
ÄĲ áº£ng
ÄĲ om
ÄĲ Ã¡p
Ġmá» §
Ġmá» Ńa
Ġná» ĩ
ĠC Æ¡n
ĠC Ãºc
ĠC áº§m
ĠC is
ĠC ac
ĠC ad
ĠC ob
ĠC up
ĠC our
ĠC SI
ĠC laes
ĠÄĳi ch
Ġbá»ĭ u
Ġto áº¡i
Ġto mor
ĠM R
ĠM S
ĠM r
ĠM ong
ĠM áº¡i
ĠM Ã´n
ĠM iá»ħn
ĠM áºŃt
ĠM ua
ĠM Ã³n
ĠM ain
ĠM iz
ĠM ash
ĠM mm
ĠM ecca
ĠM insky
ĠM iguel
em ens
hi p
Ġtrá» ĩt
Ġtrá» Ľn
ĠN Y
ĠN ot
ĠN iÃªn
ĠN it
ĠN Ã¨
ĠN eb
ĠN uÃ´i
ĠN ak
ĠN ir
ĠN ina
ĠN ation
ĠN atur
ĠN FL
ĠN há»ĩn
ĠB ou
ĠB ib
ĠB az
ĠB est
ĠB enn
ĠB ann
ĠB ike
ĠB uck
ĠB org
ĠB umb
ĠB oot
Ġlo i
Ġlo Ã£
Ġlo ai
Ġlo cav
uá» Ĺng
er d
er v
er ic
er idge
ĠH Æ°á»Ľng
ĠH ex
ĠH orn
ĠH ij
ĠH ardy
ĠH acker
ĠH amburg
Ã© li
am ela
Ġ2 30
ĠÄĲ Ã¡c
ĠÄĲ áº·ng
ĠÄĲ Ã¡m
en bach
ĠA B
ĠA x
ĠA ra
ĠA id
ĠA ah
ĠA ber
ĠA udio
Ġkhá» ĵng
ĠS T
ĠS Ã´
ĠS ang
ĠS Ãºng
ĠS it
ĠS Ã¡t
ĠS eb
ĠS id
ĠS ek
ĠS ox
ĠS AM
ĠS ave
ĠS ax
ĠS atur
ĠS agan
ĠS zy
ĠS ugata
ĠS quare
ĠS arkozy
Ġkháº ¡o
ia th
ar an
ar oo
ar sh
Ġy ao
Ġy ard
Ġy áº¿m
Ġph Æ°á»Ŀng
Ġph ung
Ġph os
Ġph otoshop
Ġmáº¡ t
ĠP H
ĠP a
ĠP hÃº
ĠP le
ĠP and
ĠP ed
ĠP ack
ĠP all
ĠP att
ĠP ass
ĠP RI
ĠP ollo
ĠP unk
ĠP AC
ĠP BS
ĠP imp
ĠP unta
ĠK Ä©
ĠK iá»ĥu
ĠK ia
ĠK un
ĠK az
ĠK ick
ĠK ite
ĠK are
ĠK itt
ĠL M
ĠL Ãª
ĠL Ãªn
ĠL áº§u
ĠL ao
ĠL Ã©
ĠL Ã£o
ĠL uÃ´n
ĠL áº¡c
ĠL et
ĠL ah
ĠL ord
ĠL enn
ĠL og
ĠL ink
ĠL ittle
ĠL unch
ĠL oren
ĠL GB
ĠL icklider
ĠL otto
Ġá» ¦
Ġá» ĭ
Ġá» Ľn
Ġngá» Ĺ
ĠG on
ĠG am
ĠG ag
ĠG art
ĠG oran
ĠG lobal
ĠG ensp
ĠG NH
Ġ3 30
Ġngo áº±n
ĠTr eo
ĠTr il
ĠTr ee
ĠTr á»įng
ĠTr eat
Ġxu n
ĠD B
ĠD E
ĠD h
ĠD Æ°á»£c
ĠD Æ°á»Ŀng
ĠD Ã£y
ĠD iÃªm
ĠD ah
ĠD ana
ĠD ata
ĠD iff
ĠD áº¡y
or p
Tr áº§n
Tr ÃŃch
al t
al at
ĠÃ¡ ch
im e
es ley
es ca
os a
Ġkháº£ m
ĠR ang
ĠR en
ĠR ol
ĠR us
ĠR áº±m
ĠR Æ°á»£u
ĠR ico
ĠR up
ĠR ice
ĠR emen
ĠR CA
ĠR ita
ĠR hod
ĠR ift
ĠbÃ© t
et or
et ter
et ri
Ng uy
Ng há»ģ
Ġkhu Ã¢n
ĠI T
ĠI U
ĠI SA
ĠI dol
Tháº £m
Ġ5 1
Ġso lo
ĠV on
ĠV á»±c
ĠV it
ĠV ani
ĠkÃŃ t
at on
is ion
is met
ĠmÃ´ tÃ´
ic ini
ĠJ al
ĠJ ak
ĠJ ain
ĠJ PL
it us
Ġdi ch
ol an
ol ic
ol och
ĠW ho
ĠW id
ĠW uj
ĠF E
ĠF an
ĠF am
ĠF rid
ĠF ide
ĠF inn
ĠF abian
ĠF lint
ĠE G
ĠE g
ĠE p
ĠE y
ĠE co
ĠE st
ĠE PA
ĠE lyn
Ġ10 2
Ġ10 5
ĠdÃ¹ i
le bee
Ġ19 19
ho u
ĠNg á»¯
Ġtu á»ĵi
Ġtu lip
Ġvu n
us ta
ac ama
hÃ¡ y
ad ah
om o
om ing
Ġvá»ĩ c
ĠTh Æ¡
ĠTh aler
ĠO t
ĠO ff
ĠO MG
ĠO mmm
ob y
ur u
ĠCh ao
ĠCh em
ĠCh es
ĠCh ek
ĠY R
ĠY or
ĠY our
ĠmÃ¹ n
ĠHo od
Ġ8 7
Ġ9 11
Ġáº µm
eb e
ĠlÃŃ p
ĠlÃŃ u
ĠchÃ¡ c
Ġghi ta
Ġgá» Ŀ
Th iá»ĩt
Th uyá»ģn
Th iáº¿u
ri p
ri x
ri am
ri ka
ĠhÃ¡ m
Ġan alog
un a
un ner
ro d
ĠÄĲá» ķi
Ġw ifi
Ch ung
ĠSt e
ĠSt alin
ĠSt rat
Ġ15 6
Ġ15 000
op his
ĠU l
ĠU SC
ĠU zbek
Ġthi ch
Ġgen eric
ag all
ĠX ML
ĠcÆ° Ãº
lo ud
Ġ12 000
ĠAl lan
ĠAl to
ab lan
ĠThá» ĭt
ak is
ak ka
av en
av icini
Äĳ a
Äĳ ang
Äĳ á»Ļng
Äĳ un
Äĳ á»ĵng
oc ure
ĠNh i
han ie
ĠGi b
ĠGi rl
ill us
Ġ18 80
Ġ18 90
ĠsÆ¡ m
tr ic
ik s
ow att
ow ski
Ġo anh
Ġo ai
Ġo Ã¡t
Ġf us
Ġf acebook
Ġf ear
Ġf ax
Ġf errofluid
Qu i
Qu áº£ng
ĠMar in
ĠMar row
ĠMar vin
Ġdu plex
ĠChá» ©
ĠChá» īnh
ĠChá» ĵng
ub s
la wa
ly ing
ent in
ĠThÃ¡ ch
Pháº ¥n
ir ut
ian ne
io us
ĠCon c
ĠCon an
ĠCon trol
ĠAn im
ĠAn nie
ick et
ĠQu Ã¡c
ĠTá» ©
ĠTá» Ŀ
ĠTá» Ľi
iv al
art a
ĠBr uss
ĠBr uno
ĠAr ia
ĠAr men
ĠAr cher
uá»µ t
ec a
ec om
ĠZ ig
aw at
eg rove
ĠSh ap
ĠCar son
ĠCar ib
ĠCar ibb
Ġbi oph
Bá» ģ
ĠEm pire
ip er
yl er
Ġ0 3
Ġ0 9
ĠAm jad
ĠKen yan
Ġ17 5
Ġ17 8
ĠÃģ c
ĠHar ing
ach im
ĠCan nes
ĠDo ol
ĠChi p
ĠChi lÃª
ĠTo xo
ĠTo onchi
st ation
ĠTw o
ĠTw ain
ma er
Ġ197 1
pp am
ass el
og lob
ĠMc Af
ber gh
ĠRob in
ĠHy dro
ĠPh iáº¿n
Ġcar amen
ĠBer g
ĠBer kley
ĠMon s
ĠMon ey
ĠMon ica
ĠMon key
ric ia
Ġtá»§ a
ĠTa j
ĠSp ec
ĠLe ar
ĠLe ad
ĠLe ague
ĠLe hman
Ġ196 4
Ġ196 6
ĠBan jo
ĠRos a
ĠNig er
ĠTháº ¥t
ĠBos ch
ĠPar avicini
ĠJo nh
der ic
ani yama
ĠBe ijerinck
Ġj ump
ĠAb b
ĠAb dul
ĠEd en
ug g
ug o
ĠBen e
ĠBen edic
ĠSm art
ĠSm all
ĠMá» ©c
Em ily
ĠCho ir
ĠTEDx R
ĠTEDx T
Ġco ol
ĠBro hi
ĠLa f
ĠSch a
ĠCr imer
ĠMa athai
ck x
Ġde fri
ĠRe ich
apt ist
Ġthá»ķ ng
ĠEl l
ĠNA TO
ĠAt acama
ĠPr etor
Ġ194 1
ner ability
ĠNgh iá»ĩm
ĠTom my
ĠTom bo
ĠCam ero
ĠCam den
ĠRom eo
ĠFre derick
ĠGr ay
rop onte
Nháº ¥t
ĠMad die
ThÃ¡ i
ĠSe ars
ĠWor cester
ĠWor mwood
ĠWal ters
ĠMark et
Al bert
Dá» ¥ng
ĠAd ria
ĠGal en
ĠEn sler
ĠJack ie
car bon
ĠJe anny
ĠChrist akis
ĠBab ble
Ġ195 2
Ġ195 6
Ġ195 8
Ġ195 9
ĠTheo dore
chá» ©
ger ald
ĠMy Sp
ĠMy cop
ĠMy esha
ĠKar ol
ĠDá» ¯
ĠAh n
ĠKim mel
ĠCA O
ĠBu eller
ero in
ĠAp ophis
ari us
eop le
ĠVir tu
ven ia
ten berg
ĠPat ton
ĠUn ited
ĠMu jahi
ĠRock well
rog ram
Ġxen lulo
ĠTur in
ĠMor mon
ĠHer z
ĠHer bie
ĠAv elile
ĠSi emens
ĠBlack awton
ĠMil k
ĠMil ton
ĠAir bus
ĠWil k
Ġne on
ĠSal t
ĠGold en
ĠGold stein
CC OB
ĠPro v
ĠPro zac
ĠPro duc
Ġcal ori
Ġkil Ã´
Ġkil owatt
Ġ46 6
ĠYo chai
Bill y
ĠDen ver
giá» ĳng
ĠMer ckx
ĠMag ell
ĠSand el
ĠKu iper
ĠLau ren
ĠLau rel
ĠJac obs
Há» Ĺ
ij i
ĠÂ ©
ĠÂ ¾
ĠBob by
ĠHan son
ĠSk erry
ĠWe iff
ĠZimb ardo
ĠLeon ard
yd ia
ĠHam as
ĠHam ilton
ors ka
ĠRand y
CA PTCHA
gi Ã¡
ĠCas a
ĠCas ablan
Ġ44 2
ĠFar go
ĠMin er
ThÃŃ ch
PhÃ¡ i
ĠTer esa
ĠIt alia
ĠnhÃŃ ch
ĠMT V
ĠGod in
ĠCamp bell
ĠKam al
ĠGh onim
ĠRon son
ĠWhit es
ĠBas que
ĠHa as
ĠPol aroid
aly mpic
ĠCopern ican
Ben jamin
ial l
ĠRoy al
unk er
ĠBern oulli
Ġgram s
ĠTah ltan
ĠKháº £o
Ġ190 4
And rea
sw orth
yc in
ĠMus ica
ĠScr ubs
Ġnhá»ķ m
ĠNic ole
ĠWill y
ĠMcK ean
anic al
ĠTy pe
app os
ĠTi Vo
erb read
ĠLim a
ĠLim pop
ĠLov egrove
ĠGl ass
ĠVol ta
ĠVol vo
ĠVinc ent
ĠFr aser
rig ami
ĠBeat rice
Am anda
Cam era
Cam eron
Jon as
ĠGol iath
ĠEs ther
ĠColl usion
ĠBloom berg
ĠCom mons
ĠPart ners
ĠPost Secret
ĠGit Hub
ĠJar ed
ĠOl son
ĠAll ah
ĠBrad ley
ĠAhmed abad
Be au
uh uh
ĠÄĳÄĥ t
Ġmeg awatt
ĠMir anda
ĠImp erial
ĠWy oming
ĠWis lawa
ĠTEDster s
Fre eman
Is rael
kho áº£ng
Ġcoc ain
ĠMob ile
ĠSI NG
ĠPilot s
ĠDem ocracyOS
ĠDes ign
Ġdiox ide
Ġ2500 00
ĠCru ise
mb orska
Ġas p
ĠTod ay
ĠComp any
ĠNG O
ĠKend al
uga ad
ĠHead s
ĠReu ther
El len
Ġed X
Ġblu es
Ġblu egrass
Ġhot dog
ĠAth abasca
ĠPin ot
ĠRain b
ĠJoy ce
ĠFood s
ĠAchill es
Par is
press o
Ġmag ie
Ġby te
ĠAss ange
ĠPav lo
ĠLind bergh
Nghi Ãªm
ĠMech anical
Gab by
ĠNap ster
ĠBog ota
ĠHor owitz
ĠHeb rew
ĠHipp ocrates
ĠDew ey
Ġsound scape
ĠChev al
ieg el
Ġje ans
ĠSchul z
Ġcalor ie
Ki ran
vir us
Ġkar ate
ĠTon ya
ĠBus iness
ĠHos ni
ĠHatz alah
ĠSard inia
ĠPT SD
ĠKer ala
ĠLess ig
ĠDall as
ĠRoll s
ĠIda ho
ĠVul nerability
ĠJen kins
ĠFern and
ĠUNA IDS
akh stan
ĠQueen s
yll is
ĠBarric elli
ĠCount y
ĠGiacom etti
ĠMerced es
Ġparab ol
ĠYugoslav ia
Ne il
Rog er
Ser gey
Sing apore
War ren
Ġnin ja
Ġbuc ardo
ĠCed ars
ĠCron in
ĠCreat ive
ĠCaucas us
ĠNou jaim
ĠNeg roponte
ĠHep burn
ĠSlo venia
ĠSAN CCOB
Ġdow nload
ĠKev lar
ĠLaman ites
ĠGle eson
ĠGlas gow
ĠDry Bath
aph ne
ĠFitz gerald
ĠFlem ing
ĠThr un
ĠSty gim
ĠStud s
ĠHyper Card
ĠPrick ly
ĠEnri quez
ĠParticip ant
ĠBluet ooth
Ġchannelr hodops
Oxy tocin
Tes la
iNot ar
Ġur anium
Ġik igai
Ġnic ot
Ġvac xin
Ġbow ling
Ġsmart phone
Ġtrit ium
Ġpic nic
ĠTib et
ĠTibb its
Ġtomor row
ĠMiz zone
ĠBann ister
ĠBorg es
ĠBumb lebee
Ġlocav ore
ĠSAM S
ĠSax e
ĠSzy mborska
ĠPand ora
ĠPollo ck
ĠLGB T
ĠGensp ace
ĠISA F
ĠVani er
ĠWuj ec
ĠBruss els
ĠCaribb ean
oglob in
ĠMcAf ee
Ġdefri end
ĠCamero on
ĠMySp ace
ĠMycop lasma
ĠVirtu al
ĠWeiff enbach
ĠCasablan ca
ĠLimpop o
ĠStygim oloch
0 2
3 1
3 2
3 6
4 1
4 9
7 6
9 00
A y
A hh
B h
B Ã´ng
B ang
B áº§u
B á»ĵi
B Ãło
B áº¯c
B áº¯n
B as
B Ã³ng
B and
B rit
B ird
C Ãł
C áº·p
C oca
C hÃ¡n
D F
D G
D a
D Ãłn
D or
D Ã£y
D áº«u
D áº£i
D ur
D rew
D iana
E v
E ly
E ve
E van
E rin
E rik
F O
F ad
F acebook
F red
F ree
G áº¥u
G áº·p
G old
G ary
H X
H e
H Ãł
H áº¡
H Ãłi
H Ã¢n
H am
H á»ĳi
H el
H unt
H áº¹n
I X
I SA
I NCRA
J e
J ord
J ess
J ulia
K O
K ey
K ir
K á»·
K aren
L áº½
L áº¯ng
L Æ°u
L ou
L akshmi
M R
M c
M e
M Ã£
M ot
M Ä©
M on
M ao
M au
M en
M áº¥u
M at
M as
M id
M Ã¨o
M Å©i
M itch
M ax
N Ã£y
N ico
N iall
P e
P in
P as
P ad
Q uá»¹
R P
R eb
R ev
R á»Ŀi
R up
S ur
S oph
S ugata
S akka
T L
T W
T an
T iáº¿t
T Ã¡i
T á»ĵi
T ia
T ed
T á»ĳn
T od
T ech
T emple
T itus
T oby
U y
U á»
U mar
U SDA
V Ã¡
V iá»ħn
V ol
W F
W il
X D
X áº¥u
X áº¿p
a e
a ac
b Ãªn
b ra
b ian
b io
b ack
b one
b orn
b ane
b eat
c d
c Æ¡
c uá»ĳi
c et
c áºŃu
c ro
c ep
c any
d ia
d red
e im
f j
f am
f ar
f lo
f ort
f ast
f eld
g áº§n
g as
h en
h ard
h ak
h na
h aus
i ang
j it
k há»
k on
k Ã¨m
k cd
l Ãªn
l us
m g
m Ã¬nh
m áº¡ng
m ain
m Ã¡y
m een
n u
n á»
n ot
n ack
n Ã¡p
o a
o f
o in
o ja
p há»
p le
p ton
q o
r ent
r ell
r ma
s ch
s tr
s ara
t ay
t Æ°á»Łng
t is
t un
t ran
t á»ĳt
t ive
u an
u ton
u te
u art
v áº«n
v Ã¢ng
v ika
w eek
y p
y ar
y athem
y borg
z en
z al
¨ NG
ª u
Ã ¼
Ã Ĭ
Ã Ļ
Ġ \
Ġ Ì
Ġ Ã¬
Ġ inh
Ġ áº£i
Ġ hÃºc
Ġ un
Ġ um
Ġ ack
Ġ ex
Ġ one
Ġ art
Ġ ip
Ġ áº»o
Ġ acc
Ġ à¸
Ĥ ng
ĵ m
Ļ p
Ń à¸
á» £c
á» Ķn
Ġt Ãłnh
Ġt áº¯n
Ġt Ã¨
Ġt uá»ĳt
Ġt áº¯p
Ġt Ã¢t
ng ar
ng le
ng ill
ng rid
Ġc Ã¹
Ġc áº¥n
Ġc or
Ġc áº¡m
Ġc ell
Ġc Ã¹m
Ġc rick
Ġc ookie
Ġc loud
Ġc yborg
ĠÄ Ĥng
ĠÄĳ áº£n
ĠÄĳ áº¿u
ĠÄĳ Ãºa
ĠÄĳ Ã©n
ĠÄĳ áºµng
Ġn c
Ġn Ã£
Ġn em
Ġn Ãºng
Ġn ach
Ġn ylon
Ġv áº¿
Ġv Ã´ng
Ġv in
Ġv ung
Ġv áº£ng
Ġv Ã£i
Ġv Ã¡o
Ġv áº±n
Ġv áºµn
Ġv odka
Ġl Ã³
Ġl Æ¡n
Ġl uá»Ļc
Ġl uyÃªn
Ġl áº¡p
Ġl Ã¢ng
Ġl Ã¨o
Ġl imb
Ġm g
Ġm ot
Ġm iáº¿n
Ġm Ã©
Ġm or
Ġm áº£i
Ġm á»ĳt
Ġm ul
Ġm Æ°á»Ľt
Ġm ui
Ġm uá»Ĺng
Ġb Æ°ng
Ġb áºŃy
Ġb os
Ġb Æ°á»Ľng
Ġb áº¹p
Ġb re
Ġb io
Ġb ind
Ġb its
Ġb eta
Ġb urn
Ã³ p
Ġk a
Ġk iáº¿u
Ġk iáº¿ng
Ġs e
Ġs áº¥t
Ġs áº§n
Ġs Äĥm
Ġs et
Ġs ter
Ġs ing
Ġs ky
Ġs yn
Ġs lash
Ġs nack
Ġtr Æ°
Ġtr Æ°á»£c
Ġtr Ã´n
Ġtr Ã©t
Ġtr áº§y
Ġtr Ã¡t
Ġtr uá»ĵng
Ġtr ump
Ġng áº¡n
Ġng á»Ł
Ġng Ã¡ng
Ġg ar
Ġg áº¡c
Ġg á»Ļi
Ġg lu
Ġg othic
Ġh an
Ġh uyá»ĩt
Ġh ad
Ġh eroin
Ġr Ãª
Ġr inh
Ġr uá»ķi
Ġr Æ°á»Ľi
Ġr is
Ġr Æ°á»£t
Ġr ec
Ġr etro
Ġp an
Ġp ao
Ġp ol
Ġp ac
Ġp ro
Ġp aj
Ġp aste
Ġd ong
Ġd ay
Ġd Æ°á»£ng
Ġd áº·c
Ġd Äĥm
Ġd Æ°á»£t
Ġd iáº¿p
Ġd áºŃm
ĠÄĳá» ¥n
Ġnh g
Ġnh Æ¡
Ġnh ang
Ġnh in
Ġnh iá»ĥu
qu an
Ġcá» įng
Ġvá» įc
Ġch ong
Ġth Æ°á»Ł
Ġth Ãły
Ġth Ãłm
Ġth ri
Ġth rove
Ã¬ á»ģu
Ġnhá» Ń
Ġhá» ĥn
Ġhá» Ľp
Ġhá» «m
Ġtá» ģ
Ġtá» Ŀi
Ġta l
Ġqu áº¡nh
Ġx Ã³
Ġx á»ĳ
Ġx áº¯t
Ġx Ã´n
Ġx Ãºp
Ġx uá»ĳt
Ġx á»ĳt
Ġx ent
Ġx áº©u
Ġx Ã©o
Ġx kcd
Ġkh am
Ġkh iá»ħ
uy nh
Ġchá» ı
Ġchá» Ľ
Ġchá» ±c
Ġchá» Ľm
ĠthÃ ©
ĠthÃ ²ng
ot s
ot ta
Ġcho rus
an k
an ol
an anth
an mar
ay el
Ġsáº ¯ng
ch en
ch ie
ch io
ch atz
ch witz
Ġnháº ©y
ÃŃ a
ĠT B
ĠT E
ĠT hi
ĠT áºŃt
ĠT ap
ĠT op
ĠT ik
ĠT ana
ĠT ink
ĠT erry
ĠT MS
ĠT CN
ĠT andon
ĠT OR
ĠT yler
ĠT aniyama
Ġlá» īnh
on o
on ies
Æ°á»Ľ n
ao rani
ai ah
ai de
Ġcháº ¯ng
ĠchÃ £i
ĠnhÃ ²
ĠnhÃ ³
ĠnhÃ ¬nh
ĠnhÃ Ńp
ÄĲ áº¿
ÄĲ ay
ÄĲ au
ÄĲ áº¹p
ÄĲ áº§y
Ġmá» ¥
Ġmá» Ľm
au f
au gh
au se
in in
in et
in av
Ġná» ĩn
ĠC B
ĠC Æ°á»Ŀi
ĠC ay
ĠC Æ°Æ¡ng
ĠC el
ĠC áº¥m
ĠC Ã¡t
ĠC áº£i
ĠC li
ĠC ow
ĠC ent
ĠC ir
ĠC ath
ĠC age
ĠC Há»
ĠC astle
ĠC esar
ĠC hÃ¡y
Ġháº ¿
Ġháº µng
Ġchá»ī a
Ġsá» ¯
Ġsá» ı
Ġsá» §ng
Ġsá» ¥ng
ung er
Ġphá» Ľi
Ġphá» ±c
Ġphá» ħu
Ġto ang
Ġto anh
Ġto áº¡c
ĠM C
ĠM G
ĠM W
ĠM uá»ĳn
ĠM Æ°a
ĠM ow
ĠM az
ĠM ess
ĠM uk
ĠM ies
ĠM ena
ĠM organ
ĠM Ã©li
ĠM DG
Ġkho áº£i
em b
em ey
em awat
hi tes
ĠN Ãłng
ĠN er
ĠN int
ĠN ye
ĠN iel
ĠN oir
ĠN acht
ĠN azi
ĠN ext
ĠN yad
ĠB A
ĠB iá»ĥu
ĠB am
ĠB áº¯n
ĠB áº¡c
ĠB uá»ĵn
ĠB at
ĠB áº¡ch
ĠB ord
ĠB od
ĠB urg
ĠB ald
ĠB rid
ĠB ami
ĠB ower
ĠB unker
Ġlo an
Ġlo Ã¨
Ġlo Ã¡ng
ĠtÃŃ p
er oy
ĠH P
ĠH uy
ĠH Ãłi
ĠH Æ¡i
ĠH Ã²n
ĠH iá»ĥu
ĠH en
ĠH iá»ĥn
ĠH áºŃu
ĠH Ãłm
ĠH ick
ĠH Ã£ng
ĠH olly
ĠH umb
ĠH itch
ĠH ole
ĠH ux
ĠH aha
ĠH ilton
am ycin
ĠthÃ¬ a
ĠÄĲ á»Ļt
ĠÄĲ iá»ĩu
ĠÄĲ áº¥ng
ĠÄĲ TD
en ing
en son
en jin
ĠA C
ĠA K
ĠA yl
ĠA OL
ĠA AA
ĠS H
ĠS P
ĠS U
ĠS ong
ĠS ay
ĠS Æ¡n
ĠS on
ĠS Ã¢n
ĠS et
ĠS ap
ĠS ig
ĠS ey
ĠS ine
ĠS ack
ĠS ex
ĠS ov
ĠS ID
ĠS und
ĠS yn
ĠS uss
ĠS ole
ĠS EA
ĠS lav
ĠS aks
ĠS ocrates
Ġhá»Ļ c
Ġkháº Ńp
ĠthÃŃ a
ia d
Ġdo do
ar f
ar am
ar ias
ar ayan
Ġy á»ĥ
Ġph ot
Ġph Ãłng
Ġph Ãło
Ġph one
ĠP L
ĠP ot
ĠP os
ĠP ra
ĠP ab
ĠP ou
ĠP han
ĠP ow
ĠP la
ĠP ers
ĠP og
ĠP age
ĠP CC
ĠP ors
ĠP ET
ĠP DF
Ġháº¡ m
ĠK H
ĠK e
ĠK m
ĠK ang
ĠK ai
ĠK ine
ĠK ry
ĠK ip
ĠK Ã¬a
ĠK imb
ĠK ane
ĠK itch
ĠK iki
ĠK PI
ĠK eats
ĠL Å©ng
ĠL Æ°á»Ľi
ĠL ol
ĠL á»±a
ĠL ew
ĠL áº¡ch
ĠL á»ĵng
ĠL ÃŃnh
ĠL ep
ĠL ud
ĠL est
ĠL ion
ĠL ama
ĠL ith
ĠL oy
ĠL omb
ĠL ower
ĠL eop
ĠL ula
ĠL Ã£nh
ĠL loyd
ĠL othar
ĠL EGO
ĠL XD
Ġá» £
Ġá» ©
ĠquÃ¡ nh
ĠÄĳo Ã¡i
Ġngá» ¥p
ĠG W
ĠG Ãł
ĠG Ã¢y
ĠG áº¥u
ĠG oo
ĠG our
ĠG BM
ĠG ame
ĠG erman
ĠG aga
ĠG ats
ĠG CSE
Ġ3 80
Ġngo ai
Ġngo Ã£n
ĠTr i
ĠTr áº§n
ĠTr iá»ĩu
ĠTr Ãºc
ĠTr Ãºng
ĠTr áºŃn
ĠTr áºŃt
ĠTr Ã¡ch
ĠTr Æ°á»£t
ĠTr ust
Ġxu Ã´ng
ĠD H
ĠD P
ĠD áº§n
ĠD ung
ĠD al
ĠD á»įn
ĠD um
ĠD art
ĠD ec
ĠD ion
ĠD ass
ĠD ream
ĠD iane
ĠD ishman
ĠD aphne
or ah
or ld
or illa
Tr Æ°á»Łng
Tr uyá»ĩn
Tr á»±c
al an
al le
Ġthu Ã¢t
ĠÃ¡ ng
im i
im an
im it
im ir
ĠR y
ĠR ot
ĠR á»ĳi
ĠR Ã©t
ĠR it
ĠR Ãºt
ĠR ag
ĠR oh
ĠR ou
ĠR est
ĠR ail
ĠR ama
ĠR ony
ĠR ust
ĠR itz
ĠR ookie
ĠR alph
ĠR TP
el e
el et
el ow
el ford
el kar
el uj
el brot
el aide
Ġtho ai
Ġquyá» ĩt
et ic
et he
et ta
Ġnháº¡ nh
Ng Ã³n
Ng há»ĭ
Ng hÃ¨o
ĠI C
ĠI de
ĠI RC
ĠI bra
Tháº §n
Tháº ³ng
Tháº ¥u
Ġ5 50
ĠV ang
ĠV áº»
ĠV ac
ĠV od
ĠV ander
ĠV ern
ĠV lad
ĠV aux
at le
at te
is bane
Ġ4 40
Ġ4 13
ic al
ic ity
ĠJ Q
ĠJ ang
ĠJ as
ĠJ ol
ĠJ un
ĠJ ou
ĠJ olly
ĠJ org
Ġba se
il on
il ia
il da
as w
as an
as ti
it ia
it ol
it ect
it sha
ol ia
ĠW a
ĠW ard
ĠW ine
ĠW ith
ĠW inn
ĠW OW
ĠW urman
ĠF e
ĠF el
ĠF ey
ĠF est
ĠF all
ĠF ark
ĠF lip
ĠF ros
ĠF air
ĠF isher
ĠE z
ĠE qu
ĠE li
ĠE la
ĠE manuel
ĠE gg
ĠE liot
ĠE asy
Ġ10 4
ĠdÃ¹ m
le j
Ġ... ....
Ġ19 12
Ġ19 15
ho w
ter y
ĠNg hi
ĠNg hÃ¨o
Thá» §
Ġtu r
us i
us er
and al
and ra
and inav
ĠmÃ£ ng
ad esh
om age
ĠTh Æ°á»Ľc
ĠTh am
ĠTh um
ĠTh ore
ĠTh wait
ĠO ED
ĠO th
ĠO st
ĠO pp
ĠO xi
ĠO ck
ĠO car
ĠO ct
ur y
ur ii
ĠCh an
ĠCh au
ĠCh uyá»ĥn
ĠCh at
ĠCh ate
ĠCh agall
ĠY ay
ĠY áº¿n
ĠY ent
ĠY uc
ra f
ra q
ra w
ew ell
ĠHo ang
ĠHo cken
li ott
ĠTED talk
eb erry
oo c
oi e
ÄĲá» īnh
Th Æ°á»£ng
ĠChÃ Ń
ĠChÃ ¬a
ri go
un i
ĠNew ark
re x
Ġw as
Ġw ith
Ġw ug
Ġw hoa
Ġw iki
Ch Æ¡i
Ġin v
id an
Ġxo Äĥn
Ġxo Ã¨
Chá» ĳng
ĠSt art
ĠSt ux
ĠÄĲÃ³ i
ĠghÃ ¬m
ah l
th Ãłnh
th am
th el
ist ine
op rene
Ġca ffe
ĠU d
ĠU ri
ĠU sh
ĠU mar
ed i
ed om
ed In
ed onia
ing way
Ġgen es
ag el
ag ua
ard i
ĠX L
ĠX ong
ĠX Ã©t
ĠX IX
ey la
Ġsu m
ĠAl do
ab ena
Ġvideo s
Tá» īnh
Tá» ¥i
ak er
oh yd
av ela
Äĳ áº§u
Äĳ áº·t
Äĳ áº·c
oc ar
oc al
oc ene
ĠNh iáº¿p
ĠGi Æ¡
ĠGi Ãły
ĠGi ud
te e
Ġ18 12
Ġ18 40
Ġ18 70
Ho áº¡
um ar
tr á»Ł
Ġo un
Ġf r
Ġf our
Ġf ree
Ġf avel
Cháº ©n
Qu áº¡
ĠMar la
ord ion
ev ar
ul ose
ĠChá» Ĺ
ub rey
Ġhi u
Ġ11 2
Ġ11 7
ib i
ChÃ ³
Pháº ¡m
ir in
if ic
Ta j
ud i
ĠQu Ã¡i
ĠQu entin
ĠTá» ©c
ut ion
iv ing
Ġhu h
Gi Ãºp
he us
ins op
ins ton
ins ey
ins ka
ĠBr os
ĠBr ail
ĠBr isbane
ĠAr c
ĠAr on
ĠAr du
ĠAr emey
ĠZ ak
ĠZ aire
ĠZ ucker
ook a
ook s
aw are
eg ans
ert s
ert y
Ġ16 50
ĠAf ric
ĠIs s
ĠIs hi
ĠIs lam
ĠIs aac
Ġu h
ĠthÃ¹ a
ĠSh ai
ĠSh ell
ĠSh hh
ĠCar men
ĠCar rie
rus h
ĠVá» £
ĠVá» ©t
ĠJohn ston
Bá» ¯a
ĠEm ory
Ġ13 5
ip e
ip eg
ip per
yl ar
yl us
Ġ0 4
Ġ0 7
Ġmá»ı m
ĠAm en
ĠAm nest
ĠKen neth
Ġ17 59
ĠHar ford
ĠLan za
ĠLan cet
ph ony
ph rey
ov ic
ĠDo gg
ta fa
enn ium
ĠSc ud
ĠSc atch
ĠSc alia
ĠSc andinav
ĠIsrael i
Kho áº£n
Ph Äĥng
ĠPháº ©m
ĠPháº Ńn
ID G
ann i
ann on
ann evar
ĠSan tee
st arter
ĠrÃ´ bá»ĳt
amb a
ĠBa ehr
Cá» ©u
pp onen
ass a
og ram
og rap
og ito
ĠCá» Ŀ
ĠMc Fad
ĠCol es
Ġtuy Ãªt
ThÃ ¢n
ThÃ ¢m
ThÃ ³i
ath rin
sh azz
ĠHy pponen
ĠPh iÃªn
ĠBer low
ĠBer cken
ĠBer trand
ĠMo uss
iz e
ĠPal ey
ĠSp ock
ĠSp ino
ĠSp ider
ĠLe ib
ĠBl iss
ren s
Ġnan Ã´
20 12
20 13
ĠRos ey
ĠRos alie
ĠTháº ±ng
ĠTháº ¥u
ĠBar Ã³n
ĠBar ton
ĠBar ani
ĠBar cia
Ġkhuy áº¿ch
ĠPar alympic
ĠKho ai
ĠJo an
ĠJo achim
olf sson
ngel s
ani am
ĠBe irut
Ġj u
Ġj ean
ĠAb di
ĠEd ith
ug ananth
ĠSm ol
ett o
ett ner
ĠTEDx Women
ĠTEDx USC
ĠTEDx Mid
lan et
Ġ35 00
ĠHá» ķ
ĠHá» ¡i
up s
Ġhack ing
ĠSch laug
ok ov
ĠMa j
ĠMa eda
ald ine
ĠHe er
ĠHe ff
ĠRe inh
ĠRe al
ĠvÃ© n
ester n
ester day
Ġthá»ķ n
ern er
ĠEl liot
ĠEl liott
end y
Ġst arsh
ĠAt tia
ĠPr ot
ĠPr int
ĠPr atur
ĠPr omet
ĠPr adesh
ĠAnd ers
Kh iáº¿n
Kh uyáº¿n
ens e
ens en
ens chatz
ĠPet ra
Ġ194 4
ĠTalk ing
PhÃ ©p
low een
ĠMichael a
ĠInd us
cel os
ĠTom as
atch i
ĠJu anderson
ĠDi rect
Ġ99 6
ĠTor re
ĠTor ah
ĠNháº Ńp
ĠBig elow
ue z
iss a
ĠOr w
ĠOr ville
PA SS
ush aram
ĠGr im
ĠWeb er
Ġvá»Ŀ n
ĠCop per
ĠDan one
An dy
An thony
Nháº ¯n
ĠchÃ¹ a
ĠCl ub
ĠCl are
ĠCl aron
ĠMan koff
ĠMad h
SD F
Ġ26 0
ĠSe qu
ĠSe atle
ĠWor th
ĠCarol ine
ĠCarol yn
ĠHaw kins
thá» Ń
ĠSw ing
ĠSw az
ĠSw artz
ĠSw ahi
ĠSw enson
ĠMont y
Al isa
per ger
Ġcu á»Ļi
Ġcent imet
ĠAd olf
ĠPark er
oth er
ĠGal vani
ĠEn ter
ĠDel le
ĠDel ta
ĠDel aware
mer we
ĠOx fam
Mar ie
Mar cel
ÃĤ N
Ġ28 0
ĠÃło o
enz o
ĠKing s
ĠJe ep
ĠJe hov
ĠChrist ina
ect rogram
ĠBur t
ĠBur ton
ĠBur undi
ĠBab y
ĠKhá» Łi
Dá»± ng
ĠMy anmar
ĠMac Arthur
omb o
Ġel egans
ĠAh a
ĠWar s
con celos
ĠSu arez
ĠTrá» ¥
ĠTrá» «
ĠTrá» ©ng
itz er
ĠWorld Wide
ĠMah al
ĠNan cy
ĠBu ilding
ĠBu ettner
ĠGen eral
thÃ ªm
thÃ Ńch
Ġsc rot
Ġgh iá»ģn
ĠCy Ar
ĠPer ony
ĠWall ace
ĠBrook e
ĠMand elbrot
ĠAs perger
MT T
ven a
Ġser ver
ĠShi rin
12 5
enh ower
hua hua
ĠUn ion
200 6
200 7
ĠAbraham s
ĠKy le
ĠKy maer
EC T
Ġtw itter
ĠTur km
ĠCap itol
ĠAv az
ĠAv ril
ĠSi yathem
arth y
ĠMil dred
ĠBal och
ĠSer bia
ĠRay mond
ĠWil kins
ĠHill is
Chi p
Sh er
Sh eryl
Sh aff
do ch
ĠDis cov
ĠRo che
PT HX
col i
Ġmil imÃ©t
Ġsp ectrogram
ĠMur ugananth
ĠKn op
In dia
ĠTam ara
ĠEt ete
Jo ey
har ata
ye ngar
Phi l
ĠMer z
ĠBi har
ĠSand or
ĠLau ra
ĠLau rie
ĠLar ge
ĠLar sson
oly mer
ĠFri eda
CL U
Há» £p
Há» ¡i
ĠÂ ½
ĠHan cock
ĠSk inner
ĠLo is
ĠLou ie
yd ney
ĠLak shmi
ĠJeff rey
gi áº£i
ĠBot ox
ĠBao bab
ĠHu aorani
ĠAus chwitz
ĠIg n
ĠÄĥ m
ĠTel ecom
ĠCN C
ĠAg ra
ĠKal enjin
IA C
sc ray
ĠMi ami
ĠBir ke
Ġviol on
ĠJenn ings
Ġ193 2
Ġ193 9
ĠCarl os
ĠNep hites
ĠPri ngle
ĠDu flo
ĠOp era
ĠShe ep
ĠNews week
ĠNet work
ĠSus ana
ĠGh emawat
ĠVi enna
ĠFOX P
Ġ192 8
ĠMcC arthy
ĠWhit ney
ĠKhÃ ´
Ġ58 1
oz oin
Ġghá»ģ nh
Ġrap amycin
inn ess
ĠMap endo
ĠBoy s
ĠBoy le
ĠKr ug
ĠLuc e
ĠRes our
ĠIM U
ĠIM PASS
Ġfor mal
ct ic
ĠHel vet
ĠSá» £
ĠPep per
ĠGar one
osau r
atur k
Ġ190 8
ĠXu Ã¢n
ĠAnn an
br andt
Ġq á»§a
Ġbo ard
ĠMus tafa
ĠNhá» Ľ
ĠHal loween
ĠSn oop
ĠSen ior
ĠDick e
ĠRid er
Ġsandwich es
ĠMet ric
ĠMet rop
ĠHom er
ĠAng ry
ĠLi u
lipp ines
ĠGrand in
ĠCen ter
ĠHall eluj
ĠPier pont
ĠGan son
ĠIm age
Ġ54 4
Ġ82 6
ĠSchw ar
Ju lie
Matt y
ĠGl enn
ĠGord ian
Ġ68 3
ĠAlb right
Jenn y
Ká» ĭch
Ġson ic
ĠGay le
ĠWh ewell
Ġis oprene
ĠClo oney
ĠNov ocure
ĠPor co
ĠFed Ex
ĠUnivers al
uch u
Ġmem es
aire ad
ĠNar c
ĠLab s
ĠLev y
ĠLev ine
ĠDor othy
ĠDur an
ĠDun bar
ĠReb el
ĠWin ter
ĠWood s
ĠTEDTalk s
ĠSher mer
eek er
ĠSci ent
ĠCro ck
ĠBry nj
ĠHind i
ĠPur s
ĠPur ple
ĠLimb augh
ĠWy ss
ĠStand ard
ĠBlu egrass
ĠGreg ory
Carol yn
Bon o
hn an
mat ic
phÃ ª
Ġsh ot
ĠMob y
ĠNin th
ĠHum phrey
ĠAst ro
ĠSI M
ĠLy ne
ĠRub in
ĠVel de
ĠVel cro
ĠWang ari
ĠChu áº©n
Ġsul f
Ġ188 5
ĠBroth er
ĠShaw n
ĠTweet s
ĠRobb en
ĠMichel in
Iá» Ŀ
anc ial
ĠNG H
ĠNat ure
ĠNat alie
ĠBalk an
ĠPo or
ĠLes lie
ĠGer hard
ĠEb ola
ĠNguy en
ĠSheph erd
Jac ob
She ena
fri ed
Ġsil ic
ĠTH PT
ĠBac illus
ĠBall bot
ĠSum atra
ĠSum merwe
ĠSaf eway
ĠPran itha
ĠKob lin
rag matic
ĠAnton io
ĠBrend an
ĠHeather wick
Ġes presso
ĠÄĳÆ¡ á»£c
Ġhead phone
ĠMun roe
ĠBai ley
ĠGoog ler
ĠDod i
alo a
ĠID EO
ĠIN K
ĠPlay station
Cr aig
Col ombo
No ah
Os orio
bá» ĩnh
Ġcass ava
Ġkang aroo
Ġhem ozoin
ĠTut si
ĠMis es
ĠBB Q
ĠHand el
ĠHand sp
ĠSin aloa
ĠKoh ler
ĠKris hna
ĠGut tenberg
ĠDIY bio
Ngá» §
ĠVib ro
ĠJans en
ĠJans ky
ĠJaw bone
Ġding o
ĠEr nest
ĠChap man
ĠChap lin
ThÆ° c
ĠXc á»ĳt
ĠMaas ai
ĠGriff in
ĠGriff ith
Ġadren alin
Ġadren aline
EE B
HI á»ĩn
Mic rosoft
Nic ole
Rock ett
Ġtry top
Ġhal al
Ġhep arin
Ġre CAPTCHA
Ġdot com
ĠTil son
ĠTus cany
ĠTill ett
ĠThom pson
ĠAgar icon
ĠAugust ine
ĠSOL E
ĠPent ium
ĠDamas io
ĠVas concelos
ĠJet man
ĠJob rani
ĠFin ancial
ĠFoot scray
ĠChamp s
ĠHod g
ĠFrans isco
ĠParik rma
ĠWash in
ĠMahab harata
Ġsunf at
ĠEcua do
ĠHutch ison
ĠJohannes burg
Can ada
Mel inda
khÃ¡ c
Ġïľ ģ
Ġnet work
Ġles bian
Ġtruá» Ŀng
ĠTat um
ĠNab okov
ĠNash ville
ĠBR D
ĠBis mark
ĠBorn eo
ĠSamb oja
ĠPash tun
ĠKÃŃ lian
ĠGra ves
ĠRey kj
ĠRud y
ĠFir es
ĠFren ch
ĠStep hanie
Ġxá»ĭ n
Ġhipp ie
ĠAnat omage
ucc i
ĠShel f
Ġcarb ohyd
ĠBlak ley
ĠElias son
ĠMello dy
ĠHercul es
ĠFerr ari
Stew art
ĠKamkw amba
ĠMedic ine
ĠFeder ation
ĠRecord ing
ĠPachycephal osaurus
ĠCitiz ens
Ġimpact ful
Ġnucle ic
Stan ley
Suz anne
Ġcol tan
Ġrou ter
Ġgig abyte
Ġhom eopathy
Ġná»ĩ m
ĠMash elkar
ĠBou ba
ĠBib le
ĠBaz ooka
ĠBenn ington
ĠBuck minster
ĠAber deen
ĠSit opia
ĠSid ney
Ġyard s
Ġphos ph
ĠPle ist
ĠPed ro
ĠPRI SM
ĠKaz akhstan
ĠKare em
ĠKitt y
ĠLah ore
ĠLink edIn
ĠGon zal
ĠGag arin
ĠTril ogy
ĠTreat ment
Ġxun phua
ĠDh abi
ĠRhod es
ĠIU CN
ĠChao s
ĠChek hov
ĠStrat ford
ĠArmen ia
Ġbioph ony
ĠLead beat
ugg ets
ĠBene field
ĠBenedic t
ĠKarol inska
ĠMujahi deen
Ġxenlulo za
ĠProv id
ĠProduc tion
ĠMagell anic
ĠRainb ow
Ġchannelrhodops in
Ġnicot ine
Dur kheim
Jord an
Mat thew
Pas cal
Reb ecca
Sakka f
Ġà¸ Ńà¸
Ġcell ulose
Ġcrick et
Ġbos sy
Ġbre ak
Ġbind i
Ġtrump et
Ġgar age
Ġretro virus
Ġpac ak
Ġpaste urii
Ġthri ved
Ġkhiá»ħ ng
Ġchorus ing
ayel itsha
ĠCir que
ĠCath olic
ĠCHá» ¨NG
ĠMow gli
ĠNint endo
ĠNacht wey
ĠBower y
ĠHitch cock
ĠÄĲTD ÄĲ
ĠAyl ward
ĠSet hi
ĠSine k
ĠSov iet
ĠSID A
ĠPou pon
ĠPCC C
ĠKine ct
ĠKry pton
ĠKitch en
ĠLest ari
ĠLeop old
ĠGoo ch
ĠGour ley
ĠGats by
ĠDal ai
ĠDart mouth
ĠRit alin
ĠRail way
ĠRTP J
ĠIbra him
ĠVlad imir
ĠVaux hall
ĠJou bert
ĠWine house
ĠWinn ipeg
ĠFros t
ĠThore au
ĠThwait es
ĠOst row
ĠOck elford
ĠOcar ina
ĠChate au
ĠYent l
ĠYuc atan
ĠHocken berry
Ġcaffe ine
Ġfavel as
ĠBrail le
ĠAremey aw
ĠZucker berg
ĠAfric a
ĠAmnest y
ĠScandinav ia
shazz ar
ĠSpino za
ĠBarani uk
ĠPratur y
ĠSwahi li
ĠJehov ah
ĠTurkm en
ĠSiyathem ba
ĠBaloch istan
Shaff i
ĠDiscov ery
ĠMurugananth am
Ġformal de
ĠHelvet ica
ĠHalleluj ah
ĠBrynj olfsson
ĠSummerwe ar
ĠHandsp ring
Ġtrytop han
ĠReykj av
ĠLeadbeat er
1 93
5 1
5 6
6 9
6 000
7 1
8 3
9 2
9 4
A B
A E
A H
A c
A g
A p
A qu
A ur
A IDS
A riel
A par
A ubrey
B j
B l
B iá»ĩn
B Æ¡i
B er
B os
B áº§y
B om
B áºŃc
B ox
B ake
B aptist
C G
C I
C K
C y
C Ã¢n
C Äĥng
C oi
C op
C ity
C ongo
C lau
C esar
C atherine
D L
D u
D Æ°á»£c
D ao
D áº¡o
D is
D um
D ub
D ata
D OPA
D iane
E le
E rick
E rez
F K
F or
F aiza
G P
G W
G l
G á»
G Ã¬
G uy
G Ã¢y
G á»ĳc
G al
G áº¯n
G et
G háº¿
G DP
G hana
G Iá»Ŀ
H áº¡n
H iÃªn
H Ã´n
H al
H ol
H Ã¨n
H ou
H az
H IV
H Ã£ng
H á»Ļp
H uck
H mm
H igh
H ollywood
H anna
H any
H asan
I C
I Q
I van
I celand
I raq
J ung
J er
J oh
J ustin
J ason
J anet
K G
K iá»ĥm
K han
K ate
K ath
K inn
L Ãłn
L Æ°Æ¡ng
L iÃªu
L áº¯c
L Ã¡t
L ondon
L yn
L uke
L uria
L Ã£nh
L icklider
M J
M inh
M Ã¢u
M áº¡o
M Ã¡i
M Ã´n
M Å©
M áºŃt
M ag
M iáº¿ng
M eg
M áº©u
M iá»ĩng
M Ã¹i
M exico
M Æ°á»£n
M ary
M Ã¡u
M BC
M aj
N D
N E
N T
N Æ¡
N Ãłng
N Ãªu
N áº¥u
N at
N ik
N á»ĳt
N BC
N ational
N iel
N aomi
N ellie
N IAC
O b
O z
O ops
O NG
O rigami
P ran
P all
P ix
P izza
P ER
P rot
R e
R au
R á»ĳi
R io
R ex
R Æ°á»£u
R od
R ast
R ose
R enny
R US
S a
S u
S y
S Æ°
S Æ¡
S ch
S Ã´ng
S Æ¡n
S in
S Ãºng
S ol
S áº¯p
S tress
S olly
S ean
S OPA
S áºµn
S OC
S ophia
T V
T u
T Ã¢y
T áº§n
T Ã©
T uyÃªn
T uyá»ĥn
T Ãłu
T ur
T iÃªm
T erry
T Ã¢t
U C
U h
U n
U p
U MA
U shahidi
U buntu
V áº¿t
V Ã¡n
V áº½
V inc
V odka
W a
W at
W ik
W alk
W ael
W ire
W inston
X ong
X on
X In
Y s
Y ay
Y ork
Y outh
Z ach
Z vika
a qu
a uy
a ah
a Xon
b e
b u
b Ã´
b iáº¿n
b is
b it
b aw
b ridge
b eck
b ÃŃp
c c
c r
c z
c Ã¹ng
c or
c is
c le
c ac
c if
c lay
c rÃ´
c aux
d l
d n
d an
d es
d is
d ic
d le
d om
d ate
d ha
d ington
d iving
f u
f ly
f ox
f our
f orm
g r
g Ã¢y
g ang
g al
g es
g is
g le
g om
g ov
g ina
g hing
g ok
g ado
g ras
g ÃŃc
h Æ¡n
h er
h un
i y
i ew
i Ã³n
j on
j am
j eb
j ou
j azz
j aro
k inh
k áº»
k iá»ĥm
k im
k ara
k Ã©o
k ner
k sw
k hÃ¡n
l r
l iÃªn
l os
l Æ°á»Ľi
l ist
l ook
l ess
l ers
l up
l ish
l omo
m áº¥t
m ay
m ang
m ai
m áº·t
m Äĥng
m á»ĳi
m áº¹
m it
m Ã¡t
m us
m un
m ir
m ian
m eg
m ite
m á»©c
m our
m ahl
n o
n s
n Ãª
n an
n Æ°á»Ľc
n Æ¡i
n am
n á»ĳi
n Ã©t
n om
n ing
n ard
n ut
n ier
o áº£ng
o il
o om
o ora
p il
p ad
p ert
p ris
p ee
p lan
p roject
r eo
r á»ĳc
r Ãµ
r est
r ite
r quez
s m
s or
s Ã©t
s á»Ń
s ta
s trong
s ideo
s che
s dale
s urf
t n
t uá»ķi
t al
t own
t aire
u u
u en
u lo
u ania
u ardo
v y
v iÃªn
v on
v Å©
v at
v ind
v oir
w id
w ig
w ed
w ing
w ana
w eck
w isher
w estern
x en
x ic
x it
x ites
y u
y am
y ro
y sus
y rann
z ch
z Ã´n
z quez
¡ t
¡ ch
© Æ¡c
³ oc
¾ ch
¿ ch
Ã ¤
Ã ĵ
Ġ }
Ġ ~
Ġ áº¿
Ġ á»ĳ
Ġ Ã£
Ġ áº¡i
Ġ Ã¢y
Ġ Æ°á»Ľ
Ġ Ã¹
Ġ á»ĳi
Ġ Ãłm
Ġ av
Ġ Ã¹a
Ġ Ãºa
Ġ apt
Ġ ami
Ġ Æ¯
Ġ ze
Ġ á»ĳp
Ġ agra
ĭ m
ı oáº£ng
ĺ T
á» £
á» ³
áº ¬
áº ®
Ġt iá»ģu
Ġt Æ°á»£c
Ġt áº¿u
Ġt uá»ĵn
Ġt ic
Ġt it
Ġt áºŃu
Ġt iÃªng
Ġt Æ°á»£t
Ġt áº©u
Ġt áºŃm
Ġt áº¥ng
ng u
Ġc r
Ġc Ã¢
Ġc Æ°á»Ľc
Ġc os
Ġc ir
Ġc atch
Ġc ogito
ĠÄĳ Æ°
ĠÄĳ anh
ĠÄĳ áº«n
ĠÄĳ Äĥm
ĠÄĳ iáº¿m
ĠÄĳ áº¡ng
ĠÄĳ áº©u
ĠÄĳ Ã¢t
ĠÄĳ rÃ´
Ġn Æ°
Ġn Æ°á»Ľ
Ġn Ã¡n
Ġn Ãºc
Ġn áº£o
Ġn Ãºp
Ġn at
Ġn Ãªm
Ġn ÃŃch
Ġn Ã¡y
Ġn ice
Ġn á»±ng
há» ī
há» £p
Ġv áº¡
Ġv áº§
Ġv Æ°á»£c
Ġv Ã¹
Ġv Ã´n
Ġv as
Ġv áº©y
Ġv est
Ġv Ã£ng
Ġv ector
Ġl áº¡n
Ġl áº¥t
Ġl Ä©
Ġl iáº¿n
Ġl uá»ĳng
Ġl um
Ġl áº³ng
Ġl uc
Ġl exico
Ġl Ã³i
Ġl ife
Ġl ego
Ġm áº¥p
Ġm áº¯m
Ġm á»įn
Ġm ed
Ġm ou
Ġm ass
Ġm Ã³i
Ġm ash
Ġm ÃŃt
Ġm ile
Ġm Ãµm
Ġm aki
Ġm ethyl
Ġb iá»ģu
Ġb áº¿t
Ġb áº£nh
Ġb al
Ġb all
Ġb Ã¹i
Ġb enz
Ġb itch
Ġb Æ°Æ¡m
Ġb ingo
Ġb lock
Ġb áºµng
Ġb alo
Ġk e
Ġk Ã¬nh
Ġk it
Ġk ing
Ġk ey
Ġk Ã¨o
Ġk Hz
háº ¯n
Ã´ t
Ã¡ rquez
Ã¡ zquez
Ġs i
Ġs y
Ġs á»Ļt
Ġs áº¿n
Ġs am
Ġs Æ°á»£t
Ġs áº¡m
Ġs he
Ġtr on
Ġtr iáº¿n
Ġtr Ã¢m
Ġtr en
Ġtr áº¡c
Ġtr áº¡nh
Ġtr Ã¡m
Ġtr áº¡ch
Ġtr Ã³t
Ġtr Æ°á»Ŀn
Ġtr Ä©u
Ġng ac
Ġg áº¡
Ġg áº£
Ġg áº±ng
Ġg Æ°á»Ŀng
Ġg Äĥm
Ġg uá»ĳc
Ġg ua
Ġg iáº¿m
Ġg ly
Ġg áº«m
Ġg Ã¡p
Ġg lobal
Ġg orilla
ĠlÃł i
Ġh Æ°á»Ŀng
Ġh Ä©nh
Ġh uyá»ħn
Ġh tt
Ġthá» «
Ġthá» Ľi
Ġr i
Ġr ÃŃ
Ġr Ã¬nh
Ġr Ä©
Ġr Ãº
Ġr Æ°á»Ŀ
Ġr Æ°á»Ŀng
Ġr áº¯t
Ġr Ãªu
Ġr áºŃn
Ġr Ã¨
Ġr Ã¡t
Ġr uá»ĵng
Ġr oll
Ġp al
Ġp es
Ġp red
Ġp unk
Ġp rof
Ġp roject
Ġp lasma
Ġp shoo
Ġd iÃªn
Ġd iáº¿t
Ġd Ãºng
Ġd el
Ġd Ã¡t
Ġd ep
Ġd Å©a
ĠÄĳá» į
ĠÄĳá» ıi
ĠÄĳá» Ľp
ĠÄĳá» īa
Ġnh uá»ĳ
Ġnh iá»ĥm
Ġnh iá»ģn
Ġnh iá»ĩp
Ġnh uá»ĩ
qu y
qu Ã¡
qu at
qu ist
qu est
Ġcá» Ľi
Ġvá» ī
Ġvá» £i
Ġvá» Łi
ĠkhÃ ¨
ĠkhÃ ²
ĠkhÃ ¢m
Ġth au
Ġth is
Ġth iáº¿c
Ġth iÃªt
Ġnhá» į
Ġnhá» ¥t
Ġnhá» ¯n
Ġnhá» ±ng
Ġnhá» įt
Ã¢ p
Ġhá» ĥ
Ġhá» ī
Ġhá» Łi
Ġhá» Ľn
Ġtháº ©y
Ġtá» µ
Ġta g
Ġta u
Ġta ig
Ġqu Æ¡
Ġqu áº¡i
Ġqu áº±n
Ġqu áº¹o
Ġgi Ã£
Ġgi áº»
Ġgi Ã£i
Ġgi áº«m
Ġgi Ãªng
Ġx áº¿t
Ġx uá»
Ġx á»ĳi
Ġx el
Ġx Ã©p
Ġx áº©m
Ġx iá»ģng
Ġkh iÃªn
Ġkh Æ°á»Ľc
Ġkh eo
uy a
Ġchá» ĵm
Äĥ p
ĠthÃ ³
ot ho
ot ok
ot itan
ot urf
ot ylus
ot yrann
Ġpháº ¥p
Ġpháº £m
Ġngh iÃª
Ġcho p
Ġcho áº¡ng
an z
an am
an iker
an esia
VÃł ng
ay ette
Ġra ku
Ġra pper
Ġsáº ³n
Ġsáº «m
ch u
ch uyá»ĥn
ch ev
ch iáº¿c
ch ley
ch ant
ch urch
Ġnháº ¿ch
ĠÄĳá»ĥ n
Ġbá» īnh
ĠT I
ĠT R
ĠT s
ĠT iá»ĩn
ĠT Æ°á»Ŀng
ĠT ung
ĠT áº¥n
ĠT á»ĳc
ĠT Ãºp
ĠT áº¥m
ĠT ol
ĠT Ãºi
ĠT az
ĠT ud
ĠT est
ĠT amp
ĠT Ã´m
ĠT ate
ĠT uá»³
ĠT umb
ĠT ivi
ĠT ari
ĠT iger
ĠT zu
ĠT icket
ĠT EEB
Ġlá» «ng
Ġlá» ım
Ġho ay
Ġho áº¡c
Ġho ck
Ġho pe
Ġho á»ī
on ton
on ka
on na
ao h
Ġdá» ķi
Ġcháº ¥y
ĠchÃ ¬nh
ĠhÃ ¢u
ĠhÃ ³oc
ĠnhÃ ¨
ĠnhÃ ³n
ÄĲ ang
ÄĲ Ãłi
ÄĲ iá»ĩu
ÄĲ iÃªu
ÄĲ Ã¹a
au k
au n
au t
au ngu
in ch
Ġná» ¡
Ġná» ĭt
ĠC u
ĠC Ãł
ĠC Æ°
ĠC áº¥t
ĠC á»Łi
ĠC oi
ĠC ran
ĠC ard
ĠC ud
ĠC ut
ĠC ore
ĠC ain
ĠC ros
ĠC apt
ĠC uk
ĠC ave
ĠC aj
ĠC isco
ĠC hÃ¡n
ĠC atherine
ĠC MU
ĠC erv
ĠC Uá»
Ġháº ¥t
Ġsá» ¥
Ġsá» §
Ġsá» ©t
Ġsá» §i
ĠÄĳá»ģ m
ĠchÃŃ t
ung e
ung u
Ġphá» īnh
Ġphá» Ļng
ĠM Ã¬
ĠM Ã¹
ĠM áº£nh
ĠM Å©
ĠM om
ĠM ein
ĠM áº©u
ĠM Ã¨o
ĠM ond
ĠM ID
ĠM und
ĠM ind
ĠM ald
ĠM ota
ĠM eh
ĠM ini
ĠM etro
ĠM oto
ĠM ather
ĠM ister
ĠM ARS
ĠM airead
ĠM Ã¡rquez
áº» m
Ġkho áº¯c
Ġkho áº¯n
em ia
em ent
em aster
ĠnháºŃ u
hi co
hi mi
Ġtrá» ©c
Ġtrá» §ng
Ġká» ıoáº£ng
ĠN á»ĳi
ĠN as
ĠN Ã¢ng
ĠN áº±m
ĠN av
ĠN ich
ĠN ul
ĠN ell
ĠN ath
ĠN ice
ĠN esh
ĠN eop
ĠN BC
ĠN iag
ĠN DD
ĠN PR
ĠN ellie
ĠN tai
áº« ng
ĠB L
ĠB Ã²
ĠB ia
ĠB or
ĠB áºŃt
ĠB ag
ĠB ey
ĠB oh
ĠB ik
ĠB ÃŃnh
ĠB io
ĠB att
ĠB ander
ĠB ox
ĠB ela
ĠB ue
ĠB uk
ĠB PA
ĠB ollywood
ĠB har
ĠB iff
ĠB unn
ĠB illie
ĠB avel
ĠB oing
ĠB CG
Ġlo Ã¡
Ġlo ay
Ġlo áº£ng
Ġlo áº¡ng
Ġlo ud
Ġlo áº¹t
er g
er is
ĠH áº¿t
ĠH iá»ĥm
ĠH uyá»ģn
ĠH áº¥p
ĠH ur
ĠH ew
ĠH id
ĠH ack
ĠH ert
ĠH ond
ĠH ann
ĠH ier
ĠH á»Ļp
ĠH ale
ĠH ere
ĠH oly
ĠH áº³n
ĠH obs
ĠH TM
ĠH áº»m
Ã© m
am ets
ĠÄĲ áº±ng
ĠÄĲ au
ĠÄĲ á»ĵi
ĠÄĲ áº§y
ĠÄĲ Ã³ng
en es
en ton
en ya
en cy
ĠA L
ĠA M
ĠA V
ĠA re
ĠA ida
ĠA LS
ĠA IDG
ĠA uen
ĠÄĳÃ¡ t
ĠÄĳÃ¡ u
Ġcá»© a
Ġkhá» ķi
Ġkhá» Ļng
ĠS ung
ĠS áº¿p
ĠS áº¡ch
ĠS ab
ĠS oc
ĠS ow
ĠS ec
ĠS ee
ĠS og
ĠS oy
ĠS ash
ĠS ide
ĠS oto
ĠS BI
ĠS lau
ĠS oren
ĠS Tri
ĠS iza
ĠS uá»µt
ĠS iegel
ia c
Ġdo g
Ġdo ang
Ġdo ub
Ġdo main
ar is
ar ro
ar meen
ar aoh
Ġy áº¿t
Ġy adda
Ġph age
Ġph ui
ĠP G
ĠP Ã´
ĠP is
ĠP om
ĠP az
ĠP ick
ĠP ud
ĠP ike
ĠP ros
ĠP ean
ĠP ix
ĠP iano
ĠP enz
ĠP izza
ĠP enh
ĠP omp
ĠP iff
ĠP DA
ĠP ange
ĠP ayne
ĠP VC
ĠP amela
ĠP eople
ĠP agel
ĠK o
ĠK el
ĠK ad
ĠK ew
ĠK ard
ĠK ub
ĠK art
ĠK lin
ĠK oy
ĠK umb
ĠK urt
ĠK eller
ĠK oko
ĠK owan
ĠK raft
ĠK ofi
ĠK Ãªnh
ĠK ismet
ĠL á»Ļ
ĠL iá»ģu
ĠL ot
ĠL ay
ĠL Ãłnh
ĠL Ãłng
ĠL á»ĳi
ĠL or
ĠL us
ĠL and
ĠL Æ°á»¡ng
ĠL ist
ĠL ed
ĠL Ã£ng
ĠL ek
ĠL up
ĠL ÃĢ
ĠL oft
ĠL oáº¡n
ĠL evin
ĠL ive
ĠL obo
ĠL ISA
ĠL eroy
ĠL eyla
Ġá» Ľi
Ġhai ku
Ġngá» Ľt
Ġngá» ķn
ĠG I
ĠG b
ĠG w
ĠG Ã£
ĠG á»įi
ĠG or
ĠG á»ĳc
ĠG áº¯n
ĠG áº·p
ĠG om
ĠG ur
ĠG op
ĠG ing
ĠG ev
ĠG eg
ĠG ris
ĠG lob
ĠG SM
ĠG Hz
ĠG oro
ĠG etty
ĠG othic
ĠG ucci
ÄĲÃ³ i
Ġ3 20
ĠTr uy
ĠTr Ãło
ĠTr áº£i
ĠTr ad
ĠTr á»ĵng
ĠTr ott
ĠTr ue
ĠTr oll
Ġxu Ã½
ĠD j
ĠD áº§u
ĠD Æ¡i
ĠD ic
ĠD il
ĠD ob
ĠD á»±a
ĠD ra
ĠD ist
ĠD ir
ĠD ud
ĠD yl
ĠD ami
ĠD rew
ĠD ale
ĠD ame
ĠD ors
ĠD esk
ĠD imit
ĠD weck
or ov
Tr a
Tr Ã¬nh
Tr iá»ĩu
Tr áº¡ng
Tr Ã¡nh
Tr á»Ľ
Tr acey
al am
al ind
al ini
Ġtrá»ĭ a
Ġthu i
Ġkáº¿ ch
ĠÃ¡ y
Ġem p
es co
os eberry
ĠR A
ĠR F
ĠR anh
ĠR Ã¡c
ĠR um
ĠR ami
ĠR ound
ĠR ott
ĠR ush
ĠR itch
ĠR AM
ĠR ight
ĠR unner
ĠR assel
el is
ĠVÃł nh
Ġtho Ã£
ĠtrÃŃ nh
et el
et ain
et eli
et itia
et nam
Ng á»¯
Ġkhu Ã´ng
Ġphi a
Ġphi Ã¡
ĠI w
ĠI ke
ĠI SS
ĠI ngrid
Tháº ¥t
Tháº ©m
Ġ5 30
Ġ5 500
Ġso áº¡t
Ġso da
ĠV I
ĠV inh
ĠV Ã¡c
ĠV Ã¢n
ĠV áº½
ĠV os
ĠV oi
ĠV ig
ĠV era
ĠV all
ĠV ers
ĠV eron
ĠV arty
ĠV esta
ĠV usi
ĠV ardi
ĠV annevar
at ah
at ou
at ive
at anga
at tery
is i
is enberg
Ġrá» §
Ġrá» Ĺ
Ġrá» ©t
ĠQ uáºŃn
ĠJ H
ĠJ K
ĠJ T
ĠJ Y
ĠJ ag
ĠJ ul
ĠJ ust
ĠJ une
ĠJ ody
ĠJ aipur
ĠJ orge
ĠJ ugaad
ap olis
il es
il een
il iano
il ight
Ġchu Ã´t
as k
as ia
as ub
as ma
it as
it uc
it tin
it ali
it hia
it age
it esh
it ies
it ness
Ġdi e
ol ina
ol og
ol itan
ol ution
ĠW an
ĠW ing
ĠW ak
ĠW ork
ĠW he
ĠW eg
ĠW ael
ĠW ern
ĠW itt
ĠW MA
ĠW ax
ĠW oz
ĠW illie
ĠW ehr
ĠW ayne
ĠW WF
ĠW endy
ĠW onka
ĠW itness
ĠF al
ĠF is
ĠF ah
ĠF ab
ĠF ry
ĠF ut
ĠF ink
ĠF uk
ĠF our
ĠF lyn
ĠF aron
ĠF ischer
ĠF LS
ĠF loyd
ĠF iji
ĠF otok
ĠE I
ĠE O
ĠE U
ĠE ig
ĠE ag
ĠE ther
ĠE rin
ĠE rick
ĠE TH
ĠE gan
ĠE ps
ĠE rez
ĠE thel
Ġ10 6
Ġ10 8
ĠvÃŃ u
le d
le wood
le hem
Ġ20 25
Ġ20 27
Ġ19 13
Ġláº¡ ng
ho k
ho ff
ter i
ĠNg á»±
ĠNg on
ĠNg á»ĵi
ĠNg Å©
ĠNg á»«ng
Thá» «a
us ter
us man
us ka
ac as
ac le
ac ter
ac ab
and is
and ie
and ria
and reo
Ġ6 9
Ġ6 20
ad an
ad ia
ad ter
ad ian
ad ne
om y
ĠTh uyá»ģn
ĠTh eme
ĠO g
ĠO ed
ĠO ort
ĠO men
ĠO wen
ĠO CR
ĠnghÃ Ńa
ob e
ur as
ur ra
ĠCh Ãłng
ĠCh er
ĠCh Äĥm
ĠCh av
ĠCh amb
ĠCh lad
ĠCh eryl
ĠCh lam
ĠCh alle
ĠY Ãªn
ĠY es
ĠY ip
ĠY itz
ĠY esterday
ra k
ra en
ew er
ew ilding
ĠHo w
ĠHo ur
ĠHo over
ĠHo wey
li er
li ght
li fe
li ku
li ding
Ġpháº¡ n
ĠTED X
ĠTED India
ĠTED Youth
Ġ8 1
oi re
Ġla g
ÄĲá» ģu
Ġgá» Ľi
Ġgá» ıi
Th e
Th Æ¡
Th uá»µ
Ġtá»ĩ p
ĠChÃ ³
ĠChÃ ´n
ri es
ri ram
ri ze
ĠhÃ¡ ng
un ach
ro u
ro yo
Vá» ĩ
Vá» ı
ĠÃ´ xi
ĠÃ´ liu
ĠNew found
ĠNew York
ĠÄĲá» īnh
re po
re cht
Ġw ill
Ġw arf
Ch Äĥm
Ch ange
Ġin ter
Ġin sideo
ĠIn es
ĠIn ver
ĠIn side
ĠIn cep
id ou
id ep
id one
Ġxo Ãłi
Ġxo Ãłng
Ġxo áº£ng
Chá» ¯a
ĠSt at
ĠSt age
ĠSt eff
ĠSt uart
ĠSt amets
ĠghÃ ¬
ĠghÃ ©m
Ġ15 4
Ġ15 5
th Æ°á»Ŀng
ist a
ist ol
ran a
op e
op p
op hi
Ġca ÃŃ
ĠU K
ĠU S
ĠU V
ĠU m
ĠU buntu
ĠU FO
ĠU AE
ĠU MBC
ed y
Ġgen itali
ag liding
ĠX Y
ĠX Ãł
ĠX Ãª
ĠX Ã¡c
ĠX en
ĠX ia
Ġcháº· c
lo f
lo h
lo áº¡i
lo Ãłi
ton e
ey a
Ġsu ey
Ġ12 3
Ġ12 7
Ġ12 9
ĠAl d
ĠAl h
ĠAl on
ĠAl av
ĠAl ma
ĠAl ison
ĠAl isa
ĠAl isch
ab it
Tá» Ľ
Má» īa
ak u
ĠtÃ¹ m
av u
av io
av ere
ine jad
Äĳ Ã´i
Äĳ áº¡i
Äĳ an
Äĳ áº¥y
Äĳ Ãºng
oc ol
oc aly
oc opy
ĠNh o
ĠNh iá»ĩt
son s
ĠYork e
han ti
ĠHá»į p
ĠGi Ãł
ĠGi Ã³
ĠGi ov
te en
ill ar
Ġxá» ¥p
ĠKá» ī
Ġ18 91
Ġ18 75
Ġ18 29
ĠcÅ© a
Ho uston
um an
um in
tr iá»ĩu
tr uyá»ģn
tr oturf
Ġ40 5
Ġchá»Ŀ n
ik ha
ik eya
ie ux
Ġo ur
ich i
ich u
ich ini
Ġf re
Ġf avela
Ġf lup
Cháº Ńm
Qu Ãª
Qu Ãªn
Qu áº£n
Qu est
ĠMar g
ĠMar is
ĠMar ley
ĠMar cel
Ġ25 6
ev e
ev es
ul ar
Ġdu h
ĠChá» ¥p
ĠkhoÃ¡ y
ub i
Ġ11 1
Ġ11 4
la j
ent s
ib ar
ĠThÃ¡ m
ChÃ Ń
Pháº «u
ĠbÃ¨ o
if ace
if orm
az ine
ex e
ep per
ick i
ick y
ick er
ud a
ud wick
ĠQu Ãª
Ġnháº¹ m
ĠTá» īnh
ut u
ut kin
ut project
iv ak
ĠcÃº a
est ig
est ine
Ġhu Ã¢n
Ġhu Ãªnh
Gi Æ¡
Gi Ã¢y
Gi Ã¡n
Gi Ã¡m
Gi Ã¡ng
he k
he ng
art i
art s
ins ula
ĠBr es
ĠBr ain
ĠBr aun
ĠBr istol
ĠAr by
ĠAr ush
ĠAr ctic
ĠAr royo
ec ky
ec ue
ĠZ X
ĠZ em
ĠZ en
ĠZ im
ĠZ ac
ĠZ od
ĠZ ulu
ĠZ appos
aw es
aw ak
Ġpr om
Ġtan tal
ĠIs aiah
ess ori
uc a
uc t
ĠSh uk
ĠSh aron
ĠSh ady
ĠSh uff
ĠSh riram
all am
all um
Ġ14 4
Ġ14 8
Ġ14 000
Ġ14 55
ĠCar acas
ge i
ĠVá» ¯ng
ĠVá» Ŀi
ff rey
ff ington
ĠEm din
ĠEm mart
att i
att fel
Ġprot ocol
ip us
KhÃ¡ ng
ĠCal i
ĠCal edonia
Ġ0 1
ers k
ĠAm b
ĠAm strong
ĠKen yon
Ġ17 4
Ġ17 00
ĠhÃ² i
ĠHar lan
ĠHar bor
ĠHar bis
ĠLan ce
ph y
ond a
Ġru pe
ĠHai fa
ach a
Ġi O
ĠCan tu
ark e
Hai ti
ain es
ain st
ain ier
ĠChi at
ĠChi huahua
gh ter
gh ese
gh erty
ĠSc ar
Ġ24 9
Ã¨m e
Kho Ã¡
Ph one
Ph thalate
ĠSan j
ĠSan to
ĠSan ko
ĠBra himi
st em
st en
st oy
st adter
ĠTw in
ĠTw ilight
ĠBa ja
Cá» ķ
Cá» Ŀ
og o
og ad
ĠMc E
ĠMc Doug
ĠCol e
ĠCol in
ĠCol bert
ĠCol eman
ĠCol eridge
ĠCol lier
Ġemail s
Ġtá»ĭ nh
ĠRob o
ĠÃļ i
ĠNhÃ ¢t
ath am
ath row
sh ak
Ġand ros
ĠMich al
ĠMich eal
ram er
ram aniam
ĠPh a
ĠPh elp
ĠPh yllis
ĠPh nom
ind ler
aul kner
ĠBer nie
ĠBer ken
Ġbu ff
ĠMon rov
iz er
iz ation
ric t
ĠPal me
hing s
ĠSp ir
ĠSp ace
ĠSp iel
ĠSp ivak
ĠLe hi
ling s
ling sworth
ĠBl an
ĠBl ake
Ġnan omet
Ġquá» ĭ
ĠRos in
ĠRos pil
ĠRos alind
ĠNig el
ĠTháº £
ĠTháº ©m
ĠTháº £m
ĠTháº ¡c
ĠBar ry
ĠBar row
ĠBar nett
ĠBar clay
ĠTim othy
ony mus
ĠPar i
ĠPar usharam
ĠKho an
To a
To ole
Ġvá»Ł n
ĠJo aqu
Ġsli des
Ġbá»į ng
ĠBe es
ĠBe ngal
ĠGre ensp
Ġj et
Ġj unk
ĠBang oora
ĠAb a
ĠEd mund
Ġváº¹ o
ĠMI N
ort al
ĠBen z
ĠBen artz
ĠBen oit
ĠBen jam
ĠSm its
ĠMá» ĺT
ĠFranc esca
ĠTEDx C
ĠTEDx Houston
ĠLá» ¥c
ĠWik ile
Ġcacbon ic
ast rich
ld us
ĠHá» ĩt
ĠHá» «m
ĠSch elling
ĠSch indler
ĠPhá» §
ĠCr ash
ĠCr unch
ĠCr ete
ĠCr istine
ĠMa hi
ĠMa ez
ĠMa ersk
ash in
ĠStev ens
ck er
ĠHe aly
ĠHe user
ĠHe isenberg
ĠHe athrow
ĠLu x
ĠLu is
ĠRe es
ĠRe Mot
ĠRe eve
rid os
pe ace
pe ii
ĠAngel o
ĠPhÃ ´
ĠPhÃ ¹
ĠÃĢ o
ft s
ation s
ĠOb aid
ĠOb iang
ĠNe uron
ĠOk ollo
ern an
Ġ23 2
Ġ23 00
old t
RI C
ott s
ott ir
ĠKh uyáº¿n
ĠKh atanga
end a
end ish
ĠAt ta
ĠAt ari
ĠPr in
ĠPr ess
ĠPr ada
ĠPr atham
Kh uynh
ĠPet e
ĠPet ri
ĠPet rus
ĠiPh ones
Nhá» ©ng
Phá» ¥c
Phá» ĳt
Ġrad a
lad ay
ĠÄĳáº½ o
Ġmen u
ĠxÃ© m
ĠMal in
ĠMal one
ĠMal lif
ĠNob le
ĠTrans form
ĠInd ian
cel ium
toc otylus
ĠJu illia
Ġal pha
ĠDi jon
ĠTor res
ink ra
ĠCam illa
ĠBig gie
uk h
iss us
ĠFre eland
ĠFre edom
May a
mp us
ota xites
Ġxá»ī a
Ġxá»ī u
len e
ĠAlex andria
ĠCop acab
ĠDan ce
bur y
ĠLeg os
ĠLeg acy
ĠGu inness
An ne
An na
An nie
Nháº £y
Nháº ¥n
Ġli u
ant o
ant es
ĠCl ar
ĠCl ose
ĠMan uel
ĠMan ila
ĠMan agua
ĠMad off
ĠMad onna
ĠGreen peace
vá» Ĺ
Ġ26 00
ĠSe ine
ĠSe uss
ĠSy stem
ĠLib esk
thá» īnh
ĠSw at
ĠSw aniker
ĠMont gom
ĠMont essori
Al lan
Al ison
Al fred
per idone
ĠTal mud
ĠTal war
ĠCo un
ĠMe ade
ĠMe hico
ĠAd a
ĠAd v
ĠAd en
ĠAd rian
ĠAd elaide
ĠAd inkra
ĠGal lo
ĠEn d
ĠEn i
ĠEn o
ĠEn t
Ġhydro carbon
Ġhydro cac
to Ãłn
ĠDá»± ng
Ġlá»į ng
Mar ia
ÃĤ u
enz ie
ĠWilliam son
ĠChrist ine
ĠChrist church
ect us
ĠBur stein
ĠKhá» ī
ĠKhá» Ľp
Ġ32 5
Ġ195 5
chá» ĭ
ger u
we iser
ĠMy sore
ĠMic ron
ĠMac y
ĠMac Kinn
ĠGo Get
ĠDá» ¥ng
Ġax on
Ġel ip
Ġlau ghing
ĠWar hol
ĠZe isel
con i
van te
ĠMay o
ĠWorld changing
ĠMah ler
ĠMah attan
ĠNan otyrann
ĠBu chan
Ġ33 1
Ġam ar
Ġam ip
Ġsc andal
ĠAp sara
ĠPer el
ĠPer asa
itch ik
ĠAs ton
ĠAs ner
ĠAs hanti
ĠAs troturf
ĠPl ains
ĠVir gina
ĠOly mpus
ĠPeter borough
ef er
ef lying
Ġnhá»Ļ ng
ĠShi l
ĠShi v
ĠSing er
ĠScot ch
BM A
ĠPat ricia
ĠUn der
ole on
ĠWolf e
ĠWolf gang
ĠBron t
John ny
se es
ĠMu te
ĠBol insky
ĠSouth am
Ġ31 1
Ãģ o
Ãģ p
ĠTur ner
ĠCap gras
ĠMor ieux
ĠMel ville
ĠMel cher
ĠHer cles
ĠHer mes
ĠHer itage
ĠAv al
ĠSi etas
ĠDe qo
ĠDe avere
Ġmar mite
ĠMil gram
ĠBal asub
ĠAir Pix
ĠSer gio
ĠFor te
ĠFor ce
ĠFor ever
ĠMos s
ĠMill ennium
ĠAri el
ĠSal man
ĠSal gado
ĠStreet vi
Sh armeen
Ġsp ec
ĠMat as
ĠMat rey
ĠMur doch
ĠPro ust
ĠPro ctor
Ġkil ogram
ĠTam met
ĠVal encia
din and
nie z
ĠDen ch
ĠDen nett
ĠFer ren
Ġelectron s
ui re
ĠMer chant
ĠMag ic
ĠMag rit
ĠBi ology
ĠSand ra
ĠKu hl
ĠLau der
ĠLau rence
ĠDon ne
ĠScott ish
Ar chie
ĠÂ £
ĠTay mor
ĠMiss mahl
ĠBob o
ĠBud dha
ĠBud weiser
ĠHan cz
ĠSk oll
ĠLou vre
ĠWi re
ĠWi Fi
ĠColumb us
cá» ¡
mo an
ĠRam on
ĠRam sey
ĠRam adan
ĠRand om
ĠRand all
St acy
St alin
gi Ã¢y
ĠCas e
ĠBot ero
ĠHu h
ĠKat y
rab owski
ĠHigh line
FG M
Ġmet hane
ĠMas ai
ĠMas ters
ĠNick len
ĠAg usta
ĠKal ash
ĠDou ble
ĠDou gherty
aze al
sc ap
sc ott
ĠTemp lar
ĠMi ra
ĠMi riam
ĠBir d
ĠPort o
ĠPort al
ĠJenn y
Ġ193 1
Ġ193 4
Ġ193 6
ĠCarl ton
ĠCarn ival
Rob in
ĠTer kel
ĠTer min
ĠKhan far
ĠDu nham
ĠWalk man
ĠEv a
ĠEv il
Ġacid s
MÃ´ t
Ġz ipcar
Ġz oom
ĠnhÃŃ u
ĠCity Walk
ĠMT A
ĠHav en
ĠShe a
ĠShe ikh
ĠJay ant
ĠEx cel
ĠEx press
rib e
Ġxá»ķ m
Ġeur os
bor o
ĠÄĳá»± oc
Ġhor mon
ĠCamp aig
ĠMau r
ĠMau rit
ĠMau reen
ĠNet scape
ĠKam insky
ĠLaw ler
ĠVi etnam
ĠMcC une
ĠMcC allum
99 9
shi rt
tt ar
Ġpoly me
ĠBel oit
ĠBas in
ĠBas il
ĠBas it
ĠHad rian
ĠHad field
ĠPol lan
ĠPol ice
ĠRobot s
ĠRobot ics
ĠRog ers
ĠBrit ney
ĠHawk es
graphic al
Ben oit
Jos h
oz i
Ġgel atin
ĠCor bus
ĠCor ps
ĠHol laday
ĠSol er
ĠSad ik
ĠSuper man
ĠSuper ior
ĠKr ill
ĠLuc a
ĠLuc as
ĠRoy ce
Ġox alat
Ġfor mat
vis or
zz z
zz ar
ĠÄĳÃª nh
ĠSá» ©
ĠKháº ©n
ĠGar rett
ĠGar niez
ĠGro u
ĠRad i
ĠRad jou
Ġ190 3
ĠInter aXon
ĠXu áº¥t
ĠArt s
br ook
br ugger
Ġnháº½ o
ĠMus ic
ĠMus allam
ĠDick ens
ring ton
ĠUr b
ĠLouis e
Tim es
cal fe
iro xic
tháº §n
ĠMet calfe
ĠAsh burn
ĠDav os
ĠWill is
ĠOn tar
ĠMcG rew
ĠFried rich
Fran cis
SE F
ww w
ĠTy p
ĠTy rann
ĠCP U
ĠCur ios
ĠMoh r
ĠAur asma
ĠKib aki
ĠGan esha
ĠviÃª t
ĠRa fi
ĠRod ney
ĠRod rig
ĠRod rigo
app iness
act al
Ju li
Ken ya
ĠTi rana
ĠPap andreo
ĠLim or
ĠGl attfel
ĠVol kman
ĠFr om
ĠEc cles
rig ade
ĠCarr el
ĠCarr oll
ĠWilliams burg
Am azon
ĠGiÃª su
ĠGol ub
ĠIx raen
Ġ53 9
ĠWh at
ĠJuli Ã¡n
Ġar ch
Ġar gh
Ġtru áº¥t
ĠTu pper
ĠTu fts
ĠNov a
ĠNov ak
ĠLas caux
ĠFed eli
ĠChen ey
ĠStein er
ĠStein berg
ĠStein dl
ipp ing
cam ole
hr u
uch a
uch adne
ĠNi etz
ĠBow den
erm ore
ĠDor is
ĠDur kheim
ĠWood y
ĠEng lish
Chu áº©n
eyn ote
ĠAll ison
ĠSher een
ĠBeau fort
ĠBeau voir
AT O
Be R
aa aa
kh iáº¿n
uh ahaha
Ġlá»Ł n
Ġmeg a
ĠTar get
ĠMir ren
ĠNI CE
ĠBach a
ĠHaz lewood
ĠSa atchi
ĠSel inger
ĠWy att
ĠInst it
aby tes
ĠPhillip ines
ĠEconom ics
At aturk
Fre ud
Is abel
bus ters
hy de
ĠcÃ² m
ĠMeg aff
ĠMull is
his ky
ĠNin ja
ĠBre azeal
ĠKid d
ĠGe ary
ĠReg gie
ĠRachel le
ĠVel Ã¡zquez
ĠWol ff
ĠWol pert
ĠMichel angel
ĠDenisov ans
Ad rian
Sang u
TT T
ĠCod y
ĠHunt s
ĠHunt ington
ĠSar awak
ĠPia r
ĠLes otho
ĠLyn n
ĠLyn ch
ĠGer aldine
ĠDeb ora
ĠRem brandt
ĠFul la
ĠChin oy
ĠChin anet
Äĳá» ķi
ĠMax well
Ġmicr omet
ĠDiam andis
ĠBurn tis
Ġneu trino
ĠPyth ago
Sal ly
Sal man
bi ot
Ġcl athrin
Ġmy BO
Ġmy celium
ĠBeth lehem
ĠAth ens
ĠAut om
ĠSaf die
ĠGall ery
ĠDay ton
ove itchik
ĠMichoac ana
ĠWater house
ĠWater gate
Br uno
nis one
ru vian
Ġgr adi
Ġhead s
ĠCL IM
ĠMai son
ĠMun iz
ĠHem ingway
ĠHob son
ĠHob bes
ĠSo Ã¡t
ĠShan non
ĠGram my
ĠDig iNotar
ĠDod son
ashi mi
ĠFi eld
Ġup date
ĠGeoff rey
ĠMount ain
ĠMount ains
ĠBitco ins
Angel o
Angel ine
Es ther
Gab riel
LM CLU
Ġer go
Ġer ectus
ĠCart aya
ĠMul gan
ĠMod el
ĠNap oleon
ĠHS BC
ĠHeb ron
ĠHart man
ĠKw abena
ĠKan wisher
ĠKris hnan
Trá» ¥c
ĠRah m
elop ing
Ngá» ¥
ĠVib rio
ĠFull bright
ĠOm ega
ĠChev y
ĠXc ot
Ġje ep
ĠMaas ais
ĠKhal il
ĠKhal ida
ĠAhmad inejad
Carl ton
Hom aro
Hom eopathy
II I
Mah moud
You Tube
ĠTe am
ĠTho áº£
ĠCH AT
ĠMack enzie
ĠBau mg
ĠBut ler
ĠBlog gs
ĠBeck str
ĠHell um
ĠHers chel
amer ica
ĠAgar wal
ĠSl utkin
ĠKil iman
ĠKil lingsworth
ĠDamas cus
ĠRev iew
ĠVill age
ĠFI LMCLU
ĠEis ner
ĠEis enhower
ĠOut look
ĠUSA ID
ĠZach arias
ĠShin ola
ĠCanal etto
ĠParik ma
ĠWash burn
ĠHá»Ĺ n
Khal il
ĠESP N
Ġsunf ua
ĠEcua dor
86 2
Hu áº¥n
Mik o
Pal estine
Sm ith
Tam ara
Tal iban
hem oglobin
lass ian
thÃ¡ ch
ugh s
worth y
Ġol ive
Ġchy á»ĩn
ĠTak aungu
aik um
ĠCav endish
ĠMw angi
ĠMw enda
ĠMug abe
ĠNH ÃĤN
ĠBj orn
ĠBri gh
ĠBess er
ĠHab ibi
ĠAqu arius
ĠSav annah
ĠSok ol
ĠSok oto
ĠKaf ka
ĠLiv ermore
Ġá»Ĳ i
ĠTrib une
ĠTrib eca
ĠDut ton
ĠRic ard
ĠRic ardo
ĠVish na
ĠVish nu
ĠWond er
ĠWond erbread
ĠFire fox
ĠHog wart
ĠXo áº¯n
ĠConst ituc
ĠTahi ti
ĠTEDxS ydney
ĠSuz anne
ĠValent i
ĠHugh es
ĠNicol aus
ĠNicol elis
03 4
Dam on
Nan cy
Pau la
Rá» §i
Sun ni
fl on
kháº £
lá» £i
nhÃ ¬n
nee zy
wo ai
ĠÍ Ģ
Ġuá» ķng
Ġsap ien
Ġread ing
ĠTake i
ĠCour t
ĠNit Æ¡
ĠNeb uchadne
ĠNatur al
ĠBoot he
ĠHex anol
ĠHorn er
ĠHij az
ĠAx is
ĠAra vena
ĠSatur day
Ġyao urt
ĠPall otta
ĠPatt en
ĠKun st
ĠKick starter
ĠLÃ© lia
ĠLet ters
Ġá»¦ ng
ĠGart en
ĠDE PTHX
ĠDiff ee
ĠRol ling
ĠRus hing
ĠRup ert
ĠVit ruvian
ĠJak arta
ĠWid ow
ĠFE ED
ĠFam illia
ĠFrid a
ĠFlint stone
ĠEco Rock
ĠEst elle
hou ette
ĠOt to
ĠOff ice
ĠChes ape
rod inger
ĠSte el
ĠUzbek istan
ĠGib bon
ĠGirl s
Ġfus iform
ĠShap shak
ĠCarib Ãª
Ġ178 7
ĠDool ittle
Ġjump ing
ĠAbb ey
ĠSmart Bird
ĠTEDxR ainier
ĠLaf ayette
ĠScha efer
ĠReich ental
ĠAdria tic
Ġ466 64
ĠWhites ides
Ġasp irin
Ay elet
Bh utan
Band ura
Ev elyn
Ely sees
He ather
Hel en
Hunt ington
Je hane
Jess ica
Mas ters
Mitch ell
Pin ney
Pad dy
Rup al
Soph al
Ġacc ordion
Ġnach o
Ġlimb ic
Ġbio gas
Ġster eo
Ġsky diving
Ġglu on
Ġris peridone
Ġpan Ã´
Ġpaj ama
ĠTap scott
ĠTik al
ĠTink ering
ĠCB GB
ĠCay man
ĠNer ve
ĠNiel sen
ĠBA SE
ĠBald win
ĠBami yan
ĠHumb oldt
ĠSap ling
ĠSack s
ĠSuss man
ĠSole il
ĠSlav in
Ġyá»ĥ u
Ġphot ocopy
ĠPL ATO
ĠPra agh
ĠPow ell
ĠPla za
ĠPog ue
ĠKH ÃĶ
ĠKip ling
ĠKimb o
ĠLol ita
ĠLep age
ĠLion el
ĠLith uania
ĠLoy ola
ĠDec lan
ĠDion ysus
ĠDass en
ĠRot ich
ĠRest repo
ĠRust ichini
ele ine
ĠIC U
itect ure
ĠWa al
ĠEgg ers
lej andro
Ġtur bine
ĠOth ello
ĠOct avio
Ġwas ichu
ĠStux net
ĠUd aipur
ĠGiud ice
Ġoun ce
Taj fel
ĠArc ade
ĠArdu ino
ĠIss ac
ograp hy
ĠMcFad den
ĠMouss ao
ĠSmol in
ĠHeer den
ĠHeff ernan
Ġstarsh ade
ĠPromet heus
ĠMadh av
ĠCyAr k
Sher een
ĠKnop f
ĠTelecom ix
ĠKrug er
ĠResour ces
ĠSnoop y
ĠSchwar zch
ĠNarc issus
ĠCrock ett
Ġsulf ate
ĠHodg man
ĠWashin ton
ĠFires tein
Ġcarbohyd rate
ĠPleist ocene
ĠProvid encia
ĠProduction s
ĠKrypton ite
ĠTurkmen istan
Ġformalde hyde
Ap ollo
Apar na
Bl aise
Baptist e
Cy rus
Clau de
Dis ney
Jer emy
Joh anna
Kath ryn
Nat alie
Ob ama
Pran av
Sin ai
Tur bo
Wa fi
Wat son
surf ing
ĠÆ°á»Ľ m
Ġapt amer
ĠÆ¯ Æ¡ng
Ġtit anium
Ġlexico graphical
Ġmou flon
Ġshe kel
Ġgua camole
Ġglobal oney
ĠrÃŃ u
ĠrÆ°á»Ŀ m
Ġpred nisone
Ġprof ile
Ġnhuá»ĳ m
Ġtaig a
Ġxuá» ĥ
ĠnghiÃª p
ĠTung uska
ĠTamp a
ĠTumb lr
ĠTari q
ĠTicket master
Ġhock ey
ĠCud dy
ĠCuk ier
ĠCerv antes
ĠMID I
ĠNul and
ĠNesh at
ĠNeop rene
ĠNiag ara
ĠNtai ya
ĠBander as
ĠBue chley
ĠBuk avu
ĠBavel ier
ĠHert z
ĠHond uras
ĠHier onymus
ĠHobs baw
ĠHTM L
ĠAuen brugger
ĠSab ia
ĠSoy uz
ĠSash a
ĠSlau ghter
ĠSTri DER
Ġdoub le
ĠPis ani
ĠPom peii
ĠPick les
ĠPenz ias
ĠPomp idou
ĠPange a
ĠKad insky
ĠLup ashin
ĠLoft us
ĠGop nik
ĠGev inson
ĠGeg enschatz
ĠDist rict
ĠDyl an
ĠDami en
ĠDors et
ĠDesk bar
ĠRami rez
ĠRitch ie
ĠRassel as
ĠJag ger
ĠWern ick
ĠWMA P
ĠWoz nia
ĠWehr li
ĠFink le
ĠFlyn n
ĠFotok ite
ĠEig en
ĠEag les
ĠEther idge
ĠEps ilon
ĠOed ipus
ĠChlad ni
ĠChlam ydia
ĠYitz hak
liku ppam
unach alam
ĠNewfound land
Ġwarf arin
Ġinsideo utproject
ĠIncep tion
ĠSteff en
Ġgenitali um
ĠAlav eteli
ĠGiov anni
Ġflup sy
ĠArush a
ĠZod iac
Ġtantal um
ĠHarbis son
ĠSanko fa
ĠMcDoug all
Ġandros ten
ĠPhelp s
ĠMonrov ia
ĠSpiel berg
ĠBarclay s
ĠJoaqu in
ĠGreensp an
ĠBenartz i
ĠBenjam ÃŃn
astrich t
ĠMaez za
ĠReMot ion
ĠOkollo h
ĠMallif ert
ĠTransform ers
ĠJuillia rd
ĠCopacab ana
ĠLibesk ind
ĠMontgom ery
Ġhydrocac bon
ĠMacKinn on
ĠNanotyrann us
ĠBuchan an
ĠBalasub ramaniam
ĠStreetvi ew
ĠMatrey ek
ĠMagrit te
ĠHancz yc
ĠTermin ator
ĠCampaig n
ĠCorbus ier
iroxic am
ĠOntar io
ĠRodrig uez
ĠPapandreo u
ĠGlattfel der
ĠTupper ware
ĠNietz sche
ĠMegaff ic
ĠMichelangel o
ĠBurntis land
ĠCLIM BeR
ĠBeckstr om
ĠKiliman jaro
ĠFILMCLU B
ĠConstituc iÃ³n
ĠNebuchadne zzar
ĠSchwarzch ild
. --
0 1
0 9
0 41
1 000
1 30
2 6
2 000
2 30
2 12
2 45
3 4
3 000
3 80
4 3
4 4
6 12
7 4
7 9
7 60
8 1
8 75
8 37
A J
A X
A s
A z
A ch
A th
A imee
A vi
A wl
A ugust
A gli
A SDF
B L
B P
B o
B Æ¡
B Ã²
B uá»Ļc
B ia
B el
B áºŃt
B ol
B ur
B ri
B áº¯p
B ab
B est
B art
B ell
B log
B oy
B erry
B á»įng
B rah
B aba
B rene
B undi
B ecky
C l
C á»Ļt
C Æ°á»Ŀng
C ung
C hÃºt
C or
C áº¥p
C áº©n
C os
C áº§m
C ua
C Ã¡t
C ac
C ur
C áº¡nh
C Æ°á»¡ng
C á»ĳng
C up
C lar
C á»±u
C och
C lint
D B
D W
D r
D ong
D iá»ģu
D ai
D em
D Ã¡n
D en
D áº«n
D áºŃy
D ig
D op
D ick
D aw
D ust
D ale
D EC
D RA
D áº¡y
D opa
D anny
D urga
D unn
D usty
E Z
E t
E li
E man
E NA
E din
E XL
E va
E gan
E liot
E ngels
F B
F C
F E
F r
F er
F old
F AR
F oot
F ior
F abian
F eynman
G e
G o
G Ã´
G an
G ay
G er
G en
G Ã¡nh
G ir
G Æ°á»£m
G eron
G rip
H K
H ung
H en
H uyá»ģn
H uyáº¿t
H it
H Ã¨
H Ã¡t
H áº£i
H Ãłm
H Ãºt
H áº¡ng
H ir
H á»«
H urt
H erman
H esta
H ae
I an
I we
I nes
I TA
I UC
J L
J R
J T
J W
J ai
J am
J ill
J ans
J ones
J azz
J amie
J ody
J anine
J insop
K y
K ÃŃ
K ar
K hÃºc
K ak
K ib
K art
K ris
K Ã¬a
K rist
K ant
K erry
K elly
K eith
K oko
K epler
K ofi
K ismet
L C
L L
L o
L áº¡
L ong
L Ã´ng
L em
L uyá»ĩn
L Ã£o
L áº§m
L áº¡c
L il
L and
L áº¡nh
L ist
L ord
L áº·n
L aw
L Ã£ng
L og
L ind
L aptop
L isa
L iberia
L incoln
L OL
L eon
L othar
L EGO
L esley
M i
M u
M y
M Ã¹
M iáº¿n
M Ãłng
M Æ°a
M áº£ng
M iÃªu
M iá»ģn
M os
M á»Ļi
M ac
M and
M ob
M áº¡ch
M Ã¡nh
M ard
M oh
M ir
M az
M all
M ass
M olly
M arketing
M BI
M eng
M aster
M mmm
M iguel
N F
N P
N s
N ay
N iáº¿t
N áº¿n
N uá»ĳi
N et
N ap
N uá»ĳt
N á»ĵng
N ow
N ina
N ate
N ath
N ora
N aj
N ICEF
N uggets
N alini
N adia
O M
O N
O li
O la
O ne
P C
P l
P ao
P ia
P hÃºc
P háº¿
P op
P ak
P av
P ack
P he
P enn
P ear
P OL
P ette
P IPA
P ilot
P roject
P FL
P imp
P roc
P amela
P olymer
P ragmatic
P rize
R S
R T
R u
R Ã´
R anh
R am
R Äĥng
R os
R ap
R áº¡p
R uss
R ez
R onald
R Ã¬u
R AM
R Ã¢t
R CA
R ita
R iley
R umi
R OV
R ides
R alph
S G
S L
S P
S T
S k
S Äĥn
S iÃªu
S Ãºp
S áº£i
S and
S eb
S áº¿p
S á»ĳt
S ky
S EA
S ocrates
S vante
T C
T J
T R
T w
T on
T Ãłn
T áº£ng
T ar
T or
T áº¯c
T uyáº¿t
T áº£i
T hÃºc
T oi
T Ä©nh
T op
T á»ĵn
T ER
T adema
T ÃŃn
T ipping
U V
U r
U eli
U sain
U NICEF
V a
V áº£
V áºŃ
V Ã¢n
V it
V Ã¡ch
V ent
V ille
V idep
W h
W ang
W al
W es
W as
W oo
W ard
W ind
W ood
W ingsuit
W adah
W orld
X o
X anh
X Æ°á»Łng
Y R
Y o
Y ang
Y os
Y ann
Y ami
Y our
Y emen
Z F
Z ipcar
Z urich
Z hou
Z appos
Z iy
b l
b á»Ļ
b á»ĳ
b áº¥t
b ay
b Ãłi
b en
b os
b il
b re
b han
b ent
b ein
b les
b oy
b á»©c
b ush
b rey
b stone
b ubi
b ecue
c hÃº
c uá»ĳn
c á»Łi
c á»Ļng
c Ã¡m
c ard
c ine
c oc
c á»ĳt
c io
c art
c are
c ott
c ini
c tron
c zan
d ong
d á»±
d Ä©
d Æ°Æ¡ng
d Ã¢n
d el
d ah
d ard
d ine
d ev
d io
d ike
d ok
d á»¯
d erts
d ottir
e qu
e it
e ins
e imer
e ive
e ira
e aux
f Ãª
f an
f at
f is
f it
f ran
f ed
f und
f ana
f ish
f low
f ali
f ace
f enberg
f izer
g ia
g it
g eb
g á»Ńi
g re
g han
g ian
g ami
g aa
g reen
g ital
g olia
g oire
h iá»ĩn
h ab
h az
h one
h ael
h win
h end
h ahn
i P
i em
i ent
i Phone
j ar
j ac
j id
j ack
j ens
j ali
j ust
j ave
j ima
k n
k hÃ
k Ãª
k Ã´ng
k er
k as
k us
k ro
k ing
k ard
k ÃŃnh
k ian
k ami
k iss
k ali
k hoa
k aya
l ÃŃ
l on
l Ã²
l Ã½
l áº¥y
l iá»ĩu
l Ã©
l Ã²ng
l áºŃt
l ton
l la
l est
l á»Ŀi
l ler
l itt
l ison
l use
l acking
l boro
m Ãª
m Æ¡
m á»Ł
m uá»ĳn
m om
m ie
m ut
m ert
m uss
m ura
m alay
m eyer
m aid
m aker
m illar
n ay
n ar
n Ãło
n or
n at
n ter
n us
n áº±m
n uÃ´i
n ag
n oc
n Ã©n
n elly
n off
o an
o ia
o or
o Tr
o que
o jan
o uni
p a
p r
p Æ¡
p Ã¡c
p el
p as
p hÃ¡
p ran
p ed
p han
p ie
p ian
p ins
p ers
p ola
p hia
p se
p hic
p ool
q i
q s
q born
r n
r ng
r au
r Ã©
r al
r ol
r and
r eb
r ine
r obot
r one
r Æ°á»£u
r ain
r up
r ester
r ation
r eth
r oll
r aska
r ump
r gy
s an
s ay
s ang
s Ã¢u
s er
s al
s á»ĳng
s ing
s han
s um
s man
s ell
s end
s á»©c
s burg
s ote
s quare
s head
s iks
s feld
s lacking
t áº¿
t á»±
t Ã¡c
t Ã¢n
t Äĥng
t hÃ´ng
t om
t ing
t if
t amb
t ropy
t á»·
t able
t enstein
t Ãªin
t ml
u o
u li
u th
u um
u ins
u eg
u era
u pp
u ve
u ja
u hm
u ego
u ono
u Dunn
v Ã¡n
v el
v áºŃn
v ad
v ig
v ul
v ion
v all
v ara
v ary
v aid
v aro
w hi
w ak
w all
w alk
w ani
w oman
w oma
w auk
x Ã¢y
x Æ°Æ¡ng
x Ã¡c
x eo
x et
x Ã¡m
x tr
x ÃŃt
x min
x cov
y k
y s
y ch
y Ãªu
y es
y th
z em
z ia
z im
z el
z ol
z ent
z man
z ina
z berg
z ari
z iger
z hen
¥ Ã¢t
§ ois
® n
± t
· t
¹ Ī
Ã «
Ã ĥ
Ã ī
Ã į
Ã ļ
Ã §ois
Ä Ĥ
Ä ĩ
à ¹Ī
Ġ {
Ġ Æ°á»
Ġ hÃºng
Ġ Ã¢
Ġ áº¥t
Ġ áº¿u
Ġ áºŃy
Ġ Ã³ng
Ġ ob
Ġ eb
Ġ áº¡ch
Ġ id
Ġ ag
Ġ oc
Ġ ich
Ġ if
Ġ ec
Ġ á»ĳn
Ġ amb
Ġ und
Ġ Ã³i
Ġ oop
Ġ Ã²m
Ġ à¹Ī
Ĥ N
ĥ u
Ĩ N
Ĭ nh
Į C
ĺ C
ĺ ng
Ļ i
Ľ c
Ń c
á» ©
á» µ
á» Ĳ
á» ©ng
á» ģn
á» ĥn
á» §i
á» ĺng
áº ¾ch
Ġt áº¥
Ġt áº¡n
Ġt uyá»ĩn
Ġt iá»ĥn
Ġt Ã²ng
Ġt el
Ġt áº¡nh
Ġt ed
Ġt áº¥c
Ġt ick
Ġt Ã©p
Ġt Ã³i
Ġt Æ°Æ¡m
Ġt echn
Ġt ext
Ġt Ã³p
Ġt Ã¢p
ng á»ĵi
ng há»ĩ
ng oáº¡i
ng atou
Ġc Ã£
Ġc áº§
Ġc Ãµ
Ġc áº¡p
Ġc Ãłu
Ġc um
Ġc la
Ġc tÃ´i
Ġc orn
Ġc ola
Ġc lor
Ġc ome
Ġc so
Ġc oli
Ġc over
ĠÄĳ Ã¢
ĠÄĳ ao
ĠÄĳ Ã¡c
ĠÄĳ Æ¡i
ĠÄĳ Æ°ng
ĠÄĳ Ãły
ĠÄĳ áºŃn
ĠÄĳ iáº¿ng
ĠÄĳ Ã¬á»ģu
Ġn m
Ġn á»Ļt
Ġn Æ°á»Ŀi
Ġn iáº¿t
Ġn áº¿t
Ġn iá»ĩu
Ġn iá»ĥm
Ġn iáº¿m
Ġn áº©y
Ġn ow
Ġn ein
Ġn oir
Ġn uggets
Ġn tn
Ġn áº«ng
Ġn kali
hÃ ª
hÃ ¬nh
Ġv Æ°
Ġv iá»ĩ
Ġv áº¥y
Ġv áº«
Ġv áº¡ng
Ġv Ã¡nh
Ġv Ã©c
Ġl Ã¹
Ġl Ã´n
Ġl áº£o
Ġl á»įn
Ġl áº©y
Ġl ed
Ġl ing
Ġl Ã¡o
Ġl ine
Ġl á»ĳt
Ġl ich
Ġl áº©u
Ġl ip
Ġl ive
Ġl iÃªt
Ġl iger
Ġl unch
Ġl áºµng
Ġl Ãµng
Ġl Äĥp
Ġm c
Ġm Æ¡n
Ġm iá»ĩn
Ġm eo
Ġm áºŃn
Ġm uá»ĵn
Ġm as
Ġm ac
Ġm ÃŃnh
Ġm eet
Ġm Ã¨m
Ġm ath
Ġm ani
Ġm edia
Ġm Ã¢t
Ġm á»įng
Ġm unk
Ġm oney
Ġm ental
Ġm illion
Ġb áº£
Ġb eo
Ġb áº·t
Ġb Ã²n
Ġb áº¥n
Ġb Äĥm
Ġb áº£i
Ġb and
Ġb áº¡nh
Ġb ÃŃch
Ġb um
Ġb ul
Ġb oog
Ġb urg
Ġb áº±n
Ġb Æ°á»Łi
Ġb ale
Ġb Ã¬u
Ġb Ã¢t
Ġb rrrr
Ġb attery
Ġb rigade
Ġk n
Ġk Ãł
Ġk hÃº
Ġk iáº¿t
Ġk iá»ĩu
Ġk ich
Ġk ath
Ġk ali
Ġk iá»ģng
Ġk ines
Ġk yu
Ġk eves
Ġk rump
Ã´ zÆ¡
nh o
nh ung
nh iá»ĩm
nh iá»ĩt
nh yd
nh eim
nh eit
Ġs ch
Ġs hi
Ġs Ã©
Ġs Ã²ng
Ġs áº¡p
Ġs it
Ġs ton
Ġs Ãºa
Ġs Ã¹i
Ġs ite
Ġs ham
Ġs pe
Ġs ari
Ġs uá»µt
Ġs wing
Ġtr g
Ġtr Ã´
Ġtr á»ĳ
Ġtr á»ĵ
Ġtr áº¥u
Ġtr uyá»ĥn
Ġtr Å©
Ġtr Ã³c
Ġtr Ã£i
Ġtr Ã¡o
Ġtr ack
Ġtr áº±n
Ġtr Æ°Æ¡c
Ġtr áº¹o
Ġng á»į
Ġng iÃªn
Ġng Ä©
Ġng Æ°á»Ŀ
Ġng Æ°Æ¡
Ġng Ã¡i
Ġng iá»ĩm
Ġng áºŃy
Ġng Æ°á»Ľi
Ġng Æ°u
Ġng áº£i
Ġng áº¡nh
Ġng Ä©a
Ġng Ã¨o
Ġng Ã³i
Ġng á»Ļp
Ġng Ã²m
Ġg Ã´
Ġg Ã¡
Ġg ot
Ġg ang
Ġg á»į
Ġg au
Ġg á»Ļc
Ġg áº«n
Ġg áº£y
Ġg áº£i
Ġg áº·ng
Ġg ÃŃch
Ġg ran
Ġg áº¯p
Ġg um
Ġg áº³ng
Ġg uá»¹
Ġg ood
Ġg rap
Ġg á»įng
Ġg reat
Ġg ÃŃa
Ġg Ã©m
Ġh Äĥn
Ġh iÃªu
Ġh is
Ġh as
Ġh Æ°á»¡ng
Ġh ig
Ġh ex
Ġh ash
Ġh iá»ħu
Ġh eter
Ġh tml
Ġthá» ĵ
Ġthá» ıi
Ġthá» Łi
Ġr áº¡
Ġr Æ°á»£
Ġr á»Ł
Ġr iáº¿t
Ġr áº¿u
Ġr Ãły
Ġr áº·t
Ġr Ãºc
Ġr áº£o
Ġr Ãºng
Ġr el
Ġr Ã³c
Ġr us
Ġr and
Ġr á»ĳng
Ġr ed
Ġr ich
Ġr áº³ng
Ġr á»Ļp
Ġr Ãºm
Ġr over
Ġr ewilding
Ãª te
Ġp hÃºng
Ġp os
Ġp ap
Ġp le
Ġp ist
Ġp sh
Ġp ix
Ġp ower
Ġp ants
Ġp atin
Ġp eople
Ġp uchu
Ġp iroxicam
Ġd Ã´
Ġd á»Ļ
Ġd Ã´ng
Ġd á»į
Ġd áº±ng
Ġd Æ°á»Ľc
Ġd uá»
Ġd am
Ġd iÃªu
Ġd áº¥p
Ġd at
Ġd iáº¿m
Ġd áº¥m
Ġd ad
Ġd eb
Ġd un
Ġd yn
Ġd á»įng
Ġd act
Ġd isco
Ġd Ãµng
Ġd ance
ĠÄĳá» ¯ng
ĠÄĳá» ħn
Ġnh em
Ġnh Äĥng
Ġnh iá»ħn
Ġnh Äĥm
Ġnh iáº¿u
Ġnh iÃªm
Ġnh iáº¿c
Ġnh iÃªt
qu ay
qu ÃŃ
qu á»ĳc
qu es
qu ire
Ġcá» ¯
Ġcá» ±a
Ġvá» ħ
Ġvá» ĳi
ĠcÃ³ p
ĠkhÃ ªu
Ġch Æ°
Ġch Æ°á»£c
Ġch an
Ġch eo
Ġch uá»
Ġch iá»ģn
Ġch Ãłm
Ġch uyá»ħn
Ġch itra
Ġth Ãłi
Ġth iáº¿n
Ġth uyá»ĥn
Ġth at
Ġth ey
Ġnhá» ©
Ġnhá» ¥i
Ġnhá» ģu
iá»ĩ nh
Ġhá» ±c
Ġhá» ¯a
Ġtháº ¯m
Ġtháº «m
Ġcá»§a T
Ġtá» ³
Ġtá» ıi
Ġtá» ıng
Ġta b
Ġta ke
Ġta pi
Ġqu áº¿t
Ġqu eo
Ġqu áº·t
Ġqu áº«n
Ġqu Äĥn
Ġqu áº¡c
Ġqu Ã¨
Ġqu áº¯p
Ġqu áº·n
Ġqu iz
Ġqu Ã´c
Ġqu áº¹t
Ġqu inin
áº§ t
Ġgi n
Ġgi áºŃp
Ġgi Ã³ng
Ġgi Ã²i
Ġgi ve
Ġx uy
Ġx ang
Ġx Ãº
Ġx iÃªu
Ġx il
Ġx Ãºi
Ġx yan
Ġx Ãºm
Ġx áº¹o
Ġx teo
Ġx á»ĵm
ĠngÆ°á»Ŀi i
Ġkh Ãł
Ġkh ac
Ġkh aki
uy u
Ġchá» ģ
Ġchá» ĥ
Ġchá» ¥t
Ġchá» ±ng
Ġchá» ım
Äĥ c
ĠthÃ ³t
ĠthÃ µng
ot n
ot hi
ot er
ot am
Ġpháº ©n
Ġpháº «m
Ġngh uá»
Ġngh uyÃªn
an b
an es
an son
an te
an ian
an ti
an ity
an uk
ay loh
Ġra i
Ġra á»Ł
Ġra Äĳi
Ġsáº ©n
Ġsá»± u
Ġgiá» ĳi
Ġgiá» Łi
Ġgiá» Ļp
Ġgiá» ±t
ch ong
ch Æ°a
ch os
ch et
ch est
ch era
ch ison
ch field
ch Up
ch kiss
Ġnháº £n
Ġnháº ¯t
ang er
ĠÄĳá»ĥ m
ÃŃ k
Ġbá» ķi
Ġbá» ĩt
Ġtháº¿ t
ĠT S
ĠT T
ĠT W
ĠT ong
ĠT ot
ĠT áº§n
ĠT Æ°á»Ľc
ĠT áº¯t
ĠT áº£ng
ĠT Äĥng
ĠT áº¯m
ĠT ac
ĠT hÃºc
ĠT ig
ĠT ou
ĠT um
ĠT Ã³m
ĠT een
ĠT ez
ĠT enz
ĠT se
ĠT oto
ĠT ÃĶi
ĠT ierra
ĠT ipp
ĠT uá»ĩ
ĠT oni
ĠT avi
ĠT ipper
ĠT hings
ĠT zem
Ġlá» ³
Ġlá» ¹
Ġlá» ©c
Ġlá» £p
Ġlá» ¥ng
Ġlá» ĭm
Ġlá» ¥Ã¢t
Ġho st
Ġho Äĥc
on ian
on ex
on nes
on jo
on sin
on elli
on ment
anh ol
inh o
ao ke
Ġdá» £
Ġdá» ĵ
Ġdá» Ńng
Ġcháº »
Ġcháº ©m
Ġcháº µng
Ġcháº §u
ĠchÃ ªm
ĠchÃ ¢t
ĠchÃ ´m
ĠhÃ ½
ĠhÃ Ń
ĠhÃ ³ng
ĠhÃ Ńp
ĠhÃ Ńch
ĠnhÃ ´ng
ĠnhÃ ¢m
ÄĲ Ã¡
ÄĲ Ãłnh
ÄĲ áº»
ÄĲ am
ÄĲ á»ĵi
ÄĲ áº£o
ÄĲ áº©y
ÄĲ ÃŃch
ÄĲ Ã¨n
Ġmá» µ
Ġmá» ĵng
Ġmá» ĵn
au g
au m
au er
au ri
au do
in m
in x
in em
in al
in ist
in ov
in iz
in ux
in idad
in audo
Ġná» ĭ
Ġná» ¯ng
ĠC Æ°ng
ĠC áº¥u
ĠC á»ĳc
ĠC áºŃn
ĠC ic
ĠC and
ĠC ÃĶng
ĠC Æ°á»¡ng
ĠC ah
ĠC Ã¡o
ĠC ell
ĠC ov
ĠC Ã¡p
ĠC ler
ĠC Æ°á»Ľp
ĠC inc
ĠC illi
ĠC ier
ĠC oop
ĠC rane
ĠC ats
ĠC CT
ĠC RP
ĠC raw
ĠC uster
ĠC siks
Ġháº ³ng
Ġháº «ng
Ġháº µn
Ġsá» ¥a
ĠchÃŃ ng
Ġphá» ¥t
Ġphá» ĭch
Nh iÃªn
ĠnhÃł u
Ġto Ã©
Ġto Ã¡ng
Ġto rr
Ġto rt
Ġto qborn
Ġto rng
ĠM Ã¡c
ĠM Ãłng
ĠM áºŃp
ĠM áº¡c
ĠM á»Ļi
ĠM ol
ĠM áº«u
ĠM áº¡nh
ĠM ine
ĠM ex
ĠM Ã¹i
ĠM ath
ĠM ood
ĠM Å©i
ĠM end
ĠM azz
ĠM itt
ĠM ust
ĠM Æ¯
ĠM ile
ĠM CA
ĠM obs
ĠM out
ĠM Hz
ĠM ET
ĠM unger
ĠM ooc
ĠM other
ĠM eeker
ĠM ENA
ĠM bubi
Ġkho m
Ġkho ong
Ġkho Ãłng
eo l
eo xy
eo sote
em ar
em is
em ore
em ann
em und
em berg
em inist
hi r
hi z
hi ra
hi st
Ġtrá» ĭch
Ġtrá» ©Æ¡c
Ġká» ģm
ĠN s
ĠN u
ĠN áº¡n
ĠN ay
ĠN inh
ĠN ur
ĠN áº·ng
ĠN Ãºt
ĠN ag
ĠN ine
ĠN um
ĠN á»ĳt
ĠN ex
ĠN aw
ĠN ess
ĠN ip
ĠN ail
ĠN ass
ĠN eda
ĠN yan
ĠN ies
ĠN ij
ĠN ato
ĠN ava
ĠN SF
ĠN esca
ĠN olan
ĠN FB
Ġtá»ĳ p
ĠB V
ĠB Ã¡
ĠB iÃªn
ĠB Ã¹ng
ĠB áº¡o
ĠB Æ¡i
ĠB uá»Ļc
ĠB Ãºng
ĠB Ã£o
ĠB im
ĠB es
ĠB ic
ĠB ad
ĠB Ãºt
ĠB id
ĠB Ã£i
ĠB ing
ĠB áºŃc
ĠB ip
ĠB ee
ĠB á»Ŀi
ĠB land
ĠB ark
ĠB amb
ĠB Ã¬a
ĠB ast
ĠB ound
ĠB low
ĠB itt
ĠB omb
ĠB ye
ĠB ors
ĠB ull
ĠB atur
ĠB ustin
ĠB oko
ĠB AS
ĠB ambi
ĠB Iá»
ĠB uten
ĠB aptist
ĠB ÃĻ
ĠB ooks
ĠB RIC
ĠtÃŃ c
uá» Ŀng
er an
er am
er net
er han
er io
er ge
er ama
er lin
er ox
er esa
Ġquy Ãªt
ĠH D
ĠH m
ĠH Ã¡
ĠH á»Ļ
ĠH á»Ł
ĠH áº±ng
ĠH in
ĠH Ã¹ng
ĠH Ã¢n
ĠH es
ĠH il
ĠH Ã¨
ĠH iáº¿u
ĠH uá»·
ĠH ak
ĠH ib
ĠH end
ĠH ave
ĠH aj
ĠH ors
ĠH ull
ĠH anna
ĠH istor
ĠH áº¹n
ĠH ague
ĠH BO
ĠH ugo
ĠH etain
ĠH rabowski
ĠH appiness
ĠH Ãĥ
Ã© goire
Ã© rÃ©
am y
am el
am od
am anda
ĠÄĲ iÃªn
ĠÄĲ Ã¹ng
ĠÄĲ iá»ĥu
ĠÄĲ áºŃp
ĠÄĲ ua
ĠÄĲ áº¡p
ĠÄĲ áºŃu
ĠÄĲ á»įc
ĠÄĲ Ã³n
ĠÄĲ Ã¡p
ĠÄĲ Iá»
en em
en er
en et
en th
en der
en bo
en cer
en dez
en stock
en phia
ĠA N
ĠA P
ĠA ed
ĠA man
ĠA ce
ĠA ky
ĠA ward
ĠA uck
ĠA ja
ĠA sha
ĠA eron
ĠA CT
ĠA PL
ĠA rea
ĠA CR
ĠA TL
ĠA jit
ĠA SDF
ĠA lejandro
ĠA UV
ĠA amod
Ġtáº¿ p
Ġkhá» ı
Ġkhá» ĭt
Ġkhá» ģu
ĠS L
ĠS O
ĠS Q
ĠS V
ĠS Æ°
ĠS qu
ĠS Ã¢u
ĠS Ãłng
ĠS áº»
ĠS Äĥn
ĠS or
ĠS Ãºp
ĠS ic
ĠS áº£i
ĠS uá»ĳt
ĠS ed
ĠS ul
ĠS ut
ĠS ip
ĠS ina
ĠS ate
ĠS ind
ĠS Ã³i
ĠS ander
ĠS ier
ĠS ica
ĠS ix
ĠS hia
ĠS eth
ĠS age
ĠS oft
ĠS ny
ĠS EC
ĠS ever
ĠS ight
ĠS á»«ng
ĠS ister
ĠS ese
ĠS Ã©c
ĠS emple
ĠS vit
ĠS assel
ĠS eeker
ĠS ask
ĠS ukh
ĠS ashimi
Ġkháº ©m
Ġkháº ¡c
ia h
ia t
ia le
ia bhan
Ġdo a
Ġdo od
Ġdo gs
Ġdo ugh
ar h
ar es
ar it
ar ine
ar ian
ar yl
ar og
ar row
Ġy Ãª
Ġy our
Ġph uy
Ġph om
Ġph oto
ĠP B
ĠP J
ĠP am
ĠP hÃºt
ĠP oc
ĠP ill
ĠP ul
ĠP ec
ĠP aw
ĠP eg
ĠP ann
ĠP oy
ĠP ast
ĠP ern
ĠP ush
ĠP esh
ĠP AM
ĠP isa
ĠP une
ĠP inn
ĠP agan
ĠP eek
ĠP elop
ĠP aint
ĠP EP
ĠP lanet
ĠP ragmatic
ĠP UMA
ĠP uya
ĠP otts
ĠP TTT
ĠK K
ĠK P
ĠK W
ĠK g
ĠK Ãª
ĠK on
ĠK Ã½
ĠK in
ĠK ung
ĠK em
ĠK Ãªu
ĠK iáº¿m
ĠK it
ĠK ol
ĠK and
ĠK av
ĠK amp
ĠK ell
ĠK ore
ĠK ess
ĠK ail
ĠK ov
ĠK ash
ĠK Ã©n
ĠK aland
ĠK eck
ĠK acy
ĠK áº¹o
ĠK osh
ĠK rane
ĠK oro
ĠK ahn
ĠK atherine
ĠK umar
ĠK rens
ĠK ramer
ĠK eynote
ĠK Ã©rÃ©
ĠthÃ¡ y
ĠL Z
ĠL Ã¢u
ĠL uyá»ĩn
ĠL Ãło
ĠL iá»ģn
ĠL Å©
ĠL al
ĠL is
ĠL il
ĠL Æ°u
ĠL Ä©nh
ĠL op
ĠL áº¯p
ĠL av
ĠL ich
ĠL ul
ĠL ub
ĠL Æ°á»¡i
ĠL ook
ĠL ier
ĠL enz
ĠL MA
ĠL yd
ĠL SE
ĠL hasa
ĠL una
ĠL ocal
ĠL erner
ĠL yengar
ĠL DL
ĠL iabhan
Ġá» ¡
Ġá» ·
Ġá» §n
Ġá» ĭch
Ġá» £t
Ġá» §a
Ġá» Ńng
ĠhoÃ¡ y
Ġtráº» o
ĠÄĳo Ã¡
ĠÄĳo áº¡
Ġngá» ¯a
ĠG M
ĠG hi
ĠG á»ĳi
ĠG áº¥p
ĠG os
ĠG el
ĠG Ã³c
ĠG ua
ĠG ad
ĠG áº¡ch
ĠG Ã¡nh
ĠG ah
ĠG he
ĠG ert
ĠG ov
ĠG ach
ĠG ara
ĠG ate
ĠG aul
ĠG ug
ĠG lor
ĠG ott
ĠG org
ĠG ust
ĠG ero
ĠG CH
ĠG ames
ĠG RA
ĠG obi
ĠG aus
ĠG osh
ĠG urga
ĠG adda
ĠG avin
ĠG aines
ĠG neezy
Ġ3 90
Ġngo a
Ġngo áº£nh
Ġngo áº¡m
Ġngo Ã¨o
Ġnhá»ı m
ĠTr Ãł
ĠTr Æ°Æ¡ng
ĠTr Äĥm
ĠTr áº¡ng
ĠTr ÃŃch
ĠTr ack
ĠTr ip
ĠTr á»Ļm
ĠTr ice
ĠTr af
ĠTr enton
ĠTr ojan
ĠTr uth
ĠD A
ĠD N
ĠD iá»ģu
ĠD Ãłnh
ĠD iá»ĩu
ĠD iá»ĩt
ĠD áºŃy
ĠD áº«u
ĠD áº£i
ĠD re
ĠD oc
ĠD ill
ĠD ian
ĠD iv
ĠD one
ĠD ett
ĠD rop
ĠD ust
ĠD ora
ĠD ef
ĠD rap
ĠD eton
ĠD oll
ĠD ulu
ĠD iva
ĠD SM
ĠD usty
ĠD oing
ĠD rive
ĠD iller
ĠD opp
or r
or on
or ter
or row
or onto
or ming
Tr áº£
Tr áº¡i
Tr áº¯c
Tr ans
Tr Ã³i
Tr oy
Tr ue
Tr icity
Tr inidad
al m
al es
al ic
al om
al ey
al ab
al az
al ek
al go
al ten
al gar
al isa
al tar
Ġtrá»ĭ nh
Ġthu Ã¢n
Ġthu áº©n
Ġthu Ã´c
Ġdáº¡ c
Ġvi ola
Ġvi vre
Ġvi lla
Ġkáº¿ p
im os
im id
im edia
ĠbÃ¡ y
es ab
es ian
es worthy
Há»į p
os o
os th
os yl
ĠR Ã´
ĠR ai
ĠR au
ĠR áº½
ĠR áº¯c
ĠR oi
ĠR ig
ĠR op
ĠR á»ĳt
ĠR Ã¹a
ĠR ib
ĠR ut
ĠR ach
ĠR ath
ĠR iz
ĠR ani
ĠR ug
ĠR ube
ĠR ens
ĠR aptop
ĠR oot
ĠR agh
ĠR ever
ĠR ican
ĠR utan
ĠR ule
ĠR ene
ĠR out
ĠR enny
ĠR unn
ĠR him
ĠR iker
ĠR OW
ĠR aven
ĠR KO
ĠR auf
ĠR enzo
ĠR cif
ĠR inaudo
el an
el ia
el ey
el ma
el lian
el iker
Ġtuá»ķi i
Ġtho áº¯t
Ġquyá» ĥ
et ton
et ine
et ate
et hane
et wid
et chUp
Ng a
Ng u
Ng ang
Ng on
Ng áºŃp
Ng Äĥn
Ng áº«u
Ng á»±a
Ng á»įn
Ng á»«ng
Ng oan
Ġkhu Ã¢y
ĠI ver
ĠI PS
ĠI di
ĠI car
ĠI NG
ĠI kar
ĠI rene
ĠI CD
ĠI qui
ĠI ngels
ĠI yengar
Ġ5 40
Ġso me
Ġso met
Ġso dok
Ġso pran
ĠV ai
ĠV Ã¹ng
ĠV Ã©
ĠV áº¯c
ĠV is
ĠV eb
ĠV oc
ĠV ie
ĠV á»įt
ĠV enn
ĠV iz
ĠV eas
ĠV TA
ĠV ision
ĠV III
at hi
at ia
at ic
at ing
at ari
at rice
is en
is ing
is ner
is phere
is ante
ĠmÃ´ Äĳun
Ġ4 30
Ġ4 10
Ġ4 80
Ġ4 70
Ġ4 98
Ġrá» Ŀ
Ġrá» ģn
Ġrá» ıi
Ġrá» £p
Ã©t er
ĠQ uyáº¿n
ĠQ atari
Ġtá»Ń u
ic z
ic ur
ic ester
ic ious
ĠJ i
ĠJ ao
ĠJ ung
ĠJ ew
ĠJ eb
ĠJ ah
ĠJ one
ĠJ od
ĠJ ov
ĠJ ero
ĠJ ura
ĠJ ump
ĠJ AW
ĠJ ae
ĠJ unger
ĠJ oie
ĠJ insop
ĠJ ensen
ĠJ FK
ap al
ap le
ap ton
ap se
ap rio
ap side
ap enem
ĠÄĳÃ¢u i
Ġba by
Ġba zan
Ġba bush
Ġcháº¿ c
il i
il o
il in
il and
il ver
as ch
as ound
as ure
as heng
it er
it is
it te
it he
it ron
it icus
it able
it bit
Ġcá»¥ ng
Ġdi ff
Ġdi gital
ol o
ol on
ol ey
ol um
ol la
ol ke
ol ars
ĠW o
ĠW s
ĠW es
ĠW el
ĠW ac
ĠW ig
ĠW ein
ĠW ess
ĠW eet
ĠW ren
ĠW inc
ĠW ester
ĠW old
ĠW har
ĠW ade
ĠW omen
ĠW eller
ĠW oman
ĠW elling
ĠW esley
ĠW adah
ĠW uDunn
ĠF U
ĠF ay
ĠF il
ĠF le
ĠF ur
ĠF ick
ĠF are
ĠF lan
ĠF org
ĠF ish
ĠF igh
ĠF AR
ĠF itch
ĠF rog
ĠF eyer
ĠF AO
ĠF lipp
ĠF allon
ĠF ife
ĠF MRI
ĠF DI
ĠF ais
ĠF ehr
ĠF aust
ĠF usion
ĠF onda
ĠF aulkner
ĠF uego
ĠF Ãªte
ĠF itbit
ĠE R
ĠE V
ĠE W
ĠE ti
ĠE ug
ĠE ster
ĠE aster
ĠE iger
ĠE chel
ĠE kman
ĠE uan
ĠE coli
ĠE ileen
ĠE PFL
ĠE etwid
ĠchÃº i
Ġcháº¡ n
Ġxa van
ĠvÃŃ a
ĠÄĳá»§ i
Ġnhá»Ľ p
Ġnhá»Ľ t
le ith
le berry
le brot
Ġ20 5
Ġ20 7
Ġ20 48
Ġ20 21
Ġ20 42
Ġ20 54
Ġ19 25
Ġ19 17
ho e
ho Ã¡
ho ut
ho od
ho und
ho uk
ter horn
ĠNg o
ĠNg Æ°á»£c
ĠNg Ãłnh
ĠNg Äĥn
ĠNg áº¯n
ĠNg á»įt
ĠNg ram
ĠNg há»ī
Thá» ķ
Thá» ĭt
Ġtu c
Ġtu Ã½t
Ġtu áº¿ch
Ġtu bine
us and
ac a
ac ad
ac om
ac ag
ac ek
ac chio
and o
and ran
and ex
and ani
and Me
Ġlá»ĩ u
hÃ¡ i
Ġphá»§ i
ad s
ad as
ad le
ad de
ad din
ad emy
om Ã©t
om ics
om ington
om ayloh
ĠTh ang
ĠTh iá»ĩn
ĠTh iá»ĩt
ĠTh iá»ģn
ĠTh ese
ĠTh urman
ĠTh andie
ĠTh eresa
Ġváº» n
ĠO ng
ĠO ri
ĠO ates
ĠO ef
ĠO mar
ĠO don
ĠO LP
ĠO cc
ĠO lof
ĠO yes
ĠnghÃ ¬m
ob acter
ur s
ur ai
ur al
ur at
ur ethane
ĠCh anh
ĠCh Ãły
ĠCh iáº¿m
ĠCh ord
ĠCh ee
ĠCh ez
ĠCh app
ĠCh ange
ĠCh annel
ĠCh ase
ĠY ong
ĠY ao
ĠY áº¿u
ĠY en
ĠY ah
ĠY ard
ĠY um
ĠY ud
ĠY ut
ĠY ann
ĠY og
ĠY ami
ĠY uck
ĠY ue
ĠY uk
ĠY adi
ĠY uri
ĠY von
ĠY uyu
ĠY anuk
ĠY andex
ra ka
ra vaid
ra xeo
Ġ7 30
Ġ7 20
Ġ7 37
ew s
ew an
ĠHo p
ĠHo an
ĠHo en
ĠHo áº¡ch
ĠHo ud
ĠHo ok
ĠHo pper
ĠHo usman
ĠHo kus
li o
li ch
li de
li vion
ĠsÆ° c
ĠTED U
ĠTED istan
ĠTED Sal
ĠTED Prize
Ġ8 50
Ġ8 80
Ġáº ¤
Ġáº ¦
Ġáº ¬
Ġáº ®n
eb an
eb ec
eb ach
eb erman
Giá» ¡n
ĠlÃŃ ch
ĠchÃ¡ t
Ġla kh
ÄĲá» Ĭnh
Ġgá» ķ
Ġgá» ¯a
Th Ãł
Th ang
Th uc
ri er
ri ent
ri ba
ri field
ri enne
ri DER
Ġan th
Ġan other
un ky
un ity
un sw
un zia
Ġtrai ns
ro ch
ro us
ro ud
ro phony
ro ughs
NhÆ° g
Ġban te
Ġda h
ĠÃ´ zÃ´n
ĠÃ´ kÃª
ĠNew man
ĠNew town
ĠÄĲá» ĩ
ĠÄĲá» ĭch
ĠÄĲá» ĮC
Ġtim e
re ira
re nheit
Ġw ee
Ġw ird
Ġw orld
Ġw uhahaha
Ġw hisky
Ch iáº¿m
Ch iáº¿u
Ch ad
Ch az
Ch ell
Ch ade
net te
ĠIn s
ĠIn ch
ĠIn ce
ĠIn di
ĠIn con
ĠIn sulin
ĠIn let
ĠIn noc
id o
id ay
id ic
id ari
id jan
id yar
Ġxo an
Chá» ©c
Chá» ©a
Chá» §ng
Chá» Ľp
ĠSt a
ĠSt op
ĠSt ik
ĠSt ones
ĠSt ation
ĠSt air
ĠSt ory
ĠSt ato
ĠSt awi
ĠSt Ã¸
ĠSt icky
ĠSt riDER
ĠSt roud
ĠghÃ ©n
Ġthá»§ a
Ġ15 8
Ġ15 84
ah u
ah en
ah ar
ah ab
ah ari
ah ahaha
th ai
th ra
th uss
th etic
ig on
ig ail
ig ma
ist s
ist ram
ran us
op ic
op ho
op ing
op olymer
op otam
Ġca ff
Ġca vat
ĠU s
ĠU ry
ĠU ce
ĠU cr
ĠU ldus
ĠU ttar
ĠU vul
ĠU ranus
ed e
ed o
ed abad
ed onian
ing all
ing stone
ing dale
ag i
ag es
ag ag
ag ina
ag ora
ag adde
ard ner
ĠX V
ĠX Æ¡
ĠX áº£o
ĠX Æ°á»Ľng
ĠX IV
ĠX quang
ĠX box
ĠX Key
ĠX á»©
ĠX erox
Ġhá»Ĺ ng
lo v
lo omington
ĠbÃŃ pp
93 1
ey e
ey ese
Ġsu w
Ġsu ck
Ġ12 4
Ġ12 6
Ġ12 8
Ġ12 98
Ġnghá»ĭ u
ĠAl c
ĠAl Ã´
ĠAl ams
ĠAl varo
ĠAl thuss
ab o
ab ra
ab end
ab elle
ĠThá» £
ĠThá» Ŀ
ĠThá» īnh
ak o
ak ed
ak ti
ak ash
ak ala
oh ead
oh acker
ou w
ou in
ou ti
ou ma
ine ph
ork able
Äĳ o
Äĳ Ãª
Äĳ á»Ļt
Äĳ Æ°Æ¡ng
Äĳ á»ĳc
Äĳ áº£m
Äĳ á»įc
oc amp
oc yc
oc cia
ĠNh u
ĠlÃ¡ y
ĠNam e
han andani
ĠGi ang
ĠGi áº¥u
ĠGi za
ĠGi ve
ĠGi br
ĠGi uli
te x
te ngill
ill es
ill ac
Ġxá» «
Ġxá» ¯
Ġxá» īnh
Do ur
Ġ18 2
Ġ18 3
Ġ18 30
Ġ18 20
Ġ18 19
Ġ18 13
Ġ18 60
Ġ18 65
Ġ18 33
Ġ18 97
Ġ18 38
Ġ18 96
Ho d
Ho use
um a
um que
um mit
tr ung
tr Ã¡i
tr á»«
tr á»£
tr asound
ik istan
ik io
ik wa
ik ahn
ie c
ow e
ow ay
ow icz
Ġo z
Ġo áº»
Ġo Ã¡n
Ġo áº¹
Ġo Äĥm
Ġo áº£i
Ġo ff
Ġo ver
Ġo gami
ich ie
Ġf i
Ġf unk
Ġf uke
Ġf lying
Ġf uchu
Cháº ¥p
Cháº ¯n
Cháº ¥n
Cháº ¥m
Qu ang
Qu anh
Qu áº¥n
Qu Ã¡n
Qu Ã£ng
Qu een
Qu ix
ĠMar ian
ĠMar ge
ĠMar ta
ĠMar ina
ĠMar ston
ĠMar iana
ĠMar ble
ĠMar ty
ĠMar lene
ĠMar fan
ĠMar lboro
Ġ25 4
ev ille
ev sky
ul k
ul t
ul en
ul la
ul ate
ul ation
ĠChá» Ľ
ĠChá» ¯a
Cho pin
Ġkim chi
ub er
ub ali
ub ble
ub owski
ub hend
Ġcam bridge
Con tra
Ġ11 3
Ġ11 5
Ġ11 000
la ch
ib u
ib er
ib and
ib ran
ib outi
ĠThÃ¡ c
Pháº ©m
ir us
ir th
ry l
if y
if ax
io zina
ep t
ep ing
ep olis
ĠCon ley
ĠCon tin
ĠCon ne
ĠCon ner
ĠCon rad
ĠAn il
ĠAn ta
ĠAn ti
ĠAn anth
ĠAn kara
ĠAn jali
ick s
ĠQu ÃŃ
ĠQu Ã¡n
ĠQu Ã©t
ĠQu est
ĠQu iz
ĠQu eda
ĠQu ebec
Ġnháº¹ p
ĠcÃł c
ĠTá» ĩ
ut o
ut s
ut z
ut sch
iv ik
iv io
iv als
est own
he ed
he ir
he nge
art ney
art ame
Ġcan not
ĠBr Ãºt
ĠBr ath
ĠBr ett
ĠBr omp
ĠBr acy
ĠBr etton
ĠBr unsw
ĠPhÃ¡ o
ĠAr up
ĠAr ias
ĠAr cas
ĠAr thus
ĠAr vind
ĠAr riba
ec l
ĠZ F
ĠZ h
ĠZ w
ĠZ ed
ĠZ ara
ĠZ ander
ĠZ eta
ĠZ aha
ĠZ anz
ĠZ alaz
ĠZ ahab
aw ay
aw ar
aw ww
aw rous
NhÃ £n
Ġpr obi
eg ger
eg rap
de es
de for
Ġtan ager
ert geb
ore ena
Ġ16 2
50 49
ĠhÃ¨ m
ĠAf ra
ĠAf rika
ess a
ess en
uc ation
uc ato
Ġu hm
ĠSh ang
ĠSh am
ĠSh and
ĠSh anda
ĠSh are
ĠSh ino
ĠSh af
ĠSh ree
ĠSh aba
ĠSh erat
ĠSh lomo
all ah
Ġko ala
Ġ14 5
Ġ14 6
Ġ14 50
ĠAfg hn
ĠCar y
ĠCar lin
ĠCar itas
ĠCar rier
Ġ201 8
ge nheim
ĠVá» «a
ĠVá» ĩt
ĠVá» ĭt
Ġbi zon
Ġbi opolymer
Ġbi ohacker
Bá» Ľi
ĠEm erson
ĠEm iliano
Ã´m a
att s
ĠAi xÆ¡
Ġ13 2
Ġ13 4
Ġ13 7
Ġ13 23
Ġ13 69
Ġprot eas
Ġprot eins
ip ur
ip lan
ip ede
od h
od i
od in
od el
ĠCal m
ĠCal vin
ĠCal vary
yl ic
Ġ0 6
Ġ0 8
Ġ0 5049
ail les
âĢ ¦
ĠGiá» Ŀi
ers t
ers hwin
ĠAm i
ĠAm r
ĠAm es
ĠAm ip
ĠAm und
ĠAm ish
ĠAm yloid
ĠAm edabad
ĠKen ny
ĠKen edy
Ġ17 1
Ġ17 3
Ġ17 50
Ġ17 38
Ġ17 76
ĠFran z
ĠFran Ã§ois
ee ee
Ġcá»ı n
ĠHar e
ĠHar am
ĠHar ger
ĠHar mon
ĠHar ouni
ĠLan e
ĠLan ting
ph ur
ph ine
ph ins
ph alten
Ġ21 0
log y
log gers
ov an
ov ich
ov ych
land o
land s
Ġru pee
ĠHai bao
ach andran
Ġi C
Ġi Hub
ark o
ark er
ĠDo zo
ain ab
ti us
ti ya
Ġro de
ĠChi ho
ĠChi cken
ĠChi tra
enn ec
gh uma
ĠSc an
ĠSc ala
ĠSc uins
Ġ500 000
ock ets
Ġngu ow
Ġ24 4
Ġ24 00
Kho an
Ph a
co defor
ĠPháº ¡n
ĠTo ur
ĠTo ast
ĠTo ots
Ġblog gers
ann ie
ĠSan ford
ĠSan kar
ĠSan ofi
ĠSan tia
ĠBra kar
ley wood
lin es
st y
st enberg
ĠCháº ·ng
ĠCháº Ńc
amb isa
ĠBa an
ĠBa er
ĠBa fana
Cá» Ĺ
Cá» ¥c
pp s
pp ing
pp ets
ass ic
og en
og rat
ĠCá» Ĺ
ĠCá» Ńa
ĠCá» ¥m
ĠCá» §i
ĠMc Ra
ĠMc Wh
ĠMc Queen
ber y
ber ly
ĠCol ant
ĠCol ors
Ngh iá»ĩn
ThÃ Ńnh
ĠhÆ° Å©
Ġlá»ģ nh
ĠRob ins
ĠRob yn
ĠChar mian
ĠNhÃ ³c
ĠBá» ģn
ĠBá» ¥i
sh as
sh ine
sh aw
ĠDavid son
ĠHy d
ĠHy p
ĠHy DRA
ĠHy malay
ram m
Ġhang ry
ĠPh IP
ĠPh araoh
Ġcar e
Ġcar box
ĠBer nes
ĠBer row
ĠBer lus
Ġbu ild
ĠMo k
ĠMo ai
ĠMo yo
ĠMo Ma
ĠMo jave
ĠMo eliker
ĠMon o
ĠMon et
ĠMon te
ĠMon ash
ĠMon och
ĠMon biot
iz oph
ĠPal u
ĠPal din
Ġ400 00
Ġ400 000
ĠSp ot
ĠSp am
ĠSp ack
ĠSp ok
ĠSp iegel
ĠSp itzer
ĠSp rite
ĠSp ittin
ĠSp encer
ĠSp arrow
ĠLe ch
ĠLe ica
ĠLe ave
ĠLe una
ĠLe icester
Ġ196 1
ling a
ling ton
ĠBl icket
ĠBl ender
ren alin
ĠCO N
Ġnan ocar
Ġquá» ī
20 14
ĠRos etta
ĠTháº ¯ng
ĠTháº £i
ĠTháº ¥p
ĠTháº Ńn
ĠTháº ¡ch
ĠBar ber
ĠBar ney
ĠBar ss
ĠBar oque
ĠBar asch
ne ider
ne fj
ne apolis
ĠBos wana
ĠPar ry
ĠPar si
ĠPar vin
ĠPar agu
ĠKho Ã¡
ĠKho áº£nh
ĠKho Ã¡ng
ĠJo k
ĠJo es
ĠJo anne
ĠBe z
ĠBe er
ĠBe am
ĠBe ery
ĠBe ngh
ĠBe iser
xi eland
Ġj ust
Ġj oie
ĠAb s
ĠAb ou
ĠAb ram
ĠAb ani
ĠAb ott
ĠAb acha
ĠAb idjan
ĠEd o
ĠEd ry
ĠEd ge
ĠEd di
ĠEd ger
ĠEd mont
Ġnháº· n
Ġnháº· ng
hom i
ug ia
ĠMI C
ort s
ort unity
ka j
ka erts
ĠBen d
ĠBen sc
ĠSm il
ĠSm ule
ĠSm iley
ĠSm ooth
ĠJam al
ĠFranc es
Em manuel
Ná» ķ
Ná» Ĺ
ĠCho i
ĠCho ice
ĠCho colate
ĠTEDx PS
ĠTEDx Am
ĠTEDx RC
ĠTEDx DU
ĠTEDx NASA
ĠTEDx Paris
ĠTEDx Pe
ĠTEDx Change
Ġa eg
Ġa aah
ĠLá» ķ
ĠLá» Ĺ
ĠLá» Ńa
ĠLá» £n
lex ig
ier e
ĠWik ipe
ĠWik imedia
lan tic
lan ty
lan tay
ĠBro ck
ĠBro ca
ĠBro derick
ĠLos t
ĠLos ee
ast ic
ast air
ast asia
ros othi
ld o
ĠHá» ©a
ĠLa xmin
Ġhack ers
ĠThÃ ¢n
ĠThÃ ªu
ĠSch ad
ĠSch ump
ĠSch oon
ĠSch umann
ĠSch acht
ĠSch rodinger
ĠSch olars
ĠSch ramm
ĠSch neider
ĠPhá» ıng
ĠPakistan i
ĠCr oton
ĠCr ump
ĠCr Ã¨me
ĠCr eosote
ĠCr adle
ĠMa es
ĠMa astricht
ĠMa fund
ald i
ĠStev ie
yn th
yn ski
yn sky
Ġde Char
Ġde Nap
ĠNá» ¯a
ĠHe ap
ĠHe ide
ĠHe aley
ĠLu xo
ĠLu thra
ĠDar i
ĠDar ia
ĠDar by
ĠRe ad
ĠRe id
ĠRe ill
ĠRe isel
ÃĢ h
ami eyese
com e
ox ville
ox etine
ĠAngel ina
ĠPhÃ Ń
ĠPhÃ ³ng
ester o
ester ol
ester one
ĠOb livion
Ġ75 7
Ġ75 99
ĠNe ur
ĠNe uman
ĠNe hru
ĠOk rain
ĠOk onjo
ĠPaul ette
ĠEl k
ĠEl ah
uck ey
ott ing
ĠKh iáº¿t
ĠKh ung
ĠKh ader
ĠKh rush
ĠKh ayelitsha
Ġcháº£ ng
ĠNA SDA
ĠKhÃ¡ i
Ġst an
Ġst age
Ġst atin
Ġst acking
Ġst yro
Ġst icker
Ġst aple
ĠAt las
ĠAt lassian
ĠPr estero
ĠAnd raka
Kh ao
Kh uyáº¿t
Kh iáº¿m
Kh ayelitsha
ens ing
ĠPet sk
ĠPet rie
ĠPet tengill
Ġ194 2
Ġ194 6
Nhá» ±a
Phá» §
Phá» ĳ
Phá» ķ
Phá» ©c
ĠFrank l
Ġvan Engels
ĠMal em
ĠMal ale
ĠMal aga
ĠMal auy
ĠMal ibu
ish a
PhÃ ³
PhÃ ´
PhÃ Ń
TED x
Ġ22 1
Ġ22 00
ĠApp ro
ĠInd yk
ĠInd onex
ĠTom bstone
ĠTom orrow
atch idan
atch ewan
Ġal anine
Ġal aikum
ĠSah ar
ĠSah aran
ĠDi os
ĠDi op
ĠDi xieland
ĠJos ef
ivi ew
ĠTor y
ĠTor ch
ĠCam era
ĠNháº ¹
ĠNháº ¥n
ĠNháº ±m
ĠNháº ·t
ĠAdam i
ĠRom ney
ĠRobert son
ĠSmith field
Ġsho p
Ġsho pping
iss e
ĠFre deric
ĠOr d
ĠOr ff
ĠOr ange
ĠOr esk
ĠOr gan
ĠOr lando
ali D
ĠParis er
ix ing
ix ilin
Ġ36 000
ĠAlex ey
ĠGr ady
ĠGr anderson
ĠGr etel
ĠGr anhol
ĠGr uber
our n
our ce
ĠCop pola
ĠDan ish
ĠDan ziger
rop ia
me Now
ĠLeg end
ĠGu er
ĠGu ier
ĠGu ide
ĠGu ant
ĠGu zman
An as
An ton
Nháº ¯m
ant os
ĠCl aus
ĠCl apton
ĠMan en
ĠMan cus
ĠMan cini
ĠMan wani
ĠMad en
ĠMad ela
ĠMad ure
ĠMad ame
ĠMad rass
ĠMad eira
ĠMad urai
Ġ27 0
Ġ27 5
Ġ27 8
ĠGreen berg
ĠGreen wich
ThÃ¡ nh
ĠSe a
ĠSe al
ĠSe aman
ĠSe aver
ĠLib an
ala fel
ĠII B
ĠII I
ĠII M
ĠCarol e
gs list
ĠHaw a
ĠSub odh
uss ou
uss eff
Ġ600 00
fi el
fi rio
fi Äĩ
thá» ĳng
ĠHay ek
ĠHay ward
ĠHay den
ĠHay dn
ĠWal ton
ĠWal ly
ĠWal laj
ĠMark s
ĠMark us
ĠMark ram
ĠMark ham
ĠMark off
Al ice
Al pha
Al lison
per o
per as
ĠTal e
ĠTal ithia
ĠTal houk
ĠCE NT
ĠMe er
ĠMe at
ĠMe attle
ĠMe Bot
ĠMe ngatou
ĠMe isner
ĠMe asure
ĠAd obe
ĠAd visor
ĠAd rienne
ĠAd ichie
ĠAd renalin
ĠSam ar
ĠSam ara
ĠLat via
Ġtuá»µ Ãªt
oth ers
ĠGal ena
ĠGal act
imb le
ĠEn vir
Ġhydro gen
ĠGates head
ĠDel ight
ĠDel ano
ny x
ĠAc orn
ĠAc quist
ĠAc arog
ĠJon estown
Lá» Ĺi
Lá» Ńa
Lá» ĩnh
Mar cus
Mar issa
ÃĤ n
ini que
ĠJack ley
ĠFlor ia
ĠFlor ey
ĠMRI s
enz etti
ĠKing dom
ĠJe anne
ĠJe annie
ĠChrist o
ĠChrist ie
Tá»ķ n
ĠBur den
ĠBur ke
ĠBur chfield
ĠBur roughs
ĠKhá» Ŀ
ĠKhá» ĳn
Ġ65 000
ĠTheo dor
chá» Ĺ
chá» ©ng
chá» īnh
we i
ĠCamb ri
ĠMy th
ĠMic ro
ĠMac s
ĠMac ro
ĠMac Donald
ĠMac Master
ĠSim s
ĠSim one
ĠSim hanandani
ĠKar nat
ĠGo ose
ĠGo etz
ĠGo ethe
ĠGo oseberry
ĠGo erge
ĠDá» ĭ
ĠVan illa
omb e
omb ie
omb ucha
igh a
Ġká»ĩ ch
ĠNor ton
ĠNor way
ĠNor vig
ĠAh h
ĠLad akh
ĠWar ing
ĠWar inner
ĠBush master
ĠKim berly
ĠmÃ´t Æ¡
tron ic
AR T
ĠMay assa
ĠMay nard
ĠSu fis
ĠTrá» £
ĠMah las
ĠNan Ã¡
ĠBu ch
ĠBu te
ĠGen ji
ĠGen omics
Ġ33 4
Ġ33 00
Ġgh ost
ĠAp ex
ĠAp atz
ĠAp ocaly
Ġdol la
Ġdol phins
Ġngá»« á»Ŀi
ati es
ati ent
ĠMand lebrot
ĠAs in
ĠAs ia
ĠAs im
ĠAs he
ĠAs hok
ĠPl us
ĠPl ace
ĠPl ait
ĠJim i
mon ic
ven ient
Ġac re
Ġac tive
Ġac etate
ĠlÃ´ gic
Ġser if
Ġser onton
ere cht
ĠShi va
ĠShi geru
ĠSing h
ĠSing ing
oph on
ĠScot ia
enh all
enh eimer
ten dees
á»« Æ¡i
ĠHans meyer
ĠUn iview
18 24
18 77
200 9
ole um
Chá»ĭ u
ĠShak ethe
19 45
19 78
19 86
19 94
se um
yan ka
yan arayan
Ġop en
ĠMu ppets
ĠBay er
ĠBol in
ĠSouth west
ĠKy u
ĠKy rgy
ĠRock y
ĠRock ies
ĠRock away
rog io
CH Ãºng
ĠTur n
ona ar
ĠCap ital
ĠCap pad
ĠMor ia
ĠMor ina
ĠMor andi
ĠMel anesia
ĠMel endez
ĠHer man
ĠHer ald
ĠHer old
ĠHer bert
ĠHer oul
ĠHer mann
ĠAv i
ĠSi era
ĠDe am
ĠDe ar
ĠDe ad
ĠDe utsch
Ġ700 00
Char ley
ĠBlack more
ĠBlack Berry
ston es
ĠMil es
ĠMil ey
ĠMil osev
ĠMil wauk
ĠMil iband
ĠBal uch
ĠBal agadde
ĠAir plan
ĠSer b
ĠSer ies
ĠSer fa
ĠSer gei
ĠDV R
ĠDa fur
Ġ55 5
ĠWil d
ĠWil es
ĠWil de
ĠWil low
ĠWil bur
ĠFor rester
ĠEur ost
ĠEur eka
Ġtua bin
Ġnit o
Ġnit rat
Ġnit rit
Ġnit rosothi
ĠMos he
ĠHill el
ĠAri anna
ĠSal bi
ĠSal vad
ĠSal ecl
ĠLong den
ĠVic odin
ĠOs orio
Chi le
Chi cago
Ġdev eloping
ĠTit le
ĠSom aly
ĠGold in
ĠGold berg
ĠRo ach
ĠRo ald
ĠRo chester
ĠRo cha
ĠRo Me
ĠRo usseff
ĠShakespe ar
ear s
Ġmil ig
Ġsp am
Ġsp lashy
ĠTed x
ĠTed dy
ĠMat ternet
ĠMat xcov
ĠMat terhorn
ĠMur ad
ĠMur phy
ĠMur chison
ĠPro found
ĠKn ow
ĠKn ife
ĠKn ols
ĠKn oxville
ĠEver quest
In tel
MA NIAC
Ġcal ory
Ġclick er
Ġkil o
ĠTam din
Ġ37 0
ĠEt t
ĠYo ussou
Jo an
bo ard
bo urg
bo nhyd
har monic
ĠPop ovic
ĠPop ular
ĠDen net
ĠFer ran
ĠFer mat
ĠFer dinand
ĠFer reira
Phi lippines
aj id
giá» Ľi
Ġbar becue
ĠTin to
ĠMer r
ĠMer kley
ĠMer rifield
ĠMag na
ĠMag yar
ĠMag azine
ĠSand s
ĠSand wich
ĠKu hn
ĠKu ppam
ĠKu chera
ĠLau fenberg
ĠLar son
ĠDon nelly
ĠDon ovan
ĠRed wood
ĠRed mond
ĠJac lyn
its yn
ĠFri deric
eck er
Ar t
Ar che
Ar unachalam
Car bon
Car men
Há» ¯u
af one
ĠÂ ²
Ġthá»ı m
Ġsá»Ŀ n
ĠBud dy
ĠHan ks
ĠSk ylar
ĠSk etchUp
ĠLo a
ĠLo unge
ĠLin z
ĠWi Tricity
ĠArg yll
yd ah
ĠClin t
ĠHam mad
ĠHam mond
ĠRam os
ĠRam allah
ĠRam achandran
oid s
Geo ffrey
St and
St rip
gi Ã´ng
gi Ãºp
gi áº£m
Ġbá»ī m
ĠCas pian
ĠMatt y
ĠBot sman
ĠHu ey
ĠHu ffington
ĠAus chi
ĠKat rag
ĠLang erhan
ardy man
Sp ock
eas on
Ġbl ue
Ġgl ia
Ġpháº£ ng
ĠTel egrap
ĠMas achusetts
ĠMas jid
ĠNick s
ĠNick el
ĠNick lin
ĠAg nor
ĠAg uera
ĠPower ful
ĠKal man
ĠKal ander
ĠKal likuppam
ĠGil er
ĠGil ian
ĠGil ley
ĠGil ding
ĠPhil ly
ĠPhil lippines
ĠPhil harmonic
ops ia
ĠColomb o
ĠColomb us
ucks berg
Mich elle
sc ore
Ġman y
ĠTemp le
ĠMi y
ĠMi ro
ĠMi wa
ĠMi ebach
ĠMin neapolis
ĠBir han
ĠAR V
ĠAR PA
ĠJenn ing
Ġ193 3
ĠPhilad enphia
reg or
ĠCarl ile
Ġxáº» ng
ĠTer raf
ĠSky life
ĠPri yanka
ĠKhan na
Ġ38 000
ĠDaniel le
ĠWest chester
ĠWalk owicz
ĠFort ingall
ĠOp en
Ġ86 4
Ġ86 49
Mark us
Äĳi Ãªu
Ġz ip
Ġz ero
Ġz ombie
ĠBh arti
ĠHav el
ĠShe ena
ĠShe hab
ĠShe eran
ĠGod iva
ĠGod dard
Ġ42 000
ĠJes u
ĠEx p
ĠEx tr
Ġ96 00
ĠBroad bent
uper y
ĠSimon s
ĠNorth west
ĠNorth western
So on
Ġhor se
ait zberg
ĠMau rice
ĠSus lick
ĠSun shine
ĠGh osh
ĠGh andi
ĠRon ny
ĠVi ewer
ĠVi ravaid
ĠJeop ady
iti us
Ġ192 1
Ġhip hop
ĠMcC artney
ĠWhit son
ĠWhit man
99 99
Khá» ıi
shi p
tim edia
Ġna á»³
Ġsand whi
Ġpoly ethyl
Ġpoly urethane
ĠBel k
ĠBel le
ĠBel cher
ĠBel lev
ĠBel fast
ĠBel shazzar
ĠBas el
ĠBas ic
ĠHad id
ĠPol o
ĠPol io
ĠPol yn
aly i
ĠBrit lin
Jos ette
Ġno el
Ġgel ato
Ġhel ios
ĠCor p
ĠCor on
ĠCor vis
ĠMap Quest
ĠMap maker
ĠBoy d
ĠBoy den
ĠHol land
ĠHol mes
ĠHol bein
ĠHol iday
ĠSol ar
ĠSol jac
ĠSol zhen
ĠSol idari
ĠSad ows
ĠSad oway
ĠKr as
ĠKr oll
ĠKr aste
ĠKr eme
ĠKr ause
ĠLeb erecht
Ġ52 9
Ġox alic
Ġfor um
ĠConn or
ĠConn olly
ĠBern s
AK E
ct ive
pháº ¡t
zz y
zz olla
ĠHel ena
ĠAch e
ĠAch or
ĠAch eu
ĠAch ebe
ĠSá» °
ĠSá» Ľm
ĠKháº ¯p
ĠGar age
ĠGar ret
ĠGar vey
ĠGro up
ĠGro ening
Ġ190 2
ĠAnn unzia
ĠArt emia
ĠprÃ´ ban
ĠprÃ´ tÃªin
And re
Ed di
Ed uardo
Ġq Ãºa
Ġen eb
Ġvv v
Ġtro jan
ĠMus k
ĠMus lim
ĠHal f
ĠHal ifax
ĠSn upp
ias is
ĠDick inson
ĠOli via
ĠUr ban
ĠUr hahn
ĠSteven son
ĠLouis iana
Sá» ¯a
Sá» Ľm
Tim othy
cus i
ead s
tháº ¥y
tion ary
Ġbe aver
aus er
ĠMet z
ĠMass ella
ene uve
ĠAng les
ĠAng rigami
ĠAsh er
ĠAsh ley
ĠAsh raf
ĠLi eberman
ĠDav enhall
ĠIP O
ĠChad d
lipp e
ĠArch ive
ĠArch ivio
ĠMcG uire
ĠMcG regor
ĠMcK eith
ĠMcK nett
ĠMcK enna
ĠMcK insey
Fran s
Sai ma
ngh Ä©
ngh iá»ĩp
Ġprog esterone
ĠCur ie
ĠCur zan
ĠCur rent
ĠMoh sin
ĠBlo ck
ĠHall mark
ĠAur umque
ĠSil via
ĠSil houette
ĠGan esh
ĠGeh rig
ĠRod enstock
ĠIm azon
ĠIm ja
ĠIm manuel
ĠVer mont
ĠVer ghese
ĠJan is
ĠJan ie
act osyl
rich a
ĠUN ITA
oul os
phen ol
ĠSchw aitzberg
ĠTunis ian
Ju an
Ken neth
Sam antha
má» ¥c
met z
rit rea
Ġcat alog
Ġpen ixilin
erb ot
ĠSho ok
ĠLov ins
ĠLock wood
ĠGl enny
ĠRuss ert
ĠIl iad
ĠVol ksw
ĠFr esh
ĠFr esco
ĠFellow s
Ġ78 7
ĠAlb ani
ĠAlb recht
ĠAlb emar
ĠJamai can
ĠWiki house
ĠWiki House
ĠDenis e
Ġgluc Ã´zÆ¡
ĠPantheon s
45 6
Am os
cháº ¿t
cháº ¥m
cháº ±m
Ġcomp a
Ġgra vit
ĠMed an
ĠMed ved
ĠMak au
ĠMak er
ĠMak erbot
ĠMeyer hoff
ĠBah ubali
ĠHas idic
ĠLen in
ĠGol gi
ĠGol beck
ĠGol esworthy
Ġ53 3
ĠVik tor
ĠJud i
ĠJud ith
ĠWh eram
ĠOtt awa
ĠOtt aman
Ġfoot age
ĠPalm Pilot
ĠJuli us
ĠJuli ana
Robert o
Robert son
Tho áº¡t
Tho usand
Ġar ap
Ġar ound
Ġaw e
ĠsÃ² m
Ġtru Ã¢n
ĠNov ograt
ĠBo oth
ĠBo ahen
ĠPy rex
ĠPan zi
ĠPan isse
ĠPor firio
ĠPas richa
ĠLas key
ĠÃģn dale
ĠEs cher
ĠEs quire
ĠStein em
ĠThÃŃ ch
ĠMatthew s
ĠGrant s
ĠBloom ingdale
ĠCooper man
ĠCooper ation
Le es
ios is
ios are
Ġneo cor
Ġmem ex
Ã´c rat
ĠCa fe
ĠCa esar
ĠCom mun
ĠNi u
ĠNi elson
ĠNar co
ĠNar nia
ĠNar ayan
ĠNar gis
ĠBow ie
erm al
ĠHot z
ĠHot chkiss
ĠHamp ton
ĠAz iza
ĠAz tec
ĠPic card
ĠLab rad
ĠLev itt
ĠLev iticus
ĠDor en
ĠDor ado
ĠDur r
ĠDur ban
ĠDun cker
ĠRu th
ĠWin ona
ĠWood en
ĠOl lantay
ĠBrad ner
ĠSher win
ĠSher lock
ĠShah ara
ĠShah een
ĠAndr Ã©
ĠAndr es
ĠYoung meNow
16 5
Be ijerinck
kh auser
oon s
Ġmeg abyte
Ġmeg aton
Ġpar is
Ġpar agliding
ĠTar ja
ĠTar awa
ĠTar bell
ĠhÃª t
ĠCro hn
ĠCro chet
ĠCro atia
ĠMen ino
ĠMid on
ĠMir u
ĠHaz litt
ĠSai ma
ĠPe ak
ĠKos ka
ĠKab isen
ĠLimb urger
ĠGul den
ĠWind sor
ĠEar l
ĠShar ot
ĠShar man
ĠShar ma
ĠShar pe
ĠShar gaa
ĠHarris on
ĠChild s
ĠDiet z
ĠJacqu eline
At tiya
At lantic
At tendees
Bon iface
Fre derick
cer elli
fer rika
kho Ã¡
kho áº£n
phÃ ¢n
phÃ Ńa
phÃ Ńch
Ġad orkable
Ġep ineph
Ġni u
Ġsh alan
Ġsal sa
Ġtrans itor
Ġpa hir
ĠMob utu
ĠMull ah
ĠNin os
ĠBre el
ĠBre ak
ĠBre ivik
ĠHon or
ĠHum e
ĠHum mer
ĠHum anity
ĠAst or
ĠAst ley
ĠAst aire
ĠSI CK
ĠSur ace
ĠPac ific
ĠKas din
ĠKas ungu
ĠKid man
ĠKid ron
ĠLy man
ĠLy bia
ĠGe ert
ĠDem on
ĠDem etri
ĠDes ai
ĠDes mond
ĠDes cart
ĠDonald son
ĠViv re
ĠWol pe
ĠWol metz
ĠChu á»Ļt
ĠChu Ã´ng
Ġwoo hoo
Christ ien
ĠStr oop
ĠStr udwick
ĠUp dike
ĠUt ko
Ġsul phur
ĠAlt iplan
Ġ187 1
Ġ187 2
Ġ188 8
ĠMarc in
ĠBuff et
ĠBuff alo
ĠHirsh berg
ĠDenisov a
ĠSisy phic
Jay ne
Pat rick
Pat ricia
ht iozina
mb iosis
Ġau dio
Ġas phalten
Ġbeat jazz
Ġvá»ĥ nh
ĠTod d
ĠTod orov
ĠCod er
ĠMard er
ĠSar noff
ĠPo ole
ĠPia zzolla
ĠPach ter
ĠPach olke
ĠLiz zi
ĠLyn ne
ĠGard ens
ĠGard ner
ĠDeb orah
ĠRab assa
ĠRich ter
ĠRich mond
ĠJoh anson
ĠFul bright
ĠEb ay
ĠEb en
ĠEb ina
ĠPhilipp ine
ĠChin ua
Äĳá» ģ
ĠJuan ito
ĠElec tric
48 9
Clay ton
Dar ia
EL A
El vis
Jac ek
Jac lyn
Mur ray
She ila
She ikha
dor p
Ġed itor
Ġcl ub
Ġcl one
Ġmod el
Ġmod ule
Ġmix ing
ĠÄĳá»Ŀ n
ĠCorn wall
ĠBul aj
ĠBall ah
ĠBond ar
ĠHuck leberry
ĠSaf ina
ĠTrin ity
ĠUC SF
ifi ed
ĠAnton elli
ensp at
ĠWater ford
ĠKnight s
ĠFerris s
ĠJacob son
Alex ander
Br uce
Cal iban
Cal PER
Im am
Im ogen
Shi mon
Tay lor
Xu áº¥t
cul ter
nháº Ńn
rd ja
Ġmag ma
Ġgr ade
Ġgu an
Ġgu ar
Ġhec tocotylus
ĠTul les
ĠCit ron
ĠMam et
ĠMam oud
ĠMun ich
ĠBai rey
ĠBai can
ĠHem brey
ĠHem mert
ĠHem isphere
ĠHob art
ĠShan ti
ĠShan kar
ĠShan kard
ĠSir ena
ĠLind sey
ĠLind say
ĠDig est
ĠDig ital
ĠRap hael
ĠRaj iv
ĠIN CA
ĠIN TER
ashi an
ĠWell s
ĠWatt s
ĠWatt enberg
ĠEsk imos
ushi ma
ĠXDR TB
Ġ186 2
Ġ186 3
Ġ186 8
ĠMech ai
ĠSimpson s
ĠPlay boy
ĠProject s
ĠMcGon ial
ĠSilver man
ĠSchwartz berg
Af ghan
Angel a
Col eridge
Es ta
Jack ie
Lau ra
Lau ren
Lau rie
Os ama
bá» ı
bach ev
Ġcass ette
Ġcass ete
Ġnap alm
Ġle ishman
ĠmÃº Ã´n
Ġbáº½ o
Ġhem oglobin
ĠTut u
ĠCart a
ĠCart el
ĠMik o
ĠMik ey
ĠMik ko
ĠMod ern
ĠMod ini
ĠBak u
ĠBak er
ĠBak htiozina
ĠHor iz
ĠHipp Ã´crat
ĠAw tin
ĠAw esome
ĠSin ai
ĠPear l
ĠKw ong
ĠKan chi
ĠKan ji
ĠLem on
ĠLem mon
ĠLem mut
ĠLow line
Ġá»ī n
ĠGut enberg
ĠDM V
ĠDam on
ĠDom in
ĠDom inique
ĠDew ar
ĠDow ney
ĠDev il
ĠDev ec
ĠDown s
ĠDown ton
ĠDhar avi
Trá» «u
ĠRas muss
ĠRah man
elop e
Ġsound scap
ĠViag ras
ĠJaw s
ĠJaw ad
ĠOm aha
ĠOm idyar
ĠChe ese
ĠChe ikh
ĠChe apside
ieg fried
acht ree
ĠSchul er
ĠCruz erio
ĠHealth abit
ĠHealth care
ĠKhal ed
ethyl amine
ĠCous ins
weil er
ĠTurk le
ĠTitan ji
Ġcalor ies
rrrr rr
ĠFarm Ville
ĠKamen ji
Ġboom er
ĠVerme ulen
Ġterawatt s
ĠGulf stream
ĠBionic les
84 9
CD C
CS P
Don ough
Gr and
Gr ace
Luc y
Nic olas
ea awww
mal ya
tá» ķ
tá» Ľi
tá» ķng
Ã¶ ller
Ġvo Ãł
Ġkar aoke
ĠTe ach
ĠTil onia
ĠTho Ã¡t
ĠTus inia
ĠTab ick
ĠTab ern
ĠTill emann
ĠNad ia
ĠNad kami
ĠBau er
ĠBeck ett
ĠHell as
ĠHers h
ĠHers man
ĠAy kro
ĠAud en
ĠAud ur
ĠSl ater
ĠSOL Es
Ġphen ethylamine
ĠPen insula
ĠPen elope
ĠPent agon
ĠKrist a
ĠKrist en
ĠLess er
ĠGa fiÄĩ
ĠDaw n
ĠDaw esar
ĠRan j
ĠRev olution
ĠVill eneuve
ĠVul can
ĠVent uri
ĠJet sons
ĠFI SA
ĠFlow ler
ĠUNA MA
ryn in
ĠShin erama
ĠCanal es
ĠBarric ini
ĠTEDxB erlin
ĠTEDxB loomington
Khal ed
Khal ida
ĠMahab uba
ĠMorris on
Philip se
ĠFriend s
ĠFriend ster
ĠESP Ys
ĠMotor ola
ĠMotor City
hodops ins
Ġparab Ã´n
ĠHutch inson
ĠSprings teen
ĠGross er
22 6
Ab raham
Bar ack
CO M
Ex upery
Hu hh
La etitia
Mik ko
Roy ce
iet y
koff ler
nhá» Ľ
nhá» Ŀ
thÃ¡ ng
Ã¸ l
Ġang our
Ġïľ ĥ
áºł C
áºł nh
Ġtong kon
Ġhe art
Ġhe alth
Ġpl astic
ĠTang ram
ĠTown send
ĠCab inet
ĠMes lin
ĠMes opotam
ĠMick ey
ĠMut homi
ĠMach ine
ĠMach ado
ĠMach over
ĠMug sy
ĠNH áºłC
ĠNab ati
ĠBR T
ĠBj ork
ĠBran son
ĠBran cusi
ĠBed i
ĠBed ouin
ĠBass ler
ĠAk an
ĠSS L
ĠSS RI
ĠSat yanarayan
ĠSev itha
ĠSev enth
ĠPash to
ĠKath ryn
ĠKath arine
ĠKaf kian
ĠLiv ingstone
ĠLip son
ĠLip itor
ĠGun ung
ĠGun sm
ĠDut ch
ĠRoth emund
elin de
ator ial
ĠWI SE
ĠWald o
ĠFl ag
ĠFl olan
ĠFren kel
ĠNgá» §
ĠHog stadter
thu áº¿
ĠXo ay
ĠAless i
ĠAless andro
Ġfu ju
Ġhipp ocamp
ĠConst able
ĠAnat otitan
ĠBren Ã©
ĠBren cher
ucc ino
Ġcarb apenem
ĠTahi tan
ĠSpeed o
ĠSpeed Strip
ĠBlak emore
ĠBarn ard
ĠBarn aby
ĠTEDxS ummit
ĠAndre essen
ĠAppalach ia
ĠAppalach ian
ĠAppalach ians
ĠAdventist s
ĠAcc ra
ĠAcc ess
ĠHercul ano
ĠWei wei
Stew ard
Ġsulfur ic
ĠPachycephal osaur
ĠCitiz en
68 245
Bern ard
Deb orah
DAR PA
En tropy
GhÃ ª
GhÃ ©p
Greg ory
Jar rett
Jar reth
Mor in
Mad eleine
Nan Ã¡
kháº ¯c
pl atin
zu ka
ĠÍ ģ
Ġbr ainst
Ġgháº ¹o
Ġgal actosyl
Ġper use
Ġthink er
ĠTechn olog
Ġdá»ģ nh
ĠCac bon
ĠCad ell
ĠCad illac
ĠCob ley
ĠCob alt
ĠMS NBC
ĠMr acek
ĠMong olia
ĠMmm mm
ĠNY U
ĠNot re
ĠNeb raska
ĠNak uru
ĠNir enberg
ĠNatur ally
ĠHij ri
ĠAid en
ĠST ART
ĠSÃ´ cÃ´la
ĠSang in
ĠSeb asti
ĠSek o
ĠSatur n
Ġyao dong
ĠPa es
ĠPa abo
ĠPass age
ĠPass acag
ĠKite fly
ĠLenn on
ĠLenn ox
ĠLog an
ĠGam ow
ĠGam ley
ĠGart ner
ĠDah bi
ĠDiff rient
ĠRang oon
ĠRang asw
ĠRen o
ĠRus esab
ĠRup al
ĠJak ubowski
ĠWid der
ĠFE MA
ĠFan ton
ĠFan khauser
ĠFam ily
ĠFrid ay
ĠEg lanty
ĠEp stein
ĠEp icur
ĠEy re
ĠOt woma
ĠChem istry
ĠChem ical
ĠYor ick
ĠYor uba
ĠUl tra
ĠUl trasound
ĠUzbek s
Ġfear s
ĠMarin eris
ĠConc ord
ĠConc ertgeb
ĠAnim aris
ĠShap iro
ĠCarib e
Ġ178 8
ĠDool ikahn
ĠBerg bre
ĠMons anto
ĠSpec ter
ĠAbb ott
ĠTEDxR otterdam
ĠTEDxT oronto
ĠLaf itte
ĠEll ison
ĠPretor ia
Albert o
ĠHerz ing
ĠHerz og
ĠWilk es
ĠWilk inson
Há»Ĺ n
ĠWhites ville
ĠPolaroid s
ĠPartners hip
uhuh uhuh
Ġasp artame
ĠPavlo v
ĠPavlo vian
ĠFernand o
ĠFernand ina
ĠLGBT Q
Ahh hh
Bas it
Brit ta
Brit lin
Dor othy
Free Speech
Gold man
Kir sten
Lou ise
Mc Donald
Mon ica
Pe i
Tod d
Vol taire
Wil kins
haus en
khá» ĳi
ná» Ĺi
phá» §
tran s
uton omy
Ã¼ fer
ÃĬ N
ÃĻ NG
ĠÌ ģ
Ġex abytes
Ġart ist
Ġart emis
Ġip od
Ġip hone
Ġvin yl
Ġmot or
Ġmor phine
Ġmul ti
Ġsing le
Ġpol ime
Ġtal k
Ġxent imet
Ġxent imÃ©t
ĠTE RA
ĠThi da
inet obacter
ĠCli ve
ĠCow ley
ĠCent ury
ĠMess age
ĠMies enbo
ĠMÃ©li es
ĠMÃ©li Ã¨
ĠBord en
ĠBord eaux
ĠBod nar
ĠBurg ess
ĠBrid ges
ĠHen ri
ĠHick s
ĠHux ley
ĠHux table
ĠSH een
ĠSP CA
ĠSP ECT
ĠSU NY
ĠSey i
ĠSey mour
ĠSund in
ĠSyn thetic
ĠSEA L
ĠPos ada
ĠPab lo
ĠPab los
ĠPhan ish
ĠPhan tom
ĠPers epolis
ĠKe em
ĠLew es
ĠLud wig
ĠLomb org
ĠDum ais
ĠRy der
ĠRag s
ĠRag av
ĠRoh e
ĠRoh wed
ĠRou kaerts
ĠIde alab
ĠVac lav
ĠVac anti
ĠVod acom
ĠVod afone
ĠVern a
ĠVern acchio
ĠJas per
ĠJol ie
ĠJorg en
ĠJorg ensen
asw amy
ĠFel ix
ĠFair uz
ĠEz ra
ĠEqu atorial
ĠEla hi
ĠEla zari
Ġ....... ....
ĠNghi Ãªm
ĠOpp ortunity
ĠChau cer
ĠChau vet
ĠChat field
ĠChat rou
ĠTEDtalk s
Ġinv ite
ĠUsh hidi
ĠAldo us
Ġfr uct
Ġfr actal
ĠBros nan
ĠZak ouma
ĠIshi jima
ĠShai kh
ĠDogg y
ĠColes cott
ĠParalympic s
ĠTEDxMid west
ĠTEDxMid Atlantic
ĠMaj or
ĠMaj ora
ĠReinh art
ĠReinh old
ĠProt ein
ĠProt otaxites
ĠAnders en
ĠTomas dottir
ĠOrw ant
ĠOrw ellian
ĠGrim m
ĠSwaz ey
ĠSwaz iland
ĠAdolf o
ĠEnter pris
ĠBurt ynsky
ĠWars aw
Ġscrot al
Ġscrot um
ĠKymaer ica
ĠKymaer ican
ĠAgra wal
ĠSheep shead
ĠNetwork s
ĠMetric s
ĠMetrop olis
ĠMetrop olitan
ĠGlenn ie
Ġsonic ate
Ġsonic ation
ĠScient ology
ĠPurs at
ĠHumphrey s
ĠNGH E
ĠRudy ard
Ġphosph ate
Ġphosph aryl
ĠGonzal es
ĠGonzal ez
Ġà¸Ńà¸ ¢
Ġà¸Ńà¸ £
ĠReykjav ik
ĠReykjav ÃŃk
193 3
AB ribe
Ag nes
Aqu ila
Aur ora
Bj orn
Ber trand
Dub ai
Ele ctron
Gl enn
Gá» £i
Gal ileo
Hal la
Hol leywood
Hou din
Haz rat
Lyn n
Meg an
Maj ora
Nik ola
Pall ota
Prot ein
Sol oveitchik
Vinc ent
Wik ipedia
dic ombe
gle dy
gok gok
jeb r
mir al
meg en
Ġav atar
ĠnÆ° Ã£
ĠnÆ°á»Ľ u
Ġnat ri
Ġluc ifer
Ġmed dah
Ġmass age
Ġbenz en
Ġkit in
Ġgly cine
Ġhtt p
Ġpes o
Ġvá»ī n
Ġxel ulo
anam o
ĠTs uk
ĠTol stoy
ĠCran brook
ĠCard ini
ĠCut ts
ĠCaj al
ĠCUá» ĺC
ĠMein derts
ĠMund ano
ĠMeh ta
ĠMetro Card
ĠNich ols
ĠBL IS
ĠBia fran
ĠBag head
ĠBoh annon
ĠBik es
ĠBatt lest
ĠBhar at
ĠBunn ell
ĠHur ley
ĠHew lett
ĠHid algo
ĠHann ity
ĠAL U
ĠAre ca
ĠSoc iety
ĠSec kel
ĠSog nefj
ĠSBI R
ĠPG A
ĠPud dicombe
ĠPros pero
ĠPean uts
ĠPix ar
ĠKel ley
ĠKard ashian
ĠKub la
ĠKart ikeya
ĠKoy czan
ĠKumb aya
ĠLot us
ĠLor enzetti
ĠLus kin
ĠLand olina
ĠList ening
ĠLek uton
ĠGb la
ĠGor bachev
ĠGom er
ĠGing erbread
ĠGris com
ĠGlob e
ĠGetty sburg
ĠTrad ing
ĠTroll back
ĠDj ibouti
ĠDic tionary
ĠDil ma
ĠDob rynin
ĠDra ke
ĠDir k
ĠDud ley
Ġemp ower
ĠRF ID
ĠRum sfeld
ĠRott weiler
ĠIw asa
ĠIke a
ĠVall es
ĠVers ailles
ĠVeron ica
ĠWak ulla
ĠWhe aties
ĠWitt en
ĠFis ke
ĠFah renheit
ĠFut ure
ĠFour square
ĠChav ez
ĠChamb ers
rak ow
ĠHour is
ĠInver leith
ĠStat en
ĠXen ophon
Ġ123 456
ĠAlh urra
Ġfre eflying
ĠMarg onelli
ĠMaris hane
ĠBres ler
ĠZac aton
awes i
ĠShuk la
ĠShuff le
ĠAmb rogio
Ġrupe es
ĠScar lett
ĠSanj iv
ĠMcE wen
ĠRobo Cup
ĠBerken stock
Ġbuff et
ĠSpir it
ĠBlan ton
ĠWikile aks
ĠMahi shas
ĠPrin ima
ĠCoun try
ĠAdv il
ĠAden ike
ĠEnt ropia
ĠMicron esia
ĠShil ale
ĠUnder koffler
ĠBront Ã«
ĠMute ferrika
ĠAval ok
Ġspec ies
ĠMaur itius
ĠMaurit ania
ĠRadi ohead
ĠUrb ana
ĠTyp ography
ĠTyrann osaurus
ĠCurios ity
Juli ana
Ġarch itecture
Ġargh s
ĠPiar co
ĠLynch burg
ĠDayton a
Ġgradi en
Ġheads et
ĠMaison nier
ĠBaumg ardner
ĠBrigh am
ĠSokol off
ĠCourt ine
ĠKunst pr
ĠChesape ake
ĠKHÃĶ NG
ĠMoussao ui
ĠHobsbaw m
ĠWernick e
ĠWoznia k
Ach illes
Agli o
Bel shazzar
Bol tzmann
Bri en
Boy d
Cos ta
Cac ilda
Cur itiba
Coch rane
Dem ocracyOS
Dig iNotar
Dop amine
Edin burgh
Fold it
Fior enzo
Gir l
Geron imo
Há»« m
Iwe ala
Jai me
Jam il
Kak enya
Kib era
Kris py
Krist a
Lo áº¡t
Law rence
Leon ardo
Mu hammad
Mard uk
Moh am
Mir anda
Mall ory
Net flix
Naj muddin
Oli ver
Pl ato
Pop corn
Pak istan
Pear l
Pette ngill
Ru fus
Russ ell
Rez ero
Sk ylar
Seb asti
SEA S
Tw itter
Ton ya
Tar yn
Ur sus
Vit amin
Vent ura
Wang ari
Was hington
Woo o
Ward eh
Wood stock
Yos si
Ziy ah
bil isi
flow er
haz y
millar ia
ped ition
tamb o
zol atti
ĠÃ¢ Ã½
Ġoc culter
Ġoop s
Ġtechn o
Ġcum arin
Ġled ed
Ġlip id
Ġmas c
Ġmani oc
Ġmunk ank
ĠkhÃº m
Ġkath as
Ġkines in
Ġsch izoph
Ġgau ge
Ġgrap hi
Ġheter ocyc
ĠrÆ°á»£ i
Ġrá»Ł m
Ġrich te
Ġple xi
Ġpist on
Ġpix el
Ġduá» Ľi
Ġdeb it
Ġdact yl
Ġtapi oca
ĠxÃº Ã¢t
Ġxil anh
Ġxyan ua
Ġxteo it
Ġnghuá» ĩch
chest ra
ĠTzem ach
Ġhost ing
onnes ian
ĠCah ana
ĠCilli ers
ĠCier o
ĠCCT V
ĠCraw ford
ĠCsiks zent
Ġtorr ent
Ġtoqborn i
ĠMood y
ĠMazz ucato
ĠMobs oft
ĠMout ain
eoxy hemoglobin
eminist ing
hist hira
ĠNur emberg
ĠNex i
ĠNaw az
ĠNip arko
ĠNail s
ĠNies e
ĠNij megen
ĠNava jo
ĠBim ini
ĠBid dle
ĠBast awrous
ĠBitt man
ĠBAS IC
ĠBIá» ĤN
ĠButen andt
ĠBÃĻ M
ĠHil ary
ĠHib ridos
ĠHend rix
ĠHaj i
ĠHistor ic
ĠHÃĥ Y
ĠAed es
ĠAky ol
ĠAja x
ĠACT A
ĠATL AS
ĠASDF ASDF
ĠAamod t
ĠSul awesi
ĠSip es
ĠSier re
ĠSoft y
ĠSny der
ĠSever in
ĠSister ma
ĠSvit ak
ĠSassel ov
ĠSask atchewan
ĠSukh dev
Ġdood le
Ġdough nut
ĠPec cerelli
ĠPaw lyn
ĠPeg gy
ĠPoy nter
ĠPern od
ĠPagan ini
ĠPelop onnesian
ĠPEP FAR
ĠKand ahar
ĠKore ngal
ĠKess ler
ĠKov acs
ĠKaland ar
ĠKacy ra
ĠKosh alek
ĠLis bon
ĠLop ez
ĠLav elle
ĠLul lin
ĠLub lin
ĠLMA O
ĠLyd mar
ĠGos linga
ĠGah r
ĠGhe z
ĠGach ter
ĠGaul le
ĠGug genheim
ĠGlor ia
ĠGott fried
ĠGCH Q
ĠGurga on
ĠGadda fi
ĠTraf algar
ĠDone gal
ĠDett mer
ĠDef ense
ĠDrap er
ĠDoll s
ĠDulu th
ĠDrive Grip
ĠDopp ler
Trans istor
osth enes
ĠRoi zen
ĠRop er
ĠRib ad
ĠRut gers
ĠRach man
ĠRath a
ĠRiz zolatti
ĠRens ink
ĠRaptop oulos
ĠRever end
ĠRout emaster
ĠRunn ion
ĠROW E
ĠIcar us
ĠIkar ia
ĠIqui que
Ġsomet hing
Ġsodok u
Ġsopran o
ĠVeb len
ĠVoc aliD
ĠVeas ey
ĠJeb b
ĠJod rell
ĠJero en
ĠJAW S
Ġbabush kas
ĠWac o
ĠWig ler
ĠWess ling
ĠWeet jens
ĠWinc onsin
ĠWold hek
ĠWhar ton
ĠWelling ton
ĠFur stenberg
ĠForg acs
ĠFigh ter
ĠFAR C
ĠFeyer abend
ĠFlipp er
ĠFais al
ĠEti enne
ĠEster hazy
ĠEchel man
ĠEetwid omayloh
acad abra
ĠOef ner
ĠOdon il
ĠOLP C
ĠOcc up
ĠOyes ola
ĠChord ata
ĠChapp atte
ĠYud histhira
ĠYut aka
ĠYog i
ĠYuk on
ĠYadi ra
ĠYvon ne
ĠYanuk ovych
raxeo logy
ĠHoud ini
ĠHokus ai
ĠTEDSal on
Ġanth rophony
Ġbante ng
Ġwee eaawww
Chell man
ĠIndi ra
ĠIncon venient
ĠInnoc ent
ĠStik ine
ĠStair master
ĠStÃ¸ re
ĠSticky bot
Ġcaff ein
ĠUcr aina
ĠUvul ites
ĠXKey score
ĠbÃŃpp p
ĠAlthuss er
ĠGibr altar
ĠGiuli ani
Quix otic
ubhend u
ĠContin uum
ĠConne ally
ĠConner y
ĠAnanth aswamy
ĠBrath w
ĠBromp ton
ĠBrunsw ick
ĠZanz ibar
ĠZalaz nick
ĠAfrika an
ĠShino zuka
ĠShaf ak
ĠShaba ab
ĠSherat on
ĠAfghn istan
ĠAixÆ¡ len
Ġproteas e
ĠAmund sen
ĠScuins t
codefor america
ĠToast ed
ĠToots ie
ĠSantia go
ĠBrakar z
ĠMcRa e
ĠMcWh orter
ĠColant uono
ĠHyDRA S
Ġcarbox ylic
ĠBerlus coni
ĠMonoch rom
ĠLeicester shire
Ġnanocar bon
ĠParagu ay
ĠBengh azi
ĠEdmont osaurus
ĠBensc oter
ĠSmiley Girl
ĠTEDxPS U
ĠTEDxAm sterdam
ĠTEDxPe achtree
ĠWikipe ida
ĠLaxmin arayan
ĠSchump eter
ĠSchoon over
ĠMafund ikwa
ĠdeChar ms
ĠdeNap oli
amieyese igha
ĠOkrain ec
ĠKhrush chev
ĠNASDA Q
ĠPetsk o
ĠvanEngels dorp
ĠMalale uca
ĠIndonex ia
atchidan anda
ĠOresk es
ĠOrgan ization
ĠGranhol m
ĠGuant anamo
ĠClaus en
ĠMancus o
ĠMadrass a
ĠWallaj eh
ĠCENT COM
ĠMengatou e
ĠGalact ica
ĠEnvir onment
ĠAcquist i
ĠAcarog lu
ĠKarnat aka
ĠMahlas ela
ĠApocaly pse
Ġseronton in
ĠShakethe Dust
ĠKyrgy z
ĠCappad occia
ĠHeroul t
ĠMilosev ic
ĠMilwauk ee
ĠBaluch istan
ĠAirplan e
ĠSerfa as
ĠEurost ar
Ġnitrosothi ols
ĠSalvad or
ĠRoMe La
ĠMatxcov a
ĠProfound er
ĠAuschi witz
ĠKatrag adda
ĠLangerhan s
ĠTelegrap h
ĠTerraf ugia
ĠViravaid ya
Ġsandwhi ch
Ġpolyethyl ene
ĠBellev ue
ĠCorvis art
ĠSoljac ic
ĠSolzhen itsyn
ĠSolidari ot
ĠSadows ky
ĠKraste v
ĠAcheu lian
ĠAnnunzia ta
ĠSnupp y
ĠUNITA ID
ĠVolksw agen
ĠAlbemar le
Ġgravit on
ĠNovograt z
Ġneocor tex
ĠNarayan an
ĠLabrad or
ĠOllantay tambo
ĠYoungmeNow me
Ġepineph rine
ĠDemetri os
ĠDescart es
ĠAltiplan o
Ġasphalten e
CalPER S
ĠShankard ass
ĠINTER POL
Afghan istan
Ġleishman iasis
ĠRasmuss en
Ġsoundscap es
ĠHealthabit at
ĠAykro yd
Ġtongkon an
ĠMesopotam ia
ĠGunsm oke
Ġhippocamp us
ĠPachycephalosaur s
68245 837
Ġbrainst orming
ĠTechnolog ies
ĠPassacag lia
ĠKitefly er
ĠRangasw ami
ĠRusesab agina
ĠEglanty ne
ĠEpicur us
ĠConcertgeb ouw
ĠBergbre iter
Ġartemis inin
ĠMiesenbo eck
ĠRohwed der
Ġfruct ose
ĠEnterpris e
ĠMeinderts ma
ĠBattlest ar
ĠSognefj ord
ĠKunstpr Ã¼fer
Ġschizoph onia
Ġheterocyc lic
