{
    "<s>": 0,
    "<pad>": 1,
    "</s>": 2,
    "<unk>": 3,
    "<mask>": 4,
    "!": 5,
    "\"": 6,
    "#": 7,
    "$": 8,
    "%": 9,
    "&": 10,
    "'": 11,
    "(": 12,
    ")": 13,
    "*": 14,
    "+": 15,
    ",": 16,
    "-": 17,
    ".": 18,
    "/": 19,
    "0": 20,
    "1": 21,
    "2": 22,
    "3": 23,
    "4": 24,
    "5": 25,
    "6": 26,
    "7": 27,
    "8": 28,
    "9": 29,
    ":": 30,
    ";": 31,
    "<": 32,
    "=": 33,
    ">": 34,
    "?": 35,
    "@": 36,
    "A": 37,
    "B": 38,
    "C": 39,
    "D": 40,
    "E": 41,
    "F": 42,
    "G": 43,
    "H": 44,
    "I": 45,
    "J": 46,
    "K": 47,
    "L": 48,
    "M": 49,
    "N": 50,
    "O": 51,
    "P": 52,
    "Q": 53,
    "R": 54,
    "S": 55,
    "T": 56,
    "U": 57,
    "V": 58,
    "W": 59,
    "X": 60,
    "Y": 61,
    "Z": 62,
    "[": 63,
    "\\": 64,
    "]": 65,
    "^": 66,
    "_": 67,
    "`": 68,
    "a": 69,
    "b": 70,
    "c": 71,
    "d": 72,
    "e": 73,
    "f": 74,
    "g": 75,
    "h": 76,
    "i": 77,
    "j": 78,
    "k": 79,
    "l": 80,
    "m": 81,
    "n": 82,
    "o": 83,
    "p": 84,
    "q": 85,
    "r": 86,
    "s": 87,
    "t": 88,
    "u": 89,
    "v": 90,
    "w": 91,
    "x": 92,
    "y": 93,
    "z": 94,
    "{": 95,
    "|": 96,
    "}": 97,
    "~": 98,
    "¡": 99,
    "¢": 100,
    "£": 101,
    "¤": 102,
    "¥": 103,
    "¦": 104,
    "§": 105,
    "¨": 106,
    "©": 107,
    "ª": 108,
    "«": 109,
    "¬": 110,
    "®": 111,
    "¯": 112,
    "°": 113,
    "±": 114,
    "²": 115,
    "³": 116,
    "´": 117,
    "µ": 118,
    "¶": 119,
    "·": 120,
    "¸": 121,
    "¹": 122,
    "º": 123,
    "»": 124,
    "¼": 125,
    "½": 126,
    "¾": 127,
    "¿": 128,
    "À": 129,
    "Á": 130,
    "Â": 131,
    "Ã": 132,
    "Ä": 133,
    "Å": 134,
    "Æ": 135,
    "Ç": 136,
    "È": 137,
    "É": 138,
    "Ê": 139,
    "Ë": 140,
    "Ì": 141,
    "Í": 142,
    "Î": 143,
    "Ï": 144,
    "Ð": 145,
    "Ñ": 146,
    "Ò": 147,
    "Ó": 148,
    "Ô": 149,
    "Õ": 150,
    "Ö": 151,
    "×": 152,
    "Ø": 153,
    "Ù": 154,
    "Ú": 155,
    "Û": 156,
    "Ü": 157,
    "Ý": 158,
    "Þ": 159,
    "ß": 160,
    "à": 161,
    "á": 162,
    "â": 163,
    "ã": 164,
    "ä": 165,
    "å": 166,
    "æ": 167,
    "ç": 168,
    "è": 169,
    "é": 170,
    "ê": 171,
    "ë": 172,
    "ì": 173,
    "í": 174,
    "î": 175,
    "ï": 176,
    "ð": 177,
    "ñ": 178,
    "ò": 179,
    "ó": 180,
    "ô": 181,
    "õ": 182,
    "ö": 183,
    "÷": 184,
    "ø": 185,
    "ù": 186,
    "ú": 187,
    "û": 188,
    "ü": 189,
    "ý": 190,
    "þ": 191,
    "ÿ": 192,
    "Ā": 193,
    "ā": 194,
    "Ă": 195,
    "ă": 196,
    "Ą": 197,
    "ą": 198,
    "Ć": 199,
    "ć": 200,
    "Ĉ": 201,
    "ĉ": 202,
    "Ċ": 203,
    "ċ": 204,
    "Č": 205,
    "č": 206,
    "Ď": 207,
    "ď": 208,
    "Đ": 209,
    "đ": 210,
    "Ē": 211,
    "ē": 212,
    "Ĕ": 213,
    "ĕ": 214,
    "Ė": 215,
    "ė": 216,
    "Ę": 217,
    "ę": 218,
    "Ě": 219,
    "ě": 220,
    "Ĝ": 221,
    "ĝ": 222,
    "Ğ": 223,
    "ğ": 224,
    "Ġ": 225,
    "ġ": 226,
    "Ģ": 227,
    "ģ": 228,
    "Ĥ": 229,
    "ĥ": 230,
    "Ħ": 231,
    "ħ": 232,
    "Ĩ": 233,
    "ĩ": 234,
    "Ī": 235,
    "ī": 236,
    "Ĭ": 237,
    "ĭ": 238,
    "Į": 239,
    "į": 240,
    "İ": 241,
    "ı": 242,
    "Ĳ": 243,
    "ĳ": 244,
    "Ĵ": 245,
    "ĵ": 246,
    "Ķ": 247,
    "ķ": 248,
    "ĸ": 249,
    "Ĺ": 250,
    "ĺ": 251,
    "Ļ": 252,
    "ļ": 253,
    "Ľ": 254,
    "ľ": 255,
    "Ŀ": 256,
    "ŀ": 257,
    "Ł": 258,
    "ł": 259,
    "Ń": 260,
    "á»": 261,
    "áº": 262,
    "Ġt": 263,
    "ng": 264,
    "Ġc": 265,
    "Ãł": 266,
    "ĠÄ": 267,
    "ĠÄĳ": 268,
    "Ġn": 269,
    "há»": 270,
    "hÃ": 271,
    "Ġv": 272,
    "Ġl": 273,
    "Æ°": 274,
    "Ġm": 275,
    "Ġ,": 276,
    "Ġb": 277,
    "Ã³": 278,
    "Ġ.": 279,
    "Ġk": 280,
    "iá»": 281,
    "háº": 282,
    "Ã´": 283,
    "Ã¡": 284,
    "nh": 285,
    "Ġs": 286,
    "Ġtr": 287,
    "Æ°á»": 288,
    "áº¡": 289,
    "á»Ļ": 290,
    "Ġng": 291,
    "Ġg": 292,
    "ĠlÃł": 293,
    "áº¿": 294,
    "Ã´i": 295,
    "ĠvÃł": 296,
    "Ġh": 297,
    "Ġthá»": 298,
    "áº£": 299,
    "Ġr": 300,
    "Ãª": 301,
    "hÃº": 302,
    "á»Ļt": 303,
    "Ġp": 304,
    "Ġd": 305,
    "ĠÄĳá»": 306,
    "ĠtÃ´i": 307,
    "Ġnh": 308,
    "qu": 309,
    "Ġcá»": 310,
    "Ġvá»": 311,
    "Ġmá»Ļt": 312,
    "áº¥": 313,
    "ĠcÃ³": 314,
    "ĠkhÃ": 315,
    "Ġch": 316,
    "hÃºng": 317,
    "Ãªn": 318,
    "ĠcÃ¡": 319,
    "Ġth": 320,
    "Ã¬": 321,
    "¯ng": 322,
    "Ġnhá»": 323,
    "á»ĳ": 324,
    "iá»ĩ": 325,
    "Ã¢": 326,
    "Ġhá»": 327,
    "Ŀi": 328,
    "Æ¡": 329,
    "Ľi": 330,
    "Ġnhá»¯ng": 331,
    "Ġtháº": 332,
    "ĠchÃºng": 333,
    "Ġcá»§": 334,
    "Ġcá»§a": 335,
    "´ng": 336,
    "iáº¿": 337,
    "Ġtá»": 338,
    "áº¡n": 339,
    "Ġta": 340,
    "Ã£": 341,
    "ĠcÃ¡c": 342,
    "ĠnÃł": 343,
    "Ġqu": 344,
    "iá»ģ": 345,
    "ĠkhÃ´ng": 346,
    "Æ°á»£": 347,
    "ĠnÃ³": 348,
    "á»Ł": 349,
    "áº§": 350,
    "ong": 351,
    "áºŃ": 352,
    "Æ°á»Ŀi": 353,
    "á»±": 354,
    "Ġgi": 355,
    "ĠÄĳÃ³": 356,
    "Ġx": 357,
    "iá»ģu": 358,
    "ĠngÆ°á»Ŀi": 359,
    "Ġbáº¡n": 360,
    "Ġkh": 361,
    "áº¥t": 362,
    "áº¡i": 363,
    "Ġtrong": 364,
    "Ġthá»ĥ": 365,
    "Æ°á»£c": 366,
    "uy": 367,
    "ĠnÃły": 368,
    "ĠÄĳÃ£": 369,
    "Ġchá»": 370,
    "Äĥ": 371,
    "ĠÄĳÆ°á»£c": 372,
    "ĠthÃ": 373,
    "ĠnhÆ°": 374,
    "Ã¢y": 375,
    "Ġhá»į": 376,
    "ot": 377,
    "Ġ&": 378,
    "Ġpháº": 379,
    "Ġvá»Ľi": 380,
    "Ġngh": 381,
    "quot": 382,
    "Ġcho": 383,
    "an": 384,
    "VÃł": 385,
    "ay": 386,
    "Ġra": 387,
    "Ġsáº": 388,
    "Ġsá»±": 389,
    "Ġgiá»": 390,
    "ĠmÃł": 391,
    "ĠlÃłm": 392,
    "ch": 393,
    "Ã´ng": 394,
    "áº±": 395,
    "Ġnháº": 396,
    "ang": 397,
    "ĠphÃ": 398,
    "á»į": 399,
    "Ġá»Ł": 400,
    "iÃªn": 401,
    "áº±ng": 402,
    "ĠÄĳá»ĥ": 403,
    "Ġcáº£": 404,
    "Ġvá»ģ": 405,
    "ÃŃ": 406,
    "Ã¬nh": 407,
    "Ġsáº½": 408,
    "Ġbá»": 409,
    "uá»ĳ": 410,
    "Æ¡n": 411,
    "iáº¿t": 412,
    "iá»ĥ": 413,
    "£i": 414,
    "ĠÄĳiá»ģu": 415,
    "Ä©": 416,
    "áº·": 417,
    "Ġtháº¿": 418,
    "ĠT": 419,
    "Ġlá»": 420,
    "Ġho": 421,
    "on": 422,
    "Æ°á»Ľ": 423,
    "áº¿n": 424,
    "áº§u": 425,
    "áº¯": 426,
    "Ġtá»«": 427,
    "Ġkhi": 428,
    "Ãłnh": 429,
    "©ng": 430,
    "uyá»": 431,
    "anh": 432,
    "ĠkhÃ¡": 433,
    "Ã¹": 434,
    "±c": 435,
    "ĠnÃ³i": 436,
    "Ġsá»ĳ": 437,
    "áº§n": 438,
    "inh": 439,
    "ao": 440,
    "Ġdá»": 441,
    "ai": 442,
    "Ġcháº": 443,
    "ĠchÃ": 444,
    "©c": 445,
    "iá»ĩn": 446,
    "Ãº": 447,
    "ĠnÄĥ": 448,
    "ĠÄĳáº¿n": 449,
    "Ġtháº¥": 450,
    "Ġ1": 451,
    "ĠhÃ": 452,
    "Ġ?": 453,
    "Ġpháº£i": 454,
    "ĠnhÃ": 455,
    "iá»ĩc": 456,
    "Æ°á»Ŀ": 457,
    "Æ°á»Ľc": 458,
    "Ã²": 459,
    "ÄĲ": 460,
    "Ġráº±ng": 461,
    "ĠvÃło": 462,
    "ĠgÃ¬": 463,
    "ĠÄĳang": 464,
    "Æ°á»Ŀng": 465,
    "Ġmá»": 466,
    "Ġviá»ĩc": 467,
    "Ãłn": 468,
    "au": 469,
    "Ġláº¡i": 470,
    "ĠváºŃ": 471,
    "Ġtháº¥y": 472,
    "ĠnghÄ©": 473,
    "ĠÄĳá»Ļ": 474,
    "Ġráº¥t": 475,
    "ĠcÃ¡ch": 476,
    "Ã½": 477,
    "ĠhÆ¡n": 478,
    "in": 479,
    "Ġná»": 480,
    "áº¥y": 481,
    "ĠC": 482,
    "Ġnhiá»ģu": 483,
    "Æ°Æ¡": 484,
    "Ãłi": 485,
    "¢n": 486,
    "áº£n": 487,
    "Ġháº": 488,
    "Ġthá»±c": 489,
    "Ã¹ng": 490,
    "iáº¿n": 491,
    "TÃ´i": 492,
    "Æ°Æ¡ng": 493,
    "ĠÄĳáº§u": 494,
    "¥t": 495,
    "ĠÄĳÃ¢y": 496,
    "Ġ-": 497,
    "Ġhá»įc": 498,
    "ĠkhÃ¡c": 499,
    "Ġcon": 500,
    "ķi": 501,
    "á»įi": 502,
    "Ġchá»ī": 503,
    "Ã¢u": 504,
    "áº¡o": 505,
    "Ġsá»": 506,
    "ĠcÃ´ng": 507,
    "áº¿u": 508,
    "ĠtrÃªn": 509,
    "á»ĵ": 510,
    "Ã¡c": 511,
    "ĠcÃ¡i": 512,
    "ĠnÃło": 513,
    "Ġbiáº¿t": 514,
    "áº¿t": 515,
    "ĠvÃ¬": 516,
    "ĠÄĳá»ģ": 517,
    "ĠchÃŃ": 518,
    "ung": 519,
    "Ãłng": 520,
    "Ġphá»": 521,
    "uyá»ĩ": 522,
    "iá»ĩu": 523,
    "ĠphÃ¡": 524,
    "Nh": 525,
    "ĠnÄĥm": 526,
    "Å©ng": 527,
    "Æ¡i": 528,
    "ĠÄĳi": 529,
    "uá»ĳn": 530,
    "Ġthá»©": 531,
    "Ġdá»¥": 532,
    "ĠthÃłnh": 533,
    "á»Ļc": 534,
    "Ġ:": 535,
    "áº¯t": 536,
    "Ġ--": 537,
    "Æ°ng": 538,
    "ĠcÅ©ng": 539,
    "ĠnhÃł": 540,
    "ChÃºng": 541,
    "uá»Ļc": 542,
    "ĳng": 543,
    "Ġbá»ĭ": 544,
    "Ġto": 545,
    "ĠM": 546,
    "áº»": 547,
    "Ġkho": 548,
    "Ġquan": 549,
    "Ġmuá»ĳn": 550,
    "ĠsÃ¡": 551,
    "ĠtháºŃ": 552,
    "eo": 553,
    "em": 554,
    "ĠnháºŃ": 555,
    "¯a": 556,
    "ĠmÃ¬nh": 557,
    "hi": 558,
    "Ġtrá»": 559,
    "Ġnháº¥t": 560,
    "Ġká»": 561,
    "NhÆ°ng": 562,
    "Æ°á»Ł": 563,
    "ĠN": 564,
    "ĠchÃŃnh": 565,
    "áº«": 566,
    "Ġtáº¡o": 567,
    "Æ°á»Łng": 568,
    "ĠÄĳá»Ļng": 569,
    "Ġtá»ĳ": 570,
    "ĠB": 571,
    "Ġgiá»Ľi": 572,
    "ĠnhÆ°ng": 573,
    "Ġlo": 574,
    "ĠnÃªn": 575,
    "Ġgiáº£": 576,
    "á»Łi": 577,
    "ĠváºŃy": 578,
    "ģn": 579,
    "Ãły": 580,
    "áº·t": 581,
    "§n": 582,
    "¬nh": 583,
    "Ġlá»Ľ": 584,
    "ĠhÃ¬nh": 585,
    "Ãªu": 586,
    "Æ°a": 587,
    "Ã²n": 588,
    "ıi": 589,
    "Ġhiá»ĩn": 590,
    "iá»ĥu": 591,
    "Ġgiá»Ŀ": 592,
    "ĠtÃŃ": 593,
    "Ã¢n": 594,
    "Ġsá»ĳng": 595,
    "uyá»ĩn": 596,
    "Ġtiáº¿": 597,
    "Ġtáº¡i": 598,
    "Ġmá»įi": 599,
    "ĠnháºŃn": 600,
    "Ã¡i": 601,
    "áº¥n": 602,
    "Ġnáº¿u": 603,
    "Æ°á»£ng": 604,
    "uá»": 605,
    "er": 606,
    "Ġquy": 607,
    "ĠH": 608,
    "¬n": 609,
    "Ġcuá»Ļc": 610,
    "Ã©": 611,
    "Ġcáº§n": 612,
    "am": 613,
    "ĥn": 614,
    "Ã¡n": 615,
    "Ġhay": 616,
    "Ġtá»±": 617,
    "áº·c": 618,
    "áºŃp": 619,
    "uáºŃ": 620,
    "á»ĵi": 621,
    "Ġ2": 622,
    "ĠthÃ¬": 623,
    "Ã¢m": 624,
    "ĠÄĳá»ĭ": 625,
    "00": 626,
    "ĠÄĳá»ĵ": 627,
    "ĠÄĲ": 628,
    "Ġtáº¥t": 629,
    "Ġáº¥y": 630,
    "ĠÃ´ng": 631,
    "Ġtá»Ľi": 632,
    "Ġbáº¯t": 633,
    "en": 634,
    "Ġtheo": 635,
    "Ġbá»Łi": 636,
    "ĠcÃ²n": 637,
    "ĠA": 638,
    "Ġlá»Ľn": 639,
    "iá»ĥm": 640,
    "ĠnhÃ¬n": 641,
    "ĠÄĳÃ¡": 642,
    "ĠcÃ¹ng": 643,
    "áº«n": 644,
    "ĠÃ½": 645,
    "Ġbáº±ng": 646,
    "iá»ĥn": 647,
    "Ġcáº£m": 648,
    "Ġtáº¿": 649,
    "Ġdá»¥ng": 650,
    "Ãºc": 651,
    "Ġcá»©": 652,
    "ĠlÃªn": 653,
    "ĠtháºŃt": 654,
    "Ġsau": 655,
    "Ġanh": 656,
    "Ġbáº£n": 657,
    "ĠcÃ¢u": 658,
    "ĠgiÃ¡": 659,
    "Ġtin": 660,
    "Ġsao": 661,
    "Ġthá»Ŀi": 662,
    "Ġqua": 663,
    "Ġchuyá»ĩn": 664,
    "Ġtrá»Ł": 665,
    "Ġkhá»": 666,
    "ĠnhÃ¢n": 667,
    "ĠngÃły": 668,
    "ĠS": 669,
    "iá»ĩm": 670,
    "Ã´n": 671,
    "Ġbá»Ļ": 672,
    "ĠcÆ¡": 673,
    "Ġhá»Ļ": 674,
    "Äĥn": 675,
    "Ġkháº": 676,
    "Ġsinh": 677,
    "Ĺi": 678,
    "ĳi": 679,
    "¥c": 680,
    "áº£nh": 681,
    "ĠthÃŃ": 682,
    "áº£ng": 683,
    "ĠnÄĥng": 684,
    "Ġsá»Ń": 685,
    "ĠtrÆ°á»Ľc": 686,
    "ĠphÃ¡t": 687,
    "ĠnÆ°á»Ľc": 688,
    "ia": 689,
    "ĠÄĳá»ķi": 690,
    "iá»ĩt": 691,
    "ĠmÃ¡": 692,
    "ĠtoÃłn": 693,
    "Ġpháº§n": 694,
    "Ã¬m": 695,
    "ĠnÆ¡i": 696,
    "Ġgia": 697,
    "ĠthÃ´ng": 698,
    "Ġdo": 699,
    "Ġnhau": 700,
    "Ġdá»±": 701,
    "ar": 702,
    "ĠtÃ¬m": 703,
    "Ġmá»Ľi": 704,
    "Ġy": 705,
    "Ġthay": 706,
    "ĠÄĳá»ĭnh": 707,
    "Ġváº¥n": 708,
    "Ġhá»ĩ": 709,
    "Ġnghá»": 710,
    "ĠtrÆ°á»Ŀng": 711,
    "ĠnhiÃªn": 712,
    "ĠtrÃ¬nh": 713,
    "ĠtÃŃnh": 714,
    "Ġph": 715,
    "iá»ħ": 716,
    "Ġmáº¡": 717,
    "Ġtá»ĳt": 718,
    "Ġkáº¿t": 719,
    "ĠtÆ°á»Łng": 720,
    "Äĥng": 721,
    "ĠváºŃt": 722,
    "ĠhÃłng": 723,
    "ĠlÃ½": 724,
    "Ġhá»ıi": 725,
    "¿t": 726,
    "ĠP": 727,
    "£p": 728,
    "Ġáº£nh": 729,
    "Ġháº¡": 730,
    "ĠmÃ¡y": 731,
    "ĠK": 732,
    "á»±c": 733,
    "uáºŃt": 734,
    "á»ĳi": 735,
    "ĠTÃ´i": 736,
    "ĠthÃ¡": 737,
    "Ġhá»£p": 738,
    "ĠL": 739,
    "áº¡t": 740,
    "¯c": 741,
    "Ġmáº·t": 742,
    "Ġtiáº¿p": 743,
    "NÃ³": 744,
    "ĠhÃłnh": 745,
    "Ġná»¯a": 746,
    "Ġkinh": 747,
    "³ng": 748,
    "ÄĲÃ¢y": 749,
    "Ġgian": 750,
    "Ġthá»©c": 751,
    "Ġvá»ĭ": 752,
    "Ġhá»Ļi": 753,
    "Ġthiáº¿t": 754,
    "Ġtrá»į": 755,
    "áº¹": 756,
    "Ġá»": 757,
    "áºŃy": 758,
    "Ãło": 759,
    "Ńa": 760,
    "Ġchiáº¿": 761,
    "áº¥u": 762,
    "uyÃªn": 763,
    "Ġrá»ĵi": 764,
    "Ġxem": 765,
    "Ġliá»ĩu": 766,
    "ĠhoÃ¡": 767,
    "Ġtrá»įng": 768,
    "uá»ķi": 769,
    "ĠthÃŃch": 770,
    "ĩnh": 771,
    "áº©": 772,
    "ĠÄĳá»ĵng": 773,
    "ĠcÃ´": 774,
    "áº£o": 775,
    "iá»ħn": 776,
    "Ġgiáº£i": 777,
    "iÃªu": 778,
    "Ġhai": 779,
    "Ġtráº»": 780,
    "ĠquÃ¡": 781,
    "ĠlÆ°á»£ng": 782,
    "Ġai": 783,
    "ĠÄĳo": 784,
    "Ġbáº¥t": 785,
    "ĠvÃłi": 786,
    "ĠÄĳá»ģu": 787,
    "ĠthÆ°á»Ŀng": 788,
    "Ġngá»": 789,
    "áº½": 790,
    "ĠG": 791,
    "ĠtiÃªn": 792,
    "ĠÄĳá»ĳi": 793,
    "ĠsÃ¡ng": 794,
    "á»Ļng": 795,
    "Ġtráº£": 796,
    "Ġloáº¡i": 797,
    "Ġnay": 798,
    "Ġhiá»ĥu": 799,
    "ĠtÃ¢m": 800,
    "áº£y": 801,
    "Ġláº§n": 802,
    "ÄĲÃ³": 803,
    "Ġgiá»ĳng": 804,
    "VÃ¬": 805,
    "ĠthÃº": 806,
    "Ġbá»ĩnh": 807,
    "Ġcá»©u": 808,
    "Ġthá»ĳng": 809,
    "Ġbao": 810,
    "ĭch": 811,
    "Ġ3": 812,
    "Báº¡n": 813,
    "ĠviÃªn": 814,
    "Ã²ng": 815,
    "Ãºng": 816,
    "Ġnghá»ĩ": 817,
    "£y": 818,
    "iá»ģn": 819,
    "ĠÄĳiá»ĥm": 820,
    "Ġngo": 821,
    "hÃºt": 822,
    "ĠnghÄ©a": 823,
    "Ġgá»įi": 824,
    "Ġnhá»ı": 825,
    "ĠTr": 826,
    "áº¯ng": 827,
    "VáºŃy": 828,
    "ĠÄĳÆ°a": 829,
    "ĠtÆ°Æ¡ng": 830,
    "Ġxu": 831,
    "ĠhoÃłn": 832,
    "Ġquáº£": 833,
    "Ġnghiá»ĩm": 834,
    "ĠÄĳÆ°á»Ŀng": 835,
    "uyá»ĥn": 836,
    "ĠD": 837,
    "ĠtÃ¡c": 838,
    "Ġváº«n": 839,
    "or": 840,
    "Ġxáº£y": 841,
    "uyá»ģn": 842,
    "Tr": 843,
    "uyá»ĩt": 844,
    "Äĥm": 845,
    "Ġcá»ĳ": 846,
    "Å©": 847,
    "á»ĳc": 848,
    "Ġchiáº¿c": 849,
    "ĠthuáºŃt": 850,
    "Ġbiá»ĩt": 851,
    "Má»Ļt": 852,
    "ĠÃŃ": 853,
    "ĠdÃ¹ng": 854,
    "ĠÄĳáº¡i": 855,
    "há»¯ng": 856,
    "al": 857,
    "Ġtá»«ng": 858,
    "ĠbÃªn": 859,
    "ĠdÃ¢n": 860,
    "Ġhoáº·c": 861,
    "Ġtriá»ĥn": 862,
    "Ġchuyá»ĥn": 863,
    "iá»ĩp": 864,
    "ĠlÃºc": 865,
    "Ġdiá»ħn": 866,
    "Ã£o": 867,
    "Ġquyáº¿t": 868,
    "«ng": 869,
    "Ġnghe": 870,
    "Ãºp": 871,
    "Ġtrá»ĭ": 872,
    "Ġthu": 873,
    "Ġcao": 874,
    "ĠÄĥn": 875,
    "uÃ´n": 876,
    "Ġdáº¡": 877,
    "Ġvi": 878,
    "áº¯c": 879,
    "Ġtuyá»ĩt": 880,
    "Ġmá»Ĺi": 881,
    "Ġcáº§u": 882,
    "uá»ĳc": 883,
    "uá»ĳi": 884,
    "Ġkhoáº£ng": 885,
    "Ġkáº¿": 886,
    "Ġtá»ķ": 887,
    "Ġlá»±c": 888,
    "Ġcháº¥t": 889,
    "ĠÃ¡": 890,
    "Ġphá»¥": 891,
    "áº¥p": 892,
    "im": 893,
    "ĠbÃ¡": 894,
    "CÃ³": 895,
    "ĠgiÃºp": 896,
    "²ng": 897,
    "Ġlá»Ŀi": 898,
    "Ġem": 899,
    "ĠÄĳáº¥t": 900,
    "ĠgiÃ¡o": 901,
    "es": 902,
    "ĠÆ¡n": 903,
    "©a": 904,
    "Ãµ": 905,
    "Ġtrung": 906,
    "Ġchá»§": 907,
    "áº©n": 908,
    "Há»į": 909,
    "os": 910,
    "Ġtiáº¿n": 911,
    "Ġkháº£": 912,
    "Ġbáº£o": 913,
    "ĠphÃ²ng": 914,
    "Ġháº¿t": 915,
    "Ġná»¯": 916,
    "Æ°á»Ľi": 917,
    "ĠR": 918,
    "ĠchÆ°a": 919,
    "el": 920,
    "Æ°á»Ľng": 921,
    "Ġxuáº¥t": 922,
    "hÃ´ng": 923,
    "ĠtÃ¬nh": 924,
    "ĠnghiÃªn": 925,
    "Ġxe": 926,
    "ĠVÃł": 927,
    "ĠÄĳÆ¡n": 928,
    "Ġmang": 929,
    "ĠliÃªn": 930,
    "á»¹": 931,
    "ĠphÃ¢n": 932,
    "ĠkhÃ³": 933,
    "áº¯n": 934,
    "¥p": 935,
    "ĠbÃłi": 936,
    "Ġtranh": 937,
    "Ġtuá»ķi": 938,
    "ĠÄĳÃºng": 939,
    "Ġtruyá»ģn": 940,
    "ĠtáºŃp": 941,
    "ĠÄĳiá»ĩn": 942,
    "ĠnÃ£o": 943,
    "ĠphÆ°Æ¡ng": 944,
    "ĠbÃ¬nh": 945,
    "ÄĲiá»ģu": 946,
    "ĠÄĳáº·t": 947,
    "©m": 948,
    "ĠtÆ°á»£ng": 949,
    "Ġtay": 950,
    "uá»ĳng": 951,
    "uá»ĵ": 952,
    "Ġbiáº¿n": 953,
    "iÃª": 954,
    "Ġtiá»ģn": 955,
    "©p": 956,
    "Ġsáº£n": 957,
    "Ġtiáº¿ng": 958,
    "Ġgiá»¯a": 959,
    "ĠyÃªu": 960,
    "Ġtho": 961,
    "Ġquyá»": 962,
    "áº§m": 963,
    "áºŃn": 964,
    "áº·p": 965,
    "ĠbÃ©": 966,
    "Ġngay": 967,
    "Ġkhoa": 968,
    "ĠhÃ£y": 969,
    "áº¡c": 970,
    "Náº¿u": 971,
    "Ġbá»ı": 972,
    "Ġláº¥y": 973,
    "ĠtrÃŃ": 974,
    "Ġgáº§n": 975,
    "Ġhoáº¡t": 976,
    "ĠxÃ£": 977,
    "et": 978,
    "Ġnháº¡": 979,
    "Ng": 980,
    "Nhá»¯ng": 981,
    "Ġkhu": 982,
    "ĠÄĳÃ¡ng": 983,
    "Ġchiáº¿n": 984,
    "ĠsÃ¡ch": 985,
    "Ġthá»ĭ": 986,
    "Ġphi": 987,
    "ĠthÃ¢n": 988,
    "Ġpháº©m": 989,
    "ĠI": 990,
    "ĠphÃ¡p": 991,
    "ĠÄĳá»Ŀi": 992,
    "Ġhiá»ĩu": 993,
    "Ġcuá»ĳi": 994,
    "ĠkhÃŃ": 995,
    "Tháº": 996,
    "Ã£y": 997,
    "Ġmáº¥t": 998,
    "ĠchÆ¡i": 999,
    "Ġ5": 1000,
    "uyáº¿t": 1001,
    "Ġsá»©c": 1002,
    "Ġká»ĥ": 1003,
    "á»Ļi": 1004,
    "Ġminh": 1005,
    "Ġso": 1006,
    "ĠhÃ´": 1007,
    "uá»ĵn": 1008,
    "įng": 1009,
    "ĠV": 1010,
    "ĠMá»¹": 1011,
    "Ġmáº¡nh": 1012,
    "Ġnghiá»ĩp": 1013,
    "ĠkÃŃ": 1014,
    "Ã³c": 1015,
    "ĠtÃłi": 1016,
    "ĠngoÃłi": 1017,
    "at": 1018,
    "ĠÃŃt": 1019,
    "Khi": 1020,
    "Ġdáº«n": 1021,
    "is": 1022,
    "¯p": 1023,
    "ĠláºŃp": 1024,
    "Ġchá»į": 1025,
    "Ġbá»©c": 1026,
    "ĠÄĳáº¥y": 1027,
    "«a": 1028,
    "ĠmÃ´": 1029,
    "Ġká»³": 1030,
    "ĠloÃłi": 1031,
    "Ġ4": 1032,
    "ĠluÃ´n": 1033,
    "uáºŃn": 1034,
    "Ġtinh": 1035,
    "ĠxÃ¢y": 1036,
    "Ġrá»": 1037,
    "Ġdá»±ng": 1038,
    "ĠtiÃªu": 1039,
    "Ġcá»Ļng": 1040,
    "Ġphá»ĳ": 1041,
    "ĠvÃ´": 1042,
    "Ã©t": 1043,
    "ĠQ": 1044,
    "ĠtÃªn": 1045,
    "Ġchá»©ng": 1046,
    "ĠvÄĥn": 1047,
    "Ġtá»Ń": 1048,
    "ĠÃ¢m": 1049,
    "ĠhÆ°á»Ľng": 1050,
    "áºŃt": 1051,
    "ic": 1052,
    "Ġhá»ĵ": 1053,
    "Ġchá»įn": 1054,
    "ĠbÃł": 1055,
    "ĠJ": 1056,
    "Ġnháº¡c": 1057,
    "Ġviáº¿t": 1058,
    "ap": 1059,
    "Ġthá»Ń": 1060,
    "Ġá»©ng": 1061,
    "ĠÄĳÃ¢u": 1062,
    "Ġkiáº¿n": 1063,
    "ĠnguyÃªn": 1064,
    "Ġquyá»ģn": 1065,
    "Ġquá»ĳc": 1066,
    "Ġchá»©c": 1067,
    "ua": 1068,
    "Ġgiáº£n": 1069,
    "Ġvá»Ŀi": 1070,
    "ĠÄĳáº·c": 1071,
    "Ġba": 1072,
    "Ġcháº¿": 1073,
    "iáº¿m": 1074,
    "ĠbÃło": 1075,
    "Ġmáº¡ng": 1076,
    "Ġcháº¿t": 1077,
    "ĠtÆ°": 1078,
    "Ġcáº¥p": 1079,
    "Ġbá»ĳ": 1080,
    "Ġvá»¥": 1081,
    "Ġsuy": 1082,
    "Ġtriá»ĩu": 1083,
    "ĠÃ": 1084,
    "Trong": 1085,
    "ĠtÄĥng": 1086,
    "³m": 1087,
    "Ġláº½": 1088,
    "Ġtháº§n": 1089,
    "ĠÄĳáº¡o": 1090,
    "ĠÄĳá»©a": 1091,
    "Ġná»ģn": 1092,
    "áº¡p": 1093,
    "ĠsÄ©": 1094,
    "á»Ń": 1095,
    "£n": 1096,
    "ĠmÃłu": 1097,
    "il": 1098,
    "Ġchu": 1099,
    "áº£m": 1100,
    "Ġkhá»ıi": 1101,
    "CÃ¡c": 1102,
    "as": 1103,
    "Ġmáº¹": 1104,
    "ĠÄĳÃ¡nh": 1105,
    "it": 1106,
    "Ġcá»¥": 1107,
    "Ġtá»ĵ": 1108,
    "Ġdi": 1109,
    "Ġgáº·p": 1110,
    "ĠthÃ¡ng": 1111,
    "¯n": 1112,
    "ĠdÆ°á»Ľi": 1113,
    "ĠchÃºt": 1114,
    "ªm": 1115,
    "áº¥m": 1116,
    "ol": 1117,
    "Ġxuá»ĳng": 1118,
    "áº¹p": 1119,
    "Ġgáº¯ng": 1120,
    "ĠW": 1121,
    "ĠphÃ©p": 1122,
    "Ã¢ng": 1123,
    "ĠÃ¡n": 1124,
    "Ġdá»ĭch": 1125,
    "Ġquanh": 1126,
    "áº§y": 1127,
    "áºŃu": 1128,
    "Ġ..": 1129,
    "ĠF": 1130,
    "Ġkhiáº¿n": 1131,
    "ĠnhÃ³m": 1132,
    "Ġmá»Ł": 1133,
    "Ġ%": 1134,
    "Ġvá»±c": 1135,
    "ĠxÃ¡c": 1136,
    "Ġchia": 1137,
    "Ġdá»¯": 1138,
    "ĠE": 1139,
    "Ã¡ch": 1140,
    "000": 1141,
    "ĠChÃºng": 1142,
    "Ġbay": 1143,
    "Ġtham": 1144,
    "ĠthÃªm": 1145,
    "¢u": 1146,
    "Ġnhanh": 1147,
    "Ġmá»©c": 1148,
    "ĠtrÃ²": 1149,
    "Ġthuyáº¿t": 1150,
    "ĠchÃº": 1151,
    "Ã³ng": 1152,
    "Ġquay": 1153,
    "ĠthÃ´": 1154,
    "Ġdáº¡ng": 1155,
    "Ġ10": 1156,
    "ĠÄĳÃłn": 1157,
    "Ġvá»įng": 1158,
    "Ġcháº¡": 1159,
    "Ġcá»±c": 1160,
    "ĠgÃ¢y": 1161,
    "ĠrÃµ": 1162,
    "Ġnguá»ĵn": 1163,
    "Ġhoáº¡": 1164,
    "ĠvÃ¹ng": 1165,
    "Ġcáº£nh": 1166,
    "ĠAnh": 1167,
    "áº«u": 1168,
    "Ã¨": 1169,
    "ĠbÃ¡o": 1170,
    "vÃł": 1171,
    "ĠÄĳáº¹p": 1172,
    "Ġtá»¥c": 1173,
    "ĠcÃłng": 1174,
    "ĠdÃ¹": 1175,
    "ĠgiÃ¡c": 1176,
    "Ġdá»ħ": 1177,
    "ĠsÃ¡t": 1178,
    "Ġcháº¯c": 1179,
    "Ġtrang": 1180,
    "BÃ¢y": 1181,
    "Ġxa": 1182,
    "áº¯m": 1183,
    "ĠvÃŃ": 1184,
    "ĠcÃ¢y": 1185,
    "ĠbÃ¢y": 1186,
    "Ã¡t": 1187,
    "ĠÄĳá»§": 1188,
    "iÃªng": 1189,
    "KhÃ´ng": 1190,
    "Ġnhá»Ľ": 1191,
    "ĠphÃŃa": 1192,
    "Æ°u": 1193,
    "Ġchá»ĭ": 1194,
    "ĠhÆ°á»Łng": 1195,
    "ĠhÃ´m": 1196,
    "Ġphim": 1197,
    "Ġduy": 1198,
    "Ġbiá»ĥu": 1199,
    "ĠÄĳoáº¡n": 1200,
    "Ġcháº³ng": 1201,
    "le": 1202,
    "Ġ20": 1203,
    "Ġ...": 1204,
    "ĠtrÃ¡i": 1205,
    "Ġkiá»ĥm": 1206,
    "ĠkÃ¬": 1207,
    "Ġ19": 1208,
    "ĠvÅ©": 1209,
    "Ġláº¡": 1210,
    "Ķng": 1211,
    "ĠthÆ°Æ¡ng": 1212,
    "§ng": 1213,
    "ho": 1214,
    "ter": 1215,
    "ĠdÃłi": 1216,
    "ĠvÃ²ng": 1217,
    "ĠNg": 1218,
    "Ńt": 1219,
    "ĠQuá»ĳc": 1220,
    "ĠluáºŃn": 1221,
    "ĠÄĳÃ´i": 1222,
    "Ġpháº£n": 1223,
    "Thá»": 1224,
    "Ġngá»¯": 1225,
    "Ġtu": 1226,
    "uyáº¿n": 1227,
    "ĠÄĳáº§y": 1228,
    "áº£i": 1229,
    "Ġlá»£i": 1230,
    "Ġkia": 1231,
    "Ġdá»¥c": 1232,
    "Ġgiáº£m": 1233,
    "ĠtháºŃm": 1234,
    "Ġkiáº¿m": 1235,
    "HÃ£y": 1236,
    "Ġthuá»ĳc": 1237,
    "Ġty": 1238,
    "Ġvu": 1239,
    "ĠchÃ¢n": 1240,
    "Ġvá»«a": 1241,
    "apos": 1242,
    "ĠtrÄĥm": 1243,
    "ĠtÃŃch": 1244,
    "ĠthÃ´i": 1245,
    "ĠthÆ°": 1246,
    "us": 1247,
    "Ġ;": 1248,
    "ĠÄĳÃ¬nh": 1249,
    "ac": 1250,
    "Æ°á»¡": 1251,
    "and": 1252,
    "ĠbÆ°á»Ľc": 1253,
    "Ġ6": 1254,
    "Ġlá»ĩ": 1255,
    "Ġgiao": 1256,
    "Ãłu": 1257,
    "iáº¿u": 1258,
    "ĠTrung": 1259,
    "Tháº¿": 1260,
    "Ġlai": 1261,
    "Ġháº¡n": 1262,
    "Ġtá»ī": 1263,
    "ĠÄĳÃ´": 1264,
    "Ġtá»ĵn": 1265,
    "ĠsÃ¢u": 1266,
    "Ġtráº£i": 1267,
    "ED": 1268,
    "hÃ¡": 1269,
    "ĠmÃ´i": 1270,
    "Ġtrá»Ŀi": 1271,
    "iá»ģm": 1272,
    "ĠtoÃ¡n": 1273,
    "Ġdiá»ĩn": 1274,
    "Ġphá»§": 1275,
    "Ġrá»Ļng": 1276,
    "ĠmÃ£": 1277,
    "Ġsai": 1278,
    "Ġthanh": 1279,
    "Ġtáº¡p": 1280,
    "Ġgiá»¯": 1281,
    "Ġphá»¥c": 1282,
    "ĠdÃłnh": 1283,
    "uá»ĳt": 1284,
    "įc": 1285,
    "Ġná»ĳi": 1286,
    "ad": 1287,
    "ĠlÃ£": 1288,
    "ĠlÃ²ng": 1289,
    "ĠÄĳoÃ¡n": 1290,
    "Ġthuá»Ļc": 1291,
    "ĠÄĳá»ĭa": 1292,
    "ĠriÃªng": 1293,
    "Ġchi": 1294,
    "om": 1295,
    "Ġsá»£": 1296,
    "ĠÄĳá»©ng": 1297,
    "Ġmáº¯t": 1298,
    "Ġvá»ĩ": 1299,
    "Ġná»ķi": 1300,
    "Ġháº§": 1301,
    "Ġ!": 1302,
    "Ġmá»¥c": 1303,
    "Ġdáº¡y": 1304,
    "ĠTh": 1305,
    "Ġváº»": 1306,
    "ĠÄĳáº¡t": 1307,
    "ĠthÃºc": 1308,
    "ĠO": 1309,
    "ĠnghÃ": 1310,
    "ĠcÄĥn": 1311,
    "ĠluáºŃt": 1312,
    "Ġká»¹": 1313,
    "Ġsáº»": 1314,
    "Ġxung": 1315,
    "Ġmáº«u": 1316,
    "Ġtá»ĳi": 1317,
    "ob": 1318,
    "Ġlá»ĭch": 1319,
    "ur": 1320,
    "ĠPhi": 1321,
    "ĠbÃłn": 1322,
    "ĠÃ¡nh": 1323,
    "ĠÄĳá»įc": 1324,
    "Ġlá»Ľp": 1325,
    "ĠCh": 1326,
    "ĠY": 1327,
    "ĠchÆ°Æ¡ng": 1328,
    "Ãłm": 1329,
    "Ġtrá»¥": 1330,
    "Ġká»·": 1331,
    "Ġyáº¿u": 1332,
    "á»±a": 1333,
    "Ġkháº¯p": 1334,
    "ĠtrÃ´ng": 1335,
    "Ġvui": 1336,
    "Ġtiáº¿t": 1337,
    "Ġkhoáº»": 1338,
    "Ġngá»ĵi": 1339,
    "Ġcháº¡y": 1340,
    "ĠgÃ¡i": 1341,
    "ĠphÃºt": 1342,
    "ĠphÃŃ": 1343,
    "ĠcáºŃu": 1344,
    "Ġsáº¯c": 1345,
    "áº·ng": 1346,
    "Ġbuá»ķi": 1347,
    "ĠkÃ©": 1348,
    "Ġcuá»ĳn": 1349,
    "Ġsuá»ĳt": 1350,
    "Ġtrá»£": 1351,
    "Æ°á»£t": 1352,
    "Ġmá»ĳi": 1353,
    "Ġbiá»ĥn": 1354,
    "Ġcháº¯n": 1355,
    "hÃºc": 1356,
    "Ġkiá»ĩn": 1357,
    "Ġháº§u": 1358,
    "Ġchung": 1359,
    "ÃĶng": 1360,
    "ĠmÃ¹": 1361,
    "--": 1362,
    "ra": 1363,
    "Ġ7": 1364,
    "ĠtrÃºc": 1365,
    "ew": 1366,
    "ĠHo": 1367,
    "li": 1368,
    "Ġmua": 1369,
    "ĠngÃ´n": 1370,
    "ĠsÆ°": 1371,
    "Ġdoanh": 1372,
    "Ġcá»Ńa": 1373,
    "Ġkiá»ĥu": 1374,
    "Ġpháº¡": 1375,
    "ĠTED": 1376,
    "Ġ8": 1377,
    "Ġ9": 1378,
    "Ġáº": 1379,
    "eb": 1380,
    "ĠkhÃ¡m": 1381,
    "Ġsá»Ł": 1382,
    "Ġngáº¡c": 1383,
    "ĠcÃ¡nh": 1384,
    "ĠváºŃn": 1385,
    "ĠbÃ¡n": 1386,
    "Ġthoáº¡i": 1387,
    "Ġtuáº§n": 1388,
    "Ġtháº£": 1389,
    "ĠxÃ©t": 1390,
    "Ġ&#": 1391,
    "ĠxÃºc": 1392,
    "ĠlÃ¢u": 1393,
    "ĠrÃłng": 1394,
    "oo": 1395,
    "Giá»": 1396,
    "ĠlÃŃ": 1397,
    "áº±m": 1398,
    "oi": 1399,
    "Ġcáº¥u": 1400,
    "Ġhiá»ĥm": 1401,
    "ĠchÃ¡": 1402,
    "Ãºt": 1403,
    "Ġhá»ĵi": 1404,
    "áº¡nh": 1405,
    "Ġnhiá»ĩm": 1406,
    "Ġphá»©c": 1407,
    "ĠNÃ³": 1408,
    "Æ°á»¡ng": 1409,
    "Anh": 1410,
    "ĠthiÃªn": 1411,
    "ĠkÃŃch": 1412,
    "Ġcung": 1413,
    "ĠchuyÃªn": 1414,
    "Ġchá»¥p": 1415,
    "ĠbÃ³ng": 1416,
    "ĠnháºŃp": 1417,
    "á»įn": 1418,
    "Ä©nh": 1419,
    "Bá»Łi": 1420,
    "Ġla": 1421,
    "Ġnáº±m": 1422,
    "Ġ200": 1423,
    "áº¡ng": 1424,
    "á»įc": 1425,
    "uá»·": 1426,
    "Ġkáº»": 1427,
    "ÄĲá»": 1428,
    "ĠBáº¡n": 1429,
    "ĠngÃ´i": 1430,
    "Ġviá»ĩn": 1431,
    "ĠthÃ¡i": 1432,
    "¯u": 1433,
    "Ġcáº¡nh": 1434,
    "áº¿p": 1435,
    "ĠÄĳá»Ļc": 1436,
    "ĠngÃłnh": 1437,
    "Ġghi": 1438,
    "Ġhá»¯u": 1439,
    "ĠbÄĥng": 1440,
    "Ġchá»©": 1441,
    "ĠhoÃł": 1442,
    "Ġháº¡nh": 1443,
    "Ġchá»Ĺ": 1444,
    "µn": 1445,
    "ĠtháºŃp": 1446,
    "ĠbÃ¡c": 1447,
    "ĠtrÆ°á»Łng": 1448,
    "Ġkhá»§ng": 1449,
    "Ġváº½": 1450,
    "ĠÄĳa": 1451,
    "ĠÃŃch": 1452,
    "iÃªm": 1453,
    "Ġgá»": 1454,
    "háº¿": 1455,
    "Th": 1456,
    "Ġchá»ĭu": 1457,
    "Ġchuáº©n": 1458,
    "Xin": 1459,
    "ıng": 1460,
    "Ġtra": 1461,
    "Ġpháº¡m": 1462,
    "Ġthiáº¿u": 1463,
    "ĠquÃ½": 1464,
    "Ġláº¯ng": 1465,
    "ĠphÃºc": 1466,
    "áº©y": 1467,
    "Ġsáºµn": 1468,
    "Ġlá»±a": 1469,
    "Ġhá»ģ": 1470,
    "Ġtá»ĩ": 1471,
    "Ġxanh": 1472,
    "Ġtáº¥m": 1473,
    "ĠháºŃ": 1474,
    "NgÆ°á»Ŀi": 1475,
    "Ġsáº¯p": 1476,
    "ĠChÃ": 1477,
    "ĠkhÄĥn": 1478,
    "Ġniá»ĩm": 1479,
    "Ã¡m": 1480,
    "ĠnhiÃªu": 1481,
    "áº¡ch": 1482,
    "ri": 1483,
    "ĠhÃ¡": 1484,
    "ĠÃ¡p": 1485,
    "ĠtÃ¡i": 1486,
    "Ġtá»©c": 1487,
    "ĠKhÃ´ng": 1488,
    "Sau": 1489,
    "Ġan": 1490,
    "ĠÄĳau": 1491,
    "un": 1492,
    "Ġtrai": 1493,
    "Ãºi": 1494,
    "ĠhÆ¡i": 1495,
    "Ġxá»Ń": 1496,
    "ro": 1497,
    "Ġchá»ĳng": 1498,
    "¥n": 1499,
    "Ġláº¡c": 1500,
    "Ãªm": 1501,
    "Ġdung": 1502,
    "uÃ´i": 1503,
    "Ã³n": 1504,
    "Ġtháº¥t": 1505,
    "á»ĳng": 1506,
    "ĠÄĳÃ³ng": 1507,
    "Táº¥t": 1508,
    "Ġmáº·c": 1509,
    "Ġmong": 1510,
    "ĠNhÆ°ng": 1511,
    "Ġcáº£i": 1512,
    "NhÆ°": 1513,
    "Ġdá»±a": 1514,
    "ĠchÃ¢u": 1515,
    "Vá»": 1516,
    "Ġtrá»±c": 1517,
    "á»Ńi": 1518,
    "NÃªn": 1519,
    "Cáº£m": 1520,
    "á»ŀ": 1521,
    "«u": 1522,
    "á»Ļn": 1523,
    "ĠÄĳá»Ļi": 1524,
    "Ġxin": 1525,
    "Ġcá»ķ": 1526,
    "Ġban": 1527,
    "Ġda": 1528,
    "ĠháºŃu": 1529,
    "ĠmáºŃt": 1530,
    "ĠbÃ¡nh": 1531,
    "©t": 1532,
    "Ġkhá»ķ": 1533,
    "ĠtoÃł": 1534,
    "Ġtá»ķng": 1535,
    "Ġkháº¯c": 1536,
    "Ġná»Ļi": 1537,
    "ĠchÄĥm": 1538,
    "ĠÃ´": 1539,
    "Ġgá»Ńi": 1540,
    "Ġxáº¥u": 1541,
    "Ġtáº§m": 1542,
    "Ġdáº§n": 1543,
    "Táº¡i": 1544,
    "ĠvÆ°á»£t": 1545,
    "Ġáº©n": 1546,
    "ĠNew": 1547,
    "ĠÄĲá»": 1548,
    "Ġtim": 1549,
    "Ġtá»·": 1550,
    "ÃŃch": 1551,
    "Ġhá»©ng": 1552,
    "¨o": 1553,
    "Ġthiá»ĩn": 1554,
    "ĠlÆ°u": 1555,
    "Ġ30": 1556,
    "Ġháº¡t": 1557,
    "¤n": 1558,
    "Ġnguy": 1559,
    "re": 1560,
    "Ġtráº¡ng": 1561,
    "Ġhy": 1562,
    "Ġchiá»ģu": 1563,
    "Ġtá»Ļi": 1564,
    "Ġdáº§u": 1565,
    "Ġdanh": 1566,
    "ĠlÃ£nh": 1567,
    "Ġw": 1568,
    "Ã¡nh": 1569,
    "Ġniá»ģm": 1570,
    "Ġnhiá»ĩt": 1571,
    "ĠÄĳá»Ļt": 1572,
    "ĠnghÃ¨o": 1573,
    "Ġnáº¡n": 1574,
    "Giá»Ŀ": 1575,
    "Ch": 1576,
    "Ġngoáº¡i": 1577,
    "Ġnhiá»ħ": 1578,
    "net": 1579,
    "ĠcáºŃn": 1580,
    "Ġsang": 1581,
    "Ġáº¤n": 1582,
    "Ġ100": 1583,
    "Ġá»ķ": 1584,
    "Ġin": 1585,
    "ĠIn": 1586,
    "Ġchá»¯a": 1587,
    "Thá»±c": 1588,
    "ĠÄĳáº©y": 1589,
    "id": 1590,
    "Ġxo": 1591,
    "Ġcha": 1592,
    "ĠkÃŃnh": 1593,
    "Chá»": 1594,
    "ĠÄĳáº¥u": 1595,
    "Ġdáº¥u": 1596,
    "Ġung": 1597,
    "Ġná»Ĺi": 1598,
    "ĠSt": 1599,
    "Ã¡ng": 1600,
    "ĠÄĲÃ³": 1601,
    "ĠÄĳen": 1602,
    "ĠghÃ": 1603,
    "Ġthá»§": 1604,
    "Ġ50": 1605,
    "ĠkÃ©o": 1606,
    "Ã£i": 1607,
    "Ġngá»§": 1608,
    "Ġtáº¯c": 1609,
    "ĠthÃ¡ch": 1610,
    "Ġmay": 1611,
    "ĠkhÃ¡ch": 1612,
    "ĠhÃ¡t": 1613,
    "Ġgiáº¥y": 1614,
    "ĠÄĲá»Ļ": 1615,
    "iáº¿p": 1616,
    "Ġ15": 1617,
    "ĠChÃ¢u": 1618,
    "ĠngÆ°á»£c": 1619,
    "Ġgá»ĵ": 1620,
    "īnh": 1621,
    "Ġchá»¯": 1622,
    "ĠnuÃ´i": 1623,
    "Ġquáº£n": 1624,
    "Ġbáº¡i": 1625,
    "ĠsoÃ¡t": 1626,
    "±ng": 1627,
    "ĠÆ°á»Ľc": 1628,
    "ĠTÃ¢y": 1629,
    "Łi": 1630,
    "VÃ¢ng": 1631,
    "ah": 1632,
    "Ġhoáº¡ch": 1633,
    "Ġcá»Ń": 1634,
    "th": 1635,
    "Ġmáº¯c": 1636,
    "Ġlá»Ĺi": 1637,
    "ig": 1638,
    "Ġtiá»ĩn": 1639,
    "Ġná»Ńa": 1640,
    "ĠmÆ¡": 1641,
    "Ġnghi": 1642,
    "ist": 1643,
    "ĠlÄ©nh": 1644,
    "Ġgá»ĵm": 1645,
    "ran": 1646,
    "ĵng": 1647,
    "ĠsÃ³c": 1648,
    "Ġtá»ĳc": 1649,
    "Ġnhiá»ħm": 1650,
    "Ġkhiá»ĥn": 1651,
    "op": 1652,
    "ĠdÆ°Æ¡ng": 1653,
    "ÄĲá»ĥ": 1654,
    "Ġtáº£": 1655,
    "Ġcáº¯t": 1656,
    "ĠgÃ³": 1657,
    "Ãµi": 1658,
    "ternet": 1659,
    "Ġgiáº¿t": 1660,
    "Ġháº¡i": 1661,
    "ĠÄĳÃ´ng": 1662,
    "Ġtháº³ng": 1663,
    "ĠbÃły": 1664,
    "háºŃt": 1665,
    "ĠdÃ¢y": 1666,
    "ĠÄĳá»ĳ": 1667,
    "Ġkhá»ĳi": 1668,
    "Ġca": 1669,
    "ĠMá»Ļt": 1670,
    "ĠU": 1671,
    "Ġquen": 1672,
    "ĠtÃłu": 1673,
    "ed": 1674,
    "ĠÄĳÃŃch": 1675,
    "ĠNhá»¯ng": 1676,
    "TháºŃt": 1677,
    "ing": 1678,
    "ĠquÃ¢n": 1679,
    "Ġnhá»Ŀ": 1680,
    "CÃ¡i": 1681,
    "ĠÄĳá»©c": 1682,
    "Ġthi": 1683,
    "Ġtháº¥p": 1684,
    "Ġchiáº¿u": 1685,
    "ĠlÆ°á»Ľi": 1686,
    "Ġbáº§u": 1687,
    "Ġgen": 1688,
    "áº¯p": 1689,
    "ĠniÃªn": 1690,
    "ĠmÃª": 1691,
    "ĠsÃłng": 1692,
    "ĠCÃ³": 1693,
    "ag": 1694,
    "Ġngá»Ŀ": 1695,
    "ĠdÃ²ng": 1696,
    "Ġxáº¿p": 1697,
    "ard": 1698,
    "ĠX": 1699,
    "ĠÄĳÃªm": 1700,
    "ĠcÆ°": 1701,
    "ĠdÃłng": 1702,
    "Ġcháº¥p": 1703,
    "ĠlÃ¡i": 1704,
    "ĠÄĳá»ķ": 1705,
    "Sá»±": 1706,
    "Ġgá»ĳc": 1707,
    "Ġhá»Ĺ": 1708,
    "Ġkhai": 1709,
    "ĠphÃ³ng": 1710,
    "ĠtáºŃn": 1711,
    "ĠcÆ°á»Ŀi": 1712,
    "Ġngáº¯n": 1713,
    "Ġcháº·": 1714,
    "ĠÄĳá»¡": 1715,
    "lo": 1716,
    "Ġrá»ĳi": 1717,
    "Ġgáº¥p": 1718,
    "á»ĵng": 1719,
    "Ġphong": 1720,
    "ĠÄĲÃ¢y": 1721,
    "Ġláº¯m": 1722,
    "ĠcÃ¡o": 1723,
    "ĠÄĳem": 1724,
    "Ġ/": 1725,
    "ĠnÃ´ng": 1726,
    "ĠgiÃ¢y": 1727,
    "ĠcÃ¢n": 1728,
    "Ġbáº¡o": 1729,
    "Ġká»ī": 1730,
    "ĠbÃŃ": 1731,
    "ĠsÃ¢n": 1732,
    "ĠtrÃ¡ch": 1733,
    "Ġgáº¯n": 1734,
    "Ġbá»ĳn": 1735,
    "Ġvai": 1736,
    "ton": 1737,
    "Ġpháº«u": 1738,
    "Ńm": 1739,
    "ĠÄĳá»£i": 1740,
    "91": 1741,
    "CÃ´": 1742,
    "ĠngÃłn": 1743,
    "93": 1744,
    "ĠtÃ´n": 1745,
    "áº§ng": 1746,
    "ey": 1747,
    "ÃĿ": 1748,
    "Ġsu": 1749,
    "ĠhÃłi": 1750,
    "Ġ12": 1751,
    "Ġnghá»ĭ": 1752,
    "ĠkÄ©": 1753,
    "ĠthÆ¡": 1754,
    "ĠxuyÃªn": 1755,
    "Ġnháº£y": 1756,
    "Ġdá»«ng": 1757,
    "ĠAl": 1758,
    "ab": 1759,
    "deo": 1760,
    "Ġchuyáº¿n": 1761,
    "ĠÃĤ": 1762,
    "Ġvideo": 1763,
    "ĠsiÃªu": 1764,
    "ĠThá»": 1765,
    "Tá»": 1766,
    "Ġhoa": 1767,
    "Ġthá»¥": 1768,
    "uá»Ĺi": 1769,
    "Ńn": 1770,
    "ĠkÃ½": 1771,
    "Ġtáº£i": 1772,
    "Má»": 1773,
    "Ġgiai": 1774,
    "ĠHÃ£y": 1775,
    "Ġweb": 1776,
    "ĠmÃłn": 1777,
    "ak": 1778,
    "Ġlao": 1779,
    "Ġtáº§ng": 1780,
    "ĠÄĳáº£m": 1781,
    "Ã¡o": 1782,
    "ĠtÃ¹": 1783,
    "Ġchim": 1784,
    "Ġphá»ķ": 1785,
    "Ã¨n": 1786,
    "Ġáº£o": 1787,
    "oh": 1788,
    "Ġháº¥p": 1789,
    "ou": 1790,
    "av": 1791,
    "Ġnháº¯c": 1792,
    "Ġchá»īnh": 1793,
    "ĠngÄĥn": 1794,
    "Ġkhá»Łi": 1795,
    "³n": 1796,
    "ine": 1797,
    "ork": 1798,
    "¹ng": 1799,
    "Äĳ": 1800,
    "Ġrá»«ng": 1801,
    "ĳn": 1802,
    "Ġá»ķn": 1803,
    "ĠkhÃ¡i": 1804,
    "oc": 1805,
    "ĠgÃ³c": 1806,
    "Ġtháº£i": 1807,
    "ĠkÃª": 1808,
    "ĠhÃºt": 1809,
    "iáº¿ng": 1810,
    "ĠnghiÃªm": 1811,
    "Ġhá»Ļp": 1812,
    "ĠmÃ³n": 1813,
    "ĠgiÃłu": 1814,
    "ĠNh": 1815,
    "ĠlÃ¡": 1816,
    "Ġchuá»Ļt": 1817,
    "ĠÃĤu": 1818,
    "Ġtáº¥n": 1819,
    "Ġnam": 1820,
    "Ġluyá»ĩn": 1821,
    "ĠNam": 1822,
    "son": 1823,
    "ģm": 1824,
    "ĠtÃŃn": 1825,
    "ĠcáºŃp": 1826,
    "ĠkhuÃ´n": 1827,
    "ĠYork": 1828,
    "Má»įi": 1829,
    "ĠInternet": 1830,
    "han": 1831,
    "ĠÄĳÃ¡m": 1832,
    "obot": 1833,
    "ĠgiÃł": 1834,
    "Ġcoi": 1835,
    "ĠngÃ¢n": 1836,
    "Ġtuyáº¿n": 1837,
    "Ġliá»ĩt": 1838,
    "Ġtrao": 1839,
    "ĠpháºŃn": 1840,
    "ĠHá»į": 1841,
    "ĠÄĳá»ı": 1842,
    "Ġláº§m": 1843,
    "Ġtháº¯ng": 1844,
    "ĠChÃº": 1845,
    "Rá»ĵi": 1846,
    "Ġmá»ģm": 1847,
    "Ġháº³n": 1848,
    "Ġtrá»«": 1849,
    "ĠGi": 1850,
    "te": 1851,
    "Ġhuá»·": 1852,
    "ĠdáºŃy": 1853,
    "ĠTáº¡i": 1854,
    "ill": 1855,
    "Vá»Ľi": 1856,
    "ĠÄĳáº£o": 1857,
    "Ġnáº·ng": 1858,
    "Ġnhu": 1859,
    "Ġtai": 1860,
    "Ġmáº¡ch": 1861,
    "ĠmÃ´n": 1862,
    "Ġxá»": 1863,
    "ĠNáº¿u": 1864,
    "ĠvÃ¢n": 1865,
    "Ġchá»©a": 1866,
    "ĠKá»": 1867,
    "ĠHoa": 1868,
    "Tuy": 1869,
    "Ġmáº¥y": 1870,
    "Ã³t": 1871,
    "Do": 1872,
    "ĠchÃ³ng": 1873,
    "ĠnÃ³ng": 1874,
    "LÃłm": 1875,
    "ĠphÃ¹": 1876,
    "Ġquyá»ĥn": 1877,
    "ĠmÃ¹a": 1878,
    "VÃŃ": 1879,
    "Ġuá»ĳng": 1880,
    "ĭp": 1881,
    "ĠÄĳiá»ĥn": 1882,
    "ĠchÃ³": 1883,
    "ĠchÃ¡u": 1884,
    "Ġá»ĳng": 1885,
    "Ġmáº½": 1886,
    "Ġthiá»ĩu": 1887,
    "ĠmÃ¡u": 1888,
    "ĠsÃ³ng": 1889,
    "Ġ18": 1890,
    "ĠhÃ£i": 1891,
    "£o": 1892,
    "Chá»ī": 1893,
    "Ġbuá»Ļc": 1894,
    "ĠBáº¯c": 1895,
    "Ġchá»§ng": 1896,
    "Ġtuá»": 1897,
    "ĠtrÃ¹ng": 1898,
    "ĠcÅ©": 1899,
    "áº¡m": 1900,
    "ĠdÆ°á»¡ng": 1901,
    "Ho": 1902,
    "Ġlinh": 1903,
    "ĠÄĳiÃªn": 1904,
    "ĠkhÃ¡n": 1905,
    "Ġrá»Ŀi": 1906,
    "Ġtháº£o": 1907,
    "um": 1908,
    "ĠsÆ¡": 1909,
    "Ã²i": 1910,
    "tr": 1911,
    "ĠChÃºa": 1912,
    "ĠdÃµi": 1913,
    "Ġ40": 1914,
    "Ġchá»Ŀ": 1915,
    "Ġtáº£ng": 1916,
    "Ġlá»ĵ": 1917,
    "Ġloáº¡n": 1918,
    "Ġtá»ĵi": 1919,
    "ik": 1920,
    "¥m": 1921,
    "Ġlá»Ļ": 1922,
    "Ġrobot": 1923,
    "ĠÄĲiá»ģu": 1924,
    "ie": 1925,
    "Ġvá»¯ng": 1926,
    "ĠÄĳÃ¡p": 1927,
    "Ġbuá»ĵn": 1928,
    "ĠgÃ³p": 1929,
    "ow": 1930,
    "Ġmáº¯n": 1931,
    "á»ĳt": 1932,
    "Ġsá»Ńa": 1933,
    "ĠthÆ°á»Łng": 1934,
    "ĠÄĳÃ¨n": 1935,
    "Ġlan": 1936,
    "©u": 1937,
    "Ġo": 1938,
    "ĠkhÃ´": 1939,
    "ĠTháº¿": 1940,
    "ĠtrÃ¡nh": 1941,
    "ĠTrÃ¡i": 1942,
    "ĠtÆ°á»Ŀng": 1943,
    "Ġkhoáº£n": 1944,
    "ĠKá»³": 1945,
    "ich": 1946,
    "Ġkhá»ķng": 1947,
    "Ġmáº£nh": 1948,
    "Hiá»ĩn": 1949,
    "Ġf": 1950,
    "Ġmiá»ħn": 1951,
    "Cháº": 1952,
    "Ġtráº¯ng": 1953,
    "ĠchÃłng": 1954,
    "ĠÄĳÃ³i": 1955,
    "Ġtá»Ļc": 1956,
    "Ġá»§ng": 1957,
    "Ġláº¡nh": 1958,
    "ĠmÃ¡i": 1959,
    "Qu": 1960,
    "Ġláº«n": 1961,
    "Ġtá»ķn": 1962,
    "ĠMar": 1963,
    "ĠcÆ¡n": 1964,
    "Ġ25": 1965,
    "ĠTrong": 1966,
    "ord": 1967,
    "ev": 1968,
    "Ġbáº£ng": 1969,
    "ĠÄĳá»īnh": 1970,
    "Ľm": 1971,
    "Ġtá»Ŀ": 1972,
    "áº¥c": 1973,
    "ĠnÃºi": 1974,
    "Ġdiá»ĩu": 1975,
    "Ġtiá»ĥu": 1976,
    "ĠtrÃ¬": 1977,
    "Ġphá»ıng": 1978,
    "Ġtá»ĳn": 1979,
    "ĠÄĲÃ´ng": 1980,
    "Ġháº£o": 1981,
    "ul": 1982,
    "Ġbá»ģ": 1983,
    "CÃ¢u": 1984,
    "Ńnh": 1985,
    "ĠÄĳÃło": 1986,
    "ĠquÃªn": 1987,
    "ĠrÆ¡i": 1988,
    "Ġgiá»įng": 1989,
    "Ġgiá»ıi": 1990,
    "ĠÃ¡o": 1991,
    "Ġáº¥n": 1992,
    "ĠtráºŃn": 1993,
    "ĠCÃ¡c": 1994,
    "Ġkhuáº©n": 1995,
    "ĠmÃ£i": 1996,
    "Ġtrá»ĵng": 1997,
    "CÃ²n": 1998,
    "Ã¹a": 1999,
    "Ġdu": 2000,
    "Ġquáº£ng": 2001,
    "VÃło": 2002,
    "Ġcháº¡m": 2003,
    "Ġcá»¡": 2004,
    "ĠNgÆ°á»Ŀi": 2005,
    "Ġcáº§m": 2006,
    "Ġbang": 2007,
    "ĠChá»": 2008,
    "ĠbáºŃt": 2009,
    "Cho": 2010,
    "Ġkim": 2011,
    "ĠÄĳÆ°Æ¡ng": 2012,
    "Ġvá»ĳn": 2013,
    "ĠnghÃ¬n": 2014,
    "Ġbá»ģn": 2015,
    "ĠlÆ°Æ¡ng": 2016,
    "Ġquáº§n": 2017,
    "Ġpháº¥n": 2018,
    "Ġcháº¥m": 2019,
    "Ġmá»Ŀi": 2020,
    "ĠkhoÃ¡": 2021,
    "ĠsÃ¡nh": 2022,
    "ĠhÃ´n": 2023,
    "Ġtiá»ģm": 2024,
    "Ġnghá»ī": 2025,
    "ub": 2026,
    "Ġcam": 2027,
    "Ġnáº¯m": 2028,
    "istan": 2029,
    "ĠvÃłng": 2030,
    "Ġchiáº¿m": 2031,
    "Má»Ĺi": 2032,
    "áº³ng": 2033,
    "Ġhi": 2034,
    "Ġhá»ķ": 2035,
    "Ġhoáº£ng": 2036,
    "ĠkhÃŃch": 2037,
    "ĠtÃ¡ch": 2038,
    "ĠdÆ°á»Ŀng": 2039,
    "Ġphá»ĳi": 2040,
    "ĠhÃło": 2041,
    "Ġvá»£": 2042,
    "Ġngá»«ng": 2043,
    "Ġhiá»ĥn": 2044,
    "Ġbá»¯a": 2045,
    "ĠÄĳiá»ĩu": 2046,
    "ĠvÄ©": 2047,
    "Ġlá»Ńa": 2048,
    "Ġthá»ĭt": 2049,
    "Con": 2050,
    "Ġgháº¿": 2051,
    "ĠlÃłng": 2052,
    "ĠrÃºt": 2053,
    "Ġvá»¡": 2054,
    "Ġ11": 2055,
    "ĠVÃ¬": 2056,
    "ĠÄĳá»«ng": 2057,
    "ĠxÆ°Æ¡ng": 2058,
    "la": 2059,
    "ly": 2060,
    "ĠsÃ³t": 2061,
    "Ġchuá»Ĺi": 2062,
    "áº·m": 2063,
    "Ġná»ķ": 2064,
    "Ġká»ĭch": 2065,
    "ĠHá»ĵi": 2066,
    "ent": 2067,
    "Ġkháº©u": 2068,
    "oog": 2069,
    "Ġong": 2070,
    "ĠÄĳáº±ng": 2071,
    "ĠbiÃªn": 2072,
    "Ġcháº£y": 2073,
    "Ġsá»Ľm": 2074,
    "ib": 2075,
    "ĠThÃ¡": 2076,
    "Ġloáº¡t": 2077,
    "ĠKhi": 2078,
    "ĠgiÃ³": 2079,
    "ĠthoÃ¡t": 2080,
    "Ġchá»ĵng": 2081,
    "Ġtáº¯t": 2082,
    "ĠcháºŃm": 2083,
    "ĠÃĶng": 2084,
    "ĠVÃ¢ng": 2085,
    "ChÃ": 2086,
    "Pháº": 2087,
    "ÃŃnh": 2088,
    "Ġnghá»ģ": 2089,
    "ir": 2090,
    "ian": 2091,
    "ĠtÃłn": 2092,
    "Ġsáº¡ch": 2093,
    "ĠdÄ©": 2094,
    "ĠVáºŃy": 2095,
    "ĠtÃ´": 2096,
    "ĠbÃ¨": 2097,
    "Ġkhá»©": 2098,
    "oogle": 2099,
    "man": 2100,
    "Ġláº·p": 2101,
    "Ã³m": 2102,
    "Ġgiáº¥c": 2103,
    "ĠÄĲáº¡i": 2104,
    "ĳt": 2105,
    "ry": 2106,
    "Ġtháº§": 2107,
    "Ġgá»£i": 2108,
    "Ġsuáº¥t": 2109,
    "if": 2110,
    "ĠmÅ©": 2111,
    "ĠtrÆ°ng": 2112,
    "az": 2113,
    "io": 2114,
    "Tá»«": 2115,
    "±m": 2116,
    "Ġ80": 2117,
    "Ġquá»¹": 2118,
    "ĠnhÃ©": 2119,
    "Æ°Æ¡i": 2120,
    "Ġkiá»ĩm": 2121,
    "ĠchÃ¬": 2122,
    "ack": 2123,
    "ĠÄĳÄĥng": 2124,
    "ex": 2125,
    "ĠphÃª": 2126,
    "Ġlá»Ĺ": 2127,
    "Ġtrá»¯": 2128,
    "ĠtÃºi": 2129,
    "Ġlá»ĳi": 2130,
    "Ġngáº¡i": 2131,
    "Ġtráº¡i": 2132,
    "ĠsÃ´ng": 2133,
    "Ráº¥t": 2134,
    "ep": 2135,
    "ĠtÃ¡n": 2136,
    "ĠCon": 2137,
    "ĠAn": 2138,
    "NgÃły": 2139,
    "ick": 2140,
    "Ta": 2141,
    "ud": 2142,
    "©n": 2143,
    "Ġnguyá»ĩn": 2144,
    "Ġdáº·m": 2145,
    "ĠthÆ°á»Ľc": 2146,
    "ĠkhÃ¡ng": 2147,
    "ĠQu": 2148,
    "Ġviá»ħn": 2149,
    "Thá»©": 2150,
    "¢m": 2151,
    "áº·n": 2152,
    "ĠÄĳuá»ķi": 2153,
    "ĠnÃ©": 2154,
    "Ġcá»Ŀ": 2155,
    "Ġsá»¹": 2156,
    "Ġquang": 2157,
    "Ġnháº¹": 2158,
    "Ä©a": 2159,
    "ĠghÃ©p": 2160,
    "ĵi": 2161,
    "ĠcÃł": 2162,
    "Ġthá»Ł": 2163,
    "Ġbá»¥": 2164,
    "ĠCáº£m": 2165,
    "Ġ60": 2166,
    "ĠnÃ¢ng": 2167,
    "Ġvá»ı": 2168,
    "ĠTá»": 2169,
    "ĠphiÃªn": 2170,
    "ĠGoogle": 2171,
    "ut": 2172,
    "ĠbÆ¡i": 2173,
    "ĠthÄĥm": 2174,
    "ĠkÃ©m": 2175,
    "iv": 2176,
    "Ġnháº¯n": 2177,
    "Æ°á»¡i": 2178,
    "Ġsá»ĳt": 2179,
    "tÃ´i": 2180,
    "ĠcÃº": 2181,
    "TrÃªn": 2182,
    "ohn": 2183,
    "Váº¥n": 2184,
    "Ġláº·ng": 2185,
    "est": 2186,
    "Ġváº¿t": 2187,
    "Ġráº»": 2188,
    "Ġkhoáº£nh": 2189,
    "Ġtháº£m": 2190,
    "Ġlá»įc": 2191,
    "Ġhu": 2192,
    "Ġná»Ĺ": 2193,
    "ĠnháºŃt": 2194,
    "Ġthoáº£": 2195,
    "NÄĥm": 2196,
    "ĠtÃłng": 2197,
    "ĠsÃ¡u": 2198,
    "Ġxoay": 2199,
    "Gi": 2200,
    "ans": 2201,
    "á»įt": 2202,
    "one": 2203,
    "he": 2204,
    "Ġbá»įn": 2205,
    "art": 2206,
    "TrÆ°á»Ľc": 2207,
    "Ġhoang": 2208,
    "Ġháº¹": 2209,
    "BÃł": 2210,
    "Ġcan": 2211,
    "ĠtrÃ²n": 2212,
    "Ġtrá»ĳng": 2213,
    "Ġbá»Ŀ": 2214,
    "ĠhÃ¹ng": 2215,
    "ins": 2216,
    "ĠÄĳiá»ĩp": 2217,
    "Ġngáº«u": 2218,
    "ĠBr": 2219,
    "ĠPhÃ¡": 2220,
    "ĠAr": 2221,
    "ĠmÃ¹i": 2222,
    "¥u": 2223,
    "ĠÆ°u": 2224,
    "ĠÄĳáº³ng": 2225,
    "ĠlÃłnh": 2226,
    "Ġthá»«a": 2227,
    "ĠLÃłm": 2228,
    "Ġvoi": 2229,
    "ĠNháºŃt": 2230,
    "uá»µ": 2231,
    "amp": 2232,
    "bon": 2233,
    "ec": 2234,
    "ĠÄĳáº¿": 2235,
    "Ġdoáº¡": 2236,
    "ĠÄĳam": 2237,
    "Ġlá»¥c": 2238,
    "ĠCÃ´": 2239,
    "§i": 2240,
    "ĠZ": 2241,
    "ĠbÃ²": 2242,
    "ĠÄĳá»±ng": 2243,
    "ÄĲÆ°á»£c": 2244,
    "ook": 2245,
    "aw": 2246,
    "ĠrÃ¡c": 2247,
    "ĠthuáºŃn": 2248,
    "ĠlÃŃnh": 2249,
    "chÃºng": 2250,
    "Ġthuá»·": 2251,
    "ell": 2252,
    "NhÃ": 2253,
    "Ãºa": 2254,
    "ĠÄĲáº¥t": 2255,
    "ĠthÃ¡c": 2256,
    "Ġtháº¡": 2257,
    "ĠÄĳoÃłn": 2258,
    "IV": 2259,
    "Liá»ĩu": 2260,
    "Ľt": 2261,
    "ĠBá»Łi": 2262,
    "uá»ĵng": 2263,
    "Ġcháº·t": 2264,
    "±a": 2265,
    "ĠÄĳáº¡p": 2266,
    "Ġma": 2267,
    "Ġthang": 2268,
    "Ġcáº¥y": 2269,
    "ĠnhuáºŃn": 2270,
    "ÄĲáº§u": 2271,
    "Ġpr": 2272,
    "ĠtrÃŃch": 2273,
    "ion": 2274,
    "eg": 2275,
    "ĠcÃ£i": 2276,
    "Ġhá»įp": 2277,
    "era": 2278,
    "ĠHIV": 2279,
    "ĠÄĳe": 2280,
    "Ġgiáº£ng": 2281,
    "de": 2282,
    "ĩt": 2283,
    "Ġtan": 2284,
    "Æ°á»Ŀn": 2285,
    "ert": 2286,
    "Viá»ĩc": 2287,
    "ĠlÆ°á»£c": 2288,
    "Ġmiáº¿ng": 2289,
    "Ġnhá»±a": 2290,
    "ĠngoÃ¡i": 2291,
    "ore": 2292,
    "ĠlÃ£ng": 2293,
    "ĠÄĲá»©c": 2294,
    "ĠtáºŃt": 2295,
    "Ġláº¯p": 2296,
    "Ġ16": 2297,
    "ĠgiÃ¡m": 2298,
    "Ġkháº¥u": 2299,
    "ĠyÃªn": 2300,
    "50": 2301,
    "ĠhÃ¨": 2302,
    "ĠAf": 2303,
    "Ġcháº·n": 2304,
    "ChÃŃnh": 2305,
    "Ġdiá»ĩt": 2306,
    "ĠtháºŃn": 2307,
    "ĠIs": 2308,
    "ĠÄĳÃ²i": 2309,
    "Ġhuy": 2310,
    "Ġthai": 2311,
    "ĠAD": 2312,
    "NÃ³i": 2313,
    "ein": 2314,
    "ĠchÃło": 2315,
    "Ġtá»¥": 2316,
    "Ġlá»ħ": 2317,
    "ĠchÃ©p": 2318,
    "Ġmá»«ng": 2319,
    "ess": 2320,
    "Ġáº¢": 2321,
    "uc": 2322,
    "ĠtÃ¡": 2323,
    "ĠmÃ¢y": 2324,
    "Ġngang": 2325,
    "Ġhuá»ĳng": 2326,
    "Ġthao": 2327,
    "Ġmáº¡i": 2328,
    "Ġcáº£n": 2329,
    "uá»Ļn": 2330,
    "Ġ$": 2331,
    "Ġu": 2332,
    "ĠÄĳá»ĳng": 2333,
    "Ġcá»©ng": 2334,
    "á»ĳn": 2335,
    "ĠthÃ¹": 2336,
    "ĠSh": 2337,
    "Ġ199": 2338,
    "ĠÄĳÃ¹a": 2339,
    "ĠtrÃłn": 2340,
    "ĠhÆ°Æ¡ng": 2341,
    "Ġsá»ķ": 2342,
    "Ġsá»£i": 2343,
    "áº©u": 2344,
    "orn": 2345,
    "all": 2346,
    "ĠxoÃ¡": 2347,
    "Hay": 2348,
    "ĠmÃ¬": 2349,
    "Ġko": 2350,
    "Ġdá»ĭ": 2351,
    "Ġ14": 2352,
    "Ġtri": 2353,
    "Ã¨o": 2354,
    "Ġ90": 2355,
    "ĠAfg": 2356,
    "Ġvong": 2357,
    "Ġnháº±m": 2358,
    "Ġtháº¥u": 2359,
    "ĠCar": 2360,
    "Ġ201": 2361,
    "Cuá»ĳi": 2362,
    "LÃºc": 2363,
    "Ľn": 2364,
    "ĠvÃº": 2365,
    "ĠcÃ¡t": 2366,
    "Ġtá»ı": 2367,
    "ĠADN": 2368,
    "ge": 2369,
    "rus": 2370,
    "Ġcáº·p": 2371,
    "ĠÃ¡m": 2372,
    "ĠVá»": 2373,
    "ff": 2374,
    "Ġbi": 2375,
    "ĠtrÃło": 2376,
    "ĠcÃ¡m": 2377,
    "ĠJohn": 2378,
    "Bá»": 2379,
    "ĠtuyÃªn": 2380,
    "ĠmáºŃp": 2381,
    "Ġmá»±c": 2382,
    "Ġbom": 2383,
    "Ġhiáº¿m": 2384,
    "ĠEm": 2385,
    "les": 2386,
    "Ġbá»ĳi": 2387,
    "Ġphiáº¿u": 2388,
    "Ġbáº¯n": 2389,
    "ĠsÃºng": 2390,
    "Ġthuyá»ģn": 2391,
    "Ngay": 2392,
    "Ġ70": 2393,
    "ĠmÃ³c": 2394,
    "nhÆ°ng": 2395,
    "ĠkhÃŃa": 2396,
    "Ġnhá»ĭp": 2397,
    "Ġsá»¥p": 2398,
    "ĠchÃ¡n": 2399,
    "ĠtiÃªm": 2400,
    "Ã´m": 2401,
    "Ġlá»«a": 2402,
    "att": 2403,
    "ĠkÃªu": 2404,
    "ĠhÃł": 2405,
    "Æ°á»£u": 2406,
    "Ġkhung": 2407,
    "ĠhoÃłng": 2408,
    "ĠAi": 2409,
    "ĠXin": 2410,
    "ĠÄĳáºŃp": 2411,
    "Ġngá»įn": 2412,
    "Ġdá»ĳi": 2413,
    "Ġ13": 2414,
    "ĠÃ³c": 2415,
    "Ġliá»ģn": 2416,
    "Ġtriáº¿t": 2417,
    "Ġcá»¥c": 2418,
    "áºŃc": 2419,
    "Ã©p": 2420,
    "Ġprot": 2421,
    "CÃ¡ch": 2422,
    "ip": 2423,
    "Ġkháº£o": 2424,
    "ĠbÃ©o": 2425,
    "Ġgá»Ĺ": 2426,
    "ĠPhÃ¡p": 2427,
    "ĠAfghan": 2428,
    "Ľp": 2429,
    "CÃ´ng": 2430,
    "KhÃ¡": 2431,
    "od": 2432,
    "ĠcÃ´n": 2433,
    "ĠÄĳua": 2434,
    "ĠCal": 2435,
    "NhÃł": 2436,
    "yl": 2437,
    "Ġ0": 2438,
    "Ġgam": 2439,
    "Ġthá»Ŀ": 2440,
    "Ġthoáº£i": 2441,
    "CÃ¡m": 2442,
    "ris": 2443,
    "ĠcÄĥng": 2444,
    "ĠmÆ°a": 2445,
    "ĠbáºŃc": 2446,
    "Ġbá»ķ": 2447,
    "ail": 2448,
    "âĢ": 2449,
    "ĠÃ¡c": 2450,
    "Ġmáº¡c": 2451,
    "ĠGiá»": 2452,
    "Ġtháº§y": 2453,
    "¯t": 2454,
    "ĠlÅ©": 2455,
    "ĠngÆ°á»¡ng": 2456,
    "Ġhá»ĳi": 2457,
    "ĠSá»±": 2458,
    "ĠtÃ¡o": 2459,
    "Ġnáº¥m": 2460,
    "ĠrÆ°á»£u": 2461,
    "ĠTháºŃt": 2462,
    "ers": 2463,
    "Theo": 2464,
    "eet": 2465,
    "ĠâĢ": 2466,
    "Ġchá»ĳi": 2467,
    "Ġchá»ĳt": 2468,
    "ÄĲá»ĳi": 2469,
    "Ġmá»ı": 2470,
    "NA": 2471,
    "ĠAm": 2472,
    "ĠKen": 2473,
    "Ġá»Ĵ": 2474,
    "Ġhá»Ĺn": 2475,
    "CÅ©ng": 2476,
    "ĠThÃ¡i": 2477,
    "Ġhuáº¥n": 2478,
    "ĠmÃ©t": 2479,
    "Ġ17": 2480,
    "ĠÃģ": 2481,
    "¯m": 2482,
    "Ġtráº§m": 2483,
    "ĠnhÅ©ng": 2484,
    "ĠhÃ²": 2485,
    "ĠghÃ©t": 2486,
    "ĠnÃºt": 2487,
    "ĠvÃ¢ng": 2488,
    "Ġsong": 2489,
    "Ġá»©c": 2490,
    "ĠFran": 2491,
    "ee": 2492,
    "Ġáº¡": 2493,
    "Ġkhuyáº¿n": 2494,
    "ĠchÃ¡y": 2495,
    "Thay": 2496,
    "Ġche": 2497,
    "LÃł": 2498,
    "NÃło": 2499,
    "Ġbiá»ĩn": 2500,
    "Ġbáº£y": 2501,
    "ĠBáº£n": 2502,
    "Ġtá»īnh": 2503,
    "Ġtruy": 2504,
    "Hoáº·c": 2505,
    "ĠÄĳáº¯t": 2506,
    "Ġcá»ı": 2507,
    "ĠCÃ´ng": 2508,
    "ĠphÃ¡n": 2509,
    "ĠIran": 2510,
    "ĠThuá»µ": 2511,
    "ĠngÃ³n": 2512,
    "Ġhá»ĵn": 2513,
    "MÃł": 2514,
    "ĠgiáºŃn": 2515,
    "ĠHar": 2516,
    "ĠLan": 2517,
    "avid": 2518,
    "Ġxá»©ng": 2519,
    "Ai": 2520,
    "ph": 2521,
    "£t": 2522,
    "á»Ŀi": 2523,
    "Ġmáº¡o": 2524,
    "Ġthá»į": 2525,
    "Ġthiá»ĥu": 2526,
    "ĠhÃ£": 2527,
    "Nhiá»ģu": 2528,
    "ya": 2529,
    "ond": 2530,
    "Ġ21": 2531,
    "ĠÄĲÆ°á»£c": 2532,
    "ĠAfghanistan": 2533,
    "ĠtÃºc": 2534,
    "Ġkhiáº¿p": 2535,
    "Ġháº¯n": 2536,
    "ĵn": 2537,
    "ĠÄĳáº¯n": 2538,
    "ĠsÄĥn": 2539,
    "Ġgá»įn": 2540,
    "ĠkhÃ¡t": 2541,
    "log": 2542,
    "ĠmÅ©i": 2543,
    "ov": 2544,
    "ĠÃł": 2545,
    "Ġá»ĵ": 2546,
    "Ġmai": 2547,
    "ĠbÃ´ng": 2548,
    "Ġcá»Ĺ": 2549,
    "Ġcá»¥t": 2550,
    "Ã£n": 2551,
    "ĠCÃ¡i": 2552,
    "DÃ¹": 2553,
    "land": 2554,
    "xy": 2555,
    "Ġru": 2556,
    "Ġdinh": 2557,
    "ĠdÃły": 2558,
    "Ġtrá»©ng": 2559,
    "Ġtháº¡ch": 2560,
    "Ġprotein": 2561,
    "Ġtia": 2562,
    "ĠbÃ³": 2563,
    "Ġxong": 2564,
    "ĠHai": 2565,
    "Ġrá»§i": 2566,
    "Vá»ģ": 2567,
    "ach": 2568,
    "įt": 2569,
    "Ġnáº¥u": 2570,
    "Ġthiá»ĩp": 2571,
    "ĠthuÃª": 2572,
    "Ġbinh": 2573,
    "Ġkáº¹": 2574,
    "ĠhÆ°á»Ľc": 2575,
    "ĠphÃ³": 2576,
    "Ġcháº©n": 2577,
    "eria": 2578,
    "Ġi": 2579,
    "Ġcá»Ļt": 2580,
    "Ġlá»Ļn": 2581,
    "Ġmá»Ļ": 2582,
    "ĠmÃ²": 2583,
    "Ġbá»Ļt": 2584,
    "ĠbÃ£i": 2585,
    "Ġhuyáº¿t": 2586,
    "ĠCan": 2587,
    "ĠÄĲÃºng": 2588,
    "ark": 2589,
    "ĠthÃ¡nh": 2590,
    "Hai": 2591,
    "ĠngÅ©": 2592,
    "ĠgiÃłnh": 2593,
    "Æ°á»Ľt": 2594,
    "ÄĲÃºng": 2595,
    "ĠmÃ¡t": 2596,
    "ĠÄĳá»ĳc": 2597,
    "ĠÄĳá»ĳt": 2598,
    "ĠtÃ³c": 2599,
    "ĠÄĳÃłi": 2600,
    "Ġtruyá»ĩn": 2601,
    "Ġchá»«ng": 2602,
    "ĠLiÃªn": 2603,
    "ĠDo": 2604,
    "Ġthuáº§n": 2605,
    "ta": 2606,
    "Ĺng": 2607,
    "Ġbáº¡c": 2608,
    "ĠrÄĥng": 2609,
    "ĠrÆ°á»¡i": 2610,
    "Ġdá»įc": 2611,
    "ĠxÆ°a": 2612,
    "ĠTV": 2613,
    "ain": 2614,
    "Ġ198": 2615,
    "ĠNhÃł": 2616,
    "iá»ĩng": 2617,
    "ĠTáº¥t": 2618,
    "ti": 2619,
    "Ġmiá»ģn": 2620,
    "Ġhiáº¿n": 2621,
    "Ġro": 2622,
    "Ġtáº·ng": 2623,
    "ĠÄĳÄ©a": 2624,
    "ĠnÆ¡": 2625,
    "ĠgÆ°Æ¡ng": 2626,
    "Ġnháº¥n": 2627,
    "Ã½t": 2628,
    "ĠChi": 2629,
    "Ġcá»ĳt": 2630,
    "rael": 2631,
    "ĠnÃ©m": 2632,
    "Ġáº¥m": 2633,
    "Ġráº¯c": 2634,
    "Ġnhá»ī": 2635,
    "ĠxÃ¢m": 2636,
    "Cháº³ng": 2637,
    "ĠngÃłi": 2638,
    "Ġchai": 2639,
    "enn": 2640,
    "gh": 2641,
    "ĠvÆ°á»Ŀn": 2642,
    "Ġláº»": 2643,
    "Ġtrá»Ļn": 2644,
    "iáº¿c": 2645,
    "ama": 2646,
    "ĠSc": 2647,
    "Ġ500": 2648,
    "ico": 2649,
    "ock": 2650,
    "ĠdÃŃnh": 2651,
    "Ġthan": 2652,
    "ĠquÃª": 2653,
    "Ġxáº¡": 2654,
    "Ã¹i": 2655,
    "ĠkhÃ³c": 2656,
    "ĠÃĿ": 2657,
    "Ġtáº¡m": 2658,
    "Ġngu": 2659,
    "Ġ24": 2660,
    "ara": 2661,
    "Ã¨m": 2662,
    "Ġtuá»³": 2663,
    "Háº§u": 2664,
    "Ġcáº©n": 2665,
    "aceb": 2666,
    "ĠIsrael": 2667,
    "Kho": 2668,
    "Ph": 2669,
    "co": 2670,
    "Ġbáº¯c": 2671,
    "Ã¡y": 2672,
    "Ġtháº©m": 2673,
    "ĠnhÃ¡": 2674,
    "ĠPháº": 2675,
    "Ġthoáº£ng": 2676,
    "ada": 2677,
    "Ġtuá»ĩ": 2678,
    "acebook": 2679,
    "ĠmiÃªu": 2680,
    "Ġmiá»ĩng": 2681,
    "ĠrÃło": 2682,
    "ĠÄĳá»Ľn": 2683,
    "ĠÄĳÃ¡y": 2684,
    "Ġháº¹n": 2685,
    "Ġmáº©u": 2686,
    "ina": 2687,
    "Ġphá»ķi": 2688,
    "³i": 2689,
    "Ġsa": 2690,
    "Ġngáº§m": 2691,
    "ĠÄĳÃ³n": 2692,
    "ĠBá»Ļ": 2693,
    "áº©m": 2694,
    "CáºŃu": 2695,
    "ĠÆ¡i": 2696,
    "Ġhá»©a": 2697,
    "Ġlá»ıng": 2698,
    "Ġcá»ĳc": 2699,
    "Ġnháº¡y": 2700,
    "ID": 2701,
    "ĠtÃ²": 2702,
    "ĠgÃł": 2703,
    "ĠTo": 2704,
    "ĠcÆ°á»Ŀng": 2705,
    "ĠÄĳáºŃu": 2706,
    "Ġblog": 2707,
    "ĠtrÃ´i": 2708,
    "Ġrá»ĵ": 2709,
    "ann": 2710,
    "ĠvuÃ´ng": 2711,
    "Báº±ng": 2712,
    "há»ĩ": 2713,
    "Ġbáº¡ch": 2714,
    "Ġhiá»ĩp": 2715,
    "ĠSan": 2716,
    "Ġháº¡ng": 2717,
    "tein": 2718,
    "iforn": 2719,
    "HÃ´m": 2720,
    "Ġly": 2721,
    "ĠlÃ£o": 2722,
    "Ġhá»ĳ": 2723,
    "Ã£ng": 2724,
    "ĠBra": 2725,
    "ley": 2726,
    "Pháº§n": 2727,
    "ĠCaliforn": 2728,
    "Ġgame": 2729,
    "ĠtÃ¢y": 2730,
    "ĠkiÃªn": 2731,
    "Ġtráº¯c": 2732,
    "ĠdÃłn": 2733,
    "ĠquÃ¡i": 2734,
    "Ġhoáº¡i": 2735,
    "Ġcháº¥n": 2736,
    "ĠFacebook": 2737,
    "ĠCalifornia": 2738,
    "lin": 2739,
    "st": 2740,
    "ĠngÃ£": 2741,
    "Ġthá»£": 2742,
    "ĠrÃ´": 2743,
    "Ġpin": 2744,
    "Ġháº±ng": 2745,
    "Sáº½": 2746,
    "ĠlÃ¢y": 2747,
    "ĠquÃ¡n": 2748,
    "ĠgiÆ°á»Ŀng": 2749,
    "ĠCháº": 2750,
    "amb": 2751,
    "Ġtuyáº¿t": 2752,
    "ĠtÃ³m": 2753,
    "Ġcong": 2754,
    "ĠnÆ°á»Ľng": 2755,
    "Ġleo": 2756,
    "Ġtráº¡m": 2757,
    "Ġnho": 2758,
    "ĠquÃ©t": 2759,
    "ĠgiÃły": 2760,
    "ĠMÄ©": 2761,
    "ĠÄĳáº£ng": 2762,
    "Ġngá»±a": 2763,
    "ĠTw": 2764,
    "ĠnÃ©t": 2765,
    "und": 2766,
    "ek": 2767,
    "ma": 2768,
    "ĠÄĳeo": 2769,
    "Ġmáº»": 2770,
    "ĠmÃ¨o": 2771,
    "ĠchÄĥng": 2772,
    "Ã¬a": 2773,
    "ĠxÃŃ": 2774,
    "ĠCá»±c": 2775,
    "ĠBa": 2776,
    "Ġ197": 2777,
    "ĠmÃ£n": 2778,
    "Cá»": 2779,
    "ĠlÆ°ng": 2780,
    "alk": 2781,
    "ĠtÄ©nh": 2782,
    "Ġtiáº¿c": 2783,
    "nÃ³": 2784,
    "á»ĩ": 2785,
    "Ġváº¯c": 2786,
    "ĠGeo": 2787,
    "ĠDNA": 2788,
    "Ġbá»¥ng": 2789,
    "ĠÄĳáº¿m": 2790,
    "oáº¡i": 2791,
    "pp": 2792,
    "Ġninh": 2793,
    "ass": 2794,
    "exico": 2795,
    "ce": 2796,
    "og": 2797,
    "³c": 2798,
    "ĠtÃ¡m": 2799,
    "ĠkÃ¨m": 2800,
    "ĠtrÄĥng": 2801,
    "ĠdÃ²": 2802,
    "ĠdÃ¡n": 2803,
    "Ġlá»ĩnh": 2804,
    "ĠCá»": 2805,
    "ĠMc": 2806,
    "áº«y": 2807,
    "Ġ300": 2808,
    "TháºŃm": 2809,
    "ite": 2810,
    "ith": 2811,
    "anda": 2812,
    "ĠdÃ£": 2813,
    "ber": 2814,
    "«n": 2815,
    "ĠlÄĥn": 2816,
    "Ġhá»ıng": 2817,
    "ĠquÃł": 2818,
    "ĠkhuyÃªn": 2819,
    "Ġdá»©t": 2820,
    "ĠCol": 2821,
    "ĠIra": 2822,
    "ate": 2823,
    "ĠgÃ³i": 2824,
    "ron": 2825,
    "Ġtuy": 2826,
    "Ġtiá»ĩc": 2827,
    "Ġvinh": 2828,
    "Ġngon": 2829,
    "ĠthÃ³i": 2830,
    "áº«m": 2831,
    "Ġemail": 2832,
    "Ngh": 2833,
    "ĠThe": 2834,
    "ThÃ": 2835,
    "ĠÃ©p": 2836,
    "Ġtráº§n": 2837,
    "Ġtá»ĭ": 2838,
    "Ġgiáº¥u": 2839,
    "ÄĲÃ£": 2840,
    "Ġ2000": 2841,
    "Ġgá»¡": 2842,
    "ĠchÃ¬m": 2843,
    "Ġlu": 2844,
    "ĠlÃ´i": 2845,
    "Ġtrá»ĳn": 2846,
    "ĠgÃ£": 2847,
    "ĠhÆ°": 2848,
    "Ġlá»ģ": 2849,
    "uá»¹": 2850,
    "Ġphiá»ģn": 2851,
    "ĠRob": 2852,
    "ĠÃļ": 2853,
    "ĠChar": 2854,
    "IDS": 2855,
    "oÃłi": 2856,
    "Ġcá»±": 2857,
    "Ġmá»Ŀ": 2858,
    "ĠMexico": 2859,
    "ĠNhÃ": 2860,
    "ĠCanada": 2861,
    "Cuá»Ļc": 2862,
    "zil": 2863,
    "ĠlÃ¢m": 2864,
    "ĠgÃµ": 2865,
    "Ġheo": 2866,
    "Ġcá»¥m": 2867,
    "ky": 2868,
    "Ġim": 2869,
    "Ġtung": 2870,
    "Ġláº·n": 2871,
    "ĠbÃ£o": 2872,
    "ĠdÆ°": 2873,
    "ĠBá»": 2874,
    "ath": 2875,
    "ĠlÃ£m": 2876,
    "ĠkÃªnh": 2877,
    "sh": 2878,
    "Ġand": 2879,
    "Ġcáº¥t": 2880,
    "ĠbuÃ´n": 2881,
    "Ã¡p": 2882,
    "Ġngá»įt": 2883,
    "ĠÄĳá»±c": 2884,
    "ĠgiÆ¡": 2885,
    "Ġkhao": 2886,
    "Ġkhoan": 2887,
    "ĠDavid": 2888,
    "ĠÃļc": 2889,
    "DP": 2890,
    "dam": 2891,
    "ford": 2892,
    "ĠbáºŃn": 2893,
    "Ġthuáº¿": 2894,
    "ĠNga": 2895,
    "NhÃ¬n": 2896,
    "ler": 2897,
    "ĠÆ°": 2898,
    "ĠtrÆ°a": 2899,
    "Ġdao": 2900,
    "ĠthÄĥng": 2901,
    "ĠgiÃ¡n": 2902,
    "Ġmá»ĩnh": 2903,
    "ĠMich": 2904,
    "ĠHy": 2905,
    "Ġvirus": 2906,
    "mÃł": 2907,
    "ram": 2908,
    "ĠlÃµi": 2909,
    "ĠsÃłn": 2910,
    "ĠhÃłm": 2911,
    "Ġthá»ķi": 2912,
    "Ġtháº»": 2913,
    "Giá»ĳng": 2914,
    "ondon": 2915,
    "á»ĥ": 2916,
    "Ġlang": 2917,
    "ĠlÃłn": 2918,
    "Ġhang": 2919,
    "quang": 2920,
    "ĠquÃŃ": 2921,
    "ĠAIDS": 2922,
    "ĠPh": 2923,
    "ĠLiá»ĩu": 2924,
    "ĠcÃºm": 2925,
    "tin": 2926,
    "ĠtÆ°Æ¡i": 2927,
    "Ġcar": 2928,
    "ĠbÃ¹ng": 2929,
    "Ġbáº¿p": 2930,
    "ĠdÃ¡ng": 2931,
    "Ġxinh": 2932,
    "ind": 2933,
    "Ġsá»¯a": 2934,
    "ĠRáºŃp": 2935,
    "ĠChá»ī": 2936,
    "ĠBrazil": 2937,
    "Ġva": 2938,
    "Ġsan": 2939,
    "ĠsÆ°u": 2940,
    "á»Ļm": 2941,
    "Æ°á»£n": 2942,
    "aul": 2943,
    "ĠBer": 2944,
    "ĠLondon": 2945,
    "ĠquÃ¡t": 2946,
    "Ġbá»¥i": 2947,
    "ĠtÃ¢n": 2948,
    "Ġcáº¥m": 2949,
    "Ġbu": 2950,
    "ĠdÆ°á»£c": 2951,
    "ĠphÃ¬": 2952,
    "ÄĲÃ´i": 2953,
    "Ġá»ŀ": 2954,
    "itter": 2955,
    "Láº§n": 2956,
    "Ġtáº¯m": 2957,
    "Ġnáº£y": 2958,
    "Ġliá»ģu": 2959,
    "Ġngáº¯m": 2960,
    "ĠrÃ©t": 2961,
    "ĠMo": 2962,
    "ĠMon": 2963,
    "ĠÄĲiá»ĥn": 2964,
    "Ġkhá»ī": 2965,
    "ĠtuÃ½": 2966,
    "Ġcamera": 2967,
    "ĠKenya": 2968,
    "iz": 2969,
    "ric": 2970,
    "ĠÆ°a": 2971,
    "ĠrÃ£i": 2972,
    "Ġtá»§": 2973,
    "ĠthÃ¹ng": 2974,
    "VÃłi": 2975,
    "Ġháº£i": 2976,
    "ĠPal": 2977,
    "Ġ400": 2978,
    "ĠchÃºa": 2979,
    "30": 2980,
    "má»Ļt": 2981,
    "ĠlÆ°á»Ŀng": 2982,
    "Ã³i": 2983,
    "ĠTa": 2984,
    "hing": 2985,
    "ĠSp": 2986,
    "ĠLe": 2987,
    "Ġ196": 2988,
    "Ġpháº¡t": 2989,
    "Ġoxy": 2990,
    "oy": 2991,
    "ĠcÆ°á»Ľi": 2992,
    "Ġmuá»Ĺi": 2993,
    "ĠngáºŃp": 2994,
    "ĠnÃłng": 2995,
    "Ġgiam": 2996,
    "Ġthá»ĭnh": 2997,
    "ling": 2998,
    "ĠkhÃ´n": 2999,
    "Cháº¯c": 3000,
    "ĠâĢĵ": 3001,
    "Cáº£": 3002,
    "©o": 3003,
    "ĠlÆ°á»Ľt": 3004,
    "Ġsay": 3005,
    "ĠsÆ¡n": 3006,
    "Ġngá»ĳc": 3007,
    "ĠphÃº": 3008,
    "ĠdÃ£y": 3009,
    "ĠMá»įi": 3010,
    "ĠBl": 3011,
    "ĠHá»Ļi": 3012,
    "ĠthÃ¡p": 3013,
    "Ġthua": 3014,
    "ĠÄĲá»«ng": 3015,
    "ren": 3016,
    "ĠtrÆ°á»£t": 3017,
    "Ġthá»īnh": 3018,
    "Ġnháº«n": 3019,
    "ĠCO": 3020,
    "Ġtrá»¥c": 3021,
    "Ġpha": 3022,
    "ĠIraq": 3023,
    "Ķi": 3024,
    "ĠtÆ°á»Ľng": 3025,
    "Ġná»Ł": 3026,
    "Ġnan": 3027,
    "Ġquá»": 3028,
    "ĠquÃ£ng": 3029,
    "ĠxÃ³m": 3030,
    "Ġnháº¯m": 3031,
    "ĠchÃ¢m": 3032,
    "ÄĲáº¿n": 3033,
    "ĠBan": 3034,
    "ĠthÃ¡m": 3035,
    "ĠkÃŃn": 3036,
    "20": 3037,
    "LÃ½": 3038,
    "báº¡n": 3039,
    "Ġná»ĳt": 3040,
    "Æ°á»Ľp": 3041,
    "ĠthÃŃnh": 3042,
    "ĠKinh": 3043,
    "ĠRos": 3044,
    "Ġbá»ĳt": 3045,
    "Ġfeet": 3046,
    "Pháº£i": 3047,
    "Ġnáº¯ng": 3048,
    "ĠdÃ¡m": 3049,
    "ĠNig": 3050,
    "ĠBill": 3051,
    "Ġkhá»Ľp": 3052,
    "ĠTwitter": 3053,
    "ham": 3054,
    "ĠcáºŃy": 3055,
    "Ġdáº¯t": 3056,
    "Ġthiá»ĩt": 3057,
    "ĠTháº": 3058,
    "ĠBar": 3059,
    "SA": 3060,
    "Ġcuá»Ļn": 3061,
    "Ġmáº¡n": 3062,
    "Ġsung": 3063,
    "Ġkhuy": 3064,
    "ĠkhÆ¡i": 3065,
    "ana": 3066,
    "Ġrau": 3067,
    "ĠphÃ¡i": 3068,
    "Ġtoáº£": 3069,
    "ĠthÃ¡o": 3070,
    "Ġ150": 3071,
    "by": 3072,
    "ne": 3073,
    "ĠcÆ°á»¡ng": 3074,
    "ĠlÃ´ng": 3075,
    "ĠbÆ¡": 3076,
    "ĠtrÃł": 3077,
    "Ġgáº¥u": 3078,
    "ĠTim": 3079,
    "ony": 3080,
    "ĠBos": 3081,
    "ĠPar": 3082,
    "ĠGDP": 3083,
    "lip": 3084,
    "DÄ©": 3085,
    "Máº¹": 3086,
    "Ġtuyá»ĥn": 3087,
    "ĠÄĳuÃ´i": 3088,
    "Ġná»į": 3089,
    "Ġbong": 3090,
    "ĠnhÃ£n": 3091,
    "áº»o": 3092,
    "ĠKho": 3093,
    "Ġháº§m": 3094,
    "ĠChris": 3095,
    "ÄĲá»«ng": 3096,
    "KhÃ¡n": 3097,
    "Máº·c": 3098,
    "To": 3099,
    "áº¿ch": 3100,
    "Ġvá»Ł": 3101,
    "ĠchÆ°á»Ľc": 3102,
    "Ġbá»Ľt": 3103,
    "Ġmá»ĩt": 3104,
    "ĠBÃ¢y": 3105,
    "Ġlog": 3106,
    "ĠSau": 3107,
    "ĠJo": 3108,
    "ĠWas": 3109,
    "ĠTá»ķ": 3110,
    "Gáº§n": 3111,
    "Káº¿t": 3112,
    "Ġnhá»Ł": 3113,
    "Ġranh": 3114,
    "Ã©o": 3115,
    "Ġhá»ĩt": 3116,
    "ĠTrá»Ŀi": 3117,
    "Ġthuáº«n": 3118,
    "olf": 3119,
    "ĠYou": 3120,
    "Tiáº¿p": 3121,
    "ver": 3122,
    "á»Ĵ": 3123,
    "Ġti": 3124,
    "ngel": 3125,
    "ĠÄĳÃ¢m": 3126,
    "ĠlÃ¡t": 3127,
    "Ġsli": 3128,
    "Ġmá»¹": 3129,
    "ĠCáºŃp": 3130,
    "ĠMáº¹": 3131,
    "ĠSao": 3132,
    "ĠThiÃªn": 3133,
    "ood": 3134,
    "HoÃ¡": 3135,
    "ĠchÃ¬a": 3136,
    "instein": 3137,
    "ĠhÃ²n": 3138,
    "Báº¥t": 3139,
    "ael": 3140,
    "der": 3141,
    "§m": 3142,
    "Ġe": 3143,
    "Ġmuá»Ļn": 3144,
    "Ġngá»±c": 3145,
    "ĠthÆ°a": 3146,
    "ani": 3147,
    "ĠGeor": 3148,
    "ĠlÃ²": 3149,
    "ĠlÃ¹i": 3150,
    "Ġbá»į": 3151,
    "Ġchá»Ł": 3152,
    "Ġchá»¥c": 3153,
    "Ġhoáº£": 3154,
    "ĠÄĳiÃªu": 3155,
    "ĠBe": 3156,
    "ĠGre": 3157,
    "ĠDÆ°Æ¡ng": 3158,
    "Ġláº¡m": 3159,
    "xi": 3160,
    "Ġj": 3161,
    "ĠkhÃºc": 3162,
    "Ġká»ĭp": 3163,
    "ĠBang": 3164,
    "Khoáº£ng": 3165,
    "hington": 3166,
    "Ġslide": 3167,
    "CÃ¹ng": 3168,
    "Ġcac": 3169,
    "Ġvua": 3170,
    "ĠbÃª": 3171,
    "ĠbÃºt": 3172,
    "Ġtráº¥n": 3173,
    "ĠgÃ¡nh": 3174,
    "Ġpháº³ng": 3175,
    "Ġsá»ĳc": 3176,
    "Ġmá»ıi": 3177,
    "Ġná»£": 3178,
    "Ġsá»©": 3179,
    "ĠHÃł": 3180,
    "ĠÄĳá»ĵi": 3181,
    "ĠAb": 3182,
    "ĠEd": 3183,
    "ĠthÃ´n": 3184,
    "urg": 3185,
    "ĠHoáº£": 3186,
    "ĠGiÃ¡o": 3187,
    "vÃ¬": 3188,
    "Ġváº¹": 3189,
    "Æ°Æ¡n": 3190,
    "ĠmÃºa": 3191,
    "ĠÄĳá»Ľi": 3192,
    "Ġnháº·": 3193,
    "ĠViá»ĩn": 3194,
    "hom": 3195,
    "ĠThá»±c": 3196,
    "ĠNha": 3197,
    "Ġá»ĵn": 3198,
    "cÃ³": 3199,
    "ug": 3200,
    "za": 3201,
    "Ġváº£i": 3202,
    "Ġmáº¥u": 3203,
    "Ġnhiáº¿p": 3204,
    "ĠMI": 3205,
    "ort": 3206,
    "ĠChÃŃnh": 3207,
    "Ġcarbon": 3208,
    "ĠWashington": 3209,
    "ka": 3210,
    "site": 3211,
    "ĠhÆ°u": 3212,
    "Ġrung": 3213,
    "Ġcá»Łi": 3214,
    "ĠthÃ¢m": 3215,
    "Ġnghiá»ĩn": 3216,
    "ĠBen": 3217,
    "ĠSm": 3218,
    "Ġnghá»ĭch": 3219,
    "ett": 3220,
    "Ġrá»ħ": 3221,
    "Ġhá»ĵng": 3222,
    "ĠJam": 3223,
    "Chuyá»ĩn": 3224,
    "Ġinternet": 3225,
    "ube": 3226,
    "HÆ¡n": 3227,
    "Ġduyá»ĩt": 3228,
    "Ġtha": 3229,
    "á»ĳm": 3230,
    "áºŃm": 3231,
    "ĠMá»": 3232,
    "ĠMáº·t": 3233,
    "are": 3234,
    "ola": 3235,
    "ander": 3236,
    "Ġwebsite": 3237,
    "ike": 3238,
    "ĠkhÃ´i": 3239,
    "ĠFranc": 3240,
    "ĠhÃ£ng": 3241,
    "Em": 3242,
    "Ná»": 3243,
    "ĠrÃ¡p": 3244,
    "Ġcá»ĳi": 3245,
    "ĠCho": 3246,
    "ĠNÃły": 3247,
    "Ġkháº³ng": 3248,
    "Ġngoan": 3249,
    "ĠTEDx": 3250,
    "ĠNigeria": 3251,
    "Ġa": 3252,
    "Ġcuá»ĵng": 3253,
    "ĠvÃ¢y": 3254,
    "ĠlÆ°á»¡ng": 3255,
    "ĠmÃ¢u": 3256,
    "Ġkhiáº¿m": 3257,
    "Ġmá»ĵ": 3258,
    "ĠTrÆ°á»Ŀng": 3259,
    "Ġnháº·t": 3260,
    "CÆ¡": 3261,
    "Ġco": 3262,
    "Ġráº¯n": 3263,
    "Ġsáº¯t": 3264,
    "inc": 3265,
    "ĠCuá»Ļc": 3266,
    "ĠBÃł": 3267,
    "ĠÄĳá»ĭch": 3268,
    "ĠLá»": 3269,
    "illi": 3270,
    "lex": 3271,
    "Thá»Ŀi": 3272,
    "ĠphÃŃm": 3273,
    "Ġháº¹p": 3274,
    "Bá»©c": 3275,
    "ier": 3276,
    "Ġgan": 3277,
    "ĠkhÃ³i": 3278,
    "ĠWik": 3279,
    "ĠThá»ķ": 3280,
    "tress": 3281,
    "ĠVá»Ľi": 3282,
    "Ġcacbon": 3283,
    "ĠMIT": 3284,
    "lan": 3285,
    "ĠcÆ°á»Ľp": 3286,
    "ĠvÆ°Æ¡n": 3287,
    "ĠláºŃt": 3288,
    "Ġkhuyáº¿t": 3289,
    "ones": 3290,
    "Ġ1000": 3291,
    "ĠBro": 3292,
    "ĠÄĳÃ¡o": 3293,
    "ĠLos": 3294,
    "ica": 3295,
    "ast": 3296,
    "ÄĳÃ³": 3297,
    "PS": 3298,
    "ros": 3299,
    "ĠÄĳáº»": 3300,
    "ĠÄĳÃłm": 3301,
    "Ġnon": 3302,
    "Ġmáº£ng": 3303,
    "ĠbÃ¹": 3304,
    "ĠchÃŃn": 3305,
    "ĠHá»įc": 3306,
    "ĠPak": 3307,
    "ĠÄĳoan": 3308,
    "Ġ35": 3309,
    "Ġ2008": 3310,
    "ld": 3311,
    "ĠtÃ´ng": 3312,
    "Ġlong": 3313,
    "Ġgá»ĳi": 3314,
    "Ġcá»«u": 3315,
    "ĠphÃ´": 3316,
    "ĠkhoÃ¡i": 3317,
    "ĠHá»": 3318,
    "ĠLa": 3319,
    "Ġrá»Ńa": 3320,
    "Thá»Ń": 3321,
    "Ok": 3322,
    "up": 3323,
    "§a": 3324,
    "Ġcáº¡n": 3325,
    "Ġsáº¡n": 3326,
    "Ġstress": 3327,
    "ĠdÃ¢m": 3328,
    "Ġmá»ĵi": 3329,
    "ĠBÃ¬nh": 3330,
    "Ġ45": 3331,
    "ĠThÆ°á»£ng": 3332,
    "ĠOK": 3333,
    "ĠÄĲá»ĥ": 3334,
    "edia": 3335,
    "ĠGiá»Ŀ": 3336,
    "homas": 3337,
    "ĠFrancis": 3338,
    "ward": 3339,
    "Ġtáº§n": 3340,
    "Ġmanh": 3341,
    "Ġhack": 3342,
    "Ġdáº»o": 3343,
    "ĠmÃłng": 3344,
    "ĠThÃ": 3345,
    "ĠNa": 3346,
    "ĠSch": 3347,
    "ĠPhá»": 3348,
    "olly": 3349,
    "Ġlá»ĩch": 3350,
    "ĠPakistan": 3351,
    "Bao": 3352,
    "RÃµ": 3353,
    "een": 3354,
    "ĠNhÆ°": 3355,
    "Ġcáº¯p": 3356,
    "ĠÄĳáº¡n": 3357,
    "ĠláºŃn": 3358,
    "Ġbia": 3359,
    "Ġtreo": 3360,
    "ĠtrÃ¢n": 3361,
    "Ġdáº¡o": 3362,
    "Ġdáº£i": 3363,
    "Ġnháº§m": 3364,
    "ĠCr": 3365,
    "Ġváº¹n": 3366,
    "ok": 3367,
    "ve": 3368,
    "¥ng": 3369,
    "Ġcáº¯m": 3370,
    "ĠÄĳáº¡c": 3371,
    "ĠvÄ©nh": 3372,
    "Ġdá»įn": 3373,
    "Ġlá»Ŀ": 3374,
    "Ġlá»£n": 3375,
    "ĠMa": 3376,
    "ĠquyÃªn": 3377,
    "ĠHig": 3378,
    "ald": 3379,
    "ash": 3380,
    "ĠStev": 3381,
    "trong": 3382,
    "ichard": 3383,
    "Ġkáº¹t": 3384,
    "ĠbÆ¡m": 3385,
    "ck": 3386,
    "yn": 3387,
    "ĠlÆ°á»£t": 3388,
    "Ġkiá»ĩt": 3389,
    "Ġde": 3390,
    "ĠCÃ²n": 3391,
    "ĠÄĳá»ģn": 3392,
    "ĠNá»": 3393,
    "ĠHe": 3394,
    "ĠLu": 3395,
    "ĠDar": 3396,
    "ĠRe": 3397,
    "apt": 3398,
    "ĠNgÃłi": 3399,
    "ĠtuÃ¢n": 3400,
    "rid": 3401,
    "ĠbuÃ½t": 3402,
    "Bá»Ļ": 3403,
    "pe": 3404,
    "ÃĢ": 3405,
    "ĩn": 3406,
    "ĠvÃ©": 3407,
    "Ġláº¥p": 3408,
    "Ġmic": 3409,
    "Ġbá»įc": 3410,
    "Ġbáº¯p": 3411,
    "á»Ļp": 3412,
    "Ġhuyá»ģn": 3413,
    "ĠnhÃłng": 3414,
    "ĠkhiÃªu": 3415,
    "ĠHÃłn": 3416,
    "ĠHiá»ĩp": 3417,
    "ami": 3418,
    "ĠGPS": 3419,
    "ice": 3420,
    "ĠEinstein": 3421,
    "Ġgene": 3422,
    "ĠThá»©": 3423,
    "Ġ2010": 3424,
    "Ġkáº¹o": 3425,
    "Ġkhuynh": 3426,
    "com": 3427,
    "lor": 3428,
    "ox": 3429,
    "rist": 3430,
    "Ġamp": 3431,
    "ĠmÃ²n": 3432,
    "Ġham": 3433,
    "ĠdÅ©ng": 3434,
    "Ġvá»Ĺ": 3435,
    "Ġtháº¯c": 3436,
    "ĠgiÃ£n": 3437,
    "ĠCá»Ļng": 3438,
    "ĠBáº£o": 3439,
    "ĠAngel": 3440,
    "ĠPhÃ": 3441,
    "ĠÃĢ": 3442,
    "ĠÃĶi": 3443,
    "ĠTá»«": 3444,
    "Ba": 3445,
    "ft": 3446,
    "ound": 3447,
    "ĠÄĳai": 3448,
    "ĠÄĳá»Ĺ": 3449,
    "ĠÄĳá»£t": 3450,
    "ĠxÃ¡m": 3451,
    "Ġtá»±a": 3452,
    "ester": 3453,
    "ation": 3454,
    "ĠchÃºc": 3455,
    "acc": 3456,
    "ĠOb": 3457,
    "Ġ75": 3458,
    "ĠHaiti": 3459,
    "ĠPháº£i": 3460,
    "TÆ°Æ¡ng": 3461,
    "rÃºt": 3462,
    "win": 3463,
    "ĠcÆ°Æ¡ng": 3464,
    "Ġvay": 3465,
    "ĠlÅ©ng": 3466,
    "ĠmÆ°á»Ŀi": 3467,
    "ĠtrÃº": 3468,
    "Ġga": 3469,
    "ĠráºŃp": 3470,
    "Ġná»ģ": 3471,
    "ĠNe": 3472,
    "ĠRáº¥t": 3473,
    "ela": 3474,
    "ĠOk": 3475,
    "NhÃ¢n": 3476,
    "di": 3477,
    "ĭnh": 3478,
    "ĠnÃªu": 3479,
    "Ġmá»įc": 3480,
    "Ġthá»ķ": 3481,
    "Ġdá»Ł": 3482,
    "ĠchÄĥn": 3483,
    "ĠthÃ©p": 3484,
    "Ġmá»ıng": 3485,
    "ern": 3486,
    "Ġ23": 3487,
    "ĠPaul": 3488,
    "Å©i": 3489,
    "old": 3490,
    "ĠEl": 3491,
    "uck": 3492,
    "Ġcá»±u": 3493,
    "&#": 3494,
    "10": 3495,
    "RI": 3496,
    "ĠvÆ°á»£ng": 3497,
    "Ġdá»ĳc": 3498,
    "ĠkhÃ©o": 3499,
    "Ġtháº±ng": 3500,
    "Ġqui": 3501,
    "ott": 3502,
    "ĠCÃ¡ch": 3503,
    "ĠCÃ¡m": 3504,
    "ĠKh": 3505,
    "ĠLáº¡p": 3506,
    "Ġngá»«a": 3507,
    "org": 3508,
    "eph": 3509,
    "ĠHarv": 3510,
    "khÃ´ng": 3511,
    "ĠnÃ¡t": 3512,
    "ĠsÃ´i": 3513,
    "Ġráº½": 3514,
    "ĠxÃ´i": 3515,
    "Ġcháº£": 3516,
    "ĠNA": 3517,
    "uá»³": 3518,
    "end": 3519,
    "ĠKhÃ¡": 3520,
    "ĠthoÃ¡i": 3521,
    "ĠhÃ´i": 3522,
    "ide": 3523,
    "ĠCharles": 3524,
    "Máº·t": 3525,
    "ney": 3526,
    "Ġnáº£n": 3527,
    "Ġst": 3528,
    "ĠgÃ¡c": 3529,
    "Ġchá»£": 3530,
    "Ġgiá»įt": 3531,
    "ĠhoÃłi": 3532,
    "Ġmá»ī": 3533,
    "ĠphÃ¡c": 3534,
    "ĠHáº£i": 3535,
    "amin": 3536,
    "ĠAt": 3537,
    "ĠPr": 3538,
    "ity": 3539,
    "ĠNghá»ĩ": 3540,
    "ĠAnd": 3541,
    "Cá»©": 3542,
    "Kh": 3543,
    "ĠtráºŃt": 3544,
    "Ġgáº¡ch": 3545,
    "Ġhung": 3546,
    "ĠmÃły": 3547,
    "ens": 3548,
    "ĠPet": 3549,
    "Ġháº¡ch": 3550,
    "ĠDer": 3551,
    "Ġ194": 3552,
    "ĠChiáº¿n": 3553,
    "ago": 3554,
    "Ġtháº§m": 3555,
    "ĠiPh": 3556,
    "Loáº¡i": 3557,
    "Nhá»": 3558,
    "Phá»": 3559,
    "Ġvang": 3560,
    "Ġbáº¥y": 3561,
    "Ġngháº": 3562,
    "Ġdá»Ļi": 3563,
    "ĠxÄĥng": 3564,
    "Ġnghiá»ĩt": 3565,
    "Ġrad": 3566,
    "Ġbá»Ĺng": 3567,
    "ĠTá»±": 3568,
    "ĠTalk": 3569,
    "ary": 3570,
    "ĠbÃ¡ch": 3571,
    "ĠRá»ĵi": 3572,
    "ates": 3573,
    "Má»¥c": 3574,
    "ĠnÃ©n": 3575,
    "ĠFrank": 3576,
    "ĠxÃŃu": 3577,
    "bert": 3578,
    "lad": 3579,
    "Ġtiá»ħn": 3580,
    "ĠÄĳáº½": 3581,
    "há»į": 3582,
    "ĠvÃµ": 3583,
    "Ġmen": 3584,
    "Ġmá»Ļng": 3585,
    "ĠbÃ¬a": 3586,
    "Ġtrá»Ļm": 3587,
    "Ġchua": 3588,
    "Ġtrá»«u": 3589,
    "Ġvá»¥n": 3590,
    "lie": 3591,
    "Ġ2007": 3592,
    "Ġcá»ķng": 3593,
    "ĠGeorge": 3594,
    "PM": 3595,
    "ner": 3596,
    "Ġvan": 3597,
    "Ġmuá»ĳi": 3598,
    "ĠgÅ©i": 3599,
    "Ġhá»¥t": 3600,
    "ĠxÃ©": 3601,
    "Ġná»¥": 3602,
    "ĠCáºŃu": 3603,
    "ĠMal": 3604,
    "Ġpho": 3605,
    "ish": 3606,
    "ĠiPhone": 3607,
    "Há»ĩ": 3608,
    "PhÃ": 3609,
    "Tin": 3610,
    "TED": 3611,
    "ean": 3612,
    "´n": 3613,
    "ĠÄĳÃł": 3614,
    "ĠlÆ¡": 3615,
    "Ġláº¯c": 3616,
    "Ġtháº³m": 3617,
    "ĠxÃŃch": 3618,
    "ĠÄĳá»Ļn": 3619,
    "low": 3620,
    "ipedia": 3621,
    "Ġruá»ĵi": 3622,
    "ĠMichael": 3623,
    "Sá»ĳ": 3624,
    "nhá»¯ng": 3625,
    "Ġá»ĳc": 3626,
    "ĠlÃºa": 3627,
    "Ã¡u": 3628,
    "ĠsÃºc": 3629,
    "Ġcá»ĳng": 3630,
    "Ġquáº·c": 3631,
    "Ġgiáº·t": 3632,
    "ĠhÃ³c": 3633,
    "ĠNob": 3634,
    "Ġ22": 3635,
    "ĠApp": 3636,
    "ĠTrans": 3637,
    "Trung": 3638,
    "imer": 3639,
    "Ġsoáº¡n": 3640,
    "ĠNgh": 3641,
    "ĠInd": 3642,
    "QuÃ¡": 3643,
    "HÃłng": 3644,
    "TÃªn": 3645,
    "ThÃ´ng": 3646,
    "cel": 3647,
    "toc": 3648,
    "Ġá»ĳm": 3649,
    "ĠmÆ°Æ¡i": 3650,
    "ĠbÆ°á»Ľ": 3651,
    "Ġbáº¥m": 3652,
    "ĠrÅ©": 3653,
    "Ġthe": 3654,
    "ĠxÆ°á»Łng": 3655,
    "ĠxÆ°á»Ľng": 3656,
    "Ġchá»£t": 3657,
    "ĠTom": 3658,
    "ĠThomas": 3659,
    "ĠhÃ©t": 3660,
    "ĠtÃŃm": 3661,
    "atch": 3662,
    "ĠJu": 3663,
    "ĠÃ´m": 3664,
    "umb": 3665,
    "Ġof": 3666,
    "ĠThÃ¡nh": 3667,
    "ĠObama": 3668,
    "ĠHarvard": 3669,
    "BÃªn": 3670,
    "HÃ¬nh": 3671,
    "náº¿u": 3672,
    "Ġal": 3673,
    "Ġáº¿ch": 3674,
    "á»©c": 3675,
    "ĠnÃ´": 3676,
    "Ġmáº¿n": 3677,
    "ĠmÆ°á»£n": 3678,
    "ĠtrÃ¡ng": 3679,
    "Ġngáº«m": 3680,
    "ĠnhÆ°á»Ŀng": 3681,
    "ania": 3682,
    "áº±n": 3683,
    "ÃŃt": 3684,
    "Ã¹m": 3685,
    "Ġcháº½": 3686,
    "Ġ---": 3687,
    "ĠkhoÃ¡ng": 3688,
    "ĠSah": 3689,
    "ĠDi": 3690,
    "ĠJos": 3691,
    "ĠNgÃ¢n": 3692,
    "ĠOh": 3693,
    "Ġ99": 3694,
    "thal": 3695,
    "ivi": 3696,
    "Ġruá»Ļt": 3697,
    "Ká»ĥ": 3698,
    "pt": 3699,
    "ĠcÆ°á»£c": 3700,
    "ĠvÃ¡n": 3701,
    "ĠlÃ¢n": 3702,
    "ĠlÃ¡nh": 3703,
    "Ġbáº©n": 3704,
    "ĠtrÃ¡n": 3705,
    "Ġhiáº¿p": 3706,
    "ĠÄĳá»ĩ": 3707,
    "ĠTor": 3708,
    "Ġdá»Ĺ": 3709,
    "ink": 3710,
    "ĠCam": 3711,
    "ĠnhÃło": 3712,
    "ĠNháº": 3713,
    "ĠBig": 3714,
    "Ġquyáº¿n": 3715,
    "ĠAdam": 3716,
    "ĠbÃ¡m": 3717,
    "ĠRom": 3718,
    "Ġnháº¡t": 3719,
    "ĠRobert": 3720,
    "ĠSmith": 3721,
    "ĠWikipedia": 3722,
    "ĠFrancisco": 3723,
    "ĠAngeles": 3724,
    "BÃłi": 3725,
    "Sao": 3726,
    "cÃ´": 3727,
    "eah": 3728,
    "ue": 3729,
    "uk": 3730,
    "Ġváº¡ch": 3731,
    "ĠvÃ²i": 3732,
    "Ġsho": 3733,
    "ÄĲiá»ĥm": 3734,
    "ĠgÃ¬n": 3735,
    "iss": 3736,
    "icon": 3737,
    "ĠFre": 3738,
    "ĠOr": 3739,
    "Ġ2009": 3740,
    "berg": 3741,
    "Ġlá»ģu": 3742,
    "Ġhacker": 3743,
    "ĠNobel": 3744,
    "..": 3745,
    "May": 3746,
    "PA": 3747,
    "mp": 3748,
    "ĳc": 3749,
    "ĠlÃ¹ng": 3750,
    "ĠsÃ´": 3751,
    "ota": 3752,
    "Ġsáº¯m": 3753,
    "ĠchÃ´n": 3754,
    "Ġná»ĵng": 3755,
    "ĠsÃ¡o": 3756,
    "Ġphun": 3757,
    "ĠxuÃ¢n": 3758,
    "oran": 3759,
    "ali": 3760,
    "ĠRichard": 3761,
    "Ġrá»Ĺng": 3762,
    "hÃ¡u": 3763,
    "ĠmÃ£nh": 3764,
    "Ġxá»ī": 3765,
    "ĠChá»§": 3766,
    "azz": 3767,
    "attan": 3768,
    "ĠParis": 3769,
    "ĠKhoa": 3770,
    "ĠNASA": 3771,
    "tocin": 3772,
    "dro": 3773,
    "ix": 3774,
    "ĠcÃłi": 3775,
    "Ġluá»¹": 3776,
    "Ġnhá»ĩn": 3777,
    "Ġlá»ĵng": 3778,
    "Ġtháº¥m": 3779,
    "Ġmá»ķ": 3780,
    "ĠLÃł": 3781,
    "ĠGab": 3782,
    "Ġ36": 3783,
    "ĠNgÃły": 3784,
    "ush": 3785,
    "Quan": 3786,
    "azon": 3787,
    "Ġlogic": 3788,
    "Ġradio": 3789,
    "Bá»ĳ": 3790,
    "len": 3791,
    "tÃ´": 3792,
    "tor": 3793,
    "Ġthung": 3794,
    "Ġcháº±m": 3795,
    "hia": 3796,
    "ĠAlex": 3797,
    "ĠGr": 3798,
    "ĠWeb": 3799,
    "ace": 3800,
    "Ġ2005": 3801,
    "Ġinch": 3802,
    "udio": 3803,
    "aptop": 3804,
    "ĠSahara": 3805,
    "ca": 3806,
    "cri": 3807,
    "eh": 3808,
    "our": 3809,
    "ĠsÃ©t": 3810,
    "Ġtriá»ĩt": 3811,
    "ĠrÃ£": 3812,
    "Ġrun": 3813,
    "Ġcá»į": 3814,
    "Ġvá»Ŀ": 3815,
    "ĠthÆ°á»£ng": 3816,
    "ĠxÄĥm": 3817,
    "Ġlá»¡": 3818,
    "ĠCop": 3819,
    "ĠMÃ¬nh": 3820,
    "ĠNÄĥm": 3821,
    "Ġvá»ĭnh": 3822,
    "ĠDan": 3823,
    "ĠDÃ¢n": 3824,
    "eth": 3825,
    "Ġchá»įc": 3826,
    "ĠHoÃł": 3827,
    "rop": 3828,
    "Chiáº¿c": 3829,
    "ĠNhÄ©": 3830,
    "Ġhuynh": 3831,
    "ĠhÃ£m": 3832,
    "ĠBoston": 3833,
    "ĠDarwin": 3834,
    "bur": 3835,
    "me": 3836,
    "xin": 3837,
    "Ġoh": 3838,
    "ĠtÃª": 3839,
    "Ġtivi": 3840,
    "ĠvÃ²": 3841,
    "ĠlÄĥng": 3842,
    "ĠlÃ©o": 3843,
    "ĠmÃ³ng": 3844,
    "ĠbÃ³c": 3845,
    "ĠTiáº¿n": 3846,
    "anhattan": 3847,
    "ĠCÆ¡": 3848,
    "ĠLeg": 3849,
    "ĠGu": 3850,
    "raham": 3851,
    "Cha": 3852,
    "age": 3853,
    "heimer": 3854,
    "ĠiP": 3855,
    "ĠDerek": 3856,
    "cript": 3857,
    "An": 3858,
    "Báº£n": 3859,
    "Nháº": 3860,
    "cago": 3861,
    "ria": 3862,
    "wood": 3863,
    "zheimer": 3864,
    "Ġáº©m": 3865,
    "ĠÄĳc": 3866,
    "Ġli": 3867,
    "Ġluá»ĵng": 3868,
    "Ġvá»©t": 3869,
    "Ġquáº¡": 3870,
    "ĠÄĳÃ³m": 3871,
    "ant": 3872,
    "ĠkhiÃªm": 3873,
    "ĠchÃ¹": 3874,
    "ĠCl": 3875,
    "ĠMan": 3876,
    "ĠMad": 3877,
    "ĠManhattan": 3878,
    "erry": 3879,
    "Ġtá»±u": 3880,
    "Ġ27": 3881,
    "ĠSÄ©": 3882,
    "ĠRw": 3883,
    "ilicon": 3884,
    "ĠchuÃ´ng": 3885,
    "ĠkÃ¬a": 3886,
    "ĠAlzheimer": 3887,
    "Ġlui": 3888,
    "Ġoxytocin": 3889,
    "ToÃłn": 3890,
    "ĠGreen": 3891,
    "ĠSteve": 3892,
    "SD": 3893,
    "ThÃ¡": 3894,
    "ja": 3895,
    "line": 3896,
    "ss": 3897,
    "vá»": 3898,
    "ĠÃ¡i": 3899,
    "Ġtuá»·": 3900,
    "Ġngáº©n": 3901,
    "Ġchá»Ľp": 3902,
    "Ġmá»³": 3903,
    "ĠCÃ¢u": 3904,
    "Ġ26": 3905,
    "ĠSe": 3906,
    "ĠSy": 3907,
    "ĠLib": 3908,
    "ĠÄĳoáº¡t": 3909,
    "ala": 3910,
    "ĠII": 3911,
    "ĠVen": 3912,
    "ĠQuá»¹": 3913,
    "ĠWor": 3914,
    "Ġnhiá»ħu": 3915,
    "ĠCarol": 3916,
    "ĠAmazon": 3917,
    "ĠJames": 3918,
    "Láº¥y": 3919,
    "gs": 3920,
    "Ġnáº¿p": 3921,
    "ĠlÆ°á»¡i": 3922,
    "Ġlaptop": 3923,
    "Ġbá»ĳc": 3924,
    "Ġkm": 3925,
    "Ġtháº¯t": 3926,
    "ĠxÃł": 3927,
    "ĠTiáº¿ng": 3928,
    "Ġdá»ĭp": 3929,
    "ĠHaw": 3930,
    "ĠSub": 3931,
    "oster": 3932,
    "uss": 3933,
    "Ġ600": 3934,
    "Thiáº¿t": 3935,
    "rian": 3936,
    "oca": 3937,
    "ĠChicago": 3938,
    "ĠvÃµng": 3939,
    "ĠRwanda": 3940,
    "ez": 3941,
    "fi": 3942,
    "mm": 3943,
    "thá»": 3944,
    "tit": 3945,
    "Ġ000": 3946,
    "ĠÄĳÃºc": 3947,
    "ĠkiÃªng": 3948,
    "ĠngÆ°ng": 3949,
    "Ġron": 3950,
    "Ġbá»ĵi": 3951,
    "ĠhoÃłnh": 3952,
    "ĠhoÃ£n": 3953,
    "air": 3954,
    "ĠkhoÄĥn": 3955,
    "Æ°á»Łi": 3956,
    "ĠHay": 3957,
    "ĠSw": 3958,
    "iá»ħu": 3959,
    "Ġngá»Ľ": 3960,
    "ĠWal": 3961,
    "ThÃłnh": 3962,
    "ĠStan": 3963,
    "ĠMark": 3964,
    "ĠMartin": 3965,
    "Ġ250": 3966,
    "Ġ1990": 3967,
    "ĠMont": 3968,
    "Al": 3969,
    "Dá»": 3970,
    "TÆ°á»Łng": 3971,
    "per": 3972,
    "Ġáº¥u": 3973,
    "Ġcu": 3974,
    "Ġcanh": 3975,
    "Ġcent": 3976,
    "ĠÄĳuá»ĳi": 3977,
    "Ġvacc": 3978,
    "Ġsá»į": 3979,
    "ĠgáºŃy": 3980,
    "ĠnÃłn": 3981,
    "ĠTal": 3982,
    "ĠnhÃ³c": 3983,
    "ĠCE": 3984,
    "ĠCo": 3985,
    "ĠMe": 3986,
    "ĠAd": 3987,
    "ĠSam": 3988,
    "ĠPark": 3989,
    "ĠLat": 3990,
    "ĠÄĳÃ´la": 3991,
    "ĠThá»Ŀi": 3992,
    "Ġtuá»µ": 3993,
    "Ġnano": 3994,
    "illiam": 3995,
    "rew": 3996,
    "£m": 3997,
    "Ńng": 3998,
    "Ġtiá»ĩm": 3999,
    "ĠÄĳáºŃm": 4000,
    "Ġgolf": 4001,
    "ĠchÃły": 4002,
    "oth": 4003,
    "Ġbá»ĥ": 4004,
    "ĠhÃŃt": 4005,
    "Ġmá»¡": 4006,
    "ĠGal": 4007,
    "imb": 4008,
    "Nghá»ĩ": 4009,
    "athan": 4010,
    "Ġrá»ī": 4011,
    "ĠEn": 4012,
    "ĠháºŃn": 4013,
    "Ġhydro": 4014,
    "ÄĳÃ¢y": 4015,
    "ĠNhÃ¢n": 4016,
    "ĠTá»ķng": 4017,
    "ridge": 4018,
    "TÃ¬nh": 4019,
    "lick": 4020,
    "oft": 4021,
    "to": 4022,
    "½n": 4023,
    "Ġváº£": 4024,
    "Ġvá»Ļi": 4025,
    "Ġmá»ĳc": 4026,
    "ĠbÄĥn": 4027,
    "Ġngá»Ļt": 4028,
    "Ġchuyá»ģn": 4029,
    "Ġnhá»§": 4030,
    "ĠÄĲáº£ng": 4031,
    "ĠSinh": 4032,
    "ĠGates": 4033,
    "ĠDá»±": 4034,
    "ĠDel": 4035,
    "Nghe": 4036,
    "NgoÃłi": 4037,
    "ure": 4038,
    "ĠghÃª": 4039,
    "ĠUy": 4040,
    "Ġhá»ķng": 4041,
    "ĠnhÃ¡nh": 4042,
    "Ġngháº½n": 4043,
    "ĠApple": 4044,
    "ĠTranscript": 4045,
    "ĠSubtit": 4046,
    "ĠSubtitles": 4047,
    "mer": 4048,
    "ny": 4049,
    "Ġon": 4050,
    "ĠÄĳiá»ģn": 4051,
    "Ġlam": 4052,
    "Ġbáº§y": 4053,
    "Ġbáº©m": 4054,
    "ĠgÃ£y": 4055,
    "Ġgom": 4056,
    "ĠgiáºŃt": 4057,
    "emen": 4058,
    "ĠAc": 4059,
    "ĠViá»ĩt": 4060,
    "ĠJon": 4061,
    "ĠOx": 4062,
    "red": 4063,
    "iano": 4064,
    "Bá»ĩnh": 4065,
    "Ġquá»·": 4066,
    "ĠBrow": 4067,
    "Ġmicro": 4068,
    "Báº¯t": 4069,
    "Lá»": 4070,
    "Tá»ĳt": 4071,
    "lar": 4072,
    "ĠÆ°Æ¡ng": 4073,
    "Ġváº¥t": 4074,
    "Ġlá»į": 4075,
    "ĠsÃºp": 4076,
    "Ġrá»Ļn": 4077,
    "Ġdáº¡i": 4078,
    "Ġgien": 4079,
    "Ġhoan": 4080,
    "ĠCoca": 4081,
    "ĠgiÃ¡p": 4082,
    "ĠKoran": 4083,
    "itt": 4084,
    "ust": 4085,
    "Ġ95": 4086,
    "Ġ2004": 4087,
    "ida": 4088,
    "QuÃ½": 4089,
    "ĠTimes": 4090,
    "Phá»¥": 4091,
    "Mar": 4092,
    "na": 4093,
    "ster": 4094,
    "ÃĤ": 4095,
    "Ġuy": 4096,
    "Ġor": 4097,
    "Ńi": 4098,
    "Ġmáº§m": 4099,
    "Ġbáº»": 4100,
    "ĠtrÃºng": 4101,
    "ĠthiÃªng": 4102,
    "Ġnháº¥p": 4103,
    "Ġbá»ĵ": 4104,
    "ĠTas": 4105,
    "Ġdá»ĩt": 4106,
    "ĠhÃ´ng": 4107,
    "ini": 4108,
    "ĠBáº±ng": 4109,
    "Ġ28": 4110,
    "ale": 4111,
    "ĠphiÃªu": 4112,
    "ĠJack": 4113,
    "ĠFlor": 4114,
    "ĠNÃ³i": 4115,
    "Ġ2006": 4116,
    "ĠÄĳá»ĳm": 4117,
    "Ġ2011": 4118,
    "ĠCháº³ng": 4119,
    "ĠNhÃ¬n": 4120,
    "NÆ¡i": 4121,
    "OK": 4122,
    "TÃ¡c": 4123,
    "car": 4124,
    "Æ¯": 4125,
    "ĠÃło": 4126,
    "ĠtÃ¹ng": 4127,
    "Ġváº·t": 4128,
    "Ġlá»Ļt": 4129,
    "ĠsÆ°á»Ľng": 4130,
    "Ġráº¡p": 4131,
    "ĠÄĳá»¥ng": 4132,
    "Ġnhá»ĭ": 4133,
    "Ġque": 4134,
    "ĠnÃ³n": 4135,
    "ĠxÃ¡ch": 4136,
    "ĠTÆ°": 4137,
    "inson": 4138,
    "ĠMRI": 4139,
    "enz": 4140,
    "ĠKing": 4141,
    "esh": 4142,
    "Ġphá»ĳt": 4143,
    "ĠJe": 4144,
    "ĠWilliam": 4145,
    "ĠChrist": 4146,
    "Ġxoáº¯n": 4147,
    "ĠStar": 4148,
    "Tá»ķ": 4149,
    "Ġxá»©": 4150,
    "GiÃ¡o": 4151,
    "ect": 4152,
    "NghÄ©a": 4153,
    "Ġ1960": 4154,
    "ĠHá»£p": 4155,
    "ĠGabby": 4156,
    "ĠvÃ²m": 4157,
    "Cáº§n": 4158,
    "David": 4159,
    "Qua": 4160,
    "Tube": 4161,
    "uel": 4162,
    "Ġuá»ĳn": 4163,
    "Ńp": 4164,
    "ĠvÆ°Æ¡ng": 4165,
    "ĠrÃ¬a": 4166,
    "ĠdáºŃp": 4167,
    "ĠkhÃ¹ng": 4168,
    "ĠcÃ¡p": 4169,
    "Ġtá»ĭch": 4170,
    "ongo": 4171,
    "Ġkhan": 4172,
    "ÄĲáº¥y": 4173,
    "Ġká»ģ": 4174,
    "ĠBur": 4175,
    "ĠBab": 4176,
    "ĠKhá»": 4177,
    "ĠLÃ½": 4178,
    "Ġ32": 4179,
    "alia": 4180,
    "ile": 4181,
    "Ġ195": 4182,
    "Ġ65": 4183,
    "ĠTheo": 4184,
    "Ġ2003": 4185,
    "ĠtÃ´m": 4186,
    "Ġ1970": 4187,
    "ĠPalest": 4188,
    "BÆ°á»Ľc": 4189,
    "Dá»±": 4190,
    "LoÃłi": 4191,
    "chá»": 4192,
    "go": 4193,
    "ger": 4194,
    "khi": 4195,
    "váºŃy": 4196,
    "we": 4197,
    "Ġclip": 4198,
    "Ġbiáº¿m": 4199,
    "Ġthá»ĳt": 4200,
    "Ġtháº¯n": 4201,
    "Ġkhen": 4202,
    "Ġcáº£ng": 4203,
    "int": 4204,
    "ĠCamb": 4205,
    "ĠnhÃłm": 4206,
    "ĠMy": 4207,
    "ĠMic": 4208,
    "ĠMac": 4209,
    "enry": 4210,
    "ĠSim": 4211,
    "ĠPháºŃt": 4212,
    "ĠKar": 4213,
    "ĠGo": 4214,
    "ĠGand": 4215,
    "ĠDá»": 4216,
    "ĠRio": 4217,
    "ĠVan": 4218,
    "ĠWhi": 4219,
    "ĠWat": 4220,
    "omb": 4221,
    "ĠChÃł": 4222,
    "ĠChuyá»ĩn": 4223,
    "ThÆ°á»Ŀng": 4224,
    "ther": 4225,
    "igh": 4226,
    "igami": 4227,
    "Ġ120": 4228,
    "ĠchÃ³c": 4229,
    "own": 4230,
    "NghiÃªn": 4231,
    "izza": 4232,
    "Ġax": 4233,
    "Ġvaccine": 4234,
    "Ġorigami": 4235,
    "ChÃº": 4236,
    "Ġel": 4237,
    "Ġlau": 4238,
    "Ġbá»±c": 4239,
    "ĠbÃºa": 4240,
    "Ġkem": 4241,
    "Ġkáº½": 4242,
    "ĠngÆ°": 4243,
    "Ġpiano": 4244,
    "Ġcá»§ng": 4245,
    "ĠchoÃ¡ng": 4246,
    "ĠTuyá»ĩt": 4247,
    "ĠnhÃ£": 4248,
    "ÄĲÆ¡n": 4249,
    "ĠchÃŃp": 4250,
    "Ġkhoai": 4251,
    "Ġká»ĩ": 4252,
    "ĠNor": 4253,
    "Ġtá»ĳng": 4254,
    "ĠBÃłi": 4255,
    "ĠAh": 4256,
    "Ġsá»Ńng": 4257,
    "ĠLad": 4258,
    "Ġá»§i": 4259,
    "ĠÄĳom": 4260,
    "ĠthoÃ¡ng": 4261,
    "NguyÃªn": 4262,
    "ĠWar": 4263,
    "unt": 4264,
    "ĠUg": 4265,
    "outh": 4266,
    "Äĳá»ĥ": 4267,
    "hana": 4268,
    "ĠZe": 4269,
    "ThÃªm": 4270,
    "ĠÄĳá»ĩm": 4271,
    "ĠTasman": 4272,
    "NÆ°á»Ľc": 4273,
    "ba": 4274,
    "lu": 4275,
    "ĠtÄĥm": 4276,
    "ĠÄĳinh": 4277,
    "ĠmÃ©p": 4278,
    "Ġkáº¹p": 4279,
    "ĠsÆ°á»Ŀn": 4280,
    "ĠtrÃ¹m": 4281,
    "Ġgáº¡t": 4282,
    "ĠchÆ°á»Ľng": 4283,
    "Ġtam": 4284,
    "Ġxá»Ļn": 4285,
    "ĠTes": 4286,
    "Ġdá»ĵn": 4287,
    "Ġmá»Ľ": 4288,
    "ĠBush": 4289,
    "Ġphe": 4290,
    "ĠphÆ¡i": 4291,
    "ĠKÃ¬": 4292,
    "ĠKim": 4293,
    "Ġvá»ĭt": 4294,
    "Tráº»": 4295,
    "ĠmÃ´t": 4296,
    "Ġrá»¡": 4297,
    "ĠThÃłnh": 4298,
    "ĠYemen": 4299,
    "Giá»įng": 4300,
    "ĠhÃ¡i": 4301,
    "ĠÄĲá»ı": 4302,
    "ĠghÃ©": 4303,
    "ĠthÆ¡m": 4304,
    "tron": 4305,
    "ĠhuÃ½t": 4306,
    "ght": 4307,
    "ĠYouTube": 4308,
    "rosoft": 4309,
    "Ġstudio": 4310,
    "mpic": 4311,
    "AR": 4312,
    "Cola": 4313,
    "Kháº": 4314,
    "MÃ¡y": 4315,
    "con": 4316,
    "lob": 4317,
    "van": 4318,
    "á»Ľ": 4319,
    "ĠtÃºng": 4320,
    "Ġtáº¡ng": 4321,
    "Ġtriá»ģu": 4322,
    "ĠtrÃ¨o": 4323,
    "Ġgai": 4324,
    "ĠhÃłn": 4325,
    "Ġdai": 4326,
    "Ġthiá»ģn": 4327,
    "ĠCA": 4328,
    "ĠMay": 4329,
    "ĠNÃªn": 4330,
    "ĠBá»ĳ": 4331,
    "ĠSu": 4332,
    "arah": 4333,
    "Ġngá»¥c": 4334,
    "ĠGia": 4335,
    "Ġ3000": 4336,
    "ĠTrá»": 4337,
    "ĠViá»ĩc": 4338,
    "Ġrá»Ĺi": 4339,
    "ille": 4340,
    "itz": 4341,
    "ĠFord": 4342,
    "lyn": 4343,
    "iban": 4344,
    "Ġdá»ĭu": 4345,
    "ĠPháº§n": 4346,
    "ĠHiggs": 4347,
    "ĠbÆ°á»Ľm": 4348,
    "ĠWorld": 4349,
    "ĠOxford": 4350,
    "ĠUganda": 4351,
    "dy": 4352,
    "kg": 4353,
    "ªnh": 4354,
    "ĠÃ¢u": 4355,
    "ĭt": 4356,
    "Ġtáº©y": 4357,
    "ĠnÃŃ": 4358,
    "ĠmÆ°u": 4359,
    "ĠrÃ¢u": 4360,
    "ĠrÃ¨n": 4361,
    "Ġtang": 4362,
    "Ġgieo": 4363,
    "otle": 4364,
    "ĠnhÃ©t": 4365,
    "ĠCongo": 4366,
    "Ġháº»": 4367,
    "ĠMah": 4368,
    "ĠNL": 4369,
    "ĠNan": 4370,
    "ĠBu": 4371,
    "Ġkháº©n": 4372,
    "Ġphiáº¿n": 4373,
    "ĠLED": 4374,
    "Ġtrá»įn": 4375,
    "ĠGen": 4376,
    "ĠGhana": 4377,
    "Ġ33": 4378,
    "Trá»Ł": 4379,
    "Ġ1950": 4380,
    "ÄĲá»©a": 4381,
    "eda": 4382,
    "Äĳiá»ģu": 4383,
    "Giáº£": 4384,
    "Nhá»Ŀ": 4385,
    "ĠLego": 4386,
    "ĠSyria": 4387,
    "ĠCambridge": 4388,
    "500": 4389,
    "oot": 4390,
    "thÃ": 4391,
    "Ġam": 4392,
    "įn": 4393,
    "Ġváº§n": 4394,
    "ĠbÃ³n": 4395,
    "Ġsc": 4396,
    "Ġgh": 4397,
    "ĠhÆ°ng": 4398,
    "ĠdÃª": 4399,
    "Ġdáº¹p": 4400,
    "ĠÄĳá»¥c": 4401,
    "Ġcá»ĵn": 4402,
    "Ġvá»įt": 4403,
    "ane": 4404,
    "ĠTuy": 4405,
    "ĠTá»ĳt": 4406,
    "onald": 4407,
    "ĠhÃ¢m": 4408,
    "ĠCy": 4409,
    "Ġtrá»ħ": 4410,
    "ĠNÃło": 4411,
    "ero": 4412,
    "ĠAp": 4413,
    "Ġdol": 4414,
    "ari": 4415,
    "ĠPer": 4416,
    "Ġngá»¥": 4417,
    "Ġngá»«": 4418,
    "ĠviÃªm": 4419,
    "etro": 4420,
    "ati": 4421,
    "itch": 4422,
    "ĠWall": 4423,
    "ĠEric": 4424,
    "ĠChÃło": 4425,
    "ower": 4426,
    "ĠBrook": 4427,
    "Ġshow": 4428,
    "ropy": 4429,
    "Ste": 4430,
    "Tiáº¿ng": 4431,
    "lÃł": 4432,
    "oáº¡n": 4433,
    "sau": 4434,
    "ze": 4435,
    "¥i": 4436,
    "ĠÆ°á»Ľt": 4437,
    "ĭa": 4438,
    "ĠÄĳÃ²n": 4439,
    "Ġváº¡n": 4440,
    "ĠlÃª": 4441,
    "Ġbanh": 4442,
    "Ġbá»Ļc": 4443,
    "áº¿m": 4444,
    "Ġpizza": 4445,
    "áº¥ng": 4446,
    "ĠcÃ³c": 4447,
    "Ġchay": 4448,
    "ĠchiÃªm": 4449,
    "á»ĳp": 4450,
    "Ġxay": 4451,
    "ĠthÃ¨": 4452,
    "ĠnghiÃªng": 4453,
    "cho": 4454,
    "ÄĲÆ°á»Ŀng": 4455,
    "Ġphá»ĵng": 4456,
    "ĠMand": 4457,
    "eop": 4458,
    "Ġtrá»«ng": 4459,
    "ĠAs": 4460,
    "ĠPl": 4461,
    "ĠLester": 4462,
    "ora": 4463,
    "ĠVir": 4464,
    "ĠJim": 4465,
    "aser": 4466,
    "ĠOly": 4467,
    "ĠHoÃłng": 4468,
    "right": 4469,
    "ChÆ°a": 4470,
    "ĠYout": 4471,
    "Ġjazz": 4472,
    "anderthal": 4473,
    "ĠNeanderthal": 4474,
    "ĠPeter": 4475,
    "ĠStanford": 4476,
    "ĠMicrosoft": 4477,
    "BÃ¡c": 4478,
    "MT": 4479,
    "ef": 4480,
    "fe": 4481,
    "mon": 4482,
    "ven": 4483,
    "´i": 4484,
    "Ġáº¥p": 4485,
    "Ġac": 4486,
    "ĠÄĳÃ¨": 4487,
    "ĠÄĳáº¯m": 4488,
    "Ġnuá»ĳt": 4489,
    "Ġváº¯ng": 4490,
    "Ġváº©n": 4491,
    "ĠlÃ´": 4492,
    "Ġbuá»ĵng": 4493,
    "Ġser": 4494,
    "Ġrá»ĳt": 4495,
    "Ġpound": 4496,
    "ĠdÆ¡i": 4497,
    "Ġnha": 4498,
    "Ġnhi": 4499,
    "Ġvá»Ľ": 4500,
    "Ġnhá»Ļ": 4501,
    "ĠquáºŃn": 4502,
    "Ġbá»ĵn": 4503,
    "ĠTex": 4504,
    "ĠTony": 4505,
    "ĠChÃ¡u": 4506,
    "ĠphÃ¡o": 4507,
    "ĠMÃł": 4508,
    "ĠMÃ¡y": 4509,
    "ere": 4510,
    "ĠHenry": 4511,
    "Ã©n": 4512,
    "Ġquad": 4513,
    "ĠShi": 4514,
    "ĠSing": 4515,
    "ĠLuáºŃt": 4516,
    "Ġngá»£i": 4517,
    "Ġngá»Ńi": 4518,
    "ĠTrÃªn": 4519,
    "Ġbá»ıng": 4520,
    "Ġ2001": 4521,
    "ĠÃ´tÃ´": 4522,
    "thur": 4523,
    "oph": 4524,
    "ardo": 4525,
    "ĠXÃ´": 4526,
    "ake": 4527,
    "ulin": 4528,
    "ylv": 4529,
    "ĠâĢĶ": 4530,
    "ĠScot": 4531,
    "ĠJoe": 4532,
    "ĠPhÃ²ng": 4533,
    "ĠFlorida": 4534,
    "á»Ľc": 4535,
    "ĠYoutube": 4536,
    "ĠTexas": 4537,
    "12": 4538,
    "BM": 4539,
    "Ban": 4540,
    "enh": 4541,
    "hua": 4542,
    "my": 4543,
    "ten": 4544,
    "Ġent": 4545,
    "á»«": 4546,
    "ĠnÃ¢u": 4547,
    "Ġlay": 4548,
    "ĠbÆ°u": 4549,
    "Ġbáº«y": 4550,
    "ĠkÃ¬m": 4551,
    "ĠngÃ¢y": 4552,
    "ĠdÆ°a": 4553,
    "Æ°á»£m": 4554,
    "Ġxáº£o": 4555,
    "ĠnhÃ´": 4556,
    "ĠBon": 4557,
    "ĠHans": 4558,
    "ĠPat": 4559,
    "ĠTrÆ°á»Ľc": 4560,
    "ĠbÃ¡t": 4561,
    "NgÆ°á»£c": 4562,
    "ata": 4563,
    "Ġ....": 4564,
    "ĠHoward": 4565,
    "ĠUn": 4566,
    "agen": 4567,
    "ĠÃĤm": 4568,
    "Ġtháº¡o": 4569,
    "aniel": 4570,
    "Ná»ģn": 4571,
    "ĠCEO": 4572,
    "Ġonline": 4573,
    "ÃĤm": 4574,
    "Æ¯á»Ľc": 4575,
    "ĠthÃ¨m": 4576,
    "Ġentropy": 4577,
    "18": 4578,
    "200": 4579,
    "40": 4580,
    "MÃłu": 4581,
    "kins": 4582,
    "sulin": 4583,
    "¡c": 4584,
    "Ġtáº£o": 4585,
    "Ġcay": 4586,
    "Ġnáº¡p": 4587,
    "Ġbáº¿n": 4588,
    "Ġbáº©y": 4589,
    "Ġrá»±c": 4590,
    "ĠdÃ¢ng": 4591,
    "ĠchiÃªn": 4592,
    "Ġthen": 4593,
    "Ġthiáº¿p": 4594,
    "Ã¬u": 4595,
    "Ġtao": 4596,
    "ĠxÃ¡": 4597,
    "Ġxáº¿": 4598,
    "Ġpháº¿": 4599,
    "chia": 4600,
    "ĠTan": 4601,
    "ÄĲa": 4602,
    "ĠNord": 4603,
    "ĠÄĲÃ´i": 4604,
    "ĠÄĲáº¡o": 4605,
    "ĠSáº½": 4606,
    "ory": 4607,
    "ĠvirÃºt": 4608,
    "Ġkhuáº¥t": 4609,
    "ĠVÃ´": 4610,
    "ĠJer": 4611,
    "ole": 4612,
    "ĠWolf": 4613,
    "Ġ85": 4614,
    "Chá»ĭ": 4615,
    "GiÃ¡": 4616,
    "ĠBron": 4617,
    "ĠShak": 4618,
    "ĠxoÃ¡y": 4619,
    "ĠVá»ĭnh": 4620,
    "Ġ1980": 4621,
    "ĠBá»ĩnh": 4622,
    "ĠAbraham": 4623,
    "ollywood": 4624,
    "ĠchÃ¹m": 4625,
    "ĠTaliban": 4626,
    "ĠOlympic": 4627,
    "19": 4628,
    "John": 4629,
    "nes": 4630,
    "rap": 4631,
    "se": 4632,
    "yan": 4633,
    "Ġuá»·": 4634,
    "Ġop": 4635,
    "Ġcá»Ļ": 4636,
    "ĠngÆ°Æ¡i": 4637,
    "Ġgay": 4638,
    "Ġdiá»ģu": 4639,
    "Ġthuá»³": 4640,
    "Ġnhá»ĵi": 4641,
    "Ġxáº£": 4642,
    "Ġkhiáº¿u": 4643,
    "Ġnghiá»ģn": 4644,
    "ÄĲá»Ļt": 4645,
    "ÄĲá»ĵng": 4646,
    "ĠMu": 4647,
    "emp": 4648,
    "ĠBay": 4649,
    "ĠBol": 4650,
    "ĠÄĲa": 4651,
    "ĠSouth": 4652,
    "ĠKy": 4653,
    "Ġ31": 4654,
    "ĠRock": 4655,
    "ĠVÆ°Æ¡ng": 4656,
    "ĠVÄĥn": 4657,
    "Ġ2050": 4658,
    "rog": 4659,
    "Chá»§": 4660,
    "agh": 4661,
    "Ġnhuá»Ļm": 4662,
    "ĠPhÃ¡t": 4663,
    "ĠluÃ¢n": 4664,
    "ĠRosling": 4665,
    "ĠBrown": 4666,
    "ĠnÃŃn": 4667,
    "Ġdollar": 4668,
    "Ġnhá»Ļn": 4669,
    "15": 4670,
    "CH": 4671,
    "EC": 4672,
    "bá»Łi": 4673,
    "da": 4674,
    "den": 4675,
    "gin": 4676,
    "Ãģ": 4677,
    "ĠÃ¢n": 4678,
    "Ġtw": 4679,
    "ĠláºŃu": 4680,
    "Ġmá»įt": 4681,
    "ĠsÃ¹ng": 4682,
    "Ġtrinh": 4683,
    "Ġtrá»Ļi": 4684,
    "Ġngá»Ļ": 4685,
    "Ġgá»Ļp": 4686,
    "Ġtháº¯p": 4687,
    "ĠxÃ´": 4688,
    "Ġxen": 4689,
    "ĠkhÄĥng": 4690,
    "ĠTur": 4691,
    "ona": 4692,
    "ĠhÃ©": 4693,
    "ĠhÃ¢n": 4694,
    "ino": 4695,
    "ĠCÃ¹ng": 4696,
    "ĠCap": 4697,
    "ĠMor": 4698,
    "ĠMel": 4699,
    "ĠMáº¡ch": 4700,
    "ĠBrian": 4701,
    "ĠHer": 4702,
    "ĠÄĲÃ£": 4703,
    "ĠAv": 4704,
    "ĠSi": 4705,
    "arth": 4706,
    "ĠLÃºc": 4707,
    "ĠDe": 4708,
    "elson": 4709,
    "Ġsoi": 4710,
    "Ġ700": 4711,
    "Char": 4712,
    "ever": 4713,
    "ĠArist": 4714,
    "Ġbá»ķng": 4715,
    "ĠGiá»Ľi": 4716,
    "ĠbÃ³p": 4717,
    "arket": 4718,
    "PhÆ°Æ¡ng": 4719,
    "ĠBlack": 4720,
    "urger": 4721,
    "ĠMá»Ĺi": 4722,
    "ĠNá»¯": 4723,
    "Ġcuáº£": 4724,
    "ĠLatin": 4725,
    "ĠNorden": 4726,
    "Váº«n": 4727,
    "rut": 4728,
    "ston": 4729,
    "¹n": 4730,
    "á»·": 4731,
    "Ġcai": 4732,
    "Ġnáº¿m": 4733,
    "Ġlá»Ļi": 4734,
    "Ġlaser": 4735,
    "ĠlÆ°á»£m": 4736,
    "Ġmar": 4737,
    "Ġbáº¿": 4738,
    "Ġkeo": 4739,
    "Ġsáº¿p": 4740,
    "ĠsÃ³i": 4741,
    "ĠtrÃªu": 4742,
    "ĠngÃ´": 4743,
    "ĠgáºŃp": 4744,
    "Ġray": 4745,
    "Ġria": 4746,
    "ĠnhÄĥn": 4747,
    "Ġkhe": 4748,
    "ĠThÃ´ng": 4749,
    "Ġdá»¡": 4750,
    "Ġháº£": 4751,
    "Ġsá»ıi": 4752,
    "ĠMil": 4753,
    "ĠkhoÃ¡n": 4754,
    "ĠBal": 4755,
    "Ġ29": 4756,
    "ĠÄĲan": 4757,
    "ĠÄĲá»ĵng": 4758,
    "ĠAir": 4759,
    "ĠSer": 4760,
    "ĠGore": 4761,
    "ĠDV": 4762,
    "ĠDa": 4763,
    "ĠDetro": 4764,
    "aland": 4765,
    "ĠRay": 4766,
    "eton": 4767,
    "Ġ55": 4768,
    "ison": 4769,
    "oll": 4770,
    "ĠWil": 4771,
    "ĠFor": 4772,
    "ĠEur": 4773,
    "ĠNghe": 4774,
    "Ġchip": 4775,
    "ĠHoáº·c": 4776,
    "lian": 4777,
    "Ġ800": 4778,
    "reet": 4779,
    "Ġinsulin": 4780,
    "ĠGiÃ¡ng": 4781,
    "evin": 4782,
    "vá»Ľi": 4783,
    "lobal": 4784,
    "Ġháº»o": 4785,
    "ĠScotland": 4786,
    "ĠAristotle": 4787,
    "ĠDetroit": 4788,
    "AM": 4789,
    "CÃ¡": 4790,
    "NÃ£o": 4791,
    "bÃ¢y": 4792,
    "cÃ¡c": 4793,
    "kel": 4794,
    "mad": 4795,
    "rá»ĵi": 4796,
    "§y": 4797,
    "Ġtua": 4798,
    "Ġcáº©u": 4799,
    "Ġne": 4800,
    "Ġnit": 4801,
    "Ġváº·n": 4802,
    "Ġváº«y": 4803,
    "ĠlÆ°á»£n": 4804,
    "Ġsáº£nh": 4805,
    "ĠtrÆ°Æ¡ng": 4806,
    "Ġthá»ģ": 4807,
    "Ġráº£i": 4808,
    "Ġdang": 4809,
    "ĠkhÃ©p": 4810,
    "ĠkhÃ¢u": 4811,
    "Ã¢t": 4812,
    "Ġbá»Ľi": 4813,
    "ĠTÃ¬nh": 4814,
    "ĠMos": 4815,
    "ĠMill": 4816,
    "Ġkhoang": 4817,
    "ĠHill": 4818,
    "ĠAri": 4819,
    "Ġkhá»ĳn": 4820,
    "ĠSal": 4821,
    "ĠLong": 4822,
    "espe": 4823,
    "ĠVÃŃ": 4824,
    "ĠVic": 4825,
    "atar": 4826,
    "Ġrá»ķ": 4827,
    "apore": 4828,
    "ĠOs": 4829,
    "ThÆ°a": 4830,
    "ĠhÃ¡n": 4831,
    "ĠStreet": 4832,
    "ĠUSD": 4833,
    "ave": 4834,
    "ĠGiai": 4835,
    "ĠGiáº£i": 4836,
    "iana": 4837,
    "ansas": 4838,
    "sha": 4839,
    "onesia": 4840,
    "ĠbÃ¹n": 4841,
    "ĠIndonesia": 4842,
    "burgh": 4843,
    "ĠCyrus": 4844,
    "ĠMandela": 4845,
    "ĠBronx": 4846,
    "arketing": 4847,
    "80": 4848,
    "BC": 4849,
    "Chi": 4850,
    "Sh": 4851,
    "bá»ĳt": 4852,
    "do": 4853,
    "gar": 4854,
    "hay": 4855,
    "ies": 4856,
    "ke": 4857,
    "nia": 4858,
    "tan": 4859,
    "ux": 4860,
    "ĠtÆ¡": 4861,
    "ĠÄĳÃłng": 4862,
    "ĠnÃ£y": 4863,
    "Ġnáº¯p": 4864,
    "ĠlÃ¡ch": 4865,
    "ĠngÆ¡i": 4866,
    "Ġngáº¯t": 4867,
    "Ġgiáº¿ng": 4868,
    "ĠvÃłn": 4869,
    "Ġráº·ng": 4870,
    "Ġdev": 4871,
    "ĠÄĳá»įng": 4872,
    "Ġtá»¥t": 4873,
    "Ġxi": 4874,
    "ĠxÃłi": 4875,
    "Ġchá»ĳn": 4876,
    "oto": 4877,
    "ĠTit": 4878,
    "Ãºm": 4879,
    "ÄĲi": 4880,
    "ĠCD": 4881,
    "ĠHÃ´m": 4882,
    "ĠHá»ĩ": 4883,
    "ĠÄĲi": 4884,
    "ĠÄĲáº¿": 4885,
    "ence": 4886,
    "Ġkhá»ĳc": 4887,
    "ĠSom": 4888,
    "ĠKáº¿t": 4889,
    "ĠGold": 4890,
    "ĠDis": 4891,
    "ĠRo": 4892,
    "Ġmáº¹o": 4893,
    "oop": 4894,
    "Ġcháº·ng": 4895,
    "ĠPhÆ°Æ¡ng": 4896,
    "ĠbÃªnh": 4897,
    "ĠphÃ´i": 4898,
    "celand": 4899,
    "ĠPalestine": 4900,
    "ĠWatson": 4901,
    "ĠLaden": 4902,
    "ĠVirgin": 4903,
    "ĠShakespe": 4904,
    "BI": 4905,
    "CC": 4906,
    "Háº¯n": 4907,
    "PT": 4908,
    "col": 4909,
    "ear": 4910,
    "ium": 4911,
    "jo": 4912,
    "īa": 4913,
    "ĠtÆ°á»Ľc": 4914,
    "Ġtáº¡c": 4915,
    "ĠÄĳan": 4916,
    "Ġnáº¡": 4917,
    "Ġnuá»ĳi": 4918,
    "ĠvÃ¡ch": 4919,
    "ĠliÃªng": 4920,
    "Ġmi": 4921,
    "ĠmuÃ´n": 4922,
    "Ġmil": 4923,
    "Ġmarketing": 4924,
    "Ġsp": 4925,
    "ĠngÃło": 4926,
    "ĠhÄĥng": 4927,
    "ĠhÃłu": 4928,
    "ĠrÃ²": 4929,
    "ĠÄĳá»©t": 4930,
    "ĠnhÆ°á»£c": 4931,
    "que": 4932,
    "Ġquáº¡t": 4933,
    "ĠxÆ¡": 4934,
    "Ġkhiáº¿t": 4935,
    "ĠÄĳÃ£i": 4936,
    "ĠthÃª": 4937,
    "á»įng": 4938,
    "ĠTed": 4939,
    "Ġlá»©a": 4940,
    "Ġlá»Ńng": 4941,
    "ĠMat": 4942,
    "ĠMur": 4943,
    "ĠBáº¯t": 4944,
    "Ġloa": 4945,
    "eron": 4946,
    "ĠÄĳá»ĵn": 4947,
    "ĠÄĲáº§u": 4948,
    "ĠÄĲiá»ĩn": 4949,
    "Ġbá»Ļi": 4950,
    "ĠPro": 4951,
    "ĠKn": 4952,
    "ilet": 4953,
    "ĠEver": 4954,
    "ĠChiáº¿c": 4955,
    "ĠÄĲá»ĭa": 4956,
    "agos": 4957,
    "ĠQuan": 4958,
    "ivers": 4959,
    "pha": 4960,
    "Ġquá»µ": 4961,
    "Ġlogo": 4962,
    "ĠLá»Ľn": 4963,
    "Okay": 4964,
    "ThÃ¡ng": 4965,
    "ĠCarolina": 4966,
    "ĠMontana": 4967,
    "ĠZealand": 4968,
    "Ġtweet": 4969,
    "ĠDVD": 4970,
    "ĠVictor": 4971,
    "In": 4972,
    "KhÃ": 4973,
    "MA": 4974,
    "SW": 4975,
    "hh": 4976,
    "hai": 4977,
    "oint": 4978,
    "si": 4979,
    "sk": 4980,
    "ville": 4981,
    "¥a": 4982,
    "Ġ+": 4983,
    "ĠtÃ¡t": 4984,
    "Ġcal": 4985,
    "Ġclick": 4986,
    "ĠÄĳun": 4987,
    "ĠvÃ¡y": 4988,
    "Ġláº¥n": 4989,
    "Ġlen": 4990,
    "Ġbon": 4991,
    "Ġkil": 4992,
    "Ġsuá»ĳi": 4993,
    "Ġhiáº¿u": 4994,
    "ĠdÃ¢u": 4995,
    "ĠcÃ¡n": 4996,
    "Ġhá»Ł": 4997,
    "Ġtá»Ľ": 4998,
    "ĠquÄĥng": 4999,
    "oton": 5000,
    "anth": 5001,
    "ĠTam": 5002,
    "Ġkhinh": 5003,
    "Ġdá»Ŀi": 5004,
    "ÄĲiá»ĩn": 5005,
    "ÄĲáº·c": 5006,
    "Ġtoa": 5007,
    "Ġtoilet": 5008,
    "ĠBáº¥t": 5009,
    "ĠHollywood": 5010,
    "amine": 5011,
    "ĠÄĲÃ´": 5012,
    "Ġkhá»Ń": 5013,
    "ĠSá»©c": 5014,
    "ĠSilicon": 5015,
    "Ġá»ª": 5016,
    "Ġá»ıi": 5017,
    "Ġ37": 5018,
    "Ġngoáº¡n": 5019,
    "ĠDr": 5020,
    "TrÃ¡i": 5021,
    "ĠIr": 5022,
    "ĠVal": 5023,
    "Ġ46": 5024,
    "Ġrá»ĩt": 5025,
    "Ġchui": 5026,
    "Ġchuá»Ļng": 5027,
    "ollo": 5028,
    "ĠEt": 5029,
    "ome": 5030,
    "ĠYo": 5031,
    "Ġ2002": 5032,
    "ĠStew": 5033,
    "Quay": 5034,
    "ĠCháº¯c": 5035,
    "ight": 5036,
    "Ġelec": 5037,
    "thÃ¬": 5038,
    "Ġscan": 5039,
    "Ġdevil": 5040,
    "ĠShakespeare": 5041,
    "25": 5042,
    "Bill": 5043,
    "Hy": 5044,
    "Jo": 5045,
    "Ráº±ng": 5046,
    "VáºŃt": 5047,
    "Xem": 5048,
    "bo": 5049,
    "din": 5050,
    "ech": 5051,
    "eat": 5052,
    "har": 5053,
    "mi": 5054,
    "ni": 5055,
    "nie": 5056,
    "rin": 5057,
    "ye": 5058,
    "ĠÆ¡": 5059,
    "ĠÃªm": 5060,
    "Ġcáº¯n": 5061,
    "Ġcua": 5062,
    "Ġchuá»ĳi": 5063,
    "ĠgiÃłn": 5064,
    "ÄĲoáº¡n": 5065,
    "Ġná»©t": 5066,
    "ĠCáº£": 5067,
    "ĠMá»Ļc": 5068,
    "hic": 5069,
    "ĠNÆ°á»Ľc": 5070,
    "aron": 5071,
    "ĠPop": 5072,
    "ĠDen": 5073,
    "Ġnháº¡o": 5074,
    "ĠIBM": 5075,
    "ĠIceland": 5076,
    "ĠFer": 5077,
    "Ġ1930": 5078,
    "omp": 5079,
    "ewis": 5080,
    "ĠNewton": 5081,
    "Ġngá»§i": 5082,
    "Ġ1999": 5083,
    "ylon": 5084,
    "ĠAmy": 5085,
    "ĠnhÃ¡t": 5086,
    "ĠToÃłn": 5087,
    "ĠiPad": 5088,
    "ĠDelhi": 5089,
    "ĠGandhi": 5090,
    "Ġelectron": 5091,
    "BJ": 5092,
    "Kiá»ĥu": 5093,
    "Phi": 5094,
    "TÃŃnh": 5095,
    "aj": 5096,
    "giá»": 5097,
    "pi": 5098,
    "so": 5099,
    "ui": 5100,
    "ves": 5101,
    "¥y": 5102,
    "ĠÃ´i": 5103,
    "ħn": 5104,
    "ĠÄĳáº¡m": 5105,
    "Ġná»Ļp": 5106,
    "ĠvÆ°á»Ľng": 5107,
    "ĠlÃ³t": 5108,
    "Ġlá»įt": 5109,
    "Ġbar": 5110,
    "Ġbá»įt": 5111,
    "Ġkiá»ģm": 5112,
    "ĠtrÃ³i": 5113,
    "Ġngáº£": 5114,
    "Ġthá»ĳn": 5115,
    "Ġcá»įc": 5116,
    "Ġnháº¥c": 5117,
    "ĠTin": 5118,
    "Ġdá»ĵi": 5119,
    "Ġsá»©a": 5120,
    "ĠMer": 5121,
    "ĠMag": 5122,
    "ĠNÆ¡i": 5123,
    "ĠBi": 5124,
    "ĠBÃ¡c": 5125,
    "ĠSand": 5126,
    "ĠKu": 5127,
    "ĠLau": 5128,
    "ĠLar": 5129,
    "Ġá»«": 5130,
    "ĠDon": 5131,
    "TrÃ´ng": 5132,
    "ose": 5133,
    "ĠRed": 5134,
    "eland": 5135,
    "ĠVÃło": 5136,
    "Ġchá»įi": 5137,
    "ĠJac": 5138,
    "its": 5139,
    "oly": 5140,
    "ĠWright": 5141,
    "ĠFri": 5142,
    "Ġcháº¡p": 5143,
    "Ġ1900": 5144,
    "ĠThay": 5145,
    "ChÃł": 5146,
    "Ġcafe": 5147,
    "HoÃłn": 5148,
    "ive": 5149,
    "eck": 5150,
    "ĠScott": 5151,
    "Khoa": 5152,
    "ĠAtlan": 5153,
    "ĠSingapore": 5154,
    "ĠWolfram": 5155,
    "Ar": 5156,
    "CL": 5157,
    "Car": 5158,
    "Cá»Ļng": 5159,
    "Há»": 5160,
    "Tá»±": 5161,
    "Tuyá»ĩt": 5162,
    "WK": 5163,
    "af": 5164,
    "aeda": 5165,
    "burg": 5166,
    "ij": 5167,
    "las": 5168,
    "nÃªn": 5169,
    "nik": 5170,
    "¨n": 5171,
    "Ãįt": 5172,
    "ÃĶi": 5173,
    "ĠÂ": 5174,
    "Ġtáº»": 5175,
    "ngÆ°á»Ŀi": 5176,
    "Ġcáº¡o": 5177,
    "ĠcÆ°á»¡i": 5178,
    "Ġcáº±n": 5179,
    "ĠÄĳÃŃnh": 5180,
    "ĠnhÃº": 5181,
    "Ġnáº¿n": 5182,
    "Ġnáº·c": 5183,
    "ĠvÃ£": 5184,
    "Ġbin": 5185,
    "ĠsÆ°á»Łi": 5186,
    "Ġtre": 5187,
    "ĠtrÃłng": 5188,
    "ĠgÄĥng": 5189,
    "ĠvÃłnh": 5190,
    "Ġha": 5191,
    "Ġthá»ı": 5192,
    "Ġthá»«ng": 5193,
    "Ġrong": 5194,
    "ĠdÃło": 5195,
    "Ġcá»Ľ": 5196,
    "Ġquáº©n": 5197,
    "Ġxá»ĳp": 5198,
    "ĠTay": 5199,
    "ĠTáº¡o": 5200,
    "Ġhoi": 5201,
    "ĠcháºŃt": 5202,
    "ĠCáº§u": 5203,
    "Æ°Æ¡c": 5204,
    "Ġsá»Ŀ": 5205,
    "ĠMike": 5206,
    "ĠMiss": 5207,
    "ĠNelson": 5208,
    "ĠBob": 5209,
    "ĠBud": 5210,
    "ĠHan": 5211,
    "ĠHÃłnh": 5212,
    "ames": 5213,
    "ĠSk": 5214,
    "ĠSá»ĳ": 5215,
    "ĠphÃłn": 5216,
    "ĠLo": 5217,
    "ĠLin": 5218,
    "ĠLou": 5219,
    "Ġá»§": 5220,
    "ĠGÃ´": 5221,
    "ĠDÃ¹": 5222,
    "Há»įc": 5223,
    "eld": 5224,
    "ato": 5225,
    "Ġrá»Ľt": 5226,
    "ĠWe": 5227,
    "ĠWi": 5228,
    "hop": 5229,
    "ĠphÃŃch": 5230,
    "row": 5231,
    "opia": 5232,
    "ĠÄĳá»ĳn": 5233,
    "ĠThá»ĳng": 5234,
    "ĠNhiá»ģu": 5235,
    "Ġok": 5236,
    "ĠChá»ĭ": 5237,
    "ĠQuÃ¢n": 5238,
    "ĠArg": 5239,
    "ĠZimb": 5240,
    "Ġ2012": 5241,
    "ĠChile": 5242,
    "Ġnguá»Ļi": 5243,
    "ĠColumb": 5244,
    "NghÄ©": 5245,
    "ThÃ¬": 5246,
    "ĠCharlie": 5247,
    "ĠLeon": 5248,
    "ational": 5249,
    "ĠAndrew": 5250,
    "ĠTanz": 5251,
    "ĠVirginia": 5252,
    "BA": 5253,
    "DÆ°á»Ŀng": 5254,
    "Global": 5255,
    "SÃ¡u": 5256,
    "cá»": 5257,
    "km": 5258,
    "mo": 5259,
    "mar": 5260,
    "táº¥t": 5261,
    "uit": 5262,
    "well": 5263,
    "yd": 5264,
    "³t": 5265,
    "ĠÃ´n": 5266,
    "Ġáº¯c": 5267,
    "Ġenz": 5268,
    "Ġtiá»ĩt": 5269,
    "ĠcÆ°a": 5270,
    "ĠmÃ´ng": 5271,
    "ĠbÃ¬": 5272,
    "ĠtrÃ¡": 5273,
    "Ġgáº¯t": 5274,
    "Ġhao": 5275,
    "Ġpop": 5276,
    "ĠthiÃªu": 5277,
    "Ġnhá»ĳt": 5278,
    "Ġxáº¥p": 5279,
    "Ġchá»ĳc": 5280,
    "Ġlá»¥a": 5281,
    "uyá»ħn": 5282,
    "ÄĲÆ°Æ¡ng": 5283,
    "ĠClin": 5284,
    "Ġphá»Ľt": 5285,
    "ĠkhoÃ¡c": 5286,
    "Ġtrá»ĩ": 5287,
    "ĠNo": 5288,
    "ĠtÃŃt": 5289,
    "ering": 5290,
    "eryl": 5291,
    "ĠHam": 5292,
    "ame": 5293,
    "ĠLak": 5294,
    "ors": 5295,
    "TrÆ°á»Ŀng": 5296,
    "ĠRam": 5297,
    "ĠRand": 5298,
    "NgÃ´n": 5299,
    "Ġkhuáº¿ch": 5300,
    "ĠVáº¥n": 5301,
    "Ġ48": 5302,
    "hoáº·c": 5303,
    "ters": 5304,
    "ĠNgÃ´i": 5305,
    "Thá»īnh": 5306,
    "ĠThiáº¿t": 5307,
    "liz": 5308,
    "oid": 5309,
    "rey": 5310,
    "Chris": 5311,
    "ĠAlbert": 5312,
    "ĠAlpha": 5313,
    "ulia": 5314,
    "entina": 5315,
    "ĠArthur": 5316,
    "ĠAmer": 5317,
    "Ġ1984": 5318,
    "ĠnhÃ¡y": 5319,
    "inda": 5320,
    "ĠAlexander": 5321,
    "ĠJeff": 5322,
    "chá»ī": 5323,
    "Ġaxit": 5324,
    "Ġghen": 5325,
    "ĠBrooklyn": 5326,
    "Ãģnh": 5327,
    "100": 5328,
    "CA": 5329,
    "Geo": 5330,
    "Gia": 5331,
    "Kinh": 5332,
    "St": 5333,
    "VÅ©": 5334,
    "bum": 5335,
    "gi": 5336,
    "lash": 5337,
    "way": 5338,
    "Ġtuá»Ļc": 5339,
    "ĠÄĳiáº¿u": 5340,
    "ĠnhÃºng": 5341,
    "há»ĭ": 5342,
    "hÃ£y": 5343,
    "ĠvÃ¹i": 5344,
    "ĠliÃªu": 5345,
    "ĠlÃ©n": 5346,
    "ĠmÃ©o": 5347,
    "Ġbuá»ĵ": 5348,
    "Ġkiá»ģu": 5349,
    "Ġngáº¡o": 5350,
    "Ġngá»įc": 5351,
    "Ġgo": 5352,
    "Ġgáº¡o": 5353,
    "ĠrÃ¬u": 5354,
    "Ġposter": 5355,
    "ĠdÆ°ng": 5356,
    "Ġdáº³ng": 5357,
    "Ġvá»±ng": 5358,
    "Ġnhá»¥c": 5359,
    "Ġtháº£y": 5360,
    "iá»ģng": 5361,
    "Ġbá»ī": 5362,
    "Ġbá»Ŀi": 5363,
    "Ġmá»ĭ": 5364,
    "ĠCas": 5365,
    "ĠMatt": 5366,
    "ĠBot": 5367,
    "ĠBao": 5368,
    "ĠHu": 5369,
    "ĠÄĲá»Ļng": 5370,
    "ĠAus": 5371,
    "ĠgiÃ¡ng": 5372,
    "Ġdop": 5373,
    "Ġphanh": 5374,
    "ĠKi": 5375,
    "ĠKat": 5376,
    "ĠLang": 5377,
    "ĠLee": 5378,
    "ost": 5379,
    "elp": 5380,
    "etti": 5381,
    "Ġnháº¡i": 5382,
    "ĠIg": 5383,
    "ican": 5384,
    "ĠJord": 5385,
    "Ġ2030": 5386,
    "use": 5387,
    "ĠYeah": 5388,
    "rab": 5389,
    "ĠTEDGlobal": 5390,
    "Ġgá»Ľm": 5391,
    "ĠhÃ¡o": 5392,
    "Vá»Ĺ": 5393,
    "ardy": 5394,
    "abeth": 5395,
    "Cháº¥t": 5396,
    "Quáº£": 5397,
    "ull": 5398,
    "iff": 5399,
    "ĠQuáº£ng": 5400,
    "Ġtá»¥ng": 5401,
    "ĠmÃ¬n": 5402,
    "aine": 5403,
    "ĠMoore": 5404,
    "ierra": 5405,
    "ĠThÃ´i": 5406,
    "ĠPhá»¥": 5407,
    "ĠHigh": 5408,
    "ĠKhÃ¡n": 5409,
    "ĠNghiÃªn": 5410,
    "ĠiPod": 5411,
    "ĠVenice": 5412,
    "ĠHawai": 5413,
    "ĠParkinson": 5414,
    "enhagen": 5415,
    "ĠDisney": 5416,
    "ĠTanzania": 5417,
    "lizabeth": 5418,
    "Ġbuá»ĵm": 5419,
    "Dan": 5420,
    "DÆ°á»Ľi": 5421,
    "FG": 5422,
    "MÃ¹a": 5423,
    "RA": 5424,
    "Sp": 5425,
    "Sá»©c": 5426,
    "ThÃº": 5427,
    "eas": 5428,
    "fa": 5429,
    "ool": 5430,
    "rr": 5431,
    "tamin": 5432,
    "uáº§n": 5433,
    "zler": 5434,
    "ĩch": 5435,
    "ĠcÃłnh": 5436,
    "ĠÄĥ": 5437,
    "ĠÄĳáº·n": 5438,
    "Ġná»Ļ": 5439,
    "há»ģ": 5440,
    "Ġváº¯t": 5441,
    "Ġven": 5442,
    "ĠlÃ¡ng": 5443,
    "Ġmu": 5444,
    "ĠmÃ¡c": 5445,
    "Ġmet": 5446,
    "Ġbl": 5447,
    "Ġbá»±": 5448,
    "Ġkg": 5449,
    "Ġgl": 5450,
    "Ġvá»īa": 5451,
    "Ġchiáº¿t": 5452,
    "Ġchinh": 5453,
    "Ġnhá»©c": 5454,
    "Ġnhá»įn": 5455,
    "Ġtháº¹n": 5456,
    "Ġcá»§i": 5457,
    "Ġtá»Ł": 5458,
    "Ġquáº§y": 5459,
    "Ġpháº£": 5460,
    "ĠchoÃłng": 5461,
    "ĠTÃłi": 5462,
    "ĠTel": 5463,
    "Ġlá»¥t": 5464,
    "Ġhon": 5465,
    "ÄĲá»Ļng": 5466,
    "Ġná»Ľi": 5467,
    "ĠCN": 5468,
    "ĠCÅ©ng": 5469,
    "ĠchÃŃch": 5470,
    "ĠMas": 5471,
    "ĠNick": 5472,
    "ĠHiá»ĩn": 5473,
    "ĠAg": 5474,
    "ĠPower": 5475,
    "ĠKal": 5476,
    "ĠKÃŃnh": 5477,
    "ĠGil": 5478,
    "ĠTráº¯ng": 5479,
    "ĠDou": 5480,
    "Å©a": 5481,
    "alem": 5482,
    "Ġvitamin": 5483,
    "elly": 5484,
    "eter": 5485,
    "Ġ44": 5486,
    "ics": 5487,
    "ĠJill": 5488,
    "ily": 5489,
    "ĠFar": 5490,
    "ĠNgay": 5491,
    "usalem": 5492,
    "ĠPhil": 5493,
    "ops": 5494,
    "aze": 5495,
    "Giáº£i": 5496,
    "ĠToÃł": 5497,
    "ĠColomb": 5498,
    "ĠMoz": 5499,
    "ĠTháº§n": 5500,
    "ĠBosnia": 5501,
    "ĠGeorg": 5502,
    "ucks": 5503,
    "Ġalbum": 5504,
    "ĠCopenhagen": 5505,
    "ĠTeszler": 5506,
    "Kháº£": 5507,
    "ĠJerusalem": 5508,
    "Ġopera": 5509,
    "ĠArgentina": 5510,
    "ĠClinton": 5511,
    "Ġdopamine": 5512,
    "CÃłng": 5513,
    "IA": 5514,
    "JH": 5515,
    "Láº¡i": 5516,
    "LiÃªn": 5517,
    "Lá»Ŀi": 5518,
    "Mich": 5519,
    "Oh": 5520,
    "Sá»Ń": 5521,
    "ken": 5522,
    "lÃłm": 5523,
    "ned": 5524,
    "sc": 5525,
    "sy": 5526,
    "Ġah": 5527,
    "áº³n": 5528,
    "ĠcÃło": 5529,
    "ĠÄĳáº§m": 5530,
    "ĠÄĳÆ°Æ¡c": 5531,
    "Ġná»±c": 5532,
    "Ġnáº¥c": 5533,
    "ĠlÆ°á»Ŀi": 5534,
    "ĠlÃºng": 5535,
    "Ġman": 5536,
    "ĠsÆ°Æ¡ng": 5537,
    "Ġsilicon": 5538,
    "Ġhuá»³": 5539,
    "Ġthá»ĳi": 5540,
    "ĠrÃ¹a": 5541,
    "Ġdiá»ħu": 5542,
    "Ġtaxi": 5543,
    "ĠTemp": 5544,
    "ĠchÃªnh": 5545,
    "ÄĲÃ¡ng": 5546,
    "Ġtoáº¡": 5547,
    "ĠMi": 5548,
    "ĠMin": 5549,
    "Ġkhoe": 5550,
    "hidi": 5551,
    "hiopia": 5552,
    "ĠBÄĥng": 5553,
    "ĠBir": 5554,
    "ĠBell": 5555,
    "erom": 5556,
    "ĠÄĲáº¿n": 5557,
    "ena": 5558,
    "ĠAR": 5559,
    "ĠPort": 5560,
    "ĠLine": 5561,
    "Ġviol": 5562,
    "ellow": 5563,
    "isa": 5564,
    "ĠJenn": 5565,
    "ĠJones": 5566,
    "oln": 5567,
    "ĠWow": 5568,
    "Ġ193": 5569,
    "ĠPhilad": 5570,
    "ĠCha": 5571,
    "ĠkÃ©p": 5572,
    "ĠHoÃ¡": 5573,
    "reg": 5574,
    "Chiáº¿n": 5575,
    "ChÆ°Æ¡ng": 5576,
    "ChÃło": 5577,
    "ĠUá»·": 5578,
    "ĠXem": 5579,
    "Má»Ľi": 5580,
    "ĠGiÃ¡": 5581,
    "iberia": 5582,
    "ĠCarl": 5583,
    "ĠCarn": 5584,
    "ĠJohnny": 5585,
    "ThÃŃ": 5586,
    "kyo": 5587,
    "hammad": 5588,
    "derson": 5589,
    "ĠMá»¥c": 5590,
    "incoln": 5591,
    "ĠThÃ¬": 5592,
    "ĠLuÃ¢n": 5593,
    "ĠJoshua": 5594,
    "ĠBabylon": 5595,
    "ylvia": 5596,
    "PTCH": 5597,
    "ĠStewart": 5598,
    "ĠColumbia": 5599,
    "13": 5600,
    "70": 5601,
    "PhÃ¡": 5602,
    "Rob": 5603,
    "SÃ¡ng": 5604,
    "TÃ³m": 5605,
    "ble": 5606,
    "men": 5607,
    "ray": 5608,
    "wich": 5609,
    "Ġáº£": 5610,
    "Ġao": 5611,
    "áº¤n": 5612,
    "ĠcÃºi": 5613,
    "ĠÄĳáº¯ng": 5614,
    "Ġlung": 5615,
    "Ġkiáº¿p": 5616,
    "nhÆ°": 5617,
    "áº¡y": 5618,
    "ĠgÃ¡n": 5619,
    "Ġgáº§y": 5620,
    "Ġgá»ĳm": 5621,
    "Ġráº£nh": 5622,
    "Ġdáº¡n": 5623,
    "Ġtháº£n": 5624,
    "ĠnÃ³c": 5625,
    "Ġxáº»": 5626,
    "Ġchá»ķ": 5627,
    "ĠmÃłi": 5628,
    "cher": 5629,
    "ĠTer": 5630,
    "ĠMov": 5631,
    "ĠNep": 5632,
    "ĠHÃ¬nh": 5633,
    "ĠHung": 5634,
    "ĠHÃłng": 5635,
    "ĠHir": 5636,
    "ĠSá»Ń": 5637,
    "ĠSky": 5638,
    "ĠSierra": 5639,
    "Ġphiá»ĩn": 5640,
    "Ġpherom": 5641,
    "ĠPau": 5642,
    "ĠPri": 5643,
    "ĠKhan": 5644,
    "Ġá»Ľt": 5645,
    "Ġ38": 5646,
    "Ġ350": 5647,
    "Ġngoáº·t": 5648,
    "ĠxuÃ´i": 5649,
    "ĠDu": 5650,
    "ĠDaniel": 5651,
    "ĠbÃ¡u": 5652,
    "ello": 5653,
    "ĠIt": 5654,
    "ila": 5655,
    "ĠWest": 5656,
    "ĠWalk": 5657,
    "ĠFort": 5658,
    "ĠEv": 5659,
    "acy": 5660,
    "ĠThuáºŃt": 5661,
    "ĠOp": 5662,
    "urt": 5663,
    "Ġ86": 5664,
    "Ġgá»¥c": 5665,
    "thay": 5666,
    "ĠgÃ³t": 5667,
    "ĠsuÃ½t": 5668,
    "ĠThá»§": 5669,
    "ulu": 5670,
    "ifer": 5671,
    "ĠAnderson": 5672,
    "utan": 5673,
    "ĠVá»ģ": 5674,
    "Ġ130": 5675,
    "ĠGiá»ĳng": 5676,
    "ĠCá»¥c": 5677,
    "ĠCá»©u": 5678,
    "ather": 5679,
    "ĠLeone": 5680,
    "Ġmá»īa": 5681,
    "ĠJoseph": 5682,
    "Nháº¡c": 5683,
    "Ġacid": 5684,
    "ECD": 5685,
    "ĠVictoria": 5686,
    "ĠEthiopia": 5687,
    "ĠZimbab": 5688,
    "ĠHawaii": 5689,
    "Ġhuá»³nh": 5690,
    "PTCHA": 5691,
    "Bá»įn": 5692,
    "Cuá»ĳn": 5693,
    "CÄĥn": 5694,
    "HÃłnh": 5695,
    "MÃ´": 5696,
    "Máº¥y": 5697,
    "Má»ĳi": 5698,
    "Mark": 5699,
    "OL": 5700,
    "Paul": 5701,
    "Quy": 5702,
    "Tiáº¿n": 5703,
    "Tuá»ķi": 5704,
    "grap": 5705,
    "mart": 5706,
    "off": 5707,
    "rge": 5708,
    "ule": 5709,
    "vÃŃt": 5710,
    "Äĳi": 5711,
    "Ġz": 5712,
    "ĠÆ°Æ¡i": 5713,
    "ħu": 5714,
    "á»«ng": 5715,
    "Ġtáº¡": 5716,
    "ĠcÃ´i": 5717,
    "ĠcÃºng": 5718,
    "ĠcÄĥm": 5719,
    "ĠÄĳÆ°á»Ŀi": 5720,
    "ĠÄĳiá»ĥu": 5721,
    "Ġviá»ģn": 5722,
    "Ġsá»Ļ": 5723,
    "Ġsáº¥u": 5724,
    "ĠngÃ¢m": 5725,
    "Ġnguá»µ": 5726,
    "Ġhen": 5727,
    "Ġthá»ī": 5728,
    "Ġrá»ĵng": 5729,
    "Ġrock": 5730,
    "ĠchÃł": 5731,
    "Ġhá»©c": 5732,
    "Ġquáº¥n": 5733,
    "Ġgiáº§y": 5734,
    "ĠxÃ¬": 5735,
    "ĠxÃło": 5736,
    "Ġhá»įng": 5737,
    "otter": 5738,
    "Ġbá»ĩ": 5739,
    "ĠTÆ°Æ¡ng": 5740,
    "ĠTÃ¬m": 5741,
    "onto": 5742,
    "Ġcháº£o": 5743,
    "ĠchÃ©o": 5744,
    "ĠnhÃŃ": 5745,
    "ĠCÃ¡": 5746,
    "ĠCity": 5747,
    "Æ°Æ¡m": 5748,
    "Ġbá»ĭt": 5749,
    "ĠMT": 5750,
    "ĠBh": 5751,
    "erson": 5752,
    "ĠHav": 5753,
    "ĠÄĲÃło": 5754,
    "ĠShe": 5755,
    "ĠSiberia": 5756,
    "ĠmÃ¡nh": 5757,
    "ĠLincoln": 5758,
    "ĠGod": 5759,
    "Ġvirut": 5760,
    "ĠbÃ©n": 5761,
    "Ġ42": 5762,
    "ĠQatar": 5763,
    "ĠJay": 5764,
    "ĠJes": 5765,
    "ĠJane": 5766,
    "ĠJulia": 5767,
    "apagos": 5768,
    "ĠEx": 5769,
    "ĠNghá»ĭ": 5770,
    "Ġtá»īa": 5771,
    "ĠlÃ£i": 5772,
    "ĠOECD": 5773,
    "Ġ72": 5774,
    "Ġ96": 5775,
    "ooh": 5776,
    "rib": 5777,
    "ĠNews": 5778,
    "ĠÄĲá»ĭnh": 5779,
    "Ġcá»Ńu": 5780,
    "igan": 5781,
    "ÄĳÆ°á»£c": 5782,
    "Ġxá»ķ": 5783,
    "Ġoxi": 5784,
    "ula": 5785,
    "uba": 5786,
    "ĠQuÃ¡": 5787,
    "utnik": 5788,
    "NhÃ³m": 5789,
    "Ġ140": 5790,
    "ĠEmma": 5791,
    "ennis": 5792,
    "ĠToÃ¡n": 5793,
    "ĠTokyo": 5794,
    "ĠBerkel": 5795,
    "Ġeur": 5796,
    "ĠBroad": 5797,
    "uper": 5798,
    "ĠPhá»¥c": 5799,
    "Ġmá»īm": 5800,
    "ladesh": 5801,
    "ĠGreenland": 5802,
    "thá»±c": 5803,
    "ĠGalapagos": 5804,
    "ĠStarb": 5805,
    "ĠSimon": 5806,
    "ĠNorth": 5807,
    "ĠTasmanian": 5808,
    "ĠMaya": 5809,
    "ĠMuhammad": 5810,
    "shahidi": 5811,
    "ĠSomalia": 5812,
    "George": 5813,
    "elphia": 5814,
    "Ġtá»Łm": 5815,
    "azeera": 5816,
    "ĠPhiladelphia": 5817,
    "ĠZimbabwe": 5818,
    "ĠBerkeley": 5819,
    "Adam": 5820,
    "Donald": 5821,
    "Há»ĵi": 5822,
    "OX": 5823,
    "So": 5824,
    "Táº¿": 5825,
    "bor": 5826,
    "ih": 5827,
    "jamin": 5828,
    "tÃ´ng": 5829,
    "tháºŃt": 5830,
    "vÃło": 5831,
    "wen": 5832,
    "¹o": 5833,
    "Ġ=": 5834,
    "Ġion": 5835,
    "Ĥn": 5836,
    "ĠtÃ½": 5837,
    "ĠtÃ²i": 5838,
    "Ġcm": 5839,
    "ĠcÆ°ng": 5840,
    "ĠcÃły": 5841,
    "ĠÄĳiáº¿c": 5842,
    "Ġváº§y": 5843,
    "Ġmáº§u": 5844,
    "Ġmá»Ļc": 5845,
    "Ġngá»±": 5846,
    "Ġgas": 5847,
    "Ġhamb": 5848,
    "ĠráºŃm": 5849,
    "ĠdÃ¬": 5850,
    "ĠÄĳá»±": 5851,
    "ĠÄĳá»Ĺi": 5852,
    "Ġnham": 5853,
    "Æ¡c": 5854,
    "Ġquáº¥y": 5855,
    "ĠxÃ¡o": 5856,
    "ĠxÃ³t": 5857,
    "Ġgiá»¥c": 5858,
    "ĠTÃ¢m": 5859,
    "Ġhor": 5860,
    "Ã¹n": 5861,
    "ait": 5862,
    "ÄĲáº¡i": 5863,
    "ĠCamp": 5864,
    "ĠMau": 5865,
    "ĠsÃ¡p": 5866,
    "ĠNet": 5867,
    "ĠNike": 5868,
    "ĠBá»ĵ": 5869,
    "ĠBali": 5870,
    "ĠÄĲá»ĵ": 5871,
    "ĠSus": 5872,
    "ĠSun": 5873,
    "ĠSud": 5874,
    "ĠSarah": 5875,
    "ĠPenn": 5876,
    "ĠKam": 5877,
    "ĠLaw": 5878,
    "ĠLoáº¡i": 5879,
    "ĠLewis": 5880,
    "ĠGh": 5881,
    "ĠTriá»ģu": 5882,
    "ĠTráº»": 5883,
    "ĠDub": 5884,
    "ĠRon": 5885,
    "Ġ5000": 5886,
    "ĠVi": 5887,
    "ĠJeop": 5888,
    "ĠJazeera": 5889,
    "ĠÃĶ": 5890,
    "aska": 5891,
    "iti": 5892,
    "ĠFOX": 5893,
    "ĠEarth": 5894,
    "Ġ192": 5895,
    "ĠNgoáº¡i": 5896,
    "ade": 5897,
    "ĠThÆ°Æ¡ng": 5898,
    "obi": 5899,
    "uron": 5900,
    "une": 5901,
    "Ġxoa": 5902,
    "ĠSteph": 5903,
    "opa": 5904,
    "ĠXanh": 5905,
    "ava": 5906,
    "Ġxá»ĭt": 5907,
    "ĠchÃ³p": 5908,
    "Ġ180": 5909,
    "Ġ185": 5910,
    "Ġhip": 5911,
    "egie": 5912,
    "Ġ160": 5913,
    "ĠKenned": 5914,
    "phone": 5915,
    "Cá»¥": 5916,
    "ĠMcC": 5917,
    "ĠSputnik": 5918,
    "rence": 5919,
    "ĠBangladesh": 5920,
    "ĠLuther": 5921,
    "Khu": 5922,
    "ĠbÆ°á»Ľu": 5923,
    "thalate": 5924,
    "ĠrÃ£nh": 5925,
    "ĠWhit": 5926,
    "ĠAtlanta": 5927,
    "ĠLeonardo": 5928,
    "ĠÄĥng": 5929,
    "ĠColombia": 5930,
    "ĠCarnegie": 5931,
    "ĠStarbucks": 5932,
    "ĠStephen": 5933,
    "ĠKennedy": 5934,
    "99": 5935,
    "Cá»ĳ": 5936,
    "ChÃ¡u": 5937,
    "DA": 5938,
    "DÃ¢n": 5939,
    "Dá»±a": 5940,
    "EA": 5941,
    "Khá»": 5942,
    "MS": 5943,
    "NC": 5944,
    "SS": 5945,
    "Táº¥m": 5946,
    "bie": 5947,
    "ha": 5948,
    "lay": 5949,
    "lem": 5950,
    "med": 5951,
    "rick": 5952,
    "shi": 5953,
    "tt": 5954,
    "tim": 5955,
    "zÆ¡": 5956,
    "Ġtest": 5957,
    "ĠÄĳáº¯p": 5958,
    "Ġna": 5959,
    "ĠvÃ´i": 5960,
    "ĠvÃ¡c": 5961,
    "Ġláº§y": 5962,
    "ĠbÃ´i": 5963,
    "Ġbáº§m": 5964,
    "Ġsand": 5965,
    "Ġtriá»ħn": 5966,
    "Ġthá»§ng": 5967,
    "ĠrÃł": 5968,
    "Ġpoly": 5969,
    "ĠduyÃªn": 5970,
    "Ġgiun": 5971,
    "ĠxÃ¢u": 5972,
    "Ġxáº¯n": 5973,
    "Ġchá»ĵn": 5974,
    "ĠTáº¡ng": 5975,
    "Ġcháº£i": 5976,
    "ĠchÃ©n": 5977,
    "ÄĲÃłn": 5978,
    "inburgh": 5979,
    "ĠMinh": 5980,
    "ember": 5981,
    "Ġtrá»Ľ": 5982,
    "Ġtrá»Ĺi": 5983,
    "ĠBel": 5984,
    "ĠBas": 5985,
    "ĠBert": 5986,
    "ĠHa": 5987,
    "ĠHad": 5988,
    "amas": 5989,
    "ĠÄĲÃ´n": 5990,
    "Ġkhá»ĳng": 5991,
    "ĠSiÃªu": 5992,
    "Ġyeah": 5993,
    "ĠPol": 5994,
    "ĠKhÃ": 5995,
    "ĠKevin": 5996,
    "ĠKelly": 5997,
    "ĠquÃ¡ng": 5998,
    "ĠGran": 5999,
    "aly": 6000,
    "ĠRobot": 6001,
    "ĠRog": 6002,
    "ette": 6003,
    "Nguá»ĵn": 6004,
    "Ġ58": 6005,
    "ĠVáºŃt": 6006,
    "ild": 6007,
    "olas": 6008,
    "omen": 6009,
    "ĠThÆ°a": 6010,
    "ĠPhilip": 6011,
    "Ġ74": 6012,
    "Ġghim": 6013,
    "opatch": 6014,
    "ĠAlice": 6015,
    "ĠchÃ³i": 6016,
    "ĠBrit": 6017,
    "eller": 6018,
    "Ġtá»¥i": 6019,
    "Ġ1996": 6020,
    "Ġ1998": 6021,
    "attle": 6022,
    "ĠÃģo": 6023,
    "phere": 6024,
    "Ġhá»ĳc": 6025,
    "ĠCá»©": 6026,
    "ĠBá»©c": 6027,
    "ĠMichigan": 6028,
    "ĠEdinburgh": 6029,
    "ĠToronto": 6030,
    "ĠCopern": 6031,
    "ĠHawk": 6032,
    "Tá»ķng": 6033,
    "ĠTasmania": 6034,
    "ĠNanopatch": 6035,
    "ĠApollo": 6036,
    "ĠnhÃ´m": 6037,
    "ĠEverest": 6038,
    "ĠLakota": 6039,
    "ĠHungary": 6040,
    "graphic": 6041,
    "ihad": 6042,
    "Ġhamburger": 6043,
    "90": 6044,
    "Ben": 6045,
    "Háº³n": 6046,
    "Jos": 6047,
    "Kiáº¿n": 6048,
    "NG": 6049,
    "OPA": 6050,
    "Quyá»ģn": 6051,
    "SC": 6052,
    "Suy": 6053,
    "TS": 6054,
    "ax": 6055,
    "cy": 6056,
    "eon": 6057,
    "nÃ´": 6058,
    "oz": 6059,
    "pu": 6060,
    "tháº¿": 6061,
    "zona": 6062,
    "ĠáºŃp": 6063,
    "Ġooh": 6064,
    "Ġtá»Ļt": 6065,
    "ĠÄĳáº¯c": 6066,
    "Ġno": 6067,
    "ĠnÃ¡o": 6068,
    "Ġve": 6069,
    "ĠvÃ¡": 6070,
    "ĠvÅ©ng": 6071,
    "Ġviá»ĩt": 6072,
    "Ġláº«y": 6073,
    "ĠbÃłnh": 6074,
    "ĠbÃłng": 6075,
    "ĠsáºŃp": 6076,
    "ĠngÆ°á»Ľc": 6077,
    "Ġngáº·t": 6078,
    "Ġnguyá»ĩt": 6079,
    "Ġgel": 6080,
    "ĠgáºŃt": 6081,
    "Ġgiá»ģng": 6082,
    "Ġghá»ģ": 6083,
    "Ġhel": 6084,
    "Ġdáº¥n": 6085,
    "ĠnhÆ°á»£ng": 6086,
    "Ġrap": 6087,
    "ĠphÃ´ng": 6088,
    "ĠTáº¿": 6089,
    "aig": 6090,
    "airo": 6091,
    "Ġcháº±ng": 6092,
    "inn": 6093,
    "Ġná»ĵi": 6094,
    "ĠCor": 6095,
    "ĠMap": 6096,
    "eman": 6097,
    "ĠNÃ´": 6098,
    "ĠNair": 6099,
    "ĠNational": 6100,
    "ĠBá»ĳn": 6101,
    "ĠBoy": 6102,
    "ĠHol": 6103,
    "ĠSol": 6104,
    "ĠSad": 6105,
    "ĠSÃ¡u": 6106,
    "ĠSuper": 6107,
    "ial": 6108,
    "ĠKr": 6109,
    "ĠKansas": 6110,
    "ĠLai": 6111,
    "ĠLáº¡t": 6112,
    "ĠLeb": 6113,
    "ĠLuc": 6114,
    "ĠTruyá»ģn": 6115,
    "ĠbÃ¡ng": 6116,
    "ĠRes": 6117,
    "ĠRoy": 6118,
    "NgÃłnh": 6119,
    "Ġkhuáº¥y": 6120,
    "ĠIM": 6121,
    "Ġ52": 6122,
    "ĠViáº¿t": 6123,
    "ĠES": 6124,
    "ĠOak": 6125,
    "ura": 6126,
    "Ġ98": 6127,
    "unk": 6128,
    "Vá»ĭ": 6129,
    "ĠUshahidi": 6130,
    "ocr": 6131,
    "ĠGiÃ¡m": 6132,
    "Ġox": 6133,
    "Ġfan": 6134,
    "Ġfor": 6135,
    "ĠConn": 6136,
    "ĠAnas": 6137,
    "ĠQuay": 6138,
    "ĠQuÃ½": 6139,
    "Ġáº¢o": 6140,
    "Ġ1995": 6141,
    "ĠJohnson": 6142,
    "ĠBern": 6143,
    "Ġkhuya": 6144,
    "ĠEdward": 6145,
    "inceton": 6146,
    "ĠPrinceton": 6147,
    "umbai": 6148,
    "ĠCameron": 6149,
    "ĠNháº¥t": 6150,
    "osterone": 6151,
    "ĠJackson": 6152,
    "ĠTrá»ĭ": 6153,
    "opher": 6154,
    "ĠArizona": 6155,
    "giá»Ŀ": 6156,
    "Michael": 6157,
    "ĠTempest": 6158,
    "ĠMovember": 6159,
    "ĠNepal": 6160,
    "ĠSudan": 6161,
    "ĠJeopardy": 6162,
    "14": 6163,
    "AK": 6164,
    "Biá»ĥu": 6165,
    "Einstein": 6166,
    "HC": 6167,
    "Hiá»ĥn": 6168,
    "Káº¿": 6169,
    "RW": 6170,
    "Suá»ĳt": 6171,
    "Tá»ĳi": 6172,
    "Tuáº§n": 6173,
    "bao": 6174,
    "ct": 6175,
    "cÅ©ng": 6176,
    "cent": 6177,
    "eith": 6178,
    "fur": 6179,
    "iel": 6180,
    "kr": 6181,
    "mÃ´n": 6182,
    "pháº": 6183,
    "rÃ´": 6184,
    "vis": 6185,
    "zz": 6186,
    "±n": 6187,
    "Ġáº§m": 6188,
    "Ġet": 6189,
    "Ġamin": 6190,
    "ĠÆ¯á»Ľc": 6191,
    "Ġtáº£n": 6192,
    "Ġtáº·c": 6193,
    "ĠtÆ°á»Ľi": 6194,
    "ĠcÃ²i": 6195,
    "Ġcáº©m": 6196,
    "ĠÄĳÃª": 6197,
    "ĠÄĳáºŃy": 6198,
    "Ġvuá»ĳt": 6199,
    "Ġviáº¿ng": 6200,
    "Ġme": 6201,
    "Ġmao": 6202,
    "Ġmáº·n": 6203,
    "ĠbÃ£": 6204,
    "ĠsuÃ´n": 6205,
    "ĠtrÆ¡n": 6206,
    "ĠtrÃ¹": 6207,
    "Ġgram": 6208,
    "ĠhiÃªn": 6209,
    "Ġreo": 6210,
    "Ġnhai": 6211,
    "Ġcá»«": 6212,
    "Ġcá»Ĺi": 6213,
    "Ġnhá»įc": 6214,
    "Ġquáº³ng": 6215,
    "á»±u": 6216,
    "Ġsáº¹o": 6217,
    "Ġgiá»ħu": 6218,
    "ĠphÃ¬nh": 6219,
    "ĠTÃªn": 6220,
    "ĠTah": 6221,
    "ĠCuá»ĳi": 6222,
    "ĠCairo": 6223,
    "Ġbá»ĭch": 6224,
    "ĠMáº·c": 6225,
    "ĠMáº¡ng": 6226,
    "ĠMÃ¹a": 6227,
    "ĠMumbai": 6228,
    "emy": 6229,
    "Ġká»µ": 6230,
    "ĠBeet": 6231,
    "ĠHel": 6232,
    "ĠÄĲÃłi": 6233,
    "ĠAch": 6234,
    "ĠSá»": 6235,
    "ĠPep": 6236,
    "ĠKháº": 6237,
    "ĠLáº§n": 6238,
    "Ġngá»£p": 6239,
    "ĠGar": 6240,
    "ĠGro": 6241,
    "Ġ34": 6242,
    "ĠDie": 6243,
    "osau": 6244,
    "ĠRad": 6245,
    "ater": 6246,
    "atur": 6247,
    "Ġ43": 6248,
    "ĠQua": 6249,
    "icus": 6250,
    "ĠEle": 6251,
    "Ġ190": 6252,
    "hoven": 6253,
    "ustin": 6254,
    "ado": 6255,
    "omet": 6256,
    "ĠYÃªu": 6257,
    "rah": 6258,
    "ĠHoÃłn": 6259,
    "Ġ93": 6260,
    "Ġ900": 6261,
    "ĠlÃŃt": 6262,
    "ree": 6263,
    "ĠInter": 6264,
    "ideo": 6265,
    "Chá»¯": 6266,
    "ĠXu": 6267,
    "ĠAlaska": 6268,
    "Tá»Ľi": 6269,
    "oud": 6270,
    "ÄĳÃ£": 6271,
    "ump": 6272,
    "QuÃŃ": 6273,
    "ChÃ¢u": 6274,
    "ĠAnn": 6275,
    "Giai": 6276,
    "ĠArt": 6277,
    "ĠprÃ´": 6278,
    "ĠâĢ¦": 6279,
    "achel": 6280,
    "ĠBerlin": 6281,
    "ĠTime": 6282,
    "ĠPhá»ĳ": 6283,
    "PhÃŃa": 6284,
    "...": 6285,
    "And": 6286,
    "ĠSeattle": 6287,
    "field": 6288,
    "ĠCAPTCHA": 6289,
    "Ġenzy": 6290,
    "ĠDoug": 6291,
    "Ġviolin": 6292,
    "Ġthá»īu": 6293,
    "ribati": 6294,
    "Ġtestosterone": 6295,
    "Biáº¿t": 6296,
    "Bá»ĳn": 6297,
    "Cáº£nh": 6298,
    "EG": 6299,
    "Ed": 6300,
    "Peter": 6301,
    "Richard": 6302,
    "SB": 6303,
    "Sinh": 6304,
    "VÄĥn": 6305,
    "br": 6306,
    "cÃ²n": 6307,
    "cou": 6308,
    "hm": 6309,
    "hol": 6310,
    "mail": 6311,
    "ráº±ng": 6312,
    "sw": 6313,
    "uz": 6314,
    "word": 6315,
    "yc": 6316,
    "yo": 6317,
    "Ġ)": 6318,
    "Ġq": 6319,
    "Ġen": 6320,
    "Ġit": 6321,
    "ĠcÃ¢m": 6322,
    "Ġnang": 6323,
    "Ġnai": 6324,
    "ĠnÃ´n": 6325,
    "Ġvv": 6326,
    "Ġlá»ĳ": 6327,
    "Ġlá»Ļng": 6328,
    "Ġliá»ħu": 6329,
    "ĠmÄ©": 6330,
    "Ġmiá»ĩt": 6331,
    "Ġbo": 6332,
    "ĠkiÃªu": 6333,
    "Ġsáº¡c": 6334,
    "Ġtro": 6335,
    "Ġngáº§n": 6336,
    "Ġnguá»": 6337,
    "ĠgÃ´n": 6338,
    "Ġgáº§m": 6339,
    "ĠhÆ°Æ¡": 6340,
    "ĠrÃ²ng": 6341,
    "ĠrÃ¡ch": 6342,
    "Ġráº©y": 6343,
    "Ġdáº¥y": 6344,
    "Ġdáº«u": 6345,
    "Ġchanh": 6346,
    "Ġgiang": 6347,
    "Ġxá»Ł": 6348,
    "Ġchá»Ļ": 6349,
    "Ġchá»ķi": 6350,
    "ĠthÃ¢": 6351,
    "ĠthÃ¬nh": 6352,
    "Ġnháº½": 6353,
    "ĠTiá»ģn": 6354,
    "ÄĲáº·t": 6355,
    "ines": 6356,
    "ĠCuba": 6357,
    "Ġháº¯c": 6358,
    "Ġsá»¡": 6359,
    "Ġsá»¥t": 6360,
    "Nhiá»ĩm": 6361,
    "ĠMus": 6362,
    "ĠMama": 6363,
    "Ġtrá»ı": 6364,
    "Ġká»ĭ": 6365,
    "ĠNhá»": 6366,
    "ĠNathan": 6367,
    "ĠBáº£y": 6368,
    "ĠHal": 6369,
    "ĠHá»ĵng": 6370,
    "ĠÄĲÆ°a": 6371,
    "ĠÄĲá»ĳi": 6372,
    "ĠSn": 6373,
    "ĠSen": 6374,
    "ias": 6375,
    "Ġphao": 6376,
    "ĠKá»¹": 6377,
    "ĠKur": 6378,
    "áº¹o": 6379,
    "ĠDick": 6380,
    "Trang": 6381,
    "ĠÃŃn": 6382,
    "alay": 6383,
    "alin": 6384,
    "imet": 6385,
    "oshi": 6386,
    "ĠRid": 6387,
    "ĠIvan": 6388,
    "ister": 6389,
    "ĠQuyá»ģn": 6390,
    "ĠJers": 6391,
    "ĠbazÆ¡": 6392,
    "Ġláº½o": 6393,
    "ĠFox": 6394,
    "ĠEve": 6395,
    "ĠElizabeth": 6396,
    "hoo": 6397,
    "Ġ64": 6398,
    "ĠThung": 6399,
    "ĠOli": 6400,
    "obs": 6401,
    "ring": 6402,
    "Ġbanjo": 6403,
    "thew": 6404,
    "ĠUr": 6405,
    "ington": 6406,
    "eyer": 6407,
    "Má»©c": 6408,
    "ĠYorker": 6409,
    "tech": 6410,
    "QuÃ¢n": 6411,
    "ĠQuáº§n": 6412,
    "ĠhÃ¨n": 6413,
    "Ġ1994": 6414,
    "Ġgames": 6415,
    "ĠGiá»įng": 6416,
    "ĠScr": 6417,
    "anna": 6418,
    "anny": 6419,
    "Ġ1975": 6420,
    "ĠCá»§a": 6421,
    "ĠbuÃ´ng": 6422,
    "Ná»Ĺi": 6423,
    "ĠLá»ĭch": 6424,
    "ĠSteven": 6425,
    "ĠRomo": 6426,
    "Lá»ĭch": 6427,
    "ittle": 6428,
    "ChÃºa": 6429,
    "ĠLesterland": 6430,
    "Charles": 6431,
    "garet": 6432,
    "ĠLouis": 6433,
    "ĠKiribati": 6434,
    "ĠCNN": 6435,
    "ĠSkype": 6436,
    "ĠHavard": 6437,
    "ĠJesus": 6438,
    "ĠÄĳá»±Æ¡c": 6439,
    "timore": 6440,
    "Ġsandwich": 6441,
    "ĠBeethoven": 6442,
    "ĠJersey": 6443,
    "AO": 6444,
    "CÃ¢y": 6445,
    "GM": 6446,
    "James": 6447,
    "MG": 6448,
    "NÄĥng": 6449,
    "Niá»ģm": 6450,
    "RG": 6451,
    "RNA": 6452,
    "SR": 6453,
    "Sá»": 6454,
    "Tim": 6455,
    "Thomas": 6456,
    "Women": 6457,
    "XL": 6458,
    "XÃ£": 6459,
    "cÃ¡i": 6460,
    "cal": 6461,
    "cus": 6462,
    "ead": 6463,
    "fred": 6464,
    "iro": 6465,
    "ms": 6466,
    "rat": 6467,
    "rina": 6468,
    "tháº": 6469,
    "tel": 6470,
    "tion": 6471,
    "uela": 6472,
    "¨ng": 6473,
    "²i": 6474,
    "ģu": 6475,
    "áºµn": 6476,
    "ĠÄĤn": 6477,
    "ĠÄĳÃºt": 6478,
    "ĠÄĳáº«m": 6479,
    "ĠnÃ²ng": 6480,
    "Ġnáº·n": 6481,
    "Ġnáº¥ng": 6482,
    "ĠmiÃªn": 6483,
    "ĠmÆ°á»Ŀng": 6484,
    "Ġbe": 6485,
    "ĠbÃº": 6486,
    "Ġbus": 6487,
    "Ġki": 6488,
    "ĠkÃ¨n": 6489,
    "ĠtrÃºt": 6490,
    "Ġgáº·m": 6491,
    "Ġrá»įi": 6492,
    "Ġráº¡c": 6493,
    "Ġpass": 6494,
    "ĠdÃ¨": 6495,
    "ĠthÃł": 6496,
    "Ġnhá»ķ": 6497,
    "Ġtá»©": 6498,
    "ĠquáºŃt": 6499,
    "ĠxÃ³i": 6500,
    "Ġpháº«n": 6501,
    "Ġnháº¥m": 6502,
    "ĠTá»ĳi": 6503,
    "ĠTun": 6504,
    "ĠTÃŃnh": 6505,
    "aid": 6506,
    "aus": 6507,
    "Ġsá»«ng": 6508,
    "Ġbá»ĭp": 6509,
    "ĠMet": 6510,
    "ĠMass": 6511,
    "ĠMitch": 6512,
    "ĠNic": 6513,
    "ĠBM": 6514,
    "ĠBÃªn": 6515,
    "ĠBiá»ĥn": 6516,
    "ĠloÃ©": 6517,
    "ery": 6518,
    "ĠHom": 6519,
    "ene": 6520,
    "ĠAng": 6521,
    "ĠAsh": 6522,
    "ĠArab": 6523,
    "Ġkhá»Ŀ": 6524,
    "ĠSylvia": 6525,
    "Ġphthalate": 6526,
    "ĠLi": 6527,
    "ĠGary": 6528,
    "ĠTranh": 6529,
    "ĠDÄ©": 6530,
    "ĠDoh": 6531,
    "ĠDav": 6532,
    "ori": 6533,
    "Ġthuá»Ł": 6534,
    "imee": 6535,
    "osh": 6536,
    "iÃªt": 6537,
    "ĠIP": 6538,
    "Tháº¥y": 6539,
    "Ġ450": 6540,
    "ĠJerry": 6541,
    "ĠWill": 6542,
    "ĠFGM": 6543,
    "Ġláº¡y": 6544,
    "ĠThÆ°": 6545,
    "ĠOn": 6546,
    "ĠOreg": 6547,
    "ĠChad": 6548,
    "lipp": 6549,
    "opy": 6550,
    "ĠUkr": 6551,
    "able": 6552,
    "Tá»ī": 6553,
    "inea": 6554,
    "illa": 6555,
    "Ġfile": 6556,
    "aza": 6557,
    "iva": 6558,
    "ĠArch": 6559,
    "ecca": 6560,
    "Ġtháº¡c": 6561,
    "ĠIsland": 6562,
    "Ġ1997": 6563,
    "allon": 6564,
    "ĠCháº¿t": 6565,
    "ĠGeographic": 6566,
    "ĠMcG": 6567,
    "ĠMcK": 6568,
    "athon": 6569,
    "ĠPhÆ°á»£ng": 6570,
    "ĠBlue": 6571,
    "ToÃł": 6572,
    "ĠBeach": 6573,
    "ĠGreat": 6574,
    "ĠBenjamin": 6575,
    "ĠOkay": 6576,
    "ĠJulian": 6577,
    "ĠGrand": 6578,
    "ĠGuinea": 6579,
    "ĠTesla": 6580,
    "ĠPeru": 6581,
    "ĠShir": 6582,
    "aghetti": 6583,
    "Ġmarathon": 6584,
    "ĠBaltimore": 6585,
    "ĠEuropa": 6586,
    "Ġspaghetti": 6587,
    "ĠthÃªu": 6588,
    "KhÃ³": 6589,
    "Ġcalo": 6590,
    "otonin": 6591,
    "ĠFried": 6592,
    "ĠTaylor": 6593,
    "ĠJefferson": 6594,
    "ĠKatrina": 6595,
    "ĠJordan": 6596,
    "ĠBhutan": 6597,
    "ĠFOXO": 6598,
    "ĠBertie": 6599,
    "ĠHawking": 6600,
    "ĠDiego": 6601,
    "couver": 6602,
    "ĠhÆ°Æ¡u": 6603,
    "Ġpassword": 6604,
    "ĠDoha": 6605,
    "ĠOregon": 6606,
    "11": 6607,
    "75": 6608,
    "Fran": 6609,
    "LÆ°á»£ng": 6610,
    "LuÃ´n": 6611,
    "Mong": 6612,
    "SE": 6613,
    "Sai": 6614,
    "TÃłi": 6615,
    "Tiá»ģn": 6616,
    "Vi": 6617,
    "Xe": 6618,
    "XÃ©t": 6619,
    "bá»ĳn": 6620,
    "eng": 6621,
    "eff": 6622,
    "ject": 6623,
    "ko": 6624,
    "lav": 6625,
    "tá»«": 6626,
    "ww": 6627,
    "¡y": 6628,
    "µng": 6629,
    "ĠÆ°á»Ľp": 6630,
    "áº¢": 6631,
    "Ġtem": 6632,
    "Ġteen": 6633,
    "ngh": 6634,
    "ĠcÃµi": 6635,
    "ĠÄĳiá»ģm": 6636,
    "ĠÄĳáº¥ng": 6637,
    "ĠnÃ´i": 6638,
    "ĠvÃª": 6639,
    "ĠvÃ³c": 6640,
    "Ġlon": 6641,
    "Ġláº©n": 6642,
    "Ġlink": 6643,
    "Ġbáº§n": 6644,
    "Ġbit": 6645,
    "ĠkiÃªm": 6646,
    "Ġsáº£y": 6647,
    "Ġsáº¥m": 6648,
    "ĠtrÃ¢u": 6649,
    "Ġnguyá»ģn": 6650,
    "Ġgá»Łi": 6651,
    "ĠrÃłnh": 6652,
    "Ġráº¡ng": 6653,
    "Ġráº¡ch": 6654,
    "ĠrÆ°á»Łi": 6655,
    "Ġprog": 6656,
    "ĠcÃ¡u": 6657,
    "Ġchá»ĩch": 6658,
    "otos": 6659,
    "anon": 6660,
    "anic": 6661,
    "ĠTy": 6662,
    "ĠTiÃªn": 6663,
    "Ġhoáº¡n": 6664,
    "onacc": 6665,
    "ÄĲá»Ļ": 6666,
    "ÄĲáº¥t": 6667,
    "Ġmá»©t": 6668,
    "ĠCP": 6669,
    "ĠCao": 6670,
    "ĠCen": 6671,
    "ĠCur": 6672,
    "Ġtop": 6673,
    "ĠMÃ´i": 6674,
    "ĠMÃª": 6675,
    "ĠMoh": 6676,
    "ĠBlo": 6677,
    "ĠHim": 6678,
    "ĠHáº¯n": 6679,
    "ĠHall": 6680,
    "ĠÄĲáº·c": 6681,
    "ĠAur": 6682,
    "ĠSil": 6683,
    "ĠSÃ¡ng": 6684,
    "ĠcÆ¡m": 6685,
    "Ġphu": 6686,
    "ĠPier": 6687,
    "ĠKib": 6688,
    "ĠLÃ¢m": 6689,
    "Ġtrá»įt": 6690,
    "ĠGan": 6691,
    "ĠGá»Ńi": 6692,
    "ĠGeh": 6693,
    "ĠTrÄĥng": 6694,
    "ĠTreas": 6695,
    "Ġxuáº©n": 6696,
    "ĠDÃłn": 6697,
    "TrÃ²": 6698,
    "alore": 6699,
    "ĠviÃª": 6700,
    "ĠRa": 6701,
    "ĠRod": 6702,
    "Ġthoa": 6703,
    "eta": 6704,
    "etown": 6705,
    "NgÃ¢n": 6706,
    "ĠIm": 6707,
    "Ġ54": 6708,
    "ĠVer": 6709,
    "Ġ4000": 6710,
    "Ġrá»¥ng": 6711,
    "ĠQaeda": 6712,
    "ĠJan": 6713,
    "ĠJess": 6714,
    "app": 6715,
    "ita": 6716,
    "ĠFib": 6717,
    "ĠFBI": 6718,
    "Ġ2020": 6719,
    "ĠNguyÃªn": 6720,
    "act": 6721,
    "ĠChuyáº¿n": 6722,
    "Ġ77": 6723,
    "Ġ82": 6724,
    "Ġ97": 6725,
    "oir": 6726,
    "rie": 6727,
    "rich": 6728,
    "ĠÄĲá»Ŀi": 6729,
    "ĠStir": 6730,
    "ĠState": 6731,
    "rane": 6732,
    "ĠUN": 6733,
    "agan": 6734,
    "ager": 6735,
    "Ġ125": 6736,
    "ĠAllen": 6737,
    "abad": 6738,
    "oul": 6739,
    "owitz": 6740,
    "ChÃ¢n": 6741,
    "Ġcanxi": 6742,
    "awa": 6743,
    "Ġ1992": 6744,
    "ĠEmily": 6745,
    "phen": 6746,
    "ĠhÃ£nh": 6747,
    "ĠxÃŃt": 6748,
    "ĠMcDonald": 6749,
    "ĠBá»Ŀ": 6750,
    "athem": 6751,
    "ĠRoss": 6752,
    "ĠBangalore": 6753,
    "ĠSchw": 6754,
    "eeney": 6755,
    "ĠNghÄ©a": 6756,
    "ĠRome": 6757,
    "Ġshock": 6758,
    "ĠGrace": 6759,
    "vá»ģ": 6760,
    "ĠVenez": 6761,
    "Dá»¯": 6762,
    "ĠmicroRNA": 6763,
    "ĠVancouver": 6764,
    "ĠWarren": 6765,
    "ĠPlato": 6766,
    "Ġserotonin": 6767,
    "ĠKyoto": 6768,
    "Ġneuron": 6769,
    "Ġmá»ĭn": 6770,
    "Ġmetan": 6771,
    "PhÃ¡t": 6772,
    "ĠWalker": 6773,
    "ĠLawrence": 6774,
    "ĠRoger": 6775,
    "ĠNairobi": 6776,
    "ĠLebanon": 6777,
    "ĠOakland": 6778,
    "ĠTunis": 6779,
    "onacci": 6780,
    "ĠHimalay": 6781,
    "ĠTreasure": 6782,
    "ĠVenezuela": 6783,
    "60": 6784,
    "600": 6785,
    "AG": 6786,
    "BÃ¬nh": 6787,
    "Buá»ķi": 6788,
    "CE": 6789,
    "CÆ°á»Ŀi": 6790,
    "Di": 6791,
    "Eric": 6792,
    "GG": 6793,
    "Hiá»ĩu": 6794,
    "Ju": 6795,
    "Jim": 6796,
    "Ken": 6797,
    "LuáºŃt": 6798,
    "LÃ²ng": 6799,
    "MÃ¬nh": 6800,
    "Matt": 6801,
    "Nam": 6802,
    "Sam": 6803,
    "TM": 6804,
    "Táº¡o": 6805,
    "VÃ¹ng": 6806,
    "ire": 6807,
    "lÃª": 6808,
    "má»": 6809,
    "met": 6810,
    "rit": 6811,
    "sia": 6812,
    "va": 6813,
    "²m": 6814,
    "Ġ#": 6815,
    "ĠtÃº": 6816,
    "Ġcat": 6817,
    "ĠnÃºm": 6818,
    "Ġmá»Ļi": 6819,
    "ĠmÃºt": 6820,
    "Ġbáº¡t": 6821,
    "Ġsáº£i": 6822,
    "ĠsÃºt": 6823,
    "Ġsun": 6824,
    "ĠngÃ¡ch": 6825,
    "ĠgÃ²": 6826,
    "ĠgÃło": 6827,
    "ĠgÃ¡y": 6828,
    "Ġgallon": 6829,
    "Ġhun": 6830,
    "Ġpen": 6831,
    "Ġduá»Ĺi": 6832,
    "Ġdáº«m": 6833,
    "Ġtá»ĥ": 6834,
    "ĠgiÃ²n": 6835,
    "ĠxÃ´ng": 6836,
    "ange": 6837,
    "Ġbá»¥c": 6838,
    "ĠTi": 6839,
    "ĠTiáº¿p": 6840,
    "ĠTenn": 6841,
    "ĠTeh": 6842,
    "ont": 6843,
    "ÄĲÃ¢u": 6844,
    "ÄĲÆ°a": 6845,
    "ÄĲÃ¡m": 6846,
    "ĠMot": 6847,
    "ĠBÃ³ng": 6848,
    "ĠloÃł": 6849,
    "erb": 6850,
    "erman": 6851,
    "ĠHÃ¡t": 6852,
    "enberg": 6853,
    "ĠAli": 6854,
    "ĠAaron": 6855,
    "ĠAimee": 6856,
    "ĠSho": 6857,
    "ĠSá»ĳng": 6858,
    "ĠSMS": 6859,
    "aren": 6860,
    "Ġyou": 6861,
    "Ġphai": 6862,
    "ĠPap": 6863,
    "ĠPink": 6864,
    "ĠPanth": 6865,
    "ĠPotter": 6866,
    "ĠKiáº¿n": 6867,
    "ĠKle": 6868,
    "ĠKeith": 6869,
    "ĠLim": 6870,
    "ĠLov": 6871,
    "ĠLock": 6872,
    "ĠGl": 6873,
    "ĠGord": 6874,
    "ĠGaza": 6875,
    "ĠTrÆ°á»Łng": 6876,
    "ĠDol": 6877,
    "TrÃŃ": 6878,
    "ese": 6879,
    "ĠRáº±ng": 6880,
    "ĠRick": 6881,
    "ĠRuss": 6882,
    "Ġthoi": 6883,
    "NgÃ´i": 6884,
    "NgÃłi": 6885,
    "ĠIQ": 6886,
    "ĠIl": 6887,
    "ĠVol": 6888,
    "ĠVinc": 6889,
    "ition": 6890,
    "ĠFr": 6891,
    "ĠFellow": 6892,
    "ĠFDA": 6893,
    "ĠEc": 6894,
    "Thá»ĭ": 6895,
    "usd": 6896,
    "Ġ68": 6897,
    "EDI": 6898,
    "ĠnghÃªnh": 6899,
    "obyl": 6900,
    "obule": 6901,
    "ĠYale": 6902,
    "Ġ78": 6903,
    "lider": 6904,
    "rig": 6905,
    "riel": 6906,
    "ream": 6907,
    "Cheryl": 6908,
    "nett": 6909,
    "ĠStock": 6910,
    "ings": 6911,
    "ĠXÃ£": 6912,
    "ĠXÃ¢y": 6913,
    "ĠAlb": 6914,
    "aba": 6915,
    "Tá»©c": 6916,
    "Tá»«ng": 6917,
    "aks": 6918,
    "Ġ404": 6919,
    "ĠMario": 6920,
    "Ġ110": 6921,
    "ibo": 6922,
    "manuel": 6923,
    "ife": 6924,
    "insky": 6925,
    "uce": 6926,
    "ĠCarr": 6927,
    "eech": 6928,
    "ĠCá»ķ": 6929,
    "berry": 6930,
    "Ġquá»³": 6931,
    "ĠSaudi": 6932,
    "ĠJoel": 6933,
    "ĠBeat": 6934,
    "ĠJamai": 6935,
    "ĠWiki": 6936,
    "ernobyl": 6937,
    "Ġ1945": 6938,
    "ĠFranklin": 6939,
    "PhÃ¢n": 6940,
    "ThÃ¡ch": 6941,
    "ĠSweeney": 6942,
    "ĠJonathan": 6943,
    "ĠWilliams": 6944,
    "ĠGando": 6945,
    "ĠaxÃŃt": 6946,
    "ĠCAD": 6947,
    "stone": 6948,
    "Ġnitric": 6949,
    "ĠMurray": 6950,
    "Joe": 6951,
    "echn": 6952,
    "ĠDenis": 6953,
    "ĠnhÃºn": 6954,
    "ĠAmerican": 6955,
    "Ġgluc": 6956,
    "Ġhorm": 6957,
    "ĠSusan": 6958,
    "ĠDubai": 6959,
    "ĠCopernicus": 6960,
    "ĠConnect": 6961,
    "osaurus": 6962,
    "ĠOliver": 6963,
    "otoshop": 6964,
    "ĠFibonacci": 6965,
    "ĠStirling": 6966,
    "ĠTehran": 6967,
    "ĠPantheon": 6968,
    ".&": 6969,
    "45": 6970,
    "AV": 6971,
    "Am": 6972,
    "Báº£o": 6973,
    "BÃ¡o": 6974,
    "Cam": 6975,
    "ChÃºc": 6976,
    "Daniel": 6977,
    "Háº¡t": 6978,
    "Jon": 6979,
    "Jenn": 6980,
    "Ká»": 6981,
    "MÆ°á»Ŀi": 6982,
    "Mart": 6983,
    "PH": 6984,
    "RC": 6985,
    "XÃ¢y": 6986,
    "báº±ng": 6987,
    "bin": 6988,
    "cháº": 6989,
    "cÃ¢u": 6990,
    "let": 6991,
    "och": 6992,
    "pkins": 6993,
    "sin": 6994,
    "tz": 6995,
    "tic": 6996,
    "¡n": 6997,
    "£c": 6998,
    "µm": 6999,
    "ÃĶ": 7000,
    "Æł": 7001,
    "Ġ00": 7002,
    "ĠuyÃªn": 7003,
    "Ġáº£m": 7004,
    "ĠÃºt": 7005,
    "áº¨n": 7006,
    "Ġter": 7007,
    "Ġcomp": 7008,
    "ĠÄĳÅ©a": 7009,
    "Ġná»įc": 7010,
    "ĠvÄĥng": 7011,
    "ĠvÃ£n": 7012,
    "Ġlanh": 7013,
    "Ġláº«m": 7014,
    "Ġmau": 7015,
    "Ġbiáº¿ng": 7016,
    "Ġson": 7017,
    "ĠsÆ°ng": 7018,
    "ĠngÆ¡": 7019,
    "Ġngáº¥t": 7020,
    "ĠgÃ¢n": 7021,
    "Ġgra": 7022,
    "Ġthá»¥c": 7023,
    "ĠrÃ¡n": 7024,
    "Ġdá»ĳt": 7025,
    "Ġchen": 7026,
    "Ġchuá»ĵng": 7027,
    "Ġhá»Ŀi": 7028,
    "Ġchá»Ńng": 7029,
    "any": 7030,
    "Ġnháº£m": 7031,
    "ĠhoÃ¡n": 7032,
    "Ġcháº¯t": 7033,
    "ĠnhÃ¬": 7034,
    "ĠMáº¯t": 7035,
    "ĠMed": 7036,
    "ĠMak": 7037,
    "ĠMeyer": 7038,
    "emala": 7039,
    "ĠNá»Ļi": 7040,
    "ĠBil": 7041,
    "ĠBah": 7042,
    "erat": 7043,
    "ĠHong": 7044,
    "ĠHÆ¡n": 7045,
    "ĠHáº§u": 7046,
    "ĠHas": 7047,
    "ĠÄĲÆ°á»Ŀng": 7048,
    "ĠÄĲáº¡t": 7049,
    "ĠAil": 7050,
    "ĠSáº¯p": 7051,
    "arry": 7052,
    "ĠPu": 7053,
    "ĠKay": 7054,
    "ĠLáº¡i": 7055,
    "ĠLen": 7056,
    "ĠLoÃłi": 7057,
    "ĠLike": 7058,
    "Ġngá»Ńa": 7059,
    "ĠGay": 7060,
    "ĠGáº§n": 7061,
    "ĠGiÃª": 7062,
    "ĠGol": 7063,
    "ĠDáº¡": 7064,
    "ĠDAR": 7065,
    "ĠÃ¡t": 7066,
    "esa": 7067,
    "esk": 7068,
    "Ãµm": 7069,
    "elli": 7070,
    "ĠIx": 7071,
    "Ġ53": 7072,
    "Ġ57": 7073,
    "ĠVÅ©": 7074,
    "ĠVik": 7075,
    "atz": 7076,
    "atemala": 7077,
    "Ġ47": 7078,
    "Ġrá»ĩ": 7079,
    "ĠJud": 7080,
    "Ġvá»¥ng": 7081,
    "ason": 7082,
    "oli": 7083,
    "ĠWh": 7084,
    "ĠEast": 7085,
    "ĠEss": 7086,
    "hoa": 7087,
    "oman": 7088,
    "ĠOtt": 7089,
    "urch": 7090,
    "ĠChÆ°Æ¡ng": 7091,
    "ĠChÆ°a": 7092,
    "ĠChernobyl": 7093,
    "ĠYves": 7094,
    "ĠkÃ©n": 7095,
    "Ġ84": 7096,
    "rir": 7097,
    "rof": 7098,
    "Ġ10000": 7099,
    "Chá»©ng": 7100,
    "ĠStone": 7101,
    "aha": 7102,
    "thony": 7103,
    "ĠUCL": 7104,
    "aga": 7105,
    "oux": 7106,
    "ĠNhiÃªn": 7107,
    "tral": 7108,
    "Ġfoot": 7109,
    "ĠMary": 7110,
    "mann": 7111,
    "extin": 7112,
    "ĠQuáº£n": 7113,
    "artz": 7114,
    "awi": 7115,
    "ĠVá»¥": 7116,
    "Bá»ı": 7117,
    "ĠCaltech": 7118,
    "ĠHarlem": 7119,
    "Ġ1989": 7120,
    "ĠSanta": 7121,
    "ambia": 7122,
    "ĠIrag": 7123,
    "Ġluáº©n": 7124,
    "ĠMoMA": 7125,
    "ĠPalm": 7126,
    "ĠKhoáº£ng": 7127,
    "ĠAbu": 7128,
    "astian": 7129,
    "oko": 7130,
    "ĠxÃ©n": 7131,
    "ĠJuli": 7132,
    "ĠTora": 7133,
    "ĠFree": 7134,
    "Dá»ĭch": 7135,
    "ĠLatinh": 7136,
    "ĠJonas": 7137,
    "sterdam": 7138,
    "ĠKhá»ĳi": 7139,
    "ĠWhite": 7140,
    "ĠTitus": 7141,
    "colate": 7142,
    "ĠLangley": 7143,
    "Speech": 7144,
    "ĠMozart": 7145,
    "Robert": 7146,
    "Ġpheromone": 7147,
    "ĠOprah": 7148,
    "shire": 7149,
    "ĠTahrir": 7150,
    "ĠPepsi": 7151,
    "ĠMitchell": 7152,
    "Ġprogeria": 7153,
    "ĠGehry": 7154,
    "ĠTenness": 7155,
    "ĠDolby": 7156,
    "Báº£y": 7157,
    "CP": 7158,
    "DR": 7159,
    "Dáº§u": 7160,
    "DÃ¹ng": 7161,
    "Hans": 7162,
    "IPA": 7163,
    "LÃªn": 7164,
    "Lee": 7165,
    "MÃ´i": 7166,
    "Má»Ł": 7167,
    "Máº¥t": 7168,
    "MED": 7169,
    "MRI": 7170,
    "SM": 7171,
    "TáºŃp": 7172,
    "Táº¡p": 7173,
    "Tho": 7174,
    "Talk": 7175,
    "ZK": 7176,
    "ban": 7177,
    "cm": 7178,
    "cia": 7179,
    "jan": 7180,
    "jev": 7181,
    "kar": 7182,
    "key": 7183,
    "kansas": 7184,
    "lot": 7185,
    "mud": 7186,
    "moud": 7187,
    "ois": 7188,
    "stein": 7189,
    "sylv": 7190,
    "yon": 7191,
    "¡i": 7192,
    "¬a": 7193,
    "Ġar": 7194,
    "Ġis": 7195,
    "Ġaw": 7196,
    "ım": 7197,
    "Ġtáº¥u": 7198,
    "ĠtÃºp": 7199,
    "ĠtuÃ´n": 7200,
    "Ġcá»Ļi": 7201,
    "ĠcáºŃt": 7202,
    "Ġcello": 7203,
    "Ġcopy": 7204,
    "ĠÄĳáº¥m": 7205,
    "Ġnung": 7206,
    "ĠnhÃºt": 7207,
    "Ġnoi": 7208,
    "ĠnÃ¡u": 7209,
    "Ġváº¥p": 7210,
    "ĠvÃ¡ng": 7211,
    "Ġláº§u": 7212,
    "ĠmÃŃ": 7213,
    "ĠmÄĥng": 7214,
    "ĠsÃªn": 7215,
    "ĠsÃ²": 7216,
    "Ġsáº£o": 7217,
    "Ġtru": 7218,
    "ĠngÃ³": 7219,
    "Ġngáº¥m": 7220,
    "Ġgáº·t": 7221,
    "Ġrá»Ļ": 7222,
    "ĠrÆ¡": 7223,
    "Ġráº«y": 7224,
    "Ġdáº·n": 7225,
    "Ġnhoi": 7226,
    "ĠchiÃªu": 7227,
    "Ġthiá»ĥn": 7228,
    "ĠthuyÃªn": 7229,
    "Ġchá»¯ng": 7230,
    "ote": 7231,
    "ano": 7232,
    "Ġgiá»Ł": 7233,
    "ĠTu": 7234,
    "ĠTá»Ń": 7235,
    "ĠTob": 7236,
    "ĠTarah": 7237,
    "ĠhoÃ³c": 7238,
    "ĠcháºŃ": 7239,
    "ĠhÃ¹": 7240,
    "ĠhÃ³t": 7241,
    "ĠCáº§n": 7242,
    "ĠCáº£nh": 7243,
    "ĠCoo": 7244,
    "ĠClo": 7245,
    "Ġháº±n": 7246,
    "Ġsá»¥c": 7247,
    "Ġsá»¥n": 7248,
    "Ġphá»ĵn": 7249,
    "Ġbá»ĭa": 7250,
    "Ġkhoáº£": 7251,
    "Ġkhoanh": 7252,
    "ĠkhoÃ©": 7253,
    "ĠkhoÃ¡t": 7254,
    "ĠNov": 7255,
    "ĠNBA": 7256,
    "ĠBo": 7257,
    "ĠBuá»ķi": 7258,
    "Ġloang": 7259,
    "ĠloÃ£ng": 7260,
    "ĠHi": 7261,
    "ĠHáº¡": 7262,
    "ĠÄĲáº¥y": 7263,
    "ĠSá»¹": 7264,
    "ĠSis": 7265,
    "ĠSÃ¡ch": 7266,
    "ĠSara": 7267,
    "Ġdoo": 7268,
    "Ġyo": 7269,
    "ĠPy": 7270,
    "ĠPan": 7271,
    "ĠPor": 7272,
    "ĠPas": 7273,
    "ĠKáº»": 7274,
    "ĠLáºŃp": 7275,
    "ĠLas": 7276,
    "Ġá»ľ": 7277,
    "ĠGri": 7278,
    "ĠTriá»ĥn": 7279,
    "ĠDiana": 7280,
    "Trá»«": 7281,
    "ĠRyan": 7282,
    "elt": 7283,
    "eline": 7284,
    "Ġ56": 7285,
    "ĠVua": 7286,
    "Ġ41": 7287,
    "Ġrá»¥i": 7288,
    "ape": 7289,
    "ĠÃģn": 7290,
    "asa": 7291,
    "aster": 7292,
    "ĠWoo": 7293,
    "ĠFed": 7294,
    "ĠEs": 7295,
    "ĠEcon": 7296,
    "leans": 7297,
    "ĠNgÆ°Æ¡i": 7298,
    "Ġ6000": 7299,
    "adi": 7300,
    "ĠOoh": 7301,
    "obo": 7302,
    "ĠChen": 7303,
    "ĠTEDWomen": 7304,
    "ĠTEDMED": 7305,
    "ĠChÃ¢n": 7306,
    "Ġdaf": 7307,
    "Ġwatt": 7308,
    "ĠStein": 7309,
    "ingo": 7310,
    "ĠAlfred": 7311,
    "ĠThá»Ń": 7312,
    "Tá»ĩ": 7313,
    "aki": 7314,
    "out": 7315,
    "ĠKá»·": 7316,
    "ĠKá»ĥ": 7317,
    "umara": 7318,
    "ows": 7319,
    "icholas": 7320,
    "ĠChá»ĳng": 7321,
    "ĠThÃ¡p": 7322,
    "epler": 7323,
    "ĠArkansas": 7324,
    "ookie": 7325,
    "awatt": 7326,
    "ipp": 7327,
    "KhÃ¡i": 7328,
    "ĠHarry": 7329,
    "achus": 7330,
    "Phong": 7331,
    "Ġblogger": 7332,
    "ĠnhoÃ¡ng": 7333,
    "ĠColl": 7334,
    "ĠNhÃ³m": 7335,
    "ĠPhong": 7336,
    "inder": 7337,
    "ĠPalextin": 7338,
    "ĠRose": 7339,
    "etts": 7340,
    "ĠThÃŃ": 7341,
    "Nhá»Ľ": 7342,
    "ĠMalay": 7343,
    "ĠOrleans": 7344,
    "Ġ360": 7345,
    "ĠGuatemala": 7346,
    "ĠLiberia": 7347,
    "ĠSamuel": 7348,
    "Ġkáº½m": 7349,
    "ĠNorman": 7350,
    "untu": 7351,
    "Stephen": 7352,
    "ĠUnivers": 7353,
    "ĠMoses": 7354,
    "ĠOscar": 7355,
    "ĠMatthew": 7356,
    "Internet": 7357,
    "ĠIreland": 7358,
    "ĠLoan": 7359,
    "Ġblah": 7360,
    "ĠGilbert": 7361,
    "ĠPennsylv": 7362,
    "ĠGrant": 7363,
    "ĠESG": 7364,
    "ĠBloom": 7365,
    "ĠviÃªc": 7366,
    "ĠAilen": 7367,
    "Ġrá»ĩp": 7368,
    "ĠEssex": 7369,
    "ĠToraja": 7370,
    "ĠTennessee": 7371,
    "ĠTarahumara": 7372,
    "ĠCooper": 7373,
    "ĠPennsylvania": 7374,
    "300": 7375,
    "98": 7376,
    "AS": 7377,
    "Bay": 7378,
    "BÃŃ": 7379,
    "DI": 7380,
    "Hz": 7381,
    "Há»Ļi": 7382,
    "Le": 7383,
    "PP": 7384,
    "Point": 7385,
    "Robot": 7386,
    "TD": 7387,
    "TÃ¬m": 7388,
    "Táº§m": 7389,
    "Tom": 7390,
    "Well": 7391,
    "Yeah": 7392,
    "box": 7393,
    "cam": 7394,
    "fli": 7395,
    "gg": 7396,
    "gen": 7397,
    "gie": 7398,
    "hr": 7399,
    "ios": 7400,
    "leton": 7401,
    "má»įi": 7402,
    "pson": 7403,
    "tail": 7404,
    "uch": 7405,
    "vi": 7406,
    "viá»ĩc": 7407,
    "vin": 7408,
    "«m": 7409,
    "Ã©c": 7410,
    "Ġest": 7411,
    "ķng": 7412,
    "áº©ng": 7413,
    "ĠÄ©": 7414,
    "ĠÄĳáº£": 7415,
    "ĠÄĳong": 7416,
    "ĠÄĳÆ°á»Ľc": 7417,
    "ĠÄĳÃ¹i": 7418,
    "Ġnáº¡i": 7419,
    "Ġneo": 7420,
    "Ġnáº¡t": 7421,
    "Ġnáº¥p": 7422,
    "ĠnÃ¡ch": 7423,
    "ĠlÃ¬nh": 7424,
    "Ġlá»ĳc": 7425,
    "Ġluá»ĵn": 7426,
    "ĠlÃ³ng": 7427,
    "Ġmem": 7428,
    "Ã´c": 7429,
    "ĠsÃłnh": 7430,
    "ĠrÃ¢m": 7431,
    "Ġráº¯m": 7432,
    "ĠdÃ©p": 7433,
    "Ġcá»£t": 7434,
    "Ġhá»īnh": 7435,
    "Ġxao": 7436,
    "ĠthÃ©t": 7437,
    "Ġchocolate": 7438,
    "ĠmÃło": 7439,
    "che": 7440,
    "chi": 7441,
    "ĠTinh": 7442,
    "ĠTáºŃp": 7443,
    "ĠTÃ¡m": 7444,
    "ĠTso": 7445,
    "Ġhop": 7446,
    "aire": 7447,
    "ĠCa": 7448,
    "ĠCom": 7449,
    "ĠChÃºc": 7450,
    "Ġsá»§a": 7451,
    "Ġtour": 7452,
    "ĠMÃ£": 7453,
    "ĠMÆ°á»Ŀi": 7454,
    "ĠMÃłu": 7455,
    "ĠMathem": 7456,
    "ĠNi": 7457,
    "ĠNar": 7458,
    "ĠNÃ£o": 7459,
    "ĠBy": 7460,
    "ĠBow": 7461,
    "erm": 7462,
    "ĠHot": 7463,
    "ĠHiá»ĩu": 7464,
    "ĠHamp": 7465,
    "aman": 7466,
    "ĠÄĲÃ¢u": 7467,
    "ĠÄĲá»Ļc": 7468,
    "ĠAz": 7469,
    "ĠAye": 7470,
    "ĠSá»Ł": 7471,
    "ĠSri": 7472,
    "ĠSOPA": 7473,
    "ĠPic": 7474,
    "ĠPart": 7475,
    "ĠPitt": 7476,
    "ĠPost": 7477,
    "ĠKÃ´ng": 7478,
    "ĠKiá»ĥm": 7479,
    "ĠKent": 7480,
    "ĠLab": 7481,
    "ĠLev": 7482,
    "ĠLáº¡y": 7483,
    "Ġvá»ĭn": 7484,
    "Ġá»Ŀ": 7485,
    "Ġngá»Ŀi": 7486,
    "ĠGG": 7487,
    "ĠGit": 7488,
    "ĠGraham": 7489,
    "ĠDanh": 7490,
    "ĠDai": 7491,
    "ĠDiá»ħn": 7492,
    "ĠDor": 7493,
    "ĠDur": 7494,
    "ĠDun": 7495,
    "ĠRu": 7496,
    "ĠReb": 7497,
    "ĠRow": 7498,
    "ĠRiv": 7499,
    "elle": 7500,
    "ets": 7501,
    "ĠIK": 7502,
    "ats": 7503,
    "atica": 7504,
    "Ġrá»£": 7505,
    "icut": 7506,
    "ĠJar": 7507,
    "ĠJustin": 7508,
    "ilot": 7509,
    "iley": 7510,
    "ites": 7511,
    "itra": 7512,
    "ĠWin": 7513,
    "ĠWood": 7514,
    "ĠFound": 7515,
    "ĠEng": 7516,
    "hod": 7517,
    "Ġ67": 7518,
    "adore": 7519,
    "Ġvá»ĩt": 7520,
    "ĠThanh": 7521,
    "ĠThula": 7522,
    "ĠOl": 7523,
    "Ġ76": 7524,
    "ĠHopkins": 7525,
    "ĠTEDTalk": 7526,
    "Ġ94": 7527,
    "ebastian": 7528,
    "Giá»¯a": 7529,
    "Tham": 7530,
    "Ġwater": 7531,
    "Chu": 7532,
    "Chuyáº¿n": 7533,
    "ĠIntel": 7534,
    "Ġ1500": 7535,
    "iger": 7536,
    "ĠnghiÃ£": 7537,
    "agu": 7538,
    "ĠbÃŃp": 7539,
    "eyn": 7540,
    "ĠAll": 7541,
    "ĠAlan": 7542,
    "Äĳáº¿n": 7543,
    "Ġ1800": 7544,
    "Hoáº¡t": 7545,
    "trol": 7546,
    "Ġ401": 7547,
    "ĠMaryl": 7548,
    "ĠMarsh": 7549,
    "ĠChá»Ŀ": 7550,
    "ĠChá»©c": 7551,
    "Pháº£n": 7552,
    "Ġtháº§u": 7553,
    "ĠBrand": 7554,
    "ĠBrad": 7555,
    "ĠBruce": 7556,
    "ĠSher": 7557,
    "ĠShah": 7558,
    "ĠCarter": 7559,
    "Ġ2013": 7560,
    "ĠJohns": 7561,
    "KhÃ¡c": 7562,
    "Ġgamma": 7563,
    "ĠAmsterdam": 7564,
    "eek": 7565,
    "ĠLanka": 7566,
    "Ġ1985": 7567,
    "Ġ1988": 7568,
    "ĠSci": 7569,
    "annah": 7570,
    "ambi": 7571,
    "oga": 7572,
    "ogy": 7573,
    "itha": 7574,
    "oyager": 7575,
    "ĠBarb": 7576,
    "ĠBarack": 7577,
    "ToÃ¡n": 7578,
    "ĠBeau": 7579,
    "astle": 7580,
    "ĠCraig": 7581,
    "oke": 7582,
    "ĠAndr": 7583,
    "ĠJulie": 7584,
    "NháºŃn": 7585,
    "ĠLibya": 7586,
    "ĠBrowne": 7587,
    "ĠChristopher": 7588,
    "ĠPalestin": 7589,
    "ĠKarl": 7590,
    "ĠGoering": 7591,
    "ĠAhmed": 7592,
    "dyss": 7593,
    "Ġngá»«Æ¡i": 7594,
    "ĠBayes": 7595,
    "ĠSioux": 7596,
    "ĠMiller": 7597,
    "colm": 7598,
    "Ġmilimet": 7599,
    "ĠIráº¯c": 7600,
    "ĠYoung": 7601,
    "Ġá»«m": 7602,
    "ĠWeibo": 7603,
    "moor": 7604,
    "ĠAustr": 7605,
    "ĠPowerPoint": 7606,
    "ĠHiroshi": 7607,
    "holm": 7608,
    "ĠScratch": 7609,
    "ĠKibera": 7610,
    "ĠJamaica": 7611,
    "Ġglucose": 7612,
    "ĠConnecticut": 7613,
    "ĠUCLA": 7614,
    "ĠFreeSpeech": 7615,
    "jevo": 7616,
    "lotte": 7617,
    "ĠcháºŃu": 7618,
    "achusetts": 7619,
    "ĠMalaysia": 7620,
    "flix": 7621,
    "ĠMathematica": 7622,
    "ĠMaryland": 7623,
    "16": 7624,
    "AT": 7625,
    "Be": 7626,
    "Buá»ĵn": 7627,
    "Bob": 7628,
    "Ca": 7629,
    "CÆ¡n": 7630,
    "CÃº": 7631,
    "Diá»ħn": 7632,
    "Google": 7633,
    "KB": 7634,
    "Miá»ħn": 7635,
    "OC": 7636,
    "OS": 7637,
    "Qaeda": 7638,
    "SF": 7639,
    "Sáº£n": 7640,
    "VÃ¢y": 7641,
    "aa": 7642,
    "bes": 7643,
    "cáº£m": 7644,
    "cop": 7645,
    "dit": 7646,
    "eus": 7647,
    "gram": 7648,
    "horn": 7649,
    "kh": 7650,
    "lau": 7651,
    "mÃ©t": 7652,
    "mond": 7653,
    "minder": 7654,
    "oon": 7655,
    "ráº¥t": 7656,
    "ress": 7657,
    "su": 7658,
    "táº¡i": 7659,
    "uh": 7660,
    "uchia": 7661,
    "wa": 7662,
    "west": 7663,
    "wait": 7664,
    "xter": 7665,
    "©y": 7666,
    "Ã§a": 7667,
    "ĠÆ°Æ¡m": 7668,
    "Ġcáº·n": 7669,
    "Ġcock": 7670,
    "ĠÄĳÄĥ": 7671,
    "ĠÄĳáº§n": 7672,
    "Ġvon": 7673,
    "Ġváº¡t": 7674,
    "ĠvÆ°á»£n": 7675,
    "ĠlÆ°": 7676,
    "Ġlá»Ł": 7677,
    "Ġmeg": 7678,
    "ĠbÃ´": 7679,
    "Ġsuyá»ħn": 7680,
    "ĠtrÆ¡": 7681,
    "ĠtrÆ°á»Ľng": 7682,
    "ĠngÃł": 7683,
    "ĠngÃµ": 7684,
    "ĠngÃ³c": 7685,
    "ĠngÃ²i": 7686,
    "Ġngáº©ng": 7687,
    "Ġráº§u": 7688,
    "ĠrÄĥn": 7689,
    "Ġráº§m": 7690,
    "Ġpar": 7691,
    "Ġdáº¿": 7692,
    "Ġdem": 7693,
    "Ġdáº¡t": 7694,
    "Ġdáº±n": 7695,
    "ĠÄĳá»ħ": 7696,
    "quez": 7697,
    "Ġcá»ıi": 7698,
    "Ġcá»ĵng": 7699,
    "Ġvá»ĵng": 7700,
    "Ġquáº·ng": 7701,
    "ĠgiÃ´ng": 7702,
    "ĠTar": 7703,
    "ĠTáº¡m": 7704,
    "oney": 7705,
    "ĠkhÃ¡nh": 7706,
    "ĠcháºŃp": 7707,
    "ĠchÃ¨o": 7708,
    "ĠchÃ¨n": 7709,
    "ĠhÃª": 7710,
    "ĠhÃ³m": 7711,
    "ÄĲá»Ļi": 7712,
    "Ġná»ĥ": 7713,
    "Ġná»ī": 7714,
    "ĠCá»ĳ": 7715,
    "ĠCro": 7716,
    "ĠCIA": 7717,
    "á»ĵn": 7718,
    "ĠMÃły": 7719,
    "ĠMen": 7720,
    "ĠMid": 7721,
    "ĠMir": 7722,
    "ĠMBA": 7723,
    "hio": 7724,
    "ĠNI": 7725,
    "ĠBÃ¡o": 7726,
    "ĠBry": 7727,
    "ĠBach": 7728,
    "Ġloanh": 7729,
    "ĠHá»ĵ": 7730,
    "ĠHaz": 7731,
    "ĠHut": 7732,
    "ĠHind": 7733,
    "ĠÄĲá»ĳc": 7734,
    "ĠSa": 7735,
    "ĠSuy": 7736,
    "ĠSai": 7737,
    "ĠSel": 7738,
    "iag": 7739,
    "ars": 7740,
    "arin": 7741,
    "Ġyoga": 7742,
    "Ġphiá»ĩt": 7743,
    "ĠPe": 7744,
    "ĠPur": 7745,
    "ĠPIPA": 7746,
    "ĠKos": 7747,
    "ĠKab": 7748,
    "ĠKiva": 7749,
    "ĠKepler": 7750,
    "ĠLá»Ŀi": 7751,
    "ĠLimb": 7752,
    "Ġngá»£m": 7753,
    "ĠGul": 7754,
    "ĠTrÃŃ": 7755,
    "ĠDave": 7756,
    "oro": 7757,
    "Truyá»ģn": 7758,
    "alie": 7759,
    "osev": 7760,
    "ely": 7761,
    "etas": 7762,
    "Ngoáº¡i": 7763,
    "ĠImp": 7764,
    "Tháº§y": 7765,
    "ĠVáº«n": 7766,
    "atÃ´ng": 7767,
    "atma": 7768,
    "ise": 7769,
    "icill": 7770,
    "icerat": 7771,
    "ĠJean": 7772,
    "ĠJava": 7773,
    "apminder": 7774,
    "ĠÃįt": 7775,
    "itic": 7776,
    "ĠWy": 7777,
    "ĠWis": 7778,
    "ĠWind": 7779,
    "ĠEar": 7780,
    "lev": 7781,
    "Ġ1991": 7782,
    "Ġ1993": 7783,
    "ĠNguá»ĵn": 7784,
    "ady": 7785,
    "ĠOxy": 7786,
    "ĠOdyss": 7787,
    "urn": 7788,
    "Ġ7000": 7789,
    "ĠTEDster": 7790,
    "Ġ89": 7791,
    "ĠchÃ¡nh": 7792,
    "Thuá»ĳc": 7793,
    "unch": 7794,
    "roÃ§a": 7795,
    "ĠÄĲá»£i": 7796,
    "reat": 7797,
    "ĠInst": 7798,
    "ĠStand": 7799,
    "istor": 7800,
    "ĠXáº¿p": 7801,
    "aby": 7802,
    "ĠThá»ĭ": 7803,
    "hane": 7804,
    "ĠGiao": 7805,
    "Ġnhuáº§n": 7806,
    "ĠchÃ³t": 7807,
    "owan": 7808,
    "iflu": 7809,
    "ĠQuáº£": 7810,
    "Giao": 7811,
    "ĠShar": 7812,
    "Ġproton": 7813,
    "ipcar": 7814,
    "ĠHarris": 7815,
    "phua": 7816,
    "ovo": 7817,
    "over": 7818,
    "Ġruá»Ļng": 7819,
    "Ġ1986": 7820,
    "ĠChild": 7821,
    "ĠScoop": 7822,
    "ĠBaxter": 7823,
    "nÃ³i": 7824,
    "asso": 7825,
    "ĠRobinson": 7826,
    "ĠCharlotte": 7827,
    "ĠMonter": 7828,
    "ĠBlu": 7829,
    "ĠGreg": 7830,
    "ortis": 7831,
    "Ġmá»ĵm": 7832,
    "ĠLá»ħ": 7833,
    "ĠNauy": 7834,
    "organ": 7835,
    "Ġ1940": 7836,
    "ĠIndiana": 7837,
    "ĠDiet": 7838,
    "uke": 7839,
    "ĠGuard": 7840,
    "ĠLibÄĥng": 7841,
    "ĠWalmart": 7842,
    "ĠCoch": 7843,
    "ĠDá»ĭch": 7844,
    "ĠBonnet": 7845,
    "rogen": 7846,
    "ĠMelinda": 7847,
    "everly": 7848,
    "ĠmaratÃ´ng": 7849,
    "ĠWilson": 7850,
    "ĠTamiflu": 7851,
    "ĠJacqu": 7852,
    "Carol": 7853,
    "ĠLinux": 7854,
    "ĠNoel": 7855,
    "ĠPhillip": 7856,
    "Ġeuro": 7857,
    "ĠBroadmoor": 7858,
    "NCRA": 7859,
    "ĠqÃºi": 7860,
    "Ġchá»Ļp": 7861,
    "ĠHomo": 7862,
    "ĠCentral": 7863,
    "ĠMoham": 7864,
    "má»Ĺi": 7865,
    "Ġcatadore": 7866,
    "Ġpenicill": 7867,
    "ĠPapua": 7868,
    "ĠBahamas": 7869,
    "ĠIxaren": 7870,
    "ĠSarajevo": 7871,
    "ĠEconom": 7872,
    "ĠIKEA": 7873,
    "ĠFoundation": 7874,
    "ĠAustralia": 7875,
    "Ġcocktail": 7876,
    "iceratops": 7877,
    "Ġpenicillin": 7878,
    "24": 7879,
    "29": 7880,
    "AA": 7881,
    "Ah": 7882,
    "At": 7883,
    "Bon": 7884,
    "Báº¥y": 7885,
    "BÃ¡nh": 7886,
    "ET": 7887,
    "Fre": 7888,
    "Is": 7889,
    "Jeff": 7890,
    "Kevin": 7891,
    "Prin": 7892,
    "Quá»ĳc": 7893,
    "TB": 7894,
    "TH": 7895,
    "Tinh": 7896,
    "TiÃªu": 7897,
    "Ung": 7898,
    "Viá»ĩn": 7899,
    "VáºŃn": 7900,
    "Wow": 7901,
    "Yáº¿u": 7902,
    "bus": 7903,
    "cer": 7904,
    "eu": 7905,
    "fer": 7906,
    "fus": 7907,
    "gan": 7908,
    "gey": 7909,
    "hn": 7910,
    "hy": 7911,
    "ju": 7912,
    "kho": 7913,
    "lÃ´": 7914,
    "mat": 7915,
    "ming": 7916,
    "nd": 7917,
    "phÃ": 7918,
    "pin": 7919,
    "rl": 7920,
    "rett": 7921,
    "sá»±": 7922,
    "sburgh": 7923,
    "thia": 7924,
    "val": 7925,
    "vet": 7926,
    "vent": 7927,
    "yota": 7928,
    "zero": 7929,
    "¢t": 7930,
    "Ġad": 7931,
    "Ġep": 7932,
    "Ķn": 7933,
    "ĠtÃºm": 7934,
    "ĠcÃ²": 7935,
    "Ġcoc": 7936,
    "Ġcortis": 7937,
    "ĠÄĳÃªn": 7938,
    "ĠÄĳuá»": 7939,
    "Ġni": 7940,
    "ĠnÃ¨": 7941,
    "Ġlá»Ļc": 7942,
    "ĠlÃµm": 7943,
    "Ġbá»Ł": 7944,
    "Ġsh": 7945,
    "Ġsen": 7946,
    "Ġsal": 7947,
    "ĠtrÅ©ng": 7948,
    "Ġtrans": 7949,
    "Ġgt": 7950,
    "Ġganh": 7951,
    "Ġgeo": 7952,
    "ĠgÃ£i": 7953,
    "ĠhÅ©": 7954,
    "Ġthá»ģm": 7955,
    "ĠrÃ¹ng": 7956,
    "ĠrÃ³t": 7957,
    "Ãªt": 7958,
    "Ġpa": 7959,
    "ĠdÃ³": 7960,
    "ĠdÃŃ": 7961,
    "ĠdiÃªm": 7962,
    "Ġnhan": 7963,
    "Ġnhen": 7964,
    "Ġvá»Ľt": 7965,
    "Ġchk": 7966,
    "Ġchang": 7967,
    "ĠchÅ©ng": 7968,
    "ĠchÆ°ng": 7969,
    "Ġchuá»ĵn": 7970,
    "Ġchat": 7971,
    "Ġnhá»©ng": 7972,
    "Ġnhá»ĳi": 7973,
    "Ġtá»£n": 7974,
    "ĠnÃłnh": 7975,
    "ĠquÃ¢y": 7976,
    "anistan": 7977,
    "Ġrain": 7978,
    "Ġgiá»ı": 7979,
    "Ġbá»«a": 7980,
    "ĠTÃłng": 7981,
    "ĠTÆ°á»Łng": 7982,
    "ĠTÃ¢n": 7983,
    "ĠTáº¡p": 7984,
    "aomi": 7985,
    "ĠnÄĥn": 7986,
    "ĠnhÃŃm": 7987,
    "ĠnhÃ³t": 7988,
    "Nhiáº¿p": 7989,
    "Ġtoken": 7990,
    "ĠMP": 7991,
    "ĠMÃ´ng": 7992,
    "ĠMob": 7993,
    "ĠMell": 7994,
    "ĠMeg": 7995,
    "ĠMull": 7996,
    "his": 7997,
    "ĠNin": 7998,
    "ĠNÄĥng": 7999,
    "ĠNico": 8000,
    "ĠBP": 8001,
    "ĠBiáº¿n": 8002,
    "ĠBÃ¡n": 8003,
    "ĠBá»įn": 8004,
    "ĠBre": 8005,
    "ĠBBC": 8006,
    "ĠHon": 8007,
    "ĠHit": 8008,
    "ĠHun": 8009,
    "ĠHum": 8010,
    "ĠÄĲÃ¡ng": 8011,
    "ĠAED": 8012,
    "ĠAst": 8013,
    "ĠSI": 8014,
    "ĠSur": 8015,
    "ĠSolly": 8016,
    "arak": 8017,
    "ĠphÆ°á»Ľc": 8018,
    "ĠPC": 8019,
    "ĠPac": 8020,
    "ĠPilot": 8021,
    "ĠKáº¿": 8022,
    "ĠKas": 8023,
    "ĠKid": 8024,
    "ĠKins": 8025,
    "ĠKate": 8026,
    "ĠLA": 8027,
    "ĠLy": 8028,
    "ĠLeo": 8029,
    "Ġá»¨ng": 8030,
    "ĠGe": 8031,
    "ĠGwen": 8032,
    "ĠGapminder": 8033,
    "ĠTriceratops": 8034,
    "Ġxua": 8035,
    "ĠDJ": 8036,
    "ĠDÃ¢y": 8037,
    "ĠDem": 8038,
    "ĠDes": 8039,
    "ĠDean": 8040,
    "ĠDonald": 8041,
    "orth": 8042,
    "Trá»įng": 8043,
    "imÃ©t": 8044,
    "oss": 8045,
    "osphere": 8046,
    "ĠRub": 8047,
    "ĠRec": 8048,
    "ĠReg": 8049,
    "ĠRivers": 8050,
    "ĠRachel": 8051,
    "elyn": 8052,
    "ĠVel": 8053,
    "ĠViv": 8054,
    "ĠVÆ°á»Ŀn": 8055,
    "ĠVoyager": 8056,
    "atan": 8057,
    "isco": 8058,
    "Ġrá»¯a": 8059,
    "Ġdiox": 8060,
    "ĠWang": 8061,
    "ĠWol": 8062,
    "ĠWide": 8063,
    "ĠFlick": 8064,
    "ĠEEG": 8065,
    "Ġ101": 8066,
    "Ġ1920": 8067,
    "Ġ1918": 8068,
    "Ġ66": 8069,
    "ader": 8070,
    "ĠThuyáº¿t": 8071,
    "ĠOw": 8072,
    "ĠOhio": 8073,
    "ĠChu": 8074,
    "Ġ750": 8075,
    "Ġlab": 8076,
    "Ġgá»ī": 8077,
    "ĠÄĲá»©a": 8078,
    "Ġwoo": 8079,
    "Ġwow": 8080,
    "Christ": 8081,
    "Chá»¥p": 8082,
    "ĠStr": 8083,
    "ĠUp": 8084,
    "ĠUt": 8085,
    "agas": 8086,
    "load": 8087,
    "Ġsul": 8088,
    "ĠAlg": 8089,
    "ĠAlt": 8090,
    "ohen": 8091,
    "ough": 8092,
    "Ġ187": 8093,
    "Ġ188": 8094,
    "umann": 8095,
    "ĠoÃł": 8096,
    "ĠMarc": 8097,
    "ĠMars": 8098,
    "ĠMaria": 8099,
    "ĠMargaret": 8100,
    "Ġ2500": 8101,
    "ĠChá»¯": 8102,
    "ubarak": 8103,
    "ibb": 8104,
    "ĠThÃ¡ng": 8105,
    "arty": 8106,
    "ĠBroth": 8107,
    "ĠShaw": 8108,
    "Ġ2015": 8109,
    "fford": 8110,
    "ffiti": 8111,
    "Ġ1983": 8112,
    "ĠChim": 8113,
    "anne": 8114,
    "linois": 8115,
    "ĠTweet": 8116,
    "Ġ1973": 8117,
    "Ġ1979": 8118,
    "ĠColor": 8119,
    "ĠRobb": 8120,
    "ĠBá»ı": 8121,
    "ĠMichel": 8122,
    "ĠPhotoshop": 8123,
    "Ġ1965": 8124,
    "rene": 8125,
    "ĠBilly": 8126,
    "ĠTháºŃm": 8127,
    "Ġjihad": 8128,
    "etty": 8129,
    "ĠCru": 8130,
    "ĠCritic": 8131,
    "ynthia": 8132,
    "ĠNá»ķ": 8133,
    "ĠNá»Ĺi": 8134,
    "ĠRezero": 8135,
    "PhÃ³ng": 8136,
    "PhÃ²ng": 8137,
    "ĠNháºŃn": 8138,
    "cÃ´la": 8139,
    "ants": 8140,
    "ĠClark": 8141,
    "thá»©": 8142,
    "thá»Ŀi": 8143,
    "ĠWales": 8144,
    "ĠAccent": 8145,
    "Marco": 8146,
    "Ġká»ģnh": 8147,
    "Ġ1957": 8148,
    "ĠMahmoud": 8149,
    "ĠMahatma": 8150,
    "ĠBuff": 8151,
    "ĠJimmy": 8152,
    "Charlie": 8153,
    "KhÃŃ": 8154,
    "ĠBiosphere": 8155,
    "Arthur": 8156,
    "ĠvÃ£nh": 8157,
    "ĠLinus": 8158,
    "ĠAmerica": 8159,
    "lashy": 8160,
    "ĠgoÃ¡": 8161,
    "ĠCasey": 8162,
    "ĠAgnes": 8163,
    "ĠGeorgia": 8164,
    "ĠARN": 8165,
    "ĠJennifer": 8166,
    "ĠHirsh": 8167,
    "ĠCampuchia": 8168,
    "ĠNetflix": 8169,
    "ĠIMF": 8170,
    "ocrates": 8171,
    "Ġamino": 8172,
    "ĠprÃ´tein": 8173,
    "Ġenzyme": 8174,
    "Ġnguá»Ŀi": 8175,
    "ĠthÃ¢y": 8176,
    "ittleB": 8177,
    "ĠMassachusetts": 8178,
    "ĠUkraine": 8179,
    "ĠArchie": 8180,
    "ĠFriedman": 8181,
    "ĠAurora": 8182,
    "ĠTunisia": 8183,
    "ĠGordon": 8184,
    "ĠIllinois": 8185,
    "ĠVinci": 8186,
    "ĠStockholm": 8187,
    "ĠDenisov": 8188,
    "Ká»³": 8189,
    "Ġgraffiti": 8190,
    "ĠrÆ¡m": 8191,
    "ĠSisy": 8192,
    "Ġestrogen": 8193,
    "ĠHampshire": 8194,
    "ĠPittsburgh": 8195,
    "ĠHiroshima": 8196,
    "ĠOdysseus": 8197,
    "ĠMonterey": 8198,
    "ĠGuardian": 8199,
    "ĠCochrane": 8200,
    "Prince": 8201,
    "Ġcortisol": 8202,
    "ĠMellon": 8203,
    "ĠHunter": 8204,
    "ĠFlickr": 8205,
    "ĠAccenture": 8206,
    "17": 8207,
    "400": 8208,
    "65": 8209,
    "800": 8210,
    "95": 8211,
    "Ad": 8212,
    "BR": 8213,
    "BÃłn": 8214,
    "Brian": 8215,
    "CT": 8216,
    "DJ": 8217,
    "Dáº¥u": 8218,
    "DÃ²ng": 8219,
    "ER": 8220,
    "Hi": 8221,
    "Iá»": 8222,
    "Jay": 8223,
    "LÃŃ": 8224,
    "Lá»±c": 8225,
    "Lá»±a": 8226,
    "MM": 8227,
    "Náº¡n": 8228,
    "Ná»Ļi": 8229,
    "Pat": 8230,
    "RN": 8231,
    "Sang": 8232,
    "TT": 8233,
    "TÆ°": 8234,
    "Tai": 8235,
    "TÃ¢m": 8236,
    "Tá»ĳc": 8237,
    "Váº»": 8238,
    "bab": 8239,
    "chÃ": 8240,
    "cáº£": 8241,
    "cas": 8242,
    "corn": 8243,
    "dÃ¹": 8244,
    "eed": 8245,
    "ht": 8246,
    "ien": 8247,
    "ior": 8248,
    "ira": 8249,
    "ji": 8250,
    "ku": 8251,
    "lam": 8252,
    "lic": 8253,
    "lair": 8254,
    "mb": 8255,
    "ment": 8256,
    "nick": 8257,
    "oac": 8258,
    "ps": 8259,
    "rk": 8260,
    "ráºŃp": 8261,
    "rass": 8262,
    "rne": 8263,
    "sen": 8264,
    "wick": 8265,
    "xon": 8266,
    "yle": 8267,
    "zone": 8268,
    "·ng": 8269,
    "ĠhÃº": 8270,
    "Ġau": 8271,
    "Ġeo": 8272,
    "ĠÃºp": 8273,
    "Ġas": 8274,
    "Ġáº¯p": 8275,
    "Ġusd": 8276,
    "ĠÆł": 8277,
    "á»¯": 8278,
    "ĠtÃ©": 8279,
    "Ġten": 8280,
    "Ġcou": 8281,
    "Ġciv": 8282,
    "ĠÄĳÃ¹ng": 8283,
    "ĠvÆ¡": 8284,
    "ĠlÃº": 8285,
    "Ġláº¹": 8286,
    "Ġluá»µ": 8287,
    "ĠlittleB": 8288,
    "Ġmm": 8289,
    "ĠmÃ¹ng": 8290,
    "Ġmáº¯ng": 8291,
    "ĠbÃ¹a": 8292,
    "Ġbeat": 8293,
    "ĠbiÃªt": 8294,
    "Ġsáº§u": 8295,
    "ĠtrÄĥn": 8296,
    "ĠtrÃ²ng": 8297,
    "Ġngáº§u": 8298,
    "ĠngÆ°á»£ng": 8299,
    "Ġngáº¡t": 8300,
    "ĠgÃłng": 8301,
    "Ġgoogle": 8302,
    "Ġhuyá»ĩn": 8303,
    "ĠrÃªn": 8304,
    "ĠrÃ¨m": 8305,
    "Ġdáº·t": 8306,
    "ĠnhÃłn": 8307,
    "Ġnhung": 8308,
    "Ġvá»ĥ": 8309,
    "Ġvá»¥t": 8310,
    "Ġchao": 8311,
    "Ġchuá»Ļc": 8312,
    "Ġhá»ĳt": 8313,
    "Ġgiáº¥m": 8314,
    "Ġxiáº¿t": 8315,
    "Ġkhay": 8316,
    "Ġchá»«": 8317,
    "Ġchá»«a": 8318,
    "ĠthÃ²i": 8319,
    "Ġnghiáº¿n": 8320,
    "anc": 8321,
    "Ġrao": 8322,
    "Ġgiá»Ŀi": 8323,
    "chan": 8324,
    "Ġnháº§y": 8325,
    "ĠTuyÃªn": 8326,
    "ĠTÃłu": 8327,
    "ĠTod": 8328,
    "onia": 8329,
    "onie": 8330,
    "ais": 8331,
    "aiza": 8332,
    "Ġcháº§n": 8333,
    "ĠchÃ©m": 8334,
    "ĠhÃ©o": 8335,
    "ĠnhÃµm": 8336,
    "ÄĲo": 8337,
    "ÄĲáº¡o": 8338,
    "ÄĲÃªm": 8339,
    "ĠnghÄ©nh": 8340,
    "ĠCod": 8341,
    "ĠCass": 8342,
    "ĠComp": 8343,
    "ĠCá»±u": 8344,
    "ĠClev": 8345,
    "ĠCohen": 8346,
    "Ġsá»¯ng": 8347,
    "Ġsá»ĵi": 8348,
    "Ġphá»ī": 8349,
    "ĠphÃ¡ch": 8350,
    "Nhu": 8351,
    "Nhiá»ĩt": 8352,
    "ĠtoÃ¡i": 8353,
    "ĠMard": 8354,
    "ĠMedia": 8355,
    "ĠMBI": 8356,
    "ĠMubarak": 8357,
    "ema": 8358,
    "Ġtrá»Ŀ": 8359,
    "ĠNG": 8360,
    "ĠNat": 8361,
    "ĠNáº¥m": 8362,
    "ĠNÃºi": 8363,
    "ĠNik": 8364,
    "ĠNev": 8365,
    "ĠBÃŃ": 8366,
    "ĠBÆ°á»Ľc": 8367,
    "ĠBand": 8368,
    "ĠBÃ¡nh": 8369,
    "ĠBart": 8370,
    "ĠBalk": 8371,
    "uá»ĩ": 8372,
    "erk": 8373,
    "ĠHey": 8374,
    "ĠHud": 8375,
    "ĠHmm": 8376,
    "ĠHunt": 8377,
    "ams": 8378,
    "amie": 8379,
    "ĠÄĲang": 8380,
    "ĠÄĲÃłn": 8381,
    "ĠÄĲÆ°Æ¡ng": 8382,
    "ĠÄĲáº£o": 8383,
    "ĠÄĲÃªm": 8384,
    "ĠABC": 8385,
    "Ġkhá»©u": 8386,
    "ĠSW": 8387,
    "ĠSar": 8388,
    "ĠSag": 8389,
    "ĠSinc": 8390,
    "ĠSáºµn": 8391,
    "ĠSobule": 8392,
    "Ġkháº¯t": 8393,
    "ĠmÃ¡ch": 8394,
    "Ġyáº¿n": 8395,
    "Ġphoton": 8396,
    "ĠPo": 8397,
    "ĠPia": 8398,
    "ĠPho": 8399,
    "ĠPre": 8400,
    "ĠPach": 8401,
    "ĠPerry": 8402,
    "ĠPoint": 8403,
    "Ġháº¡c": 8404,
    "ĠKap": 8405,
    "ĠKir": 8406,
    "ĠLáº¥y": 8407,
    "ĠLes": 8408,
    "ĠLuáºŃn": 8409,
    "ĠLiz": 8410,
    "ĠLyn": 8411,
    "Ġngá»¡": 8412,
    "ĠGÃ¬": 8413,
    "ĠGer": 8414,
    "ĠGard": 8415,
    "ĠGilli": 8416,
    "ĠGlad": 8417,
    "Ġ39": 8418,
    "ĠTrá»Ł": 8419,
    "ĠTrÃ²": 8420,
    "ĠDD": 8421,
    "ĠDeb": 8422,
    "ĠDanny": 8423,
    "alth": 8424,
    "imo": 8425,
    "esar": 8426,
    "esome": 8427,
    "ĠRem": 8428,
    "ĠRab": 8429,
    "ĠRich": 8430,
    "ĠRep": 8431,
    "ĠVÃłi": 8432,
    "ĠVÃłng": 8433,
    "Ġsofa": 8434,
    "ĠViá»ħn": 8435,
    "Ġrá»£n": 8436,
    "ĠJR": 8437,
    "ĠJoh": 8438,
    "ĠJazz": 8439,
    "ĠJihad": 8440,
    "ĠJason": 8441,
    "ileo": 8442,
    "ĠFul": 8443,
    "ĠEb": 8444,
    "ĠEvan": 8445,
    "ĠEDI": 8446,
    "tern": 8447,
    "ĠNguy": 8448,
    "ĠNgÃ´n": 8449,
    "Ġtuá»Ļt": 8450,
    "acre": 8451,
    "Ġ650": 8452,
    "hÃ¡n": 8453,
    "adus": 8454,
    "ĠPhilipp": 8455,
    "ĠChin": 8456,
    "ĠChurch": 8457,
    "---": 8458,
    "raft": 8459,
    "ĠHouse": 8460,
    "liot": 8461,
    "Ġ8000": 8462,
    "Ġlaze": 8463,
    "ÄĲá»©c": 8464,
    "ÄĲá»ĭnh": 8465,
    "Ġgá»£n": 8466,
    "ThiÃªn": 8467,
    "rik": 8468,
    "unes": 8469,
    "rov": 8470,
    "Vá»£": 8471,
    "Vá»¥": 8472,
    "ĠÄĲá»©ng": 8473,
    "Chuyá»ĥn": 8474,
    "idro": 8475,
    "ĠStudio": 8476,
    "ĠUng": 8477,
    "inger": 8478,
    "ĠXe": 8479,
    "lock": 8480,
    "ĠAlab": 8481,
    "Tá»·": 8482,
    "Äĳá»": 8483,
    "ĠGian": 8484,
    "umi": 8485,
    "Ġlá»ĵi": 8486,
    "iki": 8487,
    "ĠMarco": 8488,
    "ĠdÄ©a": 8489,
    "ryst": 8490,
    "ĠAnthony": 8491,
    "ĠTá»«ng": 8492,
    "uten": 8493,
    "Giáº¥c": 8494,
    "egal": 8495,
    "dez": 8496,
    "ucky": 8497,
    "ĠuÃ½": 8498,
    "ĠSheph": 8499,
    "ĠAfganistan": 8500,
    "ffe": 8501,
    "Ġbá»ķn": 8502,
    "ĠâĢĭ": 8503,
    "ĠKend": 8504,
    "ĠhÃ²m": 8505,
    "ĠCanyon": 8506,
    "ĠChia": 8507,
    "Khoáº£nh": 8508,
    "PhiÃªn": 8509,
    "ĠnhÃ¡p": 8510,
    "ĠToyota": 8511,
    "stream": 8512,
    "eka": 8513,
    "ThÃ´i": 8514,
    "ĠBá»ĭ": 8515,
    "ĠHyder": 8516,
    "rice": 8517,
    "Ġ1962": 8518,
    "ĠTháº§y": 8519,
    "ĠBaref": 8520,
    "ĠJoey": 8521,
    "ĠeBay": 8522,
    "uga": 8523,
    "ĠJamie": 8524,
    "Ná»Ńa": 8525,
    "ĠbÃ¹m": 8526,
    "ĠNaj": 8527,
    "ĠSchool": 8528,
    "ĠMax": 8529,
    "ĠHigg": 8530,
    "cken": 8531,
    "ĠHeh": 8532,
    "ĠHead": 8533,
    "ĠReu": 8534,
    "Ġmicr": 8535,
    "ĠPhÃ¢n": 8536,
    "ĠPhÃŃa": 8537,
    "ĠNeil": 8538,
    "ĠElvis": 8539,
    "ucker": 8540,
    "ĠKhu": 8541,
    "Ġ1949": 8542,
    "ĠMalawi": 8543,
    "ĠTransition": 8544,
    "celadus": 8545,
    "ĠJuan": 8546,
    "ĠDiam": 8547,
    "ĠRoman": 8548,
    "ĠFred": 8549,
    "ĠFreud": 8550,
    "Ġ365": 8551,
    "ouri": 8552,
    "burn": 8553,
    "ĠClay": 8554,
    "ĠClonie": 8555,
    "ĠVenter": 8556,
    "mmm": 8557,
    "Dá»ħ": 8558,
    "ĠCERN": 8559,
    "ĠCode": 8560,
    "othy": 8561,
    "ĠEnceladus": 8562,
    "ĠChristian": 8563,
    "ĠBurn": 8564,
    "Steve": 8565,
    "ĠBono": 8566,
    "ĠOlympics": 8567,
    "nesota": 8568,
    "ĠCape": 8569,
    "stonia": 8570,
    "ĠSerra": 8571,
    "ĠEuro": 8572,
    "Ġneu": 8573,
    "ĠnitÆ¡": 8574,
    "ĠOsama": 8575,
    "Ġbonobo": 8576,
    "ĠLarry": 8577,
    "ĠReddit": 8578,
    "ĠÂ¼": 8579,
    "ĠnhÃºm": 8580,
    "Ġokay": 8581,
    "ĠHamlet": 8582,
    "ĠMozambi": 8583,
    "ĠMinnesota": 8584,
    "ĠPrize": 8585,
    "ĠDuol": 8586,
    "ĠExxon": 8587,
    "Ġ1858": 8588,
    "Ġhelium": 8589,
    "Ġoxide": 8590,
    "ĠHelen": 8591,
    "ĠElec": 8592,
    "ĠSnow": 8593,
    "ĠKurd": 8594,
    "ĠDavis": 8595,
    "áº¢nh": 8596,
    "ĠShow": 8597,
    "ĠKlein": 8598,
    "ĠRussell": 8599,
    "Ġhormones": 8600,
    "Martin": 8601,
    "Ġcomplex": 8602,
    "ĠBilbao": 8603,
    "ĠGayla": 8604,
    "ĠViking": 8605,
    "ĠJudy": 8606,
    "ĠOttoman": 8607,
    "muddin": 8608,
    "ĠhÃ¹m": 8609,
    "ĠPyth": 8610,
    "ĠPicasso": 8611,
    "ĠEngland": 8612,
    "ĠMarshall": 8613,
    "ĠBarbara": 8614,
    "Ġdemo": 8615,
    "ĠKosovo": 8616,
    "ĠKabul": 8617,
    "osevelt": 8618,
    "ĠÄĳuá»£c": 8619,
    "ĠHitler": 8620,
    "ĠRiverside": 8621,
    "ĠColorado": 8622,
    "Ġcivic": 8623,
    "ĠlittleBits": 8624,
    "ĠSinclair": 8625,
    "ĠAlabama": 8626,
    "ĠBarefoot": 8627,
    "ĠMozambique": 8628,
    "37": 8629,
    "48": 8630,
    "59": 8631,
    "64": 8632,
    "AC": 8633,
    "Amy": 8634,
    "BÃ©": 8635,
    "Clay": 8636,
    "Danh": 8637,
    "Dáº§n": 8638,
    "Dar": 8639,
    "EL": 8640,
    "ES": 8641,
    "El": 8642,
    "Gáº¥p": 8643,
    "HO": 8644,
    "JK": 8645,
    "Jac": 8646,
    "KÃŃnh": 8647,
    "LV": 8648,
    "LÅ©": 8649,
    "Larry": 8650,
    "Máº«u": 8651,
    "Mur": 8652,
    "Máº¡ng": 8653,
    "NÃły": 8654,
    "Nathan": 8655,
    "OV": 8656,
    "PL": 8657,
    "Rory": 8658,
    "Sal": 8659,
    "She": 8660,
    "Tiá»ĩn": 8661,
    "Thi": 8662,
    "TÃ´n": 8663,
    "Vai": 8664,
    "VÃ²ng": 8665,
    "YÃªu": 8666,
    "aff": 8667,
    "bi": 8668,
    "bÃª": 8669,
    "bar": 8670,
    "bul": 8671,
    "cola": 8672,
    "castle": 8673,
    "dor": 8674,
    "dad": 8675,
    "die": 8676,
    "dale": 8677,
    "fia": 8678,
    "fri": 8679,
    "gill": 8680,
    "ii": 8681,
    "máº·c": 8682,
    "oit": 8683,
    "par": 8684,
    "ráº¯c": 8685,
    "ret": 8686,
    "sson": 8687,
    "uj": 8688,
    "uza": 8689,
    "xo": 8690,
    "yson": 8691,
    "zy": 8692,
    "·c": 8693,
    "Ġ@": 8694,
    "ĠÆ°ng": 8695,
    "Ġáº¡t": 8696,
    "Ġuyá»ĥn": 8697,
    "Ġed": 8698,
    "Ġare": 8699,
    "á»ª": 8700,
    "Ġtáº±m": 8701,
    "ngay": 8702,
    "ngÃły": 8703,
    "Ġcl": 8704,
    "ĠÄĳÃ¡i": 8705,
    "ĠnÆ°Æ¡ng": 8706,
    "Ġnáº¹p": 8707,
    "Ġnom": 8708,
    "ĠniÃªm": 8709,
    "ĠvÃ³i": 8710,
    "Ġlá»±": 8711,
    "Ġláº£ng": 8712,
    "ĠlÃ³c": 8713,
    "Ġluyáº¿n": 8714,
    "Ġlá»ĳp": 8715,
    "Ġmy": 8716,
    "ĠmÃ³": 8717,
    "ĠmÃ²ng": 8718,
    "Ġmod": 8719,
    "Ġmix": 8720,
    "Ġblu": 8721,
    "Ġsiáº¿t": 8722,
    "Ġsil": 8723,
    "Ġsá»įc": 8724,
    "Ġsex": 8725,
    "Ġtrau": 8726,
    "Ġtráº·c": 8727,
    "Ġnga": 8728,
    "ĠngÃ¹ng": 8729,
    "ĠgÃ¹": 8730,
    "Ġgáº«u": 8731,
    "Ġhiá»ģu": 8732,
    "Ġhot": 8733,
    "Ġhiá»ģn": 8734,
    "Ġhidro": 8735,
    "Ġthá»Ľ": 8736,
    "Ġthá»¥t": 8737,
    "Ġráº§y": 8738,
    "ĠdÆ¡": 8739,
    "ĠÄĳá»Ŀ": 8740,
    "Ġnhuyá»ħn": 8741,
    "ĠkhÃ©t": 8742,
    "ĠchÄ©a": 8743,
    "Ġtháº©n": 8744,
    "ĠcÃ¡cbon": 8745,
    "Ġquot": 8746,
    "ĠquÄ©": 8747,
    "Ġkhong": 8748,
    "ĠÄĳÃ£ng": 8749,
    "Ġchá»ĵi": 8750,
    "otton": 8751,
    "anor": 8752,
    "Ġrang": 8753,
    "Ġsáº·c": 8754,
    "chester": 8755,
    "Ġnháº£": 8756,
    "Ä©u": 8757,
    "ĠTH": 8758,
    "ĠTáº¡": 8759,
    "ĠTai": 8760,
    "ĠTiá»ĥu": 8761,
    "ĠTÃ¡i": 8762,
    "ĠTide": 8763,
    "ĠTulu": 8764,
    "Ġlá»ıi": 8765,
    "Ġlá»¥i": 8766,
    "Ġhooc": 8767,
    "oni": 8768,
    "Ġdá»«a": 8769,
    "ĠCorn": 8770,
    "Ġsá»ĩt": 8771,
    "ĠMao": 8772,
    "ĠMolly": 8773,
    "Ġtrá»ģ": 8774,
    "ĠNÃ´ng": 8775,
    "ĠNicholas": 8776,
    "ĠBK": 8777,
    "ĠBong": 8778,
    "ĠBiáº¿t": 8779,
    "ĠBin": 8780,
    "ĠBit": 8781,
    "ĠBac": 8782,
    "ĠBul": 8783,
    "ĠBion": 8784,
    "ĠBall": 8785,
    "ĠBond": 8786,
    "ĠBeth": 8787,
    "ĠBagh": 8788,
    "ĠHiáº¿n": 8789,
    "ĠHub": 8790,
    "ĠHuck": 8791,
    "ĠHuss": 8792,
    "ĠHome": 8793,
    "ĠÄĲo": 8794,
    "ĠÄĲiá»ĥm": 8795,
    "enix": 8796,
    "ĠAI": 8797,
    "ĠAth": 8798,
    "ĠAut": 8799,
    "ĠATM": 8800,
    "ĠSÃ´ng": 8801,
    "ĠSum": 8802,
    "ĠSony": 8803,
    "ĠSean": 8804,
    "ĠSaf": 8805,
    "Ġhá»Ļt": 8806,
    "ĠmÃ¡ng": 8807,
    "aro": 8808,
    "ĠphÃł": 8809,
    "ĠPin": 8810,
    "ĠPran": 8811,
    "ĠKI": 8812,
    "ĠKob": 8813,
    "ĠLá»±c": 8814,
    "ĠLáº¡nh": 8815,
    "ĠLake": 8816,
    "ĠLHC": 8817,
    "áº¹t": 8818,
    "Ġngá»ı": 8819,
    "ĠGall": 8820,
    "ĠGood": 8821,
    "ĠGowan": 8822,
    "ĠTrÃ¬nh": 8823,
    "ĠTrin": 8824,
    "ĠTrÃ¢n": 8825,
    "ĠTráº¡m": 8826,
    "ĠTroy": 8827,
    "ĠDC": 8828,
    "ĠDay": 8829,
    "ĠDep": 8830,
    "ĠDolly": 8831,
    "ĠDennis": 8832,
    "orm": 8833,
    "Tranh": 8834,
    "Trá»Ŀi": 8835,
    "alog": 8836,
    "Ġphá»¥ng": 8837,
    "ĠRNA": 8838,
    "ĠRain": 8839,
    "ĠRiley": 8840,
    "eli": 8841,
    "iÃªc": 8842,
    "Ġthoáº¡t": 8843,
    "ete": 8844,
    "atin": 8845,
    "ischer": 8846,
    "ĠQuá»·": 8847,
    "ĠJoy": 8848,
    "ilton": 8849,
    "ito": 8850,
    "olph": 8851,
    "ĠFood": 8852,
    "ĠEiff": 8853,
    "ĠEstonia": 8854,
    "leep": 8855,
    "uston": 8856,
    "Ġ62": 8857,
    "Ġ63": 8858,
    "ĠThu": 8859,
    "ĠThÆ°á»Ŀng": 8860,
    "ĠThÆ°á»Łng": 8861,
    "ĠOz": 8862,
    "ĠnghÃª": 8863,
    "uria": 8864,
    "ĠChechn": 8865,
    "Ġtrá»¥i": 8866,
    "rag": 8867,
    "ĠHoff": 8868,
    "Ġ88": 8869,
    "Giá»¯": 8870,
    "Thu": 8871,
    "rove": 8872,
    "Vá»«a": 8873,
    "rea": 8874,
    "rez": 8875,
    "Ġwhi": 8876,
    "Chryst": 8877,
    "idi": 8878,
    "Chá»ĵng": 8879,
    "Chá»įn": 8880,
    "ĠStef": 8881,
    "theo": 8882,
    "ĠUC": 8883,
    "ĠmÃªnh": 8884,
    "ĠThá»ĥ": 8885,
    "Ġwebcam": 8886,
    "ineering": 8887,
    "ĠGiáº¥c": 8888,
    "ĠGifford": 8889,
    "trino": 8890,
    "Ġrobots": 8891,
    "Ġoan": 8892,
    "Ġft": 8893,
    "Ġflash": 8894,
    "Cháº¡y": 8895,
    "ĠChá»§ng": 8896,
    "Ġvá»£t": 8897,
    "iba": 8898,
    "ChÃ¬a": 8899,
    "ifi": 8900,
    "azar": 8901,
    "ĠAnton": 8902,
    "ĠAnne": 8903,
    "Ġnháº¹n": 8904,
    "ĠTá»¥i": 8905,
    "ĠBrend": 8906,
    "ĠZetas": 8907,
    "ĠIstan": 8908,
    "Ġáº¢nh": 8909,
    "Ġuáº¥t": 8910,
    "ĠCargill": 8911,
    "Ġ2014": 8912,
    "Bá»Ĺng": 8913,
    "KhÃ¡ch": 8914,
    "Ġ05": 8915,
    "phus": 8916,
    "ove": 8917,
    "ĠDoanh": 8918,
    "aina": 8919,
    "Ġ1982": 8920,
    "Ġ1987": 8921,
    "enny": 8922,
    "annel": 8923,
    "stan": 8924,
    "Cá»§a": 8925,
    "ĠRobics": 8926,
    "ĠBá»ī": 8927,
    "athy": 8928,
    "shmi": 8929,
    "ĠMichoac": 8930,
    "ĠSpring": 8931,
    "ĠSplashy": 8932,
    "Ġ1968": 8933,
    "ĠBlair": 8934,
    "ĠBank": 8935,
    "ĠSaund": 8936,
    "urga": 8937,
    "Ġváº¹t": 8938,
    "ĠMá»Ľi": 8939,
    "Ná»¯": 8940,
    "ĠHeather": 8941,
    "ĠLuke": 8942,
    "ĠReagan": 8943,
    "Ġná»ģu": 8944,
    "ĠNeumann": 8945,
    "ĠKhÆ¡": 8946,
    "endo": 8947,
    "ĠKhÃ¡c": 8948,
    "ĠAndy": 8949,
    "KhuÃ´n": 8950,
    "ensp": 8951,
    "enstein": 8952,
    "Ġ1947": 8953,
    "Ġ1948": 8954,
    "Ġngháº¹n": 8955,
    "ĠNghÄ©": 8956,
    "ĠRoma": 8957,
    "ĠsÃ´cÃ´la": 8958,
    "ĠGabriel": 8959,
    "meister": 8960,
    "ĠLibby": 8961,
    "ĠStanley": 8962,
    "ĠActor": 8963,
    "Lá»Ľp": 8964,
    "ĠKhá»§ng": 8965,
    "ĠDá»ħ": 8966,
    "ĠWater": 8967,
    "ARS": 8968,
    "ĠGene": 8969,
    "ĠBrooks": 8970,
    "Stef": 8971,
    "ĠBonnie": 8972,
    "Ġdollars": 8973,
    "ĠAviv": 8974,
    "ĠRoosevelt": 8975,
    "ĠKnee": 8976,
    "ĠKnight": 8977,
    "antha": 8978,
    "ĠFerris": 8979,
    "ĠJacob": 8980,
    "ĠMissouri": 8981,
    "ĠBudrus": 8982,
    "ĠWired": 8983,
    "cá»¥": 8984,
    "ĠNoah": 8985,
    "Ġbloop": 8986,
    "ĠKaluza": 8987,
    "ĠFarmer": 8988,
    "ĠTerence": 8989,
    "Ġpheromones": 8990,
    "ĠPauling": 8991,
    "ĠFortune": 8992,
    "ĠBroadway": 8993,
    "ĠWhitacre": 8994,
    "Ġpolymer": 8995,
    "ĠKhÃŃ": 8996,
    "Ġ747": 8997,
    "Joseph": 8998,
    "ĠSaddam": 8999,
    "pháº§n": 9000,
    "Ġmeerk": 9001,
    "ĠAchill": 9002,
    "ĠKháº£": 9003,
    "ĠSenegal": 9004,
    "tháºŃm": 9005,
    "Ġbeep": 9006,
    "ĠOnline": 9007,
    "ĠShirley": 9008,
    "Frank": 9009,
    "engineering": 9010,
    "nghÄ©a": 9011,
    "ĠvÃªnh": 9012,
    "ĠJesse": 9013,
    "ĠHimalayas": 9014,
    "ĠDARPA": 9015,
    "ĠCloud": 9016,
    "ĠCollins": 9017,
    "ĠUniversity": 9018,
    "ĠByrne": 9019,
    "ĠKentucky": 9020,
    "ĠRufus": 9021,
    "ĠScience": 9022,
    "ĠNIH": 9023,
    "ĠWindows": 9024,
    "ĠJacques": 9025,
    "agascar": 9026,
    "ĠAlgeria": 9027,
    "ĠAltos": 9028,
    "ĠSisyphus": 9029,
    "ĠlÃºn": 9030,
    "ĠCassini": 9031,
    "ĠCleveland": 9032,
    "ĠSagmeister": 9033,
    "ĠGillian": 9034,
    "ĠHyderabad": 9035,
    "ĠDuolingo": 9036,
    "ĠBaghdad": 9037,
    "ĠHussein": 9038,
    "ĠGowanus": 9039,
    "ĠEiffel": 9040,
    "ĠChechnya": 9041,
    "ĠIstanbul": 9042,
    "ĠRobicsek": 9043,
    "ĠSaunders": 9044,
    "Ġmeerkat": 9045,
    "33": 9046,
    "700": 9047,
    "97": 9048,
    "AL": 9049,
    "AN": 9050,
    "Alex": 9051,
    "Arist": 9052,
    "Br": 9053,
    "Bren": 9054,
    "CN": 9055,
    "Cáº§u": 9056,
    "Cal": 9057,
    "CÃ¡nh": 9058,
    "Chia": 9059,
    "Der": 9060,
    "Elizabeth": 9061,
    "GV": 9062,
    "Gá»įi": 9063,
    "HP": 9064,
    "HQ": 9065,
    "Im": 9066,
    "JM": 9067,
    "Ká»¹": 9068,
    "KÃŃch": 9069,
    "Lu": 9070,
    "MW": 9071,
    "Man": 9072,
    "Mang": 9073,
    "Náº¥m": 9074,
    "OOC": 9075,
    "Par": 9076,
    "Quyá»ĥn": 9077,
    "Rá»ĳt": 9078,
    "Rachel": 9079,
    "Sá»Ł": 9080,
    "Song": 9081,
    "Shi": 9082,
    "Sim": 9083,
    "SÃ¡ch": 9084,
    "Tay": 9085,
    "Tony": 9086,
    "Tunes": 9087,
    "UE": 9088,
    "Viáº¿t": 9089,
    "Video": 9090,
    "Xu": 9091,
    "cow": 9092,
    "cul": 9093,
    "cock": 9094,
    "ds": 9095,
    "fel": 9096,
    "kin": 9097,
    "láº¡i": 9098,
    "lia": 9099,
    "mor": 9100,
    "nháº": 9101,
    "nis": 9102,
    "nic": 9103,
    "point": 9104,
    "press": 9105,
    "rd": 9106,
    "rt": 9107,
    "ru": 9108,
    "ras": 9109,
    "sáº½": 9110,
    "ts": 9111,
    "tinh": 9112,
    "tes": 9113,
    "tol": 9114,
    "tra": 9115,
    "uana": 9116,
    "vÃŃ": 9117,
    "vold": 9118,
    "wl": 9119,
    "war": 9120,
    "¹t": 9121,
    "Ì£": 9122,
    "Ġ_": 9123,
    "Ġes": 9124,
    "Ġub": 9125,
    "áºµng": 9126,
    "Ġteo": 9127,
    "ĠtÃ³t": 9128,
    "Ġtennis": 9129,
    "Ġtáº¹o": 9130,
    "ĠcÃłm": 9131,
    "Ġcáº±m": 9132,
    "ĠÄĳu": 9133,
    "ĠÄĳÆ¡": 9134,
    "Ġnu": 9135,
    "Ġnao": 9136,
    "Ġnáº¥y": 9137,
    "Ġnick": 9138,
    "ĠnÄ©a": 9139,
    "há»ĭch": 9140,
    "ĠvÃ©t": 9141,
    "Ġlt": 9142,
    "Ġláº£": 9143,
    "Ġlim": 9144,
    "Ġliáº¿c": 9145,
    "ĠmáºŃu": 9146,
    "Ġmoi": 9147,
    "Ġmag": 9148,
    "Ġby": 9149,
    "Ġbung": 9150,
    "ĠbÃªu": 9151,
    "ĠbÃ¡i": 9152,
    "Ġbáº·m": 9153,
    "Ġbiá»ħu": 9154,
    "ĠkÃ©t": 9155,
    "ĠsÃłi": 9156,
    "ĠtrÃłnh": 9157,
    "Ġtrá»ĵi": 9158,
    "Ġngáº¥y": 9159,
    "ĠngÃłng": 9160,
    "Ġngáº¥u": 9161,
    "Ġngháº¿": 9162,
    "Ġngáº¡ch": 9163,
    "ĠngÃ¡p": 9164,
    "Ġgr": 9165,
    "Ġgu": 9166,
    "ĠgÃłn": 9167,
    "Ġgoi": 9168,
    "Ġgara": 9169,
    "Ġgáº«y": 9170,
    "ĠhuyÃªn": 9171,
    "Ġhec": 9172,
    "Ġhead": 9173,
    "Ġthá»±": 9174,
    "Ġráº¡n": 9175,
    "ĠrÃ²i": 9176,
    "Ãªng": 9177,
    "Ãªin": 9178,
    "Ġdá»Ļt": 9179,
    "ĠdÃ¬m": 9180,
    "ĠdáºŃt": 9181,
    "ĠchÆ°á»Ŀng": 9182,
    "ĠchiÃªc": 9183,
    "ĠthÃłng": 9184,
    "Ġhá»Ľt": 9185,
    "Ġtá»ħ": 9186,
    "Ġquá»ĩ": 9187,
    "ĠgiÄĥng": 9188,
    "ĠgiÅ©": 9189,
    "ĠgiÃ¹m": 9190,
    "ĠxÃª": 9191,
    "Ġkha": 9192,
    "Ġchá»Ńi": 9193,
    "Ġpháº¿t": 9194,
    "aya": 9195,
    "ayan": 9196,
    "Ġbá»ıi": 9197,
    "Ġbá»«ng": 9198,
    "Ġbá»©t": 9199,
    "ĠTÃ¡c": 9200,
    "ĠTiÃªu": 9201,
    "ĠTuyáº¿t": 9202,
    "ĠTul": 9203,
    "ĠTuc": 9204,
    "ĠTij": 9205,
    "Ġdá»ım": 9206,
    "aijan": 9207,
    "ĠchÃª": 9208,
    "ĠnhÃ²m": 9209,
    "ÄĲá»ĵ": 9210,
    "ÄĲá»įc": 9211,
    "aux": 9212,
    "inas": 9213,
    "Ġná»Ľt": 9214,
    "ĠCL": 9215,
    "ĠCÃ¢y": 9216,
    "ĠCÃłng": 9217,
    "ĠCáº¯t": 9218,
    "ĠCáº£ng": 9219,
    "ĠCáº¥p": 9220,
    "ĠCos": 9221,
    "ĠCit": 9222,
    "ĠCháº¿": 9223,
    "ĠCPhi": 9224,
    "ĠCoke": 9225,
    "Ġháº¯t": 9226,
    "Ġsá»ī": 9227,
    "ĠMÃ´": 9228,
    "ĠMá»Ł": 9229,
    "ĠMai": 9230,
    "ĠMÃłn": 9231,
    "ĠMáº¥y": 9232,
    "ĠMam": 9233,
    "ĠMá»ĳi": 9234,
    "ĠMun": 9235,
    "ĠMitra": 9236,
    "hieu": 9237,
    "Ġtrá»£n": 9238,
    "Ġká»īnh": 9239,
    "ĠNO": 9240,
    "ĠNaomi": 9241,
    "ĠBai": 9242,
    "ĠBÃłn": 9243,
    "ĠBÃ©": 9244,
    "ĠHÆ°ng": 9245,
    "ĠHem": 9246,
    "ĠHÃºp": 9247,
    "ĠHob": 9248,
    "ĠHurt": 9249,
    "ĠHannah": 9250,
    "ĠHLV": 9251,
    "ĠÄĲÆ¡n": 9252,
    "ĠÄĲÃ¡nh": 9253,
    "enos": 9254,
    "ĠAung": 9255,
    "ĠAss": 9256,
    "Ġquark": 9257,
    "Ġkhá»ĳ": 9258,
    "ĠSo": 9259,
    "ĠShan": 9260,
    "ĠSir": 9261,
    "ĠSach": 9262,
    "ĠSaul": 9263,
    "ĠSlow": 9264,
    "ĠSleep": 9265,
    "Ġyum": 9266,
    "iá»ħm": 9267,
    "ĠPav": 9268,
    "ĠPine": 9269,
    "ĠPants": 9270,
    "ĠKa": 9271,
    "ĠKong": 9272,
    "ĠKÃŃch": 9273,
    "ĠKerry": 9274,
    "ĠLÃ²ng": 9275,
    "ĠLá»ĩ": 9276,
    "ĠLind": 9277,
    "ĠLagos": 9278,
    "ĠLinda": 9279,
    "ĠLOL": 9280,
    "ĠLHQ": 9281,
    "Ġá»ªm": 9282,
    "Ġngá»©a": 9283,
    "ĠGoog": 9284,
    "ĠGram": 9285,
    "ĠGros": 9286,
    "ĠGup": 9287,
    "Ġngoáº¡c": 9288,
    "ĠTrÃ´ng": 9289,
    "Ġxui": 9290,
    "ĠDÃ²ng": 9291,
    "ĠDig": 9292,
    "ĠDod": 9293,
    "ĠDyson": 9294,
    "oren": 9295,
    "alo": 9296,
    "Ġthun": 9297,
    "ĠRap": 9298,
    "ĠRaj": 9299,
    "ĠRagu": 9300,
    "els": 9301,
    "Nghi": 9302,
    "ĠID": 9303,
    "ĠIN": 9304,
    "ĠINCRA": 9305,
    "Ġ59": 9306,
    "ĠViÃªn": 9307,
    "ĠVÃ²ng": 9308,
    "ĠVáº«y": 9309,
    "ĠVui": 9310,
    "ĠVila": 9311,
    "Ġrá»§a": 9312,
    "ashi": 9313,
    "itan": 9314,
    "olulu": 9315,
    "ology": 9316,
    "ĠWell": 9317,
    "ĠWatt": 9318,
    "ĠWhoa": 9319,
    "ĠFi": 9320,
    "ĠEsk": 9321,
    "hov": 9322,
    "house": 9323,
    "ĠthÆ°c": 9324,
    "ushi": 9325,
    "omon": 9326,
    "ĠOla": 9327,
    "ĠOne": 9328,
    "ĠYos": 9329,
    "liu": 9330,
    "Ġ83": 9331,
    "Ġ92": 9332,
    "eber": 9333,
    "ÄĲá»ĭa": 9334,
    "unn": 9335,
    "uno": 9336,
    "roject": 9337,
    "ĠNewcastle": 9338,
    "reen": 9339,
    "ides": 9340,
    "idad": 9341,
    "Chá»©": 9342,
    "ĠSting": 9343,
    "ahn": 9344,
    "than": 9345,
    "thus": 9346,
    "igrut": 9347,
    "ophia": 9348,
    "Ġnhá»Ŀn": 9349,
    "agram": 9350,
    "ĠXDR": 9351,
    "Ġ1200": 9352,
    "ĠAllo": 9353,
    "abel": 9354,
    "abian": 9355,
    "ĠThá»©c": 9356,
    "Má»Ŀi": 9357,
    "ould": 9358,
    "ĠGiáº£": 9359,
    "ĠGiÃ¡c": 9360,
    "ĠGiÃºp": 9361,
    "Ġ186": 9362,
    "Howard": 9363,
    "acker": 9364,
    "ĠTá»Ľ": 9365,
    "ĠZambia": 9366,
    "Ġmafia": 9367,
    "egas": 9368,
    "egrass": 9369,
    "Ġup": 9370,
    "ĠShack": 9371,
    "Bá»ĭ": 9372,
    "ĠEmmanuel": 9373,
    "ippi": 9374,
    "yloid": 9375,
    "ĠGiá»¯a": 9376,
    "ersburg": 9377,
    "Ġ170": 9378,
    "ĠÃģnh": 9379,
    "Ġláº»o": 9380,
    "ocks": 9381,
    "ĠPháº£n": 9382,
    "ĠCháº¥t": 9383,
    "ĠnhoÃł": 9384,
    "Ġ1972": 9385,
    "Ġ1974": 9386,
    "Ġ1976": 9387,
    "á»ĩn": 9388,
    "ĠGeoff": 9389,
    "pper": 9390,
    "ĠMcChryst": 9391,
    "ĠCollider": 9392,
    "ĠMount": 9393,
    "ĠTháºŃp": 9394,
    "derick": 9395,
    "ĠBear": 9396,
    "ugust": 9397,
    "ugata": 9398,
    "illie": 9399,
    "ĠHá»ıi": 9400,
    "ĠThÃªm": 9401,
    "ĠNá»ģn": 9402,
    "ĠDarfur": 9403,
    "dies": 9404,
    "ĠKhai": 9405,
    "ĠPetersburg": 9406,
    "Ġngháº¹t": 9407,
    "ĠNghiá»ĩp": 9408,
    "ĠTorosaurus": 9409,
    "ĠNháº£y": 9410,
    "ĠNháº¡c": 9411,
    "issippi": 9412,
    "ĠFreeman": 9413,
    "....": 9414,
    "ixon": 9415,
    "ehr": 9416,
    "ĠchÃ¹i": 9417,
    "ĠMadagascar": 9418,
    "Ġcents": 9419,
    "ĠMech": 9420,
    "ĠMead": 9421,
    "ĠGalileo": 9422,
    "Ġmicrophone": 9423,
    "Lá»£i": 9424,
    "Ġnhá»ĭn": 9425,
    "ĠSimpson": 9426,
    "ĠKaren": 9427,
    "ĠDá»¥c": 9428,
    "ĠnhÃ£ng": 9429,
    "ĠLady": 9430,
    "Kháº¯p": 9431,
    "ĠSuu": 9432,
    "ĠTrá»¥c": 9433,
    "ĠNano": 9434,
    "ĠBuenos": 9435,
    "ĠPlay": 9436,
    "Ġseries": 9437,
    "Ġpounds": 9438,
    "ĠHansen": 9439,
    "ĠBolt": 9440,
    "ĠKyi": 9441,
    "ĠRockett": 9442,
    "ĠDeep": 9443,
    "ĠBlackberry": 9444,
    "ĠAires": 9445,
    "ĠAirstream": 9446,
    "ĠForbes": 9447,
    "ĠMoscow": 9448,
    "ĠHills": 9449,
    "ĠAriely": 9450,
    "ĠTitanic": 9451,
    "Ġmili": 9452,
    "ĠProject": 9453,
    "ski": 9454,
    "ĠKuwait": 9455,
    "ĠLaramie": 9456,
    "lasma": 9457,
    "ĠSkid": 9458,
    "ĠWii": 9459,
    "Ġenzim": 9460,
    "ĠRandolph": 9461,
    "ĠBotsw": 9462,
    "ĠJordans": 9463,
    "Ġmuá»Ļi": 9464,
    "Ġgluten": 9465,
    "ĠMaslow": 9466,
    "ĠGeorgetown": 9467,
    "Ġeureka": 9468,
    "borough": 9469,
    "Khá»ĳi": 9470,
    "Khá»§ng": 9471,
    "ĠHadron": 9472,
    "Ġenzym": 9473,
    "mstrong": 9474,
    "ĠArabia": 9475,
    "ĠMcGon": 9476,
    "ĠSilver": 9477,
    "ĠSchwartz": 9478,
    "Ġsunphua": 9479,
    "erbaijan": 9480,
    "ĠPinker": 9481,
    "ingsuit": 9482,
    "ĠWikiLe": 9483,
    "Jonathan": 9484,
    "Jennifer": 9485,
    "tzmann": 9486,
    "ĠJuliet": 9487,
    "Ġawesome": 9488,
    "ĠTobago": 9489,
    "ĠPascal": 9490,
    "hrvold": 9491,
    "eynman": 9492,
    "trolux": 9493,
    "ĠAndroid": 9494,
    "ĠPeace": 9495,
    "ĠEconomist": 9496,
    "mingham": 9497,
    "Ġsalad": 9498,
    "ĠHonolulu": 9499,
    "ĠVivian": 9500,
    "ĠOwens": 9501,
    "ĠUtah": 9502,
    "ĠHirshhorn": 9503,
    "ĠNevada": 9504,
    "ĠHudson": 9505,
    "ĠPrego": 9506,
    "ĠKaplan": 9507,
    "ĠGladwell": 9508,
    "ĠDDT": 9509,
    "ĠNajmuddin": 9510,
    "ĠBKT": 9511,
    "ĠBitco": 9512,
    "ĠGiffords": 9513,
    "Ġubuntu": 9514,
    "Ġngháº¿ch": 9515,
    "ĠTucson": 9516,
    "ĠHurtigrut": 9517,
    "ĠGupta": 9518,
    "ĠMcChrystal": 9519,
    "ĠHurtigruten": 9520,
    "05": 9521,
    "27": 9522,
    "38": 9523,
    "Af": 9524,
    "Angel": 9525,
    "BS": 9526,
    "CR": 9527,
    "Cr": 9528,
    "CÃ´n": 9529,
    "Col": 9530,
    "Cháº¿": 9531,
    "Card": 9532,
    "DU": 9533,
    "Es": 9534,
    "FL": 9535,
    "Fi": 9536,
    "GB": 9537,
    "Ghi": 9538,
    "Gab": 9539,
    "HS": 9540,
    "Háº±ng": 9541,
    "Háº¿t": 9542,
    "Hiá»ĩp": 9543,
    "IY": 9544,
    "ICE": 9545,
    "Jack": 9546,
    "LM": 9547,
    "Lau": 9548,
    "Lá»ĳi": 9549,
    "Lewis": 9550,
    "Ma": 9551,
    "Máº¯t": 9552,
    "Má»±c": 9553,
    "Má»¹": 9554,
    "MÃ³n": 9555,
    "No": 9556,
    "NÃ´ng": 9557,
    "Os": 9558,
    "Sc": 9559,
    "San": 9560,
    "Sarah": 9561,
    "Sylvia": 9562,
    "Sphere": 9563,
    "Sebastian": 9564,
    "Tá»Ļi": 9565,
    "TÃ¡m": 9566,
    "VÃ´": 9567,
    "VÆ°á»£t": 9568,
    "Xa": 9569,
    "ahoo": 9570,
    "bá»": 9571,
    "bÃł": 9572,
    "bal": 9573,
    "bro": 9574,
    "bach": 9575,
    "beta": 9576,
    "cuá»Ļc": 9577,
    "ced": 9578,
    "dt": 9579,
    "day": 9580,
    "ful": 9581,
    "ga": 9582,
    "gy": 9583,
    "hasa": 9584,
    "jad": 9585,
    "kut": 9586,
    "lÆ¡": 9587,
    "mÃ´": 9588,
    "nest": 9589,
    "nish": 9590,
    "oxy": 9591,
    "ofi": 9592,
    "pen": 9593,
    "pera": 9594,
    "rot": 9595,
    "rai": 9596,
    "sey": 9597,
    "sain": 9598,
    "tu": 9599,
    "táº¡o": 9600,
    "teo": 9601,
    "vald": 9602,
    "work": 9603,
    "xÆ¡": 9604,
    "znet": 9605,
    "zka": 9606,
    "§u": 9607,
    "ÃĮ": 9608,
    "à¸": 9609,
    "Ġáº¯t": 9610,
    "Ġer": 9611,
    "Ġap": 9612,
    "Ġoli": 9613,
    "Ġorgan": 9614,
    "Ŀng": 9615,
    "Ńch": 9616,
    "á»ªm": 9617,
    "áº¤": 9618,
    "ĠtÃ¬": 9619,
    "ĠtÃ£": 9620,
    "Ġtáº¿t": 9621,
    "Ġtuyá»ģn": 9622,
    "Ġtuá»ĳc": 9623,
    "Ġtuá»ĳi": 9624,
    "ĠtÃ¡ng": 9625,
    "Ġcau": 9626,
    "ĠcÃºc": 9627,
    "Ġcass": 9628,
    "Ġcoll": 9629,
    "Ġcotton": 9630,
    "Ġnáº¯n": 9631,
    "Ġnap": 9632,
    "hÃ¨o": 9633,
    "ĠvÆ¡i": 9634,
    "Ġváº£y": 9635,
    "Ġvali": 9636,
    "Ġle": 9637,
    "Ġlá»įi": 9638,
    "ĠlÄĥm": 9639,
    "ĠlÃ¹a": 9640,
    "ĠlÃ¬a": 9641,
    "ĠlÃ¹n": 9642,
    "Ġlá»±u": 9643,
    "ĠmÃº": 9644,
    "Ġmáº«n": 9645,
    "ĠmÃºc": 9646,
    "ĠmÃ¨": 9647,
    "Ġbáº¡": 9648,
    "Ġbáº½": 9649,
    "ĠbÃºp": 9650,
    "Ġbáº¥p": 9651,
    "Ġbla": 9652,
    "Ġkang": 9653,
    "Ġsáº¥y": 9654,
    "Ġsá»įt": 9655,
    "ĠsÃ©c": 9656,
    "ĠngÃ¡y": 9657,
    "Ġguá»ĵng": 9658,
    "Ġguit": 9659,
    "ĠhÆ¡": 9660,
    "Ġhem": 9661,
    "Ġhit": 9662,
    "Ġrem": 9663,
    "Ġdáº£": 9664,
    "Ġdes": 9665,
    "ĠdÃ£n": 9666,
    "Ġnheo": 9667,
    "quare": 9668,
    "Ġvá»¯a": 9669,
    "Ġvá»«ng": 9670,
    "ĠcÃ³ng": 9671,
    "Ġchuá»ĳt": 9672,
    "Ġhá»§": 9673,
    "Ã£nh": 9674,
    "ĠquÃ¡c": 9675,
    "ĠquáºŃy": 9676,
    "ĠgiÅ©a": 9677,
    "ĠxÃ¹": 9678,
    "Ġxiáº¿c": 9679,
    "Ġxáº»o": 9680,
    "Ġkhuá»·": 9681,
    "ĠthÃ²": 9682,
    "ĠpháºŃt": 9683,
    "Ġpháº©u": 9684,
    "Ġpháº§m": 9685,
    "Ġgiá»¡n": 9686,
    "Ġnháº±ng": 9687,
    "Ġcáº£u": 9688,
    "Ġbá»£": 9689,
    "Ġbá»£m": 9690,
    "ĠTÃ´n": 9691,
    "ĠTut": 9692,
    "ĠTNC": 9693,
    "Ġlá»ķ": 9694,
    "Ġlá»Ľi": 9695,
    "ons": 9696,
    "Ġdá»ĥ": 9697,
    "Ġcháº§m": 9698,
    "ĠchÃ²i": 9699,
    "ĠchÃ²m": 9700,
    "ĠhÃ£n": 9701,
    "ÄĲÃ¡nh": 9702,
    "Ġmá»ĭt": 9703,
    "aust": 9704,
    "inia": 9705,
    "iness": 9706,
    "inawa": 9707,
    "ĠCart": 9708,
    "ĠCash": 9709,
    "ĠCeline": 9710,
    "á»ĵm": 9711,
    "Ġtoan": 9712,
    "ĠtoÃ¡t": 9713,
    "ĠMáº¥t": 9714,
    "ĠMiá»ģn": 9715,
    "ĠMis": 9716,
    "ĠMik": 9717,
    "ĠMul": 9718,
    "ĠMore": 9719,
    "ĠMod": 9720,
    "ĠMá»Ŀi": 9721,
    "ĠMorg": 9722,
    "ĠMAS": 9723,
    "ĠMOOC": 9724,
    "ĠkhoÃ©t": 9725,
    "ĠsÃ¡n": 9726,
    "emite": 9727,
    "ĠNR": 9728,
    "ĠNap": 9729,
    "ĠNiá»ģm": 9730,
    "ĠNSA": 9731,
    "ĠNino": 9732,
    "ĠNixon": 9733,
    "ĠBB": 9734,
    "ĠBuy": 9735,
    "ĠBáº§u": 9736,
    "ĠBáº£ng": 9737,
    "ĠBÃ¡ch": 9738,
    "ĠBak": 9739,
    "ĠBog": 9740,
    "ĠBeverly": 9741,
    "ĠloÃ¡t": 9742,
    "eren": 9743,
    "ĠHS": 9744,
    "ĠHor": 9745,
    "ĠHand": 9746,
    "ĠHeb": 9747,
    "ĠHáº¡nh": 9748,
    "ĠHart": 9749,
    "ĠHipp": 9750,
    "ĠHAL": 9751,
    "ĠÄĲH": 9752,
    "ĠÄĲÃłng": 9753,
    "ĠÄĲen": 9754,
    "ĠÄĲáº¥u": 9755,
    "ĠAw": 9756,
    "ĠSin": 9757,
    "ĠSá»ĳt": 9758,
    "ĠSue": 9759,
    "ĠphÃłm": 9760,
    "ĠPR": 9761,
    "ĠPi": 9762,
    "ĠPao": 9763,
    "ĠPhÃºc": 9764,
    "ĠPear": 9765,
    "ĠKw": 9766,
    "ĠKan": 9767,
    "ĠKoh": 9768,
    "ĠKris": 9769,
    "ĠKros": 9770,
    "ĠKant": 9771,
    "ĠLem": 9772,
    "ĠLÆ°á»£ng": 9773,
    "ĠLow": 9774,
    "ĠLight": 9775,
    "ĠLisa": 9776,
    "ĠLife": 9777,
    "áº¹n": 9778,
    "Ġá»¥": 9779,
    "Ġá»ī": 9780,
    "Ġá»Ķn": 9781,
    "Ġngá»Ĺng": 9782,
    "ĠGut": 9783,
    "ĠGell": 9784,
    "ĠGmail": 9785,
    "ĠGould": 9786,
    "Ġngoáº·c": 9787,
    "ĠTráº¡i": 9788,
    "ĠTrang": 9789,
    "ĠDM": 9790,
    "ĠDam": 9791,
    "ĠDom": 9792,
    "ĠDew": 9793,
    "ĠDáº¡ng": 9794,
    "ĠDak": 9795,
    "ĠDow": 9796,
    "ĠDev": 9797,
    "ĠDown": 9798,
    "ĠDhar": 9799,
    "ĠDuke": 9800,
    "ĠDIY": 9801,
    "Tri": 9802,
    "Trá»": 9803,
    "Tráº£i": 9804,
    "ima": 9805,
    "imp": 9806,
    "Ãµng": 9807,
    "ĠRI": 9808,
    "ĠRas": 9809,
    "ĠRho": 9810,
    "ĠRah": 9811,
    "ĠRá»ĵng": 9812,
    "ĠRica": 9813,
    "ĠRIA": 9814,
    "elop": 9815,
    "elling": 9816,
    "Ġquyá»ĩn": 9817,
    "Ngá»": 9818,
    "Ngá»ĵi": 9819,
    "Nghá»ĭch": 9820,
    "ĠIV": 9821,
    "ĠIce": 9822,
    "ĠkhÃŃt": 9823,
    "Tháº±ng": 9824,
    "TháºŃp": 9825,
    "Ġsound": 9826,
    "Ġsocola": 9827,
    "ĠVáº¡n": 9828,
    "ĠVáºŃn": 9829,
    "ĠVib": 9830,
    "ĠVá»įng": 9831,
    "ĠVideo": 9832,
    "ĠViag": 9833,
    "atra": 9834,
    "Ġrá»ĥ": 9835,
    "ĠQuyá»ĥn": 9836,
    "ĠQuyáº¿t": 9837,
    "ĠJans": 9838,
    "ĠJaw": 9839,
    "ĠJake": 9840,
    "ĠJobs": 9841,
    "Ġbass": 9842,
    "ĠÃĬ": 9843,
    "ilm": 9844,
    "illo": 9845,
    "ility": 9846,
    "ilever": 9847,
    "ilocks": 9848,
    "aste": 9849,
    "itor": 9850,
    "ital": 9851,
    "ited": 9852,
    "itiba": 9853,
    "Ġding": 9854,
    "ĠWong": 9855,
    "ĠFoster": 9856,
    "ĠFez": 9857,
    "ĠFull": 9858,
    "ĠFaiza": 9859,
    "ĠEr": 9860,
    "ĠEngel": 9861,
    "ĠEames": 9862,
    "Ġ103": 9863,
    "ĠNgá»įn": 9864,
    "ĠNgoÃłi": 9865,
    "Thá»©c": 9866,
    "adema": 9867,
    "oma": 9868,
    "ĠThuá»·": 9869,
    "ĠThatch": 9870,
    "ĠOm": 9871,
    "ĠOld": 9872,
    "ĠnghÃ©n": 9873,
    "oblog": 9874,
    "urich": 9875,
    "ĠChe": 9876,
    "ĠChap": 9877,
    "ĠChand": 9878,
    "ĠChev": 9879,
    "ĠChuck": 9880,
    "ĠYellow": 9881,
    "Ġ71": 9882,
    "Ġ73": 9883,
    "Ġ79": 9884,
    "lif": 9885,
    "Giá»Ľi": 9886,
    "Ġgá»«ng": 9887,
    "ThÆ°": 9888,
    "ThÆ°Æ¡ng": 9889,
    "ĠÄĲá»§": 9890,
    "idge": 9891,
    "Chá»Ĺ": 9892,
    "Chá»Ŀ": 9893,
    "tha": 9894,
    "ign": 9895,
    "istry": 9896,
    "rani": 9897,
    "ĠUhm": 9898,
    "ague": 9899,
    "ĠXc": 9900,
    "ĠbÃŃt": 9901,
    "avi": 9902,
    "avel": 9903,
    "Äĳá»ĳi": 9904,
    "oczka": 9905,
    "ĠNhanh": 9906,
    "ĠNhiá»ĩm": 9907,
    "sonian": 9908,
    "hanol": 9909,
    "teau": 9910,
    "Ġxá»Ľi": 9911,
    "Ġxá»Ńa": 9912,
    "ieg": 9913,
    "iev": 9914,
    "Ġfáº£i": 9915,
    "Ġfont": 9916,
    "Cháº¿t": 9917,
    "ĠMarx": 9918,
    "Ġ25000": 9919,
    "Ġ1100": 9920,
    "ChÃŃn": 9921,
    "rylic": 9922,
    "azo": 9923,
    "acking": 9924,
    "icklider": 9925,
    "ivia": 9926,
    "ives": 9927,
    "GiÃ³": 9928,
    "heim": 9929,
    "artu": 9930,
    "ĠBrent": 9931,
    "ĠArmstrong": 9932,
    "ĠZipcar": 9933,
    "ions": 9934,
    "deen": 9935,
    "erto": 9936,
    "Ġ1400": 9937,
    "Bá»Ŀi": 9938,
    "ody": 9939,
    "odka": 9940,
    "Ġ2100": 9941,
    "Ġrupi": 9942,
    "ĠHaidt": 9943,
    "achi": 9944,
    "acht": 9945,
    "ĠiTunes": 9946,
    "aint": 9947,
    "Ġ1981": 9948,
    "ĠnÆ¡ron": 9949,
    "ĠnhÃ¡i": 9950,
    "ĠnhÃ¡m": 9951,
    "ĠPháº«u": 9952,
    "annes": 9953,
    "annica": 9954,
    "lint": 9955,
    "ĠCháº¡y": 9956,
    "amble": 9957,
    "Ġ1977": 9958,
    "Ġ1978": 9959,
    "Cá»Ńa": 9960,
    "ĠCá»¥": 9961,
    "ĠColle": 9962,
    "ĠBá»¯a": 9963,
    "iza": 9964,
    "ĠPalin": 9965,
    "Ġ1969": 9966,
    "ĠRossy": 9967,
    "ĠNight": 9968,
    "ĠBarbie": 9969,
    "anium": 9970,
    "Ġje": 9971,
    "ugu": 9972,
    "Ná»ķi": 9973,
    "ĠChopin": 9974,
    "ĠSchul": 9975,
    "ĠPhá»ķ": 9976,
    "ĠCruz": 9977,
    "ĠMaas": 9978,
    "ĠHealth": 9979,
    "otto": 9980,
    "ĠKhal": 9981,
    "ĠHarvey": 9982,
    "endor": 9983,
    "ĠKhÃ¡m": 9984,
    "ĠAtkins": 9985,
    "ĠAndes": 9986,
    "Khung": 9987,
    "ĠJosh": 9988,
    "ĠOrkut": 9989,
    "ĠOrnish": 9990,
    "Ġxá»īn": 9991,
    "ourne": 9992,
    "ethyl": 9993,
    "ĠchÃ¹n": 9994,
    "ĠGreenville": 9995,
    "Alain": 9996,
    "Dá»«ng": 9997,
    "ĠCous": 9998,
    "ĠSamantha": 9999,
    "reddies": 10000,
    "usty": 10001,
    "Margaret": 10002,
    "esha": 10003,
    "Ġ1953": 10004,
    "weil": 10005,
    "ĠMyhrvold": 10006,
    "ĠGogh": 10007,
    "therland": 10008,
    "ĠAhmad": 10009,
    "consin": 10010,
    "ĠSutherland": 10011,
    "Ġháº»m": 10012,
    "ĠGenev": 10013,
    "ĠPercy": 10014,
    "Ġngá»«oi": 10015,
    "efeller": 10016,
    "monia": 10017,
    "Ġacrylic": 10018,
    "ĠPatel": 10019,
    "ĠUnilever": 10020,
    "ĠJeremy": 10021,
    "ĠRockefeller": 10022,
    "ĠTurk": 10023,
    "ĠSiri": 10024,
    "Chim": 10025,
    "ĠTitan": 10026,
    "ĠCDC": 10027,
    "ĠGoldman": 10028,
    "ĠGoldilocks": 10029,
    "skey": 10030,
    "Ġcalor": 10031,
    "Ġkilomet": 10032,
    "ĠDrori": 10033,
    "ĠValley": 10034,
    "ĠValdez": 10035,
    "ĠPope": 10036,
    "ĠSandy": 10037,
    "ĠKuznet": 10038,
    "ĠAtlantic": 10039,
    "Carl": 10040,
    "ĠMississippi": 10041,
    "ĠBudap": 10042,
    "cá»©": 10043,
    "cá»§a": 10044,
    "marin": 10045,
    "ĠAlberta": 10046,
    "ĠMatthieu": 10047,
    "ĠBotton": 10048,
    "ĠAustin": 10049,
    "ĠIgbo": 10050,
    "rrrr": 10051,
    "ĠFarm": 10052,
    "scape": 10053,
    "ĠPaulo": 10054,
    "ĠPaula": 10055,
    "ĠEvans": 10056,
    "ĠEvelyn": 10057,
    "atherine": 10058,
    "otterdam": 10059,
    "ĠSheila": 10060,
    "borazo": 10061,
    "ĠKamen": 10062,
    "ĠBritish": 10063,
    "ĠBritannica": 10064,
    "ĠLucy": 10065,
    "ĠResnick": 10066,
    "Ġetc": 10067,
    "Ġethanol": 10068,
    "ĠEleanor": 10069,
    "Andrew": 10070,
    "Ġboom": 10071,
    "ĠNhá»Ŀ": 10072,
    "ĠRidge": 10073,
    "ĠIPCC": 10074,
    "ĠShirky": 10075,
    "ĠVerme": 10076,
    "ĠJanine": 10077,
    "ĠAllende": 10078,
    "ĠBeatles": 10079,
    "Ġterawatt": 10080,
    "ĠMakoko": 10081,
    "Thoáº£": 10082,
    "ĠPorter": 10083,
    "ĠGriff": 10084,
    "ĠBowl": 10085,
    "ĠAzerbaijan": 10086,
    "ĠRebecca": 10087,
    "ĠBryan": 10088,
    "ĠHindu": 10089,
    "ĠGulf": 10090,
    "ĠWisconsin": 10091,
    "ĠEarle": 10092,
    "ĠInstagram": 10093,
    "Ġadren": 10094,
    "Ġtransistor": 10095,
    "ossum": 10096,
    "Christopher": 10097,
    "ĠBrothers": 10098,
    "ĠChimborazo": 10099,
    "ĠRobbins": 10100,
    "Ġcoumarin": 10101,
    "ĠMarduk": 10102,
    "ĠBandura": 10103,
    "ĠPhoenix": 10104,
    "ĠReport": 10105,
    "Ġmicroblog": 10106,
    "ĠDiamond": 10107,
    "Ġneutron": 10108,
    "ĠElectrolux": 10109,
    "ĠSnowden": 10110,
    "ĠKurdistan": 10111,
    "Ġsexy": 10112,
    "ĠBionic": 10113,
    "ĠHoffman": 10114,
    "Aristotle": 10115,
    "tolemy": 10116,
    "ĠTijuana": 10117,
    "ĠSachs": 10118,
    "ĠKaaba": 10119,
    "ĠYosemite": 10120,
    "ĠBotswana": 10121,
    "ĠWikiLeaks": 10122,
    "ICEF": 10123,
    "Ġoliu": 10124,
    "Ġcollagen": 10125,
    "Ġguitar": 10126,
    "ĠKrosoczka": 10127,
    "ĠRhode": 10128,
    "ĠRIAA": 10129,
    "ĠThatcher": 10130,
    "ĠYellowstone": 10131,
    "21": 10132,
    "42": 10133,
    "84": 10134,
    "Alan": 10135,
    "Biáº¿n": 10136,
    "BÄĥng": 10137,
    "Bra": 10138,
    "CD": 10139,
    "CS": 10140,
    "Don": 10141,
    "DNA": 10142,
    "Dean": 10143,
    "EE": 10144,
    "ESC": 10145,
    "Gr": 10146,
    "GÃ£": 10147,
    "HI": 10148,
    "HÆ¡i": 10149,
    "Har": 10150,
    "HÆ°á»Ľng": 10151,
    "Hom": 10152,
    "Háº¡nh": 10153,
    "Hub": 10154,
    "Henry": 10155,
    "II": 10156,
    "IS": 10157,
    "JO": 10158,
    "JS": 10159,
    "Jean": 10160,
    "Jane": 10161,
    "Jake": 10162,
    "Ki": 10163,
    "KÄ©": 10164,
    "Káº»": 10165,
    "LB": 10166,
    "LS": 10167,
    "LuáºŃn": 10168,
    "Luc": 10169,
    "ML": 10170,
    "MÃłn": 10171,
    "Máº£nh": 10172,
    "Mal": 10173,
    "Mic": 10174,
    "Mah": 10175,
    "Mike": 10176,
    "NH": 10177,
    "Nic": 10178,
    "New": 10179,
    "Ong": 10180,
    "PI": 10181,
    "Pesa": 10182,
    "Ra": 10183,
    "RÃło": 10184,
    "RiÃªng": 10185,
    "Rock": 10186,
    "Rives": 10187,
    "SK": 10188,
    "Sus": 10189,
    "Sá»ĳng": 10190,
    "Sec": 10191,
    "Seth": 10192,
    "Script": 10193,
    "TO": 10194,
    "TÆ°á»Ŀng": 10195,
    "Tiá»ĥu": 10196,
    "Tá»Ń": 10197,
    "Táº§ng": 10198,
    "Uhm": 10199,
    "Vui": 10200,
    "XÆ°Æ¡ng": 10201,
    "XÃ¡c": 10202,
    "You": 10203,
    "Yves": 10204,
    "bs": 10205,
    "bot": 10206,
    "biáº¿t": 10207,
    "bia": 10208,
    "bart": 10209,
    "bell": 10210,
    "ball": 10211,
    "bage": 10212,
    "bourne": 10213,
    "ces": 10214,
    "cÃ¡ch": 10215,
    "cli": 10216,
    "cles": 10217,
    "craft": 10218,
    "dney": 10219,
    "down": 10220,
    "ea": 10221,
    "eid": 10222,
    "eing": 10223,
    "gÃ´": 10224,
    "gic": 10225,
    "gli": 10226,
    "gendor": 10227,
    "kina": 10228,
    "kley": 10229,
    "kheim": 10230,
    "lÃ´ng": 10231,
    "lap": 10232,
    "lett": 10233,
    "min": 10234,
    "mal": 10235,
    "mel": 10236,
    "more": 10237,
    "master": 10238,
    "nÄĥm": 10239,
    "ness": 10240,
    "ooth": 10241,
    "pur": 10242,
    "rel": 10243,
    "sa": 10244,
    "sus": 10245,
    "ty": 10246,
    "tá»": 10247,
    "tar": 10248,
    "tá»ĳi": 10249,
    "tain": 10250,
    "vo": 10251,
    "viáº¿t": 10252,
    "vir": 10253,
    "vian": 10254,
    "wan": 10255,
    "wey": 10256,
    "wind": 10257,
    "witz": 10258,
    "xa": 10259,
    "yw": 10260,
    "yama": 10261,
    "zi": 10262,
    "¬m": 10263,
    "´m": 10264,
    "Ã¶": 10265,
    "Ġ(": 10266,
    "Ġ*": 10267,
    "Ġáº¯ng": 10268,
    "Ġoi": 10269,
    "Ġib": 10270,
    "ĠÃ¹n": 10271,
    "Ġout": 10272,
    "á»ī": 10273,
    "á»ľ": 10274,
    "á»¨ng": 10275,
    "Ġtáº§u": 10276,
    "ĠtÆ¡i": 10277,
    "ĠcÃłn": 10278,
    "ĠcÃ²ng": 10279,
    "Ġcuá»ĳc": 10280,
    "Ġcom": 10281,
    "ĠcÃºt": 10282,
    "Ġcáº³ng": 10283,
    "ĠÄĳay": 10284,
    "ĠÄĳÃłnh": 10285,
    "ĠÄĳung": 10286,
    "ĠÄĳÃŃt": 10287,
    "Ġnáº§n": 10288,
    "Ġnua": 10289,
    "ĠnÃ²i": 10290,
    "Ġnáº»o": 10291,
    "ĠnÃŃt": 10292,
    "Ġvo": 10293,
    "Ġvs": 10294,
    "Ġláº·t": 10295,
    "Ġlit": 10296,
    "ĠliÃªm": 10297,
    "ĠlÆ°Æ¡n": 10298,
    "Ġmon": 10299,
    "Ġmáº©n": 10300,
    "Ġmáº«m": 10301,
    "ĠbÃ¨n": 10302,
    "Ġkar": 10303,
    "Ġsin": 10304,
    "ĠsÃ¢m": 10305,
    "Ġsáº£ng": 10306,
    "ĠsÃło": 10307,
    "Ġsáº§m": 10308,
    "Ġsushi": 10309,
    "Ġtrc": 10310,
    "Ġtry": 10311,
    "Ġtriá»ģn": 10312,
    "Ġtruá»µ": 10313,
    "Ġgá»Ļt": 10314,
    "Ġgá»Ł": 10315,
    "Ġgáº¯m": 10316,
    "Ġgá»įt": 10317,
    "ĠgÆ°Æ¡m": 10318,
    "Ġgaga": 10319,
    "Ġhal": 10320,
    "Ġhep": 10321,
    "Ġthá»Ľt": 10322,
    "Ġre": 10323,
    "Ġroi": 10324,
    "Ġrá»įc": 10325,
    "ĠrÃ¡m": 10326,
    "Ãªnh": 10327,
    "ĠpH": 10328,
    "Ġpost": 10329,
    "Ġdot": 10330,
    "Ġder": 10331,
    "Ġden": 10332,
    "Ġdá»Ļng": 10333,
    "Ġdiá»ĩp": 10334,
    "ĠdÃ£i": 10335,
    "Ġdum": 10336,
    "ĠdÃ¬u": 10337,
    "Ġthon": 10338,
    "Ġnhá»¡": 10339,
    "Ġnhá»«ng": 10340,
    "Ġhá»£t": 10341,
    "Æ¡ng": 10342,
    "Ġtháº·ng": 10343,
    "ĠnÃłi": 10344,
    "Ġquai": 10345,
    "ĠxiÃªn": 10346,
    "ĠxÃ³c": 10347,
    "ĠthÃ¢u": 10348,
    "othic": 10349,
    "Ġpháº¥t": 10350,
    "Ġchon": 10351,
    "Ġcholes": 10352,
    "anet": 10353,
    "ance": 10354,
    "Ġsáº¯n": 10355,
    "chel": 10356,
    "Ġbá»Ľ": 10357,
    "Ġbá»ĵng": 10358,
    "ĠTe": 10359,
    "ĠThÃº": 10360,
    "ĠTon": 10361,
    "ĠTáº§m": 10362,
    "ĠTá»Ļi": 10363,
    "ĠTil": 10364,
    "ĠTho": 10365,
    "ĠTus": 10366,
    "ĠTab": 10367,
    "ĠTill": 10368,
    "ĠThom": 10369,
    "Ġlá»¯": 10370,
    "Ġhoc": 10371,
    "Ġhoo": 10372,
    "onte": 10373,
    "aim": 10374,
    "ĠhÃ³i": 10375,
    "ĠnhÃ³i": 10376,
    "ÄĲiá»ĥn": 10377,
    "Ġmá»¥n": 10378,
    "Ġná»©c": 10379,
    "ĠCH": 10380,
    "ĠCung": 10381,
    "ĠCá»Ń": 10382,
    "ĠCookie": 10383,
    "ĠCSF": 10384,
    "Ġháº¥n": 10385,
    "Ġtoi": 10386,
    "ĠMack": 10387,
    "ĠMann": 10388,
    "ĠMania": 10389,
    "ĠMaine": 10390,
    "eme": 10391,
    "him": 10392,
    "Ġtrá»ķ": 10393,
    "ĠNad": 10394,
    "ĠNow": 10395,
    "ĠNok": 10396,
    "ĠBau": 10397,
    "ĠBiá»ĩt": 10398,
    "ĠBus": 10399,
    "ĠBut": 10400,
    "ĠBlog": 10401,
    "ĠBeck": 10402,
    "ĠloÃ©t": 10403,
    "Ġlove": 10404,
    "eral": 10405,
    "eros": 10406,
    "erinc": 10407,
    "ĠHáº£": 10408,
    "ĠHang": 10409,
    "ĠHÃ¡n": 10410,
    "ĠHos": 10411,
    "ĠHell": 10412,
    "ĠHers": 10413,
    "ĠHatz": 10414,
    "amer": 10415,
    "Ġ220": 10416,
    "ĠÄĲoáº¡n": 10417,
    "enburg": 10418,
    "encia": 10419,
    "ĠAy": 10420,
    "ĠAud": 10421,
    "ĠAust": 10422,
    "ĠAgar": 10423,
    "ĠAugust": 10424,
    "ĠSl": 10425,
    "ĠSáº£n": 10426,
    "ĠSes": 10427,
    "ĠSac": 10428,
    "ĠSard": 10429,
    "ĠSlick": 10430,
    "ĠSOL": 10431,
    "ĠStern": 10432,
    "ĠSARS": 10433,
    "Ġbá»Ļn": 10434,
    "Ġkháº½": 10435,
    "Ġphen": 10436,
    "Ġphiáº¿m": 10437,
    "ĠPT": 10438,
    "ĠPen": 10439,
    "ĠPent": 10440,
    "ĠPSA": 10441,
    "ĠPMT": 10442,
    "ĠPtolemy": 10443,
    "ĠKer": 10444,
    "ĠKil": 10445,
    "ĠKey": 10446,
    "ĠKrist": 10447,
    "ĠKool": 10448,
    "ĠKiev": 10449,
    "ĠthÃ¡n": 10450,
    "ĠLáº¯ng": 10451,
    "ĠLess": 10452,
    "ĠLuria": 10453,
    "ĠGa": 10454,
    "ĠGÃ¡i": 10455,
    "ĠGambia": 10456,
    "ĠGamble": 10457,
    "ĠTra": 10458,
    "ĠTriáº¿t": 10459,
    "ĠTráº¡ch": 10460,
    "ĠTrÃ¡nh": 10461,
    "Ġxuá»ĵng": 10462,
    "ĠDÃ¹ng": 10463,
    "ĠDáº¥u": 10464,
    "ĠDÆ°á»Ľi": 10465,
    "ĠDaw": 10466,
    "ĠDall": 10467,
    "ĠDamas": 10468,
    "orio": 10469,
    "orex": 10470,
    "ority": 10471,
    "Tráº§m": 10472,
    "TrÃ¡ch": 10473,
    "als": 10474,
    "esel": 10475,
    "escop": 10476,
    "osia": 10477,
    "oslav": 10478,
    "ĠRan": 10479,
    "ĠRÄĥn": 10480,
    "ĠRÃµ": 10481,
    "ĠRev": 10482,
    "ĠRonald": 10483,
    "ĠRory": 10484,
    "ĠRoll": 10485,
    "elah": 10486,
    "ĠxÃ£y": 10487,
    "etz": 10488,
    "Ngáº¯n": 10489,
    "Ngáº¡c": 10490,
    "ĠIan": 10491,
    "ĠIow": 10492,
    "ĠIda": 10493,
    "ĠVas": 10494,
    "ĠVill": 10495,
    "ĠVul": 10496,
    "ĠVent": 10497,
    "ĠVegas": 10498,
    "Ġ49": 10499,
    "ĠJen": 10500,
    "ĠJet": 10501,
    "ĠJob": 10502,
    "ĠJur": 10503,
    "apa": 10504,
    "ilyn": 10505,
    "ase": 10506,
    "asy": 10507,
    "asthan": 10508,
    "Ġdiesel": 10509,
    "ols": 10510,
    "olis": 10511,
    "ĠWag": 10512,
    "ĠWoff": 10513,
    "ĠWHO": 10514,
    "ĠFB": 10515,
    "ĠFI": 10516,
    "ĠFin": 10517,
    "ĠFow": 10518,
    "ĠFek": 10519,
    "ĠFern": 10520,
    "ĠFlow": 10521,
    "ĠFoot": 10522,
    "ĠFear": 10523,
    "ĠFild": 10524,
    "ĠFeynman": 10525,
    "ĠEis": 10526,
    "ĠEbert": 10527,
    "ĠErik": 10528,
    "Ġcháº¡c": 10529,
    "Ġ1910": 10530,
    "homa": 10531,
    "terol": 10532,
    "ĠNgÃł": 10533,
    "ĠNgá»±a": 10534,
    "Thá»ĳng": 10535,
    "usion": 10536,
    "acorex": 10537,
    "andi": 10538,
    "andon": 10539,
    "andro": 10540,
    "Ġ61": 10541,
    "adda": 10542,
    "ĠOut": 10543,
    "oban": 10544,
    "ĠPhim": 10545,
    "ĠChÆ¡i": 10546,
    "ĠChuyÃªn": 10547,
    "ĠChaz": 10548,
    "ĠChamp": 10549,
    "ĠYug": 10550,
    "ĠHod": 10551,
    "ĠHoáº¡": 10552,
    "ĠHouston": 10553,
    "Ġ91": 10554,
    "Ġtháº£nh": 10555,
    "ĠchÃ¡o": 10556,
    "Ġ20000": 10557,
    "ÄĲá»ģ": 10558,
    "ÄĲá»©ng": 10559,
    "ThuáºŃt": 10560,
    "Thuyáº¿t": 10561,
    "rio": 10562,
    "riet": 10563,
    "roc": 10564,
    "ĠÃ´xy": 10565,
    "ĠÄĲá»ģ": 10566,
    "real": 10567,
    "read": 10568,
    "Ġwi": 10569,
    "Ġwingsuit": 10570,
    "ChÃłng": 10571,
    "neth": 10572,
    "ĠInuit": 10573,
    "ider": 10574,
    "Chá»«ng": 10575,
    "igal": 10576,
    "igman": 10577,
    "iguel": 10578,
    "oplin": 10579,
    "ĠUh": 10580,
    "ĠUNA": 10581,
    "ĠUSA": 10582,
    "ĠUSB": 10583,
    "ĠXá»Ń": 10584,
[...]
