<s>
<pad>
</s>
<unk>
<mask>
!
#
$
%
&
(
)
*
+
,
-
.
/
0
1
2
3
4
5
6
7
8
9
:
;
=
?
@
A
B
C
D
E
F
G
H
I
J
K
L
M
N
O
P
Q
R
S
T
U
V
W
X
Y
Z
\
_
`
a
b
c
d
e
f
g
h
i
j
k
l
m
n
o
p
q
r
s
t
u
v
w
x
y
z
{
}
~
£
©
®
²
¼
½
¾
À
Á
Â
Ã
É
Ê
Ì
Í
Ó
Ô
Ù
Ú
Ý
à
á
â
ã
ä
ç
è
é
ê
ë
ì
í
ï
ñ
ò
ó
ô
õ
ö
ø
ù
ú
ü
ý
ā
Ă
ă
ć
Č
Đ
đ
Ĩ
ĩ
Ť
ũ
Ơ
ơ
Ư
ư
́
̣
̀
́
ย
ร
อ
่
Ạ
ạ
Ả
ả
Ấ
ấ
Ầ
ầ
Ẩ
ẩ
ẫ
Ậ
ậ
Ắ
ắ
ằ
ẳ
ẵ
ặ
ẹ
Ẻ
ẻ
ẽ
Ế
ế
ề
Ể
ể
ễ
Ệ
ệ
Ỉ
ỉ
Ị
ị
Ọ
ọ
ỏ
Ố
ố
Ồ
ồ
Ổ
ổ
Ỗ
ỗ
Ộ
ộ
Ớ
ớ
Ờ
ờ
Ở
ở
ỡ
ợ
Ụ
ụ
Ủ
ủ
Ứ
ứ
Ừ
ừ
Ử
ử
Ữ
ữ
Ự
ự
ỳ
Ỵ
ỵ
ỷ
ỹ
–
—
…
€
ｃ
##ắ
##m
##u
##P
##o
##n
##t
##r
##d
##i
##s
##e
##k
##l
##y
##ý
##w
##4
##5
##0
##ệ
##a
##c
##h
##ó
##A
##C
##2
##ẹ
##ô
##g
##ư
##ơ
##ứ
##v
##x
##f
##1
##B
##G
##T
##Q
##p
##à
##ế
##9
##â
##E
##D
##S
##V
##O
##ề
##b
##X
##8
##z
##7
##ả
##ồ
##M
##I
##ẩ
##ọ
##ở
##ì
##ầ
##ă
##í
##ớ
##ộ
##é
##ũ
##ấ
##ù
##3
##R
##á
##ậ
##è
##ố
##H
##ỗ
##ò
##L
##ạ
##ợ
##6
##ặ
##ự
##ê
##q
##ẽ
##ờ
##ụ
##j
##ử
##F
##ú
##ẻ
##ị
##ằ
##ể
##ổ
##N
##ĩ
##U
##ỏ
##ễ
##ẫ
##ữ
##Y
##W
##Ệ
##ẵ
##ü
##ỡ
##ủ
##ỹ
##ỉ
##ỷ
##J
##ẳ
##đ
##Ấ
##ã
##Ể
##õ
##Ê
##Z
##Ẻ
##Á
##ừ
##K
##Ạ
##Ô
##Ă
##Ữ
##ö
##ỵ
##Ì
##Ư
##Ơ
##Ử
##À
##ỳ
##Ù
##Ộ
##ø
##Ã
##ë
##ä
##Ầ
##Ỉ
##ć
##Â
##Ó
##Ụ
##Ậ
##Ứ
##ñ
##Ố
##ç
##Ĩ
##Đ
##Ớ
##Ổ
##Ỵ
##ย
##ï
##Ú
##Ờ
##ｃ
##Ở
##Ắ
##É
##ร
##Ọ
##Ị
##Ť
##Ế
##Ự
##ng
th
ch
nh
##nh
tr
kh
ng
là
##ôi
và
##ác
##ột
ph
tôi
qu
##ông
một
có
##úng
gi
##ên
##iệ
##ững
##ời
##ới
những
chúng
củ
của
##iế
##ất
##ạn
ta
các
nà
##iề
không
##ượ
nó
##ong
##ười
đó
##iều
người
bạn
##ại
ngh
trong
thể
##ược
##uy
này
đã
được
như
##ây
họ
##ình
##ot
với
quot
cho
Và
##ay
ra
sự
##an
##ần
mà
##ải
làm
##ang
##iên
##ằng
để
##ực
về
sẽ
##ấy
cả
##ái
##iể
##ân
##uố
##ật
##iết
điều
thế
##ầu
ho
##on
##ến
##ch
Ch
từ
khi
##ành
##ống
##ướ
##ơn
Tôi
##inh
nói
##ao
##ết
##iện
##ức
nă
đến
##ính
phải
##iệc
##ườ
rằng
Nh
vào
gì
đang
##àn
##ường
việc
##au
##ước
lại
##ản
##ận
thấy
nghĩ
độ
rất
cách
hơn
##âu
nhiều
##ùng
##in
##ài
##ươ
khác
thực
##ai
##iến
đầu
##ậy
##ương
đây
học
con
##ối
##ạo
##ổi
##ọi
chỉ
##ếu
công
trên
cái
vì
nào
##anh
biết
Chúng
chuy
đề
##át
##àng
##iệu
năm
##ũng
đi
##uốn
thứ
##ơi
dụ
thành
##ung
##ộc
##ắt
số
##áng
cũng
nhà
Như
##uộc
bị
to
kho
quan
##ập
muốn
##ồi
##úc
##ởi
Th
##eo
mình
##ữa
nhưng
nhất
##ích
Nhưng
tạo
##ưở
##ưởng
động
giới
chính
##ặt
lo
nên
vậy
##ày
##ền
##òn
lớ
##ấn
##êu
##ắc
hình
##ện
##iểu
##ỏi
giờ
hiện
##ưa
sống
tiế
tại
nếu
nhận
mọi
##ượng
xe
##er
##ìn
quy
cuộc
thu
cần
hay
tố
tự
##ặc
thì
Tr
##ội
đị
##ôn
tất
##ọng
ông
##am
##òng
ấy
bởi
tới
đồ
##án
theo
bắt
##ẫn
cứ
còn
Kh
nhìn
##iểm
lớn
##en
cùng
bằng
cảm
##áo
##iển
tế
sau
dụng
thật
lên
anh
câu
bản
tin
##ảng
thời
sao
qua
chuyện
trở
##iệm
ngày
nhân
cơ
bộ
sinh
##ăn
##ỗi
##ục
##ia
##ìm
năng
##ạt
sử
trước
phát
nước
đổi
Nó
##iệt
##ánh
toàn
phần
nơi
##áy
##00
gia
do
thông
dự
tìm
nhau
thay
mới
lu
##ar
vấn
định
hệ
trường
nhiên
tính
di
Đây
##ách
trình
mạ
tốt
##âm
tưởng
kết
##ăng
##ấu
vật
##ãy
##ảo
##ấp
##ảy
hàng
lý
tu
hỏi
##ứng
Bạn
##ợp
máy
ảnh
##ạc
##út
hợp
Đó
mặt
##ắn
tiếp
hành
nữa
kinh
##im
gian
thức
hội
vị
tuy
thiết
chiế
rồi
xem
liệu
cô
trọng
thích
hoá
phá
##ào
##ễn
##ệnh
đồng
giải
##iêu
##ồn
hai
trẻ
lượng
##ắng
đo
ai
thường
bất
vài
đều
Ng
Một
tiên
đối
sáng
##ộng
##ển
hiểu
quá
tâm
nay
loại
giống
lần
Vì
cứu
bao
bệnh
thống
##ịch
##ốc
viên
##ảm
##ệt
##êm
nghệ
##iền
điểm
nghĩa
ngo
gọi
Có
nhỏ
Vậy
Họ
đưa
tương
xu
hoàn
##ám
nghiệm
quả
tác
đường
vi
vẫn
xảy
##ăm
chiếc
nguy
thuật
dùng
biệt
##ẳng
đại
##or
hoặc
bên
từng
dân
triển
##uyền
chuyển
lúc
##iệp
##ọn
##ão
diễn
Điều
##al
trị
Những
quyết
##ừng
cố
cao
nghe
##úp
ăn
Ph
dạ
tuyệt
##uốc
mỗi
tổ
cầu
khoảng
##uối
Nếu
lực
kế
khu
chất
phụ
lời
giáo
##ợi
giúp
đất
em
giá
##óng
ơn
##ắp
##ầm
##es
trung
##ứa
chủ
bảo
nữ
tiến
hết
##os
phòng
##ưới
tình
chưa
nghiên
xuất
##ướng
##ẩm
phí
mang
liên
##ép
phân
Anh
##el
tranh
bài
khó
đơn
não
truyền
tập
tuổi
đúng
điện
phương
bình
##ậu
đặt
tượng
tay
biến
Khi
tiền
giữa
yêu
sản
##ét
tiếng
hãy
##ạnh
ngay
tho
khả
##ặp
trả
bé
khoa
Không
cá
thú
lấy
bỏ
##ửa
gần
xã
hoạt
chu
##et
chiến
thị
đáng
sách
Trong
chí
phẩm
thân
pháp
hiệu
cuối
đời
chơi
Các
mất
minh
sức
Gi
##ọc
kể
##ẩn
so
##ẫu
Mỹ
mạnh
gh
##is
nghiệp
ngoài
##uồn
dẫn
##at
khí
ít
##óm
##ic
##óc
đấy
lập
tài
mô
loài
##ừa
kỳ
bức
tinh
##ậm
luôn
dựng
xây
##ấm
trí
tiêu
phố
tên
##uống
cộng
vô
văn
##uyết
âm
chứng
cụ
tử
##ầy
hướng
nhạc
##il
thử
Hãy
viết
bố
đâu
chức
ba
nguyên
kiến
quốc
giả
ứng
##ạm
vời
chọn
giản
quyền
đặc
chế
tư
chết
suy
bào
mạng
##iếm
##ạch
cấp
bà
##ôm
triệu
vụ
##ạp
tăng
thần
nền
##ẹp
đạo
lẽ
đứa
sĩ
khỏi
màu
##ua
đánh
##it
##as
mẹ
gặp
tháng
##ắm
dưới
Thế
chút
xuống
##ol
##ồng
gắng
##âng
phép
khá
chia
nhóm
quanh
dịch
mở
10
khiến
vực
xác
dữ
Bây
án
##ãi
bay
duy
thêm
tham
trò
mức
thuyết
nhanh
quay
Ho
dạng
gây
cực
rõ
đàn
vọng
bu
nguồn
vùng
cảnh
bây
dù
đẹp
báo
ví
tục
##iê
giác
xa
chắc
sát
càng
dễ
20
đủ
cây
19
##le
trang
nhớ
phía
phim
##iêng
chú
biểu
hưởng
##áu
hôm
đoạn
chị
chẳng
vũ
kì
kiểm
trái
thương
Quốc
##ter
Ông
dài
vòng
luận
ngữ
phản
đôi
Trung
##ạy
đầy
dục
lợi
kia
##ựa
giảm
thậm
##ằm
thuốc
kiếm
ty
vu
##em
ap
vừa
chân
tích
thư
trăm
thôi
apos
##ưỡ
hộ
##om
đình
##iếu
hạn
bước
giao
##àu
lệ
lai
Người
đô
chi
sâu
##us
##ra
Tại
môi
tỉ
toán
trải
trời
##iềm
tồn
##ụp
diện
sư
rộng
phục
giữ
Bởi
thanh
dành
nối
địa
đoán
lòng
##ED
thuộc
##uốt
riêng
tạp
sợ
mắt
đứng
mục
nổi
phủ
dạy
lã
vệ
thí
sai
vẻ
nghi
đạt
căn
thúc
kỹ
luật
sẻ
tối
##ac
mẫu
xung
200
lịch
##ob
ánh
bàn
đọc
##ặng
la
lớp
##ad
Cảm
kỷ
##ạng
trụ
##and
yếu
TED
khắp
vui
trông
khoẻ
tiết
chương
ngồi
chạy
gái
##ur
phút
cậu
trợ
cuốn
##àm
mối
000
đá
sắc
buổi
##ượt
chắn
hầu
suốt
kiện
##id
biển
##ew
trúc
mù
chung
ké
ngôn
mua
doanh
kiểu
Phi
Tất
Vâng
cửa
##èo
vận
an
##eb
cánh
khám
sở
ngạc
xúc
xét
lâu
ràng
tuần
thoại
bán
##ưu
##oo
Sau
hiểm
hồi
cấu
##ủng
nhiệm
##ưỡng
phức
thiên
kích
cung
##ĩnh
nằm
chụp
nhập
chuyên
##oi
##ốt
##ing
bóng
ngôi
kẻ
thái
cạnh
##uyện
##ữu
độc
băng
viện
hạnh
hữu
chứ
##ếp
hoà
chỗ
ngành
##ảnh
trưởng
##uyên
vẽ
khủng
thập
đa
ích
##ẵn
##ỏng
tra
Xin
chuẩn
bác
quý
##ẩy
phúc
ghi
Cô
thiếu
chịu
Thật
100
##ốn
##ửi
hề
lắng
xanh
hoạ
tấm
hu
sẵn
tệ
niệm
Nên
Qu
##ộn
tức
nhiêu
phạm
Sự
khăn
xin
tái
##ro
đau
trai
sắp
hơi
áp
Cái
##úi
lạ
Giờ
dung
##ón
Thực
mặc
chống
##uôi
lạc
thất
cải
dựa
mã
mong
châu
đóng
xử
##un
lựa
trực
ban
St
đội
bánh
hậu
30
cổ
tổng
khổ
nội
New
tí
khắc
da
nhi
Do
mật
vượt
nhu
##úa
tỷ
xấu
tầm
chăm
dần
ẩn
gửi
##re
toà
Làm
hứng
thiện
hạt
##ưng
tim
Để
##ig
hy
ướ
In
Ấn
danh
lưu
chiều
nhiệt
trạng
lãnh
đột
dầu
niềm
15
in
50
tội
nghèo
ngoại
nhiễ
nạn
cận
sang
##ah
##ồm
kính
cha
chữa
xo
##net
ung
Con
đấu
Châu
dấu
Độ
đẩy
nỗi
may
kéo
hát
thách
thủ
ngủ
đen
khách
tắc
ngược
giấy
lí
nuôi
phi
##th
ước
bại
Tây
##ỉnh
##iếp
chữ
quản
soát
lỗi
nửa
cử
lĩnh
tiện
Al
mắc
##ist
mơ
hoạch
##ran
dương
gồm
nhiễm
tốc
khiển
##ẩu
sóc
tả
cắt
gó
##op
##õi
##ternet
ca
Mọi
hại
Tuy
giết
thẳng
khối
quen
bày
dây
tàu
##ie
quân
đông
##iễn
lưới
đích
chiếu
đức
nhờ
gen
##áp
##ill
thấp
dòng
mê
##ard
Chỉ
bầu
cư
cười
lái
thi
ngờ
niên
đêm
Ngh
su
đổ
dàng
##ag
phóng
khai
hỗ
sàng
chấp
rối
xếp
##ặn
ngắn
bốn
gốc
tận
phong
gấp
nông
đem
đỡ
Với
bạo
giây
bí
lắm
12
kỉ
sân
##lo
trách
gắn
cáo
vai
93
cân
hồ
trừ
Rồi
##ed
đợi
##ton
##èn
ngàn
tôn
phẫu
91
##ầng
hài
thụ
##ine
xuyên
##ey
##ab
thơ
nhảy
chuyến
dừng
siêu
hoa
kĩ
nghị
màn
ký
lao
web
tầng
##ip
##ak
giai
đảm
chim
Mar
tải
ảo
##oc
hấp
##deo
video
phổ
Jo
##ork
##av
khởi
##ul
nhắc
ngăn
tù
chỉnh
Nam
rừng
##ót
góc
##ẳn
thải
khái
Internet
hút
Ai
hộp
nghiêm
Âu
Được
luyện
món
kê
nam
ổn
khuôn
York
##ian
giàu
tín
cập
lá
##son
chuột
Còn
##obot
Ví
##ow
già
môn
##ềm
coi
liệt
ngân
đỏ
18
đám
tấn
phận
tuyến
thắng
trao
tai
Hoa
40
Chúa
đảo
Cho
huỷ
nặng
Ta
hẳn
chứa
Trái
dậy
mềm
##òi
quang
Câu
vân
##ik
##han
nóng
mấy
ti
Bắc
##ọt
phù
Công
cháu
mạch
chóng
mẽ
ống
##ịp
##iếng
quyển
mùa
buộc
điển
Hiện
dưỡng
máu
sóng
thiệu
trùng
hạ
hãi
linh
##ein
##ấc
khán
cũ
rời
sơ
thảo
chủng
dõi
uống
điên
##ich
##ou
Kỳ
Từ
robot
tồi
tảng
chờ
25
lộ
Nhà
loạn
lầm
buồn
vững
đáp
mắn
Liệu
sửa
góp
du
##ev
thưởng
lồ
lan
Rất
tường
tránh
khổng
Vào
miễn
khoản
đói
Thứ
Mỗi
lạnh
đèn
chàng
##um
Sh
mái
ủng
tổn
bảng
cơn
trắng
lẫn
tộc
mảnh
rút
đỉnh
##ord
diệu
núi
tờ
Đúng
Đông
##st
##ớm
Ngày
Hai
tiểu
##ir
phỏng
đào
##ph
bề
trì
An
giọng
tốn
Bà
ấn
##uổi
áo
trận
hảo
trồng
quên
giỏi
##ùa
rơi
quảng
Hồi
cỡ
mãi
chạm
##ap
cầm
kim
##ib
Br
khuẩn
bang
bật
chó
bền
vốn
Chính
đương
phấn
nghìn
sánh
Ar
hôn
kí
tiềm
##istan
lương
##io
chấm
nghỉ
khoá
Năm
Đại
vàng
chiếm
mời
hoảng
nắm
khích
cam
hiển
vợ
##if
11
Em
bữa
ngừng
phối
hào
lửa
vỡ
điệu
làng
##ell
vĩ
xương
đừng
thịt
hổ
tách
##ub
ghế
quần
##ặm
dường
nổ
ong
chuỗi
biên
kịch
chảy
khẩu
sót
##oog
đằng
Trên
sớm
gió
loạt
thoát
80
mu
chậm
chồng
khứ
khuy
dĩ
sạch
##hn
##ẹn
##ãn
Trước
tàn
tắt
giấc
##oogle
Vấn
hi
bè
lặp
##ứt
nghề
gợi
suất
mũ
##ựng
##az
quỹ
phê
##ut
Cách
##man
lỗ
lối
trưng
##ick
##ry
ngại
sông
tán
túi
##ud
##ói
nhé
##ly
trại
Google
To
##ex
trữ
Cám
nguyện
Hay
dặm
kiệm
thước
##ent
##ack
viễn
đăng
Nói
cờ
60
né
Đầu
cu
sỹ
Việc
bụ
cà
đuổi
kháng
bơi
nâng
Kho
vỏ
##ìa
nhắn
kém
ghép
thăm
##ưỡi
phiên
sốt
cú
rẻ
thở
##mp
thảm
##ươi
khoảnh
lặng
tàng
##ĩa
##ãng
nhật
nỗ
tụ
vết
Đất
thoả
bọn
tô
sáu
nhẹ
hoang
xoay
Là
lọc
Nhật
can
hùng
tròn
##ans
John
Car
bờ
trống
Thu
##est
199
điệp
##one
Bản
ưu
đẳng
mùi
Lúc
lục
voi
đế
ngẫu
##ook
Le
đam
doạ
HI
bò
##iv
lành
Theo
Bộ
lính
đựng
thừa
##ert
##era
thuận
ma
thác
rác
thuỷ
Ngay
16
Ba
cấy
đoàn
Lo
tan
HIV
Cuối
pr
trích
thang
chặt
nhuận
huy
Đức
đe
đạp
giảng
họp
Af
Nào
lược
miếng
nhựa
lãng
Cậu
cãi
##ườn
##ore
##all
500
lắp
tật
Đừng
khấu
90
Cuộc
Is
##bon
thai
chặn
Mà
giám
##art
Lu
chào
ngoái
lễ
mừng
##aw
Hoặc
14
yên
đòi
##éo
ngang
##ess
diệt
huống
thận
70
Cũng
mại
mây
thao
cản
hương
Chẳng
Afg
AD
Dav
dị
sổ
ko
đống
chép
tri
bi
cát
sợi
vong
đùa
##ion
thấu
Thay
##orn
201
Am
vú
##rus
##ge
thù
tràn
cặp
cứng
Ken
cám
tỏ
ám
##ash
13
bom
mập
##od
nhằm
tuyên
mực
Đối
##les
phiếu
Nhiều
súng
##ớn
nhịp
khía
ADN
Dù
bối
bắn
hiếm
sụp
##ớt
chán
trào
tiêm
Cal
Fran
hà
kêu
tá
##èm
ngu
Mẹ
mét
móc
##ec
ngọn
Chr
Afghan
lừa
##ậc
khung
Pháp
prot
Bằng
dối
liền
óc
triết
hoàng
gỗ
hè
béo
Về
côn
cục
gam
đua
##ượu
##att
17
mưa
##ớp
thờ
căng
##ce
thầy
Phải
Liên
bổ
khảo
##ide
300
bậc
hối
đập
##ff
Thái
mạc
thoải
lũ
nấm
ngưỡng
Phần
mỏ
##tr
##la
##yl
chốt
Col
ác
##iz
##eet
chối
##ail
rượu
táo
thuyền
huấn
##ủi
##ee
nhũng
trầm
ghét
hỗn
Iran
Sẽ
vâng
mì
##NA
##ers
Har
bảy
ức
biện
khuyến
song
che
Thuỵ
21
nút
đắt
cháy
truy
tỉnh
Hôm
amp
cỏ
ru
##50
ngón
hắn
hồn
##ov
phán
Afghanistan
xứng
thọ
##ock
mạo
##ond
David
Lan
túc
##ya
thiểu
Nhìn
Bra
gọn
săn
thả
##log
mũi
protein
Can
trứng
khát
giận
cụt
xoá
bông
cỗ
dinh
mai
##land
##ợt
thạch
Hầu
Mặt
khiếp
dày
rủi
tia
thiệp
thuê
Par
Sao
nấu
rắc
xong
đắn
##eria
198
Ok
binh
cột
hước
lộn
mộ
mò
Đã
đốc
thánh
TV
bột
bãi
kẹ
mát
nơ
##ùi
giành
tóc
đốt
truyện
ngũ
Char
răng
xưa
đài
##ỗng
chẩn
phó
Geo
dọc
ox
##iệng
##ina
thuần
bạc
huyết
rưỡi
##ico
miền
##ck
chừng
##rael
Lý
Sc
gương
tặng
đĩa
##sh
##ýt
##ara
cốt
Israel
bó
hiến
ro
xâm
ấm
nhấn
ném
24
Ad
Ban
vườn
Đôi
nhỉ
ngài
##ama
##enn
xạ
trộn
khóc
Hy
Tổ
lẻ
##lin
than
quê
Rob
cẩn
tuỳ
##aceb
dính
##iếc
##acebook
Cơ
Cam
San
miệng
rào
đớn
##ti
##ta
bắc
tạm
thẩm
tuệ
hẹn
miêu
##eg
chai
đón
cốc
gà
lỏng
mẩu
sa
ngầm
phổi
Giáo
Facebook
blog
tò
đáy
##ID
nhạy
##ada
Dan
Mich
hiệp
đậu
##ug
vuông
Bill
bạch
hạng
lão
ơi
Chắc
thoảng
##ite
game
Cả
Mĩ
cường
ly
tây
##co
trôi
Thời
Giống
##ith
##ley
##iforn
Cực
kiên
rô
quái
Chuyện
Californ
dàn
rồ
thợ
hoại
California
DNA
hằng
nét
pin
đố
##ach
trắc
quán
Thậm
hứa
leo
nướng
tóm
chấn
trạm
lây
đảng
##ek
ngã
quét
giường
giày
bốt
Tw
ngựa
Kinh
xí
đeo
chăng
nho
khô
400
Mo
Mc
OK
Tal
kèm
lưng
ron
##ẻo
tuyết
197
Cùng
Lần
mẻ
vắc
##te
##ẫm
mãn
##und
El
Ira
Kết
tĩnh
Đến
##og
tiếc
đếm
mèo
Nhân
##ass
##exico
bụng
Chris
dán
ninh
trăng
The
Khán
##igh
Pau
cong
dò
hô
hỏng
tám
##ụt
##ẫy
##anda
gói
Bất
dã
lăn
##ber
##ate
Mexico
iP
khuyên
quà
gỡ
hư
li
tiệc
vinh
ép
trần
giấu
email
Canada
lôi
mờ
##ep
thói
##ath
2000
Nghệ
##IDS
cự
dứt
lề
lệnh
##go
cụm
Hoá
and
##stein
Hội
gã
heo
lâm
tị
##zil
##ùm
chìm
trốn
ngon
phiền
kênh
bão
dư
lặn
tung
##bur
Nga
lãm
##ington
Brazil
Cứ
gõ
va
đực
##ler
khao
ngọt
giơ
buôn
And
Geor
AIDS
Mặc
Rập
thuế
virus
Dĩ
cất
dao
mệnh
Úc
Điển
##ford
thăng
quí
gián
Vài
khoan
Bar
Pal
car
hố
sàn
##ham
##ợn
trưa
##ướt
##ind
Trường
cúm
Ber
Lond
Mon
Sp
Tim
hang
hàm
##tin
##ri
##ram
thổi
##ins
bận
bếp
dáng
lang
sữa
tân
xinh
##ne
Kenya
London
Ap
bùng
lõi
tươi
##ma
##ric
3D
Ben
Ed
Gần
Jam
dược
im
làn
##ượn
Học
bụi
Tiếp
cấm
nảy
rét
san
##hi
khỉ
ngắm
quát
CO
hải
tắm
##ộm
thẻ
phì
tuý
sưu
camera
oxy
Ros
liều
lường
tủ
196
Iraq
cưới
lướt
ưa
##qu
thịnh
##itter
muỗi
Khoảng
Bao
Bức
Bài
lông
rãi
say
sơn
tháp
khôn
Thiên
chúa
150
nở
thùng
nhẫn
trượt
Trời
Paul
Be
Bl
Cộng
nan
##ky
thính
thám
thỉnh
nhắm
trục
ngập
ngốc
thua
kín
May
Pr
feet
nốt
tướng
##ơm
##DP
châm
pha
phú
giam
nàng
GDP
dám
sl
xóm
quãng
CO2
Bố
Viện
cừ
dắt
khớp
phạt
Twitter
Gre
Hơn
cậy
nắng
sung
thiệt
phái
cuộn
Ang
tông
##SA
tháo
rau
toả
Ab
Oh
Wash
bong
gấu
ham
hầm
mạn
##iel
nhãn
trà
Bos
Tin
cưỡng
dãy
nọ
vở
Ôi
đuôi
##by
khơi
##ony
Thông
tuyển
##ood
Bình
Bang
Ev
Ein
Hệ
Tương
You
chước
Thành
Ngo
##olf
Ma
Này
Nig
bê
bớt
lò
lát
đâm
thô
chìa
nhở
Chủ
điêu
thuẫn
Einstein
Dương
Sm
Tự
##ren
thưa
chở
ranh
Thử
hệt
muộn
Tiếng
lùi
mệt
##he
chục
##000
Số
hòn
lạm
mỹ
##oy
##ael
hoả
Chiến
Ngài
##burg
slide
Cr
Hà
Mục
bút
cac
nợ
vua
đồi
ồn
##ier
thôn
ngực
phẳng
##ann
Nha
Hoả
Stev
Cập
Pet
bọ
cởi
gánh
múa
sứ
đới
##ươn
##ít
trấn
khúc
##ana
##ort
Franc
carbon
Washington
Bảo
Jon
MI
kịp
mấu
sốc
Quan
George
mỏi
or
rễ
rung
vải
##een
##ộp
TEDx
##ike
Khoa
Rich
en
hãng
##site
khôi
nghiện
Chiếc
Thom
##end
##ald
##ett
duyệt
##lex
##ander
Charles
45
Dự
Hàng
Wik
cl
cối
hưu
ráp
##per
thâm
nghịch
ngoan
internet
website
Nigeria
Hình
Jul
Tốt
hồng
lưỡng
##yn
##za
nhặt
khẳng
khiếm
Thổ
Loại
35
Dar
La
de
lật
mâu
vây
##ka
tha
nhiếp
địch
##osh
Toàn
cuồng
Bệnh
Bro
Pak
gan
hẹp
sắt
Thượng
phím
khói
2008
1000
Nghe
cacbon
MIT
Di
Hiệp
Ne
Na
Rõ
rập
rắn
vươn
##ox
Quá
##ube
Adam
Michael
Los
Sch
Tình
mảng
đáo
đàm
##én
khuyết
##ướp
Francis
23
Tên
com
gối
long
non
rửa
sh
str
đẻ
##PS
##ez
khoái
đoan
##ela
cừu
Pakistan
He
cạn
tần
##pe
##ằn
chín
##ast
##edia
##ight
Thomas
stress
75
Bắt
cướp
dải
dạo
dâm
dẻo
manh
mồi
sạn
##ward
màng
Cha
##ica
##olly
Bên
Fre
Máy
Su
hack
lận
nô
vẹn
đạn
##ok
##ling
##òm
trân
treo
Thiết
Ngân
lệch
Cl
Dân
Der
PM
Tiến
Wh
bơm
cắm
lợn
đạc
##lan
##inc
Richard
At
co
cắp
lờ
vĩnh
##eph
##br
##ụng
đền
quyên
Mark
Haiti
Frank
GPS
Hàn
Je
Ob
Wal
bắp
bọc
kiệt
uy
##uck
nhàng
khiêu
tuân
##ice
buýt
gene
khuynh
2010
kẹo
kẹt
Robert
Kể
NA
Nơi
Tom
Will
bia
dọn
ga
huyền
lấp
mòn
xám
Âm
chúc
nhầm
99
Nat
mic
nề
đỗ
đai
thắc
giãn
tựa
##ark
Phụ
##ester
##ile
Fl
hã
lũng
mồ
mười
men
vé
vay
##ound
##bia
##ễu
trú
Chà
Phil
Angel
22
Mình
Sam
cương
dở
lơ
mọc
mỏng
vỗ
##ix
##win
##ain
thổ
thằng
thép
chăn
##are
cựu
Lạp
Nước
dốc
nát
nêu
vượng
Đa
Đị
đợt
##30
##RI
khéo
ngừa
##ami
Tuyệt
Tổng
James
Hải
Man
bá
dũng
hôi
lượt
sôi
##ft
##acc
Nghiên
Harv
Mal
bù
mỉ
rẽ
st
xôi
Điểm
Đồng
chợ
thoái
##ity
##old
194
iPh
Gu
Ox
bỗng
hung
hạch
nản
van
##ney
##ros
##ũi
##ờng
phác
qui
mày
hoài
2007
nén
Scot
Gia
Re
Sinh
bách
dội
vang
xăng
##ner
##pt
##ple
thầm
chả
trật
pho
rad
##ates
Quý
##ago
Talk
Bác
bấy
gác
tiễn
võ
đẽ
##ẳm
nghiệt
Phương
chua
trừu
Carol
xíu
iPhone
Alex
Bal
Gab
Or
Se
am
bìa
hụt
lắc
muối
nụ
đà
##oh
cổng
Ind
Obama
of
xích
##cr
thẳm
Thánh
##idge
##ipedia
ruồi
##berg
Smith
Steve
Nob
Qua
Vị
al
hóc
lúa
mộng
súc
ốc
##cel
##vi
trộm
giặt
##ern
Trẻ
Trans
##imer
soạn
vụn
##ush
NASA
600
Rom
Sah
bướ
gũi
mươi
oh
rũ
ván
xưởng
xướng
Đi
ốm
the
chợt
Chào
##iss
##ish
##atch
tím
Wikipedia
Big
Lấy
Tưởng
hét
mượn
ếch
##uc
##toc
##eh
##bert
##ủa
chẽ
tráng
ngẫm
độn
khoáng
Hoà
##thal
##low
Martin
Harvard
36
bẩn
cược
cống
dỗ
lân
tê
đệ
##ny
##yr
##gic
trán
quặc
nhường
Chị
nhào
quyến
##eth
Nghĩa
Paris
Darwin
Derek
bám
bấm
hò
lánh
mến
nồng
Điện
##me
##20
nhạt
gìn
##ary
Giá
Giọng
##icon
2009
lều
Francisco
hacker
Angeles
Nobel
Mad
Tor
hiếp
rỗng
sô
sáo
sét
sắm
xỉ
ôm
##ld
##ênh
##ota
##oth
##ones
##oran
mãnh
##oca
##udio
##attan
ruột
##tocin
Cần
Cop
Web
cài
lùng
mổ
Đấy
##PA
##iam
##eah
thấm
chôn
nhện
phun
##ink
logic
luỹ
Nguyên
vir
inch
##azon
Loài
Green
radio
27
Jer
lồng
vạch
##dro
thung
giọt
Cháu
xuân
2005
Quỹ
##igg
Sahara
Bur
Lib
Manh
Wor
cọ
lỡ
rã
vờ
xăm
##our
##tor
thượng
chọc
triệt
##ant
Nhĩ
##rop
##oph
##ipt
huynh
Amazon
Christ
Ngoài
Peter
hãm
Sĩ
Tư
bóc
lăng
léo
móng
run
vòi
##ef
##ll
##ger
chằm
Giải
##raham
Stan
##age
tivi
##azz
##heimer
##cript
Manhattan
Eric
Rw
Sức
đc
ẩm
##wood
##zheimer
quạ
tựu
vịnh
##ilicon
Alzheimer
250
oxytocin
26
Ah
Cá
En
Haw
Jack
Tác
Ven
mỳ
vứt
ái
Đo
Đảng
##ss
##line
##ơng
chớp
##ania
Chic
khiêm
##air
##ens
tuỷ
##imb
chuông
kìa
##ptop
Chicago
95
Ac
Bước
Gr
II
Sub
bốc
km
lưỡi
nếp
xà
Đường
##mm
##mer
##SD
##ín
ngẩn
đóm
Thường
Thưa
luồng
##ala
##oster
##uss
laptop
nhiễu
Joe
1990
Charl
Boston
võng
Rwanda
MT
Văn
bồi
cent
dịp
gạch
kiêng
##der
##ca
thắt
ngưng
hoành
Chưa
lui
đoạt
##ida
Luật
Coca
Gal
Higg
Lat
Sim
Tu
Uy
Van
Xem
bể
gậy
sọ
vacc
Đơn
đúc
đuối
ấu
##tit
nhóc
ngớ
khoăn
Thì
Thêm
tuỵ
Giai
đôla
hydro
Mont
nano
Del
Hans
Jim
MRI
Per
golf
hận
hít
mỡ
rỉ
xé
Đứa
đậm
##uk
##to
hoãn
Trở
##amin
Phát
Apple
William
Gabby
65
CE
Gates
Hành
Hen
Hợp
Jan
Mor
Mic
Vật
canh
on
tiệm
vả
Động
##rew
##ât
##ẽn
nhủ
ngột
nàn
ghê
##ure
Quay
hổng
Transcript
Subtit
Subtitles
32
Bab
Ham
Sw
Việt
War
băn
bầy
gãy
gom
lam
len
vội
điền
##ue
##ire
##ja
##ửng
nhánh
quỷ
giật
nghẽn
##uyến
Chú
chuyền
Khá
Phòng
##emen
##igami
##iano
Park
Times
Brow
28
Bon
Koran
Màu
Mah
Nor
Ze
bon
bẩm
lô
vất
ương
phô
gien
hoan
Nhờ
giáp
##esh
Giả
195
##ust
2004
2006
Okay
Palest
micro
Co
Hắn
Me
Pat
Sử
Tes
Tas
Wat
bồ
bẻ
dại
dệt
mầm
súp
xi
##ies
##ster
##ver
thiêng
chày
trúng
##ini
##ation
đốm
Flor
Go
King
Mac
Nan
Rio
Sáu
Tony
hông
lột
rạp
sướng
tùng
vặt
vòm
xứ
xách
Đặc
đụng
##up
##oft
##dy
##ium
##we
nhị
ngư
phiêu
nón
##inson
môt
phốt
Hoàn
Star
xoắn
##ther
1970
1960
Gand
Kim
My
Nền
Tính
Vẫn
rộn
rìa
tịch
uốn
vương
Đạo
##uel
##ron
##car
##ve
nhấp
que
##ongo
##ino
##ale
##alia
ghé
##ild
##ola
Howard
2003
Quân
2011
33
De
Don
Não
Syr
Ug
Yemen
biếm
dập
hái
kề
lọ
lê
mốc
tôm
thắn
thốt
khan
khùng
khen
ngụ
cảng
##int
##erson
cáp
120
##izza
origami
clip
vaccine
Henry
Bush
Congo
Lad
Mu
Nữ
Sing
ax
bực
búa
kệ
kẽ
kẹp
kem
lau
piano
đinh
ủi
##Tube
##ếch
chóc
củng
nhàm
khoai
sửng
Phật
thoáng
chíp
##ille
##lec
##outh
Brian
YouTube
##bridge
đệm
World
Micros
Tasman
700
800
Cy
CA
Da
Ford
Gl
Ghan
Her
Jos
Kar
Mat
Mùa
Tạo
Wall
dồn
gạt
mớ
mép
rỡ
sườn
tăm
xộn
ào
##xi
chướng
trùm
phe
phơi
tam
choáng
vịt
huýt
thơm
Arist
##mpic
3000
studio
Uganda
Ghana
FG
Gen
Kì
LED
Pl
Rằng
Tan
Vô
ac
dai
gai
hàn
rỗi
tống
tạng
Đỏ
##ris
##fe
thiền
nhét
triều
trèo
ngục
Tháng
##arah
đom
Ngôi
##itz
##iban
##lyn
Toà
dịu
Cola
Oxford
bướm
Higgs
Syria
##lectr
Microsoft
Aristot
85
Bu
Fr
Mand
NL
Quy
Sal
Tài
dê
mưu
râu
rèn
ser
túng
âu
##ts
##trop
##lu
##ía
trọn
khẩn
ngừ
phiến
gieo
tang
Khu
1950
##ipp
Lego
Cambridge
Aristotle
Bob
Josh
Mill
Un
Vũ
banh
bón
hâm
hưng
tẩy
vần
đục
##kg
##ker
##ẹo
##ớc
trễ
xen
##etro
Giới
##oll
##ower
Brook
Amy
Lak
Lester
Mel
Os
Oly
Rock
SW
Ser
Tế
Tam
Vir
Xô
bộc
cồn
dơi
dẹp
hé
jazz
pound
pizza
vạn
vọt
xay
Ít
Đột
đòn
##na
##nes
##tô
##can
##ếm
##ấng
##ụi
##úm
##ịt
trừng
phồng
cóc
Ngược
##itch
Hoàng
buồng
chiêm
2001
Lee
Taliban
org
##anderthal
Neanderthal
show
Địa
Stanford
##tropy
55
Bay
Jenn
Sáng
Tex
Yeah
bồn
rốt
vớ
vắng
vẩn
ôtô
đè
##oot
##bo
chay
nha
ngợi
ngửi
pháo
nghiêng
quad
##ari
##ora
##ati
##aser
ướt
##thur
##ardo
##ulin
Shak
##ylv
Abraham
Charlie
Florida
Texas
29
Bol
Bốn
CP
Cap
Holly
Jac
Lại
Lar
Ray
Tur
Vi
bát
bưu
bẫy
dưa
kìm
nâu
nuốt
xảo
Ước
ấp
##sulin
##gar
##pam
##zy
thạo
thèm
chì
ngây
tao
##ượm
Chương
bỏng
Quả
##agen
##eda
##iana
##own
Bron
##ect
1980
Daniel
entropy
Jeff
online
37
For
Mạch
Nord
USD
Wolf
bến
bẩy
cay
dâng
lay
nạp
rực
tơ
tảo
xế
Đương
đắm
##kins
##yd
##AR
##ìu
##ốp
then
chiên
chùm
nhồi
ngươi
phế
quận
thuỳ
Trông
##ory
Giáng
##ole
##ace
##obal
xoáy
Yout
Vịnh
virút
Olympic
31
Av
Cầu
Kev
Lời
Lau
Lịch
Lớn
Quyền
South
Tay
Tối
Tit
Vương
cộ
diều
gay
ki
nín
uỷ
xơ
át
Đế
##mon
##li
##yan
##af
##cy
##gra
##pera
thiếp
nhã
nhộn
khiếu
Nhóm
Thôi
doll
luân
Ngôn
viêm
soi
2050
##rog
Stew
nhuộm
##red
Nghĩ
##agh
##umb
Rosling
Đoạn
Brown
Cyrus
Youtube
dollar
Cụ
DV
Ky
Kiến
Long
Mos
Ron
Tìm
Wow
gộp
hân
lội
lậu
ray
sùng
xô
xả
xá
Đáng
##ih
##enh
##BM
thắp
trinh
trội
khăng
nghiền
##eop
##ero
##ere
khuất
##ison
##ata
191
##unt
Toán
##ive
bổng
Andrew
##onesia
Latin
Palestine
Watson
Norden
48
CD
Dis
Detro
Ear
Eur
Gore
Hu
Hill
Kính
Mike
No
Ro
Tiền
Ted
Yo
bế
cai
dỡ
gập
keo
lượm
mar
mọt
ria
sếp
sói
tw
Ánh
ân
Đan
##di
##den
##ha
##TC
nhăn
trêu
ngô
ngộ
##ona
Chất
khoán
Thống
Khả
##aland
##eton
##eting
chip
Stre
Steph
insulin
Air
Arthur
cuả
Scotland
CEO
Singap
Mandela
Detroit
Stephen
As
Bọn
Fer
Gold
Ir
Kiểu
Mới
Matt
Som
Vic
bới
bin
cẩu
dang
hả
hán
hẻo
laser
mark
ne
nit
rổ
rải
sảnh
vẫy
Đưa
đan
##mad
##ke
##gin
##EC
trương
khe
khâu
khép
khốn
giế
##ence
##espe
##idi
##ever
##iff
##ansas
Carl
bóp
Black
Ngoại
##burgh
Indonesia
##celand
Shakespe
Hollywood
Bronx
Street
Singapore
Cố
Ec
Gh
Iceland
Jay
Kir
Lew
Nel
Pro
Robot
Xã
dev
lách
lượn
mi
nãy
sỏi
vặn
xài
đàng
đun
##mo
##nia
##se
##gh
##van
##BC
thề
chặng
chốn
nhí
khốc
ngơi
vàn
phôi
##oto
khoang
tua
Nguồn
##ali
tụt
##eep
Ever
Định
bùn
Laden
Joseph
##lectron
DVD
giếng
Nelson
46
Bảy
Cảnh
Dường
Den
Dưới
Es
Kn
Lou
Mur
Mag
Ol
Pop
Riv
Sand
Tâm
Wil
bội
hăng
hàu
lứa
liêng
lửng
nuối
nắp
nếm
rò
rặng
sp
vách
Đô
đọng
##dam
##kel
##BI
##MA
##jo
##NC
nhược
khiết
ngắt
ngào
quạt
đãi
Nhạc
Thí
Thú
loa
logo
Truyền
đồn
##atar
##ilet
mẹo
##olm
2002
##oop
All
Albert
##pha
muôn
##que
bênh
Carolina
Montana
Zealand
tweet
Victor
marketing
Shakespeare
Băng
Er
ED
Eth
Han
IBM
Mô
Mấy
Mối
Mộc
Mil
Pan
Ram
So
Suy
Silicon
Ter
Wr
dời
dâu
hiếu
lấn
mil
nạ
rệt
suối
scan
tát
váy
Đàn
##mar
##oint
##ech
##ear
##ye
##ville
##ỉa
quăng
##oton
toa
toilet
##eron
##aron
ngoạn
chui
chuộng
##ollo
Quảng
Newton
McC
click
Joshua
Virgin
Kevin
devil
38
Bi
Bud
Gô
Jord
Kế
Kell
Môi
Nick
Tem
Xây
cán
cắn
cal
cua
electron
ha
kil
ni
nứt
tước
tạc
êm
ôi
Đồ
đứt
ỏi
##nie
##lobal
##har
##ves
##ụa
chuối
nhạo
nhát
khử
phích
quỵ
Chu
Chữ
Chân
Chile
1900
1930
##agos
Sher
1999
Leon
##ylon
Delhi
Gandhi
44
AR
BJ
Buổi
Càng
Clin
Gra
High
Lin
Mer
Mas
Miss
Ra
Red
Sai
Sarah
Uỷ
bar
cọc
dồi
gu
hở
kiềm
lót
me
sứa
tớ
ten
đạm
##de
##si
##lad
thốn
chạp
tru
trói
ngả
Chuyến
khinh
Thần
Thương
##amb
Phía
Alpha
cafe
##ied
2012
Colom
Atlan
Scott
Alexander
Simon
Jane
Wolfram
Lewis
Wright
Cuốn
GG
Hiệu
Kr
Mạng
Năng
Qa
Rand
Si
SO
Sus
Tuổi
Viết
We
WK
Yêu
Zimb
cạo
cưỡi
dào
găng
lọt
met
nến
nặc
nộp
ok
rong
rớt
sờ
tẻ
vướng
xốp
Đâu
đính
đốn
##ux
##uz
##uch
##din
##ij
##well
##HA
thỏ
thừng
chật
chọi
nhấc
tre
phàn
quẩn
giàn
hoi
##ươc
Thị
##ors
##oly
vít
sưởi
##ider
##ings
##row
ngủi
##ops
##opia
##ake
Arg
Thuật
nguội
Philip
Tanz
##pamine
Stewart
Disney
Qaeda
72
86
Bot
Bert
Ca
Căn
Của
JH
Jill
Mười
Nỗi
Sk
Vỗ
Xu
bì
bời
bọt
cớ
cằn
go
gắt
hao
na
tiệt
vã
xấp
ôn
ắc
##nik
##do
##km
##ệch
##hov
##Global
thiêu
chốc
ngạo
phớt
khoác
Thủ
Thỉnh
Trí
Phong
2030
193
##ters
tít
##entina
Johnny
##ode
1984
Cứu
##inda
Nathan
Nation
Brooklyn
Aus
Bh
Biết
Báo
Bell
Cas
Dịch
Far
Ig
Kỹ
Kat
Lang
Rog
Sl
Sun
Sier
Tah
Ush
Xe
bỉ
cưa
dẳng
dưng
gl
gạo
gớm
gram
háo
lụa
mị
man
mìn
pop
poster
rìu
tuộc
vựng
vùi
yo
điếu
Ảo
##so
##way
##BA
##bum
##ún
thảy
nhúng
nhục
trệ
trá
tràng
ngọc
vành
phanh
giáng
##ott
Chúc
Trò
Tranh
khuếch
##ost
##eland
##etti
ghen
##ato
##ican
##itt
192
##use
TEDGlobal
##rey
##ardy
Nghị
##abeth
Arch
##eck
##izabeth
Moz
Moore
Elizabeth
iPod
Bosnia
Jones
Julia
Copenh
Hawai
Venice
Parkinson
axit
Virginia
Tanzania
Copenhagen
98
Ag
Bỏ
Bir
Cây
Cục
Du
Ha
Hung
Hav
Hir
Ko
Ke
Mau
Port
Power
Roy
Sylv
Tập
Tel
Tóm
ah
cành
kg
kiều
láng
lụt
mác
méo
nộ
nới
opera
tở
vắt
ven
đặn
##my
##off
##tamin
##rr
##ẹt
##fa
##zler
##MS
##ũa
##RA
##ợm
chinh
chích
nhại
nhức
nhọn
củi
choàng
hon
Trang
##ame
dopamine
##ima
vitamin
##alem
Phục
##ose
##ics
##ily
buồm
##usalem
##ula
##aze
tụng
130
Colum
Georg
Edward
Maya
##ucks
album
Jerusalem
Teszler
EDI
Ethi
Clinton
Argentina
42
96
Ash
Bas
Diễn
Ex
Hel
Im
Ju
Ker
Kam
Kal
Line
Linc
Mi
Min
Mov
Nội
Op
Từng
Tạp
Vụ
bự
cào
kép
lười
liêu
mông
nực
nấc
sương
silicon
vỉa
ăng
đươc
##PTC
##ned
##sy
##eas
##IA
##ốm
##õm
##ỳnh
thối
nhốt
phả
quầy
##ani
Chết
Nhất
toạ
khoe
##erom
Khan
diễu
viol
Phân
##ellow
##isa
##athan
##iti
##oln
Quần
Doug
##igan
Marc
Brit
Carn
Leone
Luân
Amer
##hammad
Benj
##burger
Tuần
Babylon
Muhammad
Matth
Sierra
Sylvia
Columbia
Ethiopia
Lincoln
350
64
Ara
Cur
Dựa
Fort
God
It
Jes
Lượng
Lòng
Law
Minh
Net
Nic
Niềm
OEC
Qatar
Sib
Sky
Tới
Tinh
Tấm
UC
Val
Well
West
ao
báu
cúi
dạn
gán
gục
gầy
gốm
hen
kiếp
lúng
lung
lén
rảnh
rùa
tạ
xẻ
Đặt
Đào
đắng
đầm
ớt
##tim
##wich
##ct
##CA
##ụn
chà
chổ
chênh
nháy
phiện
pherom
taxi
nóc
mài
Nhận
Nhiệm
Thư
Thấy
##ering
Trắng
##ene
xuôi
Giao
##ila
##asc
huỳnh
gót
suýt
##phia
##ifer
##utan
Cameron
iPad
##ather
Anderson
Bern
Apollo
##kyo
Jonathan
Julian
Broad
Philad
mỉa
Greenland
North
acid
Somalia
##keley
Victoria
Leonardo
Zimbab
Hawaii
##PTCHA
OECD
900
AO
Bồ
Bí
Biểu
Bel
Com
City
Dr
Dur
Dub
Hi
Hiển
Hẳn
Mức
Rad
Siêu
Sol
Tỉ
Uh
Xanh
bệ
côi
căm
eur
hức
lãi
ri
rồng
rock
sộ
sấu
xì
xổ
xào
đười
điểu
ươi
##ui
##ule
##tt
##lor
##las
##bie
##LA
thỉ
thản
chảo
chéo
ngâm
quấn
giầy
##otter
hor
##inburgh
Khối
##ena
ngoặt
bén
##ater
##ita
tỉa
News
##ahidi
cửu
Alice
##ulu
185
187
Shir
##phic
##phone
Ann
Emma
##uba
##utnik
Tokyo
160
140
oxi
##ennis
McD
Berkeley
Sputnik
Edinburgh
##ield
mỉm
Bali
virut
Starb
Tasmanian
Earth
Kelly
Temp
##ladesh
National
Ushahidi
tởm
##azeera
Siberia
Zimbabwe
47
43
Bo
BR
Boy
CN
FO
Gran
Had
Jeop
Jazeera
Kur
Li
Mở
Mắt
Nike
Pol
Penn
Sống
Sud
bl
cúng
cày
cưng
gas
hip
ion
mầu
mộc
mánh
poly
rậm
sáp
tý
tòi
ve
vầy
xáo
xót
xịt
Áo
Ăn
Đời
Đài
đự
đỗi
điếc
##mi
##oa
##ơc
##ble
##ùn
nham
ngự
quấy
giục
Chi
##aig
bịt
Thầy
Triều
Khó
Khác
##alk
##elphia
Giám
##aska
##lem
##obi
##une
xoa
180
Anas
chóp
1996
5000
Luther
Kenned
nguỵ
Camp
##egie
Michigan
Bangladesh
Eve
##rence
Steven
Whit
bướu
##thalate
Copern
rãnh
Christoph
Hawk
Tesla
Colombia
Atlanta
Hungary
Movem
Carnegie
Benjamin
Philadelphia
Starbucks
FOX
Kennedy
41
58
AM
AK
Ach
Biển
Bánh
Dữ
DJ
Danh
Eng
Gar
Gửi
Ivan
Mất
Mong
Map
Mitch
Nair
Pep
Rick
Rach
Sách
Suốt
Tạng
Ung
Yves
bơ
bôi
bầm
bit
cm
dì
gra
hốc
hel
it
lầy
ooh
pu
rà
sand
test
vôi
vác
viền
xâu
xắn
yeah
Đôn
##med
##mart
##key
##lash
##wen
##hh
##gon
##ps
##EA
##DA
##bor
chải
chiết
chồn
chén
nhôm
trớ
trỗi
triễn
khống
giun
Cher
Chia
Chad
##inn
##ait
Ngành
##aly
Phố
Phản
Gil
Giữa
ghim
baz
##olas
duyên
##omen
##rah
##uron
##oir
Quí
##the
##opa
##opatch
Marco
Joel
##ava
##phere
##apagos
chói
Emily
##aza
tụi
1998
##iva
##iver
hamburger
Super
Jackson
Galapagos
Warren
Nanopatch
Tasmania
Fried
Lakota
##graphic
##ihad
Everest
Louis
Jordan
Susan
Roger
Movember
54
52
74
97
Aaron
Beet
Dàn
Dùng
Dick
ES
Hạt
IM
Jess
Kẻ
Kansas
Lạt
Leb
Mumb
Nô
Nep
Oak
Res
Sở
Sad
Tử
Ur
Xét
bành
bàng
báng
dấn
gật
gel
lẫy
sập
tột
vá
vũng
việt
xy
Đêm
Đám
đu
đắc
ập
##fur
##Sp
##ềng
thủng
chằng
nhượng
ngước
ngặt
phông
quáng
giềng
hop
##onald
Chờ
Chứng
##airo
Trị
Trừ
Khí
##enberg
nguyệt
khuấy
##ello
Giê
ghề
190
##eman
125
She
Ariz
Johnson
1994
1995
##ivers
##attle
Scr
Beat
Princ
Jean
Samuel
##osterone
CAPTCHA
FGM
Bhutan
Tempest
Jeopardy
Sudan
Christopher
Mumbai
Nepal
Arizona
Princeton
34
68
77
Aur
CS
Cor
Cairo
Dễ
Die
Fox
Gro
Hall
IP
Lực
Lai
Mus
Mass
PH
RW
Rod
Sn
Sa
Sen
Seb
Tức
Tai
Tiêu
Tám
Tầm
Vol
Vik
bã
cẩm
còi
fan
hiên
kỵ
lanh
mao
mặn
no
nồi
náo
reo
sẹo
tản
tặc
tưới
vuốt
viếng
xở
đậy
đắp
Ảnh
##uit
##nd
##ston
##cia
##vis
##pr
##SC
##ựu
thẹn
nhai
nhọc
trù
trơn
phình
quẳng
rap
##onto
##chi
##cher
##ines
bịch
Thách
##enz
##ias
Ngươi
##osau
##ette
Giấc
##icus
##emy
Inter
lít
Alan
Alaska
suôn
##ull
##ows
##ump
##ibati
prô
Luôn
##awa
Berlin
Time
Jonas
enzy
Clay
Romo
Grand
Jennifer
Larry
Taylor
Kiribati
##hoven
Havard
violin
Jesus
Skype
thỉu
Rachel
testosterone
Beethoven
450
82
Bé
Bàn
Cổ
Cuba
Dòng
Gan
Graham
Hal
Hồng
IQ
Jers
Ku
Lên
Lập
Mama
Nấm
Ryan
SA
SR
Sản
UN
Vận
Vua
XL
bo
be
cỗi
câm
dấy
gồ
gôn
gầm
hươ
hắc
hèn
kị
kiêu
lố
lộng
má
nang
nai
ròng
rách
sạc
sụt
vv
ín
ầm
##ura
##ool
##ni
##ray
##ii
##iet
##iro
##ean
##ko
##word
##cou
##cent
##gan
##ưởi
##fl
##NG
thình
chổi
chanh
nhẽ
trỏ
ngần
ngợp
phu
phao
giang
họng
##ons
##aus
Thung
Trưởng
##imal
##orm
##alin
##ister
##ats
lẽo
Hoạt
##omet
##ustin
##rad
##ado
banjo
Str
Stef
##eyer
Margar
Yorker
##oud
##str
##stan
Art
##ife
##uten
McK
1975
liễu
Great
Free
Seattle
Plato
Lesterland
Jefferson
Titus
Europa
Grace
Lawrence
McDonald
CNN
đựơc
sandwich
Cheryl
bazơ
Jersey
Margaret
78
AV
Aim
BM
Bị
Biến
CC
Cười
Cao
Dam
Diana
DAR
Fib
FBI
Gary
Hạ
Hát
Has
Hol
Hann
Jar
Kỷ
Kib
LH
Lạy
Mai
On
Ore
Russ
Sắp
Ti
TS
TH
Tiên
Tạm
Tob
Tun
Vùng
Ver
Vòng
Vinc
bú
dè
gặm
kèn
lạy
link
mĩ
miên
mường
nòng
nấng
pass
rọi
rạc
rạng
rẩy
sừng
tứ
xói
Đội
Đợi
đút
Ứng
##men
##uela
##tel
##rir
##rina
##ira
##ken
##len
##ga
##gen
##ều
##RNA
##Women
thà
thêu
thạc
nhô
nhấm
tro
trút
khờ
phẫn
phthalate
giễu
Chống
Nhớ
bịp
Tho
Thanh
Tham
Thuốc
Thuyết
loé
thuở
Khủng
##imet
##ori
Phượng
Phill
bus
buông
##iêt
##ade
Quản
Doha
Conn
##illa
bíp
##inea
##able
Mary
khuya
##mann
Carr
1992
1997
##allon
Island
games
##ize
Geographic
xít
4000
McG
##athon
Ross
Beau
Beach
Blue
Craig
1945
Guinea
Rome
Toronto
Jerry
Peru
Dean
seroton
Jacob
##aghetti
Kyoto
marathon
Denis
Murray
Oliver
spaghetti
Bertie
Katrina
Keith
##timore
Hawking
FOXO
Mitchell
Nairobi
Diego
hươu
##couver
Aimee
Oregon
password
serotonin
05
57
6000
84
Bờ
Bóng
Bah
Blo
CL
Cơn
DP
Dây
Dầu
Dấu
Dor
FDA
Gay
Ger
Gord
Geh
Gwen
Himal
Jas
Jud
Kích
Lâm
MG
Mê
Mã
Mot
Mày
Met
Miễn
Mir
Nông
Nửa
Nich
PC
Pier
RG
Sil
Sir
SMS
Tôn
Uk
bần
cõi
dẫu
file
gởi
lon
miệt
nôi
nôn
nặn
prog
rành
rạch
rụng
sỡ
sải
sảy
sấm
tem
teen
vóc
wh
Đứng
đê
điềm
đẫm
đấng
##sc
##ead
##kh
##com
##fred
##zz
##N1
chệch
nhổ
trâu
trọt
##ays
##anon
##anic
hoạn
##onacc
Chạy
Nhiên
top
Trăng
Treas
cơm
xuẩn
viê
nguyền
##alore
##ese
thoa
cáu
##eta
##etown
##atz
##ites
2020
Stir
Stock
State
##iger
ướp
##tha
##rane
##opy
##agan
##ager
##abad
Mario
##owitz
##apt
Brend
canxi
Luận
Dave
##tech
##athem
Rose
Bangalore
##eeney
Julie
Schw
shock
##ezuela
Franklin
Walker
hãnh
Oxy
Baltimore
##201
Venezuela
Vancouver
microRNA
Bolt
kiêm
neuron
calo
metan
mịn
Matthew
Dubai
Copernicus
Lebanon
Oakland
Fibonacc
Tunis
Himalay
Ukra
Treasure
Fibonacci
00
53
Bán
Buồn
Cent
Ess
Fellow
Gaza
Kiểm
Kle
Leo
Len
Lev
Lock
Like
Mời
Pap
Pink
Potter
Rory
Sob
Ty
Tệ
Tỷ
Tiểu
Tenn
Teh
Xếp
Yale
bục
bạt
cat
dẫm
gò
gáy
gào
gallon
lẩn
mội
măng
mút
rưởi
sút
sun
tú
tể
xông
you
Đạt
Ẩn
Ừm
##uce
##ral
##rick
##dit
##sd
##sw
##lider
##ww
##hr
##ban
chắt
nhún
ngách
phai
quỳ
quật
giòn
nghênh
##uyển
##otosh
##ange
Chế
Chern
Thức
Thập
loà
##erb
Trọng
Khái
Khách
thoi
##itra
##ition
Hop
##acy
##obyl
TED201
##ideo
Saudi
hun
##unk
##ree
##aha
##nett
Alfred
##aks
##ave
188
404
duỗi
Anth
##ibo
110
##eller
Leg
##ecca
##eech
Harlem
##over
##lins
##ugh
Billy
##berry
Palm
Jamai
Greg
micr
Liberia
Sweeney
Gando
axít
CAD
Melinda
nitric
Panthe
##echn
SOPA
gluc
Mozart
American
horm
Pepsi
##osaurus
Stirling
Sobule
Tehran
##otoshop
Chernobyl
39
67
76
94
Az
Ail
Bil
Clo
Dai
Dol
Deb
East
Hong
Hiến
Hun
Haz
Il
Ix
Job
Justin
Kay
Lim
Lợi
Màn
Men
Med
Mak
Meyer
Nov
Nico
Ooh
Ott
PI
Por
Ru
Rh
Reb
Sang
Sara
Sug
Soph
Vui
Woo
Wood
Wire
bô
biếng
dốt
foot
gân
hời
lẫm
mau
nọc
rán
son
văng
vãn
xén
Đánh
đũa
ảm
##tic
##let
##fi
##plex
##SE
##ợc
thục
chen
chửng
nhì
nhảm
ngửa
##ont
Chức
Chen
Chọn
Nhiếp
Thể
Tháp
##ambia
luẩn
##ars
Nguy
##esk
##esa
chuồng
##atem
vụng
##olate
##emo
##ome
##oman
sưng
##act
##urch
kén
##rof
Stone
Dow
Doanh
##ream
Ali
##aga
Marsh
189
186
##oux
Shar
Bruce
##extin
Caltech
1989
##shire
Santa
Michel
MoMA
Irag
Barack
Palextin
##insky
Abu
Wiki
Neil
##astian
##oko
White
uyên
Guatem
360
Tora
Latinh
Williams
Bonnie
Norman
##sterdam
Univers
Oscar
Moses
Langley
Tahrir
Oprah
pheromone
##Speech
Stefan
FreeSpeech
Gehry
progeria
Essex
Tenness
Dolby
Guatemala
66
AG
Aye
Band
Bow
Cánh
Coo
Dạ
Day
Dừng
Dennis
Fed
Fey
Ge
HS
Hỏi
Hạnh
INC
Jake
Kos
Kent
Kate
Kep
Lựa
MA
Mang
Mob
Mik
Meg
NBA
Pe
Py
Pic
Part
Post
SS
Sis
Sri
Solly
Tar
Tarah
Vợ
Vẻ
Viễn
ZK
ar
cật
cội
cello
copy
dặn
gặt
hót
hằn
lầu
lốc
nung
náu
noi
pa
pen
rệ
rộ
rụi
sên
sục
sảo
sụn
tấu
túp
váng
watt
út
Độc
đấm
##mud
##moud
##ois
##rid
##da
##sylv
##kansas
##yon
##cl
##cas
##ho
##field
##Talk
##bunt
##MED
##IC
##jev
##ject
##ỏm
##ẵng
thê
thiển
chững
chiêu
nhút
nhoi
ngó
ngơ
ngất
ngấm
phồn
giở
giông
##ote
##otte
hoán
hoóc
Chồng
Chụp
Chuyển
bịa
khoả
khoanh
khoát
Thula
loang
loãng
Triển
Khám
Khal
doo
tuôn
Phiên
##eline
##ets
Giữ
##atur
##its
##itan
##asa
##leans
##oma
##obo
TEDWomen
TEDTalk
TEDMED
##urt
##ingo
10000
Stand
Stein
daf
Intel
##than
##aba
##aki
Maria
##ocr
Joey
##umara
Brand
Ariel
Arkansas
Tod
Carter
##ookie
Loan
##artz
##awi
2013
Harry
1986
blogger
##achus
nhoáng
Moham
##inder
App
Prin
Evan
Max
Cruz
##etts
##ynth
##oke
Orleans
Bono
Mahmoud
Coch
Goering
kẽm
Karl
Quyển
ngừơi
Miller
Serg
Jacqu
Irắc
Ireland
Econ
Weibo
Austr
Archie
Uhm
Pennsylv
Gilbert
ESG
Kibera
Phillip
Bloom
Nicholas
viêc
Anthony
Pantheon
Ailen
PIPA
Toraja
Tennessee
Cooper
Kepler
Tarahumara
##buntu
Pennsylvania
56
BP
Bảng
CH
CIA
DD
Dần
Dem
Dun
Fi
Fai
Found
Gì
Hồ
Hot
Hit
Hmm
IK
Ki
Kông
Kiva
Les
Lab
Lyn
Mao
Mul
Mathem
Nổ
Nar
Nik
Ody
Pin
Row
Rez
Sỹ
Sẵn
TB
Tái
Tội
Tốc
Tàu
Tuyên
Tụi
Tso
Vây
Viên
Vượt
Video
Wang
Win
Wind
Xa
Yếu
au
cợt
dép
et
eB
est
hỉnh
is
lình
lóng
mem
meg
nại
neo
nạt
nách
nấp
net
núm
rợ
râm
rắm
rẫy
sành
sủa
teo
vấp
vệt
water
xao
Đề
Đủ
Đang
Đấu
Đốc
đả
đong
đùi
##Point
##och
##ten
##tein
##tail
##rich
##eus
##kar
##leton
##cm
##cam
##colm
##colate
##holm
##ôc
##gie
##12
##pson
##EG
##EF
##OS
##OL
##bao
##bus
##box
##ẩng
##Hz
##êt
thầu
thét
thuyên
chậu
chộp
ngời
chocolate
Vàng
##cha
Chứ
Chìa
Chín
Child
Nhanh
Nhiệt
tour
khoé
##erat
##amas
luồn
vịn
Phim
Phóng
Git
##atica
##icut
##ilot
##iley
##aster
nghiã
##adore
##eber
Inst
1500
##agu
Maryl
Johan
1800
##ough
Shah
##iba
##elli
Johns
Amsterdam
gamma
Lanka
Brad
1985
1988
Sci
##itha
##ogy
##oga
Andy
Andre
Barb
##riel
##oyager
Nauy
##astle
Fred
Freud
Freeman
Malcolm
Libya
Stanley
Ahmed
Charlotte
Jimmy
Hamp
Browne
Palestin
Donald
Bayes
##ecticut
Noel
Noah
Young
##moor
Wilson
milimet
Linux
Sioux
Agnes
PowerPoint
Helen
Netfl
UCLA
Broadmoor
Scratch
Aurora
Sebastian
Connecticut
Jason
Hopkins
Jamaica
glucose
rệp
##jevo
##achusetts
Cochrane
Mathematica
Odyss
Rezero
Maryland
Netflix
59
71
750
7000
89
83
AT
Ast
Bre
Bart
Bever
Cú
Cro
Coh
Cựu
Dạng
Gol
Gul
Gap
HP
Hum
Hut
Hind
Huck
Imp
JR
JK
KB
Kan
Kid
Kab
Ly
Lễ
Liz
MW
Mid
Món
Mard
Mann
MBI
MBA
Nạn
Nao
Oz
Pia
Pit
Pur
Pran
Pasc
Quyết
Rub
SB
Sông
Song
Sel
Ton
Vai
Vel
Viv
Vườn
Voyager
Wy
Wis
aw
br
cỏi
cồng
cặn
cock
dế
dạt
dằn
hóm
lư
lở
mồm
nể
par
qúi
rầu
rầm
von
vạt
vượn
yoga
Án
Đảo
đễ
đần
đước
ươm
##mond
##minder
##tan
##tion
##rk
##ria
##iy
##ios
##ique
##yte
##yota
##west
##wait
##ax
##cop
##horn
##CC
##200
##gg
##xin
##xter
##fel
##pi
##pp
##ET
##ba
##zan
##ém
##ji
##ỡi
##ça
chập
chánh
chèo
chèn
chót
trơ
trướng
khánh
ngà
ngõ
ngóc
ngòi
ngợm
ngẩng
phiệt
quặng
mào
##onia
Chuyên
Nhu
Nhịp
loanh
Trình
Tric
##aman
##arin
##aren
##oro
##alie
##osev
##osphere
##elt
##etas
Giúp
##atông
##atma
suyễn
##itic
Homo
bur
##lev
##ader
TEDster
##roça
Nghi
sul
##lov
##ipcar
Mars
##owan
##hane
Shaw
##phua
Anne
##ape
Arm
##iflu
##manuel
##ickr
Khoảnh
1991
1993
Baxter
Luke
proton
Harris
ruộng
##ovo
Scoop
Robinson
##tain
Danny
Elvis
##asso
Monter
Spr
##riend
Jamie
Evel
##ortis
Diet
Naj
Heather
Clark
Walmart
Malays
1940
Guard
Gabriel
Sean
Indiana
Libăng
Bonnet
Mahatma
Karen
Buff
Osama
Rockett
Tamiflu
Laur
##rogen
maratông
Rives
Rivers
Biosphere
##uchia
Hirsh
Juan
Radio
euro
Grant
Russell
Bahamas
Gordon
Stockholm
Brenda
Central
Papua
catadore
Ixaren
Sarajevo
INCRA
Prince
Econom
Australia
Foundation
IKEA
##eratops
Odysseus
Beverly
Gapminder
Pascal
cocktail
Triceratops
Malaysia
88
AC
Ath
Bấy
Byr
BBC
Cass
Cynth
Des
Dra
Eb
EEG
Gọi
Gấp
H5
Hỗ
Hon
Hướng
Hey
Java
Kas
Kap
LA
Lạnh
Las
MP
Mông
Mẫu
Mell
Mub
Molly
Nin
Ow
PA
Pac
Pilot
Rừng
Rem
Rec
Reg
Riley
Sur
TG
Tớ
Tờ
Tân
Tàng
Ut
Up
Vừa
Wide
ad
bở
bừa
beta
cortis
dó
dí
gt
gỉ
ganh
geo
gãi
google
hũ
jihad
lộc
lõm
mo
nè
nỉ
oà
pl
rùng
rữa
răn
rót
rơm
sò
sen
sal
tợn
túm
up
vơ
vồng
vớt
woo
đă
Ổn
##mail
##uj
##tis
##rett
##ien
##kim
##lav
##cer
##cra
##ôla
##vin
##val
##vet
##vent
##xy
##fus
##bes
##ze
##IP
##jan
##ẻm
##ỡn
thây
thềm
chk
chang
chat
chưng
nhan
nhối
nhung
nhen
nhót
trũng
phước
quây
giỏ
nành
rain
##ano
##anistan
Chả
Chỗ
Chim
Chủng
năn
Nhảy
##ươm
##aid
token
Thằng
Trin
Trục
Troy
##aro
##arak
diêm
diox
xua
Photoshop
##els
chuồn
Gian
Giảm
Gill
##atan
##icill
101
Hob
1920
lab
TED200
##ides
Studio
nhuần
##read
Alt
Alg
Alb
##agas
##load
##tonia
401
2500
##umann
##app
Broth
Toyota
##arty
2015
Kend
nguời
##ffiti
Color
1983
Geoff
##linois
Robb
Tweet
1979
1973
1965
Ohio
Critic
##ende
##etty
##oshima
Heh
Wales
Flickr
Philipp
amino
365
Burn
##ants
Accent
Galil
1957
Water
kềnh
##tsburgh
##liu
1918
nhím
ARN
Linus
goá
vãnh
Casey
Hiroshima
Georgia
Kurd
Campuchia
Achill
graffiti
##lashy
Friedman
IMF
Massachusetts
Viking
##stone
prôtein
enzyme
##strong
DARPA
Vinci
Denisov
Gayla
Judy
Tunisia
Bilbao
Hunter
Illinois
Rufus
Marshall
Kosovo
Picasso
Sisy
##ocrates
Sergey
Hitler
estrogen
Hampshire
Cohen
Naomi
Pittsburgh
Monterey
Guardian
Cynthia
H5N1
MP3
Mellon
Mubarak
cortisol
Accenture
62
73
8000
AI
ABC
Bong
Bầu
Bin
Bữa
Bit
Ball
Cấp
Cos
Corn
Cod
Clev
Ele
Fab
Ful
Gard
Gall
HC
Hơi
Hem
Hud
Hunt
Hurt
Id
Jihad
Kia
Key
LG
Lí
Lũ
Lối
Lắng
Lur
Lớp
Lind
Limb
LOL
MM
Mây
Mãi
Mall
Media
NG
NO
NI
Núi
Nev
O2
Ola
Po
Pra
Pre
Pav
Pach
Point
Rốt
Rab
Rev
Rum
Rep
Sin
Sar
Sag
Sinc
TD
Tạ
Tiện
Tuyết
Tib
US
Vis
Xuyên
bùa
bùm
biêt
civ
dơ
dặt
demo
ep
ft
for
gàng
gợn
hạc
hốt
huyện
héo
hòm
lẹ
lồi
mm
my
mùng
mách
mắng
mix
rên
rèm
rợn
sững
sầu
sồi
té
uý
usd
vể
wow
xiết
yến
úp
đên
đùng
ắp
ừm
##mb
##ment
##uh
##oac
##oul
##nick
##rit
##rass
##ius
##sen
##eed
##ki
##lar
##lair
##yle
##yce
##wick
##aa
##xon
##ES
##ER
##Sh
##bab
##zone
##RN
##HO
##ổng
thòi
chừ
chần
chao
chũng
chuộc
chừa
chém
nhàn
nhứng
nhầy
nháp
nhúm
nhõm
trờ
tròng
trăn
trans
khay
khắt
ngỡ
ngầu
ngượng
ngạt
phỉ
phách
photon
giời
##uyễn
rao
##anan
hooc
##onie
##oney
##che
Chin
Chơi
Church
nghĩnh
toái
Thi
Thưởng
##erk
##ery
Trải
Trách
##amp
##ames
##amie
Khơ
Khắp
tuột
Ngồi
##orth
Pho
Phép
Phẫu
##esar
##esome
##elle
Gió
sofa
##ilton
vụt
##ito
##ital
##oli
Hoạ
Hous
House
202
##tern
##omb
##acre
##obe
laze
##adus
##idro
##ingham
##unch
##unes
##reat
##ika
Show
Sheph
##ords
##stream
Emmanuel
khứu
##ryst
Bach
Afganistan
Davis
Amanda
bổn
Canyon
1982
oxide
Bank
Hyder
##egal
Michoac
##uga
##eka
Eli
Ellen
Paula
##burn
Baref
##rice
1962
##quez
Blu
Prize
Diam
School
complex
Head
Clonie
##ucky
nều
Malawi
1949
Reu
##celadus
Transition
Roman
##othy
Jeremy
##ouri
Christian
Enceladus
Venter
Actor
##mmm
Perry
CERN
Hamlet
bonobo
Glad
Gene
Khuôn
Serra
##nesota
Cape
USDA
Olympics
Euro
Roosev
neut
nitơ
Terence
Reddit
##ambique
okay
Mozambique
Duol
Exxon
Kerry
Minnesota
1858
bloop
England
helium
đuợc
Snow
Senegal
##press
beat
Thoả
Ukraine
Klein
hormones
Ottoman
Bandura
Pyth
penicill
##muddin
Jacques
Faiza
eBay
Barbara
Kabul
Evelyn
Najmuddin
Riverside
Byrne
Colorado
Galileo
Sinclair
civic
Barefoot
Roosevelt
penicillin
03
63
650
92
Ay
Aw
Aut
Aug
Ass
Bỉ
BK
Bac
Bion
Bond
Bỗng
Bog
Beth
Bagh
Cải
Cửa
Cis
DC
Dian
Dep
Dolly
Electr
Eiff
Food
GV
Gã
Good
Gowan
H2
HL
Hằng
Hết
Hiểu
Hậu
Hack
Huss
Istan
Jor
Jans
Kw
Kĩ
Kath
Kant
Kris
Lẽ
Lem
Linda
Lisa
MO
One
Pao
Pear
RO
RNA
SI
Sợ
Sốt
Sum
Sony
Saf
Tù
Tường
Tul
Tide
Tulu
Us
Von
Via
Vẫy
Wol
Xác
Zach
Zetas
Zipcar
as
are
blu
beep
cou
dừa
eo
es
el
eng
flash
gù
gẫu
hê
hột
hiều
hot
hiền
hùm
hidro
lự
lỏi
lảng
lim
lóc
luyến
lụi
lốp
lún
mó
máng
mòng
mod
mail
nu
nương
nẹp
rầy
sé
siết
sệt
sọc
sex
tằm
uất
vò
vói
vẹt
Đổi
Đọc
Đẹp
đờ
đái
ưng
##met
##more
##uana
##uza
##oit
##ras
##rig
##rian
##dt
##dad
##sey
##sson
##ku
##kin
##lam
##yt
##yson
##aff
##corn
##castle
##côla
##gs
##gill
##fer
##fia
##TT
##TO
##pan
##pen
##DR
##bi
##bar
##bul
##zo
##zi
##zim
##zmann
##ML
##MRI
##Le
##ĩu
##ễm
thớ
thẩn
chồi
chĩa
nhả
nhẹn
nhuyễn
trau
trặc
khong
khét
nga
ngỏ
ngùng
phà
quĩ
cácbon
nghiến
nghẹn
đãng
##otton
##aya
rang
##anor
##antha
##chester
Chàng
Chung
Chop
Chechn
##aire
Tra
Trại
Trân
Trận
Tránh
Trạm
Khiến
Khung
##enix
##ial
luỵ
##imi
##imét
Ngọn
##alth
##alog
Phổ
Phúc
phụng
##eli
thoạt
Giff
##ise
##ischer
##atin
##itar
##olph
##ology
Hoff
Home
##iêc
##leep
##ema
##omon
##adi
trụi
Saul
Saund
##inger
Quỷ
##rov
##roid
##rove
Sting
##rez
##istor
1200
##lock
thụt
##ineering
webcam
##uld
182
robots
##phus
Anton
Anna
Brun
vợt
dĩa
##azar
##ryl
Carib
Cargill
##ivia
Lov
Isab
2014
170
Collins
1987
##shmi
Robics
Android
Splashy
##insey
1968
Pauling
Blair
Pros
##rene
##endo
Darfur
Neumann
Freder
Whoa
uyển
Samantha
1948
Reagan
Caroline
Balk
Roma
##meister
Madagas
sôcôla
Libby
##uke
Janine
Mech
Nano
Play
Brooks
Lake
CPhi
##ydney
##ARS
Aviv
##afi
dollars
CDC
Estonia
Knee
Knight
Allen
Erik
Budrus
niêm
Sheryl
Missouri
meerk
Farmer
Kaluza
Arab
Fortune
pheromones
Broadway
Shirley
blah
polymer
Whitacre
Jesse
Jessica
Saddam
Sheila
##onsin
Hannah
LHC
Online
Toby
Himalayas
Cloud
Rebecca
Wired
WikiLe
University
Feyn
Kentucky
Windows
Science
Marduk
Hirshhorn
Cassini
Kaplan
Gillian
Altos
Algeria
Sisyphus
Cleveland
Luria
NIH
Prego
Sagmeister
Hyderabad
Duolingo
Baghdad
Eiffel
Gowanus
HLV
Hussein
Istanbul
engineering
Chopin
Chechnya
Saunders
Robicsek
Madagascar
meerkat
49
61
79
Aung
Aud
Bời
Buy
Bai
Bun
But
Blog
Cung
Côn
Cảng
Celine
Coke
DI
DH
Dục
Dãy
Dom
Dew
Dev
Daw
Deep
Dyson
Est
Eames
Goog
Gram
Ghi
Gros
Hôn
Húp
Hưng
Hub
IC
ID
Ing
Ian
JM
JY
Ka
Kong
Kem
Kara
LM
Lương
Low
Lagos
MR
Mực
Muốn
Mam
Miền
Mua
Mảnh
Mun
Mitra
NH
Nổi
Nia
Nad
Nell
Nix
Ong
Old
PR
Pad
Pine
Pri
Pants
Rau
Rah
Rup
Ragu
ST
Sân
Shan
Sach
Slow
Seth
Sleep
TE
Tuc
Tij
UE
Vệ
Vạn
Vent
Vila
Wi
Wii
XI
XDR
Yah
Zambia
bái
bung
bêu
bỏi
bừng
bặm
bứt
cò
cotton
dột
dật
dìm
dỏm
gô
gàn
goi
gara
gẫy
há
hắt
hớt
hec
head
két
kỉnh
lt
lả
liếc
mí
mậu
moi
mag
nấy
nom
nick
nĩa
oan
rạn
ròi
rủa
se
sá
sỉ
sài
sặc
tễ
tuốt
tót
tennis
uh
ubuntu
vét
vênh
xê
yum
ze
ạt
##ms
##mor
##mingham
##nis
##tol
##rô
##rin
##ret
##ruten
##ds
##dan
##dor
##die
##dies
##kut
##war
##worth
##cor
##cul
##cow
##cock
##hryst
##AA
##AL
##CK
##gi
##vold
##TA
##Tunes
##pa
##pta
##point
##SS
##SM
##OC
##bin
##RC
##êng
##êin
##ju
##õng
##ừm
thự
thàng
chê
chường
chửi
chùi
chiêc
nhãng
nhòm
trề
trành
trồi
kha
khố
ngấy
ngàng
ngứa
ngạch
ngáp
phết
quệ
giũ
giăng
giấm
giùm
nghếch
ran
##anc
##oni
Che
Chip
Chev
Chaz
##aux
##inas
##ais
##aijan
##err
thun
Tri
Trần
Trồng
##ams
Khai
Kháng
##enos
quark
Đóng
Ngắn
Ngựa
ngoạc
xui
##oren
##oraz
##ete
Giác
##olux
Hod
thưc
##rab
##urn
trợn
##idad
Quên
##unta
Newcastle
##rect
##igruten
##ahn
##thus
Allo
Alab
Alain
##ieu
nhờn
Nghịch
Nghiệp
##agram
##loid
##akh
##avin
Taj
##iki
Shack
##irl
Brent
##ift
muội
Thuỷ
mafia
Lucy
biễu
Frans
175
Collider
##eek
##ersburg
##ocks
##enny
lẻo
##egas
##egrass
nhoà
McM
1974
1976
Elli
Paulo
##athy
Barry
##anna
Petersburg
enzim
Juliet
Suu
##bright
Harvey
1947
Gupta
Orkut
amin
##issipp
##ehr
Torosaurus
cents
Simpson
Tuỳ
Hansen
1953
microphone
Count
Mead
nhịn
Myhr
Lady
Buenos
Sally
series
pounds
Laramie
Turbo
Forbes
Titanic
Kyi
Moscow
Ronald
Hills
Aires
Airstream
Ferr
Blackberry
Eskim
Sandy
Alberto
Alberta
Hany
McChryst
Jordans
Chuột
Maslow
Mississipp
Raj
Krist
Randolph
##ingsuit
Botsw
Skid
Sunni
gluten
Georgetown
America
Matthieu
Arabia
Nicole
eureka
##lasma
Hadron
##borough
747
Beatles
enzym
Kuwait
Hasan
Jarrett
LHQ
Tobago
whis
Schwartz
Boltzmann
Pinker
sunphua
##erbaijan
Azerbaijan
Sugata
Sophia
Ariely
DDT
Nikola
etc
Pranav
Vivian
awesome
Armstrong
Economist
Owens
Utah
salad
Trinidad
Philippines
Kurdistan
Bitco
Costa
Eleanor
Hudson
Hurtigruten
Nevada
Gladwell
August
BKT
MOOC
Giffords
Isabel
WikiLeaks
Feynman
Nixon
Tucson
Alabama
Myhrvold
McChrystal
Mississippi
09
1kg
51
Aqu
BB
Bj
Biên
Bách
Bắn
Bor
Bul
Bund
Cấu
Cẩn
Cash
Code
Dược
Dak
Dụng
Data
Dhar
Duke
Eis
Fez
Foster
Fear
Full
GC
GI
Guy
Gấu
Gell
Gut
Gog
Hả
Hang
Hài
Hor
Hos
Hand
Heb
Hữu
Hart
Hers
Hipp
Hatz
HAL
IV
IN
Ice
JS
JO
Jur
Jaw
Kin
Kros
Koh
Kuz
KIP
Lệ
Lã
Ler
Lick
Light
Life
Mật
Miến
Mừng
Mis
More
Mod
Mee
Ni
NR
NF
Niết
Nằm
Nap
NSA
Niel
Night
Nino
Om
Pu
Pen
Pent
Pall
Ptol
RA
Rào
Rồng
Rid
Rap
Rượu
Rica
Rain
Ridge
RIA
Súng
Sợi
Sửa
Te
Tiết
Tăng
Tầng
Tut
TNC
Umar
Vọng
Vit
Vib
Vod
Vald
Wong
Watt
WHO
Xc
Yos
Yug
Yellow
Zur
bạ
bợ
bẽ
bal
búp
bla
bợm
cau
cúc
càm
cass
coll
dả
dể
dot
dãn
ed
ethan
fi
fải
fil
form
font
gừng
hơ
hủ
hit
huyên
hãn
hẻm
iTunes
kang
le
lổ
lới
lọi
lăm
lùa
lìa
lùn
lựu
mè
múc
mẫn
mịt
nê
nắn
nic
nap
nớt
nít
oliu
rể
rem
sấy
sin
sán
sil
sọt
tã
tết
táng
tuốc
tuối
tera
tẹo
vê
vơi
vữa
vảy
vừng
vali
xù
xới
xửa
xiếc
xẻo
Đá
ĐH
Đằng
Đàng
đơ
Ơn
ắt
##mit
##PT
##PL
##oon
##ooth
##non
##nest
##nish
##tu
##tz
##tra
##rd
##res
##ior
##kman
##ln
##lia
##lah
##yc
##wh
##work
##watt
##aj
##ced
##cola
##consin
##hod
##CN
##Card
##gy
##ges
##vald
##xo
##xe
##BS
##pur
##Sphere
##be
##bal
##bro
##bell
##ball
##bach
##80
##zka
##jad
##đi
thò
thât
chầm
chuốt
chòi
chòm
nhằng
nhái
nheo
nhám
ngáy
ngấu
ngỗng
phật
phen
phầm
phàm
phẩu
quác
quậy
cóng
giũa
giỡn
nghê
nghén
nghẹt
##otto
cảu
hoo
##chan
Chấm
Chand
Chap
Chuck
Chimb
##aug
##aust
##inia
##iness
##inawa
toan
toát
khoét
Thơ
Thấu
Thảm
Thatch
loát
quyện
Trả
Triết
ding
##imp
Ngà
Ngữ
Ngạc
ngoặc
khuỷ
##elb
##elop
sound
socola
##atra
khít
##ical
##ility
##ilever
##ilocks
bass
##ited
##itiba
##asy
##aste
##olulu
103
##raph
##oblog
##ady
##adema
##ural
Quix
##roject
Ste
Step
Stalin
##reen
##ign
Allan
##istry
##rani
##ieg
##illo
Nghèo
##ague
bít
##tone
Marx
Marie
##oczka
Joan
Journ
##avi
##avel
##sonian
181
25000
Shin
Shred
Haidt
##phal
Annie
Arn
1100
##hna
Khoẻ
##erto
Love
##ions
Coll
2100
rupi
1981
Okinawa
nơron
##cken
##sha
Robin
##ega
##ugu
##acht
McL
1972
1978
1977
##teau
liu
Andes
Barric
Barbie
Palin
##rier
Edison
Rossy
1969
##quare
Grey
Angela
Evans
Maas
##heim
##annel
##annica
Schul
Sue
Suther
Atkins
Jeann
##arko
##aint
Mania
Carolyn
Alexis
Orwell
Ornish
India
##ethyl
xỉn
Greenville
##efeller
Ahmad
Đoán
Griff
Percy
Morg
Warner
##esha
##usty
Cous
Patel
Patrick
Gould
##weil
Jose
Genev
acryl
##lulo
ngừoi
Unilever
Lakshmi
Rockefeller
organ
Turk
Titan
##monia
Steward
Cụm
Earle
Ferris
Goldilocks
Esther
Pope
Popcorn
Allende
mili
##marin
McCain
Budap
calor
kilomet
guồng
guitar
Atlantic
Botton
Nathaniel
Austin
Farm
Igbo
##ittle
Kamen
Marcus
British
Britannica
Curitiba
Nicolas
Valley
##atherine
Bernard
Drori
Durga
##otterdam
Shirky
Resnick
CSF
IPCC
UNIC
boom
Verme
Motor
Silver
Siri
##scape
microblog
Jobs
Makoko
Porter
Rhode
Down
Bowl
MAS
Peace
Mohamed
Instagram
ATM
Gulf
Hindu
Wisconsin
##zanne
Buffett
Honolulu
adren
Brothers
Robbins
Rumi
Report
Phoenix
Diamond
neutron
Snowden
Bionic
Electrolux
Usain
coumarin
séc
sexy
Hoffman
Bruno
DIY
Kaaba
Karachi
Sachs
Tijuana
##orazo
AlloSphere
Botswana
Gogh
Krosoczka
Kuznet
KIPP
Licklider
Ptolemy
RIAA
Valdez
Yellowstone
collagen
ethanol
terawatt
Chimborazo
Thatcher
Journal
Shreddies
Sutherland
acrylic
UNICEF
1m
3G
9000
Ax
Aust
Agar
BA
Bau
Biệt
Bis
Bãi
Bus
Bran
Best
Betty
Cu
Cà
Cờ
Cử
Cau
Cắt
Cầm
Cit
Cac
Cookie
Cesar
DM
DU
Dạy
Dum
Dry
Dall
Drew
Ebert
FB
Fin
Fow
Fek
Fern
Fish
Flow
Fild
Friend
GW
Gây
Gái
Gor
Gặp
Góc
G20
Gever
Gambia
Hán
Hell
Hãng
Hỡi
Iow
JE
Jung
Jen
Jet
Jazz
Kí
Kiều
Kinsey
LB
Linh
Lâu
Lạc
Lão
Lĩnh
Lord
Less
Môn
Móc
Mèo
Moi
Mack
Nàng
Now
Nex
Nina
Nok
Out
Pam
Pash
PSA
Prad
Pugh
Pesa
Pimp
Ran
Rối
Răn
Riêng
Rey
Roll
RCA
Rita
SP
SK
Sơn
Sâu
Ses
Sat
Sac
Sard
Sev
Sala
Stern
SARS
Tô
Tồn
Til
Tus
Tỉnh
Tab
Tak
UNA
USA
VI
Vill
Vul
Vegas
Wag
Woff
Xo
Xử
Xong
Xương
YR
Yay
bớ
bấp
bồng
bèn
càn
còng
cẳng
cuốc
cằm
coca
code
der
den
dộng
diệp
des
dãi
dìu
fMRI
fischer
gở
gột
gắm
gọt
gaga
gươm
hấn
hal
húp
hói
hợt
hep
ib
imp
kar
lb
lữ
lặt
lươn
mú
mon
mẩn
mẫm
mụn
nần
nao
nức
nua
nòi
nẻo
oi
out
pH
per
post
re
rọc
roi
sc
sảng
sâm
sào
sầm
sus
tầu
tơi
tìn
un
vo
vs
wi
wingsuit
xỏ
xiên
xãy
xóc
ôxy
ùn
Điên
Đau
Điệu
Đầy
Đỉnh
Đáp
đay
đành
đung
đít
Ấy
ắng
##min
##môn
##mal
##mat
##meop
##master
##uhan
##PI
##ners
##ty
##tar
##rai
##rat
##day
##down
##sus
##eing
##eine
##eiro
##kina
##kley
##kheim
##lk
##lett
##yloid
##wan
##wal
##wey
##wind
##witz
##wln
##42
##cord
##cut
##hou
##gend
##vo
##ful
##par
##pton
##ESC
##Sec
##Script
##bot
##bour
##bage
##íu
##Hub
##LS
##NH
thon
thâu
thán
thặng
thảnh
thớt
cháo
chạc
chùn
nhỡ
nhừng
nhói
##nhe
trc
trổ
triền
khẽ
phất
phiếm
quai
nài
##iềng
chon
choles
##ayan
##ance
hoc
##onig
##onte
##chel
Chó
Chí
Chiều
Chán
Chừng
##augh
##inck
##aim
toi
Thất
Thích
Thiệt
Thảo
Thuyền
Thịt
loét
love
##eral
##eros
##erinck
Triệu
Trích
Trầm
Trạch
##amer
Khẩu
Khuyến
Khadi
##enstein
##enburg
##encia
dies
Đói
tuyền
xuồng
##orio
##ority
##orfer
##als
Phổi
##escop
##osia
##oslav
##elah
Gir
Giơ
ghiếc
##aton
##ilyn
##aso
##ase
##ols
##olis
##lege
##terol
##eme
##usion
##racy
20000
##oban
##andon
##urdo
huý
Queen
Doyle
##real
##igman
##iguel
Inuit
##neth
Alisa
##oplin
##iev
mênh
suông
##loyd
##abi
##abyte
##ability
Marcel
Martha
Marilyn
##occo
##ocracy
Namib
Aicha
##ians
183
##iker
##out
##umen
##ird
Anat
cỡi
Bren
##ifi
##iffe
##ella
muông
##azi
##ryn
##ento
##acking
vỏn
Carroça
Leh
1600
##artu
Luton
##awatt
1400
1300
nguệch
##ector
protêin
30000
##trino
##yll
##iza
Harri
Harold
Brah
Canal
Parik
##erial
Oklah
nơtrino
Advent
##enna
Hyper
lẻn
Robbie
Sant
Ell
dòm
liêm
tịt
Barn
Barcel
Palmer
Bergen
Monica
Monster
Eddy
tuýp
1963
Beij
Prot
Maj
Maine
##eena
TEDxC
TEDxB
TEDxS
cacbonat
##oxy
Adams
230
Heidi
Health
Suzanne
##linger
Dereck
Derartu
PMTC
Whole
Whirl
Richards
Atala
Frankie
Walt
Walter
Natalie
220
Manju
Malthus
Giacom
Reed
radar
Seng
amyloid
Smithsonian
##ishman
Madrid
Torvald
##othic
inches
Burma
Burkina
Enron
Jackie
Đoàn
##ensp
vaccin
Morris
Morocco
Babbage
1954
Coast
Nancy
##uprof
##ilding
Donna
seri
Mills
Milly
Mello
Tamil
Tamara
shows
Jenny
Bolivia
Capetown
Turing
Lauren
##mont
1910
Hillary
Aspen
Goldman
Ecua
Ecosia
Kirk
Project
Every
Maggie
tweets
Erin
Milan
Terry
##earch
Chuỗi
Chuẩn
ARES
Merced
Mission
truỵ
Janeiro
Randi
SOL
Philips
Slick
Sunitha
1926
Birmingham
Kool
Portland
Powerpoint
##rrrr
Edwards
Minority
Curtis
Italy
Durkheim
Radcl
Solomon
Boeing
BRCK
Granny
Engelb
Maps
heli
##borg
ESP
Research
Ground
Rodrig
Ganđi
UNESC
BMW
DARwln
Hasbro
Vincent
McGonig
Motors
Miranda
Pierre
Himalaya
Ukraina
Locke
sunf
Daily
Meyerowitz
Meggend
##house
Standford
Mohammed
Cruzeiro
Phillips
Democracy
Hotmail
Children
Johannes
Hutch
Improv
Midwest
Ruby
Seligman
Tonya
parab
đễnh
##iyama
Nghiêm
sulfur
Dietrich
Clarke
Dracor
JavaScript
##craft
dioxit
Kendall
Achilles
Denisovan
Fabian
Garden
USB
epoxy
transistor
Houston
Michoacán
Python
Diane
Paolo
ROV
Tulley
Viagra
Prospera
Frederick
Gross
Hubble
Oldenburg
Yahoo
McMurdo
Eskimo
whiskey
MOOCs
Lãnh
NRK
Yugoslav
Zurich
film
remix
##hodops
Stephan
McLuhan
Morgana
Geneva
Budapest
Kuznets
Fowler
Feki
Fildes
Iowa
Salaam
cocaine
fischeri
ibuprof
sushi
##meopathy
cholesterol
Khadija
diesel
##escope
Namibia
Harriet
Oklahoma
Adventist
Barcelona
Beijerinck
PMTCT
Whirlwind
Torvalds
Radcliffe
Engelbart
UNESCO
McGonigal
Meggendorfer
DemocracyOS
Dracorex
ibuprofen
04
01
4Sh
4chan
Au
Aid
Bối
Bed
Bak
Bess
Born
Benn
Bass
Buck
Boran
Bati
Beck
Bapt
CT
CR
Cát
Coi
Ced
Cab
Cav
Cla
Cox
Cour
Citi
Creat
Catherine
DB
DR
Dải
Dẫu
Dựng
Dut
Dink
Diff
Eg
EG
Ep
EL
Elyn
Erez
FE
FM
FI
FN
Fir
Fren
Fire
Fitz
Flem
Faso
Ga
Gang
Giết
Gốc
Gle
Gun
Gồm
Gamb
Grier
H1
Hân
Hương
Hiếm
Hàm
Hard
Hab
Hẹn
Hama
Hep
Hộp
Hugh
IG
Jr
JB
JN
Jai
Joplin
Kiếm
Kaz
Kìa
Kind
Kare
Kaf
Kobe
Kiev
Lá
Lái
Lam
Lưu
Lip
Loth
Laman
Lazar
Mw
Mũ
Mưa
Mẩu
Maz
Mut
Mick
Mug
Mach
Mũi
Match
Meh
Mull
Mistry
Miguel
Niên
Nuôi
Nab
Nou
Nir
Nash
Neg
PT
Pot
Pom
Pew
Pack
Patt
Pizza
Punta
RI
Rao
Ren
Ral
Ric
Ras
Run
Rud
Rama
Rush
Roth
Ratan
Rotterdam
Sy
SM
Seo
São
Sóng
Sid
Sav
Sok
SEA
Sivers
Sval
Socrates
Sydney
Sarko
Saint
TQ
Tz
TM
Tang
Tao
Tượng
Ten
Tướng
Tat
Tiềm
Top
Till
Town
Tata
Tech
Ubuntu
VM
Vẽ
WT
WI
Wes
Ward
Wond
Wael
Wald
Wound
Wool
Xung
XML
Yun
Your
Zab
Zul
Zero
Zapp
ang
aah
by
bai
bện
bòng
buốt
bio
bói
bủa
cút
cúp
cạch
coc
cùa
cta
cùn
coban
dẻ
dầm
dứa
fiss
gao
gài
gal
gấm
guga
he
hững
hấu
hăm
hipp
hợm
kền
lì
lằng
lán
les
lòi
liệng
lith
like
lằn
mền
mảy
mượt
mini
mía
ná
nái
nin
nạo
nôm
nuc
om
oái
oát
ozone
panh
party
rì
rỏ
ruy
ráng
ren
ráo
rốn
rụt
rât
sê
sởi
sưa
sắn
scr
tà
tong
tấp
tào
tẩm
táp
tĩu
terr
vồ
vát
vắn
we
www
xị
xước
xát
xắp
xẩy
Đen
ẩu
ổng
##map
##mins
##mark
##ness
##nation
##name
##ru
##rt
##rand
##du
##don
##dore
##dog
##dale
##sa
##side
##sler
##sky
##ea
##eng
##eat
##kw
##kig
##koff
##kowitz
##lap
##lass
##laug
##yo
##wa
##40
##cc
##cus
##cles
##hic
##hol
##hem
##gus
##gers
##gate
##vian
##vir
##fr
##14
##BO
##Bath
##py
##pire
##99
##Vo
##bard
##bee
##zac
##zweil
##MU
##ăt
##HD
##LU
##jah
thong
thơi
chy
chong
chùng
chội
chấu
channel
nhĩ
nhác
nhúc
nhẩm
nhậm
nhẵn
nhằn
nhât
trọ
trĩ
trọc
khải
ngông
ngán
ngóng
ngậm
ngốn
phũ
phăng
phẩy
quất
quàng
giằng
giương
giõi
##ayne
##anga
##anging
##onen
##onchi
##chai
##changing
Chăm
China
Chek
Chih
Nhi
Nhung
Nhện
##inner
##aik
contain
too
Thr
Than
Thân
Thẩm
lol
thuý
Trib
Trek
Tracy
Khảo
Khổng
bộn
dow
##aris
##arter
##arez
Ngủ
ngoi
##orp
##aler
##alah
##aline
##alach
Phẩm
Phol
khua
##eson
##esca
##osph
##elile
##etz
Gib
##isch
##iser
##isel
##isco
##ator
##icip
tưng
##ômét
##asca
##asthan
buc
chịt
##usd
##acs
##acey
##obin
##andt
##andro
##urf
##urman
##ids
##eway
sởn
##oooo
##oing
##ingle
Quê
##roe
Stu
Sty
Stud
Store
Dod
##ahaha
Const
líp
##tham
Aless
Alley
Alison
##rann
##ranium
##opo
caff
cabin
Tuynis
##illia
##agon
##edic
##abe
##abasca
##ipper
##aka
##ocaust
##aver
##ulder
##owatt
1850
##ikh
##iken
dum
Shel
Sheena
##stock
bềnh
trìu
Brin
Eman
##elling
hổn
muồi
Toả
Toxo
Toonchi
##ental
cuôc
cún
tôt
Carmen
##esta
##ivi
Theodore
165
50000
Luc
##awton
ADHD
dịnh
2016
Kenneth
##odesk
Calcut
178
173
##cept
Coler
College
##ove
Bragg
Braxin
oxit
Scrab
##shasa
240
Adrian
##enne
Camera
##ego
##ugger
Moon
##teng
Elias
##athai
##burst
Palo
carb
caram
carroça
Berry
Money
Spock
Speed
##ramento
Apoph
Bennett
Benoit
1967
Behar
Blak
Blanc
Prick
Angola
Bose
Small
##head
Cron
Crick
Crimer
Jonny
TEDxP
TEDxR
##anderson
def
##oker
Atten
##brot
Frankenstein
Tommy
Natural
Angelo
Manchester
Mali
Reich
Reader
Talks
amen
ammonia
Madison
Maddie
Webb
Webster
Greene
Burger
cọp
##geren
Enri
Act
Action
Acumen
Gray
centimét
Montreal
Hamburg
Swapt
Warcraft
Mahab
1959
Florence
Macint
ngưởi
Starck
Muỗi
WorldW
Glas
Glenn
Herbie
Hercul
Karmap
Salman
Salinas
##luid
tango
Bobby
Milliken
United
Oslo
Osorio
Neanderthals
Bolte
##garia
Forer
Avelile
Laura
##mons
Moskowitz
Huang
Yochai
##haas
Fergus
Matty
Somali
Carlton
Ghrai
Prov
##vani
466
River
Sandberg
Wilkins
Erick
Panama
miles
Bieber
Temple
kilômét
Shereen
Mason
Masters
Colombo
Disneyland
Bertrand
Skyl
1938
1929
iPods
Birds
Kohn
Maui
Telescope
Georges
Ashdown
Kerala
Kermit
Kamal
Kamkw
Douglas
Nicol
Valent
Berners
Bernoul
Dublin
1879
Boulder
Kurzweil
Polaro
Urugu
Giêng
Beatrice
CSI
Grove
Interval
Internation
##umpet
SAT
boong
McKay
Holocaust
Jared
Maidan
Carrillo
Dorothy
Mêhic
Pierson
Klee
Legadema
Gregory
micrô
hormone
Hazleton
Medic
Sughar
##rofluid
1890
Feder
Particip
PostSec
Khalil
Appalach
Dunlap
Kiran
Mullins
Wangari
Winky
meme
megawatt
Andrea
Bartok
Hutu
bridge
burger
Laurie
Athabasca
Kaspar
upload
##vetson
Albania
Burns
Cornell
Fuller
Gallup
Huntington
NGO
Pachyce
Rabin
hoocmôn
Churchill
Shephelah
Eliot
Heads
Reuters
beatbox
Autodesk
Bacon
Depp
Hacker
modem
nuông
Balkans
Cloudburst
Dewey
Grameen
Nellie
Prius
hecta
nickname
Cheval
##amsala
Shackleton
Meadow
Rajasthan
Bitcoin
Bulgaria
Bundy
Dakota
Dharamsala
Hosni
Hatzalah
Jurvetson
Kinshasa
Meegeren
Puerto
Ridley
TNCs
hơp
napot
##where
##baleen
Chandler
khuỷu
Quixote
Arnold
Jeanny
Cousteau
Vermeer
Bionicle
Austen
Caucas
DMCA
DryBath
Nokia
Sesame
Sacramento
Wagner
Wofford
impact
monkey
huých
Lehman
HyperCard
Everywhere
SOLE
Koolhaas
4Shbab
Borane
Batiuk
Claes
Gamble
H1N1
IGF
Kindle
Lothar
Lazarus
RISD
Ralph
Seoul
Svalbard
Sarkozy
Wounded
Yunus
Zabbaleen
Zullinger
fission
lithium
nucle
terroir
##minster
##kigai
channelr
container
Pholeros
Tuynisi
Calcutta
Scrabble
Apophis
Attenborough
Swaptree
Macintosh
Karmapa
Ferguson
Ghraib
Bernoulli
Uruguay
International
Mêhicô
PostSecret
Kasparov
Pachycephal
07
2D
2kg
3K
330
5m
87
9kg
Ak
AB
Are
Aah
Ahn
Ayl
Aber
Audio
Bề
Bò
Bông
Bật
Bơi
Bồi
Bia
Bat
Bou
Bib
Baz
Bod
Bec
Bậc
Bùm
Bike
Boot
Bumb
CB
Cúc
Cen
Cel
Cad
Cup
Dh
DE
Dung
Dọc
Dig
Dah
Dale
EP
Et
Ey
ET
Ely
Eco
EPA
Egan
Fe
Fan
Fam
Fide
Flin
Foot
Finn
Gà
G8
Gam
Gag
Gart
Goran
GBM
Game
GNH
Gensp
Hối
Hex
Horn
Hij
Hardy
Hừm
IT
ISA
Iphone
JT
JU
Jal
Jun
Jak
JPL
KH
Kis
Kun
Kill
Kick
Kart
Kéo
Kite
Koko
KPI
LI
Lé
Lê
Lầu
Lao
Lính
Lưới
Let
Lồng
List
Lud
Lãng
Lion
Lenn
Lith
Link
Lima
Lunch
Loren
Lotto
Little
MC
MS
Mù
Mại
Mes
Mash
Miz
Mmm
Mild
Mena
Mecca
Ny
Nè
NY
Not
Nit
Neb
Nốt
Nak
Nath
Noir
Ot
OM
Off
Ommm
PP
Pi
Pa
Pand
Ped
Pass
PRI
Pollo
Punk
PET
PBS
Rang
Ranh
Rút
Rol
Rằm
Rico
Rony
Rice
Remen
Rift
Renny
Sư
SU
SJ
Sát
Sán
Sit
Sếp
Sap
Sash
See
Sek
Sox
Sker
Szy
Sagan
Save
Satur
Slov
Sieg
Square
Tứ
TO
TW
Tần
Tồi
Tặc
Tia
Tựa
Tyl
Tiếc
Take
Table
Techn
Ul
Uz
Uri
USC
Vá
VÌ
Vang
Vực
Vân
Vứt
Wo
Wad
Wid
Word
Wins
Wuj
Xấu
Xuống
YB
Yor
Zig
Zuck
at
bẹ
búng
bập
bét
bre
big
bow
bye
byte
cở
cộc
cáng
cạc
cor
cuồn
cuống
cầy
col
card
cộm
dà
dề
dến
diển
dầy
data
ele
fu
fer
fus
facebook
four
fear
fax
gí
gờ
gòn
gượng
goro
hờ
hinh
hổi
hòng
hám
hão
high
hỡi
ikigai
je
jump
kung
lác
lơi
lữa
lút
lúp
lẩm
liếm
liềm
list
lênh
mủ
mống
mạt
mửa
mầy
múi
mul
măt
nệ
nong
not
nanh
náp
nylon
oai
oanh
ome
pp
pic
pol
pro
psh
paste
poker
rôi
rinh
rám
rip
rou
rít
read
só
sạo
siêng
sap
smart
te
tạt
us
uyn
uranium
vè
vin
vút
vac
vầng
vât
with
xơi
xạc
xưng
yao
yard
yếm
Ác
ách
Đác
Đồi
Đom
Đặng
đôn
đúp
đuốc
đàu
ẵm
ốt
ớn
##một
##mel
##mund
##mwood
##mouth
##uise
##PO
##nic
##nell
##nister
##nload
##tenberg
##ril
##rom
##rie
##rio
##rate
##dul
##duc
##ks
##kc
##kj
##lie
##lip
##lian
##lio
##lawa
##ltan
##lobin
##yar
##wart
##ware
##45
##ae
##con
##ces
##cav
##cester
##cott
##cover
##hl
##hua
##hoo
##hall
##óp
##Ar
##Af
##CO
##25
##gim
##get
##gow
##gras
##va
##ven
##vre
##found
##10
##BT
##Bot
##Qu
##pon
##pont
##popo
##97
##âp
##EO
##D4
##DER
##OPA
##bine
##bek
##bean
##bits
##zon
##zen
##In
##II
##Ho
##jin
##jaim
##ểu
##NY
##US
##USC
##ẫng
##ỵt
##ngal
thr
thệ
thinh
thọc
thóc
thãi
think
thali
chè
chác
chài
chắp
check
nhá
nhợ
nhiện
nhích
nhiếm
##nham
trệt
trit
trớn
khư
khạo
khảm
khồng
ngỗ
ngai
phot
phường
phung
phập
photoshop
phosph
quở
quắt
quầng
gic
gig
giớ
giầu
nghành
##otic
choi
sực
##anes
##angel
đểu
##onim
##cht
Chao
Chữa
Cham
Chil
Chem
Chỉnh
Choir
khiêng
Nhập
Nhấn
Nhắn
##inet
##aise
đich
bịu
toại
tomor
Thước
Thiếu
Thói
Thaler
##eople
loi
loã
loai
locav
##erd
##eric
Trụ
Trực
Trật
Treo
Trứng
Truyện
Tree
True
Treat
Khô
Khởi
##enia
##ening
##enbach
##iad
##iath
dol
##aran
##aroo
##arthe
dich
tuồi
tulip
##ime
Ngu
Ngon
Ngừng
Ngón
ngoằn
Họp
xun
##oria
##alan
Pha
Phô
Phá
Phú
Phủ
Phái
Phiến
Phấn
Phạm
khuân
##osa
phít
##etter
##ethi
##etooth
solo
ghita
##atford
##icini
##ili
##ilia
##itor
##olan
##olic
##oloch
105
102
Hog
Hoang
Hood
Homer
but
dùi
205
##lebee
vun
##emite
##emens
app
##oming
##rac
##race
vệc
nghiễm
##acama
##adda
##ando
##uri
mùn
analog
##ebe
100000
Qui
Quạ
Quác
##rod
Dool
nhuỵ
##rex
Ines
158
156
15000
##aho
##ahi
Conan
Contr
Alto
Aldo
##ophan
Tuyến
genes
generic
##iller
##illion
cưú
thich
Nghề
Nghiệm
sum
##agall
129
12000
##loud
911
##ablan
##iper
##akis
##akka
Mart
Marin
Marla
Marrow
Marvin
##ocure
Jonh
Joach
Jody
Joyce
##aven
##avicini
##ianne
##owell
##iks
sơm
duệ
duplex
Shu
Shim
Shap
Shell
##station
##phne
Bruss
Aria
Armen
kít
##ious
Empire
##ubs
##icket
##ude
##lying
##entin
Khoá
Khoan
Carson
Lear
Lead
Leib
League
##ival
Iss
Isa
##arta
##awat
145
bioph
Amjad
Kenyan
136
##eca
##ecom
177
##ideen
Haring
Cannes
Paraly
Paravicini
oxal
##ckx
##cker
Adria
Banjo
Bannister
Hydro
Camero
Camden
##tafa
##egrove
Dana
##ugo
##ugg
Two
Twain
McAf
##oglobin
##assel
Barton
Berg
Berkley
Mons
Monkey
Spec
Timothy
##rix
##riDER
##main
##maer
##ricia
Benef
Benedic
Eden
Edith
tủa
1964
1966
Bear
Pret
Abb
Abdul
Bosch
Tinker
Eva
Main
Maathai
Niger
Smart
Cruise
TEDxM
Laf
Brohi
Diêm
Schlaug
Sufi
Claron
Att
Atacama
cool
Walk
Walters
NATO
Tombo
Willy
thổng
1941
Real
##nerability
Sears
##bergh
all
Romeo
##issa
Worth
Wormwood
Worcester
##roponte
Christina
Christakis
##gerald
Aha
Ensler
MTV
Galen
Galvani
Vanier
Mormon
Babble
Hamas
Hamilton
Parker
Mahal
1952
1958
1956
Patton
Patricia
##uppam
môtô
MySp
Mycop
Myesha
##carina
ngụm
Mujah
CAO
Daphne
Glass
Global
Herz
Karol
Taniyama
Buch
Bueller
Fraser
Salt
xenlulo
Melbour
Rockwell
Virtu
héc
##arius
Turin
##ydia
Avaz
Avatar
Kevlar
##rogram
Kymaer
Ronson
1919
Discover
Airbus
Goldstein
neon
##iffenbach
Blackawton
Ghonim
Prozac
Produc
Denver
Magell
Olson
Sandel
Wilk
##NCCO
Allah
Allison
Hanson
Milk
Milton
Teresa
calori
kilô
kilowatt
Leonard
442
Merckx
Randy
Siemens
Susana
Wei
Weiffenbach
Zimbardo
##iji
##orska
Xuất
1932
Casa
Casablan
Fargo
Tahltan
grams
##itty
1928
Archer
Birke
Haas
Kofi
Royal
Royce
Basit
Basque
Miner
Godin
Italia
Belsh
Comp
Compan
Commons
Shirin
BRD4
Liu
Campbell
Whites
Copernican
Mapendo
Pepper
bits
##hhh
Louise
1904
Scrubs
683
Musica
Mustafa
Snoop
Saxe
Volta
Volvo
##cial
##owski
Kuiper
SAMS
SANCCO
McKean
Damon
Hanna
TiVo
Jacobs
Gayle
##anical
##aptop
Brendan
Oxytocin
Type
##erbread
TED2010
TED2011
Limpopo
Novocure
Rhod
Universal
Mobile
Miko
Partners
Khalida
TEDTalks
Standard
Today
Bloomberg
Leslie
Lynn
Pinot
GitHub
Bradley
Ahmedabad
Goliath
Imperial
Wyoming
Wislawa
TEDsters
Shawn
Spring
Springs
Laurel
Design
Hỗn
PAC
Pilots
Record
play
đăt
đăc
dioxide
250000
Kendal
Geoffrey
Idol
Idaho
LGBT
Lindbergh
Prag
Sinai
Tibet
Tibbits
##mborska
##uhuh
##ugaad
Bluetooth
Reuther
##presso
Assange
Bogota
Foods
Jansen
Jansky
Kathryn
SING
blues
bluegrass
espresso
hotdog
Antonio
Caribbean
Lovegrove
Mechanical
Playstation
Bunker
Kemp
Niall
Rupal
magie
##akhstan
Elliot
County
Augustine
Borges
Horowitz
Hebrew
Hippocrates
NFL
Napster
Yosemite
edX
nicot
##ycin
soundscape
Collusion
Barricelli
Schulz
calorie
Business
Dallas
Jenkins
Lessig
Next
Pamela
Rolls
Sardinia
UNAIDS
Vulnerability
karate
lbs
reCA
Girl
Queens
##yllis
Giacometti
Mellody
Mercedes
parabol
Yugoslavia
Stephanie
Bennington
Buckminster
Baptist
Cedars
Creative
Fitzgerald
Fleming
Gleeson
Hepburn
Kazakhstan
Lamanites
Noujaim
Negroponte
PTSD
Zappos
cocain
ninja
Chekhov
Thrun
download
bucardo
Stygim
Studs
Coleridge
caramen
Prickly
Cronin
defriend
Enriquez
WorldWide
Glasgow
Participant
Caucasus
channelrhodops
Bumblebee
Genspace
ISAF
Kismet
Mizzone
Mildred
OMG
Pandora
Pollock
Skerry
Szymborska
Slovenia
Tyler
Uzbek
Wujec
bowling
ferrofluid
jeans
ppm
picnic
smartphone
vacxin
tritium
Chilê
tomorrow
locavore
##artheid
Control
Joachim
Brussels
Paralympic
Cameroon
McAfee
MySpace
Mycoplasma
Melbourne
Virtual
Casablanca
Company
SANCCOB
Stygimoloch
1cm
4D
5t
550
5kg
69
A4
AA
AN
Ale
Aub
AID
Avi
Agra
AAA
BI
Buộc
Bam
Bạc
Bào
Bạch
Bom
Bord
Bald
Bami
Bower
Bih
Biff
Bamb
Cỗ
CU
Cất
Cay
Cương
Cởi
Cặp
Cat
Cấm
Cra
Cưỡng
Cran
Cow
Cir
Cath
Cage
CNC
Castle
DA
Diều
Dậy
Dọn
Dal
Dil
Dart
Dion
Dec
Dass
Dream
Dusty
Dishman
Ez
Equ
Easy
Fel
Fat
Fil
Fah
Fest
Fall
Fark
Fros
Fair
Gon
Gánh
Gắn
Gom
Gad
Gur
Goo
Gour
Gats
Gaga
Goro
Gmail
Hè
Hổ
Hạn
Huy
Hòn
Hấp
Hệt
Huyền
Hick
Hitch
Hole
Haha
Hilton
Ib
IU
IRC
JQ
Jol
Jins
Jolly
Jain
Jeep
June
Jugaad
Km
Kang
Kai
Kịch
Kil
Kra
Kob
Kew
Kine
Kip
Kry
Kall
Klin
Kimb
Kitch
Kiki
Kitty
LX
Lộ
Liều
Lát
Làng
Lũng
Lắc
Lửa
Lil
Lạch
Luyện
Lah
Ley
Lest
Lama
Lower
Leop
Lula
Liver
Lloyd
Mr
MD
Mé
Má
Mạo
Màng
Mội
Mấu
Máu
Mow
Miếng
Mess
Mùi
Miệng
Mund
Mies
Minsky
NP
Nt
Nay
Nối
Ner
Nấu
Nãy
Nint
NBC
Nye
Nacht
Nazi
OED
Oth
Ost
Ock
Opera
Oops
Oct
Ocarina
PG
PD
Pos
Ple
Pab
Pul
Pou
Pla
Pers
Pog
Plan
Page
Pors
P25
Ry
Rô
RT
Rời
Rot
Rét
Rit
Rag
Rou
Rex
Rest
Rail
Rủi
Rust
Ritz
Rider
Rookie
Sô
Sơ
SH
Say
Sải
Son
Súp
Sem
Sine
Sey
Sab
Sớm
Sex
Sack
Sov
SID
Suss
Sole
Saks
Soren
Siza
Sethi
Sakka
TT
Tật
Tảng
Tôm
Tol
Tốn
Túi
Tik
Tate
Tana
Tipp
TMS
Tiger
TCN
Tandon
Um
Ud
UA
Vỏ
Vinh
Vus
Vac
Voi
Vann
Vander
Vern
Vasc
Vaux
Wa
WO
Wine
With
Wend
Wild
Winn
Wurman
Xen
Ye
Yến
Yent
Yann
Yami
Yuc
ZF
Zak
Zulu
Zaire
ack
bậy
bos
bướng
bẹp
bưng
bind
cr
cy
cù
cấn
cọng
cạm
cell
cùm
cola
crick
cookie
cloud
dong
dượng
dặc
dăm
dậm
dượt
diếp
er
ex
free
favel
gr
gội
gar
gạc
glu
gothic
hế
hù
hú
han
hộc
húc
hển
hạm
hem
had
hero
hemo
hẵng
hừm
iO
inh
jean
kn
ka
kè
kiếu
key
kiếng
lơn
luộc
lét
lạp
lâng
lèo
luyên
lỉnh
mg
mé
mụ
mot
mải
miến
mor
mốt
mớm
mứt
mướt
nc
nã
núng
nện
nem
nach
níu
oun
one
pan
pao
pac
qủa
rê
rưới
ris
rượt
ruổi
rut
rec
retro
sn
si
sụ
sỏ
sữ
sất
sần
sắng
săm
set
ster
sủng
sky
syn
sụng
ts
tề
tè
tời
tành
tắn
tắp
tủi
tât
titan
vế
vung
váo
viển
vảng
vọc
vãi
vèo
vẵn
vod
vén
vằn
war
was
wug
wiki
wifi
xó
xố
xắt
xôn
xúp
xuốt
xốt
xẩu
xéo
xkc
Áp
Úi
àoo
áng
ây
Ăng
ăm
ĐT
Đay
Đùa
Đấng
Đều
đản
đếu
đúa
đụn
ải
ẻo
Ủng
##ml
##m2
##mand
##mir
##meen
##uan
##uez
##P2
##PJ
##oảng
##ning
##nee
##tôi
##tun
##tive
##talk
##ré
##rell
##rma
##deen
##iang
##sch
##sal
##sore
##spr
##ski
##eal
##lim
##yp
##yathem
##week
##49
##aqu
##cal
##cet
##cro
##ctor
##his
##hop
##hard
##hak
##haus
##CR
##29
##gor
##gas
##gans
##gli
##via
##vit
##vey
##vena
##voir
##vika
##xơ
##fj
##fam
##far
##for
##flo
##fort
##fast
##Tech
##po
##pl
##pers
##pper
##95
##Ex
##EB
##DĐ
##SF
##VC
##bốt
##bian
##bio
##bone
##born
##Me
##IM
##ìều
##íp
##HX
##LM
##64
##qo
##jit
##jec
##jolf
##FO
##Fad
##ổn
##ễng
##KO
##ÂN
##ỨNG
##ngar
thé
thưở
thòng
thàm
thùa
throve
chọ
chớ
chỏ
chực
chắng
chãi
chớm
nhó
nhg
nhơ
nhò
nhử
nhữ
nhình
nhang
nhin
nhiểu
nhạnh
nhẩy
##những
trư
trược
tron
trát
trôn
trét
trầy
tryt
trumpet
khập
kham
ngở
ngạn
ngáng
ngụp
nguôi
phới
phực
phàng
phào
phone
phễu
quánh
##uynh
##ots
##otta
chorus
##ayel
rapam
##ane
##ank
##anol
##aniam
##anmar
##ancial
##angi
homeopathy
##ono
##onton
##oncel
##onies
##chio
##chatz
##chwitz
Chan
Chau
Cháy
Chal
Chat
Chiếm
Chate
Chagall
khiễng
##aorani
##ause
##inin
##inav
##aiah
##aide
chỉa
toang
toanh
toạc
khoải
Thả
Thang
Thúc
Ther
Thâm
Thẳng
Thừa
Thum
Thore
Thwait
loè
loan
loáng
##erberg
quyệt
thuât
Trúng
Truy
Trúc
Tril
Trạng
Trượt
Trust
Khỉ
Khẩn
Khuynh
##enson
##enjin
dodo
##aram
##arth
##arsh
##arna
##arias
##arayan
tur
##imo
##iman
tuyêt
đoái
Ngụ
Ngăn
ngoai
ngoãn
xuông
##orah
##orenz
##ales
##aloa
Phí
Phận
Phar
Phăng
Phel
Phthalate
Phyllis
##oss
##oshi
##ely
##elin
##elet
##elow
##elford
##elkar
##eluj
##elbrot
##elaide
thoai
##etic
##etta
##ethe
Ging
Giây
Giày
Giud
Giov
ghìm
ghiền
##isban
##atle
##ilon
base
##itia
##itol
##itect
##itsha
##ask
##asw
##asio
##asti
##olia
104
10h
Houd
Homar
Hocken
dùm
207
##tery
##emey
##emawat
apartheid
##omage
##user
##usta
##raf
##rain
thía
##andi
##andal
##andinav
TEDY
TEDtalk
##uru
##ury
##urii
##ewell
##oie
##ingway
huh
Quái
Quán
Quentin
mãng
##uni
##una
Start
Stux
Newark
típ
Dodi
Dogg
inv
##ahl
##ahili
xoè
xoăn
líu
Albright
##ista
##istine
##oprene
##illus
##ardi
##agel
##agua
##edi
##edom
##edonia
##edIn
##abena
##ipe
##ipeg
##aker
Marl
##ocal
##ocene
videos
Joub
##avela
##ulian
##ulose
1812
##ichu
256
##evar
##umar
Shai
Shuk
Sheep
Shhh
Shaff
Shady
##starter
##irt
##irut
##phy
##phony
##phrey
##phites
Anim
Anony
##ibe
Bros
Brail
Bryn
Brisban
Arr
Arc
Aron
Ardu
Aremey
112
117
Emil
Emory
##uble
mui
muỗng
khuyếch
##hnu
##hnan
hiu
##ute
##ution
cuội
Khoản
Khoai
Johnston
Cart
##ooks
##ooka
HIện
##iving
##ived
##erts
##erty
162
1650
16mm
Baehr
Lois
huyệt
Afric
Ishi
Islam
Isaiah
Lux
Luis
Luce
Luca
##aware
Amen
Amnest
##rush
135
132
##atte
mỏm
##ylus
Colin
Coles
##izer
Harford
##ovic
Lanza
Lancet
Parush
Scud
Scatch
Scalia
Scandinav
Israeli
24h
249
Adolf
Adelaide
##ennium
Hypp
Sanj
Danone
##uganan
Billie
rôbốt
Mouss
McE
McFad
1971
##undi
##ogram
##ogito
##ograph
##assa
##athrin
Anders
Barón
Barani
Barcia
Barnett
Paley
Berlow
Bernie
Bercken
Spino
Spider
##inska
Aparna
Benz
Eddi
Rosa
Rosey
Rosalie
##qui
Baobab
Beirut
Bliss
Blaise
nanô
nanomet
Print
Promet
Pratur
Pringle
slash
Angry
Abdi
Washin
Maeda
Nigel
Smol
##rens
##anni
##annah
Pete
Petra
Petteng
Francesca
TEDxT
TEDxWomen
TEDxUSC
Thompson
##aldine
##aldeh
##etto
##ettner
##perger
Juliana
3500
Daria
Direct
Neuron
Nephites
Michaela
Scha
shot
shop
Heer
Heff
##ollywood
Suz
Suarez
hacking
##okov
Clar
Club
Clare
Who
Whewell
Atatur
##brandt
Market
Markus
Jehov
Jehane
Robertson
Tomas
Willie
999
996
Nature
##estern
##esterday
Flip
Angeline
Sambo
thổn
Mankoff
starsh
1944
Oxi
Oxfam
Reinh
Talking
Baloch
Orville
Sequ
Seatle
##ohyd
Indus
##atchi
Bigelow
##uca
##loween
Madh
Torre
Torah
##other
Copper
Weber
##PASS
Burt
Burg
Burton
Burundi
vờn
##azzar
260
Ahh
Enter
Hawkins
##ense
##ensen
##enschatz
Grim
##merwe
##SDF
MTA
MTT
centimet
Monty
Delle
Delta
Delaware
Perony
Janet
Morgan
Baby
Swaz
Swartz
Swenson
Swahili
Wars
Meng
Kings
MacAr
Naná
Myanmar
##carbon
##ilda
Deqo
Worldchanging
CyA
Herman
Wallace
General
##itzer
Building
Buettner
Mandelbrot
server
Bobo
Union
Under
xentim
Brooke
Serbia
##cany
Jennings
Abrahams
Capitol
Jaclyn
Large
Larsson
Raymond
Turkm
Vienna
##ectrogram
Jeffrey
Forr
Avril
Kyle
##enhower
1915
1912
Huh
Hux
Huấn
Huaorani
Hillis
Roche
Asperger
Golden
##ECT
Carlos
Ghế
Ghemawat
Kirst
##mous
nhíp
Knop
Louie
Muruganan
Sandor
Sandra
spectrogram
Ernest
Ethel
Hancock
Ramsey
milimét
##yengar
McCarth
380
Keller
Shermer
440
Clint
Graves
Merr
Merz
Saima
truồng
truờng
##amba
Krug
Randall
Siyathem
SOC
##uchu
##olymer
Botox
Skinner
Xuân
##doch
1939
1933
Auschwitz
Ign
Duflo
Keats
Portal
Telecom
Basil
Exp
Helvet
Image
Juanderson
Kalenjin
Mira
Miami
##IAC
violon
Britlin
Network
##ctic
##ascus
AOL
Duran
Newsweek
1875
1870
Annan
Boyd
Boys
Boyle
Whitney
FOXP2
413
581
Ache
Garone
##inness
##rahim
Frieda
544
Dicke
IMU
IMPASS
Resour
ghềnh
1908
Shea
Halleluj
Rodney
Senior
Sebasti
##osaur
Grandin
826
Ganson
Halloween
board
Stress
Stratford
sandwiches
Damasio
Mairead
THPT
Carrie
Doris
German
Gerhard
Geraldine
Gordian
Metric
Metrop
PCCC
Pierpont
whoa
##zzar
nhổm
Schwar
Levy
Levine
1885
1880
Legacy
Clooney
Debora
Deborah
Hunts
Jobrani
Limor
Porco
Rebel
Sangu
Woods
sonic
Nguyen
Sharmeen
Michelin
FedEx
Moby
Mikko
art
paj
Khaled
Todd
CHỨNG
Dunbar
Labs
Narc
Winter
isoprene
memes
network
##eberry
Instit
Johanna
Scient
Astro
Crock
Humphrey
Hindi
Kane
Lyne
Purs
Purple
Pranitha
Rubin
Velde
Velcro
Wyss
sulf
Heatherwick
Ebola
Ninth
Rembrandt
TED2008
Brother
Robben
Tweets
Ballbot
Hemingway
Limbaugh
NGH
Poor
Pavlov
Sinaloa
Vishna
Shepherd
Bluegrass
Ayelet
Bacillus
Cisco
Jorge
Kwabena
Krishna
Pearl
SIM
Sumatra
Summerwe
Safeway
asp
##ytes
##zoin
Balkan
Bailey
Googler
IDEO
Ingrid
Munroe
NHÂN
Nadia
Rupert
TEEB
XIX
headphone
uhm
Hodg
Tajfel
Fransisco
1759
Elliott
Ferrari
Krista
Aquarius
BBQ
Bjorn
Eisenhower
GCSE
GIờ
Guttenberg
Handel
Handspr
Herschel
INK
Jawbone
Kohler
Leroy
Mises
Nielsen
Pentium
Pallotta
RAM
Tutsi
Vibro
Vodka
Xcốt
cassava
dotcom
formaldeh
kangaroo
silic
đơợc
##PTHX
##beater
Chapman
Chaplin
dingo
Maasai
Griffin
Griffith
adrenalin
adrenaline
DIYbio
Agaricon
BASE
Bismark
Citiz
Financial
Fisher
Jetman
Kílian
Pashtun
Pradesh
Reykj
Tilson
Tuscany
halal
heparin
##matic
##cordion
Anatomage
Parikrma
Santee
Protein
Majora
Ecuado
Rodrigo
sunfat
Johannesburg
Hutchison
Borneo
Court
FEED
French
Kareem
Nabokov
Nashville
Rudy
Sidney
Tatum
Tillett
hippie
lesbian
scrot
xịn
##virus
##fried
Stuart
caffeine
Shelf
Emanuel
Eliasson
carbohyd
Blakley
Hercules
Provid
46664
Skylar
Kamkwamba
Polaroid
Medicine
Federation
impactful
nucleic
Pachycephalosaurus
Aylward
Aberdeen
Bouba
Bible
Bazooka
Center
Dhabi
DEPTHX
Etete
Flints
Gagarin
Lionel
LinkedIn
Mashelkar
Nyad
Pedro
PRISM
Sitopia
TOR
Wadah
Winston
Zuckerberg
break
coltan
elegans
gíc
nệm
pasteurii
router
yards
thrived
gigabyte
Chaos
Champs
Treatment
xunphua
Armenia
Leadbeater
Isaac
biophony
##uggets
Benefield
Benedict
TEDxMid
Attia
Mujahideen
Karolinska
xenluloza
Discovery
Production
Magellanic
Belshazzar
Rhodes
Recording
Pragmatic
nicotine
reCAPTCHA
channelrhodopsin
Aubrey
AIDG
Bowery
Bihar
Cirque
Catholic
Dalai
Dartmouth
Frost
Gooch
Gourley
Gatsby
Hitchcock
Ibrahim
JQ1
Jinsop
Koblin
Kinect
Krypton
Kitchen
LXD
Lahore
Leyla
Lestari
Leopold
MDG
Mowgli
Nintendo
Nachtwey
Ostrow
Ockelford
PDF
Pleist
Poupon
RTPJ
Ritalin
Railway
Sinek
Soviet
SIDA
Sakkaf
Vusi
Vannevar
Vasconcel
Vauxhall
WOW
Winehouse
Wendy
Winnipeg
Yentl
Yucatan
bossy
bindi
cyborg
cellulose
cricket
favelas
garage
heroin
hemozoin
pacak
retrovirus
snack
vodka
xkcd
ĐTDĐ
##jolfsson
trytophan
chorusing
##ayelitsha
rapamycin
Chateau
Thoreau
Thwaites
Trilogy
Giovanni
Homaro
Hockenberry
Joubert
Shaffi
Anonymous
Braille
Brynjolfsson
Brisbane
Aremeyaw
Africa
Amnesty
Parusharam
Scandinavia
Hypponen
Baraniuk
Spinoza
Pratury
Pettengill
Ataturk
Jehovah
Samboja
Balochistan
MacArthur
Turkmen
Muruganantham
McCarthy
Siyathemba
Helvetica
Hallelujah
Summerwear
Handspring
formaldehyd
Reykjav
Vasconcelos
02
08
050
3m
3M
320
3mm
4x
4G
530
620
8h
81
9h
Aida
Astr
ALS
Ajit
BC
B1
Bới
Biện
Bính
Bùng
Bạo
Bền
Bút
Bầy
Bag
Bey
Bip
Bik
Bio
Bìa
Batt
Bla
Bander
Box
Bela
Bound
BRI
BPA
Bour
Buk
Bue
Bụi
BMA
Bhar
Bake
B12
Bavel
Boing
Bollywood
Cư
Cột
Cân
Cống
Cường
Cer
Căng
Cốc
Cus
Cob
Cưng
Card
Cut
Cud
Core
Củi
Cướp
Cain
Cuk
Cobal
CHA
Cave
CMU
Dw
Dj
Dong
Duy
Dành
Dao
Dạo
Dơi
Dim
Dic
Dob
Dist
Dud
Dyl
Dami
Doll
DEC
Dors
Dame
Desk
DOPA
EO
EX
EI
EU
EZ
Eil
Eig
Eag
Ether
Electron
Eps
Egg
Fot
Fau
Fal
Fis
Fra
Fut
Fry
Fink
Four
Fuk
Flyn
Faron
Field
Fischer
FLS
Floyd
Fiji
Gw
Gb
G7
Gop
Gev
Gara
Geg
Gượm
Gero
GHz
Getty
GSM
Gavin
Gothic
Gnee
Hm
HT
HD
Hộ
Hiên
Hùng
Hiểm
Hút
Hứa
Het
Huyết
Hur
Hid
Hew
Hèn
Hert
Hond
Hier
Hale
Holl
Humb
Holm
Holy
Hẻm
Hugo
Iw
Ike
Ide
ISS
Ji
Jh
J2
JL
JF
Jang
Jag
Just
KI
Kê
Kỉ
Kel
Kit
Kad
Kard
Kub
Koy
Kyr
Kênh
Kumb
Kowan
Kahn
LP
LZ
LÀ
Lành
Làn
Lục
Lệnh
Liêu
Lal
Lắp
Lol
Lom
Lus
Land
Lưỡng
Lặn
Led
Lưỡi
Lợn
Live
Lasc
Lobo
Laptop
Mì
MỘ
Mái
Mâu
Mảng
Mạnh
Mom
Mein
Mond
MID
Math
Mind
Mượn
Mend
Mald
Mota
Muk
Mini
Metro
Moto
Mỉa
Mather
Mister
Mmmm
MARS
Ns
Nơ
ND
Nỗ
Nêu
Nal
Nas
Nâng
Nặng
Nav
Nul
Nice
Nesh
Neop
Niet
NIC
Og
Ooo
Olo
Oed
Oort
Omar
Owen
Omen
OCR
Pô
PU
Pis
Paz
Pick
Pud
Pike
Past
Pix
Piano
Penh
Piff
PLA
Pune
PDA
Penz
Pean
Pange
PTT
Payne
People
Powell
PVC
Pagel
Quyến
RP
Rc
RE
Rẽ
RF
Rác
Rus
Rùa
Rib
Rast
Right
Round
Rami
Ritch
Ragh
Rott
Rafi
Rassel
Sứ
SG
Sung
Sữa
Săn
Sạch
Soc
Sec
Side
Sina
Sund
Sog
Soy
Svan
Soto
SBI
SEF
Ts
TA
TI
Té
TR
Tước
Tung
Tắt
Tấn
Túp
Tud
Test
Tier
Tât
Tumb
Tavi
Tivi
Ticket
UV
UM
UK
Uld
Utt
Ueli
UFO
Va
Vé
Vác
Vững
Vời
Vết
Vắc
Ván
Vos
Vas
Vig
Vick
Vera
Vall
Vers
Veron
Vlad
Varty
Vesta
Vardi
WW
Wan
Won
Wit
Wing
Wak
Work
Wern
WMA
Witt
Wade
Wax
Wafi
Wehr
Wayne
Xà
Xê
XY
XK
Xia
Yên
Yang
Yes
Yip
Yitz
Yesterday
Zw
ZX
Zen
Zim
Zem
Zac
Zod
Zvika
av
agra
biều
bết
bọng
bèo
bảnh
bỉnh
ball
bùi
bitch
benz
bẵng
bingo
bươm
block
câ
cã
cới
cước
cos
cúa
cir
còm
catch
coli
crô
cogito
dr
dúng
day
diên
diết
dổi
dát
del
dep
dũa
edit
erect
exe
fl
fre
favela
gả
gạ
gới
gằng
gường
gỏi
găm
gor
guốc
gua
gáp
gly
gov
gẫm
global
hó
hể
hỉ
hất
hường
hâu
háng
hởi
hĩnh
hòi
hash
hớn
hớp
iC
ill
ju
jet
jeb
jeep
junk
ke
kỏ
kình
kit
kèo
king
kHz
ló
lĩ
lất
lạn
lin
liến
lọng
lẳng
lừng
luống
lạng
lip
lói
lexico
limb
life
lỏm
lego
m2
mấp
mọn
mắm
med
mou
mói
mash
mass
mít
mile
mõm
maki
methyl
nị
nỡ
nướ
núc
ních
nán
náy
nảo
nêm
núp
nat
nựng
nice
nịt
our
pi
pal
pes
plex
pred
punk
prof
plasma
rơ
rè
rỗ
rú
rĩ
rình
rườ
rường
rận
rát
rắt
rêu
rốc
rứt
roll
ríu
sy
sủ
sột
sến
sam
sạm
sượt
sẳn
sứt
sủi
sẫm
tỵ
tiều
tược
tếu
tậu
tic
tậm
tiêng
tượt
tẩu
ted
tấng
um
ups
uổng
vầ
vù
vạ
vỉ
vông
vược
vởi
vôn
vợi
vas
vẩy
vãng
vest
vẹo
vector
wo
will
xết
xối
xẩm
xụp
xiềng
yết
yểu
yadda
zo
zzz
zipcar
Ào
Ân
àm
áy
ôxi
ôliu
ùa
úa
ĐI
Đùng
Đập
Đích
Điêu
Đạp
Đua
Đẩy
Đèn
đư
đọ
đanh
đát
đỏi
đẫn
đăm
điếm
đáu
đạng
đẩu
đớp
đén
đât
đỉa
đẵng
đrô
Ương
ại
Ếch
Ối
ối
ốp
ới
##mg
##mà
##mes
##mus
##mun
##mian
##mite
##mahl
##uu
##uka
##uania
##uire
##uardo
##PF
##Pix
##PER
##oC
##oil
##oora
##ofi
##not
##nan
##nam
##nom
##nard
##nói
##nier
##note
##tn
##tal
##tran
##tec
##town
##taire
##tamer
##reo
##rip
##rino
##rive
##rika
##rquez
##dn
##dl
##dis
##dle
##dom
##date
##dington
##dha
##diving
##ián
##iew
##ión
##su
##sb
##sin
##sor
##sideo
##sche
##span
##surf
##eR
##kon
##kas
##kara
##ksw
##lr
##là
##los
##lid
##list
##lich
##look
##liv
##less
##lers
##lish
##yu
##ys
##yam
##yro
##yola
##ysus
##yrann
##wau
##wid
##wing
##wig
##wana
##wish
##western
##53
##aX
##aah
##cter
##cac
##của
##cino
##czy
##hen
##hor
##hip
##hack
##hek
##hoff
##herty
##AB
##AW
##City
##CLU
##ôt
##gang
##gis
##git
##gall
##gina
##gara
##gram
##gado
##ứơc
##von
##vat
##vind
##vant
##xic
##xites
##fir
##fly
##fox
##form
##farin
##13
##Bird
##BeR
##GB
##GE
##Get
##TV
##pel
##pil
##pad
##pid
##pert
##pash
##pod
##pee
##port
##page
##pris
##project
##EE
##D2
##VA
##ONG
##bis
##bit
##but
##back
##beck
##81
##zch
##znia
##zquez
##zsche
##78
##Mot
##Mar
##IS
##Ind
##ăp
##Rock
##RUS
##ázquez
##LL
##ợng
##600
##qua
##jon
##jou
##jazz
##jaro
##jandro
##Fi
##FC
##ịm
##ND
##NIAC
##UC
##Up
##York
##Walk
##đó
##đã
##đun
##Kinn
##ngu
##nge
##ngh
thừ
thới
thau
thày
this
thẩy
thiếc
thiêt
chình
chấy
chặc
chồm
chùa
nhọ
nhè
nhú
nhuố
nhiểm
nhộng
nhiền
nhậu
nhón
nhọt
nhựng
nhụt
nhếch
try
trức
trính
triến
tren
trâm
trạc
trám
trạnh
trạch
trủng
trót
trĩu
khiên
khước
khổi
kheo
khâm
khộng
ngac
ngớt
ngổn
lài
phạn
phia
phấp
phộng
phảm
phỉnh
phage
phui
quơ
quị
quại
quạnh
quằn
quẹo
giẻ
giã
giãi
giẫm
giếm
giêng
tau
tag
taig
talk
nghiê
nghía
##uya
##otitan
##oturf
##otylus
##otyrann
chop
choạng
Vành
##ayette
rand
raku
##any
##anz
##anam
##anet
##aniker
đển
hoỉ
hoay
hoạc
hock
hope
##onna
##chúng
##chen
##chia
##chev
##chley
##chant
##church
Chôn
Chấp
Chút
Ches
Chẩn
Chậm
Chav
Chick
Chlad
Change
Chitra
Champ
Chlam
##ướn
##aoh
Nho
Nhẹ
Nhứng
Nhắm
Nhât
##aun
##aut
##aul
##aude
##aungu
##aiya
##aipur
đềm
##ungu
##unge
khoàng
khoắc
khoáy
khoắn
Thợ
Thác
Thính
Thạc
Thắng
Thiền
Thám
Thạch
Thand
Theme
loay
loảng
loạng
loud
loẹt
##erg
##eris
thui
thìa
Trớ
Trào
Trăm
Trad
Troll
Trott
Tracey
##amine
##amín
##amets
cứa
Khao
Khỏi
Khat
Khớp
Khayelitsha
##enes
##enton
##enya
##enbr
##ency
##iac
##iah
##iale
dog
doang
domain
double
lum
luc
##arh
##arro
die
tuồn
Đón
##imes
##imir
haiku
Ngũ
Ngự
Ngẫu
xuý
xuể
##orov
##alon
##alam
##aley
##alind
trịa
Phe
Phó
Phù
Phạn
Phốt
Phnom
kếch
khuông
##esco
##oseberry
##elis
##eleine
thoã
chuôt
##eter
##etel
##etri
##eteli
##etitia
##etnam
chít
Già
Gián
Give
soạt
soda
ghì
##isi
##ision
##isenberg
##atic
##ative
##ilight
##uahua
##itas
##ittin
##ituc
##itage
##itesh
##ities
##asia
##asub
##asma
##olo
##olina
##olog
##olitan
##olution
108
106
10km
How
Hoan
Hoạch
Hour
Hoover
Howey
Homeopathy
buff
víu
203
206
##led
##lewood
##lehem
##emb
##emaster
aptamer
##omy
##uston
##uska
##rak
##rag
##rap
##raen
##aca
##acas
##acter
##acab
lag
##aday
##adan
##adter
##adad
##adne
##andis
##andra
##andria
##andreo
TEDA
TEDX
TEDInd
##uras
##idan
##idone
##ewer
##ewilding
anth
##ooc
##oire
##ingdale
huân
huênh
tệp
Quận
Quét
Quãng
Quest
##rou
##roc
##royo
##unn
##unach
Stage
Stacy
Stawi
Stamets
30m
30s
30cm
Newfound
NewYork
Dozo
nhuệ
##recht
##regor
##repo
##ige
##igade
ướm
Int
Insulin
Inside
Incept
154
155
inter
insideo
##ahir
xoài
xoàng
xoảng
Conc
Conner
Conrad
phiá
Ald
Alh
Alon
Alav
Alma
Alisch
##istol
##rana
##ope
caí
Tuyển
##ieux
genital
Nghỉ
Nghiện
suey
##agra
##aglid
128
127
123
##loh
##edy
##inejad
##eya
##aby
##abit
##abytes
##ipus
##aku
Maris
Marge
Marley
Mariana
##ocar
##ocol
##ocaly
##ocopy
Joaqu
##avu
##avio
##avere
##ular
tùm
Yorke
##ianna
##sons
184
1840
405
40km
40m2
Taz
Taps
##ikha
##ikuppam
##ikeya
##hanti
cũa
##ichi
##ichie
##ichini
##outi
##ougall
chờn
duh
##eve
##eves
##umi
##uman
##umin
Shiv
Sharon
Shiva
Shrir
Shiger
Shree
##stem
##stoy
##stadter
Haifa
##irk
##irin
Anil
##apolis
##ibi
##ibar
Bres
Brid
Brigh
Brene
Braun
Bristol
Arby
Arush
Arts
Arias
Arctic
Arvind
Arroyo
Arunach
Arianna
##ific
##ifert
##iface
##iform
114
111
Emdin
Emmart
##ubi
##ublin
##utu
##utkin
##utproject
##icker
##udi
Toa
Toole
Haydn
##ents
##mpus
nhẹm
Cary
Caracas
##estein
Lehi
Lepage
##ivak
Theodor
16K
Baja
Bacha
Loa
Loạn
Loạt
Loft
Logan
Loyola
tantal
prom
huyễn
Afra
##allam
##allum
##arti
Lucas
Lupash
##awes
##awak
144
148
14000
##essori
Davos
Ami
Amb
Amos
Amund
Amstrong
##gei
Kenny
Kenyon
134
Caliban
Calvin
Caledonia
Franz
##ème
##ecue
protocol
##atti
##attfel
174
1700
##ffen
##ffington
Cole
Colbert
Columb
Coleman
##izz
##ization
##ersk
Hare
Harlan
Harbor
Harbis
ruồng
rupe
##ova
##onda
Lane
Lance
Brain
Cantu
Pari
Okollo
Charley
Charmian
Scar
##shak
244
Ada
Adv
Aden
Adink
RoboC
Camilla
Sanford
Santo
Sanko
##egen
Dance
Michal
Micheal
##ithia
##acha
##ekel
Twin
Twilight
400000
Moh
Moai
Mount
Mohr
Mounta
Talmud
Talwar
Talithia
##ogo
emails
##epper
##atham
##athrow
##gok
andros
tịnh
##bury
Andres
Barrow
Barcl
Palme
Paldin
##indler
Berken
Monrov
Spir
Spiel
Space
Spitzer
Spivak
##ramer
##ramaniam
##insula
##rict
Edmund
Eduardo
Rosin
Rospil
Rosalind
##quist
##quest
Beam
Bees
Bengal
Blan
Blend
Blake
Mayo
Press
Pratham
slides
Aba
Abid
Washburn
Boswana
vởn
##onymus
Bangoora
Evil
Maez
Maersk
Smits
##heus
Crash
Crunch
Crete
Cristine
Stevens
Pets
Petrus
Petri
MIN
TEDxA
TEDxD
TEDxHo
##enda
##endish
Wikile
clathrin
##peridone
Julius
Julián
Laenn
Laetitia
cacbonic
Dijon
Schelling
Schrod
Schindler
232
2300
shoo
shalan
shirt
shekel
Heide
Healy
Heuser
Heisenberg
Heathrow
##peace
##peii
##penhe
Freeland
Freedom
Suỵt
##okite
Clive
Close
Claude
What
Atta
Atari
Atlas
Atlass
##brook
Markham
Marketing
Obaid
Obiang
Walkman
Tomb
Willis
menu
226
##aines
##ainier
Manuel
Manila
Managua
##fts
Mala
Malin
Malone
##oldt
iPhones
Gucc
Guinness
Scotch
Rees
ReMot
Reeve
rada
đẽo
Carole
Alexandria
Balasub
Origami
Seine
Seuss
ami
amar
amip
Indian
Noble
alpha
##celium
##view
##ernan
Transform
Saharan
##issus
Biggie
##uct
##tocotylus
##ething
Madoff
Madonna
Madeleine
Torres
xỉu
xỉa
##otaxites
##otho
Copacab
Greenspan
Greenpeace
Burstein
Libesk
##anto
Christine
Christien
Christchurch
Peterborough
##efer
##eflying
2600
Eno
End
Eni
Hawa
Acorn
##usse
1990s
Gallo
Simone
Tupper
Tufts
hydrocarbon
hydrocac
Montessori
Perel
Perasa
xém
Williamson
Henri
Morin
Morieux
Micr
Micro
Baba
Swat
Swaniker
Warhol
280
Boniface
Mahler
Mahattan
Zeisel
1955
Meade
##ations
GoGet
Gooseberry
Macy
MacD
MacKinn
Nanotyrann
##upsy
##weiser
Mysore
ghém
Deavere
Donne
Singer
axon
laugh
Glattfel
Here
Hercles
Hermes
Heritage
Matas
Matrey
Plaza
accordion
From
Frida
Fresh
Salgado
serif
Millennium
Melville
Melcher
Olympus
Sergei
Tammet
Tampa
Virgina
##itchik
5500
Bolinsky
CPU
Capgras
Jacek
Turner
Vietnam
Bront
Danielle
370
Force
Forte
Forever
Wolfe
Wolfgang
##oleon
Lauder
Laurence
Southam
Taymor
Longden
Moss
Moshe
1913
Huỷ
Huffington
Hillel
Teddy
marmite
twitter
AirPix
Aston
Asner
Ashanti
Ferren
Ferdin
Streetview
Eccles
Ghê
Jayant
Proust
Proctor
Projec
Robots
Robotics
##sees
##ghese
nhíu
Dench
Dennett
Louvre
Murphy
Murdoch
Magic
Magaz
Magrit
Sandwich
spec
Hanczy
Môt
Milgram
Ramon
Ramadan
Soon
Soát
Terkel
Termin
McCune
McCallum
Bioph
Biology
Buddha
Budweiser
Nicklen
electrons
kilogram
##niez
##harata
Chuông
Sherwin
Grady
Highline
Merchant
Masai
Missmahl
Raq
truất
Scottish
Krill
Random
Sietas
methane
##ucha
##uchadne
##ingsworth
862
Botero
Caj
Skoll
1934
1931
1936
Bharti
Case
Katy
Rogers
Slavin
Slaugh
Slutkin
Tahiti
##ottir
Agusta
Bird
Dunham
Haven
Hiroshi
Maur
Maurit
Maureen
Porto
##azeal
Ashok
Ashburn
Basin
Excel
Express
Juillia
Kaminsky
Kalash
Miwa
Oppenhe
Khanfar
Dougherty
Marcin
Britney
Carnival
Benjamín
Aravena
Curios
Lawler
Netscape
Valencia
Wells
##ctal
Thưc
acids
Beloit
CityWalk
Radjou
Soler
Solove
euros
xổm
hormon
1871
McDougall
Templar
Hadfield
Hadrian
Pollan
Police
polyme
đựoc
##aign
Campaign
Hawkes
English
Garrett
Garniez
gradi
itis
##boro
Chiat
Superman
Superior
Friedrich
##graphical
529
Dickens
Sadik
Urh
Urb
Ursus
gelatin
Trừu
Giêsu
1903
Sheikh
Sheikha
Aurasma
CSP
Corbus
Music
Musallam
Saatchi
Volkman
Voltaire
Volksw
Viktor
##visor
rapper
##enzie
InteraX
Clayton
Rachelle
Ganesha
Kuhl
UNI
##iroxic
##flon
nhẽo
##strom
McKenna
Damascus
Kibaki
Maison
Ontar
Tiêm
Tirana
Thoát
Carrel
Carroll
McGrew
Beauvoir
Beaufort
Jacobson
Denise
84k
CLIM
Metcal
Mirren
Miriam
##scap
##không
viêt
539
Levin
Papandreo
Typ
Tyrann
##hru
TED2012
TED2013
Legos
micromet
390
Aziza
Hazlewood
Ixraen
Nova
Novak
Sophal
Woody
Cheney
1891
1863
Michelle
Michelangel
Williamsburg
Bowden
Dayton
Fedeli
Geert
Geary
HSBC
Mikey
Megaff
Target
arch
argh
Steiner
Steinberg
Steindl
Todorov
Maxwell
Sergio
Jacqueline
Phillipines
CHúng
Lesley
Lesotho
Lynch
Mulgan
Pinney
mega
##camole
##busters
Breazeal
Kanji
Kanwish
Kidd
Piar
Selinger
Toni
Velázquez
Wyatt
lởn
##iyah
##feld
burn
Economics
Athens
Eben
Honor
Ninja
Reggie
moan
update
##tisland
Hobson
Hobbes
Hobsb
TED2006
##appiness
Burntisland
Waterhouse
Watergate
Denisovans
Cody
Fulla
Gallery
Mallory
Mallifert
Praagh
Review
Sarawak
Vishnu
myBO
mycelium
##uhahaha
##aaaa
Chinoy
Chinanet
Housman
2025
2027
Michoacana
Diamandis
neutrino
Pythago
034
Autom
Bethlehem
Krishnan
Lemon
Safdie
Wolff
Wolpert
Zacharias
elip
##biot
1824
1829
Caribê
Frederic
Mechai
Butler
Bloggs
Dawn
Esta
Estelle
Grammy
ICU
Lowline
Muniz
Niagara
Paddy
Rahm
STriDER
Shannon
Ventura
WiFi
XIn
heads
##nisone
##worthy
Chevy
Rajiv
Bitcoins
Eisner
Fullbright
Hebron
Hartman
Model
Napoleon
Omega
Peninsula
Rainb
Team
Vitamin
Vitru
Vibrio
Xcot
Yossi
balo
format
##eloping
Steel
Steffen
1813
Shinola
Collier
Maasais
Ahmadinejad
Motorola
Axis
Agarwal
Baumg
Cacilda
Fernand
Hellum
Mackenzie
Outlook
Prada
SPECT
Sevitha
Takaungu
USAID
Village
Xoay
scandal
##lkner
##houette
##america
Anatotitan
Brené
Brahimi
Canaletto
Parikma
Barnaby
Prototaxites
Major
TEDxSydney
Ecuador
ESPN
Rodriguez
sunfua
Adventists
Auenbr
Besser
Beckstrom
Cavendish
Dutton
Diffee
FILM
Firestein
Firefox
Habibi
Hughes
Jaipur
Kafka
Mwangi
Mwenda
Mugabe
Mehico
Mullis
Pompid
Pompeii
Patten
Ricard
Ricardo
Runner
Rushing
System
Savannah
Sokol
Sokoto
Tzu
Wonder
Wonderbread
biogas
##hemoglobin
chyện
Chihuahua
##aikum
Tribune
Tribeca
Gibbon
Dodson
Constituc
Alessandro
1787
TEDxRainier
Reichental
Mahabharata
Nicolaus
Nicolelis
Valenti
Becky
Boothe
CBGB
ETH
Elysees
EcoRock
Famillia
Garten
Hexanol
Horner
Hijaz
Jakarta
KHÔ
Kunst
Killingsworth
Kickstarter
Kartikeya
LISA
Lélia
Letters
Lithuania
MSN
Nitơ
Nebuchadne
Otto
Office
Rolling
Sapling
Sasha
Saturday
Siegel
Takei
Woznia
Widow
fusiform
jumping
multi
pshoo
reading
sapien
yaourt
photocopy
##anesia
Hogwart
Doolittle
Shuff
Shimon
Shapshak
Issac
1455
oxalat
Adriatic
Pretor
Abbey
Tinkering
SmartBird
Lafayette
Buchanan
Kymaerica
Whitesides
Snoopy
Girls
Baptiste
Uzbekistan
Paralympics
Alejandro
Baldwin
Bamiyan
Cayman
Cranbrook
Dionysus
Declan
Dassen
Gonz
IUCN
Kiliman
Kraft
Kipling
Kallikuppam
Kimbo
Livermore
Márquez
Mundano
NPR
Ntaiya
Nerve
Othello
Octavio
Plains
Pogue
Planet
Rotich
Restrepo
Rustichini
Sabia
Sacks
Sussman
Soleil
Tolstoy
Tikal
Udaipur
UAE
Waal
ergo
gluon
nacho
ounce
panô
risperidone
stereo
skydiving
titanium
warfarin
wasichu
nhữn
turbine
Pharaoh
Phelps
Giudice
##itecture
TEDYouth
Stuxnet
Shukla
Arcade
Arduino
Emiliano
Cartaya
Moussao
McFadden
##ography
Prometheus
Washinton
Smolin
Schaefer
Heerden
Heffernan
starshade
Madhav
CyArk
Kirsten
Knopf
Kruger
Telecomix
Resources
Schwarzch
pajama
Narcissus
Crockett
sulfate
Hodgman
Citizen
carbohydrate
Providencia
Flintstone
Productions
Kryptonite
Pleistocene
Turkmenistan
formaldehyde
Astroturf
BCG
Banderas
BRIC
Bukavu
Buechley
Bavelier
Cervant
Custer
Cuddy
Cukier
Cobalt
CHAT
Dweck
District
Dylan
Damien
Dorset
Deskbar
EXL
Eileen
Eigen
Eagles
Etheridge
Epsilon
Eggers
Fotokite
Faulkner
Finkle
Flynn
Gopnik
Gevinson
Gegenschatz
Gneezy
HTML
Hetain
Hertz
Honduras
Hieronymus
Holladay
Humboldt
JFK
Jagger
Kadinsky
Lolita
Lascaux
MỘT
MIDI
NDD
Nalini
Nuland
Neshat
Neoprene
Nietzsche
NICE
Olof
Oedipus
PUMA
Pisani
Pickles
PLATO
Penzias
Pangea
Rcif
Ramirez
Ritchie
Rasselas
Soyuz
Svante
Tunguska
Tumblr
Ticketmaster
UMBC
Uldus
Uttar
Vladimir
WWF
Wonka
Witness
Wernick
WMAP
Wehrli
Yitzhak
Zodiac
erectus
flupsy
gorilla
guacamole
globaloney
hóoc
kỏoảng
lexicographical
limbic
mouflon
prednisone
profile
rườm
woai
zoom
##surfing
##CLUB
nhuốm
taiga
nghiêp
hockey
Chicken
Chladni
Chlamydia
Thandie
Khatanga
TEDIndia
Newfoundland
Inception
insideoutproject
Alaveteli
genitalium
##agliding
Joaquin
Tapscott
Shriram
Shigeru
Arusha
Arunachalam
Loftus
tantalum
Lupashin
Columbus
Harbisson
Okolloh
Adinkra
Sankofa
Mountains
androsten
Barclays
Monrovia
Spielberg
Maezza
TEDxHouston
Schrodinger
Atlassian
Gucci
ReMotion
Balasubramaniam
Transformers
Copacabana
Libeskind
Tupperware
hydrocacbon
MacKinnon
Nanotyrannus
laughing
Glattfelder
Matreyek
Ferdinand
Magritte
Hanczyc
Terminator
Slaughter
Juilliard
Soloveitchik
Corbusier
InteraXon
##iroxicam
Ontario
CLIMBeR
Metcalfe
Papandreou
Michelangelo
Megaffic
Kanwisher
Hobsbaw
Vitruvian
Auenbrugger
FILMCLUB
Pompidou
Constitución
Nebuchadnezzar
Kilimanjaro
Schwarzchild
Cervantes
06
1g
1km
2h
2x
2G
3g
3S
3R
3cm
3PO
4m
430
512
5Hz
730
720
850
AP
A3
AH
AU
AJ
Ain
Aam
Aed
Aak
Aman
Ace
Aky
Award
Auck
Aja
Ayd
Aeron
Aww
APL
ALU
ASDF
Bó
Bơ
BD
BV
Bọ
Bở
Bá
BL
B6
BÙ
Bột
Búng
Biều
Bọng
Bim
Bão
Bắp
Bes
Bic
Bad
Bid
Boo
Bing
Bặm
Béo
Bee
Bland
Bast
Boh
Blow
Bye
Bors
Bitt
Bula
BLA
Bull
Bustin
Buten
Bastian
Boko
Batur
Bomb
Bakh
Books
Cs
CÔ
Cận
Cáo
Cưới
Cạnh
Cic
Cua
Cand
Cah
Cáp
Cill
Cum
Cell
Cov
Cta
Cler
Cier
Cinc
Cory
Coop
Cats
Crad
Crane
Dị
DN
DW
Dã
Dot
Dang
Din
Dài
Diệu
Dáng
Dán
Dẫn
Dia
Diệt
Dre
Dill
Dell
Done
Dett
Drop
Def
Dust
Dora
Dyan
Deton
Damb
Dulu
Diva
DSM
Doing
Diller
Dirk
ER
EW
Eet
Eti
Eug
Ester
Ett
ELA
Eiger
Easter
Ekman
Echel
Euan
Fu
FA
FC
FD
Fê
FU
Fay
Fos
Fit
Fle
Fem
Fur
Fick
Figh
Flan
Fare
Fold
Fitch
FAR
Frog
Feyer
Fife
Fallon
FMRI
FAA
Fehr
Faust
Fusion
Fonda
GP
GM
Gỗ
Gai
Gối
Gạt
Gợi
Gos
Gel
Gua
Gah
Gert
Gers
Gov
Gug
Gach
Gate
Ghe
Gosh
Gust
Goll
Geron
Gott
GRA
Gobi
Gaus
Games
Gafi
Gusty
Gaul
Gaines
Hở
Há
HK
HÃ
Hin
Hes
Hil
Hiếu
Hạng
Hah
Hak
Hib
Hass
Hend
Hors
Hull
Histor
Hrab
Hague
HBO
Hesta
Happiness
Iv
Iqu
IPS
Iain
Iver
Iwe
Icar
Idi
Ida
Ikar
Irene
Iwan
Iyengar
JP
JD
JW
Jao
Jew
Jeb
Jah
Jone
Jump
JET
Janna
Jae
Joie
Jensen
JAW
Ký
K2
Kg
KG
Ké
KW
KK
Kiên
Kon
Kung
Kêu
Kol
Kand
Kak
Kav
Kore
Kess
Kash
Kail
Kov
Kosh
Kén
Kary
Kẹo
Kaland
Kuch
Keck
Krane
Kitra
Kacy
Koro
Katherine
Ketter
Kuppam
Kumar
Krens
Kramer
Lh
LC
L1
LD
Lỗ
Lạ
Lổ
Lông
Lược
Lot
Lỗi
Lia
Lào
Liền
Lầm
Lẩn
Lis
Lừa
Lặng
Lúa
Lop
Lav
Lul
Lian
Lich
Look
Liv
Lier
Loll
Lyd
LMA
Lenz
LSE
Lydia
Lorenz
Luna
Local
Lyengar
Lublin
MB
ME
Mb
Mộ
MJ
MƯ
Mác
Mung
Mập
Mắc
Mánh
Mạc
Miêu
Mol
Mưu
Mine
Mou
Mex
Mood
Mile
Mix
Mish
Meth
Mazz
Must
Mup
Mitt
MCA
MHz
MET
Mrace
Mother
Mooc
Nu
Né
Nến
Ninh
Nai
Nữa
Nút
Nuối
Nét
Nồng
Nuốt
Nur
Nag
Nine
Nip
Num
Nore
Naw
Ness
Nail
Nass
Nate
Nann
Nies
Neda
Nij
Nava
Navi
Nesca
Nolan
N95
NSF
Oy
OS
OL
Oates
Ony
Oef
Odin
Odon
O600
Pf
PB
PE
PL
PJ
Pét
Pas
Pill
Ply
Paw
Pec
Peg
Poy
Pann
Plex
Puck
Pern
Push
Pesh
Pitt
Pisa
Pinn
Piet
Pagan
Peek
Pelop
Paint
Polymer
P53
Puya
Qat
RS
Rin
Rắc
Răng
Rửa
Rạp
Roi
Rig
Rop
Rut
Rash
Rug
Rath
Rube
Roh
Rens
Rât
Root
Rìu
Rever
Rican
Rani
Rene
Rutan
Rule
Renz
Ravin
Rusty
Riker
Rout
Raven
Raptop
RKO
Rizz
Sr
SQ
SV
SL
SỰ
Siết
Sàng
Sor
Sừng
Sóc
Sig
Sed
Sip
Sul
Sow
Sut
Sói
Sườn
Sate
Sind
Sander
Syn
Sight
Sica
Six
Sny
Sigg
Sage
Soft
Sona
Sever
Sister
Sese
SIC
Saki
Synth
Sôc
Shane
Srd
Sassel
Svit
Sask
TP
Tb
Tố
TL
TU
Tỏ
TJ
Tong
Tot
Tải
Tàn
Tận
Tích
Tắc
Tách
Tua
Tắm
Tac
Tĩnh
Toi
Tou
Tum
Tart
Teen
Tez
Tania
Tín
Tille
Tari
Tse
Toto
Tenz
Tadema
Tipper
Uv
UI
Uran
Ury
Uce
Ucra
Vả
Vậ
Võ
Vách
Vệt
Veb
Vie
Voc
Vọt
Vide
Viz
Venn
Vacc
Veas
VTA
Võng
Wu
Ws
Wel
Wac
Wig
Wein
Wess
Weet
Wren
Whe
Winc
Wester
Wold
Weh
Wolm
Women
Woman
Wingsuit
XC
Xơ
Xứ
XV
Xúc
Xưởng
Xer
Xảo
Xướng
Xqu
Xbox
Yong
Yuy
Yan
Yao
Yen
Yad
Yand
Yard
Yum
Yut
Yud
Yash
Yog
Yuck
Yuk
Yue
Yuri
Yvon
Zh
Zal
Zah
Zed
Zara
Zander
Zain
Zeta
Zaha
Zanz
Ziyah
ak
aro
aeg
alan
audio
awe
aaah
arap
bả
bải
bổi
beo
bích
bặt
bòn
bôn
ben
báy
bệt
băm
bạnh
bat
band
bro
bir
boog
bằn
bât
bìu
boa
bưởi
brrrr
brain
cầ
cữ
cõ
cạp
cựa
càu
cum
corn
cod
cla
cso
cover
ctôi
dô
dồ
dọ
dộ
dợ
dj
dông
dằng
dước
deo
dọng
dam
dấp
dạc
dat
dấm
diếm
dem
deb
dun
dyn
dửng
dact
dõng
dance
eb
fr
fê
fat
fra
funk
fuj
fuke
flying
fuchu
gọ
gá
gổ
got
gải
gang
gau
gộc
gữa
gích
gọng
gẫn
gảy
gẳng
gắp
gặng
gran
gum
good
gía
gém
great
golia
ht
hý
húng
hực
hữa
hích
hăn
hiêu
hẳng
hóng
his
hưỡng
hẵn
hex
hèm
higg
htt
hêt
hẫng
híp
heter
id
if
ich
iphone
iHub
ipod
just
joie
kr
kà
kiết
kiệu
kur
kềm
kich
kath
kali
kines
kiềng
kyu
keves
lù
lụ
lỹ
lỳ
lức
lích
lôn
láo
lia
láy
lảo
lợp
lọn
lốt
ling
lẩy
lẩu
led
line
lich
lụng
live
liêt
liger
lẵng
lõng
lăp
lịm
mc
mỵ
mơn
miện
mính
mận
meo
mọng
mồn
muồn
mat
mồng
mom
mac
mèm
meet
math
media
mât
masc
munk
money
mental
million
nm
nk
nư
nột
nững
nười
niết
nết
niệu
nẩy
now
nein
nee
noir
nẫng
nuggets
ntn
oc
oẹ
og
op
oz
oẻ
oải
oán
oăm
off
over
oops
open
py
pơ
pác
pos
pist
pap
plan
pix
power
pants
patin
project
people
puchu
pahir
piroxicam
qúa
ry
rh
rở
rạ
rờ
rủ
rúng
rượ
riết
rống
rếu
rúc
rặt
rày
rền
rỏi
rôn
rảo
rợp
rẳng
rel
róc
rus
red
rich
rộp
rode
rover
rewilding
sch
sòng
sẩn
sạp
sit
sing
súa
ston
sùi
site
sham
shi
sper
spe
sòm
sild
sari
spam
sụa
single
swing
tấ
tỳ
tỏi
ter
tòng
tiển
tép
tel
tạnh
tỏng
tip
tấc
tick
tex
tech
techn
tươm
tóp
tâp
uk
vư
vễ
vẫ
việ
vấy
vối
vánh
vạng
wor
wee
wird
wuhahaha
xt
xú
xữ
xừ
xang
xiêu
xép
xil
xôm
xúi
xồm
xỉnh
xtr
xẹo
xúm
xyan
yê
your
zôn
zom
zip
zero
Àh
Ánd
âý
òm
ói
óng
ôk
ôz
Đệ
Đẻ
Đổ
ĐỌ
ĐỊ
Đành
Đống
Điểu
Đam
Đăng
Điệp
Đậu
Đem
Đìều
đâ
đI
đác
đững
đao
đận
đơi
đày
đễn
đưng
điếng
đênh
đìều
อย
อร
Ạnh
ạch
ất
ậy
Ắn
ếu
ỉn
ịch
Ống
ốn
Ộng
ợt
ủn
ủa
ừmmm
ửng
##mất
##mie
##mst
##mut
##mert
##mour
##muss
##meyer
##msterdam
##moke
##maid
##maker
##megen
##mething
##uo
##uth
##uum
##uera
##ueg
##uper
##uve
##uệch
##uono
##Pr
##PC
##POL
##Pilot
##Project
##oe
##of
##oT
##oz
##oen
##oia
##oor
##oid
##oah
##ohn
##oque
##ouse
##ouni
##no
##nn
##nj
##nay
##nch
##nar
##nor
##nat
##nter
##nus
##noc
##nion
##noff
##tay
##tam
##ting
##tio
##teg
##tlan
##tene
##table
##têin
##rn
##rng
##rung
##rol
##rist
##rine
##robot
##rent
##rington
##ruck
##ridge
##reth
##rigami
##ration
##raska
##ratz
##relin
##ribe
##dong
##dal
##del
##dic
##dah
##dard
##dine
##dev
##dike
##dok
##dafi
##drell
##derts
##dottir
##ioc
##ient
##iers
##ience
##iology
##say
##sia
##shan
##sman
##sco
##sburg
##send
##soft
##sote
##square
##slist
##sfeld
##smoke
##eer
##eith
##eive
##eira
##eaux
##eacht
##kus
##king
##kro
##kard
##kian
##kee
##kami
##kiss
##kaya
##lô
##lé
##lay
##lon
##lom
##lus
##lick
##lest
##lla
##ller
##lies
##litt
##luse
##yk
##ych
##yese
##ycl
##ybot
##wed
##wak
##wall
##wford
##want
##wani
##woman
##woma
##48
##57
##02
##cle
##card
##cine
##cio
##cart
##cess
##cort
##care
##cini
##czan
##coni
##cova
##hand
##hun
##hum
##haz
##hart
##hood
##hend
##hound
##hwin
##hidi
##hange
##AQ
##ASDF
##Ann
##Atlan
##Cr
##CD
##CH
##Car
##Char
##245
##ôz
##ôcr
##gn
##gal
##gle
##geb
##gre
##gio
##gital
##green
##gacs
##gensen
##goire
##ứu
##và
##việc
##vào
##vel
##vad
##vig
##ved
##vest
##vall
##vara
##vary
##vaid
##varo
##xeo
##xet
##xit
##xiel
##xmin
##xcova
##fu
##fan
##fis
##fit
##fran
##fed
##fund
##fana
##fish
##flow
##four
##face
##fali
##fenberg
##16
##197
##Ber
##Box
##GP
##Gen
##Girl
##Grip
##TB
##TS
##Tric
##TER
##Times
##pin
##ping
##pran
##pie
##ped
##pine
##pian
##pins
##plan
##pola
##power
##pse
##pool
##pets
##Ed
##Eng
##Dust
##DRA
##Dunn
##St
##ST
##Sur
##Str
##SIC
##Salon
##Van
##Ville
##VES
##OV
##OM
##ON
##bos
##bre
##bhan
##bein
##bent
##bles
##boy
##bush
##brey
##becue
##83
##zia
##zman
##zent
##zina
##zberg
##ziger
##zuka
##zhen
##Ma
##Master
##IÊ
##ởng
##ìng
##ầt
##ăc
##ík
##ớng
##éc
##égoire
##34
##Ray
##Rides
##Rae
##HQ
##La
##Land
##ựt
##êh
##qi
##qborn
##jar
##jac
##jid
##jack
##jens
##just
##jali
##jima
##jave
##FL
##For
##NE
##Now
##Nap
##NTC
##Nuggets
##Ys
##WA
##WE
##Whor
##ỆN
##üfer
##JA
##Jazz
##điều
##đêh
##ỂN
##Kh
##KE
##ẠC
##öller
##ÙNG
##ỘC
##øl
##øre
##çois
thó
thồ
thè
thài
thiến
thởi
thỏi
tháy
that
they
thót
thẫm
thuyển
thõng
chư
chề
chạ
chẻ
chể
chạn
chược
chan
chầu
chát
cheo
chảng
chêm
chiền
chẩm
chôm
chàm
chựng
chụt
chât
chitra
chỏm
chẵng
nhứ
nhông
nhản
nhắt
nhâm
nhăng
nhăm
nhiệp
nhẹp
nhem
nhiếu
nhặng
nhặn
nhiếc
nhụi
nhều
nhiêt
##nho
##nhyd
trô
trg
trồ
trũ
trố
tr6
tráo
trấu
trịch
tróc
trãi
track
trằn
trẹo
trươc
trứơc
khà
khè
khò
khỏ
khêu
khạc
khẩm
khac
khúm
khịt
khều
khaki
ngọ
ngĩ
ngải
ngiên
ngái
ngườ
ngươ
ngậy
ngữa
ngiệm
ngưới
ngạnh
ngèo
ngưu
ngói
ngĩa
ngòm
phúng
phuy
phảng
phịch
phẩn
phil
phom
phẫm
photo
què
quỉ
quết
queo
quặt
quẫn
quăn
quạc
quặn
quiz
quẹt
quôc
quinin
cóp
gin
giối
giập
giởi
gióng
giòi
giộp
give
giựt
##iệnh
củaT
tab
take
tapi
ngườii
nghìm
nghuyên
nghuệch
##uyêt
##otn
##oter
##otam
##othi
##ayer
##ayanan
##ayloh
rai
raở
sựu
##anth
##anti
##ante
##anity
##anish
##anger
đểm
thết
hoáy
host
hoăc
##onian
##onex
##onnes
##onjo
##onough
##onment
##chu
##chet
##chand
##chest
##chison
##chfield
##chUp
##chkiss
Chớ
Chong
Chanh
Chấn
Chắn
Chứa
Chướng
Chiếu
Chặng
Choi
Choc
Chord
Chell
Chậc
Chớp
Chee
Chén
Chez
Chester
Chênh
Chamb
Chapp
Chryst
Channel
Chase
##inho
##aoke
Nhỏ
Nhũng
Nhặt
Nhảm
Nhóc
Nhựa
Nhằm
Nhãn
##aum
##auer
##auri
##audo
##inal
##inem
##inist
##iniz
##inov
##anholm
chuyễn
nhàu
Nhưg
toé
toáng
torr
tort
torng
toqborn
khom
khoong
khoắng
Thà
Thờ
Thẻ
Thải
Thiện
Thận
Thêu
Thấp
Thăm
Thép
Thel
Thua
Thặng
Thida
Things
These
Thurman
##eol
##eoit
##eosote
loá
xelulo
##eran
##eram
##erhan
##erio
##erge
##erama
##erlin
quyể
quyêt
thuân
thuẩn
thuôc
tốp
Trà
Trợ
Trữ
Trùng
Trương
Tròn
Trắc
Tras
Trist
Trip
Trói
Track
Trộm
Trice
Traf
Trita
Trenton
Truth
##amy
##amanda
Khờ
Khổ
Khiết
Khúc
Khiêu
Khuyết
Khiếm
Khốn
Khader
Khanna
Khrush
##enet
##enol
##enem
##enth
##enbo
##enphia
##encer
##enstock
tếp
##iat
##iago
doa
dood
doug
dogs
lunch
##arm
##aria
##ares
##arle
##arton
##arine
##arian
##aryl
##arog
##arrow
diêu
diff
disco
digital
tuc
tuab
tuýt
tuếch
tubine
##imid
##imedia
tuyện
trẻo
đoá
đoạ
Ngang
Ngực
Ngập
Ngọt
Ngram
ngoa
ngoạm
ngoèo
ngoảnh
nhỏm
viola
vivre
villa
##orr
##oron
##orrow
##oronto
##oramerica
##alm
##alo
##alom
##alab
##ally
##alek
##algo
##alok
##algar
##alisa
##altar
trịnh
Phế
Phác
Phức
Pháo
Phút
Phỏng
Phant
PhIP
Phanish
kếp
khuây
phụt
empower
##esch
##esab
##esola
##esworthy
##oso
##osth
##osyl
##elia
##elind
##elsd
##eliker
tuổii
thoắt
##etton
##etine
##etate
##ethane
##etchUp
chíng
Giời
Giang
Giấy
Giản
Giỏi
Giấu
Giọt
Giler
Giza
Gibr
Gild
Giỡn
Giulian
some
something
sodok
sopran
ghén
ghẹo
ghost
##isen
##ises
##ising
##isner
##isphere
##iscom
##isinin
##isante
##aten
##atia
##atat
##ating
##atou
##aties
##atrice
##icz
##icur
##icester
##icity
##icious
môđun
cụng
tửu
##ilin
##iles
##iland
##ilver
##ilale
##ilisi
đâui
baby
babush
chếc
##iter
##itre
##itte
##itron
##iticus
##itable
##asch
##asound
##asure
##olon
##oley
##olum
##olla
##olke
##olars
##olatti
109
10kg
Hoen
Hook
Houz
Hokus
bum
build
vía
xavan
20m
2042
2048
đủi
##leith
##ledy
##leberry
##lebrot
nhớt
nhớp
chúi
##teri
##terhorn
##emia
##emore
##emach
##emund
##emberg
##emöller
##emarle
##emisinin
##omi
##omét
##omington
##omics
##ompton
##omayloh
lệu
##usand
##raine
##raka
##ravaid
sưc
phủi
vẻn
##acle
##acom
##acag
##acchio
200m
##obs
##obacter
lakh
##ads
##adh
##adar
##adas
##adab
##adian
##adde
##ademy
##andani
##andMe
TEDU
TEDistan
TEDPr
TEDSalon
##urs
##urg
##urai
##urat
##urra
##urethane
0001
000km
000usd
##ido
##iday
##idic
##idari
##idyar
##ews
##ewan
another
##eban
##ebec
##ebach
##ingall
trains
100km
100usd
Quà
Quang
Quanh
Quấn
Quiz
Queda
Quebec
##rous
##roud
##rough
##rophony
##unky
##unity
##unner
##untain
##unzia
banteng
Stop
Stik
Stick
Stones
Stair
Station
Story
Stato
Stacey
StriDER
Støre
Staten
Stroud
30km
Newman
Newtown
tíc
dah
nhiễn
nhiêm
Doc
Dour
Dopamine
Dopp
Dopa
##reira
##renhe
time
##igon
##igail
##igram
##igma
Inch
Ince
Inver
Inlet
Incon
Innoc
153
503
50K
##ahen
##ahar
##ahari
xoan
##nette
Conley
Contin
Conne
Contra
Concord
thủa
##thra
##thuss
##thira
##thomi
Alc
Alô
Ally
Alast
Alamie
Alwar
Alams
Alanna
Alvaro
Althuss
##ists
##rance
##opic
##oping
##opolymer
##opotam
cap
cavat
##iec
##ieh
##illac
##illing
##illaria
##ardner
suw
suck
suỵt
##ages
##agag
##agina
##agora
##agadde
hỗng
124
126
##loomington
931
##edo
##ede
##edabad
##edonian
##tonomy
##ineph
##eyou
##eysc
##abo
##abh
##abend
nghịu
##iph
##ipur
##iplan
##ipCar
##ipede
##ako
##aked
##akti
##akala
##akshmi
Marian
Marina
Marta
Marqu
Marisa
Marble
Margon
Marston
Marty
Marianne
Marissa
Marfan
##occia
##ocamp
##ocycl
Jok
Joy
Jove
Jodrell
JoAnn
##orkable
##ult
##ulen
##ulla
##ulate
##ulation
##ulites
Name
Namaste
Aixơ
##owe
##oway
##owicz
1830
1820
Choice
##ikistan
##ikio
##ikahn
##ikwa
##hanian
##hannon
##hanandani
##icht
##ouw
##ouin
##ouma
254
duới
##eville
##evsky
##umque
##ummit
Shi
Shang
Sham
Shia
Shand
Shub
Shook
Shanda
Share
Sheh
Shino
Shaf
Shaba
Shyam
Shlom
Shalom
Shilale
##steen
##stenberg
##storm
Haibao
##iri
##irus
##phin
##phur
##phine
##phins
##phael
##phenol
Anti
Anta
Ananda
Anast
Anant
Antonia
Ankara
Anjali
Ananth
Annette
##apal
##aple
##apton
##apse
##apside
##aprio
##apenem
kimchi
##ibu
##iband
##ibert
##ibouti
Brút
Brath
Brett
Brien
Brugger
Bretton
Brompton
Arup
Arcas
Arthus
cambridge
##ify
##ifton
##ified
##ifield
##ifax
115
11h
113
11000
Emerson
##uber
##ubali
##ubble
##ubowski
80s
##hnistan
##hnut
hiễu
##azari
##aznick
##uto
##uts
##utsch
##icks
##uda
##udwick
Tour
Toast
Toots
Hayek
Hayward
Hayden
60m
60s
60K
càc
Khoáng
cannot
Carin
Carbon
Carlin
Carta
Cartel
Carrier
Caritas
Thuc
Thuế
Thuận
##estown
Lech
Lees
Leah
Leica
Leave
Leku
Leuna
Leicester
##ivik
##ivio
##ivals
##ivision
##ertgeb
Baan
Baer
Bafana
Logar
Lounge
tanager
probi
Afrika
##allah
500000
##artney
##artame
Luxo
Luthra
##away
##awar
##awww
##awrous
146
1450
##essa
##essen
70kg
Afghnistan
Davenh
koala
bizon
biopolymer
2018
Amr
Ames
Amber
Amish
Amedabad
##genhe
Kenedy
Kenichi
##ashian
137
13000
bomb
##odt
##ody
##odh
##odin
##odel
Calm
Cali
CalPER
Caltran
Calvary
François
nguow
##ecl
##ecker
proteas
171
176
1750
##ffin
##ffael
##tries
##trasound
##tricht
##lach
##lain
##ylic
Colant
Colors
##izoph
##izzy
##ailles
##eeee
##NASA
Haram
Harald
Harish
Harger
Harmon
Harouni
210
212
218
truyển
cỏn
rupee
##ovan
##ovych
##ockets
Davidson
Lanting
Bracy
Brakar
##logy
##loggers
proteins
Canning
##lando
##lands
Parag
Parry
Parsi
Paragu
Parvin
Okonjo
Okraine
Charity
Scan
Scala
Scilla
##shine
##ship
##shaw
##shead
2400
Adri
Adren
Adora
Aditi
Adobe
Admir
Adichie
Advisor
Hyd
Hyp
Hyatt
Hymal
HyDRA
Tổn
##lines
Robins
Robyn
Camb
Cambr
Camille
Camfed
Sankar
Sanofi
##tius
##tiya
##egraph
bloggers
Dante
Danish
Danziger
##ugn
##ugia
##leywood
40000
Mok
Moyo
MoMa
Mojave
Moeliker
Mountain
McQu
McRae
McWhor
Tali
Tale
Talhou
Elk
Elah
Elton
Elif
Elahi
Elazari
##ogen
##ogad
##ogratz
##assic
##igha
##bery
##berly
iPati
hưũ
##epolis
lềnh
Andras
André
Andraka
Barber
Barney
Barss
Baroque
Barasch
Palu
care
carbox
Bernes
Berrow
Berlus
Mono
Monet
Monash
Monte
Monoch
Monika
Monbiot
Spot
Spam
Spack
Spok
Spieg
Spelling
Spittin
Spencer
Sparrow
hangry
##riam
##rient
##ramm
##neider
##nefj
##neapolis
Apex
Apatz
Apocaly
Bend
Bensc
Benartz
Edo
Edi
Edry
Edge
Edmont
Jamal
Jamil
COO
CON
Rosie
Rosetta
Roselind
1961
##quat
##quire
Paulette
Bez
Beer
Beardy
Beery
Beiser
Bengh
Beeban
Blicket
nanocar
Mayassa
Maynard
Mayflow
Prester
slacking
Angles
Angrigami
Abs
Abe
Abou
Abram
Abott
Abani
Abrac
Abacha
Abigail
Tinto
Ngoan
Ngozi
Maes
Maaj
Mafund
Smil
Smule
Smiley
Smooth
##heir
##henge
Croton
Crump
Cross
Crème
Creosote
##iere
##annon
Stevie
Petr
Petrie
##orts
##ortal
Frances
Jonestown
MIC
TEDxK
TEDxPS
TEDxRC
TEDxNASA
Richter
Richmond
end
eneb
##endez
##aldi
452
457
Wikih
Wikipe
Wikimedia
clor
club
clone
##pero
##ynes
##ynsky
##ynski
Dari
Darby
Laxmin
deChar
deNap
##kaj
##kaerts
Brock
Broder
Broca
Dios
Diop
Dixiel
Neur
Neuman
Nehru
##oxville
##oxetine
Adami
Lost
Losee
Schad
Schumann
Schoon
Schacht
Schumpet
Scholars
Schramm
Schneider
236
23andMe
come
comp
compa
Pakistani
Heap
Heifer
Healey
##astic
##astev
##ights
757
7599
Fredy
Sukh
Surace
Sufis
Suheir
##lings
##linga
Claus
Clapton
Whis
Wheram
Wharton
WhipCar
##lanty
##lantay
Attiya
##brid
Marks
Markram
Markoff
Frankl
Obliv
Walton
Wally
##uckey
Roberto
NASD
Tomorrow
Willow
Nato
##arke
##esterol
##esterone
Flag
Flipper
Flolan
véc
Philhar
Angelina
221
2200
Samar
Samara
Sameer
##ixilin
Manen
Mancus
Manwani
Mancini
Malem
Malale
Malaga
Malibu
stan
stre
stage
statin
stacking
styro
sticker
staple
1942
1946
Guer
Guide
Guier
Guant
Guzman
vanEng
##rosothi
Scotia
Scotts
Read
Reid
Reill
Reisel
##ption
Alexa
Alexey
Baluch
Balagadde
Ord
Orff
Orde
Organ
Orange
Oresk
Orwant
Orlando
Sea
Seal
Seaman
Seaver
amb
Indira
Indyk
Indonex
Smithfield
Vịt
alaikum
##ushima
60000
Romney
Sahar
##isse
##ishas
##atchidan
##atchewan
##ucation
##ucato
##uccino
36000
Chịu
Pariser
##meNow
Madd
Madela
Madure
Madame
Madrass
Madeira
Madurai
Tory
Torch
Coppola
Greenberg
Greenwich
275
270
278
Jeroen
Burden
Burke
Burnham
Burchfield
Burrough
Libi
Liban
##ource
##antos
##ophon
Christo
Christie
##eferr
##eforamerica
Erica
Ahhhh
Entrop
Entropy
Envir
Jackley
##ensing
##imble
Acid
Accra
Acquist
Access
Acarog
Granderson
Gretel
Grégoire
Granholm
Griscom
Gruber
IIB
IIM
III
Subodh
km2
##alafel
##ussou
Galena
Galact
Latvia
Sims
Simhanandani
Tuệ
Tuỷ
Vanilla
tuỵêt
hydrogen
Delano
Hansmeyer
Jimi
MRIs
Perc
##ukovych
65000
CENTC
Gateshead
Janis
Janie
Janette
Moria
Morina
Morley
Morales
Morandi
325
321
Babri
Hammad
Hammond
Waring
Warinner
Mahlas
Mahishas
Nora
Norton
Norway
Norvig
lôgic
##eshow
##ustein
Meer
Meat
Meattle
MeBot
Meisner
Measure
Patk
##inique
Floria
Florey
Goose
Goetz
Goethe
Goerge
Kingdom
Macs
MacG
Macro
MacMaster
##uppy
##wei
môtơ
Starsh
Kimmel
Kimberly
Myth
334
331
333
3300
Deam
Dear
Dead
Deutsch
Donnell
Donovan
Syrie
YemenTimes
Bushmaster
Ladakh
Murad
Muthomi
Singh
Singing
kệch
70000
800km
DaV
Dafur
Glucks
Globe
Glenny
Gloria
Hero
Herr
Herald
Herold
Herbert
Hermann
Heroul
Josef
Josette
Karnat
Matternet
Matxcova
Matterhorn
Wallaj
Genji
Genomics
Plus
Place
Plait
acre
active
acetate
Frider
Fresco
Mandlebrot
Quyen
Salbi
Salvad
Salecl
seronton
ngừời
Khuấy
##ippines
Univi
Amyloid
Melissa
Melanesia
Melendez
Rocky
Rockies
Rockaway
Serb
Series
Serfa
Tamdin
555
Bayer
Jenna
Jenning
##board
##bonhyd
Shakethe
Bolin
Capt
Capital
Cappad
Larson
Turn
Viewer
Viravaid
Forgacs
##ART
##oleum
311
Avid
Avalok
Laut
Laufenberg
Southwest
Title
##monic
##liè
##yanka
##yanarayan
##afone
##rogio
DVR
Kyu
Ronny
Ronnie
##ihaly
##erecht
1917
##iveGrip
480
489
Earl
Eurost
Eureka
Huey
Huhh
Roach
Rohe
Roald
Rocha
Rochester
RoMe
Rousse
Tedx
Yoav
Youssou
Airplan
Asin
Asia
Asim
Ferran
Fermat
Ferreira
Goldin
Goldberg
Somaly
Vicodin
nito
nitrit
nitrat
nitrosothi
Carlile
Blackmore
BlackBer
Shakespear
Ecoli
Ghép
Ghosh
Ghandi
Jayne
Lewes
Profound
developing
##aliD
##eeping
Everquest
Dennet
Escher
Esquire
Know
Knife
Knols
Knoxville
Murchison
Magie
Magna
Magyar
Magnus
Olivia
Olmst
Ollantay
Popovic
Popular
Sands
Wiles
Wilbur
splashy
Eritre
Hanks
Miles
Miley
Milosev
Milwau
Miliband
Panzi
Pankaj
Panisse
Ramos
Ramona
Ramanan
Ramallah
Terraf
##ears
McCartney
clicker
38000
Buddy
Kelli
Nicks
Nicklin
calory
kilo
niu
Sherry
Sherlock
Sheraton
ARV
ARPA
Linz
Merkley
Masachusetts
Masios
Masjid
Raphael
Raffael
Redwood
Redmond
barbecue
guỹ
guan
guar
truân
Colombus
Simons
Kras
Kroll
Kreme
Krause
Krastev
Siera
Suslick
sờn
thỏm
##ingstone
##opsia
Argyll
Philippe
Philipse
722
864
8649
Botsman
Cafe
Caesar
SketchUp
naỳ
Auschi
Bellotto
Caspian
Katrag
Langerhan
Rogier
Slim
Slide
Slater
Sunshine
Sierre
Tahitan
Ushhidi
bỉm
glia
many
manioc
##otting
1925
1921
Arche
Archive
Archivio
987
Again
Aglio
Aguera
Agnor
Birhan
Hae
Haji
Have
Kees
Keem
Maurice
Powerful
Telegraph
##rrr
42000
9600
Ashe
Asha
Asher
Ashley
Ashraf
Basel
Basic
Extr
Exuper
Hello
Helena
Imam
Imazon
Imja
Immanuel
Imogen
Jura
Juarez
Keren
Kamp
Kalman
Kalander
Miy
Miro
Miebach
Minneapolis
Open
Opport
##eason
##itius
Britta
Curie
Curzan
Current
Fortingall
Godiva
Goddard
Jesu
UCL
UCSF
Weller
Wellington
Westchester
xẻng
##timedia
##eneuve
Berns
Bernad
Broadbent
Philadenphia
Northwest
Northwestern
Belk
Belle
Belcher
Bellev
Belfast
Commun
DriveGrip
Durban
Solar
Solzhen
Soljac
Solidari
##ttende
##LAS
horse
1851
1872
1877
1876
AnnMar
Annalisa
Annunzia
470
Booth
Boahen
Bohannon
BRT
Boyden
Grants
Hadid
Hadyn
Jeopady
Kurt
Lieber
Polo
Polio
Polynes
blue
hiphop
polyethyl
polyurethane
Whitson
Whitman
410
AMD
Achor
Achebe
Garth
Garage
Garret
Garvey
Mongolia
MapQu
Mapmaker
Rachman
graph
grade
gravit
helios
sandwh
Chadd
Chade
##aitzberg
Gilian
Gilley
bazan
Louisiana
540
Dickinson
Jessa
Leberecht
Sadows
Sadoway
Urban
gelato
1902
Sheeran
Beatbox
BeatJazz
Jeanne
3481
68245
Auret
Aurumque
Corp
Coron
Corps
Corvis
Grou
Group
Groening
Halla
Hallmark
IPO
Musk
Muslim
Massella
Massimo
Rodenstock
Snuppy
Taio
Vikram
noel
##prüfer
##iasis
prôban
prôtêin
Béatrice
Ganesh
Half
Halifax
Kuhn
beaver
vvv
##iety
##auser
##rador
Stroop
Strudwick
Stefon
Stefana
Artemia
McKnett
McKinsey
McKeith
787
CCTV
Damian
Hasidic
Holland
Holbein
Holiday
Holleywood
Hannity
Jarreth
Maira
Russert
THU
Vermont
Verghese
##gaa
##gaon
Thoại
Thoạt
Philly
Phillippines
Connor
Connolly
bíppp
McGonia
McGuire
McGregor
849
Bahia
Bahubali
Block
Doren
Dorado
Dorcas
Gerard
Gehrig
Jasper
Judi
Jude
Judith
Metz
Miru
Nichols
Silk
Silvia
Silhouette
Sirena
progesterone
whit
##khauser
##come
##zzolla
Schwaitzberg
Matthews
Tunisian
533
Century
Fellows
Lenin
Levitt
Leviticus
Lockwood
catalog
##sdale
##swick
##sworth
##www
##erbot
Hopper
1888
1887
Legend
PalmPilot
Jamaican
Pantheons
glucôz
760
Aztec
Hazel
Hazrat
Hazlitt
Iliad
Limburger
Menino
Medan
Medved
Makau
Maker
Makerbot
Meyerhoff
Novogratz
Ottawa
Ottaman
Porfir
Ruth
Rhim
Sangin
Sophos
Woohoo
Wooden
Woodstock
footage
##actosyl
Downey
1897
1896
1865
1860
1862
1868
Sharot
Sharman
Sharma
Sharpe
Shargaa
WikiHo
Stefano
Bandi
Bowie
INCA
Koska
MANIAC
Mobutu
Mobsoft
Mobisante
Megan
Pei
Peak
Pyrex
Piccard
SSRI
Taryn
Tarja
Tarawa
Tarbell
penixilin
##ridos
##housand
##itsyn
Steinem
Brandi
Appro
Prinima
Cruzerio
Bloomingdale
Cooperman
Cooperation
CH4
Demon
Demetri
Duncker
Fiorenz
Faisal
Hotz
Hotchkiss
Labrador
Lynne
Narco
Narnia
Nargis
Narayanan
Winona
Windsor
memex
megaton
megabyte
neocort
##tenstein
##richa
Childs
Johanson
Shahara
Shaheen
Bradner
Andreas
Andreessen
Fredrick
Hampton
Donaldson
YoungmeNow
71m
831
ATLAS
Astor
Astley
Astaire
Breel
Break
Breivik
Crohn
Crochet
Croatia
Golub
Golgi
Golbeck
Golesworthy
Gulden
Hume
Hummer
Humanity
Huckleberry
Kanchi
Kidman
Kidron
Kabisen
Lyman
Lybia
Liza
Lizzi
Midon
Marder
Piazzolla
Vivre
brigade
paris
paragliding
##tionary
##iosis
##ppuccino
sulphur
##lovich
Armillaria
Harrison
Sprite
Dietz
Buffet
Buffalo
Hirshberg
Juanito
Radiohead
880
ACR
ACTA
Desai
Desmond
Descart
Draper
Drake
Ebay
Ebina
Kasdin
Kasungu
Laskey
Ninos
PAM
PAWA
Pacific
Utko
Updike
adorkable
moon
plastic
salsa
woohoo
##cerelli
##xyhemoglobin
Chimamanda
Trinity
Hobart
TED2009
TED2007
Altiplan
Albani
Albrecht
Albemarle
Philippine
Waterford
Denisova
Sisyphic
737
Ballah
Cornwall
Coder
Fabien
Fulbright
Gardner
Gardens
Hemmert
Hembrey
Hemisphere
Keynes
Keynote
Lindsey
Lindsay
Olafur
Poole
Pavan
Pavna
Pachter
Pacholke
Rabassa
Revolution
Rumsfeld
Sarnoff
Vision
epineph
forum
mixing
vểnh
##mbiosis
##oulos
transitor
Chinua
2021
##ombe
##ombucha
Banks
beatjazz
Aykro
Awl
Awtin
Awesome
Assad
Bondar
Boghum
Cispl
Dianna
Electric
Jorgen
Jorgensen
Kwong
Katharine
Krispy
Lemmon
Lemmut
Paola
ROWE
Safina
Tulles
Viagras
Wolpe
asphal
model
module
đờn
Antonelli
Brunswick
Caribe
Lovins
Prospero
Playboy
Knights
498
Auden
Audur
Baican
Bairey
Bunnell
Bute
Blogger
Domin
Dominique
Dewar
Devil
Devec
Dawesar
ICD
Inge
Ingels
Mamet
Mamoud
Munich
NHẠC
Nadkami
PR2
Priyanka
Raul
Rauf
Rahul
Rahman
START
Shanti
Shankar
Shankard
TERA
Venturi
WiTric
XIV
XDRTB
hectocotylus
magma
##culter
##giờ
##TAID
Cheese
Cheikh
Cheapside
Tajikistan
Simpsons
Country
Ferriss
Eskimos
Kristen
whisky
Schwartzberg
Aquila
Bjork
Bjarke
Bundi
Dharavi
GCHQ
Gutenberg
Horiz
Hersh
Hersman
Hippôcr
INTER
Jaws
Jawad
Lerner
Modern
Modini
Meeker
Niu
Niemöller
NFB
Niels
Nielson
Omaha
Omidyar
Penelop
Pentair
Pentagon
Pallota
RASA
Teach
Tutu
Vodacom
Vodafone
Watts
Wattenberg
bẽo
cassette
cassete
leishman
napalm
##gyz
##bachev
phenethyl
soundscap
##ically
Quixotic
Joanne
1819
Shinerama
Arno
Barricini
Schuler
Jeannie
Orwellian
Cousins
##weiler
Turkle
Titanji
calories
FarmVille
Kamenji
boomer
Vermeulen
MotorCity
Downs
Downton
Gulfstream
Bionicles
terawatts
1m8
BASIC
Bauer
Branson
Brancus
Cuộn
Citron
Cacbon
Dumas
Dumais
Fernando
Flowler
Friends
Friendster
Gorbachev
Hellas
Junger
Jetsons
Lesser
Nexi
Pashto
Ranj
SPCA
Satyanarayan
Seventh
Tilonia
Tusinia
Tabick
Tabern
UNAMA
VIII
Villeneuve
Vulcan
Xoá
Xoắn
karaoke
múôn
perox
peruse
under
voà
##malya
##bourg
1838
1833
Brencher
##rynin
Brahui
Canales
Santiago
Ellison
Ellsworth
Barnard
TEDxChange
TEDxBerlin
TEDxBloomington
TEDxSummit
Healthabit
Healthcare
##enspat
Morrison
##rrrrrr
ESPYs
Hutchinson
parabôn
sulfuric
Grosser
NRK2
##hodopsins
041
Autonomy
Aiden
Bedi
Bedouin
Baku
Baker
Bassler
Beckett
CRP
Cabinet
Dutch
Diffrient
Eglanty
Epstein
Epicur
FEMA
FISA
Frenkel
Gunung
Gunsmoke
Jaime
Kafkian
Lipson
Lipitor
Muteferr
Mickey
Mugsy
Machine
Machado
Machover
Mehta
Mullah
Nabati
Nirenberg
Nirmalya
Potts
Packard
Pattie
Reno
Renata
Rasmuss
Runnion
Ramachand
Rothemund
SEAS
SEAL
Tzemach
Tangram
Townsend
WISE
Wesley
Wardeh
Waldo
angour
biohack
galactosyl
heart
health
hippocamp
tongkon
##eaawww
##koffler
Chiho
Gibran
##atorial
Constable
Alessi
caffein
Lucille
Lucianne
1788
1738
carbapenem
Moneyball
Speedo
SpeedStr
Blakemore
TEDxParis
TEDxPeacht
TEDxRotterdam
Naturally
Mahabuba
Glennie
Herculano
Provera
Skylife
Polaroids
Appalachia
Appalachian
Appalachians
SOLEs
Pachycephalosaur
Akan
Area
Areca
Biafran
Battery
Bodnar
Cadell
Cadillac
Digest
Digital
Dahbi
EPFL
Eyre
Elysia
Fanton
Fankhauser
Family
Gamow
Gamley
Gartner
Hijri
Jakubowski
Kartick
Kitefly
Listening
Ludwick
Ludwig
Lennon
Lennox
Meslin
Mesopotam
Mmmmm
NYU
Notre
Nebraska
Nakuru
Nathalia
Nathalie
Otwoma
Paes
Paabo
Passage
Passacag
Rangoon
Rangasw
SUNY
Sashimi
Seeker
Seko
Saturn
Siegfried
Technolog
Ultra
Ultrasound
Widder
Yorick
Yoruba
dềnh
fears
polime
vinyl
yaodong
##456
##venient
thinker
phosphate
phospharyl
Chemical
Chemistry
##inetobacter
dolla
dolphins
Hogstadter
2054
Doolikahn
1584
Aldous
1298
Marineris
##ikszent
Shimura
Shapiro
Leibiniz
1369
1776
oxalic
Bergbre
Monsanto
Specter
Pretoria
Abbott
Lafitte
Walkowicz
Mahalakshmi
Herzing
Herzog
Kymaerican
Wilkes
Wilkinson
Weiwei
Whitesville
Partnership
Springsteen
LGBTQ
##uhuhuhuh
Nextped
Uzbeks
Agrawal
BIỂN
Borden
Bordeaux
Bambi
CUỘC
Crawford
Cowley
Dilip
Dilma
Ezra
Equatorial
Felix
Fatah
Fahad
Fahrenhe
Fairuz
Gomer
Gaddafi
Gurion
Gurgaon
Hicks
Jolie
Mélies
Méliè
Message
Miesenbo
PGA
Posada
Pablo
Pablos
Persepolis
Ryder
Rags
Ragav
Roukaerts
SHeen
Semple
Seyi
Seymour
TTN
Tipping
Vaclav
Vacanti
Verna
Vernacchio
Wilde
Xenophon
Yeats
Zakouma
exabytes
hemoglobin
motor
morphine
##histhira
##hausen
##KO78
Chaucer
Chauvet
Challe
Chatfield
Chatrou
Theresa
Thermal
Gingerbread
##aswamy
Houdin
Houdini
TEDtalks
Doggy
invite
Marlene
Marlboro
Shaikh
Sheepshead
Animaris
Brosnan
Arriba
Ishijima
1323
Colescott
Adolfo
Sanjay
Sanjiv
McEwen
Andersen
TEDxToronto
shopping
Suzana
Clarence
Tomasdottir
Reinhart
Reinhold
Sequel
Burtynsky
Burgess
Enterpris
Grimm
Swazey
Swaziland
Warsaw
Mengatou
Underkoffler
xentimét
xentimet
Forrest
Forrester
Huxley
Huxtable
440Hz
Merrifield
Networks
Acheulian
Sebastião
Metrics
Metropolis
Metropolitan
sonicate
sonication
artist
artemisinin
Scientology
Humphreys
Pursat
NGHE
Pavlovian
aspirin
aspartame
Courtine
Courtney
Rudyard
scrotal
scrotum
TEDxMidwest
TEDxMidAtlan
Reykjavik
Reykjavík
05049
4x5
B15
Baghead
Bipin
Bikes
Battlest
Bharat
Cobley
Cardini
Cutts
Djibouti
Dimitar
Dictionary
Dobrynin
Dudley
Dolls
Fiske
Future
Foursquare
Gbla
Gettysburg
Hurley
Hidalgo
Hewlett
Holmes
Iwasa
Ikea
Idealab
Kelley
Kardashian
Kubla
Koyczan
Kyrgyz
Kumbaya
Lalitesh
Lomborg
Luskin
Landolina
Meinderts
Mendel
MetroCard
Oooh
Puddic
Pixar
Peanuts
PTTT
RFID
Rusesab
Raghava
Rottweiler
Society
Seckel
Sognefj
SBIR
Tsuk
Tierra
Vicki
Valles
Versailles
Veronica
Wakulla
Witten
XKeysc
ZX80
Zacaton
avatar
benzen
editor
freeflying
glycine
jebr
kitin
lipid
meddah
massage
nướu
natri
peso
plexi
vỉn
##PFAR
##widomayloh
##ABribe
##butz
##anamo
Chavez
Trading
Trollback
lucifer
Houris
buffet
TEDAttende
anthrophony
Concertgeb
Connery
Alhurra
123456
Marishane
Bresler
Bridges
Brigham
##awesi
Ambrogio
Amundsen
rupees
Scarlett
Advil
Adenike
RoboCup
Mohsin
##gokgok
Berkenstock
Spirit
Blanton
Blender
Abidjan
Petsko
TEDxAmsterdam
TEDxDU
Wikileaks
Laennec
Tombstone
Malauy
##uctose
Micronesia
MacDonald
Brontë
Projects
Magazine
species
Raqs
Cajal
Mauritius
Mauritania
Oppenheimer
Curiosity
gradien
Urhahn
Urbana
Volkswagen
UNITAID
Maisonnier
Typography
Tyrannosaurus
Daytona
architecture
arghs
Lynchburg
Piarco
headset
Rainbow
Baumgardner
Fernandina
Sokoloff
KHÔNG
Kunstprüfer
MSNBC
Wozniak
Shuffle
Gonzales
Moussaoui
Wernicke
Hobsbawm
A380
AUV
Aamodt
Aedes
Aakash
Akyol
Ajax
Aydah
ASDFASDF
BLIS
B612
BÙM
Bimini
Biddle
Bastawrous
Bittman
Bulaj
Butenandt
Bakhtio
Csikszent
CÔng
Cahana
Cilliers
Ciero
Cradle
Donegal
Dettmer
Defense
Dambisa
Duluth
Eetwidomayloh
Etienne
Esterhaz
Echelman
Fuego
FAO
FDI
Fête
Fitbit
Feminist
Furstenberg
Fighter
Foldit
FARC
Feyerabend
Goslinga
Gahr
Gershwin
Guggenhe
Gachter
Ghez
Geronimo
Gottfried
Gafić
Gaulle
HÃY
Hilary
Hibridos
Hendrix
Historic
Hrabowski
Iquique
Iweala
Icarus
Ikaria
Jebb
JAWS
Kéré
Kandahar
Kakenya
Korengal
Kessler
Kashmir
Kovacs
Koshalek
Kalandar
Kuchera
Kacyra
Lhasa
LDL
Lotus
Liabhan
Lisbon
Lopez
Lavelle
Lullin
Livingstone
Lydmar
LMAO
Lorenzetti
MENA
Mbubi
Munger
Moutain
Moody
Mixing
Misha
Mazzucato
Muppets
Mracek
Nuremberg
Niparko
Noreena
Nawaz
Nails
Niese
Nijmegen
Navajo
Oyesola
OLPC
Onyx
Oefner
Odonil
O600KO78
Pfizer
PEPFAR
PLC
Péter
Pasricha
Pawlyn
Peccerelli
Peggy
Poynter
Pernod
Paganini
Peloponnes
Qatari
Rinaudo
Roizen
Roper
Rutgers
Ratha
Rohwed
Rensink
Reverend
Renzo
Routemaster
Raptopoulos
Rizzolatti
Sipes
Sulawesi
Snyder
Softy
Sonaar
Severin
Sisterma
SICK
Synthetic
Sôcôla
Srdja
Sasselov
Svitak
Saskatchewan
Tbilisi
Tillemann
Tariq
Uvulites
Uranus
Ucraina
Veblen
VocaliD
Videp
Veasey
WuDunn
Waco
Wigler
Wessling
Weetjens
Wheaties
Winconsin
Woldhek
Wolmetz
Xerox
Xquang
Yuyu
Yanukovych
Yadira
Yandex
Yutaka
Yudhisthira
Yasheng
Yogi
Yukon
Yvonne
Zalaznick
Zahab
Zainab
Zanzibar
around
alanine
battery
brainstorm
cumarin
codeforamerica
djinn
debit
dactyl
fructose
fractal
fuju
gauge
html
http
heterocycl
krump
kathas
kinesin
lụât
leded
munkank
moneyball
nkali
nưã
occulter
ogami
piston
pixel
rởm
rượi
richte
schizoph
speras
text
techno
world
weeeaawww
xteoit
xúât
xilanh
xyanua
zombie
Ándale
ôkê
ôzôn
ĐỌC
ĐỊnh
##tambo
##yeseigha
##hendu
##xeology
##1978
##Girl1978
##837
##IÊN
tapioca
hosting
##chestra
Chocolate
Chordata
Chellman
Chambers
Chappatte
Chrystia
torrent
toqborni
Thelma
Tristram
Trafalgar
Khrushchev
doodle
doughnut
tuabin
Phantom
##osthenes
##elsdorp
Gibraltar
Gilding
Giuliani
sodoku
soprano
babushkas
Houzel
Hokusai
##adabra
TEDPrize
Stikine
Stickybot
Stairmaster
Doppler
Inverleith
Inconvenient
Innocent
Continuum
Conneally
Alastair
Alamieyeseigha
Althusser
Margonelli
Aixơlen
Shubhendu
Shehab
Shinozuka
Shafak
Shabaab
Shlomo
Anastasia
Ananthaswamy
Brathw
Toasted
Tootsie
Lekuton
Leicestershire
Afrikaan
Davenhall
CalPERS
Caltrans
protease
Colantuono
Brakarz
Paraguay
Okrainec
Adrienne
Adrenalin
Admiral
HyDRAS
McQueen
McWhorter
Talhouk
iPatient
carboxylic
Berlusconi
Monochrom
Spiegel
Apocalypse
Benscoter
Benartzi
Edmontosaurus
Roselinde
Beardyman
Benghazi
nanocarbon
Mayflower
Prestero
Abracadabra
Maajid
Mafundikwa
SmileyGirl1978
TEDxPSU
TEDxRC2
Wikihouse
Wikipeida
Laxminarayan
deCharms
deNapoli
Broderick
Dixieland
Schoonover
Schumpeter
Sukhdev
Clausen
Oblivion
NASDAQ
Philharmonic
Mancuso
Malaleuca
Guantanamo
vanEngelsdorp
Baluchistan
Organization
Oreskes
Indonexia
##atchidananda
Madrassa
Burroughs
Entropia
Environment
Acquisti
Acaroglu
Galactica
CENTCOM
Mahlasela
Donnelly
Glucksberg
Heroult
Karnataka
Wallajeh
Frideric
Salvador
serontonin
Uniview
Serfaas
ShaketheDust
Cappadoccia
Viravaidya
##ihalyi
Eurostar
RoMeLa
Rousseff
Airplane
nitrosothiols
BlackBerry
Profounder
Ollantaytambo
Eritrea
Milosevic
Milwaukee
Terrafugia
Masiosare
Auschiwitz
Katragadda
Langerhans
Exupery
Opportunity
Bellevue
Solzhenitsyn
Soljacic
Solidariot
AnnMarie
Annunziata
Lieberman
polyethylene
MapQuest
graviton
sandwhich
Sadowsky
68245837
Corvisart
McGonial
glucôzơ
Porfirio
WikiHouse
Demetrios
Fiorenzo
neocortex
YoungmeNowme
Descartes
Altiplano
epinephrine
Aykroyd
Boghuma
Cisplatin
asphaltene
Shankardass
WiTricity
Hippôcrat
INTERPOL
Penelope
leishmaniasis
phenethylamine
soundscapes
Brancusi
Healthabitat
Eglantyne
Epicurus
Muteferrika
Rasmussen
Ramachandran
biohacker
hippocampus
tongkonan
SpeedStrip
TEDxPeachtree
Pachycephalosaurs
Kiteflyer
Mesopotamia
Passacaglia
Rangaswami
Technologies
Bergbreiter
Nextpedition
Fahrenheit
Miesenboeck
Enterprise
Mengatoue
TEDxMidAtlantic
Battlestar
Meindertsma
Puddicombe
Rusesabagina
Sognefjord
XKeyscore
TEDAttendees
Concertgebouw
Bakhtiozina
Esterhazy
Feministing
Guggenheim
O600KO78RUS
Peloponnesian
Rohwedder
brainstorming
heterocyclic
schizophonia
1k
1a
1c
1h
1x
1f
1W
1đ
1K
1oo
1mm
1usd
2m
2s
2mm
2nd
2cm
3d
3h
3A
3T
3X
3kg
3km
3cent
4R
4ft
420
4kg
5s
5h
5C
5ft
5cm
6m
6h
6X
6J
630
6kg
6cent
6200
7m
7h
7ft
7km
8g
9s
9g
9cent
A1
AS
AL
AF
AW
AZ
Aau
Aal
Aom
Aro
Aph
Amp
Age
Ata
Ayn
Aeth
Aker
Away
Azz
Atech
A12
ABS
API
Aerial
Aisch
A10
Acker
Aaah
Aqua
Aarh
Aaaaa
Aesch
By
Bệ
Bc
B2
Bể
BN
BẤ
BÂ
Bại
Binh
Bậy
Bát
Beo
Bày
Bội
Băn
Bục
Bồn
Bốc
Bám
Bẩn
Bóc
Ble
Báu
Bưu
Bếp
Bist
Bọt
Bum
Bent
Back
Biv
Bore
Bov
Bith
Bơm
Bett
Bằn
Bok
Bụng
Bates
Biss
Bora
Beep
Brey
BEA
Baza
Bats
Bree
Bingo
Byte
Bỡi
Baid
BER
Bổng
Bucky
Byar
Bóp
Baven
BEE
Bunge
Bubble
Ci
Cc
Cz
CI
Cé
C3
Cỏ
Cõ
CÁ
Cừ
CK
CƠ
CÀ
CỨ
Cong
Cấy
Cành
Cài
Cối
Cưa
Cán
Câm
Cứng
Cắn
Căm
Cúp
Cứa
Cẩm
Cắm
Cãi
Cle
Càm
Cốt
Cúi
Cre
Cey
Cul
Cou
Cord
Cph
Cub
Cứt
Cly
Cook
Cert
Call
Cess
Cock
Cùi
Cama
Cụt
Cate
Cind
Cram
CSA
Cren
Cort
Cube
Cez
Cast
Cair
Cere
Catar
Coton
Cylon
Cors
Cún
Cater
Clem
Cait
Cello
Cura
Cable
Cote
Citic
Cien
Cotton
Cial
Cathy
CBS
Coban
Cout
Cove
CFO
Cogito
C02
CÙNG
Cinem
Dế
DO
Dì
DY
DÀ
DẬ
Dúng
Dời
Dại
Dinh
Diện
Dối
Dũng
Dập
Deo
Dạt
Dâm
Diêu
Dồn
Dộng
Dệt
Dám
Dos
Det
Dẹp
Dad
Did
Ding
Dro
Dran
Dõi
Dab
Dip
Daz
Dash
Dee
Dond
Dach
Dek
Dẻo
Dood
Dike
Dyn
Dast
Duck
Duc
Digg
Dive
Didi
Duch
Dita
Daly
Dustin
Dade
Days
Decca
Dome
DEF
DOS
Dagu
Dwar
DAL
DRC
Degas
DBS
Drex
Dirt
Dhru
DTS
Division
Eo
Ek
Eh
EA
EV
E8
EM
Ej
EJ
EK
Eer
Eos
Eide
Ego
Eins
Elex
Ener
Epson
EOS
Etern
Egy
Ehl
Ehhh
Ewing
EVA
EFC
ENIAC
EBox
Eating
Fa
F1
FT
FF
Fen
Fom
Fus
FED
Fing
Fag
Flo
Fell
Fly
Fore
Faw
Fash
Fatt
Feet
Fara
Fund
Fog
Find
Fram
Flex
Fela
Fight
File
Fain
Fuel
Fron
Face
Fool
Foud
Furch
Feed
Furn
Fols
Frac
Fakka
Favela
Fenton
Fumi
Fogo
Framer
Fiat
Foley
Funky
Falafel
Fenspat
Gd
Gy
G5
GA
Gơ
G1
GQ
Gâ
GE
GH
Gê
Gõ
Gö
GÌ
Got
Gân
Gậy
Gạo
Gán
Găng
Gọn
Gat
Gầy
Gạch
Gas
Gus
Gak
Gobot
Gói
Gans
Geet
Gee
Gama
Gek
Gass
Gep
Gort
Gộp
Gett
GPA
Gala
Gini
Gaf
GTC
GNC
Geas
GIA
Gull
Gatz
GTA
Geek
GPL
Goss
Gusta
GJA
Gannon
Gantos
Hư
HM
Hí
Hé
H3
HR
Hố
Hú
HW
Hỡ
Hỹ
HƯ
HÀ
HỘ
HẦ
Hau
Heo
Hứng
Hốc
His
Hóm
Hầy
Hạch
Hiếp
Hed
Hip
Hul
Hein
Hich
Hãn
Hrus
Hec
Hatt
Heg
Hẫy
Hort
Hast
Hern
Heth
Hust
Hagen
Haf
Hsi
Hetti
HMS
Hulu
Haus
Heller
Hidro
HRC
Hahn
Henny
Haug
HMU
Hetz
Hagon
Hóp
Híp
Hrush
Hatchi
Hilda
HFC
Haut
Haines
HOV
Hầt
If
IS
Iz
IR
Iq
IF
Ich
IED
Ith
Iman
Irael
Ibr
IPA
Ill
Iron
Its
Icy
IMA
Ijo
Ives
IRA
ICA
Ilov
ITO
Ivald
Ichan
Ikigai
Icon
Ipad
Ipod
ILL
Icle
Jê
Jong
Jit
Jand
Jón
Jig
Jab
Jum
Jap
Joogle
Jee
Jagu
JCC
Jetty
Jomon
Jahn
Jatra
Jedi
Jauri
Kệ
Kó
Kv
KM
KR
KẺ
Kao
Kau
Kus
Kiềm
Kac
Koo
Kah
Kop
Kag
Kèn
Kich
Kif
Kaw
Krus
Kod
Kèm
Kee
Kers
Kach
Kund
Kne
Kony
Kier
Keen
Kern
Kish
Katch
Kuc
Kour
Kline
Kure
Kongo
Kild
Kory
Kere
Kear
Kij
Kait
Komen
Kaza
Kira
Kese
K12
Kader
Koplin
Kacey
KOPA
Klim
KLM
Kandal
KPF
KFC
Kroc
Kights
Keeping
Kombucha
Lt
LE
LO
Lồ
Lò
Lụ
Lj
Lỡ
LƯ
LỚ
LẮ
Lôi
Lay
Lân
Lon
Lường
Lài
Lung
Lặc
Lội
Lăn
Liệt
Lăng
Lấp
Lốc
Lẳng
Lor
Lọc
Lle
Liềm
Lượt
Lid
Lỏng
Lưng
Lõi
Lill
Lum
Lly
Lex
Lans
Lart
Lùi
LID
Lada
Lass
Lexico
Lướt
Liel
Lago
LSD
Luyến
Lipp
Lụa
Lệch
Liti
Lena
Lùn
Lune
LEA
Lava
Lump
Lays
Laha
Lome
Lyon
Lotte
Loma
LEG
Llar
Lomb
Lomon
Lenny
Lianne
Lumin
Ligon
Mt
Mg
Mơ
Mp
MV
Mồ
MH
ML
Mj
Mỏ
Mễ
Mỉ
Mỷ
Mö
Mạn
Mần
Miên
Mùng
Mài
Mát
Mồi
Meo
Mệnh
Mộng
Mệt
Muối
Mậu
Mem
Mew
Múa
Mềm
Mev
Mứt
Mans
Mest
Morn
Meet
Mail
Mast
Mwin
Mold
Myr
Moran
Mink
Muss
Mille
Magh
Mlad
Make
Mode
MRA
Mobi
MSC
Mugh
MEG
Mortis
Mende
Momb
MCK
Mental
Mmột
Mhl
M13
M16
Nd
Nk
Nl
NC
NE
NM
Nợ
Nụ
NĂ
NỮ
NÓ
NÚ
Nnh
Nuy
Nang
Nành
Nau
Nung
Nồi
Neo
Nắp
Nos
Nướng
Nạp
Nắm
Nem
Nom
Nữu
Nếp
Nah
Nie
Nian
Nấc
Nion
Niz
Nya
Nada
Nort
Nộp
Nile
Noth
Nant
Núm
Never
Njo
NHA
NRA
Nui
NDA
Nều
Nacy
Naga
Niy
Nios
Nader
Nagas
Nuh
Naya
Nazar
NPI
Nểu
Nagel
Nollywood
Nnói
NST
Nenet
Niles
Nodel
Necker
Nimble
Notting
Od
Of
Oà
OE
OX
OH
OF
OW
Oong
Oài
Oph
Oman
Ory
Oce
Oley
Ober
Obur
Ori
Oll
Over
Owe
Other
Omy
Ond
Ozz
Oax
Ocul
Occ
Ooooo
Oven
Orac
ONE
Ohanian
Ps
Pó
Pơ
Pp
Pb
PZ
PK
PƠ
Pong
Pay
Pon
Pinh
Pel
Poo
Pah
Pie
Pey
Poc
Pow
Pst
Put
Pry
Pest
Piz
Peet
Pico
Pug
Pund
Path
Pez
Pice
Pold
Pattan
Prop
Poster
Pred
Psy
Pull
Pelli
Pax
Pius
Punch
Price
PDR
Pais
Paj
Paste
Paso
POPA
Program
Psal
Ponies
Pask
PONG
Putu
Piroxicam
Pockets
Peeping
Qi
QT
QQ
QU
Qur
Quyên
Qúa
Qủa
Qant
Rệ
RC
R2
RQ
Rồ
RM
Rí
Rò
Rö
Rôi
Rạn
Rong
Ruy
Rai
Rung
Ròng
Ria
Rắn
Rộng
Rel
Ret
Rat
Ril
Rôm
RED
Roo
Ring
Rie
Ráp
Rak
Roc
Rein
Rook
Raw
Ree
Rỗng
Rund
Rins
RDP
Rester
Ruc
Reth
Rue
Rale
Reda
Rors
Rode
Rather
Raus
Rapt
Rover
Rets
ROS
Riy
Ryota
Raid
RTT
RSS
Rais
Ripper
Riad
RD2
Rewilding
Raku
Rising
Rrrr
Rrrrrrr
SC
Sg
SD
SX
Sz
S7
Sí
S3
Sẻ
SÁ
Sø
SĨ
Sàn
Sương
Sâm
Sốc
Sứa
Sọc
Sic
Sấm
Sra
Sụp
Slo
Sẳn
Sik
Sein
Sans
Sert
Sart
Saw
Syl
Sock
Sass
Sep
Szil
Squ
Send
Sald
Sound
Sain
SRI
Sacc
Soh
Soth
Sink
Sola
Slu
Sari
SEC
Sde
Sato
SLA
SSC
Sitra
Saga
Socr
SET
Sicill
SCN
Sign
Sayan
Sven
Sowell
Sentin
Síp
Sistine
S600
Squa
Séc
Sphin
Source
Sustein
Satchidananda
TC
Tơ
TX
Tả
Tí
Tị
TN
TÁ
TÔ
TÌ
TƯ
TỬ
TỈ
Tống
Tiệc
Tát
Tộc
Túc
Teo
Tán
Táo
Tảo
Tạc
Tịch
Tăm
Tet
Tic
Tóc
Tạch
Tiếu
Tad
Tid
Tẩy
Tig
Tiễn
Tine
Tev
Tươi
Tiv
Tess
Tail
Tina
Tti
Tund
Tort
Tend
Tyn
Tosh
TPS
Tuck
Tota
Tiam
Tuss
Tía
Túm
Tati
Tih
TEC
THA
Tops
Tsy
Tutan
Tater
Tennis
Tiêt
Teller
Tiev
T10
Tots
Tumar
Tchia
Tepper
Tears
UP
Ui
UR
Uống
Uầy
Uốn
Uly
Uớc
Urey
Urr
Upr
Umb
Uổng
Ulam
Uranium
Vu
VP
Vơ
Vế
VS
Vầ
Vớ
Vù
Vể
Vỡ
VÀ
VẬ
Vần
Vải
Vau
Vắt
Vượng
Váo
Váy
Vảy
Vậu
Vil
Vand
Vốn
Vầng
Vip
Vut
Vói
Vash
Veg
Vog
Vươn
Vén
Vòm
Vint
Vive
Vẹt
Vfa
VRA
Vlas
Vait
Vuit
Vimal
Villa
V12
VET
VIP
Vagas
Vamp
Vign
Veme
Veng
Vacs
VCR
Voil
VON
VÙNG
WA
WC
WE
WM
W3
WF
Wer
Wen
Wob
Wop
Wib
Wex
Wiz
Weg
Witter
Wann
Wyn
Wosh
Wok
Wain
Watch
Wino
Wagen
Wagh
Wech
WBA
Woa
Wait
Wave
Words
WTO
Wadi
Wavin
Week
Wanna
Wifi
Waik
Western
WEE
Wemb
Wirk
Wegen
Wuhahaha
Wimble
Xn
Xi
Xh
XO
XX
XM
Xì
Xổ
Xỉ
Xích
Xưa
Xâm
Xăng
Xấp
Xảy
Xim
Xav
Xót
Xiếc
Xít
Xana
Xén
Xant
Xaba
Yu
Yi
Ys
YM
YÊ
Yau
Yer
Yam
Yar
Yel
Yac
Yid
Yak
Yod
Yee
Yock
Yqu
Yosh
Yark
Yates
Yup
Year
Yeas
Yoko
YOL
Yoga
Yoyager
Yaman
Yerk
Yoni
Yoooo
YPO
Yuan
Yank
Yimes
YVES
Zy
Z9
Zé
ZZ
Zôn
Zar
Zag
Zine
Zip
Zav
Zum
Zub
Zack
Zone
Zaw
Zhe
Zuc
Zheimer
Zamin
Zoll
Zagh
Zita
Zopa
Zira
Zaff
Zheim
Zhou
Zanes
Zyp
Zoil
Zeol
ay
ab
az
aẽ
aer
aal
aấm
aur
ast
aff
ala
aug
aram
agar
aww
atis
auca
agit
aaaaa
bn
bý
bư
bâ
bb
bữ
bẳ
biệ
biế
bược
bot
bân
bống
bơn
biệc
bấn
bưa
bam
biểm
bấu
bãy
bắng
bển
bảm
bẳng
buối
bậu
bil
bựa
biếu
bụp
bạng
beb
bing
búi
blo
bik
bib
bell
bẹn
bãn
best
book
bec
bớp
bee
bướt
bitter
box
blow
bale
boot
bươc
brow
bẹt
brah
bỡn
bĩu
bandon
băt
brod
billion
books
bứu
bầt
ct
ck
cg
c1
cồ
că
cL
ciệc
cơi
cẫn
cen
cáy
cừa
cas
cle
cra
cượt
cưu
cun
cồm
cine
cặm
cut
cry
ctr
cùi
cộp
city
crr
coke
cẫng
cnhững
cviệc
dc
dâ
d8
dz
dẽ
dan
don
dận
diến
dọi
duộc
dưởng
dắc
dìn
dăn
dỗi
dánh
dảo
dứng
dra
dac
dàm
dủng
dro
dúa
dest
dèm
dec
dớp
dợt
dada
dẫy
date
dợn
deep
dẹt
dều
desk
durch
dMRI
della
ddu
dđã
deter
drag
dadad
diệnh
dadar
ec
eH
eah
eud
eee
eeh
ever
ether
elec
electr
eye
err
ecl
epp
event
easy
eKh
eating
fe
fw
fa
fü
fen
fac
fun
fist
fib
fest
fall
fate
fast
fark
found
fold
fire
face
five
frr
fellow
flor
field
foman
friend
faj
frai
from
focal
fooc
fizzy
falafel
fenspat
gy
gg
gv
gT
gâ
gê
gử
gị
gĩ
gừ
gông
gạn
gười
gấy
gồi
gày
gấn
gáo
gồn
gúp
gos
get
gẩn
gậm
gàu
gỏng
gre
gab
gul
gấc
gap
gãn
gaz
gest
gee
gok
gates
glow
gris
gato
geta
gfi
gôc
gmail
ggi
green
gyp
guru
gyro
gesch
hk
hứ
hp
hí
hỏ
hễ
hẫ
hên
hong
hiể
hống
hính
hiệc
hanh
hày
hưa
hượng
hảy
hừng
hậm
has
hiềm
huốt
hửi
hah
hey
hak
hớm
haw
hủi
hco
hind
hark
hửng
haha
happ
hmmm
halog
hahaha
habe
hml
hướn
hnay
hiệnh
iu
iR
iên
iết
ioo
isulin
iều
iOS
jh
jai
jung
jul
jub
jud
jack
jath
justin
jcc
jhol
jugo
jugaad
joe
kễ
kü
kông
kên
kong
kấy
kệt
kill
kum
kib
kep
kts
kamb
kiva
kobe
kinas
keng
kitty
kany
kenya
kkhông
kombucha
lứ
lv
lế
lâ
lầ
lậ
lè
lử
lú
lể
lủ
lỉ
lõ
lỵ
lững
luy
lết
liện
lổi
luốn
lắt
lởi
lền
lện
lưa
lấu
lắn
lảm
lệt
lám
lướng
lấm
lạch
lit
las
láu
lem
lac
land
lủng
lốn
lúi
lồm
lèn
lik
liếng
lev
lib
lứt
ltr
lủi
lee
lep
lùm
lander
light
lủa
lsi
lfa
lợm
lily
liti
lgi
lift
lase
latte
ml
mệ
mv
mp
mề
mả
mợ
mẫ
mỷ
mö
mần
miể
mân
mản
min
mương
mếu
mích
miểu
mam
măn
m00
mâm
mãy
mal
mes
mos
mis
muống
mit
miêng
mus
mand
ming
mốn
mộn
mưng
mah
mỉnh
mõi
máp
mill
mell
more
mart
mess
mond
mụt
might
mếch
mitz
mari
mAR
moto
make
moud
mori
matz
mont
mise
mướn
mobs
makala
ns
ní
nấ
nố
nẻ
nđ
nuy
nau
nọi
nặt
nấn
nỏi
nưa
niểm
nảng
nar
nứng
nốc
nầy
niếm
nãi
nạy
nob
nạng
nut
nud
ness
nùi
nada
nigh
nộm
nẳm
nủa
nation
nươc
node
nso
note
niềng
naran
nilon
nations
noron
news
ot
os
ol
ow
ob
oại
oàn
oăn
oách
oth
oly
oằn
obr
oft
ovan
opamine
olam
ozon
ocarina
oliv
ohanian
po
pe
pô
pb
pay
pam
pút
pet
pat
pra
pine
pell
pud
pier
port
past
puck
pigg
page
pale
plu
pati
ppera
psi
pij
psy
palin
pkh
poke
panor
packing
pisco
petri
pogo
pepper
pvào
péc
pockets
qian
rn
râ
rả
rọ
ré
rông
rười
rấy
rái
rơn
rức
rước
riến
rạo
rổi
rích
rục
rắng
rịch
res
rua
ràm
reb
rón
rọt
rev
rum
rib
rex
rond
reg
rep
rén
rằn
ref
ripp
rúm
rech
rose
rêt
rough
rickr
riềng
robin
râp
rướn
reason
sd
sà
sề
sồ
sí
sớ
sq
sị
sác
sường
sước
sối
sũng
sơi
suộc
sền
sạt
sar
sấp
sảm
sua
sồng
sãi
sem
sac
sur
sàm
sie
sed
sav
sãng
saw
sash
sec
slog
slin
ste
sướt
six
sure
sake
skh
saman
skim
samp
sleep
sydney
square
sector
seol
sigma
siph
sensing
season
satchidananda
tn
tt
td
tv
tp
tb
tồ
tă
tậ
tợ
tạn
tằng
tực
tấy
ton
tâu
tổi
tiệu
tày
tòn
tọng
táy
tiệp
tẩn
tạch
tit
tâng
tiê
tèn
tik
tell
tói
tent
tec
ttr
tằn
tõm
tering
tiêc
tìng
tđiều
tiles
ui
uà
uể
uỉ
uộc
uýt
umm
uhh
uwan
vd
vó
vứ
vV
vố
vỹ
vđ
vỵ
vên
viề
vại
vức
vươ
veo
vấu
vứng
vốc
vọn
val
vửa
vet
vúi
vón
váp
vùa
vaw
viếc
vect
vegas
vocal
varro
vadas
w0
wa
wes
wel
wil
ward
wed
wik
word
wir
well
wick
wall
wash
wada
wind
wolf
wish
want
wider
woa
walk
wader
xd
x4
xệ
xc
xư
xồ
xè
xự
xờ
xỷ
xất
xầu
xức
xản
xậy
xạo
xộc
xập
xày
xắc
xọng
xán
xộng
xóng
xầm
xạch
xẹp
xĩnh
xoi
xựng
xyl
xùm
xủa
xuyến
xuyễn
xuyêt
yể
yêm
yet
yoo
yah
york
yoy
yuc
yesterday
yodel
zu
zơ
zan
zim
zor
zal
zeta
zapal
Ám
Ây
Ãu
Ély
Ích
Ôm
Ôn
Ôto
Ôtô
Ôxy
Ôliu
Út
ày
ành
ém
én
ét
òo
ót
óố
ôc
ôột
õng
ùm
úi
āle
Čap
Đe
Đc
Đơ
Đà
Đâ
Đù
Đố
Đò
Đự
Đê
ĐỂ
ĐƯ
ĐÂ
ĐỔ
Đình
Đân
Đao
Đai
Đanh
Đòn
Đia
Đâm
Đảm
Điền
Đẳng
Điếu
Điềm
Đốt
Đuôi
Đòi
Đĩa
Đếm
Đỉa
Đso
Đốm
Đps
đn
đứ
đầ
đí
đù
đò
đ6
đụ
đĩ
đẫ
đẵ
đõ
đượ
đân
đật
đữa
đượng
đòng
đán
đưới
đựa
đưỡ
đặng
đèo
đùm
đợn
đơm
đẹo
đìu
đso
đơc
đùn
đìng
đugn
Ơi
ơt
ơởi
Ưm
Ướp
ưc
ưự
ưừ
ưởng
̣D
ạn
ạnh
ạto
Ấm
Ần
Ẩm
Ậu
Ậy
ậm
Ắt
Ắc
ằng
ẹo
ẹp
Ẻo
Ếy
ến
ễnh
ọi
ọc
ọp
Ốm
ồm
ồi
ồng
Ổng
ổi
ỗi
ộc
ộp
ờm
ời
ởi
ợng
ụp
Ủn
Ủa
ứa
ừh
ực
##mu
##mr
##mh
##mô
##mf
##mê
##mä
##mình
##mức
##muốn
##meo
##mặc
##mỗi
##mas
##mac
##mid
##meb
##ming
##mine
##mak
##mash
##mers
##mend
##mett
##moth
##mala
##mino
##mati
##mings
##mode
##mines
##mese
##mhol
##maver
##miller
##mphony
##menschatz
##mody
##mortal
##mihalyi
##uw
##uv
##uê
##uZ
##uer
##ual
##ues
##uil
##uter
##ulo
##uir
##ulex
##uja
##uwe
##uque
##uhr
##uanna
##uardi
##uinness
##Po
##Ph
##PR
##PH
##Pal
##Pad
##Pack
##Porn
##PRA
##Pont
##PHO
##Paris
##Prom
##Pesco
##Proc
##Pulate
##o1
##oí
##oanh
##oes
##oist
##oard
##oky
##oosh
##oờng
##oardo
##oence
##ojo
##oula
##oons
##oze
##oSh
##oids
##oiad
##oosa
##oamerica
##nt
##nr
##nw
##nC
##nng
##nin
##năm
##nos
##nel
##nem
##nav
##nian
##nst
##nistan
##nut
##niz
##nov
##nass
##noy
##nén
##nold
##nja
##nown
##nano
##nathy
##nical
##nroe
##naise
##tng
##tất
##tes
##tas
##tle
##tus
##teb
##tro
##top
##tag
##tir
##tif
##try
##tles
##tide
##tyl
##tosh
##tox
##tuk
##trow
##tello
##tape
##tunes
##treat
##tega
##tfor
##tlich
##rẽ
##rö
##rot
##ror
##ruyền
##rel
##rter
##rem
##reb
##rum
##rest
##ress
##riz
##rủi
##right
##rity
##resh
##roll
##rero
##rden
##rdo
##rigan
##rette
##rats
##retown
##rome
##rtan
##rillo
##rty
##rillion
##rugg
##rsal
##raul
##ronda
##rchestra
##d9
##dar
##dol
##ding
##dak
##doc
##dut
##dera
##dall
##dock
##dep
##dyn
##dez
##dish
##digg
##dair
##dala
##due
##dred
##dagh
##dsi
##dGlobal
##dinger
##drô
##drive
##dvisor
##drome
##iới
##iây
##ieo
##iil
##iem
##iera
##iier
##ioph
##iens
##iợc
##iễm
##ienne
##iBot
##iotic
##iideen
##iPack
##sk
##sC
##sp
##sé
##sø
##sä
##sng
##san
##sinh
##sai
##sàng
##sung
##sar
##sel
##sit
##sing
##sev
##sum
##sell
##sera
##sion
##see
##sara
##sby
##sander
##syn
##sca
##sali
##sville
##sava
##sitan
##sels
##spire
##sumi
##surg
##sipur
##source
##soleum
##eon
##eim
##eét
##eem
##eun
##eak
##eons
##kk
##kiểu
##kos
##kis
##kun
##kill
##ked
##kav
##kow
##kap
##kly
##kiv
##kash
##kov
##klin
##kham
##kana
##kipedia
##kata
##kene
##keman
##kado
##krit
##kega
##konte
##kumar
##kadian
##ksdale
##known
##ktuk
##lh
##lên
##long
##lại
##luy
##lot
##lang
##linh
##lel
##lic
##làm
##loo
##lton
##lson
##lib
##lif
##lone
##lington
##lood
##last
##light
##lld
##lala
##luk
##lure
##litz
##lagh
##lette
##laus
##life
##ltar
##yi
##yay
##yus
##yman
##yans
##yash
##yber
##yren
##ypt
##your
##yant
##yver
##yves
##ysi
##ymet
##ylock
##yrene
##yneth
##yiec
##ýp
##wi
##wel
##wat
##was
##wow
##wod
##wide
##whe
##wald
##weh
##wto
##waf
##walk
##wump
##worm
##weeney
##wave
##wois
##wits
##writ
##welle
##wifi
##wiser
##webe
##wofi
##woT
##wiec
##wright
##44
##4x
##400
##07
##042
##044
##ệm
##ệu
##ệr
##aB
##aE
##aat
##aas
##aak
##aea
##ci
##cố
##cj
##các
##cần
##cao
##cấp
##cil
##cob
##cun
##cth
##cak
##cian
##cick
##cans
##cck
##cony
##cast
##coph
##cale
##cía
##cred
##cence
##cso
##cats
##cilla
##cave
##certo
##cotic
##carta
##cury
##cative
##cience
##ceville
##hệ
##hp
##họ
##hai
##hiểu
##her
##hia
##hướng
##hat
##hưng
##hah
##hly
##hone
##haw
##hya
##hara
##heg
##htin
##hyn
##hink
##hini
##hris
##hita
##hugger
##happiness
##hvara
##hieh
##hkumar
##A2
##Av
##AG
##AN
##Air
##All
##Amer
##Agra
##AKE
##Advisor
##Co
##CE
##CS
##Can
##Cam
##Cor
##Cent
##Cash
##Cho
##Camp
##Corp
##Chart
##Caprio
##Chieh
##2f
##2b
##250
##ẹm
##ôx
##ôp
##ôpi
##gu
##gng
##got
##geo
##gam
##gem
##gom
##gad
##gop
##gert
##gby
##gett
##gger
##gens
##gium
##gott
##genz
##gias
##gasso
##gwick
##glass
##geway
##giving
##glich
##glers
##gwig
##gretown
##ưm
##vy
##vật
##var
##vos
##ving
##vah
##vee
##vek
##vana
##vice
##vity
##vern
##veh
##vive
##voto
##vors
##veland
##vette
##velt
##vega
##veloping
##xg
##xal
##xop
##xton
##xistan
##xtein
##xious
##xedo
##xsan
##x250
##fE
##fen
##fre
##fah
##fson
##fman
##fod
##fond
##fina
##fte
##fiel
##food
##fger
##flu
##fona
##frey
##fellow
##feller
##frid
##fasa
##finder
##fito
##fras
##fkin
##foni
##foil
##fstadter
##ficker
##flach
##fymet
##1n
##15
##11
##100
##199
##195
##BL
##Band
##Bul
##Beth
##BRA
##Boing
##Better
##Brain
##Bedi
##Brak
##Buil
##Gs
##GT
##GO
##GR
##Guy
##Geo
##GES
##Ts
##TR
##TN
##TW
##Tom
##Tron
##TAR
##TEC
##Tax
##Time
##Train
##TECT
##Trung
##Thousand
##ToSh
##TwoT
##Think
##pực
##pes
##pat
##pic
##pas
##pro
##pre
##pah
##phan
##pir
##pap
##put
##pass
##path
##pma
##pana
##pox
##prop
##pect
##pkins
##pberry
##poon
##packing
##pipe
##potting
##pcak
##92
##91
##9044
##âteau
##Es
##East
##Eye
##ERA
##DC
##DB
##DM
##Dam
##Dis
##Dub
##DRI
##DAR
##Drive
##Dojo
##SH
##SL
##SY
##SW
##Sim
##Som
##Shi
##Sight
##Sucks
##Sats
##Sten
##Stra
##Sense
##Sensing
##Sweeney
##Scale
##VO
##Val
##Vis
##Vic
##Vwois
##O2
##One
##OPulate
##OTECT
##bs
##bé
##biết
##bức
##bắt
##bel
##bet
##bat
##bad
##bid
##bing
##bill
##book
##bera
##bod
##biz
##bers
##bass
##bisa
##bule
##blor
##blas
##becca
##bius
##bility
##bird
##better
##bowski
##bacter
##batti
##baum
##bogad
##blood
##XX
##87
##86
##8000
##zl
##zL
##zer
##zel
##zig
##zie
##zine
##zum
##zick
##zeg
##ziel
##zier
##zza
##zbert
##zens
##zilla
##zaro
##zaim
##zetta
##zynski
##7m
##74
##79
##76
##ồc
##ME
##MI
##MF
##Mor
##Mob
##Mela
##Mark
##MPA
##MEA
##MHz
##Miguel
##MBO
##Maker
##MPER
##Mortal
##IỆ
##Imp
##ICA
##ISE
##ISS
##IUC
##ìfer
##ầnh
##ée
##égas
##ébé
##ấo
##3000
##397
##RE
##RED
##Rap
##RONG
##ROV
##Reun
##ár
##èu
##èque
##ètes
##Hs
##HE
##HR
##ỗm
##Ls
##LB
##LN
##Lond
##Luc
##Link
##LTAR
##ợu
##6o
##65
##6W
##qa
##qing
##qawi
##qimi
##ụm
##je
##jang
##jen
##jet
##jas
##jab
##jap
##jara
##jana
##jeh
##jero
##jazeera
##joli
##juana
##jector
##jury
##jaku
##jhun
##jobs
##jcick
##FE
##FR
##Fam
##Fly
##Fest
##FDA
##FOS
##France
##ẻn
##Ns
##Nó
##N2
##NI
##NN
##Niel
##NSE
##NET
##UP
##Us
##Uy
##UID
##USD
##UIUC
##ễp
##YC
##You
##Your
##YYC
##WR
##WW
##Work
##Wik
##Well
##ütz
##ỡng
##Jong
##ẳg
##đa
##đúng
##được
##đáng
##đừng
##đóng
##đét
##đio
##đeh
##đrô
##ẤY
##Zen
##Zur
##ừơi
##ừhhh
##KW
##Kohn
##ẠY
##ĂŤ
##ỵch
##ỵện
##ÌN
##ƠI
##ƠNG
##äum
##ño
##ỐI
##Đọc
##ïba
##ỜI
##ỜNG
##ỞNG
##ÉT
##ẾN
##ngs
##ngc
##nger
##ngela
##nghis
##nglé
thy
thỗ
thễ
thỡ
thững
thiều
thại
thũng
thồi
thấn
thẫn
thảng
thal
thel
thửa
thắm
thồng
thựa
thụp
thèo
thộn
théo
thep
thướt
thimer
thuyến
thẹo
thượm
there
things
theta
three
thread
thóp
thâp
thăp
thuyêt
thầnh
thấo
chp
ché
chò
chj
chĩ
chõ
chông
chời
chới
chiề
chến
chau
chận
chậy
chiểu
chòng
chiểm
chợp
chịch
chét
chạnh
chửa
chic
chầy
chit
chắm
chem
chiềm
chad
chạng
chảnh
chẵn
chộn
chón
chẳn
chri
child
chris
chũa
chlor
champ
chase
christ
chụm
chẳg
chngs
nhe
nhũ
nhậ
nhôi
nhạn
nhiết
nhành
nhâu
nhùng
nhiến
nháng
nhặc
nhôn
nhãy
nhắng
nhạp
nhồng
nhiê
nhiềm
nhac
nhing
nhợt
nhùi
nhẳm
nhín
nhụa
nhẻm
nhỡn
nhễm
nhâp
nhnw
nhhưng
##nhại
##nhung
##nhem
##nhus
##nhill
##nhart
##nhov
##nhoff
##nhoir
##nhiễm
trý
trứ
trế
trạ
trỉ
trỳ
trác
trững
tran
triên
trằng
trầu
trến
triện
trài
trổi
trọi
trơi
trởi
triểu
trìn
triểm
trảy
triêu
trển
tràm
truyên
tráp
trich
trum
trườn
tréo
truc
trệch
tranc
trance
tracking
tranz
trruyền
khế
khở
khă
khụ
khị
khẳ
khời
khất
khang
khản
khấn
khiểu
khòng
khục
khồn
khăm
khôm
khàm
khỉnh
khõi
khẳn
khấc
khựng
khụt
nge
ngệ
ngố
ngợ
ngử
ngỷ
ngác
ngững
ngao
ngâu
ngổi
nganh
nguốn
ngúc
ngưởng
ngấn
ngắc
ngặc
ngội
ngọng
ngáo
ngãy
ngấp
ngút
ngồn
ngịch
ngẩm
ngun
ngụt
ngộp
ngén
ngếch
ngệch
ngùn
ngỏm
vàt
vày
và1
vàtôi
vàhệ
phg
phơ
phờ
phị
phên
phiều
phại
phay
phài
phượng
phôn
pham
phìm
phâm
phảy
phóc
phậm
phôm
phượt
phew
phèo
phưu
phoo
phèn
phọt
phap
phứt
phog
phuc
phthal
phts
phịm
tôicố
tôibiết
quế
quì
quờ
quẻ
quằng
quền
quệt
quor
quắp
quẩy
quẫy
queen
quix
quets
qubit
quoanh
mộtth
mộtkiểu
cói
gim
giê
giỡ
giần
giái
giài
giơi
giắc
giưa
giạt
giãy
giảo
giệt
giăm
giậm
giiếm
giồng
giàm
giặn
giớn
giup
gina
nhữngviệc
những15
củả
củanhững
tax
tap
taọ
taì
taị
tanh
taco
tali
tags
tađã
tartan
taluy
tawaf
tahiểu
tafoni
cácmức
nàu
khôngph
##ongeb
##ongiang
đóc
ngườiđáng
bạnư
nghé
nghờ
nghên
nghin
nghêu
nghách
nghệt
nghầm
trongkh
trongđó
thểm
##uyama
nàynhững
đãn
đãt
đãkhông
đượcm
đượcnói
đượcđiều
đượcnén
nhưa
nhướn
nhưmất
nhướng
nhưnng
nhưgng
họi
họạch
họlà
##otá
##otau
##otak
##otry
##otent
##otorn
##otide
##otov
##otti
##otron
##otts
##otive
##otnik
##otics
##otene
##otchi
##otrig
##otrip
##otography
vớich
chor
choẹ
choắt
choán
Vàt
Vàmặc
##ayam
##ayas
##ayana
##ayhound
##ayRides
ram
rach
ramen
rađi
ratas
ragu
rađio
sựt
sựng
##anian
##aniz
##anburg
##anza
##anjo
##anoke
##anbell
##anethi
##anikio
##anbel
##anMiguel
mành
mà100
làmđúng
##ango
##angr
##angs
##angutan
##angju
##angled
##angiri
đểch
đểchúng
vềcác
về195
sẽch
cảo
cảc
điềun
thếm
thếp
thếch
hoẹ
hoè
hoản
hoát
hoặt
hoắc
hoen
hoat
hour
hoãng
homo
homeo
##onch
##onit
##oness
##once
##onta
##onza
##onary
##onora
##onstr
##onize
##onius
##oncord
##onks
##onnaise
##chỗ
##chim
##chos
##chis
##chus
##chid
##ching
##chop
##chie
##ched
##chip
##chstein
##chett
##chain
##chberg
##chron
##chula
##chenberg
##change
##champ
##chelle
##chimp
##chsurfing
##christ
##chhausen
Chk
Chò
Chần
Chang
Chằng
Chiết
Chinh
Chường
Chai
Chối
Chũng
Chiểu
Chảng
Chăn
Chìm
Chấu
Chiêu
Chắng
Chép
Chel
Chet
Chạm
Chol
Chạng
Chew
Chốt
Chey
Chab
Chich
Chir
Chùa
Chub
Chart
Chộp
Chast
Chipp
Chagos
Chops
Chater
Chesk
Chẵng
Chape
Chilton
Chanc
Chahi
ChIM
Chista
Chunn
Chacha
Chunky
Chieh
Château
từa
từtất
khiu
khii
khiông
khién
khibắt
Tôii
##inha
##inhock
##aorchestra
đếnt
rằngm
rằngi
Nhì
Nhé
Nhự
Nhỉ
Nhược
Nhan
Nhường
Nhau
Nhắc
Nhạt
Nhánh
Nhấp
Nhiêu
Nhét
Nhậm
Nhửng
Nhún
vàoban
vàochỗ
gìđược
việcmà
việccủa
việcđó
việcđừng
##auk
##aurus
##aucr
##aubert
##aume
##auss
##auds
##auchelle
lạimột
nghĩm
cáchd
hơnn
nhiềurủi
##iny
##inó
##inot
##inch
##iner
##inos
##ining
##inth
##inian
##inich
##inart
##ince
##inne
##inald
##inban
##infor
##inmati
##inqimi
##aic
##aish
##aite
##airi
##aimonia
đâytr
họcvà
họccấp
cont
condom
concerto
conficker
chỉn
côngten
vìi
vìlên
##anha
Chúngkhông
chuyể
chuyết
đii
điạ
điiều
điiện
điốt
điox
điêng
điôx
thứt
dụm
dụi
thànhn
##ungs
##ungen
sốnhững
cũngcth
nhàvật
bịth
bịnhiễm
toe
toác
toài
toạt
toal
toét
toile
toẹt
tomb
to6o
khoi
khoỉ
khoành
khoạt
Tha
Thọ
Thở
Thé
Thụ
Thây
Thinh
Thùng
Thai
Thậy
Thổi
Thuộc
Thiểu
Then
Thăng
Thes
This
Them
Thad
Theb
Thre
They
Thev
Thorn
Thund
Thinc
Theron
Thump
Thori
Though
Threat
Thoraz
Thorp
Thys
##eout
##eobacter
mìnhi
mìnhcần
nhưngchúng
nhấtt
tạo9
độngmà
chínhmình
loe
log
loạ
loác
loái
loắt
load
logar
lose
loga
locus
looping
giờm
giờởng
giờlại
tiếm
tiếu
nếuchúng
nếuhọ
xet
xelô
##eri
##erre
##ernet
##erst
##erman
##erent
##erington
##eroth
##eration
##erere
##ermo
##erville
##erable
##ercl
##ergy
##erase
##ervoir
##erquist
##erhodopsins
##erfeller
##erLuc
quyề
quyèn
quyềm
quyeét
thue
thuỵ
thuất
thuường
thuôn
thump
thuờng
thucj
tựng
tựợng
Trì
Trù
Trầu
Trống
Trinh
Tràn
Triệt
Trọn
Trom
Trèo
Trốn
Trộn
Trab
Trav
Trich
Trou
Trev
Trum
Trio
Trail
Trinc
Trump
Tract
Trial
Trivia
Travel
Trứơc
Truman
Trilling
Trugn
Treak
Tronch
địu
địh
##amor
##amos
##amel
##amat
##amem
##amus
##amou
##amook
##amite
##amka
##ambr
##amago
##amme
##amari
##amoto
##amics
##amial
##amego
##amascus
##amoah
ấyi
##ández
theochu
theohướng
Khe
Khà
Khử
Khôi
Khong
Khải
Khát
Khơi
Khắc
Kher
Khôn
Khen
Khiển
Khăn
Khánh
Khos
Khóc
Khom
Khói
Khlin
Khep
Khmer
Khrew
Khía
Khumb
Khều
Khudi
Khứu
Khyber
##eno
##enin
##ener
##enic
##enas
##enie
##ened
##enyl
##eneg
##eniel
##enza
##enue
##enaf
##enko
##enikio
##enbery
##enkav
##enfre
##enched
bằngNó
tếch
saucer
lêni
câunói
quadro
quatern
quart
quarter
ngàycủa
sinhh
##iast
##iate
##iathan
##iation
##iaras
##iafito
##iachis
năngmà
Nóng
Nóth
doán
doạnh
dolar
domino
dorsal
dopma
dozens
luôi
luấn
luât
luxơ
luợng
luwak
##aru
##arg
##arf
##aray
##arch
##arel
##aret
##arus
##aring
##arly
##arash
##arov
##arya
##arck
##areg
##arney
##arazz
##aried
##arena
##arni
##array
##aragua
##aricious
##arantos
tính10
dime
dict
diễm
tuông
tuận
tuin
tuỏi
tuẫn
tuẩn
tuts
tuba
tufr
tuợng
tuxedo
tuchus
hỏibức
Bạnmuốn
nữaI
##imina
##imate
##imxet
##imihalyi
vịmột
tuyểu
tuyệr
chiếy
chiếp
côban
hail
haizz
đoó
đoản
đoối
Ngư
Ngớ
Ngỡ
Ngã
Ngững
Ngất
Ngạn
Ngại
Ngây
Ngiên
Ngao
Ngàn
Ngắt
Ngượng
Ngục
Ngọc
Ngừa
Ngậm
Ngắm
Ngưu
Ngửi
Ngáp
Ngưởi
Ngẩng
Ngừơi
nayf
loạii
Vìì
baobab
nghệm
nghệch
điểmvà
ngoe
ngoà
ngoạ
ngoằng
ngoắc
Cón
Cómột
đưat
đưaWik
xuê
vient
visc
vielle
visa
viewer
viking
visit
nguyễn
##orf
##orz
##orat
##oras
##oresh
##ories
##orati
##orican
##orial
##orella
##oretic
##orotn
##orhodopsins
##alt
##alô
##alang
##alas
##alle
##alop
##alge
##alier
##alez
##alker
##alani
##alita
##altech
##alanga
##alosa
##aledi
##alipur
Phê
Phôi
Phao
Phai
Phán
Phiêu
Phiền
Phỉnh
Phụng
Phuk
Pherom
Phreat
Phosph
Physi
Photography
Phenyl
Phalle
mỗii
tổt
tổnhại
cầumô
khuỵ
khuật
khuản
khuấn
khuẳn
emm
empan
embod
giá400
##esis
##esas
##esun
##esge
##esley
##esby
##esend
##esight
##esden
##esque
##esville
##escent
##esda
##estone
chủa
##osal
##osel
##osis
##oston
##osov
##osite
##osley
##osoph
##osse
##osso
##osaki
##osynth
##oslov
##osbusters
##ospins
##oscience
phòngc
chưac
phíc
##eld
##ele
##elan
##elen
##elig
##elman
##eless
##elock
##elberg
##elme
##elage
##elium
##elho
##elapse
##elmä
##elAv
##elzel
khóm
tuổi13
điệnoí
bìnhth
đặtvào
Khiêm
Khilàm
tiếngđã
tiếngTrung
thoe
thoà
thoán
thoat
trảl
béng
Khôngh
thúi
thúôc
chun
chup
chuá
chuổi
chuện
chuển
chugs
chutz
chusng
chuỵện
##eto
##eti
##etoo
##etry
##etric
##etamin
##etics
##etrick
##etema
##etwal
##etchen
##etrak
##etmaver
thânPh
minhh
Giở
Giớ
Giỏ
Giã
Giong
Giành
Giường
Gieo
Giam
Gile
Giun
Giáp
Giord
Giãn
Giles
Giant
Giuss
Gits
Giamb
Gidan
Gilovich
Gizbert
kểu
soản
soắt
soul
soup
sobule
ghẽ
ghẻ
ghết
ghanh
ghet
ghrelin
##isu
##isis
##isle
##isth
##ised
##isip
##ishn
##isberg
##isect
##isui
##islav
##isbury
##iscilla
##isinart
##atu
##atas
##atah
##atum
##atub
##atone
##atore
##atiz
##atyr
##atoll
##atora
##atown
##atamb
##atso
##atoro
##atasy
##atyp
##atyam
##atrol
##atopsia
##atosthenes
##icy
##icia
##icis
##icine
##ician
##icum
##icent
##icans
##icod
##icana
##icela
##ication
##iceros
##icinal
đấyph
tinhcủa
tênTrain
cụi
cụa
cụp
tửơng
##ilo
##ilan
##ilus
##ilac
##ilip
##ilian
##ilera
##ilion
##iliy
##ilane
##ilities
##ilvy
##ilongiang
##ilchrist
##ilaume
bad
baì
baị
back
bacter
quốcmỗi
giảL
giảnh
chếnh
tưu
tưỏng
tưoờng
tưỡng
suyên
vụi
##uasca
##iten
##itos
##itob
##itec
##itta
##itri
##itosh
##itling
##itania
##itors
##itops
##itstan
##itude
##itfir
##itope
##itnov
##itraul
##ason
##ases
##asis
##asnet
##asod
##asco
##asier
##asilia
##asbourg
##asdair
##asanjo
dướigh
chútt
##oles
##olet
##olson
##olow
##olex
##olith
##olics
##olaus
##oloma
##olbar
##ololo
##olgle
##olving
quanhđó
10m
107
10tr
duyp
Hoạn
Hoài
Hooc
Hock
Hope
Hogar
Hops
Hooker
Homeb
Hofstadter
Honhoff
Hoelzel
gâymất
bun
bud
buội
buỗi
bure
bust
buớc
buzz
bugi
bulô
bulld
dùì
dùlà
209
208
20kg
20MHz
đủnăm
##lee
##leen
##lear
##leigh
##lejo
##legn
##leBuil
##lejeh
##lenhus
chúm
chún
chúg
##tera
##tered
##terbur
##tertein
##terfly
##terpie
đôii
kiếmlinh
tyến
type
tytôi
vuợt
##emi
##emum
##emman
##ement
##emara
##emlin
##emark
##emary
##emoph
##emiah
##emption
##embourg
apathai
apocaly
thưong
##omor
##omac
##omine
##omav
##omans
##omide
##omain
##ometh
##omwell
##omba
##omethyl
##omycin
##ommend
##om2f
##omerase
bướcc
lệsinh
laih
Ngườilà
đôc
chiu
chiim
chiễm
chihua
##uso
##usay
##usia
##ustr
##usto
##usoft
##uselah
##uskaya
##rae
##raq
##raj
##raan
##raal
##rack
##raple
##raZen
giữu
thíc
nghich
nghien
nghiễn
nghiẹm
##aci
##acew
##acles
##acier
##acity
##acros
##acole
##acabe
##aconess
200ms
##obia
##obes
##obert
##obod
##obale
##obytes
##obulation
##oblast
lap
laị
lady
lapa
lava
lazer
##adu
##adia
##adol
##adah
##adow
##adio
##adeg
##adidi
##addin
##adise
##adryl
##addagh
trụa
##andan
TEDs
TEDley
TED199
TEDerLuc
##urid
##urip
##urib
##urry
##urett
##urney
##urriel
##urlock
phútrung
000W
000042
000USD
##idot
##idas
##idol
##idie
##idine
##idate
##idium
##idipp
##idites
##idograph
##idABribe
##idomide
##ewy
##ewa
##ewing
##ewistan
##ewood
##ewire
##ewild
##ewises
chungd
anm
anternet
anti
anten
antide
##eby
##ebud
##ebren
##eboy
##ebok
##ebark
##ebaran
##ebration
##ebedo
##ebubble
##ebuhr
##ebiotic
##ebkeman
##ebele
##ooo
##ooi
##ooza
##oove
Sauce
Sauri
##ingan
##ingán
##ingen
##ingart
##ingotn
cạnhh
chứn
chứuc
đag
đaọ
đaã
training
chuẩnkh
quýt
ghironda
100m
100kg
100ms
100x250
hut
huệ
huỳ
hulk
huớng
huỵch
sẵnsàng
Quỳ
Quen
Quách
Quạc
Quóc
Quora
Quatar
Qualin
Qube
Quarter
Quiks
Quicks
Qudsi
Quraan
##roch
##roin
##rock
##roach
##roder
##rocy
##rocl
##rouj
dungh
thấty
##unles
##unsh
##unka
##unters
##unners
##untries
##uncil
##unjhun
bano
ban5
banj
banner
banked
Sta
Stuy
Stem
Stap
Stony
Steen
Stander
Stok
Stare
Stoll
Strad
Style
Stilton
Staff
Stieg
Staline
Stwart
Statford
Storr
Stowe
Stuckey
Stayhound
304
306
30mm
30cent
Newent
Newcas
Newport
NewAmer
daỵ
dapt
nhièu
Doon
Doob
Doub
Dove
Doery
Dogs
Double
DoSom
Dochula
nhuế
nhuẫn
nhuưng
nhuờng
##reate
##recia
##igo
##igeo
##igán
##igar
##igue
##igke
##igence
##igde
##igato
##igula
##igned
##iglas
##igorm
##igado
##igios
##igenix
##iglass
##igarh
##igative
##igations
##igiây
hyper
hybrid
hyrdo
hydrô
hypox
hyđrô
Inish
Inca
Instr
Invent
Initia
Invest
Income
Inspire
Invern
Infras
InSight
Injury
152
151
15E
15km
ink
inux
incent
inbox
intol
inkj
integ
injust
incred
influ
501
50ft
##ahu
##ahon
##ahah
##ahanistan
##aheim
##ahuasca
xoe
xoả
xoã
xoang
xoanh
xoạp
xoàm
xoẹt
##netoence
Conran
Coney
Condi
Constan
Consc
Convent
Consor
Condol
ConAgra
maybe
mayonnaise
thủi
phiu
##thm
##thor
##thly
##thent
##thage
##thens
##thopa
##thmingham
##themum
tiệnn
Alta
Alte
Algo
Alford
Aloh
Alyan
Also
Album
Alps
Alvis
Alban
Alvin
Alread
Alcorn
Alaikum
Aliph
Altius
Aljazeera
Alamos
Alasdair
Aladdin
##istas
##isted
##istration
##rans
##rank
##ranton
##ople
##opus
##opren
##ophe
##opyr
##openh
##opean
##opea
##oppy
##oppers
##opress
capt
cake
cabar
cappuccino
##ieki
genug
##illance
##illonit
##illomav
mêtan
##ardon
##ardos
cưc
cưởi
cười0
thiét
Nghê
sui
sub
such
suồi
suite
super
suât
supp
##agi
##agf
##agin
##agle
##agine
##agio
##agog
##agham
##agne
##agna
##agaska
##agawa
##agaga
##agonia
##agwan
##agiri
##agotchi
##agoras
12m
12h
122
1280
12von
##lok
##loon
##loit
##loul
##lough
##lodyn
930
trừơng
##eday
##edles
##edited
##edea
##edhoff
##tones
##tonium
##ène
thụi
##eye
##eyev
##eyio
##eymi
##abs
##abha
##abits
##abano
##abelle
##about
##abilities
hoach
nghịt
nghịi
laoptop
weblog
webside
##ipia
##ipop
##ipse
##ipibo
##ipudi
##ipiere
##ipOne
##ipzig
##akn
##akia
##akir
##akris
##akult
March
Marốc
Marra
Marry
Marion
Marath
Marast
Marlow
Marts
Marcy
Margin
Marius
Marvel
Marbles
Marriam
Margot
Maranbell
Maricela
Maremman
##ocj
##ocet
##ococ
##ocles
##ocate
##ocort
##ocino
##occhio
##ociation
Jow
Joes
Joyn
Joese
Joyo
Jovian
Joys
Jochen
Joerg
Jovoto
Journey
##avo
##avơ
##aves
##avus
##avour
##avati
##avirin
##avango
##uly
##ulos
##ulph
##ulina
##ults
##ulse
##ulkar
##ulsion
##ulcast
##ulatum
##ullough
##óttir
Aiello
namư
named
Yorkshire
##iani
##ianz
##ianos
##ianthemum
##owen
##owheg
##owieki
18kg
1842
40K
Tap
Taxi
Taqi
Taxistan
##ikot
##ikov
##iksen
##ikwas
##ikpap
##hannel
tiu
tien
tiìm
tiép
tiram
tiễp
Côngô
##eini
##einen
cũi
##ichton
##ichtenstein
robota
robotinth
25m
251
253
25kg
vữngi
duựng
duck
duma
duuu
duwow
##evan
##evich
##evec
##evara
##evelt
##eviks
##evolution
đóii
##umn
##umph
##umman
##uments
##umalanga
Shung
Shen
Shore
Short
Shett
Shok
Shrop
Shih
Shinn
Shenz
Shows
Shiro
Shema
Shams
Shift
Shiale
Shandra
Shoah
Shilling
Shoes
Shrugg
Shylock
Shadow
Shunsh
Shigeo
Shipibo
##ordland
##star
##stand
##stick
##stry
##state
##style
##staff
##stocks
##stasy
##storp
##stahl
##stepper
##stowe
##styren
##staB
##stetric
##stasis
Haiz
##iren
##iroo
##irth
##irstan
##irsson
##irinha
##phas
##phap
##phones
##pheus
##phalog
##phonies
##phoid
##phosis
##phetamin
trìng
Any
Anap
Anish
Anto
Anima
Anita
Animal
Answ
Anibo
Anote
Anwar
Anais
Anaj
Antar
Ansel
Anxious
Anđeh
Anaheim
##aper
##apik
##aptr
##apolitan
##apelig
##iber
##ibal
##ibes
##ibas
##ibly
##ibera
##ibber
##ibidi
##ibition
##iberg
##ibrank
Bride
Bryan
Britt
Breman
Brides
Brigade
Brueg
Brizzy
Brustein
Brrrr
Bryant
Brasilia
Brewing
Arum
Argo
Arend
Arred
Argh
Army
Arena
Armed
Arbor
Arnd
Arberry
Arichie
Ardak
Arlington
Arnhem
kía
kíp
nghỉm
nghỉu
vàngười
cama
##ifada
##ifonia
##ifisch
##ifesta
##ifeyou
##ifically
119
118
1114
1110
11giờ
Emine
Emst
Emman
Email
Emper
Emile
Emmer
Emery
Emmal
Emilia
Eminem
Emmett
Embass
vỡi
##ellor
##elligence
hổm
##ubon
##uben
##ubber
##ubare
##ubron
##ubli
##ubanes
##ublic
dườngn
giói
80kg
8040
80m2
muà
muộ
muõi
muxơ
muoons
muktuk
khuyển
##hner
##hnagiri
hiẹn
hijo
hijab
mũm
##azir
##azov
##azni
##azovic
##azynski
##azopyr
##uting
##utti
##utain
##utto
##utions
##utzen
##ickart
##ickers
##udho
##udios
##udsore
##udstorp
##lya
##lyle
Tooley
Tokana
Toxop
Toolbar
Hays
##enta
##entis
##entro
##entine
##entry
##entec
##entice
##entity
##acket
##ackout
60cm
60gi
60usd
néu
cui
cuôn
cuat
cuói
cuoon
cupcak
cuỗm
bụm
bụt
bụa
Khoàng
Khoán
##mpa
tụm
tôị
nhẹt
canada
cancer
canxit
canabano
Johnathan
JohnEd
Cars
Carre
Carey
Carry
Carney
Caroh
Carver
Carlock
Carryl
Carmel
Carmody
Caruso
Carthage
Carlyle
bờm
Thuần
Thuân
##esty
##estic
##estley
##estler
##estyle
##estige
##estigations
##oneer
##onehenge
đếch
Lean
Leat
Leif
Leith
Leigh
Leike
Leile
Legen
Leader
Leks
Lepper
Lecter
Leipzig
Leichtenstein
đammê
HIC
HIên
##ivy
##ives
##ivian
##ivert
##ivore
##ivize
##ivecom
##ivarius
##ertes
161
169
168
163
1620
16km
16oz
1679
Baech
Baffin
Loera
Logo
Loony
Logic
Loyd
Lodi
Loves
Lozan
Loewy
tanagra
tananger
princ
prair
prolex
prebiotic
thanggs
huyến
huyêt
đep
Affymet
##ore29
##allica
##allaj
500W
90kg
Isay
Isen
Issh
Isreal
Issa
Isiah
Isarel
##artis
##artec
##artya
##artner
##artanburg
Lue
Lual
Luồng
Luck
Luanda
Lucia
Luwak
Lukash
Luhya
Lugwig
Lufkin
Luebkeman
##awan
##awal
##awale
##awaki
##awwau
14m
142
147
14km
1414
1434
1492
##essari
701
707
Afgahanistan
ADE
ADD
ADSL
Davy
Daves
Davey
koán
kokonte
koangr
triumph
biét
##ional
##ionware
##ionaried
##ornic
2019
Amo
Amis
Amip
Amir
Amman
Amory
Amhar
Amgen
Amrap
Amlh
Amamou
Amarantos
Amartya
##russels
##geek
thùm
tỏm
##ashi
##ashima
##ashita
133
13th
1314
138000
##odil
##odist
##odopa
##odomor
##leseed
##leshkumar
ADNA
Calne
Calice
Calder
Calms
Calatra
Calabi
Calva
CalTech
Called
Calhound
Caledonian
Caldera
Caligula
Califonia
France
Franco
Franicis
nguên
nguậy
nguôn
nguổn
nguwofi
##ece
##ecus
##ecock
##eckel
##ecute
##ecdoch
##ecular
##ecademy
##ecentro
Afghannistan
Afghansitan
Bằngmột
gama
gameshow
gamelan
##attam
##attista
172
179
17tr
1780
1742
1797
##ffo
##ffer
##fferson
##ffrey
##fferty
##ffodil
lũi
##tron
##tres
##trid
##trum
##trolux
##truct
##trists
##trôpi
##laines
##lađét
##ylen
##ylak
##ylene
Cold
Coli
Collec
Collen
Coltan
Coletta
Coltello
Colosse
Collegn
##izi
##izon
##izes
##ized
##izium
##izawa
##izocar
##izsä
##ailug
##eee
##eezza
##erset
##ersat
##ersma
##erstone
##ershop
##ership
##erspoon
Hari
Hary
Hara
Harar
Harran
Harara
Harco
Harare
Harbert
Harbin
Haroon
Harsha
Harrt
Harrington
Hargre
songs
cheese
214
219
217
216
2180
213000
amplif
rue
ruỗng
rugby
ruợu
##ovich
##ovina
##ovitz
##ovetter
##ovision
##ocken
##ondo
##onds
Lanier
Lanny
Brave
Braque
Brazi
Canary
Cantor
Cancer
Cannon
Canadian
Canopic
Cancun
Cantera
##landt
##lander
Paro
Parr
Pare
Parma
Paragon
Paraqu
Paragliding
Parfit
Parsipur
Paraorchestra
Paradise
Pareyio
Paribas
Parazynski
Okie
Okey
Okoll
Okano
Okoloma
Okavango
mộy
Charmain
Charitable
Chartered
Geosc
Geovani
Geogre
Geosyn
Geogretown
GeoEye
##inach
##icoids
##ckawton
Score
Scann
Scoot
Scence
Scocrates
Screen
Scranton
##shot
##shis
##show
##shund
##shhh
##shkin
##sheviks
##araja
246
24giờ
Adi
AdG
Adina
Adha
Advan
Addam
Admi
Admin
Admund
Addis
Adjust
AdSense
Adalge
Adidas
Adeymi
Banff
Banladesh
nhỉn
##amax
##ennes
##ennale
##ennial
##ennQu
Hyman
Hyde
Hyogo
##liner
thank
Robison
Robeson
Robinho
Robusto
##acebo
Camen
Camara
Camillo
Sani
Sanare
##tier
##tium
##tique
##tafi
##tafar
##egon
##egger
##egawa
##egade
##eglass
##egovina
Facebookistan
blogs
Dane
Dania
Danube
Dannett
Michell
Michener
##ugas
##uggs
##uglia
Billings
lym
lyer
##cox
##coff
##count
##counters
##ithms
##ithecus
##leys
##ifornia
Californa
pink
pinick
pinatas
##ache
##achuss
##achtel
##acholi
hứaa
##ekhar
Twink
Tweed
Twiier
Twisted
nhoè
nhoẻn
400g
Mouse
Moises
Mogad
Mourid
McIn
McNuggets
McSweeney
McNiel
Talent
Talons
Taliba
Talinban
##tez
##teen
##undy
##unda
Elm
Elon
Elipt
Elder
Elgin
Elena
Elko
Eltis
Elworth
Elsa
Eliyah
Elworthy
Eldred
Elsev
Irap
##ogam
##oges
##ograd
##assos
##assis
##assana
The30
Theft
Theater
TheSh
TheProm
Paui
hôị
##berian
##berman
##berfor
##berlain
##ateful
hưữ
hươn
liú
##epath
##eptic
##epres
##eproject
##eppes
##athe
2000s
2000kg
##gound
heoở
dưõng
##buru
##burini
vaò
vaxin
Ando
Andrus
Georger
AIDSRides
quít
Bari
Baron
Barth
Barak
Barnes
Bargh
Barkeley
Barksdale
Baragwan
Palti
Palace
Palmy
Palais
Paltrow
Palermo
carbonhyd
carotene
##indor
##indberg
Berra
Berko
Bermud
Bermont
Berlio
Berrette
Berkly
Bernhart
Berberian
Londolo
Monk
Mona
Monros
Monroe
Monzon
Monrobot
Monthly
Spans
Spier
Splas
Spats
Speech
Spread
Spector
Spiller
Sparta
Sports
Spears
Splagh
Spaak
Spongeb
Spelberg
Spitfir
Spacew
Spurlock
Spartanburg
Timex
Timelapse
hàmđóng
##tinoids
##tinople
##riuez
##ramids
##insaw
##neem
##nefel
KenyaTunes
Apt
Apgar
Appr
Apology
April
Apartheid
Apkon
Aproch
Apache
##mađêh
##rics
##ricorn
##rictor
##ricolum
3DZ
Bench
Benin
Benes
Bender
Benkyo
Bendit
Bentham
Benoist
Benyus
Benazir
Edit
Edwin
Edger
Edna
Editor
Eddington
Education
Edgert
Edelman
Edutain
Jami
Jame
Jamin
Jamica
Jammer
Jamire
Jamison
immortal
sanwich
##hire
COE
COICA
tuýet
oxygen
oxyhemoglobin
oxytox
Roslin
Rosenberg
Rosnay
Rosenkav
Rosemary
Rosebud
##quet
##quus
##quila
##quids
##quency
##quiat
##quicent
##itterfield
says
khônng
150m
150kg
Paulus
Paulista
Beast
Beale
Beaver
Bechstein
Beinhock
Beardon
Beagle
Bling
Blago
Blons
Blade
Blader
Blumen
Blask
nanogram
nanomét
Mayan
Mayes
Mayberg
Mayso
Pratt
Pritch
Prits
Prrk
Pretty
Pronton
Prairi
Presley
Priscilla
Probes
Prudho
Prestige
Privy
Prizes
phúch
sloppy
Twitters
Twittering
sunga
Angor
Anglia
Angella
Angiology
Anglel
Abell
Abut
Abric
Abby
Abha
Abuz
Ababa
Abba
Above
Aboard
Abololo
Abaci
Ohair
Ohlone
Ohlenhus
Washingotn
hamburg
Boson
Bosina
Bosco
Bosnian
Bosquet
Tintin
Tinberg
Ôiii
Banglar
Evant
Evangel
Evening
Einxtein
Youku
YouPorn
Ngoạ
Ngoái
Mae
Mafia
Maedea
bêt
nhởn
Smok
Smoth
Smoot
Smoke
Smoky
Tựu
##heed
Cray
Cress
Craik
Cremaster
Crhris
Crescent
Crosley
Crisis
Cromwell
Crichton
Crutzen
cacbonhyd
##ierrez
thônng
##annes
Pett
Petner
Petites
##ortance
Francine
Jonsson
MI6
ord
orc
ordin
orange
orangutan
##eeny
TEDxTC
TEDxNY
TEDxGP
TEDxEd
TEDxVan
TEDxEast
TEDxVic
TEDxUIUC
TEDxYYC
TEDxZur
Richar
Richart
endor
entry
enveloping
energy
entertein
##endron
##endency
Charleston
459
4500
45KW
Wikis
close
clunk
clavus
clacket
##person
##perate
##peranto
July
Jules
Jullia
Jullian
##ynthe
351
35S
35000
35km
Dario
Dararty
Darius
Darnell
Darshan
Daratu
LaFrance
Laertes
Lafferty
deGuy
deerst
##oshin
##oshio
##oshell
Broward
Brods
Pakista
Pakitstan
ganz
1000kg
1000km
1000awes
NgheĐọc
cacbonate
MITx
Diễu
Diẽn
DiPesco
DiCaprio
Diébé
Diesend
Diebedo
Nei
Neal
Neiman
Neuw
Nehia
Nearly
Neusoft
Needles
Neapolitan
Naja
Naxal
NaUy
##oxi
Losanger
Schell
Schwe
Schaf
Schmo
Schott
Schuit
Schact
Schaug
Schae
Schiller
Schaum
Schimid
Schmid
Schrö
Schotts
Schanbel
Scharf
Schroder
Schopenh
Schocken
Schachtel
234
238
233
23000
23kg
comer
comple
commun
short
shoot
shhh
shvis
shakti
sharing
strong
##ezer
##ezifisch
##elađ
Hehn
Heij
Hearty
Heaven
Heizer
Heilongiang
##pei
chínnh
##astøl
758
7500
75000
756W
##wards
Chaoni
Chainsaw
Freer
Freire
Freetown
Freaks
Freeflying
Freedhoff
Freestyle
Frequency
Suất
Suýt
Suez
Suitable
Suraj
hackers
##okas
##okee
##okull
##okuni
##okonta
Clip
Clio
Click
Cloth
Clair
Cleop
Clause
Clathrin
Clifton
Classic
Clenched
Claddagh
Derarty
Dernav
PMMA
Whoop
Whize
Wheeee
Whoppers
##lanations
##inci
Richardson
Atem
Atul
Atif
Atwood
Atalan
coóng
could
cours
courriel
countries
lờn
##ephthalate
##bria
##brick
##brosso
Marker
Markey
Franken
Frankfur
Jeans
Jeeves
Jehand
Jeevan
Jeiber
Obaf
Oblong
Obasanjo
Walrus
Walesa
Waltz
Walgreen
Walnut
Wallejeh
uyết
Roberts
NAC
NAS
NASC
NAND
NAMI
Tomi
TomTom
Tompkins
Willard
Willbur
Willough
gain
gaaa
997
9999
9997
Natal
Natus
Natsumi
NatGeo
micelium
##arks
##arkable
##arkhand
##ileaks
Flash
Flight
Flush
Flame
Flute
Flaubert
Flamego
##oundYour
Philosoph
Philbrick
Angels
Angelini
225
222
228
223
22000
Samoa
Sambal
Samlim
Samsung
Samhita
Samburu
dởm
lơp
Manson
Manly
Manta
Manley
Manmo
Manche
Manteg
Manual
Manitob
Manifesta
##fty
Malay
Malia
Malta
Malka
Malinda
Malcom
Malonen
Malanesia
Maltus
Malevich
stick
stent
stans
stars
stream
styrene
stories
stooi
studios
##itydog
1943
Guo
Guern
Gurad
Guido
Oxus
Oxide
Oxnard
Oxitec
vani
vanilla
vanadi
Refa
Reese
Ready
RePO
Requi
Refu
Reebok
Reaper
Reuben
Sinhala
##ptical
##ptococ
phoóc
##ateshvara
Bala
Balkh
Balencia
Balzac
Balfour
Balsara
Balloon
Balakris
Balikpap
Balckawton
Gabe
Gaby
Gabon
Gable
Orr
Oreo
Orson
Orion
Orissa
Orfali
Orchestra
Ortega
Orchid
Orthopa
Orpheus
Seider
Seagram
Sequa
Seurat
Search
Seacole
amine
amonia
ambi
amno
amphetamin
##ohue
##ohetz
Induc
Indust
Indians
##cribes
##bergers
Smithe
Smithson
Nobu
Quad
Quadro
Quads
Quaking
alf
alen
also
algor
alumin
allodyn
alphap
##ernors
##ernaya
Transistor
TransCan
##ushis
##ushka
600000
Romare
Romme
Romotive
Sahel
ohh
##issinia
##isseroth
##ishu
##ishcer
##ishdoc
##atchabe
##ucyc
##ucci
##bertown
##bertrans
độnt
##loway
Martini
Martinus
3600
3650
36kg
3642
tênh
##nycats
##yright
##ethooth
Parisvega
##icontinoids
Maden
Madden
Madeline
Madiba
Madness
Madagaska
Madentec
Torng
sôđa
##ldoz
##othelin
##othèque
##onesian
##orance
Copan
Coptic
Copyle
Copyright
Weblog
Webley
Webby
Website
Webcam
##iams
Greenwood
Greenpoint
276
Jervis
Jerome
Jeramial
Jeremiah
Burrow
Burrit
Burqa
Liber
Liberal
Libersat
##toria
##torio
##antine
##antown
##ropy
##ropria
##ropocene
##ophone
##ophoretic
Christmas
Christophe
##eful
##gerin
Stanfod
Stanislav
Rwando
Rwandan
quạu
##iliconVal
267
266
26397
Ahkiv
Cáｃ
Cárden
Enola
Enbridge
Enzy
Ende
Encou
Enzim
Enigma
Enteb
Enlight
Encarta
Enjoli
Entrôpi
Encounters
Hawn
Jacky
Jacklovich
Venus
Venera
Venable
Đoạt
##ssen
##sses
##ssigke
##ssshhh
##aires
##enstern
##ensohn
##enskaya
##imba
##imbatore
956
9550
Acto
Accept
Accordion
Academy
Acinetobacter
Account
Grừ
Grison
Grito
Grizz
Grzeg
Grinch
Gretchen
Grumman
Grateful
IIT
IIiff
Subaru
##merga
##mercial
##ussy
##ussan
Charlies
Charlott
Charlene
MTN
centipede
##derbergers
Galves
Galway
Galatic
Galieo
Galloway
Latma
Simona
Simoux
Simeon
Simulcast
Simikot
Tuỵ
Tuân
Tuff
Tuýt
Tuolum
Tufte
Tuareg
Uygh
Vanity
Vanessa
vaccines
##tites
##titlan
tuỵệt
hydrofoil
Montt
Montel
Montmart
Montagu
Montague
Montpar
Montandon
Montgom
Montauk
Monteneg
Delight
Delft
Deloit
Delfour
Delights
Hansn
Hansel
Hanssen
Jiminy
Perth
Perez
Perner
Peruse
Perimet
Perrin
Percept
mỡi
##uki
##ukh
##toevsky
##toonks
Applebee
Applebaum
651
659
CES
CEPS
Gatesn
Henter
Henley
Henria
Janeen
Jancso
Mori
Morse
Morrow
Morgen
Mortha
Morpur
Moroso
Moreno
Moresby
Micrô
only
once
Quayle
324
328
327
326
3200
3220
3214
Babes
Babel
Babas
Babur
Babcock
Babushka
Hamish
Hammer
Hamburger
Sweet
Swami
Swiss
Swift
Sweat
Swank
Swifton
Swarov
Swaptr
Sweeny
Warmer
Warwick
lammf
##jafj
##jaonary
Chúm
Chún
Parks
Parkin
Browe
284
2800
28mm
Bonk
Bonny
Bonnett
Bonnier
Bonanza
Maha
Mahied
Mahamat
Maharash
Maharaja
Norge
Norse
Normand
NorGen
Zeitz
Zealang
bonsai
1951
Palestina
microwave
microchip
microarray
Coe
Cohn
Cooney
Could
Cozum
Coelho
Council
Coevolution
Coimbatore
Meine
Meir
Means
Meier
Meuron
Meime
Mealey
Patmore
Patagon
Patrocl
Patagonia
Tesco
Taste
Taschen
Tasawwau
Tasneem
Waters
xiu
xiú
##veratrol
##ationship
Goa
Goá
Goes
Goat
Goolgle
Kingston
Macon
Macln
Macedonia
Macxit
Macedonian
MacBeth
Macarena
Macitosh
Nanex
Nanko
Nanabh
##upy
##upati
##wege
##weise
ngưòi
Starr
Stars
Starry
Starner
Starters
Starsky
Starzl
##therford
1970s
197042
Gandhis
Kimono
Myung
Myra
Myles
Myers
Mysp
MyDam
Myshkin
##ronic
##cari
##veillance
##inoff
335
339
Death
Deamer
DeVo
DeMar
Deawar
DeCamp
DeSten
DeJong
Deaconess
Deisseroth
Donner
Donors
Donohue
Syriana
Uggh
Ugali
##intjaku
120th
Bushmen
Ladakn
Muir
Muito
Murab
Muffin
Muhly
Mufasa
Muzetta
kệm
kẽo
##illed
Brianna
Worlds
Worldwid
Microsof
Tasmananian
700000
700kg
700kc
800kg
Cyber
Cyborg
Cycle
Cybertrans
CAT
CANY
CAMF
CAFOS
Dax
Daffodil
Glaser
Glenie
Glacier
Globale
Hery
Karp
Karan
Karel
Karsh
Karate
Karwal
Karmpa
Mato
Mata
Matters
Matias
Material
Matrix
Matahari
Matsum
Wallce
Wallmart
Aristophan
Geni
Generat
Genius
Genuardi
Generation
Genesis
Genetics
Plata
Platon
Pluto
Plotnik
Platyp
Plasnet
Plurip
Placebo
Tank
Tanagra
acmonia
accept
acetic
acinetobacter
hànG
##rise
##feed
##itzman
Aristotles
85m
855
8500
85000
Buông
Buôn
Buford
Buzz
Buxton
Froogle
Fromb
Frasier
Frubber
Frutti
Mandeb
Mandangiri
NLS
Salk
Salon
Salam
Salim
Salad
Saleh
Salatin
Salazar
Salisbury
serie
servive
##tskill
Khuẩn
##ipps
Uno
Unified
Unknown
Unicum
Uniroo
xenon
Lakes
Lakara
Lakewood
Lesters
Meltz
Melody
Osberg
Oskar
Osborn
Rockin
Rockland
RockSim
RockYou
Rockerfeller
Rocketmaver
Server
Serbi
Sereng
Serious
Service
Tammy
Tammie
Tamagotchi
Tamburini
Virút
Virut
Leeuwe
orgin
showbiz
554
553
55000
Baya
Bayridge
Jennìfer
##boTron
quadrillion
quadraple
##atihah
Shake
Shaka
Shakti
Shakeris
Abrahamic
292
298
Bolton
Bolster
Bolye
Bolsin
Bolivian
Bolsheviks
Caps
Capra
Caplin
Caplan
Captain
Capirinha
Capricorn
Hollywod
Jacynthe
Lars
Largo
Rayban
Turf
Turek
Turrell
Turtles
Viì
Vihar
Violon
Viégas
Violet
bỏngi
Brono
Bronte
##ected
##ectomy
1980s
Jeffery
374
375
3700
3729
3774
Forest
Forces
Fortius
Formenschatz
Foresight
Fortres
Nordon
Wolfensohn
tơí
##ydides
##ydases
##orykin
##olean
Youtbe
317
316
3140
Avon
Avian
Avalon
Avogad
Avenue
Aventis
Laugh
Laural
Lauterbur
Southern
Southamp
Titi
kihi
##monton
##monides
##yani
##yanku
##afy
##afia
##grade
##graphy
##reddin
Roslings
Longfellow
Mosiah
Mosuo
Ronchamp
Ronnefel
Woww
WowChart
trinhg
1911
1916
Andrews
485
CDO
CDI
Disability
Disabilities
Eurasia
European
Eurovision
Huân
Huis
Huỳnh
Hueber
Huaut
Hillbill
Noí
Noor
Noãn
Noora
Nozick
Roz
Road
Roque
Rooney
RoMela
Rojas
Roanoke
Roosel
Roomba
Teder
Ted201
Yoon
marble
mariachis
marimba
##diqui
##haBrak
Stream
Airs
Airway
Airlines
Airlaines
Singapo
Aso
Ask
Asa
Asian
Asli
Aslam
Aswan
Asanga
Asahi
Asamoah
Ferry
Ferrofluid
Golda
Goldie
Goldacre
Goldcor
Goldance
Goldeng
Goldfish
Irim
Irit
Irwin
Irishman
Irraq
Iridium
Irornic
Mattt
Sommese
Somerville
Somerset
market
neue
neural
nitrogen
rổng
##ginn
##ECAKE
Carlor
Carlson
Carlisle
Carlifornia
Blackley
Blackpool
Bronxm
Bronxistan
Streets
Ecole
Ecology
Ghét
Ghost
Ghaba
Ghrelin
Ghibert
Ghoresh
Ghosbusters
Ghazni
Kirin
Kirby
Kirken
Kirchhausen
Lewin
Lewinsky
Procter
Robotic
mirac
##sea
##eepMark
Everst
Everett
Evergreen
Josephs
Josephat
Josephine
DVDs
460
463
4629
4657
Denari
Espen
Espin
Espir
Esperanto
Knut
Knorr
Knudstorp
Mural
Murry
Murder
Murano
Magpi
Maguire
Magdal
Maginot
Magaret
Magalani
Olive
Olso
Olmy
Olga
Olsen
Pops
Popper
Poppins
Population
Rivera
Rivkins
Riviera
Sandman
Sanders
Wilma
Wilder
Wilfred
Wilcox
Wilberfor
Wiliams
spa
sprin
spelling
spittin
spangled
spinach
spezifisch
Đôla
##MAN
##NCs
##NCHE
Allard
Allama
Allcorn
Allianz
tweetster
Bănglađét
Erma
Erwin
Ernst
Ersk
Eratosthenes
Ethan
Ethipia
Hanford
Hanke
Hanlon
Milo
Milch
Milinda
Milennium
Panel
Panaki
Pantone
PaniPack
Rams
Ramy
Ramen
Ramble
Ramayan
Ramblas
Ramayana
Soul
Soap
Soussan
Terra
Terrace
Teruo
Wring
Write
miligram
miligiây
##maris
##marck
##marize
##eche
##echoslov
##arons
McCorm
McClure
McCrae
McCurry
McCullough
clicks
devils
384
382
3876
Biét
Biira
Biennale
Biyani
Buda
Budev
Budda
Budwiser
Jordani
Kellar
Nickel
Nickelb
Nicklaus
Tema
Tembisa
cuae
haa
haaa
ha2b
kilomét
kilobytes
kilogam
kilohetz
khửu
1900s
Sherman
Sheridan
Sherrington
Sherpas
Gandhiji
44000
4487
ARUP
Graph
Grave
Graceland
Gravity
Grabowski
Highway
Liniger
Linares
Meru
Meret
Merton
Merde
Mermaid
Merriam
Mercury
Masdar
Masterpie
Misse
Missoula
Missisip
Rae
Raad
Rajaonary
Redfield
Redlands
Redelme
Redemption
Said
bars
barjack
##deal
##deAll
##sius
truền
truọt
truớc
cafeine
Scotty
Kraus
Krueg
Krưm
Kresge
Kremlin
Randers
SOB
SOHO
Sustain
Weir
Weiger
Weingart
Weizsä
Weitzman
methan
meters
metarh
metylen
okey
##ucho
Thịnh
Argus
Philipin
Tanzaniam
Tanzaniz
727
7291
860
8600
Botti
Botzmann
Bottle
Bertels
Bertsch
Bertoia
Caí
Skitt
Skeena
Skipper
Skolan
Skowheg
Skeptic
goạ
gofl
gozaim
ắcqui
##doons
Tríc
1935
1937
JohnnyCash
Nations
Bhakti
Bhabha
Bhubanes
Bhutto
Bellet
Bellingham
Cascino
Caslon
Farina
Farber
Farver
Farrell
Katie
Katara
KatzL
Katamari
Langdon
Languir
Rogger
Slam
Slash
Slope
Slayer
Slenikio
Slobod
Slavơ
Sunstein
Sunfish
Tahir
Tahoe
Tahatchabe
Usher
Ushadidi
glô
posterbird
##soaledi
##ostak
##ostics
1924
1927
1923
Archon
Architect
Architecture
Mozilla
98m
984
982
Aga
Agency
Agamem
Birgit
Birthmingham
Duff
Duvall
DuPont
Haa
Haagen
Haaa
Haïba
Haemoph
Haeckel
Hungari
Hungginn
Havel
Havidol
Koch
Koons
Koestler
Keasy
Maud
Mauri
Mauna
Maude
Mausoleum
Sylvie
Telco
Telmon
Telugu
Telemark
Telebubble
Telecentro
ahh
ahhh
##RAN
honesty
vitaminn
##ilyReun
Columbo
Georgie
albums
Ethiopic
425
4200
960
961
Ashland
Ashken
Ashahi
Asheville
Basu
Basam
Basra
Basmala
Basquiat
Extra
Exchange
Heli
Helium
Helmand
Helmhol
Helbing
Imara
Images
Imagine
Juven
Juicy
Kermode
Kerrigan
Kamila
Kamvar
Kalam
Kaladar
Kalahari
Kalkado
Kalpana
Kalishn
Mirah
Miura
Miucha
Minute
Minotau
Move
Moved
Movable
Opi
Ops
Opus
Opower
##PTCH
##eastern
phảp
violet
violins
Marcos
Marcela
Marconi
Briton
Britain
Americans
350ml
644
640
648
Arad
Arap
Arava
Curzon
Currens
Godard
Godzilla
Itza
Itunes
Ituri
Jesen
Jesica
Jesfferson
Lawmen
Lawrn
Netany
Nicaragua
Sibbet
Skysurfing
Skydrive
Skywrit
SkyDrive
Vals
Valve
Valentina
Valicia
Vallejo
Welles
Wellbut
Westin
Westwood
Westminster
##time
##ctive
chổng
Camerons
##atherjack
Bernstein
Julianes
Northern
Northrop
Northeastern
Zimbabuê
90000
900km
Bíp
Belo
Belmar
Belmont
Beltran
Belgium
Belarus
Belgrade
Comer
Comes
Compress
Command
Comfort
Comedy
Comeday
Commercial
Dresden
Duron
Durer
Durham
Durda
Dubuque
Radiology
Solitude
Solutions
##ulean
##lorer
thỉng
horned
horsing
horizon
##ateral
1855
1859
1853
1856
1874
1873
Shirer
Shirkey
Annenberg
Annabelle
160km
140km
McDowell
McDonough
viruts
Starbuck
Earthly
EarthLink
Earthrise
Kellys
474
475
473
476
438
433
436
4300
Boom
Bozen
Bojang
Boersma
Boolean
Boyer
Boyce
Boykin
CNTT
CNVC
Granovetter
Hadow
Hadith
Hadza
Haddock
Kurwell
Kurtz
Kuriyama
Kurosaki
Liang
Liop
Liqi
Liquids
Polle
Polonius
Polenta
Polartec
Penney
Sudhak
Sudbury
blackout
polyester
polycarbon
polyxet
polyphenol
polyprop
polystyren
Chiêm
##aignee
##aigslist
180m
1802
1801
1809
1803
180kg
Anasazi
Campari
Campolo
Whiteboy
Copernicious
Hawken
Movement
414
AMP
Achoo
Achmat
Acharya
Engel
Engels
Garry
Garcia
Garfield
Garmin
García
Mappers
Mapquest
Mitchel
Peppers
Ricky
Rickroll
grafit
hello
helicod
helianthemum
itn
itch
itếp
puja
sandcastle
##keys
##gons
##psala
##EAM
Cherie
Cherokee
##innati
##aitis
Gilford
Gilmore
Gilgit
bazo
##omenes
Supermak
SuperBetter
Superpipe
Jacksons
Jacksonville
##graphicum
Louisburg
Louisville
547
54mm
5486
974
Beetle
Dicks
Dickson
IMDB
Lebnon
Lebrero
Oakdale
Reseda
Reservoir
Results
Sadua
Sadie
Saddle
Sadgop
Saddiqui
Urp
Ural
Urfa
Urdu
bángi
đuờng
##Sports
1901
1909
1907
1252
Scribber
Scruggs
Scripps
Beatle
Beatrive
Beatjazz
Jeane
340
34th
680
770
777
77AG
CSS
Corot
Corak
Corrid
Correct
Corru
Corrie
Corolina
Corfu
Corvette
Cortez
Diepre
Foxcon
Groveland
Groucho
Hallie
IPC
IPI
IPaid
IPhone
Musab
Massey
Massachus
Massachuss
PHP
PHỤ
Rodin
Rodger
Rodale
Rodriuez
Snake
Snickers
Snitterfield
Saeed
Saabs
Saffo
Seneca
Senigar
Taipei
Volvi
Volvos
Viki
fanzine
no1
noí
##stones
##prin
##prize
##SC1
##inescence
Interner
Interfl
Intermet
Intervo
Interpl
Intercative
Grande
Grandma
825
822
Béc
Ganz
Ganesa
Halle
Haley
Halee
Halonen
Halvors
Halprin
Kuala
Ryanair
SAGE
SACD
SAGES
SANSE
SRT
UNT
bof
boone
beft
hươtng
vviệc
##eance
##koe
##words
##flubron
phuật
phuơng
##auskas
##ausfeld
##ometrics
##rada
Strait
Strunk
Strangel
Strauss
Stratasy
Strasbourg
Strindberg
Strausfeld
Artist
Artie
Artesun
McDonalds
780
782
78RUS
AVC
AVPR
BMP
BMe
BMI
CCP
CCD
CCHR
Damn
Dammann
Damacy
Damamascus
Fibria
Hasegawa
Holt
Holman
Holme
Holodomor
Hannad
Hannibal
Jarrah
Jaringan
Kibbutz
Maimonides
Ono
Only
Onagawa
Onassis
Russia
Russel
Tiera
Ti02
TiVO
THE
THỬ
THực
THIÊN
THCS
THẤY
Tunes
Very
Verne
Verde
Verinsky
Veruca
Verroc
Verfah
mĩm
##irapine
##irability
##gaq
##genor
##genstein
trojan
Thoải
Thames
Connemara
MaryLand
Carrington
McGuinness
McGetrick
McGilchrist
Rosslyn
Rossetti
Rossevelt
Beautif
Beaumaris
Craigslist
Peruvian
Mitchells
05m
052
051
571
57000
844
Bahannon
Blok
CLB
Dorma
Doritos
Geruch
Gerda
Germain
Gerlach
Gordens
Jasaw
Jasmine
Motel
Motetema
Motsoaledi
Meters
Metals
Metamor
Metallica
Mirror
Miramax
Nicholson
PCR
PCCH
Pierce
Silve
Silwan
Silva
Silvest
sỡm
temblor
whoo
while
whoooo
đêù
##eads
##khang
##khstan
##zzt
topos
Stirton
Stockwell
Stockhausen
Schwab
Schwatiz
Schweppes
Oxygen
Tunisie
Himalayan
53rd
Centauri
Centipede
Essam
Fellowship
Leni
Lenovo
Lenoardo
Levant
Leviathan
Lockhart
Lockheed
Papusay
Pinkens
Tyson
Tyne
Tyvek
Typhoid
Tennyson
catốt
catalô
tểh
##raline
##ralow
##sday
##sdóttir
##wwocj
##hrive
##banes
quỳen
##erbeg
##itions
##itional
TED2014
1884
1882
1889
1883
1886
Anthon
Anthropocene
Legers
Legare
Palms
Jamaia
glucocort
PepsiCo
Chernobyls
39m
391
67m
670
761
945
Azra
Azubare
Ailsch
Bilal
Biloxi
Bilderbergers
Clock
Clound
Daisy
Debbie
Debevec
Debussy
Hazara
Joburg
Kaye
Kayonza
Limburg
Limoges
Menlo
Meninas
Menchu
Menomine
Medina
Medica
Medison
Medha
Medawar
Making
Makani
Novem
Novaca
Novartis
Ottomans
PISA
Porta
Porgy
Ruồi
Rutherford
Rhine
Reboxetine
Rebbecca
Sangberg
Sugi
Sophie
Sophocles
Wooo
Woof
Woooo
Woodham
sonate
##letepath
nhìêu
nhìều
##ontolog
##arsk
##omeus
##actionware
Stonehenge
Downhill
Alien
Marsha
1895
1892
1898
1869
1867
1866
Sharp
Sharpie
Whitehall
360s
Universe
Tennesse
662
668
667
666
66kg
Bandunda
Bowen
Bowles
Daye
Dennise
Feds
Fedup
GeV
Geiger
Geisel
Geely
Genghis
HSG
Koshi
Kentridge
Kentuckey
MAO
MAJA
MAKE
MAXX
MANCHE
Mango
Miki
Miklos
Mikveh
Megawatt
Peng
Peat
Peje
Pyle
Pyramids
Picassos
Parts
Party
Partly
Partido
Sisi
Siskel
Sisters
Tarter
Targa
Tarshis
aria
archa
arsen
arigato
araignee
penis
rệu
##daq
##case
##hoại
##hoenix
##hoilo
##jevich
##itsar
##itsevara
Standy
Standing
Standley
Steinbeck
Mariah
##ocrats
##ocratic
Brandon
Todagin
Appian
Apprecia
Appleseed
Maxim
Maxine
Cochlear
Jacquard
Econol
Econometrics
Austria
Australop
Phillippe
Bloomsday
564
5640
CHO
CHẠY
CIASur
DDOS
Demos
Demosthenes
Democratic
Dunmore
Dunning
Fiore
Fiorella
Fiordland
Fiennes
Faith
Hotwhe
Hotstepper
Hittites
IKE
Kiyash
Kiwi
Lesbos
Label
LabCorp
Laborat
Lynce
Lynwood
Lyndon
Mulan
Muller
Mulder
Mulhol
Multimedia
Naran
Narok
Niko
Nikita
Nikki
Nikilia
Nikolaus
Pinatub
Pinocchio
Pinoneer
Rowe
Rowan
Rowed
Rowling
TBN
Winfrey
Winograd
Window
aufger
authent
etude
eBox
eBird
eBooks
esta
memento
members
megabit
xaoy
##ochs
##ochán
##ochtitlan
##cmica
##EFL
##EFAN
##OST
##buster
Childhood
ChildMortal
Gitxsan
Instant
Instron
Johann
1800s
Shahrn
Bradwell
Bradely
Barbican
Barbecue
Barbarian
Palestinian
Youngman
Youngblood
Odyssey
594
714
719
7100
ATP
ATR
Astoria
AstraZen
Astaires
Bread
Breck
Bregenz
Breitling
Bartlett
Croy
Crouch
Croaked
Cohiba
Gulp
Gulag
Gulff
HPV
HPI
Humla
Humbo
Humvee
Hindus
Impact
JKF
Kanai
Kids
Kidrobot
Lyell
Lysander
Lizana
Lizzie
Midway
Midwestern
Midlands
Mardhini
Manni
Manning
Ozarks
Piaf
Pitagora
Purana
Purves
Puranam
Purdue
Purteen
Rubicon
Rubbertown
Songs
Selfrid
Selanikio
Selkoe
Tonay
Toney
Tonight
Vaisali
Velib
Veldt
Vivaldi
Vivienne
awiil
brit
brunch
brilian
nểu
paradol
parapelig
##copter
##ppo
ngàh
burst
burning
burgle
burglers
Shawshan
##apeake
Armour
Armando
Harrisburg
##tainment
Dannys
Montery
Spruce
Evelin
Najar
Najjar
Gabrielle
Buffy
Lauret
Laurent
Riversleigh
Hirsherg
RadioSh
Economic
cocktails
885
883
886
ACE
ACM
ACL
ACLU
Athen
Athony
Athletepath
Byron
Cassandra
Desperate
Dragons
Ebadi
Honest
Kasubi
Kapoor
Kapavati
LAX
LAI
Lasley
Owings
PAX
PAH
PATS
Remi
Remnick
Remmel
Rememb
Recall
Recife
Records
Recyc
Receive
Recluse
Recommend
Regis
Regenes
Reggio
Reginald
Regelmä
Regional
Surat
Surya
Surrey
Surinder
Surimi
Survey
Surpris
Surface
Surenas
Surowieki
Surgenor
TGiới
Utrecht
Uppsala
adrem
adagio
díc
gỉai
geophony
geophonies
geographicum
jihadist
mojit
mozzar
mođun
mousse
plug
place
plaza
platyr
plurib
saloon
vơí
wooo
##lavi
##ceral
##cracker
##venting
##ventions
raining
rained
Trinida
Gillbert
Gilligan
##atanatyam
Hobbs
TED2003
Algore
Algalita
Tweeter
Philipppine
Burniss
Galili
Waterman
Watermel
Waterloo
Kurds
Kurdish
Kurdirstan
Illinoise
62m
625
622
6234
AIM
Bitu
Bitsy
Ballet
Ballard
Ballmer
Cosby
Cosmo
Cornel
Cornish
Cornerstone
Codecademy
Clevelađ
Elephan
Eleonora
Fabinne
Gallop
Gallianos
HCI
Hempel
Hudak
Hudiks
Idee
Keys
Keynia
Keyston
Keystone
Keyloggers
Lurie
Limbi
NGram
NO2
NO3
NOVA
NIST
Neville
Nevirapine
Poetry
Poilane
Prado
Praxeology
Prajap
Preventing
Pavlo
Pavona
Pavilion
Pachys
Points
Rabi
Rabbie
Rabbi
Revell
Revital
Rumani
RepRap
Republic
Sinatra
Sinjar
Sarnia
Sarandon
Sargasso
Sarjero
Saramago
Sarbanes
Sagole
Tibor
USFDA
Visitors
Visceral
epitope
epidot
mmê
mminh
myxin
mycoph
mixer
mixtape
##mbian
##mbolics
##mentation
##uhanga
##oulder
##aaarg
##ESS
##Shop
##ShipOne
##HOM
hoocmon
Chinook
Chinatown
Phoebe
Housewises
2024
2029
2028
##ombin
##ombobulation
Shephela
Banksy
Hyderbad
Michoacan
Bluebe
Bluethooth
Schools
Headhun
Headwat
Christians
Gladstone
EuroDis
Duoling
ExxonMob
Snowball
Snowdeal
Senegalese
##pressant
Pythagoras
928
Ayman
Ayers
Ayatoll
Awash
Aware
Awolow
Autumn
Auguglia
Assisi
Assemb
Association
Biona
Bionics
Bondo
Bonds
Bogart
Bogata
Bogotá
Bethesda
Depo
Depot
Deplot
Depeche
Goodle
Goodall
Goodsell
H2O
Hacking
Hackers
Hackenberg
Jornet
Jorgan
Kwa
Kwame
Kwakult
Kwikwas
Kathy
Kathmand
Kathleen
Kantian
Krishnagiri
MOCA
ROM
SIO2
Summers
Summarize
Safti
Tulip
Wolsey
Woloshin
area
coup
couchsurfing
elBul
hêroin
hotel
hotdigg
limburger
nuỗi
nuoi
nuýp
##rasekhar
##panics
##zoid
Chungs
##ialla
##althy
Gifford
Hoffart
Hoffmann
Saulus
StingRay
1821
1827
Antonius
Lovell
Lovett
Lovelock
Isabelle
Androids
Prospect
Mechigan
Mechnical
Player
PlaySt
Playtime
Arabic
Clouds
WikiLeak
Feynmann
492
610
618
Audis
Audre
Audience
Audubon
Auditions
Buyệt
Bunn
Bunsha
Button
Butare
Butcher
Butterfly
Blogothèque
DISC1
Domo
Domingo
Domigo
Domestic
Deworm
Devi
Devon
Develop
Devdut
Devauchelle
Dawes
Dawson
Dawkins
Dawsons
Estate
Estée
Estrada
Googie
Googles
Googlett
Googlers
Googlette
Grosby
Grosso
Hubway
ICE
ICSE
ICRC
ICHOM
Ingawale
Kaayam
Kempton
LMBC
Lowa
Lowell
Lowry
Lowenstein
MRV
Mamar
Mammoth
Mamluk
NHS
NHỆN
NHIÊN
Nadu
Nadir
Olduv
PROTECT
Pads
Padua
Paddington
Padmash
Priestley
Raham
Raheem
STI
STRONG
STEAM
STEFAN
Sachin
Sleepy
TERI
TEdGlobal
Tijuanna
Venti
Ventner
Venture
Ventosa
Yahya
Yahweh
going
headphones
míc
magiê
magnetoence
nickel
sea
seum
##msm
##morillonit
##dance
##dorin
##dorff
##corides
##TAH
randi
##ancal
Cheer
Chengh
##erristan
Hodes
Hodge
Hodja
AlloBrain
Tajima
Brentwood
McMahon
McMafia
Countway
Meadows
SallyKohn
TurboTax
Ferrand
Ferrris
