<s>
<pad>
</s>
<unk>
<mask>
!
#
$
%
&
(
)
*
+
,
-
.
/
0
1
2
3
4
5
6
7
8
9
:
;
=
?
@
A
B
C
D
E
F
G
H
I
J
K
L
M
N
O
P
Q
R
S
T
U
V
W
X
Y
Z
\
_
`
a
b
c
d
e
f
g
h
i
j
k
l
m
n
o
p
q
r
s
t
u
v
w
x
y
z
{
}
~
£
©
®
²
¼
½
¾
À
Á
Â
Ã
É
Ê
Ì
Í
Ó
Ô
Ù
Ú
Ý
à
á
â
ã
ä
ç
è
é
ê
ë
ì
í
ï
ñ
ò
ó
ô
õ
ö
ø
ù
ú
ü
ý
ā
Ă
ă
ć
Č
Đ
đ
Ĩ
ĩ
Ť
ũ
Ơ
ơ
Ư
ư
́
̣
̀
́
ย
ร
อ
่
Ạ
ạ
Ả
ả
Ấ
ấ
Ầ
ầ
Ẩ
ẩ
ẫ
Ậ
ậ
Ắ
ắ
ằ
ẳ
ẵ
ặ
ẹ
Ẻ
ẻ
ẽ
Ế
ế
ề
Ể
ể
ễ
Ệ
ệ
Ỉ
ỉ
Ị
ị
Ọ
ọ
ỏ
Ố
ố
Ồ
ồ
Ổ
ổ
Ỗ
ỗ
Ộ
ộ
Ớ
ớ
Ờ
ờ
Ở
ở
ỡ
ợ
Ụ
ụ
Ủ
ủ
Ứ
ứ
Ừ
ừ
Ử
ử
Ữ
ữ
Ự
ự
ỳ
Ỵ
ỵ
ỷ
ỹ
–
—
…
€
ｃ
##ị
##ố
##c
##ấ
##n
##g
##h
##o
##l
##s
##r
##e
##a
##t
##i
##u
##d
##ế
##p
##ề
##m
##ả
##j
##v
##k
##y
##ằ
##ộ
##ọ
##b
##E
##D
##2
##0
##7
##ể
##ã
##ê
##x
##3
##w
##ũ
##ạ
##ỵ
##B
##ỗ
##S
##ệ
##ẩ
##ủ
##ơ
##q
##T
##H
##z
##ư
##ợ
##ú
##õ
##ỏ
##8
##ậ
##R
##V
##ô
##á
##à
##đ
##ó
##ữ
##C
##ổ
##ý
##f
##N
##ử
##ồ
##5
##9
##â
##6
##A
##4
##ắ
##ẻ
##ỉ
##K
##ứ
##ờ
##ẫ
##ừ
##O
##L
##ü
##ỳ
##ự
##ì
##ù
##ụ
##ở
##ầ
##M
##é
##Ã
##Y
##ẹ
##P
##Q
##ẳ
##ò
##ỷ
##í
##G
##1
##I
##J
##ĩ
##ễ
##è
##ớ
##ă
##ỹ
##ỡ
##Z
##U
##ẵ
##ö
##ặ
##Á
##W
##Ố
##F
##Ư
##Ờ
##Ì
##ë
##X
##Ạ
##ẽ
##Â
##Ơ
##Ù
##Ứ
##Ấ
##ç
##Ă
##Ť
##Ệ
##ø
##Ú
##Ô
##Ể
##ï
##Ọ
##ä
##Ậ
##Ụ
##Ộ
##Ỉ
##Ẻ
##Ắ
##Đ
##Ổ
##ñ
##ｃ
##É
##Ự
##Ê
##Ớ
##Ị
##ร
##À
##Ó
##Ữ
##Ở
##Ử
##ć
##Ầ
##Ế
##Ỵ
##Ĩ
##ย
##ng
th
ch
nh
##nh
tr
kh
ng
là
##ôi
và
##ác
##ột
ph
tôi
qu
##ông
một
có
##úng
gi
##ên
##iệ
##ững
##ời
##ới
những
chúng
củ
của
##iế
##ất
##ạn
ta
các
nà
##iề
không
##ượ
nó
##ong
##ười
đó
##iều
người
bạn
##ại
ngh
trong
thể
##ược
##uy
này
đã
được
như
##ây
họ
##ình
##ot
với
quot
cho
Và
##ay
ra
sự
##an
##ần
mà
##ải
làm
##ang
##iên
##ằng
để
##ực
về
sẽ
##ấy
cả
##ái
##iể
##ân
##uố
##ật
##iết
điều
thế
##ầu
ho
##on
##ến
##ch
Ch
từ
khi
##ành
##ống
##ướ
##ơn
Tôi
##inh
nói
##ao
##ết
##iện
##ức
nă
đến
##ính
phải
##iệc
##ườ
rằng
Nh
vào
gì
đang
##àn
##ường
việc
##au
##ước
lại
##ản
##ận
thấy
nghĩ
độ
rất
cách
hơn
##âu
nhiều
##ùng
##in
##ài
##ươ
khác
thực
##ai
##iến
đầu
##ậy
##ương
đây
học
con
##ối
##ạo
##ổi
##ọi
chỉ
##ếu
công
trên
cái
vì
nào
##anh
biết
Chúng
chuy
đề
##át
##àng
##iệu
năm
##ũng
đi
##uốn
thứ
##ơi
dụ
thành
##ung
##ộc
##ắt
số
##áng
cũng
nhà
Như
##uộc
bị
to
kho
quan
##ập
muốn
##ồi
##úc
##ởi
Th
##eo
mình
##ữa
nhưng
nhất
##ích
Nhưng
tạo
##ưở
##ưởng
động
giới
chính
##ặt
lo
nên
vậy
##ày
##ền
##òn
lớ
##ấn
##êu
##ắc
hình
##ện
##iểu
##ỏi
giờ
hiện
##ưa
sống
tiế
tại
nếu
nhận
mọi
##ượng
xe
##er
##ìn
quy
cuộc
thu
cần
hay
tố
tự
##ặc
thì
Tr
##ội
đị
##ôn
tất
##ọng
ông
##am
##òng
ấy
bởi
tới
đồ
##án
theo
bắt
##ẫn
cứ
còn
Kh
nhìn
##iểm
lớn
##en
cùng
bằng
cảm
##áo
##iển
tế
sau
dụng
thật
lên
anh
câu
bản
tin
##ảng
thời
sao
qua
chuyện
trở
##iệm
ngày
nhân
cơ
bộ
sinh
##ăn
##ỗi
##ục
##ia
##ìm
năng
##ạt
sử
trước
phát
nước
đổi
Nó
##iệt
##ánh
toàn
phần
nơi
##áy
##00
gia
do
thông
dự
tìm
nhau
thay
mới
lu
##ar
vấn
định
hệ
trường
nhiên
tính
di
Đây
##ách
trình
mạ
tốt
##âm
tưởng
kết
##ăng
##ấu
vật
##ãy
##ảo
##ấp
##ảy
hàng
lý
tu
hỏi
##ứng
Bạn
##ợp
máy
ảnh
##ạc
##út
hợp
Đó
mặt
##ắn
tiếp
hành
nữa
kinh
##im
gian
thức
hội
vị
tuy
thiết
chiế
rồi
xem
liệu
cô
trọng
thích
hoá
phá
##ào
##ễn
##ệnh
đồng
giải
##iêu
##ồn
hai
trẻ
lượng
##ắng
đo
ai
thường
bất
vài
đều
Ng
Một
tiên
đối
sáng
##ộng
##ển
hiểu
quá
tâm
nay
loại
giống
lần
Vì
cứu
bao
bệnh
thống
##ịch
##ốc
viên
##ảm
##ệt
##êm
nghệ
##iền
điểm
nghĩa
ngo
gọi
Có
nhỏ
Vậy
Họ
đưa
tương
xu
hoàn
##ám
nghiệm
quả
tác
đường
vi
vẫn
xảy
##ăm
chiếc
nguy
thuật
dùng
biệt
##ẳng
đại
##or
hoặc
bên
từng
dân
triển
##uyền
chuyển
lúc
##iệp
##ọn
##ão
diễn
Điều
##al
trị
Những
quyết
##ừng
cố
cao
nghe
##úp
ăn
Ph
dạ
tuyệt
##uốc
mỗi
tổ
cầu
khoảng
##uối
Nếu
lực
kế
khu
chất
phụ
lời
giáo
##ợi
giúp
đất
em
giá
##óng
ơn
##ắp
##ầm
##es
trung
##ứa
chủ
bảo
nữ
tiến
hết
##os
phòng
##ưới
tình
chưa
nghiên
xuất
##ướng
##ẩm
phí
mang
liên
##ép
phân
Anh
##el
tranh
bài
khó
đơn
não
truyền
tập
tuổi
đúng
điện
phương
bình
##ậu
đặt
tượng
tay
biến
Khi
tiền
giữa
yêu
sản
##ét
tiếng
hãy
##ạnh
ngay
tho
khả
##ặp
trả
bé
khoa
Không
cá
thú
lấy
bỏ
##ửa
gần
xã
hoạt
chu
##et
chiến
thị
đáng
sách
Trong
chí
phẩm
thân
pháp
hiệu
cuối
đời
chơi
Các
mất
minh
sức
Gi
##ọc
kể
##ẩn
so
##ẫu
Mỹ
mạnh
gh
##is
nghiệp
ngoài
##uồn
dẫn
##at
khí
ít
##óm
##ic
##óc
đấy
lập
tài
mô
loài
##ừa
kỳ
bức
tinh
##ậm
luôn
dựng
xây
##ấm
trí
tiêu
phố
tên
##uống
cộng
vô
văn
##uyết
âm
chứng
cụ
tử
##ầy
hướng
nhạc
##il
thử
Hãy
viết
bố
đâu
chức
ba
nguyên
kiến
quốc
giả
ứng
##ạm
vời
chọn
giản
quyền
đặc
chế
tư
chết
suy
bào
mạng
##iếm
##ạch
cấp
bà
##ôm
triệu
vụ
##ạp
tăng
thần
nền
##ẹp
đạo
lẽ
đứa
sĩ
khỏi
màu
##ua
đánh
##it
##as
mẹ
gặp
tháng
##ắm
dưới
Thế
chút
xuống
##ol
##ồng
gắng
##âng
phép
khá
chia
nhóm
quanh
dịch
mở
10
khiến
vực
xác
dữ
Bây
án
##ãi
bay
duy
thêm
tham
trò
mức
thuyết
nhanh
quay
Ho
dạng
gây
cực
rõ
đàn
vọng
bu
nguồn
vùng
cảnh
bây
dù
đẹp
báo
ví
tục
##iê
giác
xa
chắc
sát
càng
dễ
20
đủ
cây
19
##le
trang
nhớ
phía
phim
##iêng
chú
biểu
hưởng
##áu
hôm
đoạn
chị
chẳng
vũ
kì
kiểm
trái
thương
Quốc
##ter
Ông
dài
vòng
luận
ngữ
phản
đôi
Trung
##ạy
đầy
dục
lợi
kia
##ựa
giảm
thậm
##ằm
thuốc
kiếm
ty
vu
##em
ap
vừa
chân
tích
thư
trăm
thôi
apos
##ưỡ
hộ
##om
đình
##iếu
hạn
bước
giao
##àu
lệ
lai
Người
đô
chi
sâu
##ra
##us
Tại
môi
tỉ
toán
trải
trời
##iềm
tồn
##ụp
diện
sư
rộng
phục
giữ
Bởi
thanh
dành
nối
địa
đoán
lòng
##ED
thuộc
##uốt
riêng
tạp
sợ
mắt
đứng
mục
nổi
phủ
dạy
lã
vệ
thí
sai
vẻ
nghi
đạt
căn
thúc
kỹ
luật
sẻ
tối
##ac
mẫu
xung
200
lịch
##ob
ánh
bàn
đọc
##ặng
la
lớp
##ad
Cảm
kỷ
##ạng
trụ
##and
yếu
TED
khắp
vui
trông
khoẻ
tiết
chương
ngồi
chạy
gái
##ur
phút
cậu
trợ
cuốn
##àm
mối
000
đá
sắc
buổi
##ượt
chắn
hầu
suốt
kiện
##id
biển
##ew
trúc
mù
chung
ké
ngôn
mua
doanh
kiểu
Phi
Tất
Vâng
cửa
##èo
vận
an
##eb
cánh
khám
sở
ngạc
xúc
xét
lâu
ràng
tuần
thoại
bán
##ưu
##oo
Sau
hiểm
hồi
cấu
##ủng
nhiệm
##ưỡng
phức
thiên
kích
cung
##ĩnh
nằm
chụp
nhập
chuyên
##oi
##ốt
##ing
bóng
ngôi
kẻ
thái
cạnh
##uyện
##ữu
độc
băng
viện
hạnh
hữu
chứ
##ếp
hoà
chỗ
ngành
##ảnh
trưởng
##uyên
vẽ
khủng
thập
đa
ích
##ẵn
##ỏng
tra
Xin
chuẩn
bác
quý
##ẩy
phúc
ghi
Cô
thiếu
chịu
Thật
100
##ốn
##ửi
hề
lắng
xanh
hoạ
tấm
hu
sẵn
tệ
niệm
Nên
Qu
##ộn
tức
nhiêu
phạm
Sự
khăn
xin
tái
##ro
đau
trai
sắp
hơi
áp
Cái
##úi
lạ
Giờ
dung
##ón
Thực
mặc
chống
##uôi
lạc
thất
cải
dựa
mã
mong
châu
đóng
xử
##un
lựa
trực
ban
St
đội
bánh
hậu
30
cổ
tổng
khổ
nội
New
tí
khắc
da
nhi
Do
mật
vượt
nhu
##úa
tỷ
xấu
tầm
chăm
dần
ẩn
gửi
##re
toà
Làm
hứng
thiện
hạt
##ưng
tim
Để
##ig
hy
ướ
In
Ấn
danh
lưu
chiều
nhiệt
trạng
lãnh
đột
dầu
niềm
15
in
50
tội
nghèo
ngoại
nhiễ
nạn
cận
sang
##ah
##ồm
kính
cha
chữa
xo
##net
ung
Con
đấu
Châu
dấu
Độ
đẩy
nỗi
may
kéo
hát
thách
thủ
ngủ
đen
khách
tắc
ngược
giấy
lí
nuôi
phi
##th
ước
bại
Tây
##ỉnh
##iếp
chữ
quản
soát
lỗi
nửa
cử
lĩnh
tiện
Al
mắc
##ist
mơ
hoạch
##ran
dương
gồm
nhiễm
tốc
khiển
##ẩu
sóc
tả
cắt
gó
##op
##õi
##ternet
ca
Mọi
hại
Tuy
giết
thẳng
khối
quen
bày
dây
tàu
##ie
quân
đông
##iễn
lưới
đích
chiếu
đức
nhờ
gen
##áp
##ill
thấp
dòng
mê
##ard
Chỉ
bầu
cư
cười
lái
thi
ngờ
niên
đêm
Ngh
su
đổ
dàng
##ag
phóng
khai
hỗ
sàng
chấp
rối
xếp
##ặn
ngắn
bốn
gốc
tận
phong
gấp
nông
đem
đỡ
Với
bạo
giây
bí
lắm
12
kỉ
sân
##lo
trách
gắn
cáo
vai
93
cân
hồ
trừ
Rồi
##ed
đợi
##ton
##èn
ngàn
tôn
phẫu
91
##ầng
hài
thụ
##ine
xuyên
##ey
##ab
thơ
nhảy
chuyến
dừng
siêu
hoa
kĩ
nghị
màn
ký
lao
web
tầng
##ak
##ip
giai
đảm
chim
Mar
tải
ảo
##oc
hấp
##deo
video
phổ
Jo
##ork
##av
khởi
##ul
nhắc
ngăn
tù
chỉnh
Nam
rừng
##ót
góc
##ẳn
thải
khái
Internet
hút
Ai
hộp
nghiêm
Âu
Được
luyện
món
kê
nam
ổn
khuôn
York
##ian
giàu
tín
cập
lá
##son
chuột
Còn
##obot
Ví
##ow
già
môn
##ềm
coi
liệt
ngân
đỏ
18
đám
tấn
phận
tuyến
thắng
trao
tai
Hoa
40
Chúa
đảo
Cho
huỷ
nặng
Ta
hẳn
chứa
Trái
dậy
mềm
##òi
quang
Câu
vân
##ik
##han
nóng
mấy
ti
Bắc
##ọt
phù
Công
cháu
mạch
chóng
mẽ
ống
##ịp
##iếng
quyển
mùa
buộc
điển
Hiện
dưỡng
máu
sóng
thiệu
trùng
hạ
hãi
linh
##ấc
##ein
khán
cũ
rời
sơ
thảo
chủng
dõi
uống
điên
##ich
##ou
Kỳ
Từ
robot
tồi
tảng
chờ
25
lộ
Nhà
loạn
lầm
buồn
vững
đáp
mắn
Liệu
sửa
góp
du
##ev
thưởng
lồ
lan
Rất
tường
tránh
khổng
Vào
miễn
khoản
đói
Thứ
Mỗi
lạnh
đèn
chàng
##um
Sh
mái
ủng
tổn
bảng
cơn
trắng
lẫn
tộc
mảnh
rút
đỉnh
##ord
diệu
núi
tờ
Đúng
Đông
##st
##ớm
Ngày
Hai
tiểu
##ir
phỏng
đào
##ph
bề
trì
An
giọng
tốn
Bà
ấn
##uổi
áo
trận
hảo
trồng
quên
giỏi
##ùa
rơi
quảng
Hồi
cỡ
mãi
chạm
##ap
cầm
kim
##ib
Br
khuẩn
bang
bật
chó
bền
vốn
Chính
đương
phấn
nghìn
sánh
Ar
hôn
kí
tiềm
##istan
lương
##io
chấm
nghỉ
khoá
Năm
Đại
vàng
chiếm
mời
hoảng
nắm
khích
cam
hiển
vợ
##if
11
Em
bữa
ngừng
phối
hào
lửa
vỡ
điệu
làng
##ell
vĩ
xương
đừng
thịt
hổ
tách
##ub
ghế
quần
##ặm
dường
nổ
ong
chuỗi
biên
kịch
chảy
khẩu
sót
##oog
đằng
Trên
sớm
gió
loạt
thoát
80
mu
chậm
chồng
khứ
khuy
dĩ
sạch
##hn
##ãn
##ẹn
Trước
tàn
tắt
giấc
##oogle
Vấn
hi
bè
lặp
##ứt
nghề
gợi
suất
mũ
##ựng
##az
quỹ
phê
##ut
Cách
##man
lỗ
lối
trưng
##ick
##ry
ngại
sông
tán
túi
##ud
##ói
nhé
##ly
trại
Google
To
##ex
trữ
Cám
nguyện
Hay
dặm
kiệm
thước
##ent
##ack
viễn
đăng
Nói
cờ
60
né
Đầu
cu
sỹ
Việc
bụ
cà
đuổi
kháng
bơi
nâng
Kho
vỏ
##ìa
nhắn
kém
ghép
thăm
##ưỡi
phiên
sốt
cú
rẻ
thở
##mp
thảm
##ươi
khoảnh
lặng
tàng
##ãng
##ĩa
nhật
nỗ
tụ
vết
Đất
thoả
bọn
tô
sáu
nhẹ
hoang
xoay
Là
lọc
Nhật
can
hùng
tròn
##ans
John
Car
bờ
trống
Thu
##est
199
điệp
##one
Bản
ưu
đẳng
mùi
Lúc
lục
voi
đế
ngẫu
##ook
Le
đam
doạ
HI
bò
##iv
lành
Theo
Bộ
lính
đựng
thừa
##era
##ert
thuận
ma
thác
rác
thuỷ
Ngay
16
Ba
cấy
đoàn
Lo
tan
HIV
Cuối
pr
trích
thang
chặt
nhuận
huy
Đức
đe
đạp
giảng
họp
Af
Nào
lược
miếng
nhựa
lãng
Cậu
cãi
##ườn
##ore
##all
500
lắp
tật
Đừng
khấu
90
Cuộc
Is
##bon
thai
chặn
Mà
giám
##art
Lu
chào
ngoái
lễ
mừng
##aw
Hoặc
14
yên
đòi
##éo
ngang
##ess
diệt
huống
thận
70
Cũng
mại
mây
thao
cản
hương
Chẳng
Afg
AD
Dav
dị
sổ
ko
đống
chép
tri
bi
cát
sợi
vong
đùa
##ion
thấu
Thay
##orn
201
Am
vú
##ge
##rus
thù
tràn
cặp
cứng
Ken
cám
tỏ
ám
##ash
13
bom
mập
##od
nhằm
tuyên
mực
Đối
##les
phiếu
Nhiều
súng
##ớn
nhịp
khía
ADN
Dù
bối
bắn
hiếm
sụp
##ớt
chán
trào
tiêm
Cal
Fran
hà
kêu
tá
##èm
ngu
Mẹ
mét
móc
##ck
ngọn
Chr
Afghan
lừa
##ậc
khung
Pháp
prot
Bằng
dối
liền
óc
triết
hoàng
gỗ
hè
##ce
béo
Về
côn
cục
gam
đua
##ượu
##att
17
mưa
##ớp
thờ
căng
thầy
Phải
Liên
bổ
khảo
##ide
300
bậc
hối
đập
##ff
Thái
mạc
thoải
lũ
nấm
ngưỡng
Phần
mỏ
##la
##tr
##yl
chốt
Col
ác
##eet
##iz
chối
##ail
rượu
táo
thuyền
huấn
##ee
##ủi
che
nhũng
trầm
ghét
hỗn
Iran
Sẽ
vâng
mì
##NA
##ers
Har
bảy
ức
biện
khuyến
song
Thuỵ
21
nút
đắt
cháy
truy
tỉnh
Hôm
amp
cỏ
ru
##50
ngón
hắn
hồn
##ov
phán
Afghanistan
xứng
thọ
##ock
mạo
##ond
David
Lan
túc
##ya
thiểu
Nhìn
Bra
gọn
săn
thả
##log
mũi
protein
Can
trứng
khát
giận
cụt
xoá
bông
cỗ
dinh
mai
##land
##ợt
thạch
Hầu
Mặt
khiếp
dày
rủi
tia
thiệp
thuê
Par
Sao
nấu
rắc
xong
đắn
##ne
##eria
198
Ok
binh
cột
hước
lộn
mộ
mò
Đã
đốc
thánh
TV
bột
bãi
kẹ
mát
nơ
##ùi
giành
tóc
đốt
truyện
ngũ
Char
răng
xưa
đài
##ỗng
chẩn
phó
Geo
dọc
ox
##iệng
##ina
thuần
bạc
huyết
rưỡi
##ico
miền
chừng
##rael
Lý
Sc
gương
tặng
đĩa
##sh
##ýt
##ara
cốt
Israel
bó
hiến
ro
xâm
ấm
nhấn
ném
24
Ad
Ban
vườn
Đôi
nhỉ
ngài
##ama
xạ
trộn
khóc
Hy
Tổ
lẻ
##lin
than
quê
Rob
cẩn
tuỳ
##aceb
dính
##iếc
##acebook
Cơ
Cam
San
miệng
rào
đớn
##ta
##ti
bắc
tạm
thẩm
tuệ
##ite
hẹn
miêu
chai
đón
cốc
gà
lỏng
mẩu
sa
ngầm
phổi
##enn
Giáo
Facebook
blog
tò
đáy
##ID
nhạy
##ada
Dan
Mich
hiệp
đậu
##ug
vuông
Bill
bạch
hạng
lão
ơi
Chắc
thoảng
game
Cả
Mĩ
cường
ly
tây
##co
trôi
Thời
Giống
##ith
##ley
##iforn
Cực
kiên
rô
quái
Chuyện
Californ
dàn
rồ
##te
thợ
hoại
California
DNA
hằng
nét
pin
đố
##ach
trắc
quán
Thậm
hứa
leo
nướng
tóm
chấn
trạm
lây
đảng
##ek
ngã
quét
giường
giày
bốt
Tw
ngựa
Kinh
xí
đeo
chăng
nho
khô
400
Mc
Mo
OK
Tal
kèm
lưng
ron
##go
##ẻo
tuyết
197
Cùng
Lần
mẻ
vắc
##ẫm
mãn
##und
El
Ira
Kết
tĩnh
Đến
tiếc
đếm
mèo
Nhân
##ass
##exico
bụng
Chris
dán
ninh
trăng
The
Khán
##igh
Pau
cong
dò
hô
hỏng
tám
##ẫy
##ụt
##anda
gói
Bất
dã
lăn
##og
##ber
##ate
Mexico
iP
##ec
khuyên
quà
gỡ
hư
li
tiệc
vinh
ép
trần
giấu
email
Canada
lôi
mờ
##ep
thói
##ath
2000
Nghệ
##IDS
cự
dứt
lề
lệnh
cụm
Hoá
and
##stein
Hội
gã
heo
lâm
tị
##zil
##ùm
chìm
trốn
ngon
phiền
kênh
bão
dư
lặn
tung
##bur
Nga
lãm
##ington
Brazil
Cứ
gõ
va
đực
##ler
##ue
khao
ngọt
giơ
buôn
And
Geor
AIDS
Mặc
Rập
thuế
virus
Dĩ
cất
dao
mệnh
Úc
Điển
##ford
thăng
quí
gián
Vài
khoan
Bar
Pal
car
hố
sàn
##ham
##ợn
trưa
##ướt
##ind
Trường
cúm
Be
Ber
Lond
Mon
Sp
Tim
hang
hàm
##ri
##ram
##tin
thổi
##ins
bận
bếp
dáng
lang
sữa
tân
xinh
Kenya
London
Ap
bùng
lõi
tươi
##ric
##ma
3D
Ben
Ed
Gần
Jam
dược
im
làn
##ượn
Học
bụi
Tiếp
cấm
nảy
rét
san
##hi
khỉ
ngắm
quát
CO
hải
tắm
##ộm
thẻ
phì
tuý
sưu
camera
oxy
Ros
liều
lường
tủ
196
Iraq
cưới
lướt
ưa
thịnh
##itter
muỗi
Khoảng
Bao
Bức
Bài
lông
rãi
say
sơn
tháp
khôn
Thiên
chúa
150
nở
thùng
nhẫn
trượt
Trời
Paul
Bl
Cộng
nan
thính
thám
thỉnh
nhắm
trục
ngập
ngốc
thua
kín
May
Pr
feet
nốt
tướng
##DP
##ơm
châm
pha
phú
giam
nàng
GDP
dám
sl
xóm
quãng
CO2
Bố
Viện
cừ
dắt
##ky
khớp
phạt
Twitter
Gre
Hơn
cậy
nắng
sung
##eg
thiệt
phái
cuộn
Ang
tông
##SA
tháo
rau
toả
Ab
Oh
Wash
bong
gấu
ham
hầm
mạn
##iel
nhãn
trà
Bos
Tin
cưỡng
dãy
nọ
vở
Ôi
đuôi
##by
khơi
##ony
Thông
tuyển
##ood
Bình
Bang
Ev
Ein
Hệ
Tương
You
chước
Thành
Ngo
##olf
Ma
Này
Nig
bê
bớt
lò
lát
đâm
thô
chìa
nhở
Chủ
điêu
thuẫn
Einstein
Dương
Sm
Tự
##ren
thưa
chở
ranh
Thử
hệt
muộn
Tiếng
lùi
mệt
##he
chục
##000
Số
hòn
lạm
mỹ
##oy
##ael
hoả
Chiến
Ngài
##burg
slide
Cr
Hà
Mục
bút
cac
nợ
vua
đồi
ồn
##ier
thôn
ngực
phẳng
##ann
Nha
Hoả
Stev
Cập
Pet
bọ
cởi
gánh
múa
sứ
đới
##ươn
##ít
trấn
khúc
##ana
##ort
Franc
carbon
Washington
Bảo
Jon
MI
kịp
mấu
sốc
Quan
George
mỏi
or
rễ
rung
vải
##ộp
TEDx
##ike
Khoa
Rich
en
hãng
##site
khôi
nghiện
Chiếc
Thom
##end
##ald
##ett
duyệt
##lex
##ander
Charles
45
Dự
Hàng
Wik
cl
cối
hưu
ráp
##een
##per
thâm
nghịch
ngoan
internet
website
Nigeria
Hình
Jul
Tốt
hồng
lưỡng
##za
nhặt
khẳng
khiếm
Thổ
Loại
35
Dar
La
de
lật
mâu
vây
##ka
##yn
tha
nhiếp
địch
##osh
Toàn
cuồng
Bệnh
Bro
Ne
Pak
gan
hẹp
sắt
Thượng
phím
khói
2008
1000
Nghe
cacbon
MIT
Di
Hiệp
Na
Rõ
rập
rắn
vươn
##ox
Quá
##ube
Adam
Michael
Los
Sch
Tình
mảng
đáo
đàm
##én
khuyết
##ướp
Francis
23
Re
Tên
com
gối
long
non
rửa
sh
str
đẻ
##pe
##PS
khoái
đoan
##ela
cừu
Pakistan
He
cạn
tần
##ằn
chín
##ast
##edia
Thomas
stress
75
Bắt
cướp
dải
dạo
dâm
dẻo
manh
mồi
sạn
##ward
màng
Cha
##ica
##olly
##ight
Bên
Fre
Máy
hack
lận
nô
vẹn
đạn
##ok
##ling
##òm
trân
treo
Thiết
Ngân
lệch
Cl
Dân
Der
PM
Tiến
Wh
bơm
cắm
lợn
đạc
##lan
##inc
##are
Richard
At
co
cắp
lờ
vĩnh
##eph
##br
##ụng
đền
quyên
Mark
Haiti
Frank
GPS
Hàn
Je
Ob
Wal
bắp
bọc
kiệt
uy
##uck
nhàng
khiêu
tuân
##ice
buýt
gene
khuynh
2010
kẹo
kẹt
Robert
Kể
NA
Nơi
Tom
Will
bia
dọn
ga
huyền
lấp
mòn
xám
Âm
##ct
chúc
nhầm
99
Nat
mic
nề
đỗ
đai
thắc
giãn
tựa
##ark
Phụ
##ester
Fl
hã
lũng
mồ
mười
men
vé
vay
##ound
##bia
##ễu
trú
Chà
Phil
##ile
Angel
22
Mình
Sam
cương
dở
lơ
mọc
mỏng
vỗ
##ain
##ix
##win
thổ
thằng
thép
chăn
cựu
Lạp
Nước
dốc
nát
nêu
vượng
Đị
Đa
đợt
##30
##RI
khéo
ngừa
##ami
Tuyệt
Tổng
James
Hải
Man
Su
bá
dũng
hôi
lượt
sôi
##ft
##acc
Nghiên
Harv
Mal
bù
mỉ
rẽ
st
xôi
Điểm
Đồng
chợ
thoái
##ity
##old
194
iPh
Gu
Ox
bỗng
hung
hạch
nản
van
##ney
##ros
##ũi
##ờng
phác
qui
mày
hoài
2007
nén
Scot
Gia
Se
Sinh
bách
dội
vang
xăng
##ner
##pt
##ple
thầm
chả
trật
pho
rad
##ates
Quý
##ago
Talk
Bác
bấy
gác
tiễn
võ
đẽ
##ẳm
nghiệt
Phương
chua
trừu
Carol
xíu
iPhone
Alex
Bal
Gab
Or
am
bìa
hụt
lắc
muối
nụ
đà
##oh
cổng
Ind
Obama
of
xích
##cr
thẳm
Thánh
##idge
##ipedia
ruồi
##berg
Smith
Steve
Nob
Qua
Vị
al
hóc
lúa
mộng
súc
ốc
##cel
##vi
##qu
trộm
giặt
##ern
Trẻ
Trans
##imer
soạn
vụn
##ush
NASA
600
Rom
Sah
bướ
gũi
mươi
oh
rũ
ván
xưởng
xướng
Đi
ốm
the
chợt
Chào
##ish
##iss
##atch
tím
Wikipedia
Big
Lấy
Tưởng
hét
mượn
ếch
##eh
##toc
##bert
##ủa
chẽ
tráng
ngẫm
độn
khoáng
Hoà
##thal
##low
Martin
Harvard
36
bẩn
cược
cống
dỗ
lân
tê
đệ
##ny
##gic
##yr
trán
quặc
nhường
Chị
nhào
quyến
##eth
Nghĩa
Paris
Darwin
Derek
bám
bấm
hò
lánh
mến
nồng
Điện
##me
##20
nhạt
gìn
##ary
Giá
Giọng
##icon
2009
lều
Francisco
hacker
Angeles
Nobel
Mad
Tu
Tor
hiếp
rỗng
sô
sáo
sét
sắm
xỉ
ôm
##ld
##ênh
##oth
##ota
##ones
##oran
mãnh
##oca
##udio
##attan
ruột
##tocin
Cần
Cop
Web
cài
lùng
mổ
Đấy
##eah
##iam
##PA
thấm
chôn
nhện
phun
##ink
logic
luỹ
Nguyên
vir
inch
##azon
Loài
Green
radio
27
Jer
lồng
vạch
##dro
thung
giọt
Cháu
xuân
2005
Quỹ
##igg
Sahara
Bur
Lib
Manh
Wor
cọ
lỡ
rã
vờ
xăm
##ger
##our
thượng
chọc
triệt
##ant
Nhĩ
##rop
##oph
##ipt
huynh
Amazon
Christ
Ngoài
Peter
hãm
Sĩ
Tư
bóc
lăng
léo
móng
run
vòi
##ca
##ll
##ef
chằm
Giải
##raham
Stan
##age
tivi
##azz
##heimer
##cript
Manhattan
Eric
Rw
Sức
đc
ẩm
##lu
##wood
##zheimer
quạ
tựu
vịnh
##ilicon
Alzheimer
250
oxytocin
26
Ah
Cá
En
Haw
Jack
Tác
Ven
mỳ
vứt
ái
Đo
Đảng
##line
##ss
##ơng
chớp
##ania
Chic
khiêm
##air
##ens
tuỷ
##imb
chuông
kìa
##ptop
Chicago
95
Bước
Gr
II
Sub
bốc
km
lưỡi
nếp
xà
Đường
##mm
##mer
##SD
##ín
ngẩn
đóm
Thường
Thưa
luồng
##ala
##oster
##uss
laptop
nhiễu
Joe
1990
Charl
Boston
võng
Rwanda
MT
Văn
bồi
cent
dịp
gạch
kiêng
##der
thắt
ngưng
hoành
Chưa
lui
đoạt
##ida
Luật
Coca
Gal
Higg
Lat
Sim
Uy
Van
Xem
bể
gậy
sọ
vacc
Đơn
đúc
đuối
ấu
##tit
nhóc
ngớ
khoăn
Thì
Thêm
tuỵ
Giai
đôla
hydro
Mont
nano
Del
Hans
Jim
MRI
Per
golf
hận
hít
mỡ
rỉ
xé
Đứa
đậm
##we
hoãn
Trở
##amin
Phát
Apple
William
Gabby
65
CE
Gates
Hành
Hen
Hợp
Jan
Mor
Mic
Vật
canh
on
tiệm
vả
Động
##rew
##to
##uk
##ât
##ẽn
nhủ
ngột
nàn
ghê
##ure
Quay
hổng
Transcript
Subtit
Subtitles
32
Bab
Ham
Việt
War
băn
bầy
gãy
gom
lam
len
vội
điền
##ire
##ja
##ửng
nhánh
quỷ
giật
nghẽn
##uyến
Chú
chuyền
Khá
Phòng
##emen
##igami
##iano
Park
Times
28
Bon
Koran
Màu
Mah
Nor
Sw
Ze
bon
bẩm
lô
vất
ương
##ez
##wn
phô
gien
hoan
Nhờ
giáp
##esh
Giả
195
##ust
2006
2004
Okay
Palest
micro
Co
Hắn
Me
Pat
Sử
Tes
Tas
Wat
bồ
bẻ
dại
dệt
mầm
súp
xi
##car
##ster
##ies
##ver
thiêng
chày
trúng
##ini
##ation
đốm
Flor
Go
King
Mac
Nan
Rio
Sáu
Tony
hông
lột
rạp
sướng
tùng
vặt
vòm
xứ
xách
Đặc
đụng
##oft
##ium
##dy
nhị
ngư
phiêu
nón
##inson
môt
phốt
Hoàn
Star
xoắn
##ther
1970
1960
Gand
Kim
Mu
My
Nền
Tính
Vẫn
rộn
rìa
tịch
uốn
vương
Đạo
##ron
##uel
##ve
nhấp
que
##ongo
##ino
##ale
##alia
ghé
##ild
##ola
Howard
2003
Quân
2011
33
De
Don
Não
Syr
Ug
Yemen
biếm
dập
hái
kề
lọ
lê
mốc
tôm
thắn
thốt
khan
khùng
khen
ngụ
cảng
##int
##erson
cáp
120
##izza
origami
clip
vaccine
Henry
Bush
Congo
Lad
Nữ
Sing
ax
bực
búa
kệ
kẽ
kẹp
kem
lau
piano
đinh
ủi
##tor
##ếch
##Tube
chóc
củng
nhàm
khoai
sửng
Phật
thoáng
chíp
##ille
##outh
Brian
YouTube
##bridge
đệm
World
Micros
Tasman
700
800
Cy
CA
Da
Ford
Gl
Ghan
Her
Jos
Kar
Mat
Mùa
Tạo
Wall
dồn
gạt
mớ
mép
rỡ
sườn
tăm
xộn
ào
##xi
chướng
trùm
phe
phơi
tam
choáng
vịt
huýt
thơm
Arist
##mpic
3000
studio
Uganda
Ghana
FG
Gen
Kì
LED
Pl
Rằng
Tan
Vô
dai
gai
hàn
rỗi
tống
tạng
Đỏ
##ctr
##ris
##up
##fe
thiền
nhét
triều
trèo
ngục
Tháng
##arah
đom
Ngôi
##itz
##lectr
##iban
##lyn
Toà
dịu
Cola
Oxford
bướm
Higgs
Syria
Microsoft
Aristot
85
Bu
Fr
Mand
NL
Quy
Sal
Tài
dê
mưu
râu
rèn
ser
túng
âu
##ts
##trop
##que
##ía
trọn
khẩn
ngừ
phiến
gieo
tang
Khu
1950
##ipp
Lego
Cambridge
Aristotle
Bob
Josh
Mill
Un
Vũ
ac
banh
bón
hâm
hưng
tẩy
vần
đục
##kg
##ẹo
##ớc
trễ
xen
##etro
Giới
##oll
##ower
Brook
Amy
Lak
Lester
Mel
Os
Oly
Rock
SW
Ser
Tế
Tam
Vir
Xô
bộc
cồn
dơi
dẹp
hé
jazz
pound
pizza
vạn
vọt
xay
Ít
Đột
đòn
##ịt
##can
##ấng
##na
##nes
##tô
##ếm
##úm
##ụi
trừng
phồng
cóc
Ngược
##itch
Hoàng
buồng
chiêm
2001
Lee
Taliban
org
##anderthal
Neanderthal
show
Địa
Stanford
##tropy
55
Bay
Jenn
Sáng
Tex
Yeah
bồn
rốt
vớ
vắng
vẩn
ôtô
đè
##cy
##oot
##bo
chay
nha
ngợi
ngửi
pháo
nghiêng
quad
##ari
##ora
##ati
##aser
ướt
##thur
##ardo
##ulin
Shak
##ylv
Abraham
Charlie
Florida
Texas
29
Bol
Bốn
CP
Cap
Holly
Jac
Lại
Lar
Ray
Tur
Vi
bát
bưu
bẫy
dưa
kìm
nâu
nuốt
xảo
Ước
ấp
##gar
##sulin
##pam
##ker
##zy
thạo
thèm
chì
ngây
tao
##ượm
Chương
bỏng
Quả
##agen
##eda
##iana
##own
Bron
1980
Daniel
entropy
Jeff
online
37
For
Mạch
Nord
USD
Wolf
bến
bẩy
cay
dâng
lay
nạp
rực
tơ
tảo
xế
Đương
đắm
##ốp
##kins
##AR
##ìu
then
chiên
chùm
nhồi
ngươi
phế
quận
thuỳ
Trông
##ory
Giáng
##ole
##ace
##obal
xoáy
Yout
Vịnh
virút
Olympic
31
Av
Cầu
Kev
Lời
Lau
Lịch
Lớn
Quyền
South
Tay
Tối
Tit
Vương
cộ
diều
gay
ki
nín
uỷ
xơ
át
Đế
##gra
##li
##af
##pera
##mon
##yd
##yan
thiếp
nhã
nhộn
khiếu
Nhóm
Thôi
doll
luân
Ngôn
viêm
soi
2050
##rog
Stew
nhuộm
##red
Nghĩ
##agh
##umb
Rosling
Brown
Đoạn
Cyrus
Youtube
dollar
Cụ
DV
Ky
Kiến
Long
Mos
Ron
Tìm
Wow
gộp
hân
lội
lậu
ray
sùng
xả
xô
xá
Đáng
##gie
##enh
##ih
##BM
thắp
trinh
trội
khăng
nghiền
##eop
##ero
##ere
khuất
##ison
##ata
191
##unt
Toán
##ive
bổng
Andrew
##onesia
Latin
Palestine
Watson
Norden
48
CD
Dis
Detro
Ear
Eur
Gore
Hu
Hill
Kính
Mike
No
Ro
Tiền
Ted
Yo
bế
cai
dỡ
gập
keo
lượm
mar
mọt
ria
sếp
sói
tw
Ánh
ân
Đan
##ha
##di
##den
##TC
nhăn
trêu
ngộ
ngô
##ona
Chất
khoán
Thống
Khả
##aland
##eton
##eting
chip
Stre
Steph
insulin
Air
Arthur
cuả
Scotland
CEO
Singap
Mandela
Detroit
Stephen
As
Bọn
Fer
Gold
Ir
Kiểu
Mới
Matt
Som
Vic
bới
bin
cẩu
dang
hả
hán
hẻo
laser
mark
ne
nit
rổ
rải
sảnh
vẫy
Đưa
đan
##gin
##mad
##ke
##EC
trương
khe
khâu
khép
khốn
giế
##ence
##espe
##idi
##ever
##iff
##ansas
Carl
bóp
Black
Ngoại
##burgh
Indonesia
##celand
Shakespe
Hollywood
Bronx
Street
Singapore
Cố
Ec
Gh
Iceland
Jay
Kir
Lew
Nel
Pro
Robot
Xã
dev
lách
lượn
mi
nãy
sỏi
vặn
xài
đàng
đun
##nia
##gh
##se
##mo
##van
##BC
thề
chặng
chốn
nhí
khốc
ngơi
vàn
phôi
##oto
khoang
tua
Nguồn
##ali
tụt
##eep
Ever
Định
bùn
Laden
Joseph
##lectron
DVD
giếng
Nelson
46
Bảy
Cảnh
Dường
Den
Dưới
Es
Kn
Lou
Mil
Mur
Mag
Ol
Pop
Riv
Sand
Tâm
Wil
bội
hăng
hàu
lứa
liêng
lửng
nuối
nắp
nếm
rò
rặng
vách
Đô
đọng
##dam
##jo
##BI
##NC
##MA
nhược
khiết
ngắt
ngào
quạt
đãi
Nhạc
Thú
Thí
loa
logo
Truyền
đồn
##atar
##ilet
mẹo
##olm
2002
##oop
All
Albert
##pha
muôn
Berk
bênh
Carolina
Montana
Zealand
tweet
Victor
marketing
Shakespeare
Ac
Băng
Er
ED
Eth
Han
IBM
Mô
Mấy
Mối
Mộc
Pan
Ram
So
Suy
Silicon
Ter
Wr
dời
dâu
hiếu
lấn
mil
nạ
rệt
sp
suối
scan
tát
váy
Đàn
##oint
##ech
##ear
##mar
##ville
##ye
##ỉa
quăng
##oton
toa
toilet
##eron
##aron
ngoạn
chui
chuộng
##ollo
Quảng
Newton
McC
click
Joshua
Virgin
Kevin
devil
38
Bi
Bud
Gô
Jord
Kế
Kell
Môi
Nick
Tem
Xây
cán
cắn
cal
cua
electron
ha
kil
ni
nứt
tước
tạc
êm
ôi
Đồ
đứt
ỏi
##nie
##har
##lobal
##ves
##ụa
chuối
nhạo
nhát
tru
khử
phích
quỵ
Chu
Chữ
Chân
Chile
1900
1930
##agos
Sher
1999
Leon
##ylon
Delhi
Gandhi
44
AR
BJ
Buổi
Càng
Clin
Gra
High
Lin
Mer
Mas
Miss
Ra
Red
Sai
Sarah
Uỷ
bar
cọc
dồi
gu
hở
kiềm
lót
me
sứa
tớ
ten
đạm
##lad
##si
##de
thốn
chạp
trói
ngả
Chuyến
khinh
Thần
Thương
##amb
Phía
Alpha
cafe
##ied
2012
Colom
Atlan
Scott
Alexander
Simon
Jane
Wolfram
Lewis
Wright
Cuốn
GG
Hiệu
Kr
Ku
Mạng
Năng
Qa
Rand
Si
SO
Sus
Tuổi
Viết
We
WK
Yêu
Zimb
cạo
cưỡi
dào
găng
lọt
met
nến
nặc
nộp
ok
rong
rớt
sờ
tẻ
vướng
xốp
Đâu
đính
đốn
##ij
##ux
##din
##well
##HA
thỏ
thừng
chật
chọi
nhấc
tre
phàn
quẩn
giàn
hoi
##ươc
Thị
##ors
##oly
vít
sưởi
##ider
##ings
ngủi
##ops
##opia
##ake
Arg
Thuật
nguội
Philip
Tanz
##pamine
Stewart
Disney
Qaeda
72
86
Bot
Bert
Ca
Căn
Của
Du
JH
Jill
Ke
Mười
Nỗi
Sk
Vỗ
Xu
bì
bời
bọt
cớ
cằn
go
gắt
hao
na
tiệt
vã
xấp
ôn
ắc
##nik
##hov
##do
##km
##ệch
##Global
thiêu
chốc
ngạo
phớt
khoác
Thủ
Thỉnh
Trí
Phong
2030
193
##ters
##row
tít
##entina
Johnny
##ode
1984
Cứu
##inda
Nathan
Nation
Brooklyn
Aus
Bh
Biết
Báo
Bell
Cas
Dịch
Far
Ig
Kỹ
Kat
Lang
Rog
Sl
Sun
Sier
Tah
Ush
Xe
bl
bỉ
cưa
dẳng
dưng
gạo
gớm
gram
háo
lụa
mị
man
mìn
pop
poster
rìu
tuộc
vựng
vùi
yo
điếu
Ảo
##so
##bum
##way
##BA
##ún
thảy
nhúng
nhục
trệ
trá
tràng
ngọc
vành
phanh
giáng
##ott
Chúc
Trò
Tranh
##ame
khuếch
##ost
##eland
##etti
ghen
##ato
##ican
##itt
192
##use
TEDGlobal
##rey
##ardy
Nghị
##abeth
Arch
##izabeth
Moz
Moore
Elizabeth
iPod
Bosnia
Jones
Julia
Copenh
Hawai
Venice
Parkinson
axit
Virginia
Tanzania
Copenhagen
98
Ag
Bỏ
Bir
Cây
Cục
Ha
Hung
Hav
Hir
Ko
Mau
Port
Power
Roy
Sylv
Tập
Tel
Tóm
ah
cành
kg
kiều
láng
lụt
mác
méo
nộ
nới
opera
tở
vắt
ven
đặn
##off
##rr
##tamin
##uch
##ps
##my
##ũa
##zler
##ợm
##RA
##fa
##MS
##ẹt
chinh
chích
nhại
nhức
nhọn
củi
choàng
hon
Trang
dopamine
##ima
vitamin
##alem
Phục
##ose
##ics
##ily
buồm
##usalem
##ula
##aze
tụng
130
Colum
Edward
Maya
##ucks
album
Jerusalem
Teszler
EDI
Ethi
Clinton
Argentina
42
96
Ash
Bas
Diễn
Ex
Hel
Im
Ju
Ker
Kam
Kal
Line
Linc
Mi
Min
Mov
Nội
Từng
Tạp
Vụ
bự
cào
kép
lười
liêu
mông
nực
nấc
sương
silicon
vỉa
ăng
đươc
##ốm
##ned
##eas
##uc
##õm
##ỳnh
##PTC
##IA
thối
nhốt
phả
quầy
##ani
Chết
Nhất
toạ
khoe
##erom
Khan
diễu
viol
Phân
##eley
##ellow
##isa
##athan
##iti
##oln
Quần
Doug
##igan
Marc
Brit
Leone
Luân
Amer
Georg
##hammad
Benj
Ross
##burger
Tuần
Babylon
Muhammad
Matth
Sierra
Sylvia
Columbia
Ethiopia
Lincoln
350
64
Ara
Cur
Dựa
Fort
God
It
Jes
Lượng
Lòng
Law
Minh
Net
Nic
Niềm
Op
OEC
Qatar
Sib
Sky
Tới
Tinh
Tấm
UC
Val
Well
West
ao
báu
cúi
dạn
gán
gục
gầy
gốm
hen
kiếp
lúng
lung
lén
rảnh
rùa
tạ
xẻ
Đặt
Đào
đắng
đầm
ớt
##tim
##wich
##CA
##ụn
chà
chổ
chênh
nháy
phiện
pherom
taxi
nóc
mài
Nhận
Nhiệm
Thư
Thấy
##ering
Trắng
##ene
xuôi
Giao
##ila
##asc
huỳnh
gót
suýt
##phia
##ifer
##utan
Cameron
iPad
##ather
Anderson
Bern
Apollo
##kyo
Jonathan
Julian
Broad
Philad
mỉa
Greenland
North
acid
Somalia
Victoria
Leonardo
Zimbab
Hawaii
##PTCHA
OECD
900
AO
Bồ
Bí
Biểu
Bel
Com
City
Dr
Dur
Dub
Hi
Hiển
Hẳn
Mức
Rad
Siêu
Sol
Tỉ
Uh
Xanh
bệ
côi
căm
eur
hức
lãi
ri
rồng
rock
sộ
sấu
xổ
xì
xào
đười
điểu
ươi
##lor
##las
##tt
##ui
##ule
##jec
##bie
##LA
thỉ
thản
chảo
chéo
ngâm
quấn
giầy
##otter
hor
##inburgh
Khối
##ena
ngoặt
bén
##ater
##ita
tỉa
News
##ahidi
cửu
Alice
##ulu
187
185
Shir
##phic
##phone
Ann
Emma
##uba
##utnik
Tokyo
160
140
oxi
##ennis
McD
Sputnik
Edinburgh
##ield
mỉm
Bali
virut
Starb
Tasmanian
Earth
Berkeley
Kelly
Temp
##ladesh
National
Ushahidi
tởm
##azeera
Siberia
Zimbabwe
47
43
Act
Bo
BR
Boy
CN
FO
Gran
Had
Jeop
Jazeera
Kur
Li
Mở
Mắt
Nike
Pol
Penn
Sống
Sud
cúng
cày
cưng
gas
hip
ion
mầu
mộc
mánh
poly
rậm
sáp
tý
tòi
ve
vầy
xáo
xót
xịt
Áo
Ăn
Đời
Đài
đự
đỗi
điếc
##oa
##mi
##ble
##ơc
##ùn
nham
ngự
quấy
giục
Chi
##aig
bịt
Thầy
Triều
Khó
Khác
##alk
##elphia
Giám
##aska
##lem
##obi
##une
xoa
180
Anas
chóp
Carne
1996
5000
Luther
Kenned
nguỵ
Camp
Michigan
Bangladesh
Eve
##rence
Steven
Whit
bướu
##thalate
Copern
rãnh
Christoph
Hawk
Tesla
Colombia
Atlanta
Hungary
Movem
Benjamin
Philadelphia
Starbucks
FOX
Carnegie
Kennedy
41
58
AK
AM
Ach
Biển
Bánh
Dữ
DJ
Danh
Eng
Gar
Gửi
Ivan
Mất
Mong
Map
Mitch
Nair
Pep
Rick
Rach
Sách
Suốt
Tạng
Ung
Yves
bơ
bôi
bầm
bit
cm
dì
gra
hốc
hel
it
lầy
ooh
pu
rà
sand
test
vôi
vác
viền
xâu
xắn
yeah
Đôn
##gon
##hh
##lash
##uz
##med
##mart
##key
##bor
##EA
##DA
##wen
chải
chiết
chồn
chén
nhôm
trớ
trỗi
triễn
khống
giun
Cher
Chia
Chad
##ait
Ngành
##aly
Phố
Phản
Gil
Giữa
ghim
baz
##olas
duyên
##omen
##rah
##uron
##oir
Quí
##the
##opa
##opatch
Marco
Joel
##ava
##phere
##apagos
chói
Emily
##aza
tụi
1998
##iva
##iver
Blue
hamburger
Super
Jackson
Galapagos
Warren
Nanopatch
Tasmania
Fried
Lakota
##graphic
##ihad
Everest
Louis
Jordan
Susan
Roger
Movember
52
54
74
97
Aaron
Beet
Dàn
Dùng
Dick
ES
Hạt
IM
Jess
Kẻ
Kansas
Lạt
Leb
Mumb
Nô
Nep
Oak
Res
Sở
Sad
Tử
Ur
Xét
bành
bàng
báng
dấn
gật
gel
lẫy
sập
tột
vá
vũng
việt
xy
Đêm
Đám
đu
đắc
ập
##ềng
##Sp
##fur
thủng
chằng
nhượng
ngước
ngặt
phông
quáng
giềng
hop
##onald
Chờ
Chứng
##inn
##airo
Trị
Trừ
Khí
##enberg
nguyệt
khuấy
##ello
Giê
ghề
190
##eman
125
She
Ariz
Johnson
1995
1994
##ivers
##attle
Scr
Beat
Princ
Jean
Samuel
##osterone
CAPTCHA
FGM
Bhutan
Tempest
Jeopardy
Sudan
Christopher
Mumbai
Nepal
Arizona
Princeton
34
68
77
Aur
CS
Cor
Cairo
Dễ
Die
Fox
Gro
Hall
IP
Lực
Lai
Mus
Mass
PH
RW
Rod
Sn
Sa
Sen
Seb
Tức
Tai
Tiêu
Tám
Tầm
Vol
Vik
bã
cẩm
còi
fan
glu
hiên
kỵ
lanh
mao
mặn
no
nồi
náo
reo
sẹo
tản
tặc
tưới
vuốt
viếng
xở
đậy
đắp
Ảnh
##cia
##nd
##ston
##uit
##pr
##vis
##SC
##ựu
thẹn
nhai
nhọc
trù
trơn
phình
quẳng
rap
##onto
##chi
##cher
##ines
bịch
Thách
##enz
##ias
Ngươi
##osau
##ette
Giấc
##icus
##emy
Inter
lít
Alan
Alaska
suôn
##ull
##ows
##ump
##ibati
prô
Luôn
##awa
Berlin
Time
Jonas
enzy
Clay
Romo
Grand
Jennifer
Larry
Taylor
Kiribati
##hoven
Havard
violin
Jesus
Skype
thỉu
Rachel
testosterone
Beethoven
450
82
Bé
Bàn
Cổ
Cuba
Dòng
Gan
Graham
Hal
Hồng
IQ
Jers
Lên
Lập
Mama
Nấm
Ryan
SR
SA
Sản
UN
Vận
Vua
XL
bo
be
cỗi
câm
dấy
gồ
gôn
gầm
hươ
hắc
hèn
kị
kiêu
lố
lộng
má
nang
nai
ròng
rách
sạc
sụt
vv
ín
ầm
##cou
##cent
##ni
##ga
##gan
##ool
##ray
##ean
##ii
##iet
##iro
##ura
##word
##ưởi
##fl
##NG
thình
chổi
chanh
nhẽ
trỏ
ngần
ngợp
phu
phao
giang
họng
##ons
##aus
Thung
Trưởng
##imal
##orm
##alin
##ister
##ats
lẽo
Hoạt
##omet
##rad
##ustin
##ado
banjo
Str
Stef
##eyer
Margar
Yorker
##oud
##str
##stan
Art
##ife
##uten
McK
1975
liễu
Great
Free
Seattle
Plato
Lesterland
Jefferson
Titus
Europa
Grace
Lawrence
McDonald
CNN
đựơc
sandwich
Cheryl
bazơ
Jersey
Margaret
78
AV
Aim
Bị
BM
Biến
CC
Cười
Cao
Dam
Diana
DAR
Fib
FBI
Gary
Hạ
Hát
Has
Hol
Hann
Jar
Kỷ
Kib
LH
Lạy
Mai
On
Ore
Russ
Sắp
Ti
TS
TH
Tiên
Tạm
Tob
Tun
Vùng
Ver
Vòng
Vinc
bú
dè
gặm
kèn
lạy
link
mĩ
miên
mường
nòng
nấng
pass
rọi
rạc
rạng
rẩy
sừng
tứ
xói
Đội
Đợi
đút
Ứng
##gen
##len
##rir
##rina
##tel
##ira
##uela
##ều
##men
##ko
##RNA
##Women
thà
thêu
thạc
nhô
nhấm
tro
trút
khờ
phẫn
phthalate
giễu
Chống
Nhớ
bịp
Tho
Thanh
Tham
Thuốc
Thuyết
loé
thuở
Khủng
##imet
##ori
Phượng
Phill
bus
buông
##iêt
##ade
Quản
Doha
##illa
bíp
##inea
##able
Mary
khuya
##mann
Carr
1992
1997
##allon
Island
games
##ize
Geographic
xít
4000
McG
##athon
Beau
Beach
Craig
1945
Guinea
Rome
Toronto
Jerry
Peru
Dean
seroton
Jacob
##aghetti
Kyoto
marathon
Denis
Murray
Oliver
spaghetti
Bertie
Keith
Katrina
##timore
Hawking
FOXO
Mitchell
Nairobi
Diego
hươu
##couver
Aimee
Oregon
password
serotonin
05
57
6000
84
Bờ
Bóng
Bah
Blo
CL
Cơn
DP
Dây
Dầu
Dấu
Dor
FDA
Gay
Ger
Gord
Geh
Gwen
Himal
Jas
Jud
Kích
Lâm
Mã
Mê
MG
Mot
Mày
Met
Miễn
Mir
Nông
Nửa
Nich
PC
Pier
RG
Sil
Sir
SMS
Tôn
Uk
bần
cõi
dẫu
file
gởi
lon
miệt
nôi
nôn
nặn
prog
rành
rạch
rụng
sỡ
sải
sảy
sấm
tem
teen
vóc
wh
Đứng
đê
điềm
đẫm
đấng
##com
##sc
##ead
##kh
##zz
##fred
##N1
chệch
nhổ
trâu
trọt
##ays
##anon
##anic
hoạn
##onacc
Chạy
Nhiên
top
Trăng
Treas
cơm
xuẩn
viê
nguyền
##alore
##ese
thoa
cáu
##eta
##etown
##atz
##ites
2020
Stir
Stock
State
##iger
ướp
##tha
##rane
##opy
##agan
##ager
##abad
Mario
##owitz
##apt
Brend
canxi
Luận
Dave
##tech
##athem
Rose
Bangalore
##eeney
Julie
Schw
shock
Franklin
Walker
##ctic
hãnh
Oxy
Baltimore
##201
Venez
Vancouver
microRNA
Bolt
kiêm
neuron
calo
metan
mịn
Matthew
Dubai
Copernicus
Lebanon
Oakland
Fibonacc
Tunis
Himalay
Ukra
Treasure
Venezuela
Fibonacci
00
53
Bán
Buồn
Cent
Ess
Fellow
Gaza
Kiểm
Kle
Leo
Len
Lev
Lock
Like
Mời
Pap
Pink
Potter
Rory
Sob
Ty
Tệ
Tỷ
Tiểu
Tenn
Teh
Xếp
Yale
bục
bạt
cat
dẫm
gò
gáy
gào
gallon
lẩn
mội
măng
mút
rưởi
sút
sun
tể
tú
xông
you
Đạt
Ẩn
Ừm
##hr
##lider
##sd
##sw
##ral
##rick
##uce
##dit
##ban
##ww
chắt
nhún
ngách
phai
quỳ
quật
giòn
nghênh
##uyển
##otosh
##ange
Chế
Chern
Thức
Thập
loà
##erb
Trọng
Khái
Khách
thoi
##itra
##ition
Hop
##acy
##obyl
TED201
##ideo
Saudi
hun
##unk
##ree
##aha
##nett
Alfred
##aks
##ave
188
404
duỗi
Anth
##ibo
110
##eller
Leg
##eech
Harlem
##over
##lins
##ugh
Billy
##berry
##ecca
Palm
Jamai
Greg
micr
Liberia
Sweeney
Gando
axít
CAD
Melinda
nitric
Panthe
##echn
SOPA
Mozart
American
horm
Pepsi
gluc
##osaurus
Stirling
Sobule
Tehran
##otoshop
Chernobyl
39
67
76
94
Az
Ail
Bil
Clo
Dai
Dol
Deb
East
Hong
Hiến
Hun
Haz
Il
Ix
Job
Justin
Kay
Lim
Lợi
Màn
Men
Med
Mak
Meyer
Nov
Nico
Ooh
Ott
PI
Por
Rh
Ru
Reb
Sang
Sara
Sug
Soph
Vui
Woo
Wood
Wire
bô
biếng
dốt
foot
gân
hời
lẫm
mau
nọc
rán
son
văng
vãn
xén
Đánh
đũa
ảm
##gr
##let
##tic
##plex
##ken
##SE
##ợc
##fi
thục
chen
chửng
nhì
nhảm
ngửa
##ont
Chức
Chen
Chọn
Nhiếp
Thể
Tháp
##ambia
luẩn
##ars
Nguy
##esa
##esk
chuồng
##atem
vụng
##its
##olate
##emo
##ome
##oman
sưng
##act
##urch
kén
##rof
Stone
Doanh
##ream
Conne
Ali
##aga
Marsh
189
186
##oux
Shar
Bruce
##extin
Caltech
1989
##shire
Santa
Michel
MoMA
Irag
Barack
Palextin
##insky
Abu
Wiki
Neil
##astian
##oko
White
uyên
Guatem
360
Tora
Latinh
Williams
Bonnie
Norman
##sterdam
Univers
Oscar
Moses
Langley
Tahrir
Oprah
pheromone
##Speech
Stefan
FreeSpeech
Gehry
progeria
Essex
Tenness
Dolby
Guatemala
66
AG
Aye
Band
Bow
Cánh
Coo
Dạ
Day
Dừng
Dennis
Fed
Fey
Ge
HS
Hỏi
Hạnh
INC
Jake
Kos
Kent
Kate
Kep
Lựa
MA
Mang
Mob
Mik
Meg
NBA
Pe
Py
Pic
Part
Post
SS
Sis
Sri
Solly
Tar
Tarah
Vợ
Vẻ
Viễn
ZK
ar
au
cật
cội
cello
copy
dặn
gặt
hót
hằn
lầu
lốc
nung
náu
noi
pa
pen
rộ
rệ
rụi
sên
sục
sảo
sụn
tấu
túp
váng
watt
út
Độc
đấm
##cl
##cas
##ho
##ois
##sylv
##rid
##eck
##da
##pp
##mud
##moud
##jev
##kansas
##yon
##bunt
##Talk
##ỏm
##field
##MED
##IC
##ẵng
thê
thiển
chững
chiêu
nhút
nhoi
ngơ
ngó
ngất
ngấm
phồn
giở
giông
##ote
##otte
hoán
hoóc
Chồng
Chụp
Chuyển
bịa
khoả
khoanh
khoát
Thula
loang
loãng
Triển
Khám
Khal
doo
tuôn
Phiên
##eline
##ets
Giữ
##atur
##itan
##asa
##leans
##oma
##obo
TEDWomen
TEDTalk
TEDMED
##urt
##ingo
10000
Stand
Stein
daf
Intel
##than
##aba
##aki
Maria
##ocr
Joey
##umara
Brand
Ariel
Arkansas
Tod
Carter
##ookie
Loan
##artz
##awi
2013
Harry
1986
blogger
##achus
nhoáng
Moham
##inder
App
Prin
Evan
Max
Cruz
##etts
##ynth
##oke
Orleans
Bono
Mahmoud
Coch
Goering
kẽm
Karl
Quyển
ngừơi
Miller
Serg
Jacqu
Irắc
Ireland
Econ
Weibo
Austr
Archie
Uhm
##ject
Pennsylv
Gilbert
ESG
Kibera
Phillip
Bloom
Nicholas
viêc
Anthony
Pantheon
Ailen
PIPA
Toraja
Tennessee
Cooper
Kepler
Tarahumara
##buntu
Pennsylvania
56
BP
Bảng
CH
CIA
DD
Dần
Dem
Dun
Fi
Fai
Found
Gì
Hồ
Hot
Hit
Hmm
IK
Ki
Kông
Kiva
Les
Lab
Lyn
Mao
Mul
Mathem
Nổ
Nar
Nik
Ody
Pin
Row
Sỹ
Sẵn
TB
Tái
Tội
Tốc
Tàu
Tuyên
Tụi
Tso
Vây
Viên
Vượt
Video
Wang
Win
Wind
Xa
Yếu
cợt
dép
et
eB
est
hỉnh
is
lình
lóng
mem
meg
nại
neo
nạt
nách
nấp
net
núm
rợ
râm
rắm
rẫy
sành
sủa
teo
vấp
vệt
water
xao
Đề
Đủ
Đang
Đấu
Đốc
đả
đong
đùi
##cm
##cam
##colm
##colate
##holm
##och
##leton
##sy
##rich
##eus
##ten
##tein
##tail
##pson
##kar
##bao
##bus
##box
##EG
##EF
##êt
##wne
##ẩng
##Hz
##zero
##ôc
##OS
##OL
##Point
##12
thầu
thét
thuyên
chậu
chộp
ngời
chocolate
Vàng
##cha
Chứ
Chìa
Chín
Child
Nhanh
Nhiệt
tour
khoé
##erat
##amas
luồn
vịn
Phim
Phóng
Git
##atica
##ilot
##iley
##aster
nghiã
##adore
##eber
Inst
1500
##agu
Maryl
Johan
1800
##ough
Shah
##iba
##elli
Johns
Amsterdam
gamma
Lanka
Brad
1988
1985
Sci
##itha
##oga
##ogy
Andy
Andre
Barb
##riel
##oyager
Browne
Nauy
Rezero
##astle
Fred
Freud
Freeman
Malcolm
Libya
Stanley
Ahmed
Charlotte
Jimmy
Hamp
Palestin
Donald
Bayes
Noel
Noah
Young
##moor
Wilson
milimet
Linux
Sioux
Agnes
PowerPoint
Helen
Netfl
UCLA
Broadmoor
Scratch
Aurora
Sebastian
Jason
##cticut
Hopkins
Jamaica
glucose
Connecticut
rệp
##jevo
##achusetts
Cochrane
Mathematica
Odyss
Maryland
Netflix
59
71
750
7000
83
89
AT
Ast
Bre
Bart
Bever
Cú
Cro
Coh
Cựu
Dạng
Gol
Gul
Gap
HP
Hum
Hut
Hind
Huck
Imp
JR
JK
KB
Kan
Kid
Kab
Ly
Lễ
Liz
MW
Mid
Món
Mard
Mann
MBI
MBA
Nạn
Nao
Oz
Pia
Pit
Pur
Pran
Pasc
Quyết
Rub
SB
Sông
Song
Sel
Ton
Vai
Vel
Viv
Vườn
Voyager
Wy
Wis
aw
br
cỏi
cồng
cặn
cock
dế
dạt
dằn
hóm
lư
lở
mồm
nể
par
qúi
rầu
rầm
von
vạt
vượn
yoga
Án
Đảo
đễ
đần
đước
ươm
##cop
##gg
##horn
##rk
##ria
##ax
##tan
##iy
##ien
##ios
##ique
##du
##pi
##mond
##minder
##ji
##yte
##yota
##ba
##ET
##200
##xin
##xter
##west
##wait
##zan
##CC
##fel
##ém
##ỡi
##ça
chập
chánh
chèo
chèn
chót
trơ
trướng
khánh
ngõ
ngà
ngóc
ngòi
ngợm
ngẩng
phiệt
quặng
mào
##onia
Chuyên
Nhu
Nhịp
loanh
Trình
Tric
##aman
##arin
##aren
##oro
##alie
##osev
##osphere
##elt
##etas
Giúp
##atông
##atma
suyễn
##itic
Homo
bur
##lev
##ader
TEDster
##roça
Nghi
sul
##lov
##ipcar
Mars
##owan
##hane
Shaw
##phua
Anne
##ape
Arm
##iflu
##manuel
##ickr
Khoảnh
1993
1991
Baxter
Luke
proton
Harris
ruộng
##ovo
Scoop
Robinson
##tain
Danny
Elvis
##asso
Monter
Spr
##riend
Jamie
Evel
##ortis
Diet
Naj
Heather
Clark
Walmart
Malays
1940
Guard
Sean
Gabriel
Indiana
Libăng
Bonnet
Mahatma
Karen
Buff
Osama
Rockett
Tamiflu
Laur
##rogen
maratông
Rives
Rivers
Biosphere
Hirsh
##uchia
Juan
Radio
euro
Grant
Russell
Bahamas
Gordon
Stockholm
Brenda
Central
Papua
catadore
Ixaren
Sarajevo
INCRA
Prince
Econom
Australia
Foundation
IKEA
##eratops
Odysseus
Beverly
Gapminder
Pascal
cocktail
Triceratops
Malaysia
88
AC
Ath
Bấy
Byr
BBC
Cass
Cynth
Des
Dra
Eb
EEG
Gọi
Gấp
Hỗ
H5
Hon
Hướng
Hey
Java
Kas
Kap
LA
Lạnh
Las
MP
Mông
Mẫu
Mell
Mub
Molly
Nin
Ow
Po
PA
Pac
Pilot
Rừng
Rem
Reg
Riley
Sur
Tờ
TG
Tớ
Tân
Tàng
Ut
Up
Vừa
Wide
ad
bở
bừa
beta
cortis
dó
dí
gl
gt
gỉ
ganh
geo
gãi
google
hũ
jihad
lộc
lõm
mo
nỉ
nè
oà
pl
rùng
rữa
răn
rót
rơm
sò
sen
sal
tợn
túm
up
vơ
vồng
vớt
woo
đă
Ổn
##cer
##cra
##lav
##rett
##tis
##mail
##ju
##jan
##vin
##val
##vet
##vent
##kim
##bes
##xy
##ze
##ôla
##fus
##ẻm
##IP
##ỡn
thây
thềm
chk
chang
chat
chưng
nhan
nhối
nhung
nhen
nhót
trũng
phước
quây
giỏ
nành
rain
##ano
##anistan
Chả
Chỗ
Chim
Chủng
năn
Nhảy
##ươm
token
Thằng
Trin
Trục
Troy
##aro
##arak
diêm
diox
xua
Photoshop
##els
chuồn
Gian
Giảm
Gill
##atan
##icill
101
Hob
1920
lab
TED200
##ides
Studio
nhuần
##read
Alg
Alt
Alb
##agas
##load
##tonia
401
2500
##umann
##app
Broth
Toyota
##arty
2015
Kend
nguời
##ffiti
Color
1983
Geoff
##linois
Robb
Tweet
1973
1979
1965
Ohio
Critic
##ende
##etty
##oshima
Heh
Wales
Flickr
Philipp
amino
365
Burn
##ants
Galil
1957
Water
kềnh
##tsburgh
##liu
1918
nhím
Accent
ARN
Linus
goá
vãnh
Casey
Hiroshima
Georgia
Kurd
Campuchia
Achill
graffiti
##lashy
Friedman
IMF
Massachusetts
Viking
##stone
prôtein
enzyme
##strong
DARPA
Vinci
Denisov
Gayla
Judy
Tunisia
Bilbao
Hunter
Illinois
Rufus
Marshall
Kosovo
Picasso
Sisy
##ocrates
Sergey
Hitler
estrogen
Hampshire
Cohen
Naomi
Pittsburgh
Monterey
Guardian
Cynthia
H5N1
MP3
Mellon
Mubarak
cortisol
Accenture
62
73
8000
AI
ABC
Bong
Bầu
Bin
Bữa
Ball
Cấp
Cos
Corn
Cod
Clev
Ele
Fab
Ful
Gard
Gall
HC
Hơi
Hem
Hud
Hunt
Hurt
Id
Jihad
Kia
Key
Lũ
Lí
LG
Lối
Lắng
Lur
Lớp
Lind
Limb
LOL
MM
Mây
Mãi
Mall
Media
NO
NG
NI
Núi
Nev
O2
Ola
Pra
Pre
Pav
Pach
Point
Rốt
Rab
Rev
Rum
Rec
Rep
Sin
Sar
Sag
Sinc
TD
Tạ
Tiện
Tuyết
Tib
US
Vis
Xuyên
bùa
bùm
biêt
civ
dơ
dặt
demo
ep
ft
for
gàng
gợn
hạc
hốt
huyện
héo
hòm
le
lẹ
lồi
mm
my
mùng
mách
mắng
mix
rên
rèm
rợn
sững
sầu
sồi
té
uý
usd
vể
wow
xiết
yến
úp
đên
đùng
ắp
ừm
##nick
##oac
##oul
##lar
##lair
##sen
##rit
##eed
##aa
##ius
##uh
##mb
##ment
##ki
##yle
##yce
##bab
##ES
##ER
##xon
##wick
##Sh
##HO
##zone
##RN
##ổng
thòi
chừ
chần
chao
chũng
chuộc
chừa
chém
nhàn
nhứng
nhầy
nháp
nhúm
nhõm
trờ
tròng
trăn
trans
khay
khắt
ngỡ
ngầu
ngượng
ngạt
phỉ
phách
photon
giời
##uyễn
rao
##anan
hooc
##onie
##oney
##che
Chin
Chơi
Church
nghĩnh
##aid
toái
Thi
Thưởng
##erk
##ery
Trải
Trách
##amp
##ames
##amie
Khơ
Khắp
tuột
Ngồi
##orth
Pho
Phép
Phẫu
##esar
##esome
##elle
Gió
sofa
##ilton
vụt
##ito
##ital
##oli
Hoạ
Hous
House
202
##tern
##omb
##acre
##obe
laze
##adus
##idro
##ingham
##unch
##unes
##reat
##ika
Show
Sheph
##ords
##stream
Emmanuel
khứu
##ryst
Bach
Afganistan
Davis
##ions
Amanda
bổn
Canyon
1982
oxide
Bank
Hyder
Michoac
##uga
##eka
Eli
Ellen
Paula
##burn
Baref
##rice
1962
Prize
##egal
Diam
School
Reu
complex
Head
Clonie
##ucky
nều
Malawi
1949
##celadus
Transition
Roman
##othy
Jeremy
##ouri
Christian
Enceladus
Venter
##mmm
Perry
CERN
Hamlet
bonobo
Glad
Gene
##quez
Khuôn
Serra
##nesota
Cape
USDA
Olympics
Euro
Roosev
neut
nitơ
Terence
Reddit
##ambique
okay
Duol
bloop
Mozambique
Exxon
Kerry
Minnesota
1858
Actor
England
helium
đuợc
Snow
Senegal
##press
beat
Thoả
Ukraine
Klein
hormones
Ottoman
Bandura
Pyth
penicill
##muddin
Jacques
Faiza
eBay
Barbara
Kabul
Evelyn
Najmuddin
Riverside
Byrne
Colorado
Galileo
Sinclair
civic
Barefoot
Roosevelt
penicillin
03
63
650
92
Ay
Aw
Aut
Aug
Ass
Bỉ
BK
Bai
Bit
Bac
Bion
Bond
Bỗng
Bog
Beth
Bagh
Cải
Cửa
Cis
DC
Dian
Dep
Dolly
Electr
Eiff
Food
Gã
GV
Good
Gowan
H2
HL
Hằng
Hết
Hiểu
Hậu
Hack
Huss
Istan
Jor
Jans
Kw
Kĩ
Kath
Kant
Kris
Lẽ
Lem
Linda
Lisa
MO
One
Pao
Pear
RO
RNA
Sợ
SI
Sốt
Sum
Sony
Saf
Tù
Tường
Tul
Tide
Tulu
Us
Von
Via
Vẫy
Wol
Xác
Zach
Zetas
Zipcar
as
are
beep
cou
dừa
eo
el
es
eng
flash
gù
gẫu
hê
hột
hiều
hot
hiền
hùm
hidro
lự
lỏi
lảng
lim
lóc
luyến
lụi
lốp
lún
mó
máng
mòng
mod
mail
nu
nương
nẹp
rầy
sé
siết
sệt
sọc
sex
tằm
uất
vò
vói
vẹt
Đổi
Đọc
Đẹp
đờ
đái
ưng
##corn
##cock
##castle
##côla
##gs
##gill
##oit
##lam
##sey
##sson
##rig
##rian
##aff
##uza
##dt
##dad
##pan
##pen
##met
##more
##jah
##ku
##kin
##yt
##yson
##bi
##bar
##bul
##DR
##TT
##TO
##zo
##zi
##zim
##zmann
##fer
##fia
##Le
##ML
##MRI
##ĩu
##ễm
thớ
thẩn
chồi
chĩa
nhả
nhẹn
nhuyễn
trau
trặc
khong
khét
nga
ngỏ
ngùng
phà
quĩ
cácbon
nghiến
nghẹn
đãng
##otton
##aya
rang
##anor
##antha
##chester
Chàng
Chung
Chop
Chechn
##aire
Tra
Trại
Trân
Trận
Tránh
Trạm
Khiến
Khung
##enix
##ial
luỵ
##imi
##imét
Ngọn
##alth
##alog
Phổ
Phúc
phụng
##eli
thoạt
Giff
##ise
##ischer
##atin
##itar
##olph
##ology
Hoff
Home
##iêc
##leep
##ema
##omon
##adi
trụi
Saul
Saund
##inger
Quỷ
##rov
##roid
##rove
Sting
##rez
##istor
1200
##lock
thụt
##ineering
webcam
##uld
182
robots
##phus
Anton
Anna
Brun
vợt
dĩa
##azar
##ryl
Carib
Cargill
##ivia
Lov
Isab
2014
170
Collins
1987
##shmi
Robics
Android
Beck
Splashy
##insey
1968
Pauling
Blair
Pros
##rene
##endo
Darfur
Neumann
Reagan
Freder
Whoa
uyển
Samantha
1948
Caroline
Balk
Roma
##meister
Madagas
sôcôla
Libby
Janine
##uke
Mech
Nano
Play
Brooks
Lake
CPhi
##ARS
Aviv
##afi
##ydney
dollars
CDC
Estonia
Knee
Knight
Allen
Erik
Budrus
niêm
Sheryl
Missouri
meerk
Farmer
blah
Kaluza
Arab
Fortune
pheromones
Broadway
Shirley
polymer
Whitacre
Jesse
Jessica
Saddam
Sheila
##onsin
Hannah
LHC
Online
Toby
Himalayas
Cloud
Rebecca
Wired
WikiLe
University
Feyn
Kentucky
Windows
Science
Marduk
Hirshhorn
Cassini
Kaplan
Gillian
Algeria
Altos
Sisyphus
Cleveland
Luria
NIH
Prego
Sagmeister
Hyderabad
Duolingo
Baghdad
Eiffel
Gowanus
HLV
Hussein
Istanbul
engineering
Chopin
Chechnya
Saunders
Robicsek
Madagascar
meerkat
49
61
79
Aung
Aud
Bời
Buy
Bun
But
Blog
Cung
Côn
Cảng
Celine
Coke
DH
DI
Dục
Dãy
Dom
Dew
Dev
Daw
Deep
Dyson
Est
Eames
Goog
Gram
Ghi
Gros
Hôn
Húp
Hưng
Hub
ID
IC
Ing
Ian
JM
JY
Ka
Kong
Kem
Kara
LM
Lương
Low
Lagos
MR
Mực
Muốn
Mam
Miền
Mua
Mảnh
Mun
Mitra
NH
Nổi
Nia
Nad
Nell
Nix
Ong
Old
PR
Pad
Pine
Pri
Pants
Rau
Rah
Rup
Ragu
ST
Sân
Shan
Sach
Sue
Slow
Seth
Sleep
TE
Tij
UE
Vệ
Vạn
Vent
Vila
Wi
Wii
XI
XDR
Yah
Zambia
bái
bung
bêu
bỏi
bừng
bặm
bứt
cò
cotton
dột
dật
dìm
dỏm
gô
gàn
goi
gara
gẫy
há
hắt
hớt
hec
head
két
kỉnh
lt
lả
liếc
mí
mậu
moi
mag
nấy
nom
nick
nĩa
oan
rạn
ròi
rủa
se
sá
sỉ
sài
sặc
tễ
tuốt
tót
tennis
uh
ubuntu
vét
vênh
xê
yum
ze
ạt
##cor
##cul
##cson
##cow
##nis
##gi
##hryst
##rô
##rin
##ret
##ruten
##tol
##uana
##ds
##dan
##dor
##die
##dies
##pa
##pta
##point
##ms
##mor
##mingham
##vold
##kut
##bin
##êng
##êin
##war
##worth
##SS
##SM
##TA
##Tunes
##õng
##RC
##CK
##AA
##AL
##ừm
##OC
thự
thàng
chê
chường
chửi
chùi
chiêc
nhãng
nhòm
trề
trành
trồi
khố
kha
ngấy
ngàng
ngứa
ngạch
ngáp
phết
quệ
giũ
giăng
giấm
giùm
nghếch
ran
##anc
##oni
Che
Chip
Chev
Chaz
##aux
##inas
##ais
##aijan
##err
thun
Tri
Trần
Trồng
##ams
Khai
Kháng
##enos
quark
Đóng
Ngắn
Ngựa
ngoạc
xui
##oren
##oraz
##ete
Giác
##olux
Hod
thưc
##rab
##urn
trợn
##idad
Quên
##unta
Newcastle
##rect
##igruten
##ahn
##thus
Allo
Alab
Alain
##ieu
nhờn
Nghịch
Nghiệp
##agram
##loid
##akh
##avin
Taj
##iki
Shin
Shack
##irl
Brent
##ift
muội
Thuỷ
mafia
Lucy
biễu
Frans
175
Collider
##eek
##ersburg
##ocks
lẻo
##enny
nhoà
McM
1976
1974
Elli
Paulo
##ect
##athy
Barry
##egas
##anna
Petersburg
enzim
Juliet
##bright
Suu
Harvey
1947
Gupta
Orkut
amin
##issipp
##ehr
Tuỳ
Tucson
Torosaurus
cents
Simpson
Hansen
1953
microphone
Count
Mead
nhịn
Myhr
Lady
Buenos
Sally
series
pounds
Laramie
Turbo
Forbes
Titanic
Kyi
Moscow
Ronald
Hills
Aires
Airstream
Ferr
Blackberry
Eskim
Sandy
Alberto
Alberta
Hany
McChryst
Jordans
Chuột
Maslow
Mississipp
Raj
Krist
Kuwait
Randolph
##ingsuit
Botsw
Skid
Sunni
America
Georgetown
Matthieu
Arabia
Nicole
eureka
##lasma
Hadron
##borough
747
Beatles
enzym
Hasan
Jarrett
LHQ
Tobago
whis
Schwartz
Boltzmann
Pinker
sunphua
##erbaijan
Azerbaijan
Sugata
Sophia
##grass
Ariely
DDT
Nikola
etc
Pranav
Vivian
awesome
Armstrong
Economist
Owens
Utah
gluten
salad
Trinidad
Philippines
Kurdistan
Costa
Eleanor
Hudson
Hurtigruten
Nevada
Gladwell
August
BKT
Bitco
MOOC
Giffords
Isabel
WikiLeaks
Feynman
Nixon
Alabama
Myhrvold
McChrystal
Mississippi
09
1kg
51
Aqu
Bj
BB
Biên
Bách
Bắn
Bor
Bul
Bund
Cấu
Cẩn
Cash
Code
Dược
Dak
Dụng
Data
Dhar
Duke
Eis
Foster
Fez
Fear
Full
GC
GI
Guy
Gấu
Gell
Gut
Gog
Hả
Hang
Hài
Hor
Hos
Hand
Heb
Hữu
Hart
Hers
Hipp
Hatz
HAL
IV
IN
Ice
JS
JO
Jur
Jaw
Kin
Kros
Koh
KIP
Lã
Lệ
Ler
Lick
Light
Life
Mật
Miến
Mừng
Mis
More
Mod
Mee
Ni
NR
NF
Niết
Nằm
Nap
NSA
Niel
Night
Nino
Om
Pu
Pen
Pent
Pall
Ptol
RA
Rào
Rồng
Rid
Rap
Rượu
Rica
Rain
Ridge
RIA
Súng
Sợi
Sửa
Te
Tiết
Tăng
Tầng
Tut
TNC
Umar
Vọng
Vit
Vib
Vod
Vald
Wong
Watt
WHO
Xc
Yos
Yug
Yellow
Zur
bạ
bợ
bẽ
bal
búp
bla
bợm
cau
cúc
càm
cass
coll
dả
dể
dot
dãn
ethan
fi
fải
fil
form
font
gừng
hủ
hơ
hit
huyên
hãn
hẻm
iTunes
kang
lổ
lới
lọi
lăm
lùa
lìa
lùn
lựu
mè
múc
mẫn
mịt
nê
nắn
nic
nap
nớt
nít
oliu
re
rể
rem
sấy
sin
sán
sil
sọt
tã
tết
táng
tuốc
tuối
tera
tẹo
vê
vơi
vữa
vảy
vừng
vali
xù
xới
xửa
xiếc
xẻo
ĐH
Đá
Đằng
Đàng
đơ
Ơn
ắt
##ced
##cola
##consin
##non
##nest
##nish
##gy
##ges
##hod
##oon
##ooth
##ln
##lia
##lah
##ru
##rd
##res
##aj
##tu
##tz
##tra
##ior
##pur
##mit
##jad
##vald
##kman
##be
##bal
##bro
##bell
##ball
##bach
##xo
##xe
##wh
##work
##watt
##BS
##Sphere
##znet
##zka
##80
##đi
##CN
##Card
##Lu
##PT
##PL
thò
thât
chầm
chuốt
chòi
chòm
nhằng
nhái
nheo
nhám
ngáy
ngấu
ngỗng
phật
phen
phầm
phàm
phẩu
quác
quậy
cóng
giũa
giỡn
nghê
nghén
nghẹt
##otto
cảu
hoo
##chan
Chấm
Chand
Chap
Chuck
Chimb
##aug
##aust
##inia
##iness
##inawa
toan
toát
khoét
Thơ
Thấu
Thảm
Thatch
loát
quyện
Trả
Triết
ding
##imp
Ngà
Ngữ
Ngạc
ngoặc
khuỷ
##elb
##elop
sound
socola
##atra
khít
##ical
##ility
##ilever
##ilocks
bass
##ited
##itiba
##asy
##aste
##olulu
103
##raph
##oblog
##ady
##adema
##ural
Quix
##roject
Ste
Step
Stalin
Dow
Down
##reen
##ign
Allan
##istry
##rani
##ieg
##illo
Nghèo
##ague
bít
##tone
Marx
Marie
##oczka
Joan
Journ
##avi
##avel
##sonian
181
25000
Shred
Haidt
##phal
Annie
Arn
1100
##hna
Khoẻ
##erto
Love
##cken
Coll
Colle
2100
rupi
1981
Okinawa
nơron
##sha
Robin
##ugu
##teau
##acht
1972
1977
1978
liu
Andes
Barric
Barbie
Palin
##rier
Edison
1969
Grey
Angela
Evans
Maas
##heim
##annel
##annica
Schul
Atkins
Jeann
##arko
##aint
Mania
Suther
Carolyn
Alexis
Orwell
Ornish
India
##quare
##ethyl
xỉn
Greenville
##efeller
##lulo
Ahmad
Đoán
Griff
Percy
##weil
Morg
Warner
##esha
##usty
Cous
Patel
Patrick
Gould
Jose
Genev
ngừoi
Unilever
acryl
Lakshmi
Rockefeller
organ
Turk
Titan
##monia
Steward
Cụm
Earle
Ferris
Goldilocks
Esther
Pope
Popcorn
Allende
mili
##marin
McCain
Budap
calor
kilomet
guồng
guitar
Atlantic
Kuznet
Botton
Nathaniel
Austin
Farm
Igbo
##ittle
Kamen
Marcus
British
Britannica
Rossy
Curitiba
Nicolas
Valley
##atherine
Bernard
Drori
Durga
##otterdam
Shirky
Resnick
CSF
IPCC
UNIC
boom
Verme
Motor
Silver
Siri
##scape
microblog
Jobs
Makoko
Porter
Rhode
Bowl
MAS
Peace
Mohamed
Instagram
ATM
Gulf
Hindu
Wisconsin
##zanne
Buffett
Honolulu
adren
Brothers
Robbins
Rumi
Report
Phoenix
Diamond
neutron
Snowden
Bionic
Electrolux
Usain
coumarin
séc
sexy
Hoffman
Bruno
DIY
Kaaba
Karachi
Sachs
Tijuana
##orazo
AlloSphere
Botswana
Gogh
Krosoczka
KIPP
Licklider
Ptolemy
RIAA
Valdez
Yellowstone
collagen
ethanol
terawatt
Chimborazo
Thatcher
Journal
Shreddies
Sutherland
acrylic
UNICEF
1m
3G
9000
Ax
Aust
Agar
BA
Bau
Biệt
Bis
Bãi
Bus
Bran
Best
Betty
Cu
Cà
Cử
Cờ
Cau
Cắt
Cầm
Cit
Cac
Cookie
Cesar
DM
DU
Dạy
Dum
Dry
Dall
Drew
Ebert
FB
Fin
Fow
Fek
Fern
Fish
Flow
Fild
Friend
GW
Gây
Gái
Gor
Gặp
Góc
G20
Gever
Gambia
Hán
Hell
Hãng
Hỡi
Iow
JE
Jung
Jen
Jet
Jazz
Kí
Kiều
Kinsey
LB
Linh
Lâu
Lạc
Lão
Lĩnh
Lord
Less
Môn
Móc
Mèo
Moi
Mack
Nàng
Now
Nex
Nina
Nok
Out
Pam
Pash
PSA
Prad
Pugh
Pesa
Pimp
Ran
Rối
Răn
Riêng
Rey
Roll
RCA
Rita
SK
SP
Sơn
Sâu
Ses
Sat
Sac
Sard
Sev
Sala
Stern
SARS
Tô
Tồn
Til
Tus
Tỉnh
Tab
Tak
UNA
USA
VI
Vill
Vul
Vegas
Wu
Wag
Woff
Xo
Xử
Xong
Xương
YR
Yay
bớ
bấp
bồng
bèn
càn
còng
cẳng
cuốc
cằm
coca
code
der
den
dộng
diệp
des
dãi
dìu
ed
fu
fMRI
fischer
gở
gột
gắm
gọt
gaga
gươm
hấn
hal
húp
hói
hợt
hep
ib
imp
kar
lb
lữ
lặt
lươn
mú
mon
mẩn
mẫm
mụn
nần
nao
nức
nua
nòi
nẻo
oi
out
pH
per
post
rọc
roi
sc
sảng
sâm
sào
sầm
sus
tầu
tơi
tìn
un
vo
vs
wi
wingsuit
xỏ
xiên
xãy
xóc
ôxy
ùn
Điên
Đau
Điệu
Đầy
Đỉnh
Đáp
đay
đành
đung
đít
Ấy
ắng
##cord
##cut
##cles
##ners
##gend
##hou
##lk
##lett
##sus
##rt
##rai
##rat
##eing
##eine
##eiro
##tar
##day
##down
##par
##pton
##min
##môn
##mal
##mat
##meop
##master
##vo
##kina
##kheim
##yc
##yloid
##bot
##bour
##bage
##ESC
##wan
##wal
##wey
##wind
##witz
##wln
##Sec
##Script
##Hub
##fr
##ful
##NH
##42
##LS
##PI
##íu
thon
thâu
thán
thặng
thảnh
thớt
cháo
chạc
chùn
nhỡ
nhừng
nhói
##nhe
trc
trổ
triền
khẽ
phất
phiếm
quai
nài
##iềng
chon
choles
##ayan
##ance
hoc
##onig
##onte
##chel
Chó
Chí
Chiều
Chán
Chừng
##augh
##inck
##aim
toi
Thất
Thích
Thiệt
Thảo
Thuyền
Thịt
loét
love
##eral
##eros
##erinck
Triệu
Trích
Trầm
Trạch
##amer
Khẩu
Khuyến
Khadi
##enne
##enstein
##enburg
##encia
dies
Đói
tuyền
xuồng
##orio
##ority
##orfer
##als
Phổi
##escop
##osia
##oslav
##elah
Gir
Giơ
ghiếc
##aton
##ilyn
##aso
##ase
##ols
##olis
##terol
##eme
##racy
##usion
20000
##oban
##andon
##urdo
huý
Queen
Doyle
##real
##igman
##iguel
Inuit
##neth
Alisa
##oplin
##iev
mênh
suông
##loyd
##abi
##abyte
##ability
Mart
Marcel
Martha
Marilyn
##occo
##ocracy
Namib
Aicha
##ians
183
##iker
##out
##umen
##ird
Anat
cỡi
Bren
##ifi
##iffe
##ella
muông
##azi
##ryn
##ento
##acking
vỏn
Carroça
Leh
1600
##artu
Luton
##awatt
1400
1300
nguệch
protêin
30000
##trino
##yll
##iza
Harri
Harold
Brah
Canal
Parik
##erial
Oklah
nơtrino
Advent
Hyper
lẻn
Robbie
Sant
##enna
McLu
Ell
dòm
liêm
tịt
Barn
Barcel
Palmer
Beij
Bergen
Monica
Monster
Eddy
tuýp
1963
Blu
Prot
##ega
Maj
Maine
TEDxB
TEDxS
TEDxC
##eena
cacbonat
##oxy
Adams
230
Reed
Heidi
Health
##linger
Dereck
Derartu
PMTC
Whole
Whirl
Richards
Atala
Frankie
Walt
Walter
Natalie
220
Manju
Suzanne
Malthus
Giacom
Seng
radar
amyloid
Smithsonian
##ishman
Madrid
Torvald
##othic
inches
Burma
Burkina
Enron
Jackie
Đoàn
##ensp
vaccin
Morris
Morocco
Babbage
1954
Coast
Nancy
##ilding
Donna
##uprof
seri
Mills
Milly
Mello
Tamil
Tamara
shows
Jenny
Bolivia
Capetown
Turing
Lauren
##mont
1910
Hillary
Aspen
Goldman
Ecua
Ecosia
Kirk
Project
Every
Milan
Maggie
tweets
Erin
Terry
##earch
truỵ
Chuỗi
Chuẩn
ARES
Merced
Mission
Janeiro
Randi
SOL
Philips
Slick
Sunitha
blue
1926
Birmingham
Kool
Portland
Powerpoint
##rrrr
Edwards
Minority
Curtis
Italy
Durkheim
Radcl
Solomon
Boeing
BRCK
Granny
Engelb
Maps
heli
##borg
ESP
Research
Ground
Rodrig
Ganđi
UNESC
BMW
DARwln
Hasbro
Vincent
McGonig
Motors
Miranda
Pierre
Himalaya
Ukraina
Locke
sunf
Daily
Meyerowitz
Meggend
##house
Standford
Mohammed
Cruzeiro
Phillips
Democracy
Hotmail
Children
Johannes
Hutch
Improv
Midwest
Ruby
Seligman
Tonya
parab
đễnh
##iyama
Nghiêm
sulfur
Dietrich
Clarke
Dracor
JavaScript
##craft
dioxit
Kendall
Achilles
Denisovan
Fabian
Garden
USB
epoxy
transistor
Houston
Michoacán
Python
Diane
Paolo
ROV
Tulley
Viagra
Prospera
Frederick
Gross
Hubble
Oldenburg
Yahoo
McMurdo
Eskimo
whiskey
MOOCs
Lãnh
NRK
Yugoslav
Zurich
film
remix
##hodops
Stephan
Morgana
Geneva
Budapest
Kuznets
Fowler
Feki
Fildes
Iowa
Salaam
cocaine
fischeri
ibuprof
sushi
##meopathy
cholesterol
Khadija
diesel
##escope
Namibia
Harriet
Oklahoma
Adventist
McLuhan
Barcelona
Beijerinck
PMTCT
Whirlwind
Torvalds
Radcliffe
Engelbart
UNESCO
McGonigal
Meggendorfer
DemocracyOS
Dracorex
ibuprofen
04
01
4Sh
4chan
Au
Aid
Bối
Bed
Bak
Bess
Born
Benn
Bass
Buck
Boran
Bati
Bapt
CT
CR
Cát
Coi
Ced
Cab
Cav
Cla
Cox
Cour
Citi
Creat
Catherine
DB
DR
Dải
Dẫu
Dựng
Dut
Dink
Diff
Eg
Ep
EL
EG
Elyn
Erez
FE
FN
FM
FI
Fir
Fren
Fire
Fitz
Flem
Faso
Ga
Gang
Giết
Gốc
Gle
Gun
Gồm
Gamb
Grier
H1
Hân
Hương
Hiếm
Hàm
Hard
Hab
Hẹn
Hama
Hep
Hộp
Hugh
IG
Jr
JB
JN
Jai
Joplin
Kiếm
Kaz
Kìa
Kind
Kare
Kaf
Kobe
Kiev
Lá
Lái
Lam
Lưu
Lip
Loth
Laman
Lazar
Mw
Mũ
Mưa
Mẩu
Maz
Mut
Mick
Mug
Mach
Mũi
Match
Meh
Mull
Mistry
Miguel
Niên
Nuôi
Nab
Nou
Nir
Nash
Neg
PT
Pot
Pom
Pew
Pack
Patt
Pizza
Punta
RI
Rao
Ren
Ral
Ric
Ras
Run
Rud
Rama
Rush
Roth
Ratan
Rotterdam
Sy
SM
Seo
São
Sóng
Sid
Sav
Sok
SEA
Sivers
Sval
Socrates
Sydney
Sarko
Saint
Tz
TM
TQ
Tang
Tao
Tượng
Ten
Tướng
Tat
Tiềm
Top
Till
Town
Tata
Tech
Ubuntu
VM
Vẽ
WT
WI
Wes
Ward
Wond
Wael
Wald
Wound
Wool
Xung
XML
Yun
Your
Zab
Zul
Zero
Zapp
ang
aah
by
bai
bện
bòng
buốt
bio
bói
bủa
cút
cúp
cạch
coc
cùa
cta
cùn
coban
dẻ
dầm
dứa
ele
fiss
gao
gài
gal
gấm
guga
he
hững
hấu
hăm
hipp
hợm
kền
lì
lằng
lán
les
lòi
liệng
lith
like
lằn
mền
mảy
mượt
mini
mía
ná
nái
nin
nạo
nôm
nuc
om
oái
oát
ozone
panh
party
rỏ
rì
ruy
ráng
ren
ráo
rốn
rụt
rât
sê
sởi
sưa
sắn
scr
tà
tong
tấp
tào
tẩm
táp
tĩu
terr
vồ
vát
vắn
we
www
xị
xước
xát
xắp
xẩy
Đen
ẩu
ổng
##cc
##cus
##ness
##nation
##name
##gus
##gers
##gate
##hic
##hol
##hem
##lap
##lass
##laug
##sa
##side
##sler
##sky
##rand
##ea
##eng
##don
##dore
##dog
##dale
##py
##pire
##map
##mins
##mark
##vian
##vir
##kw
##kel
##kig
##koff
##kowitz
##yo
##bard
##bee
##wa
##BO
##Bath
##HD
##zac
##zweil
##Vo
##99
##40
##LU
##MU
##14
##ăt
thong
thơi
chy
chong
chùng
chội
chấu
channel
nhĩ
nhác
nhúc
nhẩm
nhậm
nhẵn
nhằn
nhât
trọ
trĩ
trọc
khải
ngông
ngán
ngóng
ngậm
ngốn
phũ
phăng
phẩy
quất
quàng
giằng
giương
giõi
##ayne
##anga
##anging
##onen
##onchi
##chai
##changing
Chăm
China
Chek
Chih
Nhi
Nhung
Nhện
##inner
##aik
contain
too
Thr
Than
Thân
Thẩm
lol
thuý
Tre
Trib
Trek
Tracy
Khảo
Khổng
##enst
bộn
##aris
##arter
Ngủ
ngoi
##orp
##aler
##alah
##aline
##alach
Phẩm
Phol
khua
##eson
##esca
##osph
##elile
##etz
Gib
##isch
##iser
##isel
##isco
##ator
##ict
##icip
tưng
##ômét
##asca
##asthan
buc
chịt
##usd
##acs
##acey
##obin
##andt
##andro
##urf
##urman
##ids
##eway
sởn
##oooo
##oing
##ingle
Quê
##roe
Stu
Sty
Stud
Store
Dod
##ahaha
Const
líp
##tham
Aless
Alley
Alison
##rann
##ranium
##opo
caff
cabin
Tuynis
##illia
##agon
##abe
##abasca
##aka
##ipper
##ocaust
##aver
##ulder
##owatt
1850
##ikh
##iken
dum
Shel
Sheena
bềnh
trìu
Brin
Eman
##elling
hổn
muồi
Toả
Toxo
Toonchi
##ental
cuôc
cún
tôt
Carmen
##esta
##ivi
Theodore
165
50000
Luc
##awton
ADHD
dịnh
2016
Kenneth
##odesk
Calcut
##cker
##ckel
##cept
173
178
Coler
##ove
Bragg
Braxin
oxit
Scrab
##shasa
240
Adrian
Camera
##ugger
##teng
Moon
Elias
##assa
##ector
##athai
##burst
Palo
carb
caram
carroça
Behar
Berry
Money
Spock
Speed
##ramento
Apoph
Bennett
Benoit
1967
Blak
Blanc
Prick
Angola
Bose
Small
##head
Cron
Crick
Crimer
Jonny
TEDxR
TEDxP
##anderson
def
Reich
Reader
##oker
##arez
Atten
##brot
Frankenstein
Tommy
Natural
Angelo
Manchester
Mali
Talks
amen
ammonia
Madison
Maddie
Webb
Webster
Greene
Burger
cọp
##geren
##luid
Enri
Gray
centimét
Montreal
Hamburg
Warcraft
Mahab
Swapt
1959
Florence
Macint
ngưởi
Starck
Muỗi
WorldW
Glas
Glenn
Herbie
Hercul
Karmap
Salman
Salinas
tango
Bobby
Milliken
United
Oslo
Osorio
Neanderthals
Bolte
##garia
Forer
Avelile
Laura
##mons
Moskowitz
Huang
Yochai
##haas
Fergus
Matty
Somali
Carlton
Ghrai
Prov
##vani
466
River
Sandberg
Wilkins
Acumen
Erick
Panama
miles
Bieber
Temple
kilômét
Shereen
Mason
Masters
Colombo
Disneyland
Bertrand
Skyl
1938
1929
iPods
Birds
Kohn
Maui
Telescope
Ashdown
Kerala
Kermit
Kamal
Kamkw
Douglas
Georges
Nicol
Valent
Berners
Bernoul
Dublin
1879
Action
Boulder
Kurzweil
Polaro
Urugu
Giêng
Beatrice
CSI
Grove
Interval
Internation
##umpet
SAT
boong
McKay
Holocaust
Jared
Maidan
Carrillo
Dorothy
Mêhic
Pierson
Klee
Legadema
Gregory
micrô
hormone
Hazleton
Medic
Sughar
##rofluid
1890
Feder
Particip
PostSec
Khalil
Appalach
Dunlap
Kiran
Mullins
Wangari
Winky
meme
megawatt
Andrea
Bartok
Hutu
bridge
burger
Laurie
Athabasca
Kaspar
upload
##vetson
Albania
Burns
Cornell
Fuller
Gallup
Huntington
NGO
Pachyce
Rabin
hoocmôn
Churchill
Shephelah
Eliot
Reuters
Heads
beatbox
Autodesk
Bacon
Depp
Hacker
modem
nuông
Balkans
Cloudburst
Dewey
Grameen
Nellie
Prius
hecta
nickname
Cheval
##amsala
Shackleton
Meadow
Rajasthan
Bitcoin
Bulgaria
Bundy
Dakota
Dharamsala
Hosni
Hatzalah
Jurvetson
Kinshasa
Meegeren
Puerto
Ridley
TNCs
hơp
napot
##baleen
##where
Chandler
khuỷu
Quixote
Arnold
College
Jeanny
Cousteau
Vermeer
Bionicle
Austen
Caucas
DMCA
DryBath
Nokia
Sesame
Sacramento
Wagner
Wofford
impact
monkey
huých
Lehman
HyperCard
Everywhere
SOLE
Koolhaas
4Shbab
Borane
Batiuk
Claes
Gamble
H1N1
IGF
Kindle
Lothar
Lazarus
RISD
Ralph
Seoul
Svalbard
Sarkozy
Wounded
Yunus
Zabbaleen
Zullinger
fission
lithium
nucle
terroir
##minster
##kigai
channelr
container
Pholeros
Tuynisi
Calcutta
Scrabble
Apophis
Attenborough
Swaptree
Macintosh
Karmapa
Ferguson
Ghraib
Bernoulli
Uruguay
International
Mêhicô
PostSecret
Kasparov
Pachycephal
07
2D
2kg
3K
330
5m
87
9kg
Ak
AB
Are
Aah
Ahn
Ayl
Aber
Audio
Bề
Bò
Bông
Bật
Bơi
Bồi
Bia
Bat
Bou
Bib
Baz
Bod
Bậc
Bùm
Bike
Boot
Bumb
CB
Cúc
Cen
Cel
Cad
Cup
Dh
DE
Dung
Dọc
Dig
Dah
Dale
Et
Ey
ET
EP
Ely
Eco
EPA
Egan
Fe
Fan
Fam
Fide
Flin
Foot
Finn
G8
Gà
Gam
Gag
Gart
Goran
GBM
Game
GNH
Gensp
Hối
Hex
Horn
Hij
Hardy
Hừm
IT
ISA
Iphone
JT
JU
Jal
Jun
Jak
JPL
KH
Kis
Kun
Kill
Kick
Kart
Kéo
Kite
Koko
KPI
Lê
Lé
LI
Lầu
Lao
Lính
Lưới
Let
Lồng
List
Lud
Lãng
Lion
Lenn
Lith
Link
Lima
Lunch
Loren
Lotto
Little
MS
MC
Mù
Mại
Mes
Mash
Miz
Mmm
Mild
Mena
Mecca
Ny
NY
Nè
Not
Nit
Neb
Nốt
Nak
Nath
Noir
Ot
OM
Off
Ommm
Pa
Pi
PP
Pand
Ped
Pass
PRI
Pollo
Punk
PET
PBS
Rang
Ranh
Rút
Rol
Rằm
Rico
Rony
Rice
Remen
Rift
Renny
Sư
SJ
SU
Sát
Sán
Sit
Sếp
Sap
Sash
See
Sek
Sox
Sker
Szy
Sagan
Save
Satur
Slov
Sieg
Square
Tứ
TO
TW
Tần
Tồi
Tặc
Tia
Tựa
Tyl
Tiếc
Take
Table
Techn
Ul
Uz
Uri
USC
Vá
VÌ
Vang
Vực
Vân
Vứt
Wo
Wad
Wid
Word
Wins
Xấu
Xuống
YB
Yor
Zig
Zuck
at
bẹ
búng
bập
bét
bre
big
bow
blu
bye
byte
cở
cộc
cáng
cạc
cor
cuồn
cuống
cầy
col
card
cộm
dề
dà
dến
diển
dầy
data
fer
fus
facebook
four
fear
fax
gờ
gí
gòn
gượng
goro
hờ
hinh
hổi
hòng
hám
hão
high
hỡi
ikigai
je
jump
kung
lác
lơi
lữa
lút
lúp
lẩm
liếm
liềm
list
lênh
mủ
mống
mạt
mửa
mầy
múi
mul
măt
nệ
nong
not
nanh
náp
nylon
oai
oanh
ome
pp
pic
pol
pro
psh
paste
poker
rôi
rinh
rám
rip
rou
rít
read
só
sạo
siêng
sap
smart
te
tạt
us
uyn
uranium
vè
vin
vút
vac
vầng
vât
with
xơi
xạc
xưng
yao
yard
yếm
Ác
ách
Đác
Đồi
Đom
Đặng
đôn
đúp
đuốc
đàu
ẵm
ốt
ớn
##cd
##con
##cal
##ces
##cav
##cester
##cott
##cover
##nic
##nell
##nister
##gim
##get
##gow
##hl
##hua
##hoo
##hall
##lie
##lip
##lian
##lio
##lawa
##ltan
##lobin
##ril
##rom
##rie
##rio
##rate
##ae
##tenberg
##uise
##dul
##pon
##pont
##popo
##một
##mel
##mund
##mwood
##mouth
##jin
##jaim
##va
##ven
##vre
##ks
##kj
##yar
##bine
##bek
##bean
##bits
##EO
##D4
##DER
##25
##78
##ểu
##wart
##ware
##ỵt
##BT
##Bot
##Ho
##zon
##zen
##óp
##CO
##fee
##found
##NY
##âp
##Ar
##Afee
##45
##ẫng
##OPA
##PO
##10
##In
##II
##US
##USC
##ngal
thr
thệ
thinh
thọc
thóc
thãi
think
thali
chè
chác
chài
chắp
nhợ
nhá
nhiện
nhích
nhiếm
##nham
trệt
trit
trớn
khư
khạo
khảm
khồng
ngỗ
ngai
phot
phường
phung
phập
photoshop
phosph
quở
quắt
quầng
gic
gig
giớ
giầu
nghành
##otic
choi
sực
##anes
##angel
đểu
##onim
##cht
Chao
Chữa
Cham
Chil
Chem
Chỉnh
Choir
khiêng
Nhập
Nhấn
Nhắn
##inet
##aise
đich
bịu
toại
tomor
Thước
Thiếu
Thói
Thaler
##eople
loi
loã
loai
locav
##erd
##eric
Trụ
Trực
Trật
Treo
Trứng
Truyện
Tree
True
Khô
Khởi
##enia
##ening
##enbach
##iat
##iad
##iath
dol
down
##aran
##aroo
##arthe
dich
tuồi
tulip
##ime
Ngu
Ngon
Ngừng
Ngón
ngoằn
Họp
xun
##oria
##alan
Pha
Phủ
Phú
Phô
Phá
Phái
Phiến
Phấn
Phạm
khuân
##osa
phít
##etter
##ethi
##etooth
solo
ghita
##atford
##icini
##ili
##ilia
##itor
##olan
##olic
##oloch
102
105
Hog
Hoang
Hood
Homer
but
dùi
205
##lebee
vun
##emite
##emens
app
##oming
##rac
##race
vệc
nghiễm
##acama
##adda
##ando
##uri
mùn
analog
##ebe
100000
Qui
Quạ
Quác
##rod
Dool
nhuỵ
##rex
Ines
158
156
15000
##aho
##ahi
Conn
Conan
Contr
Alto
Aldo
##ophan
Tuyến
genes
generic
##iller
##illion
cưú
thich
Nghề
Nghiệm
sum
##agall
129
12000
##loud
911
##ablan
##akis
##akka
##iper
Marin
Marla
Marrow
Marvin
##ocure
Jonh
Joach
Jody
Joyce
##aven
##avicini
##ianne
##owell
##iks
sơm
duệ
duplex
Shu
Shim
Shap
Shell
##station
##phne
Bruss
Aria
Armen
kít
##ious
Empire
##ubs
##icket
##ude
##lying
##entin
Khoá
Khoan
Carson
Lear
Lead
Leib
League
##ival
Iss
Isa
##arta
##awat
145
bioph
Amjad
Kenyan
136
##ckx
177
##ideen
check
Haring
Cannes
Paraly
Paravicini
oxal
Adria
Banjo
Bannister
Hydro
Camero
Camden
##tafa
Dana
##ugg
##ugo
Two
Twain
McAfee
##assel
##oglobin
##eca
##ecom
Barton
Bear
Berg
Mons
Monkey
Spec
Timothy
##rix
##riDER
##ricia
##main
##maer
Bened
Benef
Eden
Edith
tủa
1966
1964
Pret
##egrove
Abb
Abdul
Bosch
Tinker
Eva
Main
Maathai
Niger
Smart
Cruise
TEDxM
Laf
Brohi
Diêm
Schlaug
Real
Claron
Att
Atacama
cool
Walk
Walters
NATO
Tombo
Willy
999
thổng
Sufi
1941
Sears
##nerability
##bergh
all
Romeo
##issa
Worth
Worcester
Wormwood
##gerald
##roponte
Christina
Christakis
Aha
Ensler
MTV
Galen
Galvani
Vanier
Mormon
Babble
Hamas
Hamilton
Parker
Mahal
1952
1958
1956
Patton
Patricia
##carina
môtô
Mujah
MySp
Mycop
Myesha
ngụm
CAO
Daphne
Glass
Global
Herz
Karol
Taniyama
##uppam
Buch
Bueller
Fraser
Salt
xenlulo
Melbour
Rockwell
Virtu
héc
##arius
Turin
Avaz
Avatar
Kevlar
##ydia
##rogram
Kymaer
Ronson
1919
Discover
Airbus
Goldstein
neon
##iffenbach
Blackawton
Ghonim
Produ
Prozac
Denver
Milk
Milton
Magell
Olson
Sandel
Wilk
##NCCO
Allah
Allison
Berkley
Hanson
Teresa
calori
kilô
kilowatt
Leonard
442
Merckx
Kuiper
Randy
Siemens
Susana
Wei
Weiffenbach
Zimbardo
##iji
##orska
Xuất
1932
Casa
Casablan
Fargo
Tahltan
grams
##itty
1928
Archer
Birke
Haas
Kofi
Royal
Royce
Basit
Basque
Miner
Godin
Italia
Belsh
Comp
Compan
Commons
Shirin
BRD4
Liu
Campbell
Whites
Copernican
Mapendo
Pepper
bits
##hhh
Louise
1904
Scrubs
683
Musica
Mustafa
Snoop
Saxe
Volta
Volvo
##cial
##owski
SAMS
SANCCO
McKean
Damon
Hanna
TiVo
Jacobs
Gayle
##anical
##aptop
Brendan
Oxytocin
Type
##erbread
TED2010
TED2011
Limpopo
Novocure
Rhod
##gras
Universal
Mobile
Miko
Partners
Khalida
TEDTalks
Standard
Today
Bloomberg
Leslie
Lynn
Pinot
GitHub
Bradley
Ahmedabad
Goliath
Imperial
Wyoming
Wislawa
TEDsters
Shawn
Spring
Springs
Laurel
Design
Hỗn
PAC
Pilots
play
đăc
đăt
dioxide
250000
Kendal
Geoffrey
Idol
Idaho
LGBT
Lindbergh
Prag
Record
Sinai
Tibet
Tibbits
##uhuh
##mborska
##ugaad
Reuther
##presso
Assange
Bogota
Foods
Jansen
Jansky
Kathryn
SING
espresso
hotdog
Antonio
Caribbean
Lovegrove
Mechanical
Playstation
Bunker
Kemp
Niall
Rupal
magie
##akhstan
Elliot
County
Augustine
Borges
Horowitz
Hebrew
Hippocrates
NFL
Napster
Yosemite
nicot
reCA
soundscape
Collusion
Barricelli
Schulz
calorie
Business
Dallas
Jenkins
Lessig
Next
Pamela
Rolls
Sardinia
UNAIDS
Vulnerability
Wujec
edX
karate
lbs
##ycin
Girl
Queens
##yllis
Bluetooth
Giacometti
Mellody
Mercedes
bluegrass
parabol
Yugoslavia
Stephanie
Bennington
Buckminster
Baptist
Cedars
Creative
Fitzgerald
Fleming
Gleeson
Hepburn
Kazakhstan
Lamanites
Noujaim
Negroponte
PTSD
Zappos
cocain
ninja
Chekhov
Thrun
Treat
bucardo
Stygim
Studs
Coleridge
caramen
Prickly
Cronin
defriend
Enriquez
WorldWide
Glasgow
Participant
Caucasus
channelrhodops
Bumblebee
Genspace
ISAF
Kismet
Mizzone
Mildred
OMG
Pandora
Pollock
Skerry
Szymborska
Slovenia
Tyler
Uzbek
bowling
blues
ferrofluid
jeans
ppm
picnic
smartphone
vacxin
tritium
Chilê
tomorrow
locavore
download
##artheid
Control
Joachim
Brussels
Paralympic
Cameroon
MySpace
Mycoplasma
Melbourne
Virtual
Product
Casablanca
Company
SANCCOB
Stygimoloch
