<s>
<pad>
</s>
<unk>
<mask>
!
#
$
%
&
(
)
*
+
,
-
.
/
0
1
2
3
4
5
6
7
8
9
:
;
=
?
@
A
B
C
D
E
F
G
H
I
J
K
L
M
N
O
P
Q
R
S
T
U
V
W
X
Y
Z
_
a
b
c
d
e
f
g
h
i
j
k
l
m
n
o
p
q
r
s
t
u
v
w
x
y
z
¡
£
Á
Å
É
à
á
â
ã
ä
ç
è
é
ê
ë
í
ï
ñ
ó
ö
ø
ü
ā
Ă
Č
ē
Ť
́
ย
ร
อ
่
–
—
…
€
你
葱
送
##a
##k
##e
##r
##y
##l
##b
##i
##t
##I
##N
##p
##n
##g
##m
##u
##s
##v
##6
##0
##o
##c
##h
##w
##d
##f
##z
##Y
##P
##D
##x
##j
##A
##T
##C
##H
##3
##8
##E
##S
##é
##4
##R
##K
##2
##ó
##ñ
##M
##J
##9
##q
##U
##L
##V
##G
##O
##F
##B
##W
##X
##5
##Z
##7
##ë
##1
##ï
##Q
##í
##ç
##á
##ä
##è
##à
##ø
##ö
##ย
##ã
##ê
##ü
##ē
##â
##ร
##ā
##Ă
##Ť
th
the
##er
##in
##at
##nd
##ou
##os
##re
##ing
##on
##en
to
##es
##an
ap
apos
##or
of
##al
in
and
##ed
##is
##it
##ar
##ot
that
##om
##as
##ic
##le
you
wh
##ll
##ow
is
##ly
be
##ve
##ut
##ion
we
it
re
##et
##ent
##ct
ha
##se
on
##ld
##ay
##st
Th
And
qu
this
##id
##ig
##ur
st
##ch
quot
##ver
##ce
for
##ere
##op
##ke
was
##ir
##im
##ith
##am
##ol
an
li
do
are
##ally
with
##th
have
ab
go
##ra
they
se
##od
can
pr
##ter
##ation
as
##out
##ad
##ear
##ht
sh
wor
So
what
com
me
##ould
at
about
##ge
ne
##ill
##ant
not
##ul
so
##il
fr
##ers
##ore
The
##ust
##est
all
ex
he
ch
de
my
##ight
som
pe
or
##ople
##au
We
there
con
##ess
like
##ck
##ate
people
##ok
It
##um
##ure
one
##art
##ive
##ies
from
ma
##ist
##ity
lo
##if
##ble
kn
our
us
bec
but
pro
##ind
te
out
##ect
##un
al
##ink
##all
##rou
##ause
just
##ery
##us
sp
know
##and
##pp
them
thing
##ie
tr
But
##her
see
these
up
if
##ort
##ci
who
think
very
en
get
##el
##ain
##ich
year
by
pl
when
##one
act
##mp
your
more
Wh
some
##iv
going
int
##og
because
had
##our
##ap
sa
would
tim
##ost
how
##ame
##em
ever
their
##ine
##ose
were
##gh
##ast
which
##ment
su
look
##ually
work
##are
want
really
##nt
##iz
ve
comp
way
##reat
##ous
##act
##ence
##ack
##ab
world
le
##hing
##ag
You
##ans
exp
time
##ther
ta
here
##ide
##ong
then
per
has
This
##fer
##ard
##ions
every
say
##ace
##alk
##age
man
don
actually
ev
into
could
will
##ild
##ud
##res
fe
years
did
now
In
##nder
other
Now
##ach
things
##ob
ag
##itt
where
They
##ical
somet
cl
##00
dif
happ
make
##fe
tw
un
need
any
than
res
no
been
##ip
##ue
##ep
imp
##so
##irst
start
said
##ome
##ro
ar
mu
part
##ia
##ice
##ory
##ry
##ree
two
co
bu
over
dis
right
##ff
something
##ite
##orm
##ass
chan
##own
##ount
back
##round
much
inter
differ
##ac
call
##ib
##ound
first
##sel
new
##ens
she
##ea
talk
po
those
##ire
also
##olog
##ign
##ater
life
##ves
cont
got
id
lot
##king
kind
##ult
##ple
##ittle
##cent
ac
##qu
under
little
##vel
fo
bet
##ody
##rain
##way
his
mo
That
##ell
most
day
pre
ph
##ving
##ru
##oss
only
##ated
##ber
even
her
##ations
What
##able
##ght
##ial
##pt
ad
des
bo
##ict
am
##ec
many
take
different
good
##rough
sy
##ank
hum
show
real
##ick
bl
through
##ase
around
im
does
##co
##other
He
##cess
There
##ning
comm
being
##int
##ish
down
##ents
tell
##form
##ms
put
use
##pl
##ress
##ible
br
thou
##ath
proble
##iver
gr
##ade
##ful
##wn
##ance
ro
inc
sc
sm
ll
happen
##ting
##ors
##ary
##ower
##ark
##ether
wr
Ch
##ject
##ual
fact
##ang
same
count
Well
##lect
off
##te
##xt
##ord
may
##day
##ph
##mer
try
gen
come
big
##stem
pers
three
##ys
hear
If
##ces
##ile
##urn
fl
##ved
tra
dec
doing
find
great
##ars
##ren
sur
##fter
exper
percent
tech
##ons
##ically
human
##self
called
brain
quest
##cial
well
child
ind
##fore
##nds
##red
##igh
system
##odu
##ics
lear
cr
let
own
##ied
stud
##ub
##we
dr
techn
made
why
##ating
inv
sim
bel
##ian
##thing
##ition
build
wom
gu
##illion
##ology
rem
##ric
again
##av
should
##ious
##ates
import
##ty
col
long
underst
##ne
creat
ask
##kes
end
hel
##ize
after
Thank
person
##ft
change
ins
##olut
##ew
##ities
bas
sch
today
##ail
##ool
feel
op
didn
thought
important
##con
old
##pe
##les
##tern
mean
idea
ob
sci
cour
last
St
##ise
started
exam
##ood
rel
power
##ope
trans
understand
help
##ert
gra
##body
went
its
story
Sh
##ull
car
inst
gl
##ese
before
design
problem
belie
might
##ily
interest
em
##ough
play
produ
##als
pol
##ak
art
##gan
him
never
How
cons
##ave
course
give
school
better
spe
##ular
turn
kid
found
still
fam
able
##be
##ather
##ists
point
##ction
##oc
##ility
##uc
imag
bit
learn
few
##ven
##ience
When
##und
##velop
came
##ix
str
commun
##ween
next
000
tog
##atch
together
app
dat
each
another
cell
##ng
sl
##oth
##ness
love
develop
between
##ited
comple
cre
question
high
##ense
min
##alth
mod
num
##ized
ago
ke
mon
19
##read
10
sort
##az
##ward
word
four
place
##iss
##ork
pat
used
data
grow
##iness
##lic
20
ser
##ures
##meric
rec
Americ
##ings
ext
too
##ways
mom
women
plan
##oney
med
met
##gy
example
cent
fin
##formation
ter
water
light
read
##ific
Bec
##cept
done
Because
live
##conom
care
seco
less
ed
looking
small
##ets
chang
doesn
technology
wanted
expl
eff
##ative
mus
beh
Af
always
##ably
econom
##cy
gener
believe
##selves
money
##aw
##ale
##ced
children
##ands
giv
partic
comput
att
teach
reas
working
poss
whole
far
away
##air
bus
book
hand
ear
hard
mind
project
information
dem
##ational
move
My
##atter
home
country
nat
el
rep
eng
trying
food
kids
reg
create
##ock
frie
run
lar
resp
health
Un
five
##ond
##ote
##ries
##ural
bi
ent
As
million
##hip
##led
##ird
lead
contr
stu
using
##olution
means
##ead
doll
##ism
vis
##nect
open
##ments
##ract
supp
sk
fun
##ont
pict
sub
##oy
cou
process
pass
become
sing
space
##wh
second
fut
##ines
##cer
maybe
##aces
acc
cor
##ruct
##ger
organ
making
pub
##its
##ten
thinking
##ories
##ins
took
anim
One
cap
##ED
share
compan
form
everything
future
walk
social
##old
ener
best
##sw
##ake
##ram
##gg
quite
200
##roup
says
Is
##ner
sol
##ts
inf
##aut
##ks
##iew
number
elect
##ention
prob
She
##ues
##ivers
soci
head
enough
group
left
##iting
answ
##alf
##vern
cle
Afric
pop
lives
##earch
comes
energy
##ety
Chin
body
getting
Why
##cus
month
war
##ouse
pres
##eas
##irl
##pr
These
beg
##kay
spec
Ind
TED
aut
For
wo
##ever
times
env
set
##ier
##ital
##ices
glob
moment
val
prog
room
##per
sense
govern
##reen
happened
makes
countries
minut
sound
probably
##ogra
job
connect
##tty
An
##iron
without
Let
##ross
talking
keep
business
##cover
top
##arr
dollars
dist
pie
##imes
interesting
ty
##der
es
music
hour
##ior
beaut
research
half
add
red
##uring
No
conf
ey
##angu
reason
##idd
##io
told
experience
educ
phot
environ
wee
##ember
pretty
hist
science
cult
matter
else
cur
young
amp
##cr
such
stand
det
across
phys
simple
opp
allow
polit
##ided
langu
side
##ying
##ient
##ately
cells
wonder
men
sign
case
cho
saw
stuff
vide
##ertain
living
eas
stop
prot
ways
asked
93
model
Here
scient
family
mor
New
building
inside
91
anything
##ortun
mem
hope
##work
##llow
prof
bring
bad
list
##ality
happens
##ograph
later
goes
##ook
coming
answer
cam
##where
bre
char
while
level
pain
##ulation
##ince
spea
lab
rest
##lf
wrong
global
mark
suc
particular
All
##ream
air
single
environment
watch
yet
problems
##man
age
##ters
##most
girl
##iter
fig
##ences
mach
##ilt
##ott
##gs
##ivid
prop
def
class
sit
##me
effect
##arent
days
##uge
having
billion
thous
control
Al
emp
seen
##aps
complete
begin
someone
myself
##orn
words
public
rob
six
##no
certain
##aterial
##ash
often
##ization
loc
saying
##ots
amaz
test
picture
within
##allen
ideas
computer
pos
looked
city
##itive
remember
kill
self
whether
possible
sure
product
community
fore
dev
Ear
once
nothing
##iverse
heart
language
both
30
##lish
##med
video
fil
material
true
cost
exact
sw
Africa
##ants
cond
##ape
face
che
unt
##ling
##vers
individ
night
iss
almost
works
mag
news
##less
equ
##ene
entire
##ron
amazing
par
##get
##ury
##aper
incred
beautif
##side
##ready
##iddle
Ever
challen
discover
basically
individual
free
heard
Earth
state
imagine
50
##ah
##pect
wa
ass
spend
##undred
full
built
treat
order
decided
Or
##ange
exc
looks
net
Intern
aw
dire
already
aff
history
past
guy
Do
friends
tool
ret
##ustr
##ages
experim
##ime
##imate
##ives
government
contin
trad
success
15
##uck
adv
engine
100
pay
Fr
hundred
##osed
##ired
stories
United
figure
##ider
collect
On
Okay
##atic
follow
piece
##vious
##ield
train
couple
beautiful
wasn
result
months
sec
##ex
education
At
large
program
Every
taking
huge
view
##ional
##ental
minutes
##bs
##land
deep
became
ris
##ivity
until
Ar
##br
const
dra
##bers
##aster
universe
ref
though
woman
society
cra
##oph
everybody
tre
must
##ike
incre
fund
##ined
quick
front
##ush
learned
themselves
##ames
##ision
focus
planet
team
di
##ared
sex
created
exactly
Internet
complex
mil
##ians
##ret
States
##omes
inno
cancer
gets
China
law
##fic
behav
Can
completely
house
##outh
struct
vir
happening
study
##ane
knew
hours
prov
name
##thers
##sy
##ats
questions
##dd
third
Go
somebody
nature
places
##cul
isn
kinds
American
itself
##ential
##ability
Br
##eah
##line
##gest
shows
bab
game
against
ourselves
av
##etic
abs
##ibly
clear
ones
difference
meet
everyone
##itting
line
listen
mess
opportun
##ogn
parent
##ease
##ones
##ising
Then
hold
others
speak
ra
since
expect
Oh
vo
##vation
object
##cle
students
explain
close
mother
gave
##cing
worked
sometimes
##ming
##att
invest
relations
##olved
##ficult
##row
##istic
company
meas
difficult
rad
##oud
dru
fail
rather
cut
won
##ern
##acter
typ
Pe
##iol
##ator
##ibut
aud
mass
##ients
##ature
India
couldn
disease
thousands
God
##lud
neur
interact
surpr
bott
##haps
deal
Eng
##urs
network
land
miss
pot
based
ill
step
America
dig
liter
##ination
rev
coll
sens
happy
amount
##ples
learning
norm
##cu
##illions
outside
##iversity
##arch
powerful
century
changed
##ps
cir
oil
market
##sych
##aring
##omet
del
arch
##0s
death
along
takes
emot
##ctor
ident
systems
early
Eur
wind
##ee
##itut
population
behavior
Some
impro
##ted
black
grand
##ode
appro
fly
##ges
##que
##ases
##ented
turns
machine
cau
green
mic
least
instead
species
##elt
pred
during
ele
jour
fear
short
guys
yourself
culture
mot
middle
##oh
##wards
democ
##not
lots
oper
eat
stre
extra
animals
protect
fre
terr
York
##ply
##ove
##ident
##ither
realized
##ken
easy
paper
##app
dep
##ged
given
var
recent
mole
image
opt
##unch
arg
natural
##fect
dream
hands
maj
perform
needed
behind
##ony
seven
##augh
##ully
##verage
##astic
12
psych
##ium
##ides
ant
simply
To
##leep
needs
math
exist
personal
father
relationship
economic
eyes
friend
field
non
colle
finally
pract
low
leave
Europe
Be
hy
companies
temp
major
18
viol
stay
##room
support
pattern
##ledge
local
felt
##itions
##inary
##ife
##olute
sour
obvious
lim
##els
turned
media
political
area
size
##osp
##ney
Pr
access
serv
value
##ging
##cious
super
common
jo
sun
##ially
##ological
famil
key
break
eight
##rew
record
ple
taken
strong
fight
spent
seeing
perhaps
communic
beginning
People
##ison
cannot
chem
emb
fall
##NA
##face
##idence
moving
sent
##ering
resour
extre
##hor
parts
longer
leg
##ills
present
win
reach
growth
leaders
##ipp
##ency
##rought
grad
Man
##ows
##ump
week
40
May
##inal
Not
ground
mult
##fully
perfect
surv
##rop
photograph
wonderful
draw
quickly
began
Re
##bo
##ived
cal
descr
event
box
includ
scale
##avor
Just
##itch
cy
terms
parents
##ny
special
ess
film
foot
lost
requ
cool
##anger
poor
robot
##ole
##iving
Yes
pick
##itect
absolute
near
##vent
##cc
##hood
enc
impact
vers
tot
knowledge
travel
cities
write
consum
experiment
Nor
oce
known
risk
Chr
repres
bene
##ler
send
insp
morning
##mb
anal
tried
buy
images
##lt
consider
##uth
dead
Our
civ
##end
##ilar
##ument
feed
##ustain
sum
dest
##ised
recogn
direct
born
##rent
obs
situ
approach
##ively
##ung
meaning
Tw
average
##bor
spread
##cially
conv
##ains
reality
weeks
opportunity
architect
sleep
rele
attention
measure
sitting
##ales
feeling
growing
English
caus
25
intr
wouldn
DNA
Yeah
either
##gn
whatever
##ards
##ption
blue
##ression
structure
##zy
##ators
economy
##ton
##iction
changes
giving
respons
eye
brought
squ
comb
##acy
interested
##ggest
fast
orig
suggest
##izing
books
Wor
yes
##ibility
##erm
stage
##ored
physical
profess
press
developed
With
die
fire
ice
##iny
modern
extreme
fac
favor
ability
sudd
animal
tools
sudden
seems
indust
voice
gone
hosp
stat
Right
##eed
##eng
##rad
priv
Ph
dark
sustain
##xy
sever
worth
##ister
##racy
soft
realize
pur
vac
affect
##ral
issue
##ouch
smart
numbers
har
##asc
wrote
crit
running
pull
developing
challenge
Le
ge
##ware
climate
scientists
By
##ext
##lict
main
thank
creating
playing
incredible
describ
##ites
##ops
sho
##aged
poll
track
understanding
bottom
nice
starting
Chinese
tradition
path
forward
humans
writing
civil
save
road
camer
audience
girls
post
deg
millions
song
aren
enter
##ensive
hor
##bon
stra
color
hot
solution
ste
##chie
knows
camp
##ique
neigh
conc
convers
relig
changing
literally
##ik
tele
alone
blood
fem
white
intern
##pecially
truth
anyone
slow
center
bra
##ran
areas
concept
seem
arr
mov
World
rul
wall
##omen
online
##amed
Where
telling
innovation
emer
rate
##ech
guess
gives
Sp
dim
hon
sn
##ped
##ug
force
##istan
##apt
development
baby
##par
asking
conflict
##ned
##ased
depe
##ift
experi
polic
solve
predict
vill
##lu
repl
soon
generation
vol
##obody
##ept
technolog
patient
patients
type
hundreds
##eter
prom
phone
##ances
appl
showed
discovered
theory
peace
imm
transform
Goog
avail
normal
mar
feet
OK
touch
##irth
##ellig
sil
##entially
trust
produce
sounds
benef
South
pictures
current
ast
est
##book
##use
##asing
movement
subject
especially
industry
compet
ocean
bed
##iet
##ified
plant
similar
materials
incredibly
fundam
potential
ur
##by
##to
##erv
##oun
talked
surface
carbon
serious
teachers
##ley
lif
sell
##ify
text
##usion
cars
games
##yond
##up
defin
bur
cop
fa
##oid
##osing
##let
##abor
##ference
Joh
achie
rich
##iod
##iant
chance
involved
visual
resources
absolutely
okay
haven
evolution
source
De
ball
occ
##loy
##port
intellig
table
function
issues
Google
##isions
shape
term
fu
marr
##ribut
happiness
##assion
groups
journey
danger
##ilities
period
son
among
detail
Don
birth
sat
##ival
lea
cover
available
dou
lay
tiny
ult
beyond
rece
sold
flow
schools
general
street
##bit
stru
##chan
neg
necess
vision
message
democracy
technologies
fur
hit
react
aware
##oming
##ades
choice
situation
dimens
fair
prin
tend
device
rules
safe
electric
recently
11
bro
##ires
##ffer
##oring
activ
boy
flu
designed
medic
breat
cause
wish
quality
lived
sea
projects
revolution
micr
John
##ala
drop
attack
##aid
##go
flo
meth
account
walking
minute
miles
##iar
##ishing
##arily
##aught
block
##ressed
institut
individuals
##odies
likely
becomes
putting
199
digital
First
##yn
##oms
map
tells
rock
office
memory
##ban
##gr
##ma
Inst
##ips
cross
drive
##cuss
Jap
bigger
After
died
led
##roll
creative
medical
passion
Japan
mob
mechan
evidence
deliver
Maybe
Am
nine
##uly
##osph
search
except
action
conscious
reasons
##oll
clean
da
div
##ously
ready
teacher
results
improve
Com
Of
cit
##ri
##head
##str
##oles
##rage
compassion
Look
West
pu
##oke
##he
##fort
print
##une
blind
cris
positive
drug
tar
towards
##ask
waste
everywhere
crazy
lau
##light
##antly
favorite
Are
##IV
##ores
##cient
Who
##medi
violence
software
cart
lose
taught
##ners
threat
prim
##agn
unf
starts
phil
screen
basic
particip
Im
bird
##more
##oon
##ama
suffer
arm
income
scientific
gt
lt
rid
##onse
##ished
biggest
##olutions
examples
report
certainly
Car
HIV
bacter
whe
minds
code
##edom
onto
door
trial
further
TV
mount
##ina
moved
transl
moral
obviously
camera
ep
faster
mis
##estern
##anc
##izations
context
computers
electr
particularly
extraord
introdu
citiz
##ctors
##amp
meant
##ruction
showing
Brit
neighbor
East
Ge
din
##urity
content
author
connected
ec
national
apart
##ude
graph
communities
choose
vacc
##of
Cl
Sw
indeed
student
speed
response
forest
magic
##rab
interv
adm
decisions
region
specific
surprising
represent
##rr
solar
progress
hospital
several
Even
Mar
##ture
##ground
offer
##ims
drugs
totally
Dav
bar
ce
sand
##ffic
brains
##others
virus
dam
fill
fish
ru
worse
##umb
cloud
societ
Most
##enn
carry
fix
##nch
prison
remark
strate
wait
##aughter
60
fant
nobody
##aking
##nal
##amm
##ucle
infect
detect
watching
assum
virt
collabor
16
dom
mine
##gen
stick
wants
immedi
Afgh
jobs
North
grew
##verty
shown
##oken
spir
##tend
chemical
push
##lo
##atory
webs
ended
largest
allowed
training
Sch
mental
pack
##eth
notice
perspect
influ
return
Cal
bal
bom
bodies
hop
tur
##how
##iger
decision
studies
finan
skin
redu
character
position
including
Christ
movie
village
method
fasc
narr
rain
##idge
univers
anybody
discuss
adult
appear
labor
continue
trees
objects
suddenly
bank
fine
##ping
##ief
temper
##akes
##put
##dom
##ero
##ays
activity
##soci
buildings
farm
depend
14
Ad
Tod
named
##itary
stress
separ
unc
poverty
employ
eventually
crisis
Afghan
luck
nucle
wife
##ai
##inct
##ought
deb
##agine
clos
Americans
traditional
ign
##icle
truly
clin
finding
201
effic
proper
circ
80
swe
forms
prote
##itten
killed
conditions
excited
conversation
link
mist
nor
##istics
plants
saving
anymore
supposed
David
##iers
shap
artist
African
signific
products
extremely
purp
Sec
solutions
##men
##ologist
effort
Any
politics
check
500
Act
##cise
##ently
##ulate
alive
accept
corre
Isl
exciting
secret
provide
service
Arab
kept
oxy
wild
##aur
##iest
##erve
##ining
##igher
doc
goal
cook
disapp
##ossible
role
points
sorts
engage
skills
allows
thousand
college
Col
cases
rap
##yr
weight
Which
complic
##ables
earl
publish
models
##zz
##joy
##rep
##sect
machines
listening
freedom
extraordinary
societies
Today
13
Ste
War
higher
jud
late
lower
page
doctor
above
##emic
mathem
trou
##ring
##gery
##enced
##rap
loved
reading
determ
princi
Bl
Western
smell
afford
successful
families
strugg
fascin
17
bunch
##yl
##cape
ann
##ube
slight
calcul
fundamental
concer
expensive
capital
engineering
square
policy
Imagine
Ken
Your
lands
##come
##ster
##vert
anywhere
impossible
distribut
effective
robots
reflect
neurons
Har
Rob
et
port
##ained
familiar
cry
lad
ine
##iced
enjoy
famous
colleag
critical
Tr
rand
rise
##iation
thr
##iven
genetic
types
straight
##ees
##emp
##iti
star
doctors
plastic
actual
somewhere
series
earth
larger
respect
funny
swim
continu
##cules
sou
##aries
##lex
usually
upon
cold
talks
board
##rene
glass
demon
pieces
patterns
recognize
Ag
##ana
becoming
Char
greater
teaching
University
treatment
raise
philos
Iran
hur
kil
mir
##rael
manage
roll
seconds
launch
perspective
fra
site
Those
##unk
rights
##ellow
written
strange
Israel
##ustrial
security
increasing
citizens
Pl
tiss
##ffe
##imb
shark
somehow
unique
organization
magn
female
Like
##ises
heav
##aging
willing
standing
##mend
molecules
##osphere
spirit
random
Mus
sus
##pan
##amic
##ulf
legs
198
smaller
beauty
financial
complicated
demonstr
Bra
##iqu
store
ang
associ
##uments
corru
shared
painting
version
gas
mal
sam
throw
##ounds
respond
contribut
##ortunately
innov
optim
Somet
hous
ran
##na
pros
uses
ide
healthy
cat
##vision
trick
express
fold
genes
decades
older
organizations
costs
increase
babies
Ab
##iring
prep
humanity
connection
levels
achieve
bacteria
website
Ger
eth
##fact
##itation
forth
##uss
syn
beings
essentially
dangerous
Afghanistan
bread
##rog
##gor
##epend
performance
please
##reprene
##back
##oint
##lebr
##acity
speech
final
practice
pen
##egr
##atically
##iling
##eless
desp
throughout
surgery
remind
Two
immediately
21
Dr
fit
hole
##aly
comfort
##thern
creativity
environmental
electricity
mobile
remarkable
cust
card
hun
##aign
##ball
controll
belief
police
biology
speaking
condition
fantastic
dad
jump
##cies
evolved
unl
hero
production
standard
architecture
Face
match
mention
nation
park
##uit
org
resist
party
address
following
diagn
private
television
His
##aul
##sh
##itude
##ulner
chair
##mpt
phen
entreprene
Another
From
clearly
massive
encou
honest
urban
interview
earlier
Par
Se
nut
pan
##orrow
##oty
price
spect
veh
##ologists
offic
understood
walked
challenges
waiting
services
international
Ira
sal
##oo
##eren
##sequ
useful
apply
autom
celebr
90
ban
mix
race
vict
##ener
##itor
web
sequ
coffe
scan
helped
##ception
career
oppos
trade
military
emotional
task
##por
##owd
shock
sky
popular
summer
intelligence
City
##osc
whose
##iding
stars
##imately
##though
##istry
spaces
##resh
surround
email
himself
histor
cultural
direction
sexual
##attle
purpose
slightly
coffee
##ids
therefore
trib
##ement
##iber
simpl
choices
classroom
experiments
focused
medicine
neighborhood
phenomen
Iraq
Dan
Ex
Per
eating
fash
lines
##rof
driving
central
German
daughter
male
weren
##aff
##uct
##cl
##rees
##arian
exh
##pped
##ibr
decide
creates
values
motiv
multip
destro
Me
Sc
hus
ver
vulner
wealth
states
forget
dog
worry
##anda
##udd
invent
physics
radio
Many
Facebook
Austr
Ed
af
dance
range
wood
yeah
##50
insect
select
##rench
197
coun
photo
complexity
meeting
nuclear
hall
oh
##tain
##ID
##igr
##ipt
highly
##ission
lights
physic
networks
inspired
24
Lond
fat
##isms
sharing
##cience
decade
drink
invented
instance
##board
base
mut
##yle
##son
##for
##ceed
answers
##eases
spending
campaign
temperature
fashion
London
ahead
catch
gather
tree
##oses
town
##aling
inj
shot
enorm
differences
##order
transport
profound
##exic
survive
sustainable
Cong
la
##nel
##ancy
log
displ
boys
slide
capacity
laws
streets
occur
target
birds
trouble
Mc
Middle
dying
##aim
##ried
##uate
##olve
shop
worst
teen
scr
greatest
explore
custom
Bill
Mexic
cand
gent
sad
##af
##ystem
##word
##atives
##ened
##oper
brings
instr
artists
dollar
shares
various
pleas
analy
Con
fing
##raid
##antic
frame
active
diseases
prevent
breast
identity
causes
wheel
etc
husb
Mich
paid
wis
##ef
##orge
##ste
symb
terrible
afraid
Cent
Ne
Think
stren
liber
noticed
bub
communicate
published
##gorith
300
70
Mr
Was
laugh
##gth
weap
##iles
consequ
knowing
commer
dram
Indian
scientist
flying
vari
directly
doub
floor
rule
Have
Take
loss
vast
##ett
##thetic
##iforn
algorith
blog
traffic
independ
related
Instead
Californ
mathemat
strength
Aud
Sm
gala
zero
##rast
##ze
##orry
##used
twice
industrial
missing
experiences
Su
##ered
##alia
integr
tax
relative
##cule
journal
leadership
brand
##ox
##edd
##edia
atm
compon
##itted
mostly
possibly
supply
stopped
##engu
applic
institutions
closer
corruption
California
En
aid
iP
##zil
below
basis
produced
members
foreign
devices
emotion
join
##load
gentle
rough
tens
##itter
##otic
##imin
conference
autism
##idden
photos
broad
colleagues
Brazil
Will
lack
pig
##wise
beat
hack
forces
##izes
moments
electron
opportunities
molecule
fuel
reduce
philosoph
tissue
##IDS
##rastruct
dyn
##ky
##SA
##anced
##key
note
novel
played
capture
airpl
switch
avoid
communication
Cam
Jo
Would
hang
##iam
##icking
hearing
crowd
feels
helping
bringing
Chris
Second
correct
Ha
Ob
Russ
gun
pengu
wide
##ya
##ios
##ufact
##arm
##ute
fort
##odes
agree
##athy
passed
infrastruct
programs
mission
original
volun
3D
Did
joy
##ervation
##cell
seed
##aced
poet
##ording
##ricult
##othes
attract
accur
nearly
consciousness
oxygen
opposite
##stein
AIDS
faces
##rom
##ratic
##rest
stem
forg
held
manufact
##elling
amb
studying
addition
structures
degrees
religion
significant
National
bought
den
##osh
reve
shift
muse
insight
visit
Canad
emotions
relationships
majority
puzz
Again
Musl
husband
mouth
##vant
therap
##ening
reb
recon
##ches
ord
importantly
Great
rare
##tle
##cks
##ander
anyway
demand
password
forever
failure
horr
necessary
lucky
commercial
Fin
batter
cru
hom
tor
adapt
surve
corner
valu
fully
advant
tremend
hyp
benefits
Actually
Paul
cogn
vote
##oting
##artment
although
differently
Hey
broken
easily
entirely
require
total
benefit
wisdom
French
core
err
mos
##iage
hair
stream
##ears
background
grown
imagination
lesson
accom
restaur
magaz
parad
argument
Audience
museum
Big
Mars
Over
bound
##vest
##fr
##ford
##atr
##osystem
tom
##icles
ancient
heat
events
brill
invis
colors
196
metap
edge
leading
cheap
pressure
British
turning
enormous
atmosphere
400
appe
##aria
##irt
##ils
chick
##ifically
##ifying
##ager
cooper
flight
However
matters
equal
deeply
window
grandm
responsible
statistics
mountain
efficient
symbol
Pal
ble
bud
sick
##oz
workers
##agers
##itely
##ysis
newsp
hyd
describe
ecosystem
rapid
unlike
bone
burn
diversity
mamm
pet
ut
##ax
##com
##house
##edic
##leg
reward
recover
##ured
trip
agricult
crime
remain
suffering
landscape
bul
fab
lunch
mort
##vity
##here
##ulous
##ulations
spot
expand
contact
governments
distance
##pected
European
definition
received
fascinating
infrastructure
San
none
##now
##reet
wear
exer
sport
letter
politic
dreams
Gl
Gra
Her
tun
##fl
##DP
##reci
##ica
bees
ship
users
justice
gotten
researchers
##ography
effects
Once
raised
interaction
fighting
responsibility
negative
breath
Japanese
Sometimes
bag
gay
mid
##gar
##mark
##val
##wide
##encies
repe
##olf
sector
prior
atte
altern
##rupt
shouldn
regular
illness
embra
legal
shoes
strategy
document
destroy
Des
Gu
GDP
pair
tast
tough
##itable
##verse
##thes
proud
shel
seemed
compared
clock
##orders
remote
creatures
Everybody
illustr
domin
balance
adults
despite
Min
egg
hate
##ked
##hy
habit
climb
childhood
cycle
epid
protein
host
round
##och
quant
##ellect
intu
veget
managed
##iable
collective
voices
typical
terror
perfectly
dinner
Swed
volunte
El
Good
See
mill
master
tal
tum
##water
##esome
defe
plat
meters
biological
Asia
paint
element
frequ
##ipped
versus
faith
married
farmers
Je
More
Res
ax
giant
truck
thinks
intellect
click
brother
Thanks
transm
stuck
equip
circu
drawing
convin
replace
bomb
tremendous
cognitive
wire
yellow
##arter
gold
aspect
concent
##apers
saf
calls
previous
creation
possibility
subst
auth
easier
discovery
holding
failed
##ropri
insects
invisible
Ke
cred
names
##aj
##my
##onom
##ctions
##uries
quote
shif
genome
experts
install
artific
##ification
corpor
figured
Art
diet
limited
essential
double
dimensional
School
advantage
brilliant
billions
hidden
odd
rout
tour
weird
stim
notion
desire
helps
leads
##print
languages
watched
investment
antib
fairly
equipment
Green
Sim
cate
due
fol
fresh
##rict
##iot
##ancing
shut
##emy
everyday
unex
partners
precise
studied
##aker
##gypt
Does
micro
motor
feedback
necessarily
concentr
homes
rat
river
##IT
##hab
##urch
##ulpt
hell
##atell
tail
interp
prefer
bridge
sculpt
facts
expert
opin
designer
appreci
planning
keeping
succeed
##ipping
harm
daily
influence
Mexico
Egypt
mouse
mothers
##ius
##cular
##ato
##nding
incent
##cket
moves
planets
leader
businesses
neuros
leaving
circum
houses
##rogen
platform
Sun
Very
gard
iron
tick
##cles
wearing
##throp
asse
##ortex
disc
commit
20th
opening
opened
accident
capable
investig
surprise
depression
argue
degree
struggle
Ben
Could
Rich
gain
sister
satell
##uing
##ason
##entally
meat
##apse
compare
expression
university
surge
invited
highest
finished
150
followed
radical
electrical
vaccine
damage
increasingly
nutr
Australia
metaphor
Ein
Fl
losing
##mber
##imp
liked
doz
##phone
##connect
begins
trained
resource
survival
obsess
Twitter
Phil
universal
gar
##pid
##icity
##anted
sugar
moon
prototy
markets
constantly
surprised
origin
experienced
separate
comfortable
Washing
mosqu
magazine
Einstein
Yet
rural
sorry
ton
##ij
##uild
##inc
##ads
##acters
noise
##ibilities
characters
competition
associated
counter
Bang
Pro
ath
band
battle
gap
grain
gift
king
tit
##idents
##pper
worldwide
believed
##ocol
##issions
killing
suggests
professional
described
ultimately
dimensions
George
concerned
phenomenon
weapons
airplane
Washington
App
Each
Tom
dry
purs
##rum
##win
##anes
##ald
##enty
##celer
##ami
perception
advert
letters
driven
charge
elements
shapes
Kenya
kilomet
organs
Bar
dial
diction
##ray
##mm
##ued
##hold
##uls
maint
perce
agre
adop
##forest
belong
harder
courage
England
digit
normally
##cup
identify
grade
astron
soldiers
filled
virtual
holes
##ael
##ros
##lin
##osis
fellow
aging
puts
grid
factory
gene
##ublic
transp
finish
economics
heads
engineers
cutting
pollut
marriage
Charles
multiple
Canada
artificial
date
##lation
theater
##osm
##reg
ing
##iration
##olves
peak
##cked
user
##ushing
impl
implic
arms
partner
acceler
indic
transformation
generations
skill
construction
operating
analysis
facing
slowly
leaves
exhib
valuable
safety
Dar
Fe
Rep
Tur
dots
rom
sight
##atures
##rete
##owing
##urb
##ulated
##erson
##unt
hasn
fell
coast
acad
desert
according
election
##entional
setting
curious
empower
awesome
paying
Franc
review
caused
religious
lifet
details
cartoon
distribution
unexpected
MIT
Niger
Talk
nan
##off
##inist
tow
inform
whom
weather
station
mak
##berg
root
grab
organic
empty
considered
entertain
currently
passionate
mirr
##iques
ordinary
Lad
Women
pil
##gment
##wood
toile
##itals
exch
sympt
scene
extract
explor
attach
wondering
##ographic
testing
chemistry
sentence
strateg
Adam
employees
clinical
property
official
Francis
45
Ac
Ah
cow
era
ir
lat
##pher
##owers
reform
Thom
While
##ildren
closed
unp
contain
smile
appropri
recy
musical
equival
collection
lawy
steps
caught
##onym
seriously
unfortunately
bubble
consequences
Bas
Mo
Mark
Times
Wik
mer
pal
##aves
##rodu
##ls
##ns
##ux
##nded
##itness
##asion
shad
Web
##izz
otherwise
interface
bright
##neath
asks
feelings
Street
article
stupid
2008
cultures
awful
engineer
refuge
civilization
walls
hurt
entrepreneurs
pleasure
mosquit
Ber
CO
GP
Rem
cosm
pages
pounds
##uh
##olph
##ula
frustr
Their
##ume
##iff
##cipl
hadn
unless
##acing
phones
humor
plane
videos
treated
Everything
##itute
limit
photographs
malaria
penguins
Jan
Jul
fed
tall
ves
vibr
##eral
reci
liqu
soil
chain
alt
whenever
colon
##aked
fourth
organized
specifically
signal
construct
grandf
consumption
horse
negot
sweet
sharks
vehicle
Michael
tomorrow
convinced
Come
King
Pak
Te
fal
il
migr
san
##bur
##oom
##RI
inner
bear
Three
##irm
mel
chart
compl
##ension
prev
pregn
driver
fewer
solid
president
reduc
empathy
expected
democratic
molecular
sending
summ
released
professor
concl
covered
narrative
controlled
grandmother
categ
ingred
Pakistan
Ple
Pol
fle
nerv
pure
##lands
##iors
##van
##vard
##ham
rein
##urally
##ests
myst
myth
teles
spoke
##ensity
underneath
warm
profit
conduct
Frank
deeper
practical
affected
pollen
arrived
reaction
printing
21st
encourage
display
politicians
equivalent
telesc
Hum
eld
nur
ride
tap
##uary
##oved
##cil
refer
quiet
##urance
stood
abst
saved
scen
techniques
importance
thoughts
producing
solving
hopefully
location
circle
sources
##ength
gender
honor
intelligent
infected
launched
algorithms
GPS
vessel
Mart
cere
ju
rational
soph
##rase
##cra
##ara
##icy
weak
qual
dogs
##ateful
##pping
manip
uns
##roc
contract
brief
grass
players
singing
warming
define
psychology
promise
birthday
awareness
blocks
debate
heavy
independent
relatively
gentlemen
battery
circumst
lifetime
Thomas
liquid
35
Ant
Dem
fiction
##ta
tox
##itarian
staff
forced
lift
libr
worried
##illing
spl
calling
acqu
invention
emissions
mush
processes
organisms
Ange
picked
hospitals
severe
emerg
microsc
Harvard
Robert
budget
Please
nervous
lapt
nations
nurs
rhy
##ey
##care
##lement
stock
anx
god
prove
uncle
buying
dish
goods
##place
##angers
transition
arts
foundation
metal
connections
confidence
motion
requires
analog
status
emerging
victims
false
Bro
Kore
Life
NA
PM
bath
lect
oc
sides
vot
##pes
##mas
##set
##oor
##zing
##encing
toward
##tered
shame
notes
##umber
YouT
evil
poem
technical
designers
effectively
marketing
improv
stronger
principle
lady
management
spectrum
vulnerable
dynamic
epidemic
intellectual
folks
Co
Qu
lic
south
van
##inations
island
##etics
##irty
lie
##terday
plus
##ogram
##aren
##acle
roof
flat
minim
##azz
serve
engaged
topic
signals
defined
risks
release
relevant
tracking
selling
satis
microb
mistakes
ideal
Germany
newspaper
mortality
exercise
CO2
grandfather
YouTube
Day
bill
dolph
nose
rig
und
##atin
##osition
extend
height
claim
unus
disp
##athers
scar
bits
lessons
memories
encoun
copy
trials
north
Congress
Center
restaurant
illeg
99
Last
Since
horm
jail
mur
rates
##ov
##inate
init
##itz
isol
lies
exists
##abol
coal
patent
possibilities
advent
bottle
existing
silence
estab
definitely
Islam
doubt
iPh
roughly
forgot
sophistic
James
Val
##hi
##zed
##lly
reven
former
sem
seat
##eline
actions
##ressive
personally
transpl
medium
carefully
repair
subm
added
eleph
protection
falling
profession
layer
introduced
2010
principles
candid
dramatic
Haiti
poetry
error
chicken
alternative
credit
kilometers
22
CE
II
Kh
Mon
Park
Sam
bow
cave
cortex
length
nav
pip
ske
ten
vent
##oons
##alt
##aled
inher
##cel
sees
##add
##ulating
##estic
channel
##acles
reprodu
explains
amounts
meaningful
depends
lifest
fortun
Richard
occup
23
75
Bank
Em
Gree
Pres
border
wars
##kn
##gets
##ught
##ugg
##cut
##cap
##err
##erves
##rets
##orary
##icip
item
cha
ens
plans
agg
scared
factor
flower
studio
designing
interests
generate
particles
sites
dealing
anti
subjects
proteins
disappear
inev
mentioned
framework
components
Sweden
interpret
circumstances
mushroom
ends
ho
ren
wine
##ait
##ih
##grad
##cest
##cast
##ha
##sters
shr
shall
fright
chose
##oking
##iel
boat
grateful
gravity
player
bike
environments
##lessly
advice
typically
fields
multi
shoot
internal
participate
introduce
carrying
ignor
inequ
innovative
sequence
variety
mathematics
accurate
hydrogen
rapidly
opinion
maintain
##craft
600
Four
Jew
Wow
rit
ray
tag
##ront
##roph
##nam
##volution
goals
worlds
unit
##rove
disaster
discipl
percentage
polio
195
economies
##whel
label
constant
senses
sensitive
graduate
privile
aston
estim
fundamentally
Britain
announ
earthqu
sample
unusual
Bab
Los
dot
pun
ring
row
tons
witness
##right
##bed
##bles
##iency
##ga
##lying
reverse
ancest
intense
sacr
##rovers
overwhel
##ternal
consist
explan
regard
runs
animation
clever
autonom
confront
wondered
member
funding
##retch
messages
operate
movies
applied
##heim
primary
ridic
mountains
authority
forests
swimming
instrument
galaxy
Muslim
sports
exchange
abstract
Dere
Mor
Mal
barr
dense
hide
lung
rot
##aters
##ita
atoms
hem
spin
##ela
suit
##abled
##ago
contemp
string
economists
regions
films
teams
option
joined
combine
critic
concrete
replic
hoping
encoura
philosophy
manufacturing
passwords
accompl
tumor
assemb
Darwin
navig
##known
Alex
Cop
Us
fake
mere
##lom
##iate
##gin
##hol
##wor
thick
##ann
##iture
##lyn
##etr
section
pray
##ession
##ums
teeth
however
compar
##eak
factors
centuries
contrast
increased
collapse
sunlight
winter
traveling
oceans
destruction
obser
steel
Comm
collaboration
chemicals
discussion
soul
Paris
##force
rhyth
ritual
Gh
Girl
Sah
fif
hung
voc
wake
##qually
##oned
##edy
chim
chocol
acting
prem
194
computing
movements
2000
solved
productive
Only
behavioral
operation
violent
combination
yesterday
harvest
conversations
facial
Amaz
dinos
vaccines
Islamic
cooking
portra
prepared
resistance
transportation
Smith
Fre
Jack
ack
dip
flex
las
##bel
##bors
##onds
##igm
##opher
##iled
loop
##abet
resil
adj
bold
flash
owners
processing
2007
##ographer
challenging
assign
milk
behaviors
include
##itchen
cyber
consumer
clouds
applications
Obama
Russia
NASA
iPhone
President
Gab
Gulf
Other
Sat
ought
pin
tank
wave
##la
##gent
##cal
##Talk
input
##eding
##asters
##icing
bee
comment
frank
##aus
proced
##abilities
writer
offers
storyt
instinct
19th
centers
generally
busy
TEDTalk
##arrass
constrain
elev
gradu
footprint
represents
convince
horiz
snow
mechanism
bombs
shaped
entrepreneur
Perhaps
agriculture
eggs
mirror
sophisticated
lifestyle
Dis
Eas
Found
Nobody
bare
cure
cents
gam
hip
loud
##bre
ther
stands
##iminal
##imeter
##amin
##olving
anonym
##illed
orch
maps
##ortion
##aret
##obal
desk
Stan
metabol
Also
parking
radiation
literature
fears
department
stayed
inspiration
situations
sustainability
cameras
transformed
Institute
mistake
Steve
samples
verb
therapy
hypothes
fabric
axis
circuit
Francisco
Wikip
Martin
Democ
illegal
earthquake
Count
Dep
Es
Give
Latin
Pole
US
bes
borders
dancing
hits
mad
mile
pian
pitch
##ye
##oice
##nda
reject
##chair
wash
##oli
frog
##orest
tea
##iend
somewh
thanks
arrest
shell
##elly
flag
decl
technique
obst
##erties
plays
apparent
formed
walks
signs
devast
collecting
refr
potentially
identical
options
embarrass
boxes
pulled
neighbors
immune
burning
laboratory
determine
ladies
spiritual
hunger
Palest
satellite
appropriate
Wikipedia
somewhat
Muse
Part
dict
dedic
equally
sen
sets
wise
##ua
##xide
thin
##esity
whist
stere
##ams
##ogue
suic
unknown
controvers
phase
instruct
globe
physically
allowing
memor
properties
tests
advanced
collected
Everyone
closely
interactive
existence
joke
ultimate
flowers
broke
vehicles
puzzle
horrible
survey
embrace
authent
garden
tonight
astronom
romantic
January
establish
Derek
Museum
Jer
Nob
furn
mim
males
tape
##iat
##PA
##xies
##esh
##asks
##icon
beach
wel
##ctic
season
exec
conver
knock
outc
trig
acts
implement
overall
diss
pocket
desper
##ubes
##ocin
keeps
distinct
painful
paral
illusion
arguments
spreading
mainly
activities
admit
viruses
Christmas
wheelchair
Design
implications
Nigeria
symptoms
transplant
chocolate
acknow
Gr
Gener
Jon
Pat
Red
Sing
Sept
Science
bicy
foss
fert
kitchen
lying
ment
pushing
upper
##tocin
##nology
##ule
##arant
##lete
style
##cend
perman
pool
underwater
adoles
Health
command
brib
obesity
State
Step
handle
healthcare
2009
waves
continent
advance
explained
measuring
Before
roads
conflicts
attacks
divide
uncom
entertainment
pregnant
conclusion
Nobel
September
Mont
Tal
gest
golf
pill
rush
##lines
##time
##point
##hatt
##den
##20
##oral
beet
##etically
##stream
##anta
##usive
spoken
feature
clust
brothers
transfer
designs
polar
regener
classes
largely
providing
records
reaching
reached
Manhatt
Revolution
required
dropped
About
heroes
surrounded
galaxies
intuitive
##iotics
incentives
obsessed
prototype
advertising
pollution
astonishing
##heimer
Manhattan
La
Ser
Sil
boring
cup
ears
##vable
inject
##isters
##icious
##stand
storm
##keep
liver
##tery
attend
##resp
sheep
phrase
traum
insurance
Star
Stud
finance
generated
regret
presence
younger
tested
collaps
greenhouse
limits
recorded
conventional
causing
faced
mechanical
##olly
Carol
assume
uncertain
Anyway
judge
angry
mathematical
toilet
Basically
mystery
frankly
36
Cr
Get
Les
Ros
Tor
cous
cord
dress
fan
kick
papers
rub
rating
##aci
##eal
##ien
##uous
##oft
##zheimer
##orter
##iters
asp
depl
##umps
button
outcome
theme
##agram
agencies
blank
download
lets
remove
afterno
olds
strangers
careful
naturally
bias
visible
educational
signed
Alzheimer
retire
Atl
deaths
protected
songs
religions
volume
struck
breathe
##going
apartment
methods
efficiency
continued
housing
diagnosed
tribe
fingers
antibiotics
Project
athlet
academic
latest
elder
nurses
Bu
Five
Mand
cast
er
irr
ped
raw
tent
tack
##cers
##xim
whales
likes
shake
neut
chip
knee
##rous
plate
eval
wherever
clothes
overl
pharm
##icted
gray
hearts
surf
193
##pring
classic
trend
interactions
sensors
performing
offered
oxytocin
engagement
fascinated
frag
angle
customers
##iosity
rebuild
taste
recyc
murder
rhythm
Eastern
outcomes
Bur
Eric
Haw
MRI
Rw
cards
##rat
##ingu
##ota
##ione
##opes
prost
##illy
##okes
mail
##usions
spring
whereas
interconnect
criminal
drives
conserv
datab
elimin
functions
##while
coral
breaking
figures
cheaper
absor
windows
embedd
traveled
concepts
evolutionary
contribute
prosper
historical
vulnerability
selection
teenagers
component
Finally
dozen
dictionary
Republic
shadow
CEO
Amazon
diplom
refriger
furniture
27
Hig
Mom
Next
Peter
ben
gut
pour
##ka
##bling
##iety
##mates
##has
##fish
##oster
##orus
initi
reference
##opath
froz
chrom
church
proof
##inder
##mph
##oston
##emen
worker
leap
club
happier
poorest
##onscious
technological
guarant
relate
explos
behave
2005
infin
##cript
equation
funded
raising
existed
hotel
translate
distributed
##iveness
scratch
application
Joe
attempt
volunteers
precisely
commitment
ingredients
Antar
library
Angeles
##arency
ignorance
Foundation
deploy
afternoon
Higgs
frozen
Boston
Gates
Hans
Love
Mic
Pac
Six
Wall
cod
tube
wings
yield
##ias
##over
##ino
##rel
##enger
toler
##ano
##itors
##icago
stretch
aband
load
trillion
plenty
nowhere
Inter
disorder
##ologically
pretend
evening
bran
Chicago
flood
crash
colum
imaging
recom
Unf
populations
district
disturb
curve
airport
statement
assist
France
##aneously
depth
practices
robotic
feeding
250
combined
touched
achieved
receive
army
fixed
Arabic
tribes
occurred
dramatically
journalist
William
captured
seeds
appreciate
split
license
inequality
fifth
hungry
embedded
chromos
26
95
Ma
aim
gall
pump
ug
vert
##bits
##pet
##ooth
##cred
##wich
##inction
##ingly
whale
quarter
##ida
##iday
stack
ate
##ille
enemy
wanting
needle
cock
##bert
herself
##athan
smoke
##anging
remains
extent
extinct
attribut
Union
subs
elections
rooms
surely
paras
director
successfully
increases
speaker
Prize
accessible
photography
Really
##yright
Trans
optimistic
destroyed
Apple
Human
execut
fossil
Unfortunately
Del
Hi
High
Jim
List
Law
MT
Op
Tony
Viet
erad
sau
tight
##yard
##GO
##aran
##oman
##lymp
##stage
stations
##opard
##think
abund
chap
ages
imper
flies
invite
removed
oldest
conservation
imagined
engaging
standards
charity
advoc
household
meetings
expectations
anticip
villages
occasion
appears
aspects
surgeon
makers
laptop
Vietnam
eradic
Gand
Olymp
Pre
Port
der
gon
icon
march
zoom
##aurs
##mon
##uel
##cence
##case
##eness
##vey
weigh
anger
champ
peer
##uses
spinal
tries
perm
evolve
bull
poly
phosph
score
decline
instant
stri
##airs
##otech
##hips
proto
craft
provided
nonp
##box
descript
consume
inspiring
silent
delivered
divided
reported
banks
savings
Charl
celebrate
instruments
finger
unlikely
attemp
exploration
mosquito
piano
bicycle
Bible
Budd
Cons
Hen
Hell
Ice
Mad
NGO
hat
kiss
pace
ub
zone
##ras
##bing
##iance
##cue
##osen
##itan
rely
ants
chosen
##ogen
clip
##roke
scary
genius
court
lovely
biom
suppl
accum
presented
morality
agenda
defense
classical
rising
crack
speakers
missed
##appy
winning
describes
conclud
functional
breathing
printed
debt
efforts
crying
demonstrate
paintings
injury
Congo
reveal
Muslims
appeared
Research
telescope
anxiety
laser
Gabby
suicide
Air
Jes
Long
Sar
Turn
Tech
bones
rail
wra
##gers
##met
##vin
##vas
##ata
##oran
##alian
beer
##struct
##urd
##olar
chest
myster
orbit
sphere
seek
enh
placed
intent
comprom
bug
sheet
blow
flour
finds
instantly
exploring
connecting
musicians
Peace
sensory
Nothing
represented
measured
intrig
origami
privacy
concert
females
amongst
fluid
institution
cartoons
participants
sandwich
rainforest
ignore
clinic
properly
linked
thrown
suspe
beliefs
algorithm
utter
recovery
talent
shifting
neuroscience
agreed
##inistr
scenar
satisf
Valley
hemis
orchest
Rwanda
nonprof
65
800
Cur
Int
Mother
Mah
Ox
Ty
Tes
Time
cens
cake
dung
density
lens
sed
##east
##nic
##night
##isher
##lets
youth
##iment
neither
##ulse
external
outs
##aint
units
reson
rescue
coach
coord
fool
##ptions
##cohol
granted
decre
drill
drone
drones
powered
imagery
grows
curiosity
##arents
robust
Brown
failing
##apping
extrem
presentation
essence
consumers
combat
pupp
surprisingly
depending
northern
halluc
##iminals
paradigm
boundaries
cooperation
corporate
sculpture
title
pilot
Remember
microscope
unclear
explanation
CA
Det
Gal
Med
Ten
cats
pound
pione
sle
till
tied
vital
##agh
##wl
##well
##inated
apple
##icher
##utch
Through
quad
stun
stroke
##amb
anthrop
prime
##ulum
##ckets
spell
spark
##ache
##iac
underground
committed
##angible
letting
involves
Should
slides
minor
minister
organize
##inson
capita
restore
expectancy
friendly
football
recognition
policies
copyright
balloon
floating
rocket
miser
sticks
returned
affordable
struggling
Something
synthes
resistant
neighborhoods
motivation
logic
hackers
##flies
adopt
flew
vessels
toxic
elephant
chaos
dinosaurs
33
Bon
Bel
Ham
Move
Nature
Rio
Voice
bon
boss
dign
fulf
firm
gre
py
pra
richer
sales
tatt
tasks
##eon
##yan
##wart
##atar
toy
##isons
##itory
##otion
bears
##uration
stable
stages
shar
delic
orient
lob
locked
usual
alcohol
##using
actor
##izoph
##ague
##agger
features
contains
prec
flip
crops
ending
personality
carried
produces
##aze
meter
foods
corresp
2004
Indeed
distant
researcher
trends
protecting
depressed
falls
recognized
improvement
characteristics
separated
##yrus
cryst
controlling
automatically
baseball
crucial
##friend
ridiculous
Saharan
##belie
adjust
apparently
permanent
uncomfort
ugly
70s
80s
Bi
Bo
Boy
June
Sl
Squ
dough
dio
diverse
fishing
fathers
honey
hook
nets
tears
wip
##rome
##li
##lings
##liam
##nels
##gic
##mers
##mble
##maker
##hib
##era
##ora
##organ
##omp
##adays
orange
##ifice
##iform
spr
trash
plain
yours
unh
unbelie
overcome
disrupt
guide
colony
afterwards
schizoph
explo
muscles
2006
2003
Island
TEDx
paraly
continues
##bridge
diam
holds
explaining
interacting
improved
Beij
impacts
directions
architects
sleeping
entered
textbook
searching
shopping
electronic
agricultural
Grand
dominant
transparency
attached
strategies
dolphins
##capes
ensure
##abetes
barely
Department
paralle
Pacific
uncomfortable
dioxide
Cont
Gold
Id
Mil
Tas
Yemen
east
fet
##eared
##bru
##va
##anz
##iders
stone
abuse
aside
meal
output
enable
intention
##astics
agency
##phere
creature
Howard
mining
served
lighting
visited
suppose
subtle
escape
musician
curric
protest
painted
controls
filter
cheese
equality
International
secure
provides
##archy
delight
identified
grandp
Yorker
psychological
hyper
##rade
predictions
estimate
administr
narrow
dependent
disappoint
calculate
Play
prepare
mixed
homeless
repeat
wireless
lawyers
emergency
renew
Stanford
stereoty
gonna
protocell
Henry
28
Bal
Cle
Hel
House
Moon
Never
Sund
Syr
aes
cig
fusion
gee
jazz
laid
mice
tired
veter
wing
wand
##kin
##ding
##fast
##atom
ink
rehab
Third
atom
neural
##allow
enth
plot
brown
Children
drivers
shoulder
helic
opens
##gging
globally
confident
stops
killer
productivity
treating
views
sensor
legis
purch
burst
assumptions
virtually
colleague
demonstration
tricks
chairs
drinking
electronics
dynam
repeated
Korea
lecture
encounter
##ihad
trigger
uncertainty
elderly
##liament
32
700
Bush
Den
Fellow
Lar
Number
Sir
Tex
Ven
dive
hitting
pizz
rays
tong
##ek
##life
##bage
##uits
##viol
thumb
##enly
##orous
inch
##itous
##arters
##ette
##ctica
##sey
stores
excell
chief
loves
##ifer
tri
##ares
##abin
closing
dism
##iban
boom
offs
persu
traged
##aks
##akers
monitor
farmer
accidents
corn
educated
##crib
assets
Arctic
drag
diagram
diabetes
Brian
staying
recording
strongly
suggesting
darkness
Space
lifes
detailed
activist
translation
ceiling
collaborative
disappeared
soup
susp
prosthetic
victim
shocking
Scott
Cambridge
rarely
torture
##front
Minister
quantum
vegetables
defend
trucks
nutrition
reduced
inevitable
sacrifice
Ghana
resilience
therm
instructions
General
Antarctica
recommend
phosphorus
schizophren
Tasman
helicop
Ap
Aug
Bob
Cor
Dad
Ford
Men
None
Ug
Unt
borrow
drove
hol
lions
picking
sits
session
##kward
##tes
##gal
##uity
##under
##jo
##osal
##osure
##reh
##oning
##onia
##anthrop
##itud
##omo
render
que
doors
##raction
prices
neat
##umin
butt
outer
intend
compelling
exposed
##obi
##obs
clar
twe
parties
bless
roots
scores
##phones
schem
obl
monkey
entrop
passenger
begun
governance
redef
magical
awkward
drawn
120
sentences
affects
Span
immun
pushed
influenced
reduction
Christian
2011
links
Israeli
##panz
scanner
physicist
gathering
Central
liberal
laughing
insights
Febru
category
initial
professionals
anonymous
dedicated
senior
fertil
Micros
parallel
February
Aut
Back
Eve
Gen
Hy
Jose
Lee
Mod
Mac
Power
SW
Tell
dust
dirty
hill
hier
lin
powers
wound
wired
##afe
##ault
##kins
##bl
##erd
##rect
##reme
##arre
reef
##eters
stab
##children
##aming
anes
##through
prize
Sov
##ogether
leather
diff
underlying
persist
##rency
relax
highlight
serving
recru
muscle
healthier
openness
skull
organism
##gged
probability
distract
elsewhere
assess
improving
psychopath
supported
legit
photographed
footage
request
spreads
suggested
Within
facility
steal
telephone
bedroom
ultra
soldier
crossing
##fficient
judgment
determined
philosopher
1970s
##atrix
frequency
odds
dialogue
forgotten
revenue
privilege
ownership
welcome
sauce
ubiqu
Oxford
dignity
pyram
curriculum
Sunday
entropy
Microsoft
Koran
LED
Os
Oct
Up
Walk
dump
jihad
lux
pink
rats
silly
wider
##ket
##oot
##oug
##onge
recept
ham
ongoing
##illa
##aud
conven
convert
White
Whether
##ournal
clients
chances
backwards
##acular
##icks
brut
grat
scream
drum
Stage
glaci
founded
hardly
sket
passing
Isn
adding
labs
poster
Arist
focusing
eaten
nonviol
limb
supermark
keyboard
breakthrough
specialized
##ventions
fastest
pulling
arrive
marath
layers
delivery
wheat
translated
citizen
graphic
packed
accepted
Blue
optimism
expressions
ethical
simplicity
Obvious
Russian
additional
paradox
perceive
lawyer
colonies
microbes
ancestors
hypothesis
Taliban
suspended
grandparents
pizza
Bol
Josh
Make
Nic
Nord
Out
Po
Vir
Watch
bat
cath
dies
duck
fires
hire
lun
mall
tubes
wid
wedd
##aving
##list
##uk
##car
##hen
##war
##xting
##xual
##eroid
toys
##isy
##ari
##cember
comedy
maxim
texting
##unction
spots
upload
enables
##emics
##astroph
disag
disorders
precious
smarter
smooth
genetically
traits
owned
remained
helpful
glad
earn
settle
choosing
answered
globalization
located
programming
Army
innocent
neuron
includes
observ
industries
statist
shooting
promote
silver
December
fuels
targets
philanthrop
representation
documents
concern
catastroph
Abra
synthetic
reminded
Super
integrated
attractive
restaurants
circuits
originally
kingdom
transparent
implant
irre
refugees
categories
nurse
adventure
items
chimpanz
retirement
prosperity
Listen
miserable
Beijing
cigaret
##itudes
Spanish
Aristot
FG
Holly
Mag
Prof
ain
biz
bars
cash
dressed
fought
gear
nit
nom
pause
pand
sink
##ixt
##gu
##mony
##uation
##ses
##oly
##het
##field
##DA
##orida
##itate
##asm
##utical
##olic
##thal
shirt
fruit
chips
##umes
##ureau
lock
plastics
suck
##agen
exped
resolution
##eps
poison
mood
smiling
offices
involve
##iously
insist
consult
monit
extension
edges
attitude
engines
publ
2001
warning
woke
confused
photographer
weeke
opposed
proposed
proportion
remembered
Organ
experimental
viewer
objective
##mingly
difficulty
grandchildren
eleg
operations
joint
breakfast
Without
facilities
Phot
harness
emerge
peaceful
burden
Amy
primarily
suffered
infection
domestic
immediate
universities
Colle
Iranian
tissues
suspect
diagnosis
physician
analyze
hanging
fortune
habitat
Jeff
substance
routine
Florida
unpre
refugee
frustrated
federal
negoti
reducing
merely
procedure
Palestin
Jesus
nonprofit
sharp
Square
Uganda
Obviously
bizarre
Bre
Coll
ED
Econom
Fif
Mount
Miss
Rock
Som
Sur
Tim
Wait
cas
cert
gig
lamp
mate
native
nodes
naked
sin
sisters
tip
voting
##iences
##down
##fall
##ena
##eda
##itage
##itating
##asp
bell
rethink
##stone
quit
##ola
##olars
shine
whatso
healing
ours
alien
tro
actors
##ardo
##aceutical
manager
managers
agent
cla
unemp
uniform
discr
incor
incident
writers
factories
carr
artwork
pointing
##oca
completed
crew
generous
##aws
##cedented
regime
fung
headlines
preserve
##otted
emphas
retina
engineered
trains
investors
cute
landed
Somebody
##aughters
legacy
drawings
inspire
enterpr
array
funds
mobility
intervention
Islands
Black
southern
magnetic
preparing
spectacular
Daniel
##forward
weapon
penguin
tunnel
dozens
garage
pursuit
Ladies
Acad
Brook
isolated
accomplish
assembly
portrait
##keepers
pharmaceutical
conservative
infinite
conclude
paralyzed
August
Soviet
unprecedented
whatsoever
unemploy
29
Acc
Bet
Da
DV
Far
Jud
Mat
Mill
Medic
Que
Ray
Roy
Scient
Sudd
bother
diver
firing
gang
lone
matrix
nerve
punch
tear
waters
##aver
##rol
##bled
##top
##ups
##ship
##hal
##AR
threw
##ini
##inter
##onic
tooth
inches
inhab
whis
##ownt
wet
recess
onstage
strain
##keys
##thur
meg
meals
##ulin
##usted
dece
deaf
##essor
upset
compos
##abul
expans
donor
##ober
clay
##eping
##roid
armed
disabled
interrupt
amate
blame
commod
##angle
crop
Show
articles
recall
economist
homework
biotech
elected
headed
valid
currency
aircraft
figuring
freely
Friday
secrets
thirds
delay
##itution
calories
##venth
Norway
observe
observation
responses
##ascular
degrad
favel
leaf
printer
accounts
Comp
mindset
annoy
capitalism
straightforward
panels
Neander
bubbles
widely
mammals
remaining
fabulous
expanding
Global
intuition
previously
route
briefly
hormone
skept
fragile
description
Texas
tongue
ubiquitous
October
85
90s
Cyrus
Eth
Had
Half
Mel
March
Net
Sen
Under
award
dose
fits
fiber
hiding
nerd
od
pile
panc
tune
##walk
##fly
##MA
##inarily
##ndrome
##enh
##asy
beating
##uty
##idential
##igation
stability
##raph
##oded
chron
conce
outd
trop
upd
##agon
nowadays
arrow
##asses
gotta
##icked
blo
blowing
insane
basket
transcend
slums
191
recl
hardware
elite
formula
devil
excit
bottles
deliber
terrifying
arguing
performed
personalized
robotics
smartphone
Leban
emerged
predicted
immigr
mechanisms
threatened
unconscious
ignored
clinics
Stewart
miracle
heaven
ethnic
despair
automob
wealthy
profoundly
broadcast
Secondly
ambig
newspapers
ecosystems
shelter
illustrate
terrorism
stimul
qualities
bathroom
discipline
announced
autonomous
flexible
collapsed
Mandela
database
vertical
Charlie
rehabil
tragedy
College
claims
Suddenly
31
60s
Build
CD
Imp
Lab
Met
Nations
Oce
Pan
Put
Pop
RS
Sure
Sand
Same
Temp
aer
batt
dear
daughters
junk
lit
rice
sque
tone
wrest
##rid
##bul
##oos
##wind
##EC
##OL
##BM
##ati
##atural
##ounder
##ona
##eday
##leton
##uther
habits
##idi
washing
##racies
ash
Social
comments
##gend
##ilty
##ilize
##oret
chop
mycel
alph
spons
seeking
ups
plug
intim
##izers
percept
partly
acid
ads
adap
realizing
##pless
smoking
Church
simult
guard
caring
believes
2050
terrain
careg
demo
register
biologists
Indones
Industrial
profile
speaks
positions
treatments
audio
variation
temporary
supporting
communications
cyl
nearby
Northern
beneath
Lego
geomet
posted
brave
experiencing
dimension
activate
1990s
exception
prisoners
circles
##ylac
glasses
rolling
folding
salt
surrounding
denial
puzzles
errors
authors
neuroscient
Turkey
ceremony
candidate
fortunate
Jewish
punish
navigate
comparison
storytelling
devastating
athletes
interconnected
guarantee
Hello
hemisphere
Until
Abraham
Hollywood
Academy
excitement
Bron
Cath
Coke
Di
Fort
Kir
Lib
Mike
Nan
Ol
Ro
Ram
Rad
bite
bored
gate
gif
hub
jelly
nest
tact
vit
##equ
##yal
##late
##lves
##bod
##uff
##ville
##erved
##osn
infer
##omb
Andrew
stored
##che
##imination
selves
asleep
shipping
##ila
##atever
Italy
butter
tends
Whatever
backyard
##pled
brush
Chile
genetics
##ighter
crimes
crows
guerr
insulin
sciences
artistic
kidney
##licit
demands
capt
caps
warr
presents
sett
News
membr
charming
##ashed
sexy
structural
listened
radically
##ometown
democracies
hybr
gradually
arrange
Whereas
marine
flowing
tendency
threats
damn
hopes
significantly
innovations
reminds
##orgeous
consequence
reveals
burned
bags
shelf
volunteer
transmit
ratio
garbage
perceived
exhibition
rituals
besides
obstacles
tackle
Iceland
scenario
Detro
schizophrenia
linear
Norden
wedding
Aristotle
Av
Bay
Gore
Lou
River
Sorry
Wats
Zeal
bin
bind
dent
dil
gy
gases
les
oy
pir
rope
via
##ao
##gments
##mar
##uch
##vis
##view
##erry
##inity
##oust
##vember
Things
##cher
##amine
dood
deals
##oked
spill
spont
yourselves
intensive
##apor
##apore
safer
##ghai
##asty
lean
##ansas
manual
twist
unable
resolve
covers
disconnect
contag
lottery
brows
genu
tragic
owner
colored
courses
Shan
pointed
monkeys
##cycl
forming
socially
November
educate
marker
nights
traditions
Arthur
failures
opera
##apped
Prot
embod
survived
approaches
architectural
mainstream
##ugal
asteroid
compete
competitive
buried
Develop
reactions
rocks
divor
wheels
Swiss
domain
##puter
purposes
mathematic
continuing
throwing
hunting
##iberia
Cambod
reconstruct
symbols
climbing
corporations
expertise
ticket
satellites
nutrients
agreement
mosquitos
recipe
Teach
improvis
barrier
barriers
Using
constraints
graduated
arrested
authentic
Singapore
adolescent
Stephen
cousin
surfaces
column
NGOs
compromise
wandering
enthus
marathon
Indonesia
Watson
37
Abs
Cour
Dutch
Han
Hill
Jac
Less
Nels
Rome
SM
Sou
Santa
Tel
Vict
Wal
Wolf
drought
downt
file
hal
lanes
oct
rivers
sulf
wond
wrap
##aired
##mn
##hist
##30
thresh
thylac
##osity
##ester
inn
##utan
##idges
static
prol
pride
##aded
triv
compreh
manif
clot
clue
##epher
impr
interf
interventions
##quis
syndrome
Che
traject
##arsh
drown
guid
endanger
##ails
##peare
Shakes
strip
patents
readers
particle
possess
cultiv
restrict
kills
condoms
##aneous
investing
measures
audiences
potato
breaks
included
civic
worthy
affecting
immense
silk
microph
division
blindness
reports
graphics
offering
package
Anyone
calculations
magnific
interviews
officer
applying
historic
Scot
McC
teenager
candy
##etti
independence
1960
pairs
installed
##impse
dictionaries
tower
strategic
recip
##burg
##burgh
gods
analogy
hormones
contemporary
##working
TEDTalks
County
whistle
clusters
Carolina
Rosling
neutral
prostate
abandoned
chapter
unbelievable
Virgin
pandemic
DVD
Ocean
Bronx
Zealand
genuine
Shanghai
Nelson
threshold
endangered
Shakespeare
55
Er
Free
Hear
Math
Nin
Ron
Try
Van
aug
cub
fallen
gained
hors
hometown
racing
sco
tale
##power
##gl
##gie
##uce
##uke
##oir
##oves
##hh
##hop
##wr
##TC
##ania
##oma
##section
##opia
anatom
prisons
##ading
shy
melt
neck
neoc
##illance
soap
mapping
loving
proven
alb
spider
spray
sake
sacred
##izer
happily
rescu
bucks
##enses
sheets
pockets
##irect
##eller
deserve
scaff
mayor
genoc
scholars
obese
glimpse
foundations
strict
mini
192
editor
demos
##eady
subway
capabilities
2002
infant
autistic
connects
topics
physi
stopping
profits
locations
beautifully
##ucks
collectively
Govern
parenting
typing
destiny
mechanics
dawn
bacterial
ecological
reflection
1980s
responding
panel
shocked
simplest
classrooms
teenage
pigs
guns
cooperate
bullet
exerc
elementary
transmission
Turk
maker
officials
palm
juice
##itzer
fortunately
shrimp
estimates
mimic
##iatric
desperately
acknowled
explosion
correspond
excellent
lifespan
pyramid
Professor
mycelium
##cyclop
Victor
scaffold
Bell
Bern
Has
Hong
Jay
July
Ky
Lew
Mary
SS
Sel
Sea
Sub
Wil
bureau
cabin
dop
dys
dumb
fate
gorgeous
jew
na
rape
sib
sized
ties
wires
##iated
##pass
##gence
##uum
##uction
##vy
##via
##hand
##west
##BI
##BA
##BC
##erg
##rey
##inger
##esign
##oric
ingen
##ashing
##opic
##irts
##imal
##amas
sew
shit
heal
chess
conqu
convey
outl
align
enabled
intro
sail
##ema
explicit
agents
cliff
##00s
##road
coinc
overse
##seless
##berry
boost
ambit
trace
trail
criter
simulation
##neys
reliable
stranger
demographic
Asian
visually
subt
momentum
signature
camps
breeding
##otton
propag
challenged
excl
invested
psychologist
surviv
cycles
deadly
Leon
stepped
transforming
marry
marvel
##bye
covering
medication
Compan
primitive
riding
electrodes
representative
damaged
sweat
wildlife
determines
smells
landscapes
portion
corrupt
achievement
honestly
nuts
banking
scanning
sexuality
simpler
gathered
injured
analyt
airplanes
concentration
surgeons
##ulses
##forestation
reinvent
telescopes
manipulate
initially
candidates
aggressive
replicate
cybercr
controversial
gesture
Atlantic
occasionally
##rasound
wrapped
mysterious
orchestra
hallucinations
Joseph
supermarket
Joshua
lungs
expansion
Catholic
##epherd
augment
Bh
Both
Hon
Hist
IBM
Jord
Jane
Journal
Know
Mur
Mir
Qa
Tra
Water
fib
lake
sir
sons
sale
tie
ven
##yer
##lock
##nes
##mill
##uber
##oes
##reas
##reate
##orage
offe
##itated
##oto
##uts
reass
rewards
stom
stake
staring
##opy
abilities
seal
##outs
worms
##ilized
someday
Its
##iful
##usiness
workforce
compound
leverage
clues
unst
##iph
channels
interven
boots
realistic
##otherap
grasp
##anged
counting
##ords
findings
builds
grave
grace
carries
believing
strike
cellular
mines
mode
keys
extinction
bush
handed
bio
contrary
passes
Ann
interestingly
redesign
Newton
badly
proposal
cheat
discovering
deepest
##ushed
raises
radi
approved
psychologists
##ending
suggestion
brands
replaced
immort
competing
defining
institutional
consciously
participation
detection
appearance
fraction
contribution
jumped
interviewed
historically
physicists
gentleman
pigeon
tomato
##thesia
millimeter
talents
tumors
Kevin
pursue
courageous
exhibit
altitude
complain
conducted
mushrooms
Freedom
horizont
bombsight
embarrassing
recycled
disturbing
intriguing
unhappy
legislation
Tasmanian
helicopter
luxury
simultaneously
cylinder
Detroit
magnificent
ambitious
criteria
Qaeda
46
Camp
Emp
Jill
Kar
Norm
Rather
Sal
Tib
Tanz
Zimb
awe
bills
fancy
gh
gaps
hated
pills
rose
##rian
##ties
##NC
##cure
theories
theoret
##erals
##oration
inex
##utation
revel
##urable
##ching
##ammed
##theless
##ods
cham
decent
congest
outrage
upside
##emies
##mental
##agos
impression
##eav
pole
syring
realm
genomes
flows
flavor
##rence
humanitarian
systematically
guilty
##ava
helpless
Str
instruction
planned
hardest
biologist
capability
Africans
##ierra
reasonable
answering
defic
Almost
Although
freezing
##ficial
viral
messy
prediction
democrat
##ccoli
versions
fireflies
statistic
vacuum
harbor
tracks
straw
truths
immers
marg
dropping
1990
epis
Geographic
authorities
websites
raped
annual
concerns
enjoyed
continuous
fragment
motivated
counsel
fatal
lawn
customer
Camer
batteries
cruel
surveillance
regularly
succeeded
assemble
grains
astronaut
Laden
limitations
prevention
minimum
dolphin
extended
venture
frightening
labeled
overwhelmed
Saturn
established
acknowledge
Montana
beetles
Open
permission
Technology
stunning
aesthetic
offspring
expedition
troops
Queen
reclaim
hybrid
Court
Southern
downtown
trajectory
genocide
38
48
During
Hun
Little
Lak
Mer
Ooh
Rand
Rog
Sad
Sus
Ted
Tar
Tun
USA
Wright
cube
caves
dirt
gel
hired
je
jaw
nerves
rab
ts
ward
wins
##away
##like
##makers
##orious
inmates
##itic
##oted
bend
beef
##seen
storage
##vere
prose
shout
shaking
##ules
##usting
##umble
##iffer
span
seemingly
##orted
actively
aged
twins
uncon
disasters
acids
mock
prepar
##ruption
heritage
shower
gramm
incl
scales
systematic
technically
relation
understands
##aken
artic
minus
modest
computational
projections
passive
format
inflation
heading
propose
cheating
secular
fundra
expecting
investments
cuts
illusions
winds
terrified
Being
calc
civilizations
volc
planted
periods
medicines
methane
compassionate
##ancers
extraordinarily
authoritarian
Clint
assumed
assumption
narratives
Anybody
earliest
judgments
randomly
associate
##faction
destroying
physicians
logical
script
doubled
therapies
dominated
substant
sculptures
opinions
incentive
empowered
constructed
summar
voted
reproduce
inevit
overwhelming
encouraged
encouraging
observed
horizon
Disney
bribe
Silicon
traumatic
1930s
Hawai
bench
abundance
Gandhi
iconic
striking
supplies
##aghetti
##lihood
dynamics
hierarchy
##ongevity
glacier
monitoring
Palestinian
discrimination
Brooklyn
lonely
recession
rehabilitation
Absolute
manifest
clothing
microphone
dopamine
##otherapy
44
Age
Apr
BJ
Bosn
Cra
Ev
Fed
GG
Hall
Jones
Lin
Lear
Matt
Naz
Nathan
Old
Sk
Tam
Treat
Vi
WK
ah
boun
hob
longevity
ol
tab
vivid
##ev
##ymph
##bra
##iatr
##nut
##mat
##ca
##zler
##inating
##atts
##orr
##itative
##arians
##asive
##ican
##etry
##igma
##urt
##urday
stair
##verb
forb
##imag
##olen
shatter
ships
confer
likelihood
Italian
##umented
##inda
##usal
spare
spaghetti
##ieve
##herom
enzy
enemies
##elines
sav
manner
##achel
client
unn
unw
impressive
arbit
disability
kindness
undergrad
herd
##ecd
realization
criminals
##weight
involving
carc
apps
highway
##aza
meditation
cares
computation
farms
entry
viscer
formal
easiest
##ographical
proposition
amazed
selfish
discoveries
advances
Arch
namely
Someone
motors
superst
winner
calm
cooling
approaching
intrins
favorites
vacation
campus
touching
Def
ultrasound
receiving
safely
attacked
1999
cleaning
barb
##ennis
remarkably
##ammad
detector
universes
temperatures
2012
Columb
##ylon
calculated
Seven
phenomena
Educ
wooden
injuries
Mexican
switched
correctly
manufactur
accompan
documentary
millenn
frequently
replacement
installation
Similar
partnership
adopted
informed
toilets
Moore
ingredient
scenes
lectures
Coast
Parkinson
ventil
Greek
Greece
regardless
Alexander
vocal
portraits
assignment
Saturday
rejected
##oliath
beetle
tolerance
Delhi
Pretty
Sarah
Turns
Teszler
tattoo
tweet
nonviolent
chimpanzees
incorpor
##abulary
Ethi
squee
improvisation
Virginia
Lewis
stomach
April
350
AK
Bert
Dian
Ell
Eight
Elect
JH
Jenn
Line
Lord
Muh
Sierra
Tah
Wo
bam
bang
du
diving
founder
groc
hint
jan
mat
mask
node
oven
pherom
rip
roles
tangible
useless
vel
vary
yeast
##kind
##eem
##rary
##lor
##lers
##tained
##nik
##oen
##cons
thus
##reens
toast
apolog
apples
inhib
stolen
##opus
##thals
seas
##adium
shore
shred
shepherd
##illas
##ulance
frames
orang
##umines
loose
knife
alike
##cip
intact
workplace
##iza
##reatic
exposure
##aches
coverage
overhead
disg
##ensus
##ulty
accent
##elled
bond
##teen
trapped
beloved
basking
sched
Stop
consp
strings
generating
generosity
attitudes
biod
corners
valley
addiction
girlfriend
empath
nightm
50s
follows
programmers
Argent
tempt
filmmaker
##mbur
Twenty
squared
origins
professors
entering
feminist
Spain
predictable
lifel
broccoli
Johnny
crossed
unfold
Carl
Switzer
fantasy
infections
significance
Plan
magnet
1984
ideology
penis
tribal
worrying
occurring
pleasant
blogs
Supp
boundary
politician
priorit
Ministry
mastery
shifts
Simon
Egyptian
obsession
belongs
Julian
acquired
##ograms
estimated
autonomy
confronted
accomplished
vocabulary
verbal
##standing
eliminate
refrigerator
chromosomes
Bonn
elegant
jellyfish
Wolfram
rescued
##cyclopedia
overseas
Tunis
grocery
Switzerland
86
Ast
Creat
Coun
Dra
Fire
Hope
Kids
Mach
Mond
OEC
Qatar
Ross
Syl
aunt
cope
dens
dile
dating
eco
hut
jet
lists
mild
mesh
pad
tiger
tables
zones
##aire
##rich
##lobal
##gency
##mes
##mod
##mate
##uz
##uan
##oors
##hr
##CA
##Global
##orough
##aron
islands
##enter
hambur
##storm
wasted
##amps
##thetics
cancers
canvas
shots
##ulative
chains
depr
deforestation
##oky
##umbs
mapped
logo
loyal
knees
alter
altered
plates
intensity
##aste
##arest
##izab
##actic
lever
perpet
managing
unle
##rypt
##ffect
sheer
underest
symph
bridges
##fulness
screw
##ighters
##weg
helmet
obso
Still
producers
developers
smallest
regulations
biol
visions
passions
TEDGlobal
researching
config
deter
breed
condom
equations
amazingly
retail
illum
literacy
norms
##ometer
depos
variable
practicing
Beh
Norweg
destination
convicted
measurements
paths
urge
texture
occurs
activated
blocking
threatening
unfair
Geor
magician
documented
reflected
thrive
responded
parks
diagnost
honesty
panic
integrate
journalists
tension
philosophical
attracted
accuracy
embracing
quantities
Elizab
Keep
platforms
symptom
sanitation
melting
laptops
isolation
interpretation
privileged
consistent
spinning
Copenh
procedures
elevator
metabolism
mentor
adolescence
regenerate
erotic
pedest
branches
chromosome
##opardy
Syria
intended
Organization
Neanderthals
odor
pancreatic
Lebanon
automobile
Cambodia
octopus
jewel
siblings
Tanzania
congestion
preparation
calculation
Absolutely
Muhammad
OECD
Elizabeth
Copenhagen
72
96
Coca
Doug
Est
Ext
Fil
Food
Gar
Goliath
Hir
Hol
Hosp
Light
Lau
Moz
Nick
Off
Psych
Public
Rec
Say
Sky
Ter
Together
UN
UC
Ult
Ush
YR
cage
cable
cale
dare
drew
dancers
fer
fisher
ger
jack
mentally
nap
porn
pulse
rank
sands
sizes
tid
west
yards
##ris
##rats
##tz
##pace
##ni
##viron
##hea
##ximately
##HA
##inent
##inery
##atical
##esc
##orters
##isa
##oton
##asking
welf
rever
Thirty
##urning
stressed
stadium
##ira
##ima
ange
anten
seventh
##ado
Soci
comic
fruits
##estone
excess
exagger
##ifact
usage
sperm
##aine
##eman
##osexual
sufficient
comparing
##abwe
donors
uncover
resur
resem
coat
##ulture
##plete
underm
mold
boats
symp
blur
blink
blown
commission
scans
Child
counted
##redict
##ighth
remitt
longest
endeav
relief
transit
artifact
famously
2030
planes
reader
cared
explores
teaches
earning
regrets
couch
processed
ampl
charged
awake
friendship
pays
absence
masses
massively
sensing
archive
operated
argued
lowest
Prob
communicating
consuming
consumed
purple
pathways
richest
activists
exceptions
electrons
apartments
graphs
collaborate
perspectives
discussions
Cola
130
squares
reflects
hurd
rolled
Music
ethic
jumping
Parliament
celebrity
woods
selected
mutations
preventing
laughed
Environ
emotionally
beaten
hacking
accurately
forgive
streams
museums
budgets
illustrates
vegetable
talented
Jean
shifted
towel
cosmic
Julia
altru
nurture
Broad
satisfaction
elephants
pipeline
1950s
entrepreneurial
metabolic
authenticity
astronomers
Jerusal
irrational
diplomacy
stereotypes
observations
publishing
EDI
casual
membrane
embodied
trivial
Leonardo
Zimbabwe
Clinton
##oenix
biodiversity
Sylvia
obsolete
Ushah
calend
Jerusalem
42
Bud
Business
Dub
Hot
Hung
Homo
Ire
Mall
Pot
Wind
aqu
bore
bats
binary
cows
cotton
dy
fract
heter
jar
loses
lingu
mud
nu
ooh
pit
patch
piles
pestic
rib
vag
yo
yog
##aque
##rane
##gon
##mun
##LA
thread
##eros
##inational
##atories
toes
toll
##arly
##otes
##uten
##sell
##verts
##oples
##ament
##olitan
##the
seats
sections
primate
##adel
shops
meets
sovere
exotic
exquis
chat
orph
proceed
spo
##iece
thinkers
envel
enlight
##iva
intric
##ouses
##acks
lex
Young
expon
expressed
unve
arter
arise
bugs
interior
##ologic
contest
gross
incom
##orship
flaw
traces
decides
index
##uba
drops
drunk
shoulders
creator
Start
relates
carp
##weeney
creep
1950
##ifications
edit
explored
farming
minded
demograph
##ocks
subur
##geries
organizing
envision
connectivity
distingu
reasoning
curves
sidewalk
choir
default
Alph
publicly
posters
swallow
parach
paste
hugely
cracks
mustache
sexually
landing
terribly
temple
embry
Notice
multinational
releases
Phoenix
Leone
trusted
estate
visualize
balls
functioning
marrow
accounting
filling
infectious
virtue
hopeless
Christians
luckily
closest
Secret
Security
enjoying
miracles
contributed
hunt
Except
exha
mutual
catching
blogging
integration
taxes
ambulance
Canadian
bulb
priority
remotely
terrorists
golden
stimulation
Greenland
concentrated
Benj
romance
reforms
unpredict
negotiate
weakness
anxious
voters
frightened
Jews
##worth
##break
Palestine
controversy
Lester
cousins
aspir
overlook
recycling
initiative
Olympic
minority
administration
veterans
According
inhabit
favelas
geometry
SMS
naive
Tibet
tsun
inevitably
staircase
visceral
welfare
Ushahidi
Ireland
envelope
Aw
AM
Add
Civ
Cap
Emb
Fred
Gil
Lang
Lake
Lama
Linc
Mass
Nep
Nether
Pers
Run
Rives
Sweeney
eats
ego
fis
fence
fired
hipp
jam
jung
mit
mater
nin
nud
rac
sod
tiles
##ae
##eu
##lar
##lades
##bi
##bie
##pread
##matic
##vascular
##hry
##PTC
##RA
##inable
##nders
##oured
##ani
##anas
##orph
##ali
inse
belly
##ctu
Thail
##igen
##ura
stigma
##ched
##keley
##oln
sends
##oding
pron
shining
hey
peers
peoples
##arts
##arten
loan
##ifies
alga
##emical
compens
compounds
##active
leopard
perf
perse
clips
unre
residents
impress
buff
buzz
##ologies
##ultural
acoust
deserves
synch
##ankton
screens
surgeries
##oduct
crank
lethal
remix
endless
Stone
relatives
Shir
nevertheless
conscience
famine
##ocative
slip
slaughter
20s
centimeter
behalf
generic
projection
regul
ski
passage
solo
headline
presidential
TEDsters
distances
eastern
proph
##version
Everest
networking
retain
rises
refuse
##culosis
expectation
fails
revolutions
sensation
alongside
depart
optical
dreamed
##idespread
185
stays
supercom
winners
grades
Reg
experimenting
risky
feeds
Leg
shoe
femin
visualization
seaf
introduction
ecology
Cloud
Marco
##umbling
detected
hoped
##sociation
140
stressful
correl
demonstrated
innovate
folds
folded
matched
orgasm
opposition
Mean
targeted
McD
analyzed
Small
crowds
torn
adaptation
appeal
defeat
antibodies
harmony
Banglades
Berkeley
lifted
emergence
scarce
submit
Khan
shrink
Babylon
Copern
observing
Country
Party
Jonathan
storms
evalu
absorb
pouring
deployed
parasite
abundant
slept
delicious
textbooks
dismiss
suspicious
Apoll
clarity
anesthesia
recruit
brutal
cathed
philanthropy
cigarette
weekend
Somalia
fungi
adapted
warrior
browser
Mathem
album
##uberculosis
Roger
##ifferent
Ethiopia
Council
Monday
biolumines
Society
Alpha
Lincoln
Netherlands
Thailand
synchron
41
Cru
DJ
Dec
Dala
Hind
Ig
Kam
Kong
Luther
Mot
Media
Nair
Pu
Pen
Post
Poll
SO
Spring
Saud
Toky
Vol
Way
Yves
bust
cattle
caf
cups
dome
fans
los
mature
ov
pants
rode
tut
tide
tuberculosis
vice
widespread
##yd
##yon
##lan
##bow
##bucks
##tt
##coming
##fold
thy
##erk
##erving
##inators
##inburgh
##inging
##alities
##itus
##omagn
##owder
##uros
##amie
anecd
lips
##ationally
shed
worm
heating
chase
deception
conj
alert
alarm
##inker
spat
bypass
intimate
##ogy
##emon
##izational
export
mankind
evapor
Information
##ipts
discl
contained
##quarters
##berty
symm
blah
##intend
incar
counts
##phia
trait
##iances
##negie
grav
consensus
kidding
##bees
##ocracy
imagining
slower
1900
patience
serves
metals
generates
compute
regulation
##irds
captain
infl
presum
distinction
scientifically
charities
charges
machinery
sixth
parag
excuse
constitut
refused
circul
operates
territory
Beach
18th
violin
pleased
chemist
##boo
picks
approached
iceberg
geography
postc
stealing
conceptual
Sput
##nedy
subjective
copies
neglect
revolutionary
improvements
puberty
participating
Carnegie
Marg
assuming
discussing
shaping
Colomb
calculating
Kennedy
reflective
continuously
kilos
heavily
pencil
salary
celebrated
mixing
emails
inventor
Edinburgh
halls
transported
displays
philosophers
hypoth
tuned
priorities
Swedish
Jeopardy
Philadel
accelerate
container
myths
dishes
Korean
votes
poems
revenues
announce
witnessed
sacrific
premise
Democratic
dictators
implemented
Starbucks
rubber
branch
attributes
anticipate
strikes
utterly
decrease
puppet
##azeera
disruptive
exploit
renewable
scheme
disagree
statistical
irrele
enterprise
Matth
bloody
Tempest
intimacy
horses
Jordan
syringe
Cameron
grammar
Bosnia
bamboo
Probably
Civil
##PTCHA
Dalai
Saudi
Tokyo
Philadelphia
47
64
98
900
AO
Dig
Fortunately
Home
Jup
Jazeera
Kal
Kim
Mitch
Nike
PH
Penn
Rose
Rick
Rachel
Sol
Sud
Sup
Tay
Ur
Wi
cum
divid
kit
mixt
nic
wives
western
##eg
##rition
##las
##tail
##cro
##hors
##fig
##foot
##ja
##jud
##ES
thorough
##itar
##omed
beam
reck
reun
##etical
quarters
##igan
steady
##opatch
##amil
##rah
chunk
deck
debr
pean
##essions
loads
proved
probe
##unes
alumin
trips
##eling
sab
timing
suff
legend
maneu
evolving
cloth
clitor
##rov
disput
undert
preach
goodbye
Therefore
##ressing
scroll
countless
decor
greatly
drama
guards
insert
Stand
examine
transist
glow
##bean
##ocity
##uced
slope
minerals
numer
handy
elabor
regional
entr
processor
spacecraft
secondary
formation
pops
##irling
valve
Anas
escal
addict
educating
youngest
Alice
filmed
##lessness
equity
retrof
continents
trading
Fried
##brush
digging
approximately
freak
psychiatr
existential
187
##boards
beneficial
recognizing
critically
describing
telecom
promised
silicon
achieving
fairness
Johnson
accountability
1998
screening
misunder
electromagn
ruins
returns
balanced
discussed
employment
nucleus
checking
acceptance
princip
ladder
demonstrates
penetr
cardiac
matches
addressing
Seattle
banned
motivate
multiply
losses
strengths
iPad
notebook
novelty
revealed
adaptive
requirements
cooperative
blew
mammography
expanded
tastes
shelves
epidemics
folk
appreciation
tickets
informal
merit
cerebr
rigid
dispers
semi
bowl
##grade
##forcement
chimps
beside
gestures
trauma
Atlanta
tenth
coding
Interest
cockro
subsid
advocate
Buddhist
enhance
Type
fulfilling
lobby
precision
fetus
disappointed
Venice
##frontal
buttons
screaming
catastrophic
chronic
tropical
ashamed
perceptions
Nanopatch
oyster
contagious
divorce
enthusi
Telesc
wonders
Scotland
anatomy
neocortex
exercises
History
fibers
horizontal
theoretical
chamber
fundraising
Similarly
nightmare
Hospital
antenna
parachute
Benjamin
tsunami
Meanwhile
Sputnik
Jupiter
43
97
BR
Bot
Book
CC
CS
Dur
Fund
Gall
Gard
IP
IM
Ivan
Kelly
Kansas
Len
LOL
Mama
Natural
Od
Others
Rod
Scr
Sex
System
aort
airl
arous
ease
fi
germ
mating
nail
nasty
pose
pne
piss
powder
rains
tin
ware
##een
##log
##born
##tent
##pro
##press
##gical
##mit
##col
##wen
##erness
##any
##orse
##itu
##arin
##omin
revers
##ctar
haun
##igg
sty
##char
##opa
##iments
##olas
abroad
##ador
nectar
##ulu
chasing
pecul
orb
##aunt
loans
alle
whoever
intangible
##apagos
##embers
##inea
worldview
expense
Inside
##itty
sometime
happiest
unseen
unimag
noisy
impulse
impaired
overnight
dispar
interd
kinderg
prefrontal
phr
boards
goodness
humility
##coal
##integr
incub
scal
scra
flesh
trap
deciding
surre
indirect
crushed
drif
remo
insur
thoughtful
Stay
glue
problematic
playful
playground
consent
consol
Whenever
slice
recur
moms
handful
reputation
responds
biased
Association
couples
singers
Indians
TED20
##iovascular
politically
labels
globalized
locom
locally
equals
treaty
ordered
viewed
mustard
neurological
draws
Recent
considering
Phys
sustained
pulls
posture
replacing
asth
Death
occas
laund
primates
unfortun
reporting
speeds
prisoner
sticky
characteristic
laboratories
correlation
Steven
Warren
determination
annivers
thrilled
1980
angles
optimal
prospect
ethics
victory
inventors
1970
mutation
injust
sadness
analyzing
integrity
therapist
horror
surveys
magazines
Glass
convincing
concentrate
irony
ironic
investigation
accelerating
skilled
empowerment
mirrors
shadows
Berlin
Kingdom
sanitary
toxins
encountered
skeleton
inherent
inherently
occupy
instincts
declining
memorial
ratings
athletic
columns
champions
attempts
intentions
Tesla
censorship
Galapagos
Movember
oriented
wiped
Help
repeatedly
triang
thermal
Modern
legitimate
Building
punishment
vitamin
settled
Development
propaganda
cybercriminals
Bhutan
episode
volcano
Hawaii
arbitrary
Columbia
Education
apologize
Norwegian
Office
demographics
unpredictable
algae
incarcer
Colombia
irrelevant
Supreme
clitoris
cerebral
Telescope
pneum
peculiar
TED201
53
52
74
Around
Cy
Case
Cold
DP
Event
FO
Find
Fox
Harr
Himal
Loc
Luck
MR
Mid
Much
Oak
Py
Pict
Ra
Trade
Ver
Vis
Virt
Wr
Win
bay
bip
cav
cafe
duration
duty
eighth
ft
fame
gains
lately
lump
lyr
mast
owe
pity
pix
pulses
viable
##norm
##mass
##oe
##ccer
##function
##zu
##zes
##Point
##ju
##AS
##eration
##eries
##inema
##ndane
##onald
##ancer
##omy
##omics
rect
##see
##state
ster
stare
stamp
sticking
##verted
##erend
##imeters
##aman
dod
##thood
goat
sectors
##ada
soccer
##ili
heh
chord
Wel
##umor
mand
encyclopedia
##ogens
##izona
leak
expose
Inf
Invest
clim
clicking
##roch
mundane
backed
##ignant
acute
preval
phthal
##ials
adul
advers
bonds
##pling
gram
grant
wrink
drilling
helium
obtained
##erto
kidn
appet
slog
190
patri
server
behold
##airo
regain
regulate
Ask
Ash
visiting
skys
subc
corrid
energet
socio
headquarters
##arriage
confusing
##iolet
standpoint
charcoal
marks
Alan
empire
testoster
swam
parliament
asset
returning
payments
Arizona
crap
identities
identifying
predator
argues
Too
180
supportive
reaches
multiverse
Justice
travels
destruct
facil
nicely
colorful
steam
steep
slowing
snake
transformative
##ieties
texts
copying
1995
rockets
translator
Clay
representing
##umbled
societal
collaborators
Christopher
separation
checklist
accepting
Arabia
judges
struggled
etic
Truth
hurts
rolls
magnets
magnitude
contributions
innovators
tricky
reminder
cardiovascular
conditioning
heroic
Seb
automatic
banjo
sequences
phenomenal
campaigns
enormously
McK
Michigan
variables
broader
Joel
Wouldn
mouths
accommod
1960s
appealing
petals
Grace
climbed
frequencies
stimulate
harmful
investigate
prototypes
implanted
empowering
pregnancy
quietly
Samuel
reproduction
aggreg
holy
hollow
Jackson
storyteller
constrained
dictator
converted
Lesters
neutr
gallery
tightly
imperative
Olympics
weighs
champion
Consider
biomaterial
accumulate
##vasive
satisfying
tattoos
diameter
Clearly
atomic
Larry
tortured
PowerPoint
assessment
legitim
convenient
gratitude
Jefferson
biotechnology
annoying
basketball
alphabet
neuroscientist
gifts
guerrillas
adolescents
thylacine
interfaces
Heart
bureaucr
Companies
intervene
Lakota
Susan
prosecut
hobby
Jennifer
Wonder
velocity
Argentina
Machine
hamburger
symphony
distinguish
jungle
Apollo
Sudan
debris
aluminum
kindergarten
unfortunate
anniversary
Eventually
FOX
Himalay
testosterone
34
58
77
Ach
Ara
Band
Die
Dave
DAR
Ele
Fall
Fair
Kr
Luc
Labor
Mas
Mumb
Pear
Pap
Ryan
Sn
SA
Sleep
Serv
Tower
Year
Yellow
bunk
cass
drain
dread
dancer
ech
greet
ion
jokes
lion
lymph
marsh
rhet
toss
wal
wow
wolves
##bian
##bule
##iens
##turing
##IS
##py
##pers
##mma
##uf
##uctor
##violet
##oven
##city
##hot
##wan
##dam
thumbs
##erate
##atible
##ativity
##ingo
##eds
##iscover
##arc
##asant
##ician
##utes
##eton
##stairs
##urf
stir
stones
steak
stagger
forcing
##opoly
##oline
##race
##raine
seam
seals
seaw
shorter
Sobule
##gender
nearest
sole
##istically
lobe
alar
##eland
##ourse
composition
##obic
noises
impose
coc
coin
coch
bucket
##ffiti
##ibati
newly
preced
precip
realities
gran
##tech
surgical
##onsense
indoor
indoors
cried
invitation
##peech
meanings
courts
Station
graffiti
glorious
cream
questioning
modified
monster
explode
farther
earned
reporter
funeral
suburb
animations
sounded
escap
confined
educators
protocol
protests
hopeful
profitable
Alask
filters
swing
equipped
retreat
Online
viewing
Ark
frontier
diarr
Cancer
digest
literal
approval
shortly
terrific
dreaming
125
practically
##ospher
Prince
Princ
superior
joining
fights
surviving
poorly
##ustainable
sums
measurement
structured
squid
pathway
strand
stepping
internet
emerges
sneak
promising
promises
applies
planting
copper
float
##cussion
delivering
translating
misery
introducing
admire
representatives
detecting
sweeping
Color
Stef
17th
portray
respected
Iranians
willingness
ideals
cataly
cardboard
sequencing
Edward
displaced
Connect
variations
journalism
avoiding
denied
flights
petition
util
tuna
alternatives
illnesses
documenting
hostile
axes
gardens
gaining
Philip
athlete
kilometer
##ulsion
indicate
coastal
reviewed
cartoonist
grabbed
pilots
recycle
vibrating
migration
elders
juven
qualified
acquire
improvise
Quite
scarcity
Emily
##ugging
consistently
assembled
dinosaur
flexibility
resilient
tanks
beekeepers
washed
desperate
parasites
households
eradication
derived
attempted
flourish
resonance
CAPTCHA
Medical
protocells
purchase
Denmark
##cribed
redefine
ultraviolet
maximum
carrot
unemployed
Scientists
amateur
amateurs
battles
Kiribati
Radio
lesbian
doodling
ingenuity
ghost
Craig
##nutrition
Defense
conspir
temptation
dilemma
diagnostic
pedestrian
remittances
endeavor
arteries
Nepal
Bangladesh
Nairobi
Margaret
Mitchell
Taylor
elaborate
phrases
injustice
Welcome
Mumbai
Princeton
54
68
AR
AV
Aur
Ang
Aye
Aaron
Best
CL
Cher
Capt
Coch
Cairo
ES
Gay
Hom
Hop
Hundred
Jen
Li
Lead
Langu
Mos
Map
Mob
Mell
Pass
Rom
Read
Romo
SR
Siberia
TB
Titus
Uk
Vin
Work
XL
bump
cul
cort
cues
cement
codes
dates
doses
fighters
gro
gosh
lap
lane
mas
mant
mum
masters
rod
sessions
tread
tips
vig
vicious
yard
##awn
##aved
##iots
##iages
##iotic
##NN
##pite
##pox
##piece
##nob
##greg
##metic
##ugs
##sc
##vance
##dog
##fire
##osaur
##enz
##esters
inade
##isan
##isec
##arat
##ications
##lear
##lli
beats
##ayer
Anderson
stew
stairs
##irms
##iratory
##oder
##adow
Soon
coma
deer
orth
##umental
##iends
##ieval
##cium
##aph
##ements
sucks
veil
vending
##abad
##agan
##arded
donated
Ins
##ittee
clich
unite
resid
##roots
arc
interrog
intersection
##acre
##acent
##ibbean
poets
contrad
contamin
acres
prejud
adequ
desires
amino
##ecess
##icken
Head
##intu
##plus
Chad
##anges
##iley
brainstorm
induced
owns
invasive
afterward
insult
basement
lasting
Stat
Stock
transact
carpet
schooling
##ocation
bitter
slum
developments
numb
##azy
seroton
careers
bikes
bioch
biologically
singer
##geria
##insky
prescript
##product
Forget
addressed
confirm
modeling
morally
morph
brew
##otto
certainty
posed
remembering
chef
waking
waited
assure
Att
frontal
provocative
Brother
oiled
marketplace
Europa
grandd
predators
protective
freed
##iumph
personalities
Beeth
temporal
supermass
chemotherapy
Real
calcium
specialist
specialists
recognizes
convention
combinations
faculty
geo
hotter
conception
transformations
esteem
Dean
ballot
marriages
periodic
reactor
1994
##heads
primal
armor
Caribbean
introduces
160
packaging
##etheless
influences
employed
employee
circulation
wilderness
Kenyan
starvation
heavens
association
##uctive
1975
mutil
towns
candle
Conference
breasts
liberals
iPod
Brazilian
hacker
novels
Having
reconcil
symbolic
blend
bleeding
rewarded
recovered
Graham
Despite
millisec
##onomic
categor
shuttle
partnerships
Doesn
motorcy
##holders
settings
Nigerian
nano
appropriately
frustration
migrate
sanct
charts
purely
acquis
microscopic
Quest
roofs
minimal
##breaking
hypotheses
Ess
frogs
obstacle
embarrassed
Jersey
Jonas
rushed
Students
evaluate
databases
benign
clubs
Lawrence
imperfect
crafts
rainforests
Throughout
adoption
geeks
rendering
blessed
reefs
diffusion
receptor
sketch
statistically
FGM
unemployment
Medicine
Melinda
ambiguity
caregivers
Oliver
spontaneously
mathematicians
prolifer
comprehensive
guidance
Kyoto
Self
coincidence
survivors
Murray
deficit
Sadly
carcin
accompanied
Diana
janitor
Suppose
Skype
Dubai
incomplete
creepy
Secretary
Lesterland
supercomputer
McDonald
cathedral
spatial
gravit
paragraph
mixture
entrance
laundry
Luckily
Virtual
energetic
seawater
inadequ
Beethoven
supermassive
57
78
82
Bea
CP
Call
CNN
Fem
Full
FDA
Got
Hal
Happy
Jama
Katr
Lo
Mt
MP
MG
Moh
Oper
Oreg
PC
Poor
RNA
Si
Saul
Tob
Uh
Ze
bent
baker
cob
cinema
dash
dangers
eternal
erect
gor
gal
jury
lent
lapse
lemon
ow
pies
piv
pension
ranging
wre
wander
zo
##ker
##eor
##rir
##bone
##bag
##tion
##IA
##ded
##fare
##EA
##RNA
##MED
##inished
##enment
##anical
##alone
##edge
##isive
##arium
##oter
##otal
##otent
##lend
beast
reh
haired
starch
##oped
##kel
##imore
##theon
abalone
cann
worship
comed
##anting
noticing
##uled
##ulously
##usty
##esty
allies
heated
chore
dement
tender
##iege
tribut
triumph
##cile
enab
enforcement
compr
manages
donation
fee
fever
Inc
unity
reserves
impressed
startling
##assy
backs
prey
preference
##ictions
hump
humble
grim
grip
scram
offsh
fled
flock
decomp
surplus
indul
indigen
guitar
remembers
##ricane
scholar
reluct
grape
spends
##ocr
##ucose
imaginary
learns
strang
metric
finishing
reads
##ceptible
editors
smallpox
##aware
buses
projected
demol
Ass
##onto
organizational
animated
##nergy
progression
halfway
confusion
culturally
wonderfully
listed
empir
retired
payment
absurd
radius
surprises
potent
sensit
##appiness
varieties
argu
performs
psycho
nonverb
limestone
##ropolitan
requests
experimentation
directed
releasing
responsibilities
Working
professions
pressing
sustaining
arena
honored
policing
sooner
urgent
Deep
laying
boyfriend
wishes
1996
cleaner
Whoa
epic
dining
Climate
progressive
virtues
collaborator
dependence
acceptable
disappears
calculus
Harry
kilograms
Plato
uniquely
gasoline
malnutrition
contributing
matching
parked
diagnose
sequenced
Danish
Expl
Peru
exhilar
Meet
fashioned
McG
scrib
Const
Mrs
industrialized
volunt
ambition
deny
visitors
valued
requirement
backgrounds
chickens
grandmothers
mammal
mammogram
mortg
midst
Guard
Guinea
Keith
routes
microRNA
preferences
Philipp
athe
accelerated
sighted
##ersonal
rooted
entertaining
attachment
entrepreneurship
Julie
taller
recipes
altogether
negotiation
melody
summary
Poland
fleet
Franklin
referred
libraries
pipe
inherited
Emma
Greeks
chaotic
shallow
disciplines
suitcase
praying
Commun
Sahara
1945
Otherwise
Democrats
Especially
declared
astronomy
Jerry
knocked
injection
Toronto
Buy
Hawking
Republicans
CEOs
abandon
assistance
Williams
executive
Buddha
mysteries
coordination
bonus
praise
orientation
##organic
Milky
Syrian
Venus
Scottish
queen
distracted
hammer
sketches
cigarettes
negotiating
Fifty
certific
Royal
whisper
strains
deceased
immigrants
tactics
Louis
dysfunction
augmented
unstable
Empire
margins
astronauts
summarize
Architect
Bertie
configuration
jewelry
artifacts
calendar
exquisite
intricate
swallowed
fiscal
seafood
hypothetical
principal
Interestingly
Garden
Scratch
Recently
destructive
Sebast
Diego
staggering
prejudice
serotonin
Essentially
Oregon
indigenous
40s
450
84
Aid
Alf
Ba
BM
Bor
Bir
Bart
Bru
Bah
Blo
Balt
Cities
Cross
Dun
Eat
Fa
Fly
Fore
Fast
Field
FBI
Grow
Germ
Gaza
Gwen
Hard
Ill
Kle
Lots
Liberia
Mau
Mech
MBA
Nich
Nav
Native
Ok
Oft
Pet
Pur
Rh
RG
Rel
Rory
Sum
Sher
Save
Tues
Titan
Treas
Use
Vene
Vanc
Yo
bos
bru
bumps
dwell
fest
fade
foster
faint
hi
hunch
kite
lou
lined
laughter
lazy
nick
ox
oxide
poured
rent
rings
races
sang
tales
uter
voy
wages
##acious
##ki
##rip
##rics
##ikes
##N1
##pot
##min
##uates
##uana
##ventional
##hou
##hall
##hops
##hran
##wall
##de
##drop
##zer
##zzy
##Women
thro
thunder
theft
##iner
##inas
##ouver
toaster
##anic
##anth
apoc
##alore
##alog
inorganic
##iser
##itical
##icated
##lem
##ller
##owitz
##ctive
quo
stain
quotes
##iro
##iral
##irable
##ithmetic
anom
doct
abused
worries
comics
frugal
exit
heel
deple
decept
##auc
thereby
##oker
lover
##alling
justify
spear
spills
themes
troll
enters
##ivable
compressed
##aby
mang
feas
unrel
unequ
noble
coh
coined
overt
overd
overweight
backup
intersect
##acon
##ibl
##ensively
##eaking
##ques
beta
precon
##ictional
##economic
##ankind
imb
scatter
##arks
writes
Chicken
county
genital
traff
humanities
##weet
##nee
basics
Stories
Stirling
Shar
glory
gloves
glucose
producer
consists
founding
##venue
developer
##issance
2020
lightning
economically
attor
attraction
handling
repet
Uncle
suppress
skip
passport
companion
energ
##aution
popping
TEDMED
addicted
rediscover
reasonably
amput
menu
watches
##mann
##manuel
Alber
forecast
30s
filming
pasted
Doha
successes
programmed
constitu
dragged
refined
cracked
planetary
radar
landf
illiter
collision
microf
12th
Beau
188
Prime
presenting
multim
survives
cooler
poorer
encrypt
Rights
##engers
polls
traditionally
pathology
strands
##ranny
applause
lays
fluores
medications
floors
accountable
blocked
1992
##rolled
bacterium
admitted
packaged
nuclei
checked
cookies
reflecting
True
launching
strangely
expressive
Abu
unlock
urbanization
salad
bananas
historian
multipl
verge
inventions
drinks
sadly
analyst
fingert
preventable
Michel
Such
crowded
manufacture
orders
demanding
Finance
paradise
efficiently
Palm
habitats
vegetarian
frequent
installations
appreciated
##ijuana
Bangalore
battlefield
advertis
digitally
reviews
explorers
##onymous
MoMA
Wiki
cosmos
frustrating
Tehran
conclusions
grassroots
minimize
microbial
##addy
occupation
##ugged
ignorant
tags
Baby
ringing
explanations
Usually
Command
commentary
elevated
circuitry
Democracy
transferred
kicked
evaluation
rebuilding
murdered
attribute
Vietnamese
eradicate
flourishing
intrigued
satisfy
pioneers
fulfill
crystal
crystall
hooked
wipe
triangle
relaxed
Walker
convenience
uploaded
weekends
routinely
emphasis
Between
commodities
degraded
skeptical
outdoor
update
deliberate
ambiguous
RSW
wrestling
disconnected
Protect
mathematician
cultivate
potatoes
reciproc
scholarship
acknowledged
explicitly
trailer
analytics
immortality
revelation
articulate
olive
unnecess
manufacturers
pheromones
Ultimately
angels
sympathy
boreal
pesticides
pronoun
loser
cumulative
maneuver
electromagnetic
Odys
pneumonia
Oakland
FOXO
wallet
Alaska
diarrhea
reconciliation
inadequate
Katrina
offshore
Baltimore
Tuesday
Treasure
Vancouver
94
Award
Aime
Bow
Cape
Dam
Dick
Diet
Data
Fant
Fib
Gary
Gord
Gene
Greg
Honey
Ir
Ku
Later
Mess
PI
Pic
Peps
Rou
Rain
Roman
TS
Top
Test
Tenn
Vide
Voy
Wis
Yale
bail
ca
cables
divers
fog
hilar
jun
nonsense
pul
pale
pumps
wore
wiring
##ration
##rus
##low
##lim
##lene
##batical
##tles
##pit
##phing
##gia
##mia
##mond
##moud
##sight
##core
##har
##houses
##ET
##Speech
##oub
##ingb
##onies
##onac
##anch
inqu
inert
##icians
##leys
beep
bending
##utter
rew
##sex
##semble
stole
stagn
##child
##cending
abd
abnorm
##raw
##raged
seize
cane
##advant
##ilia
friction
##oren
heck
cher
chew
pel
##umen
macro
##andal
plankton
savan
timber
timeline
sup
suits
suey
compact
##aga
expands
donate
donations
evident
fees
Inno
##ached
unch
anytime
resolved
##rocess
artery
arithmetic
disadvant
backward
##acities
##ibles
##ounding
firsthand
##eable
contam
contra
contents
##kings
##plex
underw
moist
realizes
blob
commands
scaling
smugg
##lection
humane
crude
##aven
##avil
inspect
grabs
embody
kidneys
##beat
##ocate
##ocratic
communal
communist
cello
slaver
10th
extensive
finite
editing
exploded
##awa
##awatt
larva
Unlike
biode
entities
##ractable
subsequ
secondly
##cerpt
popped
specim
TEDWomen
autobi
envy
Anth
mattered
curator
camels
environmentally
proport
effectiveness
Albert
publication
testim
poses
cheated
individually
issued
param
##aha
exclud
15th
##ucky
followers
programmer
viewers
Archie
trek
providers
avatar
raft
Engine
delivers
identification
predatory
operator
commonly
breakdown
legally
404
directors
obscure
eyebr
##radition
worthwhile
affection
geographic
tracked
civilians
Spider
snaps
snakes
developmental
replied
volumes
trustworth
beds
fault
fuzzy
110
1997
crosses
divine
meantime
Marc
detectors
Caltech
reduces
bankers
Harlem
Trust
mirac
fraud
associations
ideological
expressing
sync
##ependence
officers
banana
scanned
surroundings
##ibera
Meyer
##uddy
Billy
Conf
Neil
liberty
independently
taxi
##oshop
reconst
reconnect
reconcile
commercials
Finan
mosque
metaphors
embraced
transmitted
corporation
concentrations
accidentally
counterp
titles
Barack
##rosion
pollutants
indicators
##untu
Talks
Lady
vibrant
prevail
Humans
manipulation
microblog
rigorous
claimed
submar
pipes
tagged
premature
harvesting
adjacent
Stanley
mimics
paralysis
pillars
Studio
overlap
eliminating
Republican
loaded
flooding
districts
airports
assistant
cocktail
Humanity
Oprah
Gando
scenarios
Mahmoud
Typ
outsour
CAD
pioneer
Movement
corresponds
crystals
Biosphere
Bali
##cribe
stabilize
persistent
receptors
disagre
nitric
nitrogen
Economist
certified
fungus
guerrilla
pirate
spontaneous
sulfide
innate
drowning
FreeSpeech
Ninety
physiology
Norman
inexp
outrageous
inclusive
Learning
Treating
forbid
superstar
squeeze
seasons
disgusting
prioritize
Tunisia
UCLA
jacket
Potter
##munications
orphan
Gilbert
departments
SOPA
Digital
sabbatical
cockroach
aorta
##proof
unimaginable
##erendip
phthalates
subconscious
marshm
cocaine
conspiracy
Chernob
Language
##intuitive
gravitational
tribute
voluntary
Alfred
unequal
Aimee
Fibonac
slavery
Chernobyl
Fibonacci
00
76
Aust
BP
Ban
Code
DD
Dol
Down
Dead
Ec
Either
Ferr
Git
Group
Guate
Hu
Haz
Holl
Hmm
Holy
Iron
Kibera
Live
Lapt
Lyn
Money
Millions
Moses
Max
Na
NI
NO
Nice
Nik
NBA
Ow
Oops
Pent
Row
Rus
Sin
Sit
Spe
Soph
Snow
Text
Terr
Tumor
Tradition
Wild
Zero
awards
bands
cad
dorm
dental
dude
dazz
eB
fictional
gru
hind
hood
horn
hats
hills
jur
kin
lag
lakes
lighter
mun
owl
omn
pest
pup
ripp
rows
sane
serendip
tennis
vect
vascular
##ko
##rust
##bery
##bell
##iability
##iologist
##mal
##mart
##mala
##uci
##corn
##wa
##ww
##zs
##oux
##osoph
##reation
##essee
##orth
##orative
##iscipl
##itis
##itics
##otive
##omic
##asa
##asso
##icus
beans
wets
haz
##stan
quiz
##idal
##iginal
stink
stated
storing
stakes
##irmed
lip
lied
doo
##rared
canopy
priest
##eard
shirts
worn
Solly
##gebra
##ulates
soy
##ilot
##uster
exceed
excerpt
delete
##oko
loops
outbreak
##uns
algebra
spher
spores
trunk
plum
plun
Whit
saves
##oseco
sued
composed
pervasive
feared
##obe
unin
unhe
resort
resign
reserv
reserve
##roy
arose
partially
coher
buys
discon
disruption
intergal
##ibo
##ensed
##eaks
pond
underp
undergo
focal
##ellers
##ptic
descend
booth
##ecies
##ecca
humankind
##icket
brow
brick
bricks
incon
incomes
scope
scaled
smiles
Choir
##phal
flap
flipping
decode
inviting
simulate
guilt
lasts
relie
transd
transgender
Shake
carri
instances
glowing
strat
strokes
ministers
##althy
recreate
extro
medal
##atively
behaving
generator
reply
respiratory
biof
biosphere
passengers
accused
formats
Index
Force
Anim
oppon
signing
meme
charism
restoration
##ilton
defines
files
cheer
freeway
governmental
continually
##ucked
payoff
Everywhere
constitution
draft
dragging
refers
treas
incremental
focuses
virgin
provider
Bring
literary
collar
sensible
##itutes
psychiatric
Europeans
186
189
limitation
superpower
inspir
consideration
relevance
blueprint
pressures
firef
statue
smartest
pollination
posts
steer
steering
slowed
centered
arrog
predicting
promoting
availability
urgency
copied
richness
functionality
receives
revolutionize
##ynth
##making
searches
Computer
Looking
##held
crises
##lights
epiph
miscon
Gehry
Mario
balancing
methodology
rainfall
closet
circular
supposedly
checks
cooked
distribute
thrilling
Agency
Israelis
citizenship
susceptible
Brand
speeches
automated
celebration
celebrating
simplistic
inventing
Australian
selective
fatty
husbands
liberation
variability
branded
roughness
joyful
##cellular
forgiveness
horrific
burns
utility
bulbs
##marks
Guess
terrorist
investigating
pursuing
Barb
##ulsive
digitize
deserts
nanot
nanosc
extracted
explorer
Ahmed
irres
cosmology
Police
reinfor
nurturing
references
stocks
flatten
billboard
adventures
reproductive
maintaining
ancestor
criticized
criticism
##holm
prayer
comparable
lasers
pinpoint
Essex
devastated
memorable
distinctive
cluster
regenerative
Serge
Mandarin
pharmac
eliminated
depths
Transition
executed
anticipated
eradicated
Portugal
fingerprint
hatred
##ogenic
Airport
satisfied
delighted
veteran
Large
holiday
tweets
oblig
obliv
breakthroughs
Nico
maximize
Magic
involvement
insisted
publisher
Photoshop
gangs
commodity
Senate
tropics
arrows
transcendence
stimulus
registered
gifted
butterflies
arrangement
gymn
improb
strictly
Victorian
Maryland
Wilson
introverts
exclusive
immortal
Campaign
fragmented
substantial
Nazi
##matics
conferences
enzyme
intrinsic
millennia
Tahrir
lifelike
Bonnie
illumination
Mozart
Hungarian
vagina
sovereign
overlooked
Langley
ninth
persever
Mathematic
cafeter
postcards
Matthew
##amiliar
airline
removing
asthma
Visual
##zuela
sterile
slogan
Himalayas
Achill
rhetoric
juvenile
Captain
Hopkins
Hundreds
mantra
##osaurus
adequate
motorcycle
dementia
Sebastian
Bruce
Germans
Venezuela
nickn
PIPA
Tennessee
Financial
Dolby
intergalactic
39
59
67
83
AD
AT
AG
Agn
Bil
Brad
Cart
Carr
Certain
DI
Dor
Dennis
Different
End
Evan
Effect
Fi
Fur
Form
Given
HP
Huh
INC
Jake
Kent
Kay
Kate
Kep
LH
Limb
Main
Master
Making
Maj
Near
Night
Nine
Ott
Point
SB
Sri
Sending
TD
Tre
Tai
Want
ZK
cease
cops
croc
dye
daunt
eager
gad
goss
hiring
mour
mates
naught
oun
pear
pess
pets
pavil
ripped
sought
tense
tilt
toug
vow
watt
zoning
##kers
##ez
##eing
##rans
##lies
##lishing
##lvan
##tw
##national
##gi
##gill
##uilt
##voc
##ocial
##hole
##waves
##fting
##fty
##CE
##200
##12
##inates
##inator
##atal
##atics
##atient
##esy
##esis
oftent
##isc
##isure
##itra
##itles
##omi
##icut
##icill
##leans
whip
##uting
reuse
Thurs
Thula
quart
##idel
##idental
##igue
##igrade
stumbled
##imps
##amous
##olis
livel
prone
sober
##ilibr
##ested
exile
exemp
##aug
Weibo
cong
##umara
logging
progeria
outward
spiders
upgrade
enrich
##elf
plaster
plaque
acted
##ivals
intest
intentional
intractable
theirs
##astically
##izable
compress
##ousands
leisure
evolves
##obia
agrees
clash
cloned
clapping
unm
union
unple
united
unthink
unaware
##rock
bund
disin
dissect
disabilities
rightly
##assador
##ounded
##ignific
kindly
undercover
##rained
boiling
humil
blows
blobs
Heb
downstairs
grind
scour
scare
wrist
##xtap
hears
humanoid
crow
crust
##ubble
belt
##avors
creators
endow
meanwhile
lasted
exams
relational
relativity
carbs
##aku
##bee
##ocamp
##ucer
bites
apprent
appoint
apparat
cellul
cellphone
sling
slate
slaves
questioned
keen
monk
monument
medieval
centr
countryside
elites
regimes
coupled
infrared
##cuses
TED200
##ierce
##ographing
distorted
eyew
histories
protesters
##ortune
paints
marked
##mostat
Ali
Alt
Along
##apses
conductor
workshop
equator
equilibr
freeze
statements
##ahumara
Orleans
toolbox
traded
collections
programm
Arm
craw
craving
crawl
funders
diary
##rett
Canyon
provin
##sylvan
Going
racial
audition
auditor
dealt
landm
missions
##cuse
windmill
Somehow
shortage
varied
antid
practiced
sourced
joins
beginnings
graders
Maya
multit
Justin
cyc
cymatics
##venty
considerably
conviction
responsive
pollinators
civilian
telephones
brakes
arrives
WorldW
guesses
##luid
prompt
trusting
competitors
carbonate
receiver
fairy
11th
fluctu
cleaned
daf
unfinished
participated
misd
neighboring
Maria
collaborating
16th
Schwar
balcon
turb
turbul
financially
##puters
sweats
secretly
Westerners
calculators
##sterdam
Trib
respects
suspected
1989
malware
optimize
catalog
penicill
hunter
standardized
officially
##oscope
spaceship
surrounds
emailed
Exp
Exact
Excuse
verbs
Austria
council
hallway
instrumental
vastly
atmospher
Joey
Didn
revealing
Finland
advantages
tremendously
chicks
hydr
bullets
tunnels
midnight
illustration
quantitative
bombed
##ajev
tours
hello
ironically
investigative
nutrient
counterintuitive
implants
implication
transformational
academics
vibrate
vibrations
prevented
juxtap
unsustainable
severely
stockp
Cooper
semester
Khmer
occupied
Darwinian
Girls
assigned
instinctively
footprints
thermostat
desktop
USDA
stereo
astronomical
fertility
360
Toraj
conservatives
guaranteed
vertically
Sarajev
hemispher
resonate
fooled
Browne
anthropology
anthropologist
synthesis
synthesize
Believe
firmly
prag
diamond
aesthetics
Denis
persuade
rendered
fertilizer
LEDs
Oscar
dumped
nonviolence
settlement
negotiations
sinister
Miller
toothbrush
favela
Compassion
updated
deliberately
broadcasting
Pantheon
neuroscientists
Forty
inferior
thylacines
innoc
imprison
restricted
cubic
survivor
Karl
Tarahumara
jeans
uncont
bounce
enzymes
undergraduate
intrinsically
incorporate
Eighty
schedule
Hopefully
denser
underestimate
Extreme
Hirosh
lexic
suburbs
hippocamp
racism
Copernicus
Motor
Pennsylvan
warehouse
triangles
socioeconomic
Arabs
Pearl
echo
cochlear
Arkansas
Stefan
catalyst
Connecticut
Cochrane
treadmill
stewards
milliseconds
acquisition
Sioux
enabling
sensitivity
exhilarating
Nicholas
Often
boson
louder
fingertips
Pepsi
Rouge
Video
Voyager
hilarious
marshmallow
Guatemala
Russell
##isciplinary
inspirational
improbable
DIY
Kepler
LHC
Taiwan
pessim
tougher
oftentimes
Thursday
unpleasant
apparatus
equilibrium
penicillin
Sarajevo
Pennsylvania
Ax
Ath
Aqu
Bat
Bage
Brain
Cost
Coh
Cuba
Diver
Days
Diam
Energy
Fold
Gill
Game
Hit
Hack
Hold
Hann
Jason
Juan
Kos
Kind
Land
Lea
Lank
Lunch
Liber
Libr
Luke
Ms
MM
Mem
Maps
Mister
Naj
Pin
Pay
Pitt
Pick
Rag
Rivers
Redd
Sco
Sty
Solar
Tso
Viv
Wol
Wang
Wood
Woo
Zip
ais
aims
ba
bot
bid
bol
cel
cater
cush
casc
deng
dug
dunes
eg
fM
firms
hug
huh
latter
lining
mash
mites
ply
pore
pist
ramp
til
uh
vague
wounds
yelling
zoo
##ean
##boy
##ihood
##trov
##net
##nity
##nical
##gically
##giving
##mail
##moor
##uj
##sor
##cats
##han
##hire
##wid
##zero
##CO
##EG
##án
thera
##atile
##atops
##atma
##rection
##rels
##esa
##esian
##alin
inh
##itations
##arse
##otte
##vet
weaker
reim
##etary
##stru
Thousands
Andy
quir
##igers
quoted
forage
forged
wasting
##itha
##oler
##olate
##olia
##olera
anch
liking
livest
goats
##rack
prince
##adores
shade
shipped
notions
##ulator
fridge
hect
dele
conform
##umann
##istine
lovers
knit
proving
outwe
##inkering
##eryl
spite
spouse
spike
upt
##cia
plut
plotted
##ivation
##emia
sug
veins
compost
##ousy
leaks
exposing
##agement
feat
##aching
residential
##ipe
imposed
imposing
partial
coco
disk
disintegr
backp
ponds
##iretrov
idiot
acre
underway
fond
humid
blast
commons
commute
commander
##play
grams
incomp
smashed
Chim
flick
flipped
flaws
surrog
wells
systemic
crater
crunch
lett
invasion
remed
enduring
endlessly
##peut
powerless
transnational
gravel
Short
polite
founders
strive
strips
stripped
slave
slices
slime
develops
creations
modify
placebo
serial
servers
extr
planner
edited
##awi
##airy
handwr
projector
reporters
entity
coup
singular
accidental
Isa
monthly
warmer
warfare
preserving
##irlwind
##prop
roommate
governed
adds
painter
Already
posit
killings
forens
filed
condem
waist
waving
assured
assault
treaties
Arts
refine
Canal
thirdly
Brothers
listener
voic
typed
auditory
neurologic
bottlene
extraction
protects
##appropri
depict
performer
performances
antiretrov
nonetheless
Beat
supports
Pros
Pran
Program
superher
grounded
Rezero
##boat
essay
experimenter
Norse
meaningless
suggestions
firefly
League
ruled
snap
predictive
marries
similarly
sells
definitions
Dev
balloons
Donald
activism
Johns
attacking
institute
1993
passionately
mechanically
Amsterdam
exceptional
Carter
translates
Geoff
Club
progressively
ruin
##ennium
fixing
assumes
virtuous
bombers
2013
sweep
determining
Robinson
starving
respectful
randomness
1986
achievements
breadwin
controller
##shine
interviewing
Sean
salmon
selectively
campaigning
Neither
Suf
taxp
tensions
Russians
Against
homosexual
streaming
cheaply
bleed
blended
rewarding
triple
##flix
dominance
vegetation
defending
clicks
bombing
cognitively
succeeding
Egyptians
neurosur
discou
belonging
peaks
Report
towers
containers
Tele
migrant
complained
prevents
preview
mythology
conductive
displayed
manipulated
rigged
heights
establishing
seminal
submitted
inherit
gratefulness
##retched
Morning
Malcol
contempl
replicating
navigation
Freud
Freeman
graduates
gamma
rejection
shells
converting
permanently
intuitively
##keeper
attended
attendance
collapses
rubble
pediatric
initiatives
explosions
coded
##iasm
stretched
gallons
Jimmy
chapters
anticipation
descriptions
attempting
##urdy
Current
Intel
Mahatma
extremists
puppets
##ambia
greed
Boys
Player
Helen
legisl
Tasmania
helicopters
immunity
fertilizers
Author
gratification
glaciers
catastrophe
chimpanzee
Fifteen
Mountain
gigantic
enterprises
Better
Millennium
composer
interrupted
skeptic
Netflix
nerdy
outdated
wrestle
intimid
contagion
asteroids
enthusiasm
Walmart
sulfur
guidelines
physiological
Turkish
cabinet
reinventing
Knowing
marginal
shouting
mockingb
substantially
Linux
hints
lifelong
underestim
Behind
ferment
fishermen
resurrect
Broadmoor
casualties
dyst
nuanced
exponentially
maternal
bioluminescent
Hindu
tutor
thoroughly
reunion
peanut
psychiatrist
telecommunications
enthusiastic
tiniest
orbiting
locomotion
Local
Picture
bipolar
lyrics
corridors
biomaterials
bureaucratic
DARPA
Laboratory
suburbia
Aurora
Ukraine
Stockholm
biochem
prescription
wreck
reluctant
Guardian
doctr
attorney
encrypted
Message
larvae
Anthony
reconstruction
Laptop
unhealthy
browse
transducer
nanoscale
oblivious
Mathematica
gossip
livelihood
unthinkable
auditorium
antidote
multitasking
WorldWide
Exactly
hippocampus
Bageye
Library
dengue
fMRI
therapeut
reimagine
livestock
Malcolm
66
750
89
Actor
Ages
Bare
Bach
Bever
Bax
Birds
Cou
Cass
Cars
Cultural
CIA
Cynth
DR
DM
Dist
Dry
Dire
Et
Ent
EEG
Fear
Farm
Gap
Hat
Hur
Huck
Hero
IT
IK
Ign
Ju
JR
Jere
Jess
Jamie
KB
Kid
Koh
Karen
Kiva
LG
Lion
Lower
Laur
MO
Mind
Mard
Mub
Mull
Mosc
MBI
Nation
PA
Pra
Pasc
Ric
Rub
SI
Sac
Spl
Search
Sever
Seth
Sounds
Sadd
TM
Town
Tric
Troy
Ut
Von
Vill
Wide
Wars
Wales
Woman
bog
bass
bumble
bibl
cab
cue
dairy
erosion
fitting
fills
fierce
gur
gau
gaze
hust
hatch
hives
harsh
jars
lam
mans
nod
ness
nich
pic
pac
rage
rider
sings
tire
tang
tipping
von
vet
vapor
wage
zip
zeros
##aa
##rd
##rate
##riel
##yll
##lav
##bar
##bly
##burn
##iology
##tin
##nish
##nals
##mies
##math
##minder
##uble
##uated
##vory
##vably
##oing
##curity
##horn
##frog
##zone
##AA
##OS
##eratops
##inid
##inance
##inative
##initely
##atan
##atis
##atized
##oul
##ington
##onal
##enance
##anne
apes
##oria
##orable
##alo
##alance
inability
##arn
##arity
##arak
##icides
##llip
##owan
rear
reign
##etts
##sea
##seus
##semb
Though
stam
##cended
foraging
##erey
##opol
##opran
##opedic
##imental
semen
sealed
prizes
##terior
##ader
##adder
shook
whatnot
##ilage
excuses
hex
chk
cholera
congr
concussion
##cking
##iflu
knives
proves
procl
teap
outp
outf
##unks
##usetts
spine
sponge
spotted
spikes
##ppy
thinker
enfor
##elve
bye
byproduct
intoler
##ems
##osevel
##ousing
levers
leaked
##agne
periph
Inuit
Incred
##ndering
##achusetts
agr
whereby
twin
unac
unified
needing
needles
##ipotent
impulses
##roç
##roves
coins
disson
disprop
##iba
##ateral
##centure
betting
moons
differentiate
bliss
blues
##cond
Heather
##formed
grief
incons
scru
Chop
offensive
##ordial
persons
flown
decon
decisive
indef
drople
invaded
womb
guest
endurance
insignific
baseline
relies
transf
graves
Shah
instability
mighty
eman
poles
##aki
##ocy
##uccess
imaginations
sliced
moderate
monsters
metropolitan
metrics
waterfall
lightweight
demoral
reperto
engulf
biases
entit
openly
subd
corals
animate
solves
headache
cleared
preservation
TEDster
valves
tops
##arrow
confuse
##idding
curtain
detr
stuffed
camel
restored
restoring
proposing
prophet
devised
costly
swap
workshops
##pective
wax
assert
pasting
Doctor
##ucking
payload
collects
resulted
secre
reflex
frontiers
aviation
measurable
neurot
missile
##pson
##ometers
##tedly
microp
journals
shortcut
extracellular
freaking
optic
psychotic
tempor
1800s
violation
violated
limbs
Prog
embark
embroid
presentations
grounds
groundbreaking
multid
photographic
calibr
filmmakers
encoded
consumes
destined
combining
smartphones
geck
geographical
pollinate
##iked
internationally
arriving
arranged
guessed
predicts
technologists
promotion
peacekeepers
transforms
touches
estrogen
urges
textile
visuals
ballast
terminal
visionary
1991
searched
cleaners
cartilage
primordial
unfamiliar
mounted
epit
misc
electrode
vaccinated
Claus
speeding
barrel
damaging
rupe
##ennial
##ennett
pushes
packing
rainbow
appearing
Advent
efficacy
Anything
publishers
troubling
##ylum
slightest
calculator
portable
ineffect
thriving
continuum
souls
fragr
1988
demonstrating
throws
ethn
synapses
##rogram
##backs
Parad
Seventy
automotive
webc
tradeoff
simplify
Iraqi
motivations
motivates
verse
Eden
lawsuit
customization
pleasures
Neuros
Indiana
blogger
integrating
broadly
fueled
hangs
puzzling
rebel
reconfig
demanded
crux
cruise
homem
hairs
Marshall
bulk
contacts
contacted
wearable
Glad
repeating
Desert
toughest
##versely
shelters
Elvis
wirelessly
Artist
tourist
Simple
prototyping
dials
adopting
digitized
fellows
gridlock
acceleration
grabbing
Accenture
Pakistani
Polar
cereal
contracts
analogies
scarf
##ovo
Islamist
skelet
Fourth
1957
rotating
encourages
##ausible
gaming
gamers
anonymity
madness
flags
devastation
whistling
triggers
dissent
Grant
Patent
bribes
Monterey
Seriously
Critic
blanket
Buff
irrigation
refrigerators
guts
leapfrog
Antarctic
yields
tolerant
tolerate
floods
crashes
Mao
##otechnology
Charlotte
crackers
concerts
seduction
foolish
decreased
slee
Bono
delicate
sprint
unbelievably
Control
renewables
geek
holistic
obligation
Evelyn
psychopaths
psychopathic
Osama
widow
##ixty
##guard
Collider
Mountains
incidentally
emphasize
accomplishment
Judy
tearing
Neanderthal
Hadron
Sandy
aerial
alpha
sponsored
perceptual
adapting
caregiver
Libya
Roosevel
arrangements
oysters
Teacher
droughts
wondrous
interfere
drowned
genuinely
scooped
miniature
Government
ingenious
sewage
conquer
Company
Honor
venom
offenders
immersed
Hunter
Tamiflu
vividly
##orrh
shattered
manufacturer
ventilation
Ellen
shredded
orangutan
Bonnet
unleash
deterior
Film
Hirsh
undermine
altruism
heterosexual
##theid
carpenter
exhausted
inhabitants
Awesome
Massachusetts
insecure
Legos
feminism
correlated
anecdote
symmetry
dividing
legendary
transistor
numerous
pissed
scalable
incarceration
Casey
Raise
pixels
##rochemical
adulthood
wrinkles
accommodate
legitimacy
Papua
Service
alarming
Mellon
sanctuary
rehears
Philippines
certificate
Bahamas
Bloom
Fields
Mechanical
throat
landfill
illiterate
Commandments
unnecessary
Odysseus
Fantastic
Gordon
junior
Innovation
testimony
miraculous
inexpensive
Holland
Naomi
dazzling
eBay
juris
municip
##zschild
wetsuit
##oseconds
stratosphere
nanotubes
Agnes
Further
INCRA
Schwarzschild
Gillian
Hitler
Scoop
Zipcar
outweigh
Beverly
Baxter
Cynthia
Gapminder
Mubarak
Moscow
Pascal
Triceratops
congrat
periphery
disproportion
repertoire
embroidery
Roosevelt
56
71
88
Amb
Abor
Bear
Bagh
BBC
Cat
Cut
Cir
Cook
Der
Dys
Edd
Fab
Fah
Fortune
H5
Hand
Hands
JK
Jar
Java
Ka
Kn
Kin
Kas
Kap
Kite
Knight
Las
Low
Lisa
Must
Made
Mush
Molly
Nie
Nope
Need
NSA
Pia
Pier
Pants
RO
Ren
Ret
Rest
Ruf
Riley
Side
Toy
Vo
Vent
Wired
Years
Zet
airst
bim
bark
batch
cer
cuc
dum
dated
dune
danced
erase
fences
fuse
gently
gears
gyrus
hes
hid
hull
hoo
icons
jets
jams
jeal
jumps
kings
masks
nour
nost
noun
nests
narc
ozone
pod
pork
pots
paj
pads
rav
raging
sopran
tinker
umb
watts
##aes
##aic
##aft
##eur
##rated
##yg
##ym
##yles
##ba
##bish
##bao
##iy
##iants
##ti
##titles
##IP
##pse
##pable
##nan
##graph
##mo
##mel
##master
##sis
##sburgh
##vol
##oze
##cur
##wick
##watch
##wright
##ds
##dies
##fa
##fur
##felt
##journal
##TS
##ER
##és
##inos
##atable
##oufl
##rell
##onel
##enberg
tomb
apt
apar
inappropri
##isol
##itious
##arial
##otics
##asis
##icular
##lements
whaling
bearing
reception
relying
reorgan
##etric
##entiful
hay
##sem
##seeable
onset
##ayers
##stick
##stood
##steps
##idays
##igate
##urated
stitch
##oping
##opian
##opsy
##amy
##ols
anth
withd
##thet
##ravel
##adic
mega
meerk
meadow
##gel
##antom
socks
##ustion
##estial
##aux
##cker
##umi
##umn
##ureka
maid
prohib
##ected
alleg
##alled
##usively
spam
spong
##ieu
##ieces
trump
upwards
enact
placing
plentiful
Whole
##ogh
##astrous
suited
##izens
compass
##aba
##abb
##abs
##abel
leash
##agasc
expo
expend
##udge
twenty
unravel
##roids
muff
diseng
dissection
disastrous
interfer
interference
intertw
poetic
underdog
##veland
##odynam
##ells
##ellar
prehist
desal
desks
boil
boils
amen
differential
syll
##ickr
blamed
bladder
downstream
##places
brink
briqu
rooft
Chen
Chap
Challen
Change
##phem
##ileo
flute
flashing
flutes
greatness
cray
cripp
technician
guided
##avior
##avored
longing
creatively
##ewr
bases
opaque
obtain
examining
powerfully
understandable
Shame
Sheryl
carb
carved
gluten
##akery
conserve
appalling
datas
##othy
crest
monopoly
101
fours
##issors
patron
growers
202
medi
finest
waterfront
lightbul
readily
lesser
exploding
bookst
elusive
##ondr
biography
skies
accord
capacities
##swana
solitary
electoral
warn
preserved
speculation
governors
Anne
distill
distort
distress
confess
confession
confirmed
educator
photographing
youngsters
oppression
##works
##ographically
restorative
succ
defect
classification
empt
##ashy
foremost
forehead
devotion
Early
hearted
heartbeat
costing
swear
paran
retr
retinal
advis
collector
resulting
crab
##ophys
province
provoke
holders
typewr
neuro
##pshire
archety
grandma
microw
predomin
fearless
depressing
handsome
practition
Beyond
limiting
superp
commonplace
sunshine
plea
strongest
chemists
##ipper
weekly
401
Mayan
Mayor
photographers
Reb
cybor
cycl
coolest
impacting
impacted
versa
##ermat
firemen
vacant
harass
Lev
shoved
shoots
posting
##ika
guessing
Speaking
sniff
conflicting
margin
competitions
similarities
visualizing
tablet
sonic
reacting
fluent
attacker
Among
##strong
blindly
positively
threatens
participatory
TVs
admired
influenz
positioning
universally
depended
clinically
2015
mistaken
wildly
cookie
judging
troubled
Blog
smelling
smelled
170
concerning
Robb
inefficient
enjoyment
geneticist
continuity
hurry
Likewise
1982
1985
sampling
prosthes
penny
customs
hunters
addresses
spectr
salaries
automation
##owden
skyd
historians
Danny
verify
wealthier
1973
1979
mutant
lawsuits
scrut
scripts
Neumann
liberated
strengthen
Enlight
lacking
cognition
brilliance
1962
1965
shipyard
illustrated
dominate
hosts
##ochondr
Swedes
defeated
Thanksgiving
bombard
artificially
stimulated
antibody
ratios
interpre
discrete
discarded
Flickr
bandwid
titled
Tomorrow
Barn
perceiving
implicit
indication
indicating
indicates
exhibitions
Darfur
sights
cartoonists
extracts
extracting
cowork
irreg
containing
recycl
palette
colonial
constructive
melted
reinforce
conducting
manipulating
unsafe
lifts
emergent
nursing
improvising
disposal
encounters
adventur
submers
pipelines
Emmanuel
aggression
disappearing
interpreted
##ihil
witnessing
confrontation
Malays
Malaria
rotate
replication
##world
rhythms
fifty
cyberatt
Gabriel
graduation
spirituality
whistles
suicidal
memorize
##iatry
knocking
desperation
Designer
mentality
pools
injected
365
aspire
downloaded
casting
tackling
##ximity
prostitution
infinitely
deployment
##inois
crashed
disturbed
stacks
cockpit
Transcript
execution
executives
advocating
advocacy
derive
marched
champagne
polymer
crafted
mosquitoes
Madagasc
kissing
sandwiches
extremes
Galileo
stunned
spells
Hampshire
bonob
lobes
precurs
honeybees
diamonds
intentionally
delightful
triggered
defenders
nutritional
clarify
blessing
redefining
wounded
diffuse
Nicole
settlements
monitored
joints
suspects
Palestinians
Rockett
casually
incorrect
##ocaust
Medicines
bothered
toothp
delayed
degradation
pancreas
1918
Lebanese
unconsciously
automobiles
butterfly
dentist
possessions
recipient
Governments
Subtitles
dyslex
analytical
revelations
Strange
manifestation
taboo
forbidden
ventilated
dupl
Planet
deprivation
loyalty
Terence
Environment
Environmental
Windows
ribbon
yoga
yogurt
lexicon
exponential
suburban
embryonic
acoustic
recruitment
bioluminescence
thyroid
dictatorship
dispute
Friedman
dispersed
antennae
Botswana
Gallery
IMF
disparate
incubator
surrender
indirectly
occasional
Midwest
Pyth
rectangle
appetite
seamlessly
escaped
ESG
Gayla
Leaders
Vinci
cortisol
##screen
orthopedic
contaminated
proliferation
Jamaican
MP3
comprised
strangeness
empirical
mortgage
dysfunctional
Illinois
Klein
apocaly
trafficked
multimedia
Picasso
moisture
disagreement
NIH
plummet
epiphany
Barbara
Sergey
nickname
Bilbao
Certainly
Ottoman
crocod
daunting
ounce
Hebrew
Armstrong
turbines
atmospheric
Hiroshima
pessimistic
Cohen
Diamond
Kosovo
Pittsburgh
Riverside
Reddit
celestial
plywood
backpack
surrogate
antiretroviral
Barefoot
IKEA
Splashy
teapot
microprocess
gecko
ineffective
H5N1
Mushroom
Rufus
Toyota
apartheid
meerkats
##odynamics
bandwidth
Madagascar
05
92
Avenue
Bit
Bion
Balk
Burn
Boom
Du
Dod
Dru
Dance
Dark
Delt
Easter
Eames
Fat
Fight
Fine
Gam
Gif
Giving
Grey
Granny
HC
Hem
Hud
Hurt
ID
IC
Joy
Jobs
Kw
Kend
Kabul
Kerry
Lind
Lock
Liter
Living
Mun
Mong
Mak
Mik
Mission
NF
Non
Nam
Oz
Oil
Opp
Offic
Pach
Pav
Pool
Pope
Person
Rot
Rena
Sau
Sag
Sene
Success
Til
Taking
Tweet
Ve
Vel
Venter
Winter
au
bun
bise
bounds
bait
banging
ded
dub
dull
dances
etern
euros
eureka
fount
faked
gle
groom
gurdy
hers
hive
hoc
jum
kar
kits
kett
lust
latr
lava
mes
mars
moth
mism
motto
pave
pier
puls
paus
ration
rushing
riots
sap
scent
sorrow
saus
siege
tan
tub
tucked
tigers
vic
wob
##aism
##rne
##lier
##lider
##bes
##band
##In
##pill
##peak
##nick
##mi
##mor
##mons
##mudd
##uis
##vention
##vana
##oac
##oxy
##cale
##hed
##din
##ders
##dala
##xon
##jan
##TO
##HO
##RN
thorn
##eror
##inn
##inology
##atra
##osia
##restr
##inge
##onie
token
apathy
##orient
##alan
##alians
ingest
##otional
##omer
##aser
##icse
##icultural
wholes
beard
##utans
##utiful
weld
rept
rearr
reju
##etal
##ston
##stock
Thai
Andre
quar
##ignt
##urches
stark
stats
stigm
##chest
##ceived
##irvana
##imi
##imited
##amation
##ameless
##amorous
##olith
dove
dock
##ths
##thest
gogg
##rawl
segreg
cans
asylum
##htaking
shores
##oulder
noted
notation
##ilst
##ilitating
chalk
chatter
churches
pend
pepper
oral
##uman
maze
##istribut
##ifiable
knot
proc
proximity
teens
##unci
##usc
spokes
sprawl
##ieber
trillions
seeks
##ciating
##ciences
enlist
plur
plural
plumb
actress
intimately
##ouri
suite
sucked
compelled
compatible
##reates
league
##agra
##idepress
perme
manus
mania
Nowadays
agon
cloning
##fee
une
unintend
ark
arises
##ryn
coer
overest
disbel
dischar
dissem
##assum
intermedi
##acer
##acies
##ibi
newest
##ensible
poo
undergoing
undersea
betray
daylight
daycare
##ruciating
adage
adren
desirable
amyg
##ecy
##ickets
blunt
blaming
imitate
##othermal
committee
##ishes
bron
brig
##athetic
grilled
incap
incidence
incidents
scares
scandal
scissors
smack
Chan
Choice
crammed
cricket
drank
dried
drift
simulated
guides
aftermath
personnel
##eworm
obey
lastly
examined
##erts
grapp
carn
glor
glands
emulate
emitted
##ocke
imaginative
slot
slows
questionna
##azine
##issipp
metast
centigrade
##ceptions
edition
changer
##awatts
Myc
repos
republic
regist
runners
suppressed
skier
coumar
headphones
headaches
populated
auto
setup
valleys
Anonymous
##derabad
esp
protons
pains
resting
restrain
markers
Allen
proposes
##nova
pictured
devoted
heartfelt
sword
swept
swoll
magically
parabol
wakes
assass
ordering
excav
excruciating
awak
affirm
affairs
payche
Friends
viewpoint
risking
crave
##ophobia
complexities
provoking
clearer
messaging
holder
difficulties
audacious
interacted
collagen
archives
archae
blackboard
fearful
papercut
optics
performers
psyche
antique
antidepress
Tox
hyena
template
supernova
suns
sunny
sunset
communicates
perfection
Reagan
##nya
footsteps
Yesterday
encode
encoder
pressed
fireman
facade
##ouched
Leo
geological
Byrne
polling
civilized
##ikh
arrival
dimin
snob
snip
policemen
policeman
appliances
silently
Southeast
astounding
##books
seriousness
definitive
##oids
evolutionarily
termites
dangerously
necessity
reacted
reactive
breathtaking
wished
##ynthetic
##grass
crossword
Amanda
Computers
threaten
armies
contexts
contextual
diner
ecst
Clonie
admin
Marx
Davis
ruined
spiral
packs
influential
rainwater
temperate
Adm
Adv
employing
debates
closes
2014
linking
correction
13th
Blair
Block
smelly
struggles
capitalist
Harbor
Robicse
enjoyable
thrust
starve
Agricult
catadores
##ilingual
unlimited
heroin
Hispan
Exxon
Perry
##clair
forgetting
photojournal
logistics
displace
customized
Michoac
symbios
liberating
doubts
Suz
##eddy
correctness
infrastructures
puzzled
rebuilt
Paulo
utilize
##comed
##flow
Minnes
hostility
rounded
Goodbye
millimeters
Moreover
axe
intellectually
clicked
substances
credible
dieting
brilliantly
oddly
stimulating
tailed
incentiv
gardening
discount
investigated
investigations
metaphorical
Prov
dialect
maintenance
belonged
desertification
smiley
Moving
merge
palms
tallest
vibration
constructions
migrants
melts
mystic
warmth
unders
CERN
Khal
Monkey
flowering
hover
##castle
consistency
regarded
Morgan
rotates
replicated
##etrical
observer
Commission
premium
1949
flashes
assignments
storytellers
declined
embarrassment
seniors
thinner
establishment
mimicking
beaches
welcomed
converts
implementation
mentoring
bribery
pillow
featured
Serra
attending
collapsing
cords
rubbish
aspiration
castle
pedal
murderer
Burma
prosperous
refrigeration
Sixth
pretending
flooded
galleries
Transp
accumulated
accumulating
railway
wrapping
enhances
enhanced
algorithmic
nonprofits
census
lenses
coordinated
extremist
hallucination
pounding
anthropologists
spelled
sparked
Belg
Hamlet
greedy
Board
Slow
Yemeni
fetuses
administrators
stereotype
Cleveland
purchases
purchasing
dynamically
dragon
thermo
borrowed
queue
##uminous
immunization
Autonom
Hyper
Hyderabad
hierarch
pyramids
supermarkets
Collins
Missouri
Mississipp
bells
discrimin
Judge
Judaism
wetlands
composite
Compare
annoyed
bloop
CDC
Surely
sponsor
interconnectedness
capturing
warrant
membranes
doodle
browsing
divorced
Jacques
prolong
whistlebl
spraying
exercising
alignment
reassuring
stakeholders
complaining
Normally
democratization
immersion
lawns
gelatin
unconventional
summarized
Evil
Federal
Linus
Nazis
savvy
undergraduates
pheromone
empathize
perpetual
Georgia
Mozamb
exaggerated
hurdle
Hotel
jargon
linguistic
sovereignt
spoil
enlightened
flawed
aspirations
soda
regulatory
skiing
1858
feminine
crowdsour
shrinking
Copernican
disclosure
presumably
sacrifices
divides
suffers
transistors
penetrate
Books
arousal
haunted
drifting
consolation
recurrent
occasions
Harris
Infinity
prevalent
aggregate
Bandura
courtship
Colorado
utilitarian
freedoms
mutilation
carcinogens
Beautiful
Femin
erectus
##oteric
cannib
comedian
tenderness
microRNAs
Architecture
Faiza
Growing
festival
unrelated
scattered
fulfillment
reciprocity
Irish
savanna
contamination
biodegrad
subsequently
trustworthy
Sinclair
vector
hazard
reservations
perseverance
cafeteria
Achilles
Kentucky
pavilion
##giene
##idelity
sobering
congress
cellulose
eyewitness
programmable
Axis
Hannah
Lanka
Najmudd
Vivian
caterpill
sugars
Prosper
Jeremy
Jessica
Several
gauge
proclaim
inconsist
deconstruct
neurotrans
temporarily
Progress
rupees
fragrance
webcam
jurisd
Aboriginal
Zetas
cucumber
soprano
bookstore
typewriter
superpowers
Rebecca
influenza
Enlightenment
irregular
Malaysia
Delta
Mongolia
Renaissance
Senegal
bisexual
rejuven
##chestra
goggles
unintended
disbelief
amygdala
coumarin
swollen
paycheck
Robicsek
symbiosis
Minnesota
Mississippi
Najmuddin
49
63
62
73
AC
ABC
BC
Bin
Bad
Ball
Bund
Bond
Bio
Beth
Cust
Cell
Cub
Corn
Cash
Crow
Coming
DH
Dear
Div
Diction
Duke
Daddy
Eb
Equ
Eiff
Fer
Fest
Fish
Foot
Gib
Grad
Gala
Gowan
Gogh
Hor
Hay
Hod
Hers
Hus
Hab
Hills
Hipp
Hunt
Hoff
Happiness
IQ
Istan
Ja
JE
Jet
Kant
Lim
Linda
MW
Marriage
Ni
Nad
Nano
OM
Pas
Pain
Pine
Page
PET
Rail
Ranger
Roll
Raj
Rule
Ready
Rocke
ST
Sant
Song
Sue
Sound
Sting
Sug
Saf
Sixty
Tu
Tide
Tulu
Wa
Were
Yep
Yah
Yug
aur
aver
aids
aversion
bod
bury
bleep
baking
busted
bidding
ced
cured
cubes
ding
dut
dere
dermat
fitted
fidelity
gum
gast
hence
hitch
hij
icy
kr
km
kites
lith
litter
lonel
mart
nob
nugg
por
pse
pine
pater
porous
rally
rag
rud
rang
ridd
rival
sid
sank
tides
ticking
ul
vant
viv
wigg
wretched
##avers
##kar
##kut
##kirts
##eer
##eons
##run
##rob
##rates
##bot
##bies
##bus
##bro
##bac
##iary
##iably
##pical
##petr
##nas
##gate
##gram
##uper
##saw
##vo
##oit
##hift
##hov
##wired
##western
##dad
##fol
##ji
##jac
##ML
##OC
thirty
theor
##erial
##erator
##atization
##oni
todd
tobac
##anna
aph
##orum
inad
inward
inversion
##isp
##arg
##aro
##icist
bean
##uter
##uted
iter
iteration
reint
##ctuation
hail
##sein
##aya
##aying
##stal
Android
qui
quarks
quorum
##uri
stif
stance
stead
stared
stamps
##chi
##oppy
##iry
##aments
##olo
##olingo
abusive
goose
##rand
seiz
segment
##odox
cance
pricing
##tering
asy
asph
##adus
##htub
shack
shave
shield
shiny
shalt
shaft
##geons
neph
necr
##illary
##antically
soar
soils
socket
frater
fried
framed
##estant
alliance
exacer
heels
##ights
peel
peek
conve
conco
##artu
##arted
maf
##ista
knob
usable
proverb
##inders
outlet
outlines
outlets
##unning
albe
aliens
##inky
spy
##ppers
##iely
trance
upward
upright
##orts
##eli
##elope
pled
plumes
plugged
intra
intens
##ogene
##aphor
sails
##inee
workplaces
veiled
lend
##agging
expenses
tails
perpetr
donkey
feather
feathers
Invis
##acht
##feller
twent
resh
reset
resident
reserved
##ipur
##roads
armp
##ryption
coil
coated
buck
overboard
discom
##sels
poop
poke
poignant
conting
idle
##ults
acumen
underlies
prest
preoc
prelim
phases
##rup
deserved
desolate
boot
booming
bonding
##anks
humbling
##icky
##cock
committing
downs
brine
roast
rooster
royal
scars
scrap
smash
smiled
Cho
Chair
Chech
##angar
##yses
##ilever
flush
tragically
##renhe
##ndson
crush
crashing
##wey
##weed
drums
invade
invites
simulator
builders
##avin
Thankfully
##people
Stalin
examination
relay
graft
grapes
Sharing
glove
emission
playwright
##aky
##akh
##occo
imagines
##venient
slap
slang
slash
complement
modules
monks
1900s
seren
sermons
recreat
recline
Americas
medit
meta
meteor
behaves
possession
handled
demob
Univers
entries
suppression
skins
subset
futures
organizers
soluble
infring
inflate
infamous
Sheila
sociable
sociologist
warps
woo
governor
sounding
Anna
Animal
distraction
esoteric
redund
redistribut
Noah
photons
curled
chooses
videot
Newcastle
memes
profiles
charter
charitable
propulsion
defy
classified
##meister
Alright
locate
killers
foreground
devise
materialistic
swings
cheek
##getown
##ahn
excites
Dolly
retros
experimented
##ucker
advancing
1000
Ariely
##berspace
craz
increments
quicker
teamwork
teammates
diets
virg
##culus
absent
Ohio
void
neurop
illumin
collide
marketed
##ometric
delusion
delta
arche
improves
freaked
##identally
psychotherapy
psychiatry
colleges
hygiene
tempting
tempted
sourcing
Pray
Produ
joys
sunfl
embassy
##ippers
Mann
Management
cynical
cyberspace
specialize
encl
encryption
knowledgeable
considerable
summed
situated
squir
combines
##ermaid
PhD
darkest
worthless
softly
Lean
Left
geopol
pathogens
songwr
straps
strapped
hotels
##chief
ruling
snipp
villagers
benefited
competence
bedside
faulty
saturated
leaking
printers
tended
tendencies
activation
accounted
##ynman
##grown
##cussions
Comedy
participant
ridge
Cargill
misuse
Britann
vaccination
Close
admiration
barbed
cloudy
##enna
fixated
fantas
##uclear
Northwest
influencing
bald
ballet
characterized
uncles
employer
debating
debilitating
ignoring
secretary
Stein
Warner
judged
mathematically
troubles
Robin
ports
Trinid
boarding
roller
Plat
randomized
1983
1987
optimist
ranch
expresses
ethically
synag
fitness
controllers
##shed
##shmi
shocks
##oscopic
Perfect
motivating
multiplic
mutually
transporting
logically
targeting
scrip
Conc
wiser
Nev
liberties
##ettes
Smart
branding
Encel
iPods
pigeons
hacked
switching
hangers
rebell
##chester
Paula
##fords
invisibility
1968
grandmaster
lunches
spotlight
tasted
proudly
clocks
##hyd
quantify
intuitions
substitute
antibiotic
freshwater
microcred
preferred
circumc
discourse
Philips
mosques
dialed
maintained
Feynman
lifetimes
towels
exchanging
cowboy
latitude
merch
frustrations
humorous
Janine
compliment
summaries
flee
mystical
taped
referring
abstraction
##craper
Anton
splitting
Koreans
bathe
Quix
undoub
extending
jails
iPhones
sophistication
revenge
formerly
semic
transplants
##rophobic
announcing
Babies
dotcom
punished
Morocco
Malawi
contempt
criticize
navigating
thickness
1948
Amazing
barefoot
gamble
Democrat
Depression
pianist
instructor
memorized
welcoming
convergence
Generation
advancement
regeneration
astonishingly
Silence
injecting
Caroline
Getting
fragments
Mommy
scratching
aimed
stacking
attributed
Prego
weighed
bulld
bullying
Conserv
kisses
ubuntu
biomass
Jesse
enhancing
outskirts
coaches
extremism
pioneering
sprink
exploitation
Golden
##anza
protesting
disappointing
enthr
bursts
diagrams
Corpor
borrowing
awkwardness
Autom
hillside
stabilized
highlights
recruited
distractions
spreadshe
dumping
brutality
limbic
Boltz
Poetry
bathtub
philanthropic
Magazine
nominate
expeditions
consultants
Fifth
Survey
uniforms
tunneling
Brooks
pharmaceuticals
Daisy
Farmer
##ARS
whiskey
deceive
skeptics
awarded
##flyer
conceivable
immigration
immigrant
stimuli
CDs
Metaphor
Libby
hubris
settling
Aviv
dentists
dilig
lesion
leaning
embodiment
Hany
Jacob
restrictions
immensely
McChry
Erik
##glasses
##oirs
editorial
aligned
exclusively
marvelous
Journalist
horizontally
counseling
inclusion
Viking
barbec
janitors
##consin
orangutans
scheduled
empathic
magnetism
Creative
Rossy
densities
##uza
altering
detergent
Georgetown
Estonia
Holocaust
germs
napkin
reverber
angel
excessive
exaggeration
undermining
commissioned
Broadway
Budrus
##ranean
orphans
unveil
unveils
embryo
compensate
Shirley
prophecy
dismissed
ovarian
evaporate
inflamm
constitutional
announcement
Kaluza
##egas
peanuts
preacher
psychiatrists
misunderstood
LOLcats
aroused
styles
allev
drifted
insurgency
prevalence
skyscraper
Lucy
cassette
dreadful
##urfing
stirring
Passage
transactions
granddaughter
Question
Toby
dashboard
beasts
Incre
arguably
nonverbals
anomaly
feasible
cohes
preconceived
imbalance
energies
microfinance
fluorescent
pronounced
Wisconsin
inquiry
abdomen
abnormal
cherish
contracept
autobiographical
proportional
parameters
excluded
snapshot
counterparts
submarines
Typically
Nikola
Owens
Traditional
spheres
Whitacre
coherent
charismatic
Effects
apprentice
Altos
crawling
landmines
fluctuations
juxtaposition
stewardship
aisle
deleted
uptake
Pranav
mockingbird
doctrine
Cassini
Hurricane
Marduk
Saddam
guru
unaccept
dissonance
subdiv
secrecy
miscarriage
homemade
Hirshhorn
Baghdad
Derartu
Fahrenhe
Kaplan
Kiteflyer
nostal
inappropriate
intertwined
desalination
dataset
microwave
scrutiny
recyclable
cyberattacks
toothpaste
Duolingo
Giffords
Saunders
Sagmeister
wholesale
administer
Agriculture
Transparency
Belgium
Mozambique
Eiffel
Gowanus
Hussein
Istanbul
Rockefeller
loneliness
pseud
vantage
tobacco
inadvert
reintrodu
asphalt
nephew
exacerb
albeit
Invisible
discomfort
preoccup
preliminary
Chechnya
Britannica
Trinidad
Enceladus
microcredit
Boltzmann
McChrystal
Fahrenheit
2D
79
Airst
Aires
Athe
Bul
Born
Brent
Based
Bureau
Ce
Cit
Cond
Cup
Celine
Dog
Dyn
Ep
FI
Fle
Fow
Gor
Gould
Ground
Hob
Hole
Il
IV
Ian
JY
JM
Jur
Jans
Jung
Kur
Kath
Kurd
Knee
Lagos
MA
Match
Mead
Magn
Meth
Maur
Migr
Madd
Mermaid
Nap
Name
Nell
Nix
Oc
Occ
Oxy
Ola
Pa
PR
Por
Pack
Patt
Prad
Pione
Peters
Pinker
Pilot
Ridge
Rumi
Sally
Sach
Sony
Sina
Sisy
Symph
Sciences
Tree
Train
Tuc
Taj
TNC
Tijuana
Um
UE
Utop
Vas
Vila
Vegas
Wy
Wed
Words
Zone
bake
bacon
buddy
bakery
bilingual
cough
cerv
cores
caution
cunning
dess
dual
duct
eu
eag
euth
eaves
font
fuss
fission
gates
gasses
ginger
giants
hed
hic
hott
hides
jog
joking
kangar
ling
lure
lbs
latt
lumber
liters
lousy
oily
omin
pony
penn
pests
rug
riot
rusty
rés
trench
vine
wiz
yell
yawn
ze
##acial
##aires
##eks
##rig
##rant
##rise
##riend
##lest
##lif
##liness
##lankton
##iard
##iagn
##table
##tains
##nost
##nacle
##natural
##galy
##upp
##uish
##uces
##vens
##vold
##oS
##oqu
##ollow
##cracy
##crap
##cils
##hod
##hill
##hel
##hak
##with
##waters
##woman
##dy
##DR
##xter
##Ar
##AL
##CC
##CK
##St
##SE
##SM
##ón
##US
##Vs
##BS
##ão
thirst
thigh
theaters
thesis
##erting
##osy
##oslav
##inges
##onig
##onary
##onics
##onian
##enos
##enstein
toe
##esar
##esium
##anor
apex
##ori
##orp
##ority
##alm
##alam
inoc
##isel
##iscu
##ito
##itant
##itories
##arke
##omon
##asma
##iculture
##leum
##leable
begging
##utu
##ution
##uters
##uture
wears
weave
reintegr
##etah
##cture
haw
haul
onc
##step
quake
##igms
##igible
stap
stub
stung
##choma
fork
forge
forum
forger
forwards
forgery
forums
##opathy
wasp
##immer
##amel
##amics
liars
withstand
##thr
abol
abortion
sect
seized
##odka
prere
##terol
atroph
##geon
##illiant
notor
##ulent
frown
framing
Theod
extern
choles
deci
dexter
##auna
connot
conventions
##ateau
##okers
maim
maize
macr
##istical
lollip
proxy
outraged
##unal
spor
spins
spoo
##andan
##iev
troph
enlar
enrolled
##ainted
plague
someplace
##ivate
##ivia
##ivism
integ
##ours
##aped
suitable
vend
##acking
##abl
##abama
leaps
##anship
hass
manic
manure
evils
willful
##ilding
otherness
agnost
clap
claws
makeup
twists
unions
unpl
uninter
needless
reside
reservation
nood
imped
impending
arist
##reek
coating
cocon
coaut
overh
overf
overcon
disl
disgu
dislike
##ffy
backstage
interstate
interplay
##ibe
newborn
pointer
kinder
acron
acrome
##velength
##odyn
daytime
phantom
##pta
adore
boast
booms
amyl
##ecifically
bloss
imitation
brute
gras
writ
Cha
Chand
Chaz
offline
##tends
genomic
flame
flips
surpass
##onsider
wellness
childish
cries
##weil
invitations
simulations
builder
guests
removes
##nex
endure
helix
insulation
relent
grandson
Shack
Shaw
glaze
glamorous
politely
considers
turnover
pointless
##ocus
##veloped
communism
sled
slammed
crease
highways
modifying
monuments
recap
reconsider
mediated
centric
centimeters
economical
attain
handheld
hardwired
mindful
Myhr
runway
runner
healthiest
Unless
visits
supplement
skied
subord
##insula
formulation
##ggie
2000s
Isabel
solitude
infants
inflict
infused
electro
sociologists
presidents
##prising
Indust
woven
momentous
makeshift
soundt
Answ
Ancient
##arrot
##arried
eyed
eyel
curl
curved
cursor
##cripts
menstru
camoufl
charging
##iterranean
propos
defenses
classify
classmates
Alban
Alabama
empires
emperor
posing
devote
devoid
swar
swims
untold
freezes
50th
wavelength
Doing
Doctors
Friend
collectors
##bright
refres
teamed
provoked
Brun
Brilliant
messing
messenger
dealer
networked
misses
revis
revol
deathbed
predisp
journeys
eaters
protections
freaks
Yorkers
paperwork
depicted
deputy
handsh
nonin
Bees
Beck
hype
182
violate
Prison
superv
superficial
superintend
recorders
sentenced
sentiments
gradual
requiring
pickle
analyses
buyer
obsc
##borne
##borough
sleeps
causality
squish
combustion
favorable
##engine
darker
harp
critics
Legend
geographically
postp
degrade
conversion
##iki
telegraph
ruler
emerald
Speak
Specifically
snuck
volatile
prominent
marijuana
markings
soundscapes
benefiting
competed
seller
burnt
burial
##lett
Deb
birthplace
receivers
generalize
activates
fluids
microseconds
dropout
Instagram
blinded
carts
translations
##ancies
admission
barric
barrels
Schwart
packets
bomber
turtle
turtles
positioned
fascination
rainy
universals
universality
banker
bankrupt
stresses
separating
employers
circled
mistrust
effortlessly
cooks
judic
175
annihil
fundamentalists
Harvey
portfol
respectable
swimmer
hurting
hurricane
kilo
Plus
##ffeine
sampled
ideally
Abd
synes
penal
diagnoses
##shot
##shell
Seventh
celebrates
mixes
sequel
skyro
Exper
Excell
Meg
vulnerabilities
##uddle
1976
1978
##igruten
fatigue
fashionable
McM
McL
Mexicans
##afi
Neg
bubbling
doubling
##zeiro
Enter
Enough
foreigner
broadband
fueling
switches
seeded
manufactured
ambassador
homeland
torch
Pauling
paradigms
##friends
##atrick
1963
cheapest
Palin
recovering
mortal
sporting
Glaci
Guys
Gupta
##thesis
illustrations
volunteering
volunteered
Eli
masterpiece
safest
credibility
Simply
Simpson
unexpl
interpersonal
preferably
sculptural
Sunni
tickle
commitments
pursued
Barry
Barbie
##mmas
##holder
agreements
fellowship
finishes
polluted
accelerometer
indicated
Feel
academy
Talking
nanotechnology
Market
##asionally
brightest
##uhan
limitless
Juliet
migrated
summit
encouragement
microscopes
analogous
Valent
Samanth
lengths
lifestyles
occupying
shooter
inequity
disciplinary
witnesses
ancestral
overwhelmingly
regarding
ridicule
ridiculously
abstractions
Moral
rotten
comparisons
Committee
premier
harvested
Jackie
instinctive
elevators
graduating
##breaks
anonymously
dedication
wisely
surveyed
##iatur
seasonal
knocks
implementing
Singer
mentors
commanders
commandment
Silver
Student
dressing
kicks
Buenos
overlapping
fragility
prostitutes
mailbox
absorbed
absorbing
diplomats
Hansen
stretching
aiming
pumped
Gandh
marching
suppliers
accumulation
concluded
railroad
Intellig
seductive
coaching
coordinate
coordinates
Mediterranean
pioneered
fulfilled
greens
##organisms
Grandma
Ide
Ident
Milk
Ballet
Clean
geeky
bursting
Laramie
dismant
persuaded
persuasive
queens
neatly
persistence
Bolt
##warf
consulting
consultant
harnessing
Break
Economic
Economics
carrier
carrots
Daily
##rolux
megaf
validated
arrowheads
Panel
battling
saltwater
Road
tactile
Icelandic
binds
Developing
reconstructed
Teaching
Teachers
halved
trivia
comprehension
possessed
McCain
Ronald
acknowledging
corresponding
scaffolding
Bernard
Hasan
bureaucracy
conquered
outliers
Jordans
venue
##nesday
graceful
redesigning
democratized
episodes
counselor
Hunting
Randolph
rabbit
rabbi
volcanic
benchmark
Nathaniel
Skid
taboos
Electric
Electrolux
ripe
Tunisian
Creativity
Dragon
Behavior
Lauren
Recording
ranks
resemble
resembles
hurdy
calendars
aquarium
pesticide
chatting
sidewalks
weaknesses
Freder
Persian
Running
hippie
mitigate
mitochondr
compensation
perfume
unreal
impressions
Shirky
retaining
evaluating
Cruzeiro
conjunction
exporting
constitutes
neglected
Matthieu
Urban
Wii
nicer
reckless
disputes
tenths
subsidies
fiery
reversed
alleged
disparity
interdependence
surreal
consolid
locomot
championships
747
dodge
mandate
adversity
skyscrap
Eleanor
Maslow
Snowden
granular
escaping
Romantic
Insp
cliche
residue
brainstorms
mutilated
Tobago
lentils
##bags
psychoan
nonverbal
McGonig
Constitution
atheist
Foreign
Relig
voyage
deceptive
intersections
repetition
repetitive
Alberto
Alberta
Protection
Bowl
unchanged
disadvantage
underwear
specimen
eyebrows
DDT
Sophia
##osophist
plunged
discontin
opponents
treasure
arrogant
misconception
irrespective
gymnosophist
Nearly
mourn
intestine
humiliation
provinces
cycling
balcony
hemispheres
pragmatic
Denisov
Costa
Divergence
Leave
egos
lettuce
Shortly
positives
forensic
Beatles
Sufi
taxpayers
contemplating
skepticism
underestimated
District
Director
MOOC
Utah
Village
bumblebees
biblical
picnic
Incredible
scrub
insignificant
entitled
ethnicity
Paradise
Neuroscient
Gladwell
sleeve
Dyson
Jarrett
Voices
bimetal
podium
pajamas
umbrell
expenditure
briquettes
practitioners
prostheses
skydiving
interpreting
coworkers
bonobos
precursor
dyslexic
Bitco
Balkans
Hudson
Hurtigruten
eternity
mismatch
sapiens
##restrial
segregated
pluripotent
intermediate
whistleblowers
sovereignty
Galaxy
OMG
Yugoslav
paternity
toddler
mafia
armpits
prestig
serenity
virgins
synagogue
Nevada
undoubtedly
contraceptives
Airstream
Fowler
Nixon
Occasionally
Petersburg
Sisyph
Symphony
Tucson
Wednesday
hottest
ominous
résum
##hodops
cholesterol
spoofer
integral
overconf
acronym
acromegaly
amyloid
Myhrvold
superintendent
Schwartz
Samantha
skyscrapers
McGonigal
61
650
Az
Ald
Aich
Aren
Aung
Azer
Bj
Bed
Bog
Bose
Bue
Bass
Body
Bren
Bull
Bene
Bee
Bapt
Cause
Cave
DU
Dif
Due
Dise
Dak
Drew
Damas
Dhar
Eis
Ebert
FE
Fam
Fact
Flight
Fisher
GC
Gut
Gell
Gross
Grab
HAL
Iow
JO
Jaw
Kat
Kick
Kros
Kuz
KIP
Ly
LP
Ler
Lur
Lies
Liz
Lick
Mult
Malth
Mee
Mills
Mole
Mmm
Masters
MAS
NY
NT
NR
Nancy
Natal
Nirvana
Okin
Pate
Past
Pale
Pimp
Porter
Parents
PTS
Patrick
RA
Ran
Rah
Rup
Rita
Sy
SP
SC
SK
Ses
Sort
Spr
Saint
Safe
Suther
TH
Tse
Table
Tiger
UV
Umar
Viol
Vik
Vald
Went
Wag
Wong
Wool
Walt
WHO
Xia
XDR
Yor
Zur
akin
auction
bum
bree
bred
bows
cited
dared
daring
dotted
dwind
dwarf
eb
eer
eject
egal
ephem
ejac
fist
fare
fiddle
fats
fibr
fused
gir
gour
gaz
hast
hedge
iT
ivory
jaws
kicking
lig
lur
lamps
mop
mite
ot
pap
pious
pals
pins
pores
punk
rh
rou
rated
rented
ruth
rude
rounds
ridden
raced
rationally
rivals
sor
sine
sins
sush
saint
sarg
ting
ted
tet
tad
tant
tires
wi
wack
wrench
wolf
wicked
witty
yum
##aways
##eb
##eers
##eous
##rin
##rons
##rals
##rising
##yk
##lon
##lie
##lap
##bour
##bine
##birth
##bai
##ICE
##pre
##pen
##pop
##paper
##pret
##psy
##gated
##ggy
##gulation
##gling
##mad
##mets
##ui
##uer
##sen
##vian
##vented
##oard
##oise
##olyn
##wives
##dale
##dream
##fin
##fund
##zi
##zo
##zka
##PI
##PL
##DF
##jad
##City
##Card
##EP
##Sh
##Sec
##LS
##LU
##FO
##BT
##inis
##inci
##inence
##inning
##inement
##atre
##aton
##oso
##rez
##ingle
##ench
##anim
##anol
##anity
##aline
inund
inks
##edical
##isch
##itiba
##icion
whims
whilst
##utations
reimag
##eted
##enth
##secut
##ayan
##sticks
Thus
Andes
quads
##igator
##uro
##urer
##urman
stroll
stutter
stellar
##chw
wastes
##irming
##imm
##amer
##olunt
##olulu
doable
##tha
##thy
abys
godd
##raging
sevent
canoe
pristine
##aders
##adors
shru
shines
shove
shaman
shaved
shaky
Socr
comet
atroc
neo
##illings
notable
soot
sock
sofa
##ilizing
##ilocks
fries
franch
##ustomed
alloc
alliances
allocate
chir
churn
chops
chorus
deleg
myc
peac
consecut
##umed
loaf
##ifier
butch
outbreaks
##ection
alibi
##allows
spit
splend
sparse
truce
##heral
upgrad
uprising
whoa
wholly
yearning
plugging
plausible
Whe
Whirlwind
##apa
##apest
sailing
sailed
##emed
workings
veg
compiling
compuls
##abric
lev
legged
##answ
##anson
expos
##ongru
perip
##ardless
evac
evange
##uds
Invent
##achi
cler
clog
clutch
##feld
unint
uneth
unansw
nozz
impover
impatient
startup
arthr
partisan
##iah
coe
coy
bully
overe
overcoming
disas
discer
disfig
disorient
righting
righteous
##assis
interc
interrel
firstly
##ensing
ponder
##irection
##quet
bets
Thatcher
##ello
daydream
pretz
##berries
herb
adverse
desired
descended
boiled
amuse
ammon
humming
blade
blades
bloom
Heads
commem
##ishna
brass
brighter
incont
incongru
scum
##arko
Cham
Chief
factual
offense
##phony
genomics
floss
flavors
traps
trachoma
##onsible
brainwaves
induce
##reddies
crate
crown
crony
invading
involunt
remake
remedy
remorse
##peace
Stars
reliability
Shreddies
beforehand
believer
emits
emitting
polish
##atherine
##oczka
learner
##atched
slipped
questionable
ministry
mineral
miniatur
monarchy
monolith
103
sorted
##azo
##azed
##azar
recre
extensively
planners
median
medina
atten
handcu
hardworking
projecting
engra
regulated
Unilever
biopsy
visibility
supporters
funn
funnel
##oyle
passively
accustomed
##insic
shareholders
companions
formulate
futureless
##rams
infilt
numbered
headwind
cleans
warp
warmed
prescribed
##eastern
Independence
autumn
Forbes
amphib
opposing
oppressed
protagon
modeled
morals
badge
##ographs
charm
Allan
AlloS
##otta
propensity
billionth
billionaire
robbery
Earle
filing
swo
swine
swarm
cheetah
unto
parody
parable
paraph
waiter
Ord
Orig
Ornish
Orchestra
Orkut
awry
friendships
payback
Atkins
crabs
crappy
##ophony
##ophilia
mustaches
increment
diab
diapers
sexes
milestone
##retion
cancerous
Brits
babys
avian
clearance
messed
objectives
##mingham
##atorium
audible
massage
pottery
revolving
sensations
sensual
marketer
marketers
deluge
Euro
shortest
motel
motives
operational
frees
depress
antic
antelope
hyster
181
1800
Prom
Prop
Print
supernatural
recordings
multicultural
drawer
drawers
Rev
specialization
cooled
picky
travelers
buyers
##lton
##ltan
Twin
##borazo
bluegrass
eyeball
squat
squirt
modernity
modernism
hospice
privatization
##asca
critique
Bye
thankfully
pathogen
degener
conversational
##iker
telev
##uga
predictability
technologist
promoted
promotes
currents
astr
##ieth
similarity
urch
lifting
texted
textures
burrow
Johann
Debor
tablets
births
layered
safeguard
accountants
rocking
mobilize
divinity
pups
blindfold
##asket
laureate
Imag
riders
Carolyn
doorstep
mounting
translators
epile
electrified
contentious
ecologically
vaccinate
specificity
##rrrr
hospitality
Marie
Marine
Marcus
Martha
barren
Mostly
Afghans
spirits
turmo
skinny
dependency
14th
separately
sweating
thousandth
raping
weights
complications
lowered
determin
Blind
Blank
afforded
affordability
178
capitalists
policymakers
Robots
Robbie
familiarity
Trip
starlight
plasticity
colder
kilow
kilogram
##unky
magnesium
1981
demonstrations
malign
malleable
ranking
prosthetics
ethanol
2100
Drori
hunted
daddy
##uitous
resisted
##ulnerability
nutshell
panicked
celebrities
scanners
emailing
coffeehouse
Percy
centralized
##uddled
radioactive
Manya
Austrian
Australians
Edison
selecting
##renched
1974
1972
1977
##sonian
catches
troublemaker
candles
preventive
symbiotic
liberate
commercially
trafficking
Suu
Enc
Encyclopedia
Engel
foreigners
hacks
avoidance
horrified
tort
valuing
##atrice
1969
append
appealed
cooperating
mammalian
petr
petrol
tripled
Gravity
Heritage
tuning
tunes
negatively
breathed
bagg
documentation
Guy
tasting
habitable
epidem
hosting
hostage
mastered
Resnick
transmitting
touring
tourism
Greenville
Greenpeace
freshman
shuts
tailor
succeeds
Richards
garment
##incere
bandages
advertise
indicator
Fez
Reporter
Turbo
academia
informative
piled
pilgr
Adams
coward
irresp
latent
Moi
merc
merged
merging
Bergen
grandfathers
migrating
Polish
Political
reinter
tapes
tapeworm
qualify
grasses
circumstance
acquiring
Angela
nursery
transitional
bathed
intellectuals
Coal
licenses
licensed
minimally
billboards
heightened
dispens
illegally
murm
isolate
coalition
repairability
220
disciplined
astonished
cleverly
rotation
rotting
assembling
Alexis
Usain
vocational
1947
inputs
commenting
elevate
snowfl
Discover
Easy
USC
pitches
pitched
reframe
Particip
dictate
dictated
dedicate
execute
dissolve
dissatis
Designers
transplantation
Griff
Patient
bicycles
fossils
commandments
uncommon
clustering
##keeping
Torosaurus
blankets
tentacles
surfing
interconnections
absorbs
diplomat
diplomatic
##hasa
initiate
initiated
explosives
##criptions
wingsuit
gallon
imperial
advocates
deriv
polymers
Consum
geniuses
biomim
biomedical
cracking
Techn
compromised
fluidity
clinicians
suspend
Curiosity
Curitiba
censored
externalities
decreasing
CAT
sparks
sparkling
bonuses
bossy
bosses
prair
lobb
precaution
adjusted
springs
unhappiness
Goldilocks
Ideas
excellence
chiefs
persuading
tragedies
suspense
suspicion
thermodynamics
recommended
recommendations
schizophrenic
holidays
redefined
immunized
Model
Moderator
anesthet
highlighted
recruiting
skulls
brutally
marathons
Nicolas
catheter
width
uploading
observable
nomadic
sinking
Photographer
harnessed
Brenda
Blackberry
accomplishments
divergence
deceived
Understand
conceive
outdoors
Impossible
Imperial
Popcorn
Temple
aerodyn
sponsors
acidification
hubs
captures
Bayes
dilute
gyre
pirates
##ouston
Protestant
Hillary
Jacobs
Check
stripes
DVDs
Erin
Trying
cubs
spiderwe
1920s
Victoria
scaffolds
Berners
Kyi
cabinets
introverted
subtract
Honest
Honolulu
venues
offend
Annie
radiologists
Karachi
syringes
democratize
Lakshmi
Hawaiian
Evans
Viagra
unnatural
unwanted
carcasses
barbar
millennium
Tahltan
inhibited
Argentine
unfolding
Astron
dilemmas
deprived
unleashed
deposit
depositing
diagnostics
Esther
UNICE
pornography
ranked
tidy
uncovered
molding
hurdles
Budapest
linguists
exquisitely
enlightenment
hopelessness
exhaust
Embassy
nudge
##laration
pronunci
buffalo
slaughtered
correlations
Babylonian
Declaration
Kamen
Pupp
Peninsula
Pollock
Volta
rodeo
thyself
anecdotes
symmetrical
circulatory
postcard
recklessness
chunky
decorated
inserted
addictive
retrofitting
notebooks
meritocratic
CSF
Durga
IPCC
##mitters
haunting
scraping
recurring
volcanoes
incarcerated
Pictures
Verme
Wrong
lyrical
adulter
kidnapped
corridor
neutrality
Yellowstone
greeted
preceding
protocols
sneakers
Vincent
culpr
grocer
masse
rodent
vigil
residual
contradictions
transaction
brewing
Mohamed
goro
owning
pivotal
humpback
indulge
demolition
scribble
atheists
fleeting
Birmingham
Navy
Rhode
Summer
Titanic
bruises
uterus
anomal
spearhead
##abyte
feasibility
amputees
fluorescence
multiplied
multiplayer
WikiL
Geneva
bailout
caffeine
inertia
pellets
underwent
specimens
Engineering
eyebrow
Confuci
outsource
Austin
Lynn
Pentagon
cadaver
serendipity
uninhab
resigned
descendants
transgendered
extroverts
blueprints
ATM
naughty
bundle
appointment
centrif
turbulence
innocence
Batman
plutocracy
humidity
Chimborazo
handwriting
Isaac
condemned
bottleneck
breadwinners
homosexuality
marginalized
livelihoods
therapeutic
Hatz
Heroes
##sembly
##condition
Chopin
indefinitely
droplet
multidisciplinary
calibrated
Buffett
##orrhiza
rehearsal
Kaaba
Niels
narciss
muffin
syllab
Challenge
paranoid
predominantly
cyborg
Robbins
adventurous
submersible
Leadership
Makoko
NFL
Personally
hockey
plumbing
agonizing
adrenaline
bronze
repository
restraints
papercutting
antidepressants
Hispanic
displacement
Michoacán
underside
hovering
neurotransmitters
rejuvenation
Cuban
Hoffman
Railway
Yahoo
lithium
quieter
steadily
fraternal
contingent
meteorite
Universal
illuminating
squirrel
Quixote
bulldoz
alleviate
Increasing
unacceptable
inadvertently
Celebr
Sachs
lattice
decipher
overfishing
writings
soundtrack
swarms
handshake
portfolio
skyrocket
McLuhan
Glacier
Denisovans
Neuroscientist
umbrella
Aicha
Azerbai
Iowa
Krosoczka
KIPP
Licklider
Malthus
Patel
PTSD
Sutherland
Valdez
Zurich
egalitarian
iTunes
sushi
sargassum
tadp
peripheral
unethical
pretzels
ammonia
handcuff
AlloSphere
paraphrase
turmoil
aerodynamic
UNICEF
Azerbaijan
4th
51
550
Ain
Action
Bos
Bess
Barr
Bless
Bike
Bacter
Birth
Box
BAS
Bubble
CB
Cas
Care
Cage
Cool
Cels
Cole
Cabin
Culture
Cesar
Creek
Dum
Dall
Doc
Dream
Dai
Dennett
Doyle
EP
EL
Eco
Ecu
Evolution
Erez
Fis
Fas
Fild
Fern
Forest
Foster
Follow
Future
Ga
Gi
GN
Gs
Gray
G20
Gambia
Hart
Hence
Hood
Haid
Hutch
Horse
Hubble
Houston
IR
JS
JF
Jun
Job
Jak
Jared
Ker
Kan
Kra
Kare
Kool
Kings
Kerm
Kobe
Lut
Link
Log
Lars
Lying
Loren
Mes
Might
Mine
Meas
Mental
Marily
Mothers
Mistry
Maker
Mizz
Milly
Motion
Maine
Mitra
Nash
Nina
Opt
Pt
Pou
Ped
Pam
Pink
Pall
PSA
PRI
Petr
Personal
Pesa
Rid
Rout
Race
Ree
Rica
RCA
SH
Son
Sie
Sard
Sign
Sivers
Spect
Sala
SARS
São
Ta
TE
Tan
Tul
Tort
Tab
Tung
Terry
Tinkering
Ub
UA
UK
UNA
Vac
Veter
Vibr
Vulnerability
Wire
Wave
Wake
WIT
Woff
Witness
Yay
Zen
Zach
Zambia
aah
avenue
baff
cro
cures
curing
cott
dos
dur
dice
eul
erupt
fidd
ferry
faded
fauc
favors
fucking
fudge
gyn
gulf
gathers
ghet
gira
gaga
hib
holog
hike
ib
jig
kines
lid
luc
mig
mama
mason
noses
nails
nagging
os
ome
oops
oasis
ping
pens
pund
pouch
paren
parrot
rar
ram
rust
rum
ratt
rides
rapt
ripping
ranges
sincere
tether
tier
taps
tasking
tinkering
teddy
vom
vas
vest
vint
verm
vouch
wit
wig
wool
wield
www
xen
ya
yaw
zinc
##kley
##kina
##kids
##kheim
##elect
##ril
##rical
##rians
##rique
##rma
##rhodops
##yen
##yans
##len
##last
##long
##lah
##lined
##laug
##bin
##bid
##bart
##bach
##bound
##bons
##bread
##iose
##iations
##iks
##tan
##tis
##tic
##tale
##NES
##pent
##page
##nith
##nets
##note
##gone
##gens
##gger
##mother
##manship
##uities
##uels
##sa
##ships
##oided
##can
##cas
##cion
##card
##catch
##cott
##hem
##wing
##wait
##wIn
##fed
##fied
##fires
##zweil
##xious
##jin
##TH
##34
##SS
##Sense
##Script
##FC
thee
##erin
##ercussions
##inite
##inav
##inese
##atizing
##oulli
##real
##reach
##onim
##onte
##onaut
##enetr
##enburg
##anium
##orfer
##orial
##orously
##alry
##alism
inference
inhal
##isk
##isen
##isis
##itates
##ario
##otism
##omers
##icke
bef
beers
bends
beams
##utz
##utilized
weed
reel
reared
reusing
onion
oneness
##ldom
##stated
Thought
quas
query
##igman
##urious
stool
stret
stump
stares
steroid
##cha
##chel
##change
##changing
quoting
quotation
##cends
foragers
##opo
##opards
##opolitan
##imer
##imil
##image
##amish
##amins
##amorph
ank
liken
doom
doomed
##rable
##rawn
seab
seated
seating
seism
seams
##odiac
##odeling
canals
prod
ascending
##adij
##adema
neon
##illo
##illips
##ante
##anti
notices
notwith
##ulk
##ulas
##ulite
##ulars
##ilian
##ilization
##orecept
##ustible
##estyle
alligator
exert
exterior
heals
heats
chin
chimp
choking
choked
chlor
chassis
delet
deemed
pee
peb
Wealth
##artic
##artisan
##istence
##iffe
knots
knuck
tease
outgoing
outstanding
outreach
##unn
##usk
##ussels
spook
spears
##andinav
##ieving
tril
upro
##ortical
enl
ench
enjo
##elp
yearly
plow
plag
plots
Whew
Whale
##ivores
##ogl
##ogues
##ghar
##mented
sue
compression
compartment
##actor
timely
tapping
percussion
evid
evoke
willpower
##uded
##resent
feud
Incon
##achers
agile
clones
clinging
twink
twitch
tweak
twelve
unic
unim
unites
thanking
##ephel
impart
imposs
imperson
##roleum
arctic
buffer
overs
overly
overload
disqu
##ounts
backing
backdrop
inters
interlock
##acency
poised
poachers
##iren
contours
##ultures
acry
underb
underutilized
pref
phoned
evenly
amber
differentiated
humbled
##ickly
##ickers
##coc
Heidi
commuting
##inted
##intosh
##resses
##athed
grump
gripped
grizz
roost
scored
scoring
Chip
Changing
persists
flapping
humanize
childbirth
crum
crane
crushing
drip
drastically
invas
reminis
##iousness
imported
coloss
afterlife
aftergl
persona
##ailing
opium
Stu
Stra
Store
Stress
relating
reliably
powering
transitions
Shin
Share
Shelf
Shephel
carve
cargo
glows
gloom
emit
##aka
##akenly
pointill
imaginable
learners
stripping
slid
##othe
completing
highs
modular
mono
monot
monog
monitors
monetary
patented
recal
recreation
recuper
terrestrial
watercol
waterproof
readings
lively
edible
generators
##aleen
teachings
farthest
mindfulness
elation
elastic
elbow
eloqu
reprogram
repercussions
engages
bioc
biologic
biennial
entang
Aspen
openings
##ractical
funerals
##ontology
submer
coronary
animator
capillary
socializing
##auts
probable
headrest
warri
##prom
progressed
##perform
Anthrop
Anatom
##arring
tyranny
rede
Nov
photorecept
curse
curable
amputation
##crast
detached
sideways
##ortunity
listing
##ographers
lateral
##ooks
leveled
restless
girlfriends
propeller
##arently
Alain
Always
Alisa
Allend
foreseeable
deval
devils
heartbreak
heartbreaking
bothers
costumes
swell
swift
condensed
cheeks
untapped
untouched
##versive
##ronics
individuality
waits
treats
treatable
Orange
Orwell
affil
affair
afflu
Doll
tradem
advised
Atala
Arn
constitute
refram
crafting
trending
tremor
housework
provisions
Goals
Brin
Brussels
avoided
clearing
listeners
rapp
objection
audacity
neurologist
landmark
sensibility
normality
circus
##ometeor
approxim
greener
greening
shortcom
cultured
motions
variant
opted
psychic
psychologically
antith
antagon
maths
personalization
eyesight
Begin
tempo
temples
183
184
violently
violinist
Pruss
servant
supervision
sunk
chemically
fallacy
fallibility
sentencing
Manju
multif
perfected
Ref
Rein
Reed
Reich
##bole
calam
encomp
risked
inspires
mornings
deadline
convictions
causal
25th
Phillips
purity
harmed
harming
geologists
thanked
##opsies
shovel
pollute
tracker
entertained
camping
##ikrma
bloodstream
bloodshed
braking
arrays
Worldchanging
Species
##aptree
technologically
promiscu
applaud
peacefully
immoral
Googlers
marking
marital
soundscape
astroph
bedrock
plantation
textiles
##uprof
burgl
##oidal
ballroom
##loyd
intelligently
Donna
negl
activating
fluctuation
micrometeor
##aidan
floats
accountant
##iaries
searchable
divisions
Complete
##riarch
##string
prints
crisp
wasteful
laundering
laureates
cartel
screened
Immedi
Carroç
mindsets
doorway
furthermore
epoxy
##anca
ecl
ecologist
##ofi
Claes
Clarke
Swaptree
admitting
progressing
Marian
sandstone
domains
sticker
Schul
Calcul
discusses
dependencies
separates
debut
circling
mistakenly
accepts
wildest
cookbook
Harold
Robotics
portal
crypt
thrill
thrived
coldest
boardroom
Agar
Character
##unker
Brah
angst
malarial
sameness
contributes
innovating
catap
synonymous
breadth
##ependent
##repreneurs
comforting
comfortably
nationally
chairman
urbanism
Parag
Parikrma
salute
automate
banal
webpage
sequester
##pora
skyline
summertime
##oscopy
Iraqis
Percent
##cliffe
motivators
destroys
Scots
Scandinav
dogmas
Edith
Edwards
240
mute
mutates
catcher
gatherers
McN
teeny
gentler
sadd
pleasurable
Conversely
breastfe
##steau
laughs
commerce
variants
bloggers
Sughar
Enron
Enjoy
Enrique
membership
photosyn
lacked
novelist
missionary
ambient
ambitions
therapists
ordinarily
crucially
homage
torque
adaptations
adaptable
hypnot
streamed
Palmer
blender
blending
mammograms
petrochemical
petroleum
Glenn
Grail
##valds
dominating
Minority
hosted
##ochs
quantity
Eliot
millig
paintbrush
Resist
Resour
replacements
bombings
Kev
installing
Schools
freshmen
shutter
interpenetr
harmless
Sunitha
discard
Couldn
nutritious
metaphorically
Philosoph
originated
##iji
counteract
titans
Appro
Apparently
Tommy
Barcel
digitization
##linear
headset
peaked
accelerator
Feki
##unta
reviewing
Access
Accept
Ahmad
irred
Berry
cosmopolitan
vibrational
altitudes
colonized
constructing
sweetness
sanity
compliance
solidarity
summers
Politics
conducts
Frankie
Frankenstein
displaying
ceremon
juicy
librarians
rhyme
NATO
PMTC
improvised
idealism
idealistic
undo
claiming
murders
Islamism
repairing
Khadij
Monster
Monica
channelrhodops
230
ensuring
renamed
shootings
Fourteen
1953
1954
estimation
earthquakes
Babbage
ancestry
intensely
consisted
ridiculed
Dereck
contemplate
thicker
prayers
observers
Common
Commons
1940
Smithsonian
flashy
beeh
constraint
horizons
Disorder
gamer
gambling
loudly
orchid
USB
madly
washes
Partners
dissolved
transplanting
Patients
pillar
polarization
Crisis
Torvalds
Built
erasing
Burkina
diploma
##opathic
infinity
wingspan
yielded
pumping
parasitic
fossilized
Listening
Tonya
Portland
marches
Buddhas
Conservation
Madison
Madrid
supplied
railways
##urdo
orchestras
Curtis
censor
sediment
##imentary
fooling
synthesized
delicacy
Biology
Boeing
Slick
sprinter
exploiting
Beijerin
Contrary
Goldman
Idol
Milan
intentioned
hyperbole
stereotypical
Balinese
Nevertheless
Siri
dismay
persuasion
suspension
buttock
schema
schemes
Christianity
fertilize
Genome
Genomics
Macintosh
anesthes
Walking
Poverty
bathing
diesel
malls
widening
smoothly
irrever
Maggie
poisonous
insisting
Photography
negotiated
Collabor
rethinking
Betty
Farther
Scientific
whispers
megawatt
upsetting
composers
Network
Senior
Senator
nerds
chronically
transcendent
bathrooms
Improv
Popular
Population
Sandberg
battal
##gendorfer
chopped
caregiving
geometric
Kirk
Radcliffe
boredom
gateway
nesting
tactical
capsule
binding
##cheri
reconstructing
Walter
Cheese
recipients
scold
##ukemia
##hhh
meltdown
neocortical
1926
Governor
Bernoulli
Hasbro
Seligman
outlaw
outlook
coincidentally
boosting
subtly
cybercrime
augmentation
Histor
Janeiro
Miranda
Travel
reassure
gracefully
bushes
Newtonian
complaints
chambers
deficits
statistician
straws
strawberry
immersive
cruelty
Ladenism
reclaimed
Merced
Randi
scriptures
Federation
Learn
Older
Oldenburg
Tamil
Tamara
Vienna
##matism
##orridge
shattering
barbaria
tweeting
incorporating
squeezing
Diane
shoreline
shredder
oranges
loosely
unfolds
Dracore
mildly
hamburgers
symphonies
breeders
retailers
illuminate
Foods
Holiness
Psychologist
UNES
fisherman
revered
sufficiently
resurrection
blurry
blinking
commissioner
remittance
amplify
altruist
nurtured
Hotmail
aquatic
fractal
proceeds
spoof
contested
Starting
aspirational
Embrace
fischeri
nudges
insecurity
perfum
persecut
buzzing
Regardless
Igbo
Motors
PostSec
cafes
losers
tutoring
evaporates
sacrificed
Standard
misunderstand
misunderstanding
cockroaches
lobbyists
enthusiast
CSI
Durkheim
Gallup
nailed
orbital
removal
asthmatic
Harriet
Locke
bipartisan
patriarch
facilitate
facilitated
steeped
hollowed
conveniently
distinguishes
DARwIn
Services
bunker
cassava
greeting
tossed
solely
precipice
ARES
ESP
Homer
Jenny
Mobile
Reader
Reading
culm
contradiction
Headwaters
##productive
sanctity
Questions
Beauty
Operations
lemonade
comedians
scrambled
demolished
Explor
mortgages
BMW
utero
##potting
depleted
deceptively
mangrove
mangroves
unreliable
preconceptions
energized
constituency
microfluid
admittedly
advertisement
DemocracyOS
Dietrich
Kuwait
Rainforest
supreme
smuggled
autobiography
proportions
exclude
Meyerowitz
prevailing
microblogging
submarine
outsourcing
Ecosia
Ferris
Speed
Terror
grueling
horns
kinetic
##orthand
inconven
relieved
carriage
extrovert
biofabric
biofuels
opponent
firefight
arrogance
Ahmedabad
reinforces
obliged
Bradley
Mastery
gadget
gadgets
exempl
misdiagn
Toraja
imprisoned
imprisonment
lexicographer
Ragu
cushions
cascade
##ujah
quirky
hectares
featuring
incompatible
voicem
superhero
superheroes
Geoffrey
Telecom
pediatrician
Currently
Authority
biochemistry
Cousteau
DMCA
Entrepreneurs
LGBT
Laura
Ruby
fiercely
niche
tirelessly
enforced
byproducts
agrarian
transfers
assertive
tradeoffs
skeletal
municipal
congratulations
Cookie
Eddy
Fabian
JavaScript
Kinsey
Pierre
airstrip
ceramics
##melon
withdraw
spongy
prehistoric
rooftops
crayons
succumb
emptied
archetype
duplic
Python
crocodile
Literally
Namib
Opportunity
Velcro
dubious
fountains
jumbo
marsup
pavement
piercing
vicinity
pendulum
manuscript
coercion
brigade
incapable
questionnaire
Toxo
ecstasy
Suzanne
Morgana
prolonged
caterpillar
Prospera
Dictionary
Festival
Sugata
aurochs
gastric
krill
riddled
ulcer
theorist
seizures
asymm
proverbial
pledged
retrospect
geopolitical
fantasies
multiplication
rebellion
Antonio
semicond
Corporation
barbecue
Kurzweil
TNCs
cervical
euph
eavesdrop
hiccu
staple
stubborn
prerequis
lollipop
agnostic
coconut
Chaos
Chandler
##prisingly
Industry
Bruno
revisit
judicial
Excellent
Meggendorfer
McMurdo
Intelligence
Identity
megafauna
Huntington
Behavioral
unrealistic
psychoanaly
MOOCs
Sisyphus
résumé
Baptist
Disease
Family
Kuznets
Luria
NRK
Natalie
Sesame
ephemeral
gourmet
otaku
inundated
Socrates
atrocities
franchise
consecutive
unanswered
impoverished
involuntary
recreational
diabetic
televisions
Johannes
epilepsy
Engelbart
pilgrimage
lobbied
Honestly
WikiLeaks
narcissistic
Increasingly
Celsius
Fildes
Haidt
Luton
Marilyn
Mizzone
Ptole
Sardin
Salaam
Ubuntu
Veterans
Vibrio
WITNES
Wofford
eulogy
faucet
gynec
giraffe
ibuprof
stretches
notwithstanding
enjoys
Inconvenient
grumpy
afterglow
Shephelah
warriors
Allende
approximation
shortcomings
astrophys
Completely
Barcelona
PMTCT
Khadija
Beijerinck
Dracorex
UNESCO
PostSecret
WITNESS
ibuprofen
04
3G
4chan
4Sh
5th
AI
AJ
Aus
Avel
Allow
Aging
Ache
BA
Bam
Bau
Bew
Bott
Buck
Blu
Botton
Bacon
Bennett
Boulder
Bieber
CR
Ced
Cis
Cod
Cast
Cav
Cron
Cran
Cox
Cauc
Catherine
DO
Dow
Dink
Daw
Drop
Dhab
EC
EM
Elyn
Eye
EPA
FN
FM
Fra
Fun
Fell
Fash
Fresh
Ferg
G8
Gle
Gol
Gone
Gever
Ganes
Grove
H1
Hang
Hock
Hama
Hosn
Hulk
IN
IG
Jr
JN
JU
JB
Jop
Jam
Kand
Kins
Kenn
Kemp
Karm
Kitchen
Kiev
KPI
LB
Led
Lem
Lud
Loth
Loy
Liqu
Lux
Loves
Laman
Lotto
Lazar
Mi
MD
MS
Mig
Mam
Mild
Maz
Mason
Metr
Maidan
Nou
Nut
Nok
Nab
Nino
Ngu
Nuclear
OS
O2
Obs
PP
Pom
Pow
Press
Pew
Push
Purs
Piers
Plex
Pengu
Punta
RP
Ral
Rap
Rab
Rud
Roth
Rift
Roch
Rabin
Rao
Rules
RIS
Ratan
Sa
Stern
Send
Slo
Sval
Skin
SOL
Sao
Syd
Sustainable
Synthetic
Sarko
Ti
Tz
Tat
Tid
Tour
Tak
Turing
Trop
Tracy
Towers
Tata
Tuts
Uru
VM
Vending
Won
Wes
Wad
Ward
Worm
Word
Wald
Wael
Waste
Wounded
Winky
Wurman
Xu
XML
Yun
Yoch
Zac
Zull
Zapp
Zabb
awhile
bout
bif
bast
bitten
budd
baked
bachel
cem
cres
caut
caul
dar
dol
dived
ditch
dizz
durable
darn
dusk
eel
eud
fren
fates
fanc
favored
gn
gem
gait
hose
hates
harr
halt
huddled
jammed
kios
kooks
lord
lav
luminous
mul
mitt
mish
nif
nause
ore
osc
oculus
pard
pree
psh
panda
padd
paired
poker
porridge
rive
rif
rack
rans
rick
rogue
sult
snee
sizable
tand
tile
tux
tainted
uran
vain
vial
vents
vene
vora
wines
woken
yang
yelled
zomb
##after
##kw
##kit
##kim
##kowitz
##ehy
##eenth
##rive
##rist
##ria
##rings
##riction
##ridge
##rika
##yre
##yce
##yons
##yards
##yama
##ytop
##lit
##lam
##lad
##lore
##link
##lia
##lates
##bear
##bab
##bard
##bike
##buster
##iates
##iott
##iken
##iologists
##tage
##II
##NG
##pon
##pans
##poke
##person
##pecies
##pipe
##nie
##nicious
##nesty
##gas
##gow
##gun
##gain
##gue
##gman
##mouth
##mission
##morph
##uating
##sler
##var
##vases
##cif
##caster
##coms
##ho
##him
##hard
##hots
##haus
##human
##was
##wig
##wear
##wife
##welling
##du
##fu
##far
##fel
##found
##father
##zac
##jord
##jah
##TA
##HD
##Hub
##Space
##MS
##LM
##Vo
##BO
##Bath
##78
##eridge
##inth
##inem
##ndr
##ndt
##ndo
##ndas
##osa
##oske
##rections
##onchi
##enas
##encia
tore
toen
topp
##eson
##anian
##animate
##anny
##oro
##orie
##orio
##alie
##alach
##alah
##alysis
inac
incess
inbox
inaug
##edes
##edron
##isse
##iscus
##itos
##itol
##itized
##itters
##aras
##arking
##armed
##arayan
##otally
##oters
##otine
##omore
##ombo
##asth
##asia
##asper
##aspora
##asgow
##icit
##icide
##icry
##iculite
whirlwind
beads
beaver
##vets
##uto
##uttered
weaving
weeping
weeds
itch
rend
reapp
rewind
reforestation
rechar
##ete
##etter
##etto
##etooth
##ento
##entin
havoc
##sexual
##stic
##stop
##start
##stones
Ther
Anders
quint
##igmas
##urp
##urations
##urably
##uristic
sting
stall
stalk
stove
styl
##cht
##chool
##verning
forging
##ereen
##opies
##opically
##opters
##oprene
##opods
##oplas
##oppable
wasps
##impl
##imming
##amph
##amped
##olan
##olese
##olvable
##olocation
anew
anagram
liar
liability
livable
abuses
governing
##rax
##rail
##raib
seldom
##odis
##odic
cant
canal
cancell
canoes
canvases
##terdam
##adows
##earse
shun
shades
shuff
shorthand
Sok
Sox
meadows
##geant
##gends
##gels
##illery
##ulatory
soak
sockets
##ilight
##ilateral
frost
frantic
fringes
##oreactor
##esta
ally
extends
exoske
chuck
chased
chilling
chunks
deform
decks
dehuman
peasant
ornith
##aunch
Weather
therein
thereafter
cone
conso
concess
likewise
##ateboard
##arta
max
mailing
##istible
locks
lofty
##ifl
##ifs
procrast
tect
teem
##una
##unking
alley
almond
##allax
justified
##user
##uson
spacing
##andy
##andon
##andro
tray
Butler
upris
upstairs
uplif
##ortium
##cible
ensh
##elle
##elian
##elbr
##aints
bycatch
plight
plaza
plasma
Whales
##ivist
intake
##ogical
##ouring
timeless
##ameen
whichever
##arez
##izen
##izzy
compose
compiled
##action
##abasca
leaven
leopards
leukemia
legends
##agall
expired
exported
##ongs
perish
perma
perverse
perimeter
perplex
pernicious
##agell
evade
evocative
##respect
feces
##obin
##itte
unqu
uneas
unatt
unaff
resides
##iper
##epage
imply
impost
startled
##omechan
##roe
##roir
ard
mucus
parting
##icelli
coales
cozy
coils
buoy
buckets
oversight
##assa
##assing
##assadors
##owned
interm
intercept
##ibou
##ibusiness
##selage
talker
contend
idol
idios
idiots
##centric
##quently
##quoise
underworld
fox
foll
foam
foyer
phytop
##rugg
adored
adorable
boar
amid
ammun
##anked
humili
showers
bled
blond
immer
imitating
##othermia
##nings
##ishment
##ishman
downright
downhill
telltale
##forms
brid
brittle
scuba
smog
smoked
Chat
Chau
Chem
Chih
Chek
Chemical
##anga
offset
flatter
flier
flaps
flavored
floppy
traw
trawl
decou
decoration
decrypt
humanistic
humanizing
brainw
indifferent
##redited
cran
crus
crumbling
##weets
drills
technicians
guiding
guga
remn
remaking
remodeling
##ricia
##avan
##avic
##avened
coli
understate
endemic
endorse
insure
insides
inspected
insula
inscribed
##ailed
Stem
Strat
examines
relied
transg
understandably
##ertension
Shut
Shall
Shell
Shereen
carving
carroç
caramel
caribou
glide
glial
glimps
##akable
##akley
artful
artillery
schoolhouse
##ocrats
biting
striving
celled
cellphones
slam
slumber
creeping
highlands
miner
mined
miners
modifications
modalities
monaster
patrol
sermon
sergeant
mediate
meditate
finances
termed
terawatt
terroir
watermelon
explodes
##awton
reassemble
faraway
handing
handic
hardened
hardship
informational
demons
demise
demean
Myst
MySpace
elit
repr
repel
repression
repulsive
regrow
regulating
rung
Universe
bioh
bioreactor
Assembly
millionaire
dolls
suppressing
supplements
skis
skim
skirt
skateboard
subl
subversive
procession
processors
##whe
accus
corpse
##geren
organically
##tenberg
##tenborough
formald
formulas
socialization
##ramento
##ggers
Isle
solvable
infill
infuse
infancy
inflection
electrochemical
Sheena
sociology
headlights
clearest
popcorn
warms
warned
prescribe
begs
speculative
Forer
Letters
businessman
businesspeople
topso
distrust
tying
redirect
redeem
Novoc
confisc
curb
##cratic
detained
menop
signatures
moratorium
##llows
profic
profane
listens
##ographies
painters
rests
wrongs
Allison
airborne
agendas
props
defiance
defriend
Alb
Aless
Alley
empowers
amazement
testify
testament
computerized
forefront
foregone
devoured
heartache
filtered
swirl
swamp
faceless
parap
parade
paroch
parano
parallax
##ahi
assimil
awfully
pasta
pastor
Doh
succession
1500
Frost
Frans
Frances
Fraser
Onstage
trainer
secured
secrete
Attenborough
deepening
Armen
Ariel
##broken
constru
constrict
##ophis
##ophobic
fronts
diaspora
Gov
Goose
Goering
Bright
avant
oneself
rais
raid
voila
##rowing
measles
measurably
radios
typography
##lude
##luded
neurobi
bottled
dealers
missiles
digits
collisions
collateral
##ometry
##eez
grandkids
grandiose
##quez
greenery
predicated
##ohyd
operators
freestyle
dreamt
antis
antiqu
Toonchi
Beatrice
hyenas
violations
localized
Prior
Prius
Product
Prickly
accessing
superb
superorgan
jolly
sunscreen
sunglasses
sunrise
recorder
pleasing
communicators
sentin
gradients
Manchester
grounding
Reformation
Reuters
calves
calorie
footing
cools
encaps
impactful
directive
meaningfully
Twain
Twelve
intrud
squad
squigg
combinator
suggestive
presses
firewall
fireworks
privately
Phase
sustainably
Leh
geothermal
mainland
civilizational
roadside
postage
arenas
strap
stealth
concur
telephony
whiteboard
braver
##rann
conceptually
guesswork
Spock
snack
##parov
predictor
predictably
typeface
appliance
marble
silences
subjected
competent
oceanic
urine
urged
##ounge
burq
coping
Depp
Dewey
ballistics
fuselage
periodically
generalizations
negatives
reactors
reactivate
seaweed
##ynch
##gras
Institut
crossroads
driveway
mobilized
mechanistic
puff
blinding
crisper
Area
##orescent
Image
Carmen
misf
misle
mischief
electrically
connectedness
nationality
nationalism
Clin
Class
Claron
magicians
##rabble
interval
representations
Marcel
barn
barber
barbs
bargain
damages
damned
remarks
infects
detects
virtu
165
domination
Scholars
Schlaug
##ethear
Calcut
balances
turnt
turquoise
financed
financing
narrower
narrator
narrows
narrowing
appearances
laborers
145
Adrian
closeness
ignite
2016
sweater
sweethear
Secrets
Collect
Coleridge
Colombo
Steel
Warcraft
lowering
Blood
Blanc
Blakley
fascinates
173
annually
fundamentalism
Kenyans
Yourself
cryptic
throne
geneticists
swimmers
kiln
manageable
launches
frailty
Pluto
magnifying
heavier
willingly
spiritually
Musical
gasp
malicious
malignant
innovator
ideologies
folder
##factory
reminding
conditioned
dads
mentioning
nationwide
##shit
Seoul
spectrogram
salts
##oooo
usefulness
tribunal
Exam
Express
fashions
##rofluid
motivational
multiplying
Meat
Scrabble
inventive
insecticides
mutated
mutants
Congolese
logos
logistical
Conventional
Convention
Connex
fingern
Neur
consequential
##ettos
##oxic
applicable
broaden
Willie
beatbox
philosophies
Joan
crowdfund
correcting
corrections
Haas
gunfire
##odesk
denying
denomin
Canadians
rebound
rebels
reconc
homogene
surveying
hypocr
hypothermia
grownups
boundless
##frost
##frame
1967
mountaintop
Palo
bleach
hydro
hydrop
hydroc
petri
##legic
tripod
Glasgow
Herbie
alternate
alternating
##rupted
embraces
documentaries
tasty
illustrator
faiths
Resp
transmitter
safari
substitut
authored
Greene
microorganisms
motorbi
riverb
tailings
garde
investigators
Benoit
compares
Floren
bandstand
titill
titanium
Appalach
##mmm
perceives
##rosive
indicative
exhibited
accordingly
curiously
unexpectedly
Nigerians
nanometers
informs
informing
stationary
exchanges
Across
Acumen
unpack
containment
Basin
merry
palace
Webb
Webster
##izzing
Remitt
cosmological
colonization
migratory
##burst
compliant
complaint
summoned
Pakistanis
##vani
referenced
sophomore
##araoh
qualitative
qualifications
unsur
contracting
contractors
grasslands
grasshop
toxin
Angelo
shameful
vanishing
vanished
northeast
999
coalitions
semin
Months
bowls
##alties
reproduced
occupations
##uggets
chaired
aggress
interpretations
renov
##haas
##haustible
shrunk
internalize
inequalities
1959
estimating
punctu
##roversion
autonomously
Mali
rotated
Copyright
Usage
##annon
prayed
comparative
Ghraib
chocolates
flashlight
consumerism
pinch
pinnacle
elevates
arrests
arresting
obstruct
whistled
##amsala
controversies
astronomer
dissip
dissolving
distinctly
Designing
Grier
Granted
Grameen
Patricia
Singing
bribing
bribed
Stephan
Montreal
golfing
clustered
regenerating
Serb
injectors
traumatized
Starck
Studies
Crick
Crimer
dresses
downloading
Mandelbr
eras
1930
Burger
Rwandan
absorption
refrigerated
guarantees
Interval
Interpre
assistants
stacked
Highway
permits
instantaneous
pacemaker
supplier
Researchers
wraps
utterances
Integr
Mahab
sediments
coached
coordinating
puppy
puppies
Detail
sleek
vitality
##amba
miserably
synthesizing
synthesizers
330
Hamburg
grey
adjusting
Biologist
unheard
exploited
paralyzing
administrative
administrator
narrowed
disappointment
Playing
homelessness
Baloch
wandered
purchased
Texting
dismal
##cribers
lifespans
Apophis
Bobby
Corruption
queues
schematic
fertilized
Autodesk
##blood
distracting
assessing
requested
bedrooms
Oslo
gratuitous
screamed
Bolte
Bolivia
Poet
ducks
widen
weddings
Aristotelian
pandemics
##guay
sucking
Organic
Breaking
Collusion
Rockwell
Someday
Somali
troop
artworks
crews
Blackawton
Matty
Milliken
Medicare
Queens
punched
punchline
inhabiting
megawatts
interrupting
interruptions
validation
Compared
Netizens
conceived
1910
Metropolitan
Panama
junkies
litigation
squeamish
acidic
Churchill
simultaneous
Kiran
vitro
vitamins
settlers
hybrids
Bayesian
gym
piracy
doodles
leaned
twisted
Cambodian
halal
halves
Cheval
cultivating
Ern
Erick
Ninth
scoop
##write
albums
1929
infantry
Wilkins
jewels
sibling
conquering
introvert
sailboat
trailers
marvels
Knowledge
reassured
unstoppable
intervening
radiologist
tomatoes
466
Salman
Salinas
theoretically
inexhaustible
decentral
instructional
statisticians
reclaiming
Hunger
Target
rabbits
Disneyland
manifestations
Skyl
Treatment
bounces
bouncing
hobbies
selfishness
stomachs
Bertrand
Elliott
matriarch
inhibit
disgust
accents
conspic
nightmares
Carlos
prioritized
leveraged
leveraging
screwed
configurations
illuminated
deposited
deposits
Behar
Norwegians
Georges
Douglas
Filip
fisheries
gerontology
napot
tidied
sympathetic
blurred
endeavors
amplification
Jeanny
altruistic
Dublin
nuances
patches
ribs
threads
proceeded
carpent
Capitol
Capgras
Persians
ninja
sodas
##anasia
compensated
buffet
prophets
seafar
Cloudburst
cathedrals
synchrony
Cruz
Kamal
Kamkw
Puerto
Volk
Volvo
conjure
disclose
presumption
puppeteer
Solomon
reunited
maneuvers
undertaken
preaching
numerical
retrofits
retrofitted
1879
folklore
dispersants
aortic
warehouses
interdisciplinary
TED2010
TED2011
Cyber
Winner
masturb
pixel
mandatory
kidnapp
kidnapping
slogans
Ashdown
McKay
bureaucrats
SAT
Sleepy
lymphatic
granny
portrayed
utilizing
Angola
Homeland
Jenkins
Jennings
Liu
Moskowitz
Ukrain
bumping
masons
rodents
cliché
interrogation
biochemical
prescriptions
confirmation
brewers
Brotherhood
granddad
categorized
craftsmen
Jamaica
cobalt
galvan
pivot
starches
choreographer
##iegel
scrambling
decompiculture
Assange
arguer
Philippe
whispering
whispered
Borges
Bartok
Dunlap
Growth
Klee
Maui
Oklah
bruised
hiking
##minster
##houette
apocry
stainless
depletion
##abytes
traffickers
amputee
forecasting
constituents
analysts
advertisers
reciprocal
pronounce
Damn
Gregory
Testament
bailouts
rewilding
disadvantaged
contaminate
biodegrade
subsequent
trustworthiness
counterpart
microbloggers
prematurely
Typical
Austen
Hugh
Huang
Hazleton
dormant
ripples
serendipitous
exceeds
exceedingly
relieving
carriers
charisma
virginity
firefighters
irresistible
reinforced
flattening
pharmacology
ADHD
Carrillo
Dorothy
Trek
pearl
quartile
plastered
disincent
grinding
scourge
endowment
provincial
balconies
turbulent
stockpile
Torajans
innocuous
Athabasca
Kindle
Memory
Wangari
rampant
anchor
cocoa
incompreh
extrinsic
voiceless
bottlenecks
fermentation
dystonia
Carson
DRC
DryBath
Kohn
Laurie
Mullins
PAC
Sacred
Sacramento
boggling
hustles
laminate
nodding
niches
intolerable
intolerance
agribusiness
demoralized
embarked
skeletons
Furthermore
disproportionate
Ambassador
Kasparov
jealous
ravaged
crippled
carbohyd
lightbulb
lightbulbs
confessed
##ophysics
harassed
plummeted
microprocessor
microprocessors
Burns
Drugs
Fighting
Gamble
Kendall
Nonetheless
Pachyce
Rotterdam
bunny
karate
kettles
latrine
mesmer
paused
sausage
##uisine
thorny
reptiles
rearrange
quarries
overestimate
discharged
grapple
awakening
diminishing
snobbery
Advanced
photojournalist
incentivize
Khalil
SixthSense
Autonomy
HyperCard
hierarchical
warranty
Feminists
cannibals
biodegradable
jurisdiction
Bundy
Pasht
Rajasth
averages
bodied
deregulation
nugget
porch
rudimentary
stifle
canceled
necrophilia
recreating
meditators
videotape
neuropsych
songwriter
circumcision
spreadsheet
cohesion
nostalgia
nephews
Atheism
Bulg
Jurvets
Meadow
Method
Maddie
Nellie
Sinai
euthanasia
kangaroo
pennies
trenches
thighs
##alamus
sectarian
notoriously
externally
dexterity
uninterrupted
aristocracy
grasping
Shackleton
electroly
camouflage
proposals
Albania
wavelengths
noninvasive
supervise
##engineering
barricades
synesthesia
penalty
Gandhian
Frederick
allegedly
Bitcoin
Yugoslavia
overconfidence
Dakota
Dharamsala
Kickst
Meegeren
Molecular
NYU
Wagner
breeze
ligament
tedious
whimsical
reimagining
##chwitz
goddess
seventeenth
peacock
splendid
evangel
unintellig
nozzle
overeating
discern
intercourse
amusement
commemor
degeneration
##ugaad
baggage
irresponsible
reinterpret
prairie
anesthetize
barbaric
Vermeer
groceries
anomalies
uninhabited
Hatzalah
Nielsen
tadpoles
Barricelli
Ecuador
Faso
Kerala
Koolhaas
Kermit
Pallotta
Ridley
Tulley
ghetto
hibern
parenthood
steroids
seismic
pebble
spooky
##oglobin
twinkling
unicorn
oversimpl
acrylic
underbelly
grizzly
redevelop
swiftly
trademark
Arnold
Refuge
promiscuous
micrometeorites
Immediately
Carroça
McNuggets
Enriquez
photosynthesis
Resistance
Resources
ceremonies
Collaborator
biofabrication
Namibia
4Shbab
Auschwitz
Avelile
Beware
Cronin
Caucas
Dhabi
EMT
Fashion
Ferguson
H1N1
Hosni
IGF
Joplin
Kinshasa
Kenneth
Karmapa
Lothar
Lazarus
Miguel
Mildred
Pierson
Plexig
Ralph
RISD
Svalbard
SOLE
Sydney
Sarkozy
TiVo
Uruguay
Yunus
Yochai
Zullinger
Zabbaleen
caulifl
dizzying
fanciful
harrowing
nifty
oscill
tandem
uranium
voracious
##ehyde
##oplasma
console
teeming
uprisings
enshr
permafrost
idiosyn
phytoplankton
ammunition
immerse
Chekhov
carroças
monastery
parochial
paranoia
superorganism
combinatorial
Calcutta
Connexions
denominator
hydrocar
motorbikes
Florence
Mandelbrot
Interpreter
Kamkwamba
Oklahoma
Pachycephal
Rajasthan
Jurvetson
01
4D
7th
Ak
AA
AB
Aber
Aah
Apar
AAA
Bread
Bism
Batt
Belt
Bels
Bened
Borders
Bann
Booth
Bati
Bumble
Bibl
Bunker
Cs
CT
CH
Cre
Cow
Core
Card
Cob
Cro
Cogn
Citi
Create
Casa
DC
DB
Din
Dop
Dil
Dip
Dool
Dale
Danger
Deng
Dana
Downt
Direct
Daph
Dusty
Ez
EK
EU
EG
Era
Egan
Emm
Fol
Ful
Fide
Fru
Feed
Flu
Flo
Fitz
Flying
Focus
GM
Gas
Gur
Gun
Grou
Gour
Gag
Gens
Gang
Games
Gee
Gran
Giant
Goran
Giac
GBM
Hour
Hep
Hook
Huge
Horn
Haring
Hitch
Hidden
Hua
Haven
Haha
Hutu
ISA
Ibra
Ivory
JT
Jal
Jody
Jump
JPL
Jugaad
Kart
Kib
Kaz
Kism
Kaf
Kuh
Klan
Koko
Kofi
LA
Lé
LM
LX
Lic
Lith
Lest
Lose
Liver
Lah
Lanc
Laf
Limp
Lima
Lemon
LFC
Mm
Mu
MC
Mim
Mul
Mum
Mack
Morm
Mank
Mons
Matter
Mouse
Material
Mash
Mape
Mamm
Mapping
Minsky
Mecca
Milton
Marrow
Mujah
Magell
NP
Nom
Nur
Nak
Note
Nah
Nintend
Narc
Om
Own
OED
Ommm
PG
Pos
Pis
Pil
Pand
Path
Pian
Pret
Punk
Pogue
PBS
RE
Ras
Rice
Round
Rang
Rons
Rise
Rital
Rook
Rex
Rube
SE
SJ
SU
Set
Ske
Sich
Sine
Sep
Sire
Sank
Swe
Sav
Sno
Sash
Sitting
Sustain
Szy
Seed
Siber
Sett
Sears
Salt
Saving
Sagan
SEA
Ts
TP
TG
TO
Tens
Term
Tamm
Tani
Tzu
Total
Tusc
Uz
Uran
Uri
Vit
View
Vision
Verm
WA
WW
Wid
Wine
Wash
Wern
Wuj
YB
Yin
Yos
Yuc
Zig
Zaire
Zucker
aun
avert
averse
aura
auster
asexual
bor
bers
bob
bount
bale
bison
busting
bingo
cess
cog
ceases
cuff
capped
cuisine
dun
dine
dues
dives
damp
dumps
droids
eard
eruption
euro
fos
fus
fists
fades
fished
fateful
fuses
fading
gin
gol
gist
gren
gills
gays
hone
hog
hugs
hugged
ik
ivy
jer
junction
jerk
kitt
kern
kitch
kung
keros
kelp
lan
lore
lame
lush
lugg
lamb
linger
lighth
mol
mounds
mashed
nas
nach
niece
nuns
nieces
nameless
ost
oak
olf
pent
pong
pint
paw
paced
poking
rut
rim
raz
rift
rowd
rods
rumor
sq
sow
sway
sigm
tul
tart
tame
tund
tones
tresp
vul
vars
vets
viability
vodka
wok
wishing
wager
zap
##aith
##aise
##aissance
##kr
##kens
##eh
##ré
##rod
##rue
##rush
##rium
##riet
##rarily
##rigue
##yu
##yes
##lass
##lance
##liest
##lantic
##lawa
##bio
##bott
##bler
##bumps
##bbing
##iere
##iating
##tails
##IM
##pres
##pont
##paces
##nu
##nter
##nour
##nosis
##gle
##gim
##game
##gien
##might
##mens
##mese
##uest
##uition
##uously
##sson
##vag
##oa
##oC
##ois
##ooney
##overs
##cin
##cor
##cation
##cars
##cases
##hes
##hade
##hism
##hane
##harm
##hirt
##hoff
##hazz
##wed
##worm
##da
##do
##doms
##door
##fying
##fried
##zel
##zene
##PO
##D4
##DER
##xi
##ximate
##jet
##jaim
##Afee
##TV
##CLU
##House
##80
##42
##25
##2nd
##Me
##MU
##LL
##OW
##Fi
##Fadd
##Bot
##ár
##erous
##inet
##information
##atur
##athing
##atro
##atars
##atism
##ndan
##oule
##oult
##osable
##osopher
##osuction
##regn
##onest
##onical
##onite
##enberry
##esha
aphr
##orical
##orance
##aler
##aland
##alogy
inmate
inanimate
##isb
##isth
##itat
##itium
##itially
##aris
##aract
##arius
##otam
##otopes
##otomy
##omatic
##asw
##icer
##icable
##iceless
##lelu
whiz
whack
whipped
##llular
isotopes
##lyph
bew
beaming
##utton
ree
rework
reiter
revert
rejo
reCA
##etch
##etery
##ethe
##eteen
hare
hairst
haik
hapless
##seye
ont
##ldiers
##station
##staking
##strous
Thrun
Thaler
quitting
quarant
##idable
##idian
##igs
##igo
##ighing
##igating
##igai
##urg
##urities
stained
stumbling
stalled
staunch
##chu
##chat
##chem
forks
##opotam
wast
##irus
##ircle
##imsy
##imented
##oloch
angr
anterior
liabilities
withheld
##thought
##thetically
abdom
abrupt
aboard
goof
semb
canning
canned
canonical
priceless
ascent
##ady
##adoes
shiver
worris
Soy
Soft
Soldiers
comets
comrad
atrium
##iller
##antu
##ulence
soaring
##ilings
##ilizes
fry
frantically
Theory
Theatre
##usters
##esting
aller
excel
exuber
heath
chant
chores
chords
deed
deeds
deformed
myri
##ighted
somber
peck
pecking
orbits
Wei
Week
cones
conject
congreg
##ckx
##umetric
##arty
##arting
##istas
##istol
##istines
##istingu
logs
logged
##blem
knitting
usher
proactive
outwards
outstr
outset
outright
##ectomy
##uned
##allic
##usi
##usp
sped
spur
spun
spaw
spelling
spilled
spouses
spawn
tran
trol
truer
tritium
##hertz
upbr
upstream
uphea
##orting
envelop
engender
##elley
plac
plaz
plains
moreover
Whites
##ivated
##ivably
intuit
introversion
##aping
timid
##ostate
##emite
##embr
##izhou
vein
compil
##reated
##acker
##abe
##abena
##agons
tac
takers
##ideen
pert
perv
perverted
hash
sayings
manually
manners
donating
evolvable
##udgery
feast
fecal
Inv
Ines
Insect
Initi
Initially
otherworld
##achim
agora
wherein
clown
clump
clamp
clunky
cluttered
unear
unsh
unload
unrest
unorth
uncondition
unarmed
needy
resume
noon
##ipse
##ephal
impound
impulsive
impractical
impregn
startups
arisen
partition
##iao
##icellular
##rying
cove
coarse
buc
overth
overcr
overview
overpop
overstated
disreg
disli
disorgan
disrespect
##ffen
##owness
backse
interst
interiors
##acs
##acama
##ensitive
##ensibly
##ologue
##ignment
lifeblood
idi
acrob
underde
foe
moan
moose
##elles
##ellant
phony
##ruly
##rubs
##ossess
##bergh
evenings
herald
##iality
adept
descent
##ictory
amused
amoe
##eca
synergy
humbly
realms
bland
blower
blizz
imam
##nington
##ishable
##ishnan
bride
##athai
##athrin
grit
grips
grids
roy
roach
rovers
roaring
incur
incense
scouts
##orska
Champ
Chocol
Chagall
##jection
##uals
facto
##angs
##text
comeback
##cester
##urned
flames
floral
flaming
flushed
tract
traction
traced
tracing
tractor
trails
doings
##rens
surfer
experient
percentages
humanly
humanism
brainer
childcare
indis
indignant
indistingu
##odule
crib
crimin
craters
studios
##ubl
##week
drastic
drudgery
techno
invari
simulating
##rices
##avi
longtime
creatives
endocr
endgame
helmets
##fts
insu
insid
inserting
##oluted
schism
##concel
##pend
Stick
relic
reliance
transient
translu
transcripts
transcends
grander
gracious
Shim
Shree
Shining
Shepherd
Shawn
Shadow
carot
instill
gland
gloss
glued
glacial
glimmer
designated
believers
emulation
eminent
playbook
playlist
playfulness
##akis
artisan
conserved
conserving
specially
famines
##beater
##ocene
##oculars
##ucing
imaged
##venia
slim
slick
slipp
slicing
sledge
completion
numbing
monet
monoc
monstrous
102
105
sorting
##issa
203
serene
serpent
reclu
medd
medals
meditating
metic
centen
waterways
watermarks
readable
caret
edX
changers
generational
##awat
##awks
computations
farce
handouts
mindless
Myesha
homegrown
elated
elimination
repay
repressive
repaired
regards
regained
registry
runaway
respiration
bios
biog
biking
biopsies
entom
entrenched
Asper
visitor
skirts
funky
substr
sublinear
spacewalk
futile
futuristic
##cerity
corps
corrosive
organizes
organizer
##tening
capitals
shareholder
formidable
bestsell
solic
solace
solids
infre
grouping
warping
presume
begets
speculate
speculated
Indo
Individ
Forum
timescale
momentarily
governs
connective
distantly
distilled
Noir
Novel
confines
confron
confinement
educates
photon
photoc
curly
curtains
menacing
meniscus
signaling
moron
morbid
911
memo
memoir
painfully
painstaking
rested
restroom
restriction
Allah
macho
##iltration
propon
propelled
propellers
propriet
propellant
deflect
defied
sitcom
billionaires
Alger
Alps
Alison
Alto
Algeria
Alisch
robes
robbing
locav
locals
amazes
foreman
forearm
deviations
Earlier
30th
costume
swelling
swapped
swallows
condense
conduit
condenses
cheesy
untie
##versible
newsprint
equate
equitable
parse
paratro
freezer
##ahl
##ahah
##ahili
excite
netted
awaken
toolkit
retal
retention
##ustrated
continental
trades
156
adviser
Frog
hundredth
Atacama
Everyday
##brid
drags
refresh
refusing
referend
womanhood
tremb
dipped
diagon
milit
Canary
Cannes
virulent
provision
##culate
avatars
lineage
messian
objectively
investor
radiate
cutaway
Pepper
audit
massacre
##luding
neurotic
neurologically
##ursion
ills
illicit
literate
revision
sensational
oils
##ometti
delays
delusions
archival
Euros
Somewhere
blacks
blackout
grandest
greenhouses
eleventh
motifs
##ohoo
extrap
extravag
protectors
freight
freel
depiction
varies
majesty
129
psyched
antip
personalize
nonf
tempest
templates
majoring
1850
1812
localize
Prin
Priv
Prisons
Prostate
accessories
servicing
supernorm
commonalities
sunb
keyboards
keyhole
breaker
breakup
communicable
chemo
sentient
resourced
winters
##ipple
grading
gradient
##owski
weekday
multitude
multicellular
##ropolis
##roponte
Regen
Reuther
Rejection
specialty
filmmaking
pickled
##venting
encore
verses
experimentally
##mborska
considerations
feeder
directing
convoluted
bluefin
responsibly
squaw
squatter
Worcester
firewood
modernization
facet
Phyll
Pharaoh
worthiness
purse
vacancy
Leib
geology
geolocation
thankful
pollinated
pollinating
trackers
pathogenic
stradd
stranded
hotdog
campfire
##ikal
telepres
internally
brace
brake
##rances
movable
Spin
Spir
Spread
dimming
honoring
snapped
snails
##ugu
##ugo
##aptic
replay
volts
volumetric
peacekeeping
immor
Googled
marin
marbles
silhouette
Southwest
competitor
bedtime
##ounced
lifeless
definite
burd
##lette
Johanna
achievable
##portant
functionally
terminology
journeyman
layout
layering
flowed
visionaries
fairer
princess
tending
broch
brooding
fluke
fluffy
attackers
blockbuster
##omsday
rocky
##grid
##maer
mechanization
Amjad
Amnesty
##olloh
Commer
citations
##riDER
##strom
Looks
blinds
wastewater
cartels
Carbon
Carlton
doorbell
misinformation
authorized
graphite
Clark
Clock
Clooney
Swahili
forestry
progresses
Marath
Marvin
barbers
ceilings
fishery
rupt
fixes
infecting
detectable
collaborated
##gencies
spiraling
Calvin
hopping
reductions
Christina
Christakis
methodologies
farmland
Adri
Adela
uncanny
nucleic
Anywhere
secretion
secretive
##iesta
cooker
engagements
Colony
weightlessness
publishes
Stevens
Steffen
Blake
177
##yla
calculates
distributions
Harvest
Robust
RoboC
portions
thrives
##emption
starter
starry
starters
respecting
Charley
frail
fraught
Israelites
Place
Plants
Plastic
Plains
Plastics
magnetically
Musica
Bragg
angular
throwaway
responders
contributors
optimum
optimized
prosody
prosaic
cataract
trickle
Abbott
synapse
synecd
synaptic
cardiologist
conditional
heroism
##shaw
interviewer
Paraly
Paravic
Sequ
salty
salient
saliva
shockingly
popularity
starship
starshade
directional
purposely
purposeful
simplified
simplification
phenomenally
##rofo
exhumed
Mega
Scar
Scrubs
husk
verifiable
wealthiest
statesmen
dogma
Edm
woodpe
gatherer
occurrence
McAfee
McFadd
customize
Billie
##afa
analyzes
Conn
Conan
wheelb
Century
Thinking
Wasn
doubles
vastness
##etta
Audio
Smits
taxation
journalistic
supplying
Ensler
Willy
lacks
electronically
Camden
Join
Joachim
corrective
gunshot
joystick
seeding
attracts
ambival
ambassadors
denies
horribly
horrifying
commercialization
Finn
torso
torrent
torped
torturing
adaptability
hypertension
Frenchman
grownup
1966
1964
appeals
Palace
hydrophobic
petal
petty
triplet
bulges
bulky
spotting
Grave
shipment
breathes
midair
##marked
repeats
Guide
Guizhou
Miner
childhoods
##ochically
##ochrom
vegetarians
tummy
defeating
elemental
Jehane
Reserve
clicker
brotherhood
transmits
Key
Keeping
credits
Artists
advantageous
oddities
shutting
motorbike
feedbacks
concentrator
hells
sculptor
appreciating
harmon
discord
discrep
Bennington
##connected
resourceful
Philosopher
Philistines
originate
counterfe
Prozac
banding
Appreci
Tombo
dryer
##cupy
virtuality
genealogy
polluting
implies
implausible
implicated
partnered
exhibits
Fey
Turin
nanny
piloting
Aha
Ahn
latte
reformed
Basit
Basque
Markus
merger
palpable
brightly
stupidity
Berlow
Berkley
Remen
cosmetic
cosmologists
##uhuh
##iffen
colonize
Team
iliac
bearings
melon
melanch
driverless
conclusive
Polio
reinvented
eldest
Martian
##icycle
weakened
unsc
unsett
unsatis
unspeak
contractions
birthdays
splits
acquaint
Angeline
dishwas
dishonest
Brohi
Coach
licensing
vanity
vanilla
minimizing
billowing
billiard
dispose
disposed
disposable
dispossess
northwest
northeastern
liespot
Islamists
semantic
repairs
submissions
Monopoly
Parker
bowling
piping
tenacity
tenacious
##adda
reproducing
23rd
borderless
hoax
renaissance
##ihar
frighten
internalized
1956
1958
labeling
Babble
explanatory
Morris
densely
contemplation
criticizing
navigated
##lomerate
##lynesian
Ghonim
premises
1940s
looping
boldly
cyberwar
orchard
fabricate
fabricated
Eskim
Latino
bespoke
rejecting
declar
declare
memorizing
romanticize
mimicked
outcry
dissidents
distinctions
wheelchairs
Grateful
Generally
Jonny
fertile
polarized
polarizing
Server
Serious
Silk
Study
Studs
Leslie
Torah
kicker
kickstart
aspiring
irritable
whaleship
pharmacy
1938
1932
MRIs
interconnection
criminalize
shadowy
27th
proofs
deployments
Hanson
Loveg
##iasis
abandoning
loading
pretended
assisted
Maeda
Maathai
attributable
subsidi
subsistence
MTV
gonads
##monary
bullied
polyph
instantaneously
Buddhism
##ogeny
##ogenesis
biomark
Airbus
rails
##orani
compromising
compromises
buggy
bugger
blowout
##inistration
Mahal
Tyler
youthful
outsider
resonated
resonates
decreases
extremity
CAO
Galen
Galvani
quadr
quadru
quadrip
stunted
minorities
synthesizer
Hamas
Hamilton
adjustments
Boyle
doughnut
honeybee
wiping
sprout
disrupted
Content
Goldstein
Goldberg
fetal
protested
filtering
repeatable
renewal
cigar
Thirdly
triggering
Denver
boomers
Apart
Bobo
Corrections
Mena
fertilization
Genetic
persisted
highlighting
assessments
Osorio
Upon
luxurious
receptacle
drumming
sketching
paradoxical
Outside
Polynesian
lunar
observatory
philanthropist
catastrophes
Superman
implantation
irreversible
nomads
poisoning
consulted
proportionate
elegance
elegantly
Photos
Brendan
Timothy
uniformly
emphasized
emphasizes
weaponry
Augustine
29th
Account
Dawn
Fargo
Royce
divert
diverge
gangsters
watershed
inhabited
megacities
megabyte
composites
recalling
degrading
Ethel
Melbour
Understanding
odors
conceivably
updating
1919
deliberation
ethnicities
Buildings
Sandel
aeronaut
sponsoring
cylinders
Libra
Naná
Nanny
Olson
inferences
brushed
captains
capsules
Detroiters
Avaz
Avatar
Louise
binoculars
lesions
##visor
twisting
disconnection
Hanna
Lessig
Lessons
Romeo
Walters
sulfates
prolific
manifests
restrictive
microphones
Scotch
Ninos
Vanier
cubicle
scooter
##glass
anatomic
sacredness
scholarships
1928
bulletproof
correspondence
Bernie
Kymaer
sewers
sailors
cliffs
subtraction
exclamation
Leonard
cybercriminal
Traffic
##locked
offended
compounded
intervened
Annan
redesigned
Campbell
Employ
Karol
Tibbits
Zimbardo
ghettos
##NCCO
helplessness
democratizing
strawberries
fragmentation
Cameroon
Merckx
Randy
Susana
dirtiest
articulated
inflationary
442nd
Bosnian
Crazy
Evident
Skerry
Treaty
tabl
##iatrics
conferencing
unwilling
arbitrarily
Definitely
Columbus
millennial
tattooed
incorporated
duplex
velvet
varying
apologizing
inhibits
shredding
schedules
Aston
Drawing
Qatari
perpetuating
pedestrians
Extra
Psychologists
Saying
Teresa
Ultra
ferrofluid
geriatric
tidal
stadiums
molded
earnings
couchs
Hungarians
aquan
dyed
fracture
fractions
vaginas
tolls
spoiled
choirs
embryos
##worthy
Tibetan
Adding
Persia
jamming
maternity
acoustics
screenshot
remixing
Shirin
regulates
regulator
regulators
prophetic
Legadema
tornadoes
Bangladeshi
evaluated
evaluative
synchronize
synchronized
413
Cruise
Hindi
Hindus
Pugh
Pollution
ovaries
##ydia
inflated
presumed
circulate
circulated
circulating
chemistries
conceptualize
sacrificing
WiFi
nicest
nicotine
sabot
undertake
undertaking
scrolling
escalated
escalating
addicts
freaky
electromagnet
penetration
meritocracy
Interesting
subsidy
BRCK
BRD4
Rodrigue
##project
reversing
stylish
incubators
scalp
scraped
insurgent
Physical
Physicist
athleticism
championship
Bhutanese
TED2012
Finding
Pyram
Writer
cavity
cavities
caviar
cavalry
lumpy
rectang
dodo
acutely
adversarial
1904
patriotic
patriotism
subculture
facilit
McKean
neutrino
neutrinos
legitimized
prosecuted
prosecutors
hobbyists
Wonderful
Eleph
Krist
SAMS
SANCCO
drains
draining
precedent
juveniles
CAPTCHAs
683
Gayle
Mosqu
Mellody
vigorous
interrogated
contradictory
brainstorming
Statue
chefs
Attention
millisecond
imperfections
proliferate
paragraphs
Fuller
Mohammed
Opera
gorilla
zooming
rehearse
scramble
##ocrates
certificates
Barton
Hardy
Hardly
Okolloh
Purple
Rhodes
dweller
dwellers
festivals
voyeur
trolls
overdose
Unclear
passports
illiteracy
multimillion
unlocked
advertisements
WikiHouse
crystalline
unnecessarily
Odyssey
Damon
Kuiper
Wislawa
diversify
pulmonary
inquire
stagnation
stagnating
cherished
chewed
uncharted
trekking
affectionately
Banjo
Ecologist
GitHub
Groups
Ironically
Sitopia
Special
Traditionally
cadence
gruesome
hindsight
pupils
ripple
vectors
liposuction
priests
plunge
underpins
Animation
Animals
treasures
flattened
fingerprints
obligations
cafeterias
ADD
Formula
Major
Majesty
quartet
exempt
enriched
disinfect
wristwatch
slingers
TED2008
cycled
misdirection
sweatshirt
hydrothermal
pragmatism
uncontroll
uncontrolled
Extremely
DIYbio
Hacker
Liberty
Stygim
bolt
tilting
quirk
lettuces
handwritten
coupons
Isaiah
forensics
depicting
taxpayer
neurosurgery
neurosurgeon
inheritance
intimidating
resurrected
gossiping
therapeutics
DMV
Ignorance
Rico
SING
pacif
tango
stamped
hexene
outpatient
Chopsticks
droplets
engulfed
detriment
detrimental
Adventists
Polaroid
sprinting
deteriorate
Bloomberg
Circle
Lowline
Mustafa
Needless
Pierpont
Renny
jealousy
##volent
tombstone
reorganize
stitches
anthrax
maiden
allegiances
trumpet
disengaged
interfering
prehistory
rooftop
advisers
cyclical
Barnett
implicitly
duplicated
Pythag
apocalyptic
crocodiles
Mushrooms
ICU
Joyce
Kwabena
Kendal
Lindbergh
Miko
Pavlo
Veld
deductive
groomed
karma
kettle
latrines
pauses
sausages
tubing
welder
Andrea
enlisted
uneven
overestim
disseminate
betrayal
Channel
Mycoplasma
registration
parabola
excavated
viewpoints
snipers
Administration
Khalida
Autonomous
hierarchies
discriminate
crowdsourcing
inconsistency
Cornell
Divide
Gradually
Horowitz
Hippocrates
Jaipur
Jetman
Niall
Nadia
Rolls
STriDER
Safety
martyr
aphid
aphids
iterative
goosebumps
concoction
twentieth
reshape
downsides
Choose
##akhstan
complementary
demobilized
redundant
redundancy
redistribution
Production
sunflower
sunflowers
snippet
snippets
##hydrophobic
enthrall
inflammation
inflammatory
subdivisions
administered
reintroduce
exacerbate
preoccupied
FILM
Fleming
Jansky
Kathryn
Kurdistan
Migrants
Napster
Occupy
Oxygen
Paolo
Patton
Pradesh
Training
Utopia
Vasconcel
Wyoming
coughing
dessert
eagles
hedon
jogging
thirsty
reintegration
abolish
atrophied
##ablanca
hassle
noodle
overheard
disliked
disguise
blossom
relentlessly
inflicted
menstrual
refresher
squishy
postpone
annihilated
Abdul
Negroponte
dismantled
Electricity
mitochondrial
consolidated
locomotor
Inspired
Religion
prestigious
Bueller
Brené
Benefield
GCSE
Springs
Violence
Xiaoping
dwindling
eerie
fibrosis
lurking
palsy
rhin
tetrah
tantal
wacky
wrenching
mycorrhiza
compulsory
clogged
arthritis
coyote
herbicides
Chamber
miniaturization
monolithic
engraved
headwinds
Ordinary
Origin
incrementally
urchin
Imagination
petrified
Participant
dissatisfied
biomimicry
Astronomers
pronunciation
culprits
spearheaded
Celebrate
Bosch
Bacteria
BASE
Casablanca
Dallas
Fernand
GNH
JFK
Linked
Nashville
Poupon
Pamela
Route
Torture
UNAIDS
dosage
durability
hologram
migraine
masonry
pundits
rarer
rumors
tethered
vintage
likened
knuckle
enliven
Whewell
unimportant
interspecies
interlocking
##coccus
invasively
reminiscent
colossal
pointillist
biocomp
submerged
photoreceptors
affluent
antithesis
encompass
Schulz
Scandinavia
saddest
breastfeeding
petrochemicals
milligrams
Kevlar
irreduci
channelrhodopsin
beehive
anesthesiologist
Historian
Mercedes
Explorer
microfluidic
voicemails
LGBTQ
duplicate
marsupial
euphoria
prerequisite
psychoanalyst
Baptiste
Buckminster
Bluetooth
Cedars
ECM
Fellows
Gleeson
Hockenberry
KPIs
Lamanites
MDG
Metrics
Noujaim
Nokia
Slovenia
Tidying
Tutsi
Wormwood
Zappos
bastards
bachelor
cautious
darling
eudaim
gnarly
pardon
veneer
zombie
itchy
anagrams
##odisiac
tectonic
follower
Stratford
Mystery
elitist
sublime
accusation
formaldehyde
topsoil
Novocure
moratoriums
antisocial
Lehman
burqa
misleading
virtuoso
sweetheart
reconciling
substituting
Remittances
punctuated
Stephanie
Balochistan
decentralized
seafarers
Ukrainian
apocryphal
carbohydrates
electrolyte
Kickstarter
Caucasus
cauliflower
enshrined
idiosyncratic
Belshazz
Benedict
Bannister
Batiuk
Bumblebee
Daphne
EKG
Folks
Fulbright
Gourley
Genspace
Giacometti
Hepburn
Huaorani
ISAF
Ibrahim
Kazakhstan
Kismet
LXD
Lancet
Limpopo
Mormon
Mankoff
Mapendo
Mujahideen
Nintendo
Pilots
Pandora
Ronson
Ritalin
Rookie
Sichuan
Sustainability
Szymborska
Siberian
Taniyama
Uzbe
Uranus
Widder
Wujec
Yosemite
Yucatan
Zuckerberg
aunts
austerity
berserk
cessation
eardrum
golfer
ikigai
kittens
kitchens
kerosene
lantern
nasal
nachos
sigmoidal
tundra
varsity
##nourished
##mighty
##harmonic
##CLUB
aphrodisiac
##lelujah
quarantine
semblance
worrisome
comrades
myriad
spawning
upbringing
upheaval
plazas
##embrance
Insects
Initiative
otherworldly
unorthodox
impoundments
overcrowd
overpopulation
blizzard
Chocolate
experiential
indistinguishable
invariably
translucent
recluse
Asperger
confronting
referendum
supernormal
Phyllis
telepresence
Adelaide
synecdochically
Paravicini
McFadden
dishwasher
subsidiary
Melbourne
Rodriguez
SANCCOB
Stygimoloch
FILMCLUB
Vasconcelos
Belshazzar
