#version: 0.2 - Trained by `huggingface/tokenizers`
á »
Ġ t
n g
á º
Ġ c
Ġt h
Ġ ,
Ġ n
Ã ł
Ġ Ä
ĠÄ ĳ
Ġ .
Ġ a
Ġ s
Ġ l
Ġ m
Ġ b
Ġ h
Ġ v
Ġth e
Ġ w
h Ã
Ġ i
r e
Æ °
Ġ o
Ġ k
Ġ p
Ã ³
n d
Ġ g
a t
Ġ d
e r
Ġn h
i á»
Ã ´
Ġ &
Ã ¡
Ġt r
o u
n h
áº ¿
áº ¡
Æ° á»
Ġc h
á» Ļ
o s
o n
Ġt o
i ng
a n
e n
q u
Ġ ng
a p
Ġl Ãł
áº £
áº ¥
Ã´ i
o t
e s
Ġ r
Ġ f
o r
ap os
a l
Ġo f
Ġv Ãł
Ġi n
Ġth á»
Ġa nd
Ã ª
i s
e d
Ã ¬
a r
c h
á» ĳ
á»Ļ t
i t
i n
Ġc hÃ
Ġt Ã´i
á» ¯
Ġ y
Ġm á»Ļt
Ġv á»
ĠÄĳ á»
Ġc á»
º ng
Ġc Ã³
Ġk hÃ
Ġth at
o m
a y
Ãª n
áº Ń
Ġc Ã¡
a s
Ã ¢
l e
iá» ĩ
Ġ I
á»¯ ng
Ŀ i
l l
á» į
Ġy ou
v e
qu ot
Æ ¡
Ġ e
Ġw e
Ľ i
Ġnh á»¯ng
Ġw h
i c
Ġcá» §
ĠchÃ ºng
Ġcá»§ a
Ġp h
o w
áº §
i áº¿
u s
Ġ qu
Ġt a
áº¥ t
Ġk h
Ã £
l y
Ġi s
á» ±
áº¡ n
Ġb e
u t
o ng
i on
´ ng
Ġi t
Ġg i
Ġn Ãł
iá» ģ
e t
ĠkhÃ ´ng
á» Ł
Æ°á» £
Ġn Ã³
T h
Ġt á»
Æ°á» Ŀi
ĠÄĳ Ã³
Ġ x
iá»ģ u
Ġ re
en t
Ġng Æ°á»Ŀi
c t
Ġb áº¡n
Ġh a
áº¡ i
Ġo n
l d
u y
Ġtr ong
Ġthá» ĥ
Ġng h
A nd
Æ°á»£ c
Ġ ?
ĠnÃł y
ĠÄĳ Ã£
áº ¯
i d
ĠcÃ¡ c
Ä ĥ
ĠÄĳ Æ°á»£c
a ng
Ã¢ y
Ġnh Æ°
Ġh á»į
Ġ -
a m
u r
Ġth is
Ã´ ng
Ã¬ nh
i g
Ġr a
Ġch o
Ġvá» Ľi
áº¥ y
Ġs t
Ã Ń
Ġ- -
Ġd o
á» ĩ
i m
e re
V Ãł
Ġs á»±
c e
Ġch á»
áº ½
o p
Ġp hÃ
áº§ n
Ġg iá»
Ġf or
Ġm Ãł
Ġl i
áº£ i
v er
ĠlÃł m
s e
áº ±
k e
Ġ 1
Ġc on
Ġw as
o l
Ġ á»Ł
áº± ng
i r
Ġa n
it h
ĠÄĳá» ĥ
Ġs a
s t
Ġvá» ģ
Ġ C
Ġ T
Ġs áº½
Ġa re
Ġc áº£
t h
Ġ u
al ly
iá» ĥ
Æ¡ n
iáº¿ t
áº ·
Ġw ith
Ġh o
u á»ĳ
áºŃ t
i Ãªn
Ġ :
á» ¥
ĠÄĳ iá»ģu
Ä ©
Ġha ve
Ġth áº¿
a d
Ġl o
áº§ u
o d
Ġa b
Ġp r
Ġthe y
Ġg o
Ġc an
Ġs e
Æ°á» Ľ
á» ĭ
áº¿ n
Ã ¹
e m
Ġtá» «
Ãł nh
Ġkh i
© ng
at ion
ĠkhÃ ¡
h t
Ġs á»ĳ
ou t
Ġa s
ĠnÃ³ i
Ã º
Ġs o
i nh
© c
iá»ĩ n
Ġs h
Ġ M
S o
Ġw or
Ġn Äĥ
Ġh e
t er
± c
Ġ A
Ġwh at
ĠÄĳ áº¿n
áº¿ t
i l
Ġc om
ou ld
Ġl á»
i ll
Ġn e
Ġph áº£i
Ġn hÃ
u l
Ã ²
iá»ĩ c
Ġa t
Ġh á»
Ġab out
an t
Æ°á» Ŀ
Æ°á»Ľ c
Ä Ĳ
Ġ B
Ġr áº±ng
Ġ S
Ġ N
Th e
Ġn ot
Ġm e
ĠvÃł o
Ġg Ã¬
Æ°á»Ŀ ng
ĠÄĳ ang
o re
Ãł n
Ġv iá»ĩc
Ġf r
er s
a g
Ġl áº¡i
áº£ n
áºŃ n
us t
Ġth áº¥y
Ġa ll
Ġngh Ä©
ĠÄĳ á»Ļ
Ġ j
Ġr áº¥t
ĠcÃ¡ ch
Ã ½
Ġe x
Ġh Æ¡n
0 0
Ġ us
a c
Ġnh iá»ģu
ig ht
Ġm y
Ã¹ ng
Ġm á»
Ġs om
Æ° Æ¡
Ãł i
Ġp e
ar t
Ġ H
a in
e ar
Ġthá» ±c
iáº¿ n
ĠÄĳ áº§u
T Ã´i
Æ°Æ¡ ng
áºŃ y
Ġo r
es s
W e
op le
á» ĵ
ĠÄĳ Ã¢y
Ġd e
o k
Ġhá»į c
u m
Ġthe re
ĠkhÃ¡ c
áº¡ o
á»ĳ i
is t
ķ i
á»į i
Ã¢ u
Ġchá» ī
at e
es t
áº¿ u
N h
Ġc Ã´ng
Ġpe ople
Ġtr Ãªn
Ã¡ c
u re
Ġli ke
hÃ ºng
Ġ 2
a nh
a nd
ĠcÃ¡ i
ĠnÃł o
Ġon e
a b
i es
Ġb iáº¿t
Ġfr om
n t
Ġv Ã¬
it y
Ġs á»
i f
Ġch uy
ĠÄĳá» ģ
a o
ĠchÃ Ń
u ng
Ãł ng
e l
iá»ĩ u
o b
ĠphÃ ¡
áº »
ĠnÄĥ m
¢ n
Å ©ng
Æ¡ i
i nd
Ġk n
Ġo ur
ĠÄĳ i
us e
Ġbe c
uá»ĳ n
Ġthá» ©
Ġb ut
Ġd á»¥
Ġth Ãłnh
á»Ļ c
e ct
i a
áº¯ t
Ã¢ n
Ġa l
in k
Ġo ut
o g
i e
Ġin t
Æ° ng
a use
er y
Ġj ust
Ġ P
I t
u n
Ġc Å©ng
Ġm a
Ġnh Ãł
i ve
r ou
Ġt e
C hÃºng
u á»Ļc
Ġs p
Ġkn ow
al l
á» ģ
áº «
Ġb á»ĭ
Ã¡ ng
Ġthe m
Ġth ing
Ġ G
Ġqu an
Ġkh o
áºŃ p
a u
Ġm uá»ĳn
ÃŃ ch
i ch
or t
Ġthe se
á» ı
h er
Ġi f
Ġm Ã¬nh
Ġu p
Ġwh o
á»Ł i
Ġth ink
Ġv ery
Ġnh áº¥t
Ġ L
on e
Ġg et
c i
Æ°á» Ł
Ġt áº¡o
Æ°á»Ł ng
ĠÄĳá»Ļ ng
Ã¡ i
B ut
Ġgiá» Ľi
ĠchÃŃ nh
áº· t
ĠnhÆ° ng
Ġb y
áº¥ n
Ġn Ãªn
Ġwh en
Ġ D
a ct
Ġp l
ou r
W h
Ġa ct
Ġyou r
Ġv áºŃy
Ġt im
Ġm ore
Ġi m
Ġsom e
ĳ ng
Ġgo ing
Ãł y
á»ģ n
Ġk á»
Ġse e
in e
Ã² n
áº ©
Ġy ear
Ġlá» Ľ
g h
áº¯ c
Ãª u
Ġbec ause
Ġh Ã¬nh
Æ° a
Nh Æ°ng
Ġs u
Ãº c
á»ĩ n
i b
am e
Ã ©
Ġha d
iá»ĥ u
Ġh iá»ĩn
os t
Ġgiá» Ŀ
Ġsá»ĳ ng
ac k
Ġn á»¯
Ġt iáº¿
Ġw ould
Ġt áº¡i
ar d
Ġnh áºŃn
Ġwe re
Ġm á»įi
Ġh ow
os e
Ġe ver
Æ°á»£ ng
as t
Ġn áº¿u
Ġthe ir
Ġth u
¬ n
Ġqu y
i z
Ġc uá»Ļc
á»ĵ i
Ġt á»ĳ
Ã¡ n
k ing
Ġc áº§n
Ã¢ m
h i
a re
ĥ n
Ġh ay
Ġwh ich
Ġ K
Ġt á»±
áº· c
o c
Ġw ant
Ġre ally
Ġlo ok
Ġth Ã¬
id e
á»Ļ i
ÃŃ nh
u ally
ĠÄĳá» ĭ
Ġcom p
i v
a i
re at
ĠÄ Ĳ
ou s
ĠÄĳá» ĵ
Ġt áº¥t
Ġ Ã´ng
Ġw ay
Ġ áº¥y
Ġ E
Ġtá» Ľi
Ġb á»Łi
Ġl e
m ent
Ġthe o
u á»
áº« n
Ġb áº¯t
Ã´ n
an s
Ġt in
Ġc Ã²n
iá»ĥ m
ĠnhÃ ¬n
Ġlá»Ľ n
h ing
Ġ R
Ġwor ld
Ġc Ã¹ng
Ġb áº±ng
Ġ Ã½
Ġcáº£ m
iá»ĥ n
Ġt áº¿
Y ou
Ġsa u
Ġdá»¥ ng
Ġcá» ©
a ce
Ġth áºŃt
Ġl Ãªn
Ġb áº£n
Ġc Ã¢u
Ġa nh
Ġe m
Ġgi Ã¡
v en
Ġb r
Ġa g
áº£ ng
Ġex p
Ġsa o
th er
Ġthá» Ŀi
Ġchuy á»ĩn
Ġh ere
Ġtr á»Ł
p p
Ġqu a
Ġs ay
Ġthe n
iá»ĩ m
ĠnhÃ ¢n
Ġng Ãły
Ġc Æ¡
Ġtim e
Ġh as
Ġb á»Ļ
Th is
Ġs inh
Äĥ n
ag e
ion s
Ĺ i
Ġever y
ap p
Ġp er
Ġ 3
u d
áº£ nh
re s
ĠnÄĥ ng
áº¡ t
Ġd on
á»± c
Ġact ually
Ġm u
Ġm an
Ġsá» Ń
ĠphÃ¡ t
Ġtr Æ°á»Ľc
Ġn Æ°á»Ľc
Ġl u
ĠÄĳá» ķi
iá»ĩ t
Ġint o
Ġf e
Ġto Ãłn
en ce
Ġc ould
Ġm Ã¡
áº£ o
Ã¬ m
ı i
Ġph áº§n
a ch
Ġn Æ¡i
Ġw ill
Ġwor k
Ġgi a
Ã¡ nh
Ġth Ã´ng
i ld
Ġd á»±
Ġnh au
Ġt Ã¬m
Ġyear s
Ġmá» Ľi
r a
Ġd id
Ġth ay
Ġn ow
Ġv áº¥n
ĠÄĳá»ĭ nh
Ġ en
Ġo ther
f f
o nd
it t
Ġthing s
Ġh á»ĩ
Ġtr Æ°á»Ŀng
áº ¹
if f
Ġnh iÃªn
Ġt ÃŃnh
iá» ħ
Ġwh ere
Ġ F
Ġtr Ã¬nh
Ġ J
Ġm áº¡
Ġtá»ĳ t
Ġt Æ°á»Łng
Ã¡ ch
Ġth an
áº¥ u
Ġk áº¿t
ic al
The y
Ġsom et
Äĥ ng
N ow
áº¥ p
Ġ Th
Ġv áºŃt
Ġc l
e p
áº£ y
Ġd iff
Ġh app
Ġl Ã½
Ġh Ãłng
Ã£ y
Ġma ke
w o
Ġhá» ıi
Ġne ed
Ġan y
Ġ W
r y
£ p
Ġu n
Ġn o
ĠmÃ¡ y
áº¡ c
Ġ áº£nh
Ġg r
Ġ ;
Ġbe en
s o
ĠT Ã´i
f e
Ġhá» £p
Ġb u
om e
g e
ic e
Ġim p
Ġm áº·t
ir st
r o
áº¯ n
N Ã³
re e
Ġh Ãłnh
Ġtiáº¿ p
Ġsa id
Ġst art
re d
it e
Ġná»¯ a
Ġa r
Ġk inh
or y
ÄĲ Ã¢y
Ġgi an
Ġthá» ©c
³ ng
Ġh á»Ļi
Ġp art
al k
Ġtr á»į
Ġvá» ĭ
ow n
ĠC h
Ġth iáº¿t
Ãł o
Ġch iáº¿
Ń a
Ġt uy
p t
or m
Ġx em
Ġl iá»ĩu
v es
Ġr á»ĵi
ou nd
as s
Ġd i
Ġtrá»į ng
Ġo ver
Ġph á»¥
Ġ O
Ġho Ã¡
uá» ķi
Ġ á»
Ġsomet hing
Ġth ÃŃch
Ġt wo
Ġr ight
Ġd is
ou nt
Ġc Ã´
á»ĩ nh
e a
ĠÄĳá»ĵ ng
Ã¡ t
rou nd
iá»ħ n
Ġ V
Ġb ack
Ġmu ch
Ġgi áº£i
u e
Ġdiff ere
i Ãªu
Ġf irst
Ġne w
en s
se l
nd er
Ġtr áº»
e ll
Ġl Æ°á»£ng
Ġc all
áº¯ ng
Ġha i
Ġpr ob
v ing
Ġa i
Ġc o
Ġth Æ°á»Ŀng
Ġb áº¥t
r ong
Ġth ose
ĠvÃł i
ĠÄĳá»ģ u
ĠÄĳ o
p le
Ġsh e
ol og
Ġal so
á» ©c
Ġt iÃªn
e c
Ġgiá» ¯
at er
ig n
ĠÄĳ á»ĳi
Ġs Ã¡ng
á»Ļ ng
Ġa c
á» ĥn
Ġg ot
Ġh iá»ĥu
Ġqu Ã¡
Ġn ay
Ġt Ã¢m
Ġi d
Ġli fe
á»ĳ c
Ġcon t
g ht
Ġlo áº¡i
ÄĲ Ã³
ul t
Ġp o
c ent
Ġgiá» ĳng
Ġa m
Ġl ot
Ġl áº§n
Ġn á»
Ġk ind
itt le
Ġcá»© u
ve l
w ay
b er
Ġthá» ĳng
Ġb á»ĩnh
Ġb ao
áº£ m
B áº¡n
Ġl ittle
Ã² ng
ab le
od y
Ġv iÃªn
á» §
Ġu nder
Ġbe t
Ġ 5
á»ĭ ch
os s
r u
Ġh is
Ã ºng
Ġm ost
Ġngh á»ĩ
á»ĩ t
Ġm o
Ġtr á»
Ġch ang
iá»ģ n
ĠÄĳ iá»ĥm
00 0
Ġng o
ĠnghÄ© a
Ãª m
I n
Ġg á»įi
Ġre s
ic k
Ġnh á»ı
Ġd ay
Ġon ly
at ed
ĠchÃ º
Ġe ven
ation s
Wh at
Ġh er
Ġ 4
an k
ĠÄĳ Æ°a
i al
Ġho Ãłn
Ġt Æ°Æ¡ng
ic t
Ġx u
Ġ U
Ġngh iá»ĩm
Ġb l
Ġm ay
Ġpr o
Ġqu áº£
Ġd es
Ġa d
V Ã¬
Ġt Ã¡c
ĠÄĳ Æ°á»Ŀng
u c
ad e
Ġv áº«n
Ġman y
Ġta ke
ter n
Ġ1 0
Å ©
Äĥ m
Ġx áº£y
ĠT r
Ġdiffere nt
rou gh
Ġgo od
Ġsh ow
Ġchiáº¿ c
Ġb o
Ġng uy
Ġs y
Ġg en
e w
o od
Ġthu áºŃt
M á»Ļt
Ġb iá»ĩt
Ġd Ã¹ng
áº ³ng
ĠÄĳ áº¡i
p l
an ce
Ġh um
Ġb Ãªn
Ġtá»« ng
Ġre al
le m
Ġho áº·c
Ġd Ã¢n
Ġc á»ĳ
as e
Ġtr iá»ĥn
Ã£ o
uy á»ģn
iá»ĩ p
Ġchuy á»ĥn
Ġ1 9
Ġl Ãºc
Ġd iá»ħn
or d
V áºŃy
áº© n
at h
is h
i p
in t
Ġa round
Ġth rough
Ġ2 0
Ġdo es
Ġtr á»ĭ
Ġquy áº¿t
« ng
á»į n
Ġc ao
ot her
Ġngh e
Ãº p
Ã¡ o
n ing
ar k
ent s
ĠÄ ĥn
Ġp re
Ġd áº¡
Ġcom m
uá»ĳ c
res s
Ġtuy á»ĩt
Ġc áº§u
Ġtá» ķ
Ġmá» Ĺi
uá»ĳ i
Ġkho áº£ng
Ġt alk
Th at
f orm
Ġl á»±c
Ġk áº¿
Ġch áº¥t
Ġte ll
Ġkh u
Ġd own
Ġbe ing
Ġof f
C Ã³
ar y
Ġp ut
Ġlá» Ŀi
ĠgiÃ¡ o
£ i
áº§ m
ĠÄĳ áº¥t
Ġgi Ãºp
Ġus e
áº¯ p
² ng
Ġ Æ¡n
Ġ& #
i an
ib le
Ã µ
f ul
Ġth ou
n e
© a
Ġtr ung
Ġprob lem
er t
Ġ Y
Ġchá» §
áº© m
Ġb áº£o
H á»į
w n
or s
C h
u b
x t
Ġt iáº¿n
Ġh áº¿t
Ġs c
Ġs m
ĠphÃ ²ng
Ġhapp en
Æ°á» Ľi
j ect
Ġt Ã¬nh
Ġngh iÃªn
Ġch Æ°a
le ct
Ġin c
hÃ ´ng
Ġxu áº¥t
Æ°á»Ľ ng
u al
Ġm ang
et her
a k
t e
Ġ VÃł
We ll
d ay
Ġf act
Ġx e
Ġs ame
á» ¹
Ġli Ãªn
Ġc ount
ĠphÃ ¢n
Ġtr anh
Ġb Ãłi
á»ĳ ng
ĠN h
Ġr o
ĠkhÃ ³
ĠÄĳ Æ¡n
Ġn Ã£o
ow er
ar s
Ġt áºŃp
Ġtr uyá»ģn
Ġt uá»ķi
ĠÄĳ Ãºng
Ġv i
ĠÄĳ iá»ĩn
Ġph Æ°Æ¡ng
Ġb Ã¬nh
áºŃ u
Th ere
ÄĲ iá»ģu
ĠÄĳ áº·t
Ġtr y
a v
Ġt Æ°á»£ng
w e
Ġd á»
Ġcom e
Ġt ay
Ġb ig
Ġb iáº¿n
Ġc r
st em
ur n
Ġt iá»ģn
Ġgiá»¯ a
Ġy Ãªu
on s
Ġs áº£n
Ġde c
t ing
E D
Ġtiáº¿ ng
Ġp ers
i le
Ġf l
á»ĵ n
Ġth ree
Ġnh á»
Ġdo ing
Ġf ind
áº¡ nh
Ġth o
Ġb Ã©
áº· p
Ġtr áº£
Ġkh áº£
i ver
Ġng ay
Ġg reat
Ġkho a
Ġs ur
v ed
Ġh Ã£y
ÃŃ t
ch n
Ġth Ãº
Ġb á»ı
f t
ic ally
© p
Ġl áº¥y
Ġ !
N áº¿u
c es
Ġt y
Ġd r
r ic
sel f
Ġg áº§n
Ġhum an
i re
Ġper cent
Ġx Ã£
Ġst ud
Ġho áº¡t
Ġqu est
f ter
Ġbr ain
Ġwe ll
Nh á»¯ng
Ġ. .
Ġch iáº¿n
f ore
Ġch ild
Ġthá» ĭ
ĠÄĳ Ã¡ng
Ġsy stem
Ġs Ã¡ch
Ġa pp
Ġl ear
a il
ic s
Ġph áº©m
ig h
Ġi nd
Ġth Ã¢n
Ġl et
Ġo wn
áº¥ m
ĠphÃ¡ p
at es
Ġh iá»ĩu
ĠS t
Ġcall ed
Ġcá» ¥
ĠkhÃ Ń
ĠI n
Ġc uá»ĳi
Ġl ong
Ġ Q
ĠÄĳá» Ŀi
Ġte chn
Ġwh y
e nd
Ġch Æ¡i
Ã³ c
at ing
it ion
m er
Ġso ci
Ġs im
Ġin v
Ġbe l
th ing
Ġm áº¥t
Ġm inh
Ġsá» ©c
olog y
i ous
ill ion
Ġbu ild
Ġm ade
Ġká» ĥ
Ġw om
Ġl a
ĠphÃ º
áº« u
Ġre m
ĠM á»¹
į ng
Ġag ain
p er
Ġsh ould
c on
Ġmáº¡ nh
Ã© t
Ġimp ort
Ġngh iá»ĩp
Ġe nd
Ġc ol
o ol
Ġngo Ãłi
á» ķ
K hi
Ġ ÃŃt
Ġd áº«n
Ġunder st
Ġl áºŃp
re n
Ġt Ãłi
ĠÄĳ áº¥y
k s
iz e
á»¥ c
Ġ.. .
Ġexp er
Ġc reat
Ġhe l
Ġm Ã´
Ġse c
I f
« a
Ġlo Ãłi
h e
r i
Ġká» ³
Ġb á»©c
l es
áºŃ m
Ġin s
Ġt inh
Ġc our
ĠT ED
Ġlu Ã´n
Ġdá»± ng
Ġx Ã¢y
Ġchang e
Ġtr ÃŃ
H e
ol ut
Ġt iÃªu
it ies
Ġpers on
Ġph á»ĳ
á» Ń
uá»ĳ ng
Ġt Ãªn
Ġv Ã´
uy áº¿t
Ġc á»Ļng
Ġv Äĥn
Ġto day
Ġ Ã¢m
Ġchá» ©ng
Ġfe el
Ġ 6
Ġs ch
Ġdid n
op e
Ġthou ght
Ġtá» Ń
Ġimport ant
áº§ y
N g
Ġh Æ°á»Ľng
Ġa fter
Ġhá» ĵ
y s
Ġc ar
Ġnh áº¡c
Ġas k
Ġe v
Ġid ea
is e
Ġme an
Ġs ci
Ġthá» Ń
Ġ2 00
Ġo b
Ġv iáº¿t
Ġb a
ĠÄĳ Ã¢u
Ġchá» ©c
Ġnguy Ãªn
u ll
Ġch u
Ġk iáº¿n
Ġqu á»ĳc
Ġgi áº£
Ġl ast
áº¡ m
Ġá» ©ng
Ġvá» Ŀi
Ġstart ed
Ã ¨
a ve
og r
Ġex am
Ġch á»įn
ere st
Ã´ m
Ã¡ m
Ġgi áº£n
ĠI t
Ġquy á»ģn
b e
Ġh u
Ġch áº¿
a z
Ġtr ans
Ġunderst and
b ody
ĠÄĳ áº·c
Ġ The
t y
Ġtá» ¥
Ġg l
Ġs uy
Ġb á»ĳ
Ġch áº¿t
Ġt Æ°
Ġhel p
al s
á»ı i
iáº¿ m
Ġb Ãło
Ġw ent
áº¡ ch
es e
Ġmáº¡ ng
Ġb as
Ġit s
g an
Ġc áº¥p
Ġre l
Ġ Ã
Ġvá» ¥
Ġtr iá»ĩu
Ġb Ãł
áº¡ p
Ġt Äĥng
ou gh
or k
T rong
Ġin st
áº¹ p
Ġth áº§n
Ġn á»ģn
Ġst ory
ĠÄĳ áº¡o
Ġw r
Ġbe fore
Ġl áº½
Ġbel ie
³ m
Ġm ight
ĠÄĳá» ©a
Ġdes ign
Ġ And
Ġpl ay
Ġp ower
Ġng u
k es
p h
Ġtr a
Ġs Ä©
Ġpr od
Ġp ol
Ġkh á»ıi
ĠmÃł u
C Ã¡c
Ġ 9
Ġint erest
Ġh im
Ġne ver
Ġar t
ĠÄĳ Ã¡nh
Ġin ter
Ġgi ve
Ġf ound
Ġcour se
Ġm áº¹
ul ar
Ġ ent
Ġbet ter
Ġ 7
Ġg áº·p
áº¯ m
Ġth Ã¡ng
Ġs l
Ġd Æ°á»Ľi
Ġre c
at ch
Ġtá» ĵ
Ġk id
Ġcon s
Ġsch ool
Ġt urn
Ġ 8
Ġst ill
Ġab le
ĠchÃº t
Ġf am
ist s
Ġb it
Ġx uá»ĳng
il ity
Ġt u
am p
i x
i ly
l ic
Ġg áº¯ng
Ġha nd
Ġpo int
Ġim ag
Ã¢ ng
Ġfe w
Ġlear n
at her
i ence
Wh en
we en
Ã¡ p
ĠphÃ ©p
ot h
ĠN ew
vel op
Ġqu anh
ĠnhÃ ³m
oc k
Ġd á»ĭch
Ġm á»Ł
Ġb ay
Ġ %
Ġc ame
Ġac c
at a
Ġvá» ±c
Ġkh iáº¿n
Ġx Ã¡c
Ġd á»¯
Ġ Ã¡n
Ġcomm un
Ġne xt
Ġch ia
ĠC hÃºng
Ã£ i
Ġto g
Ġtog ether
n ess
Ġd uy
er g
Ġr á»
is s
Ġth am
Ġth Ãªm
Ġc ell
Ġtr Ã²
¢ u
Ġan other
Ġth uyáº¿t
Ġe ach
Ġmá» ©c
Ġk e
Ġnh anh
ĠA f
Ġqu ay
Ġcomp le
Ġlo ve
it ed
re ad
Ġdáº¡ ng
al th
ĠÄĳ Ãłn
Ã³ ng
Ġcá» ±c
Ġg Ã¢y
w ard
Ġr Ãµ
Ġbet ween
Ġvá» įng
ct ion
en se
Ġquest ion
Ġde velop
Ġc re
Ġh igh
iz ed
Ġm od
Ġngu á»ĵn
ĠA nh
Ġag o
Ġn um
Ġv Ã¹ng
ar ch
Ġcáº£ nh
i ed
ĠÄĳ áº¹p
Ġ3 0
Ġb Ã¡o
Ġs ort
Ġtá»¥ c
Ġ You
Ġd Ã¹
Ġ We
Ġgi Ã¡c
á» ī
Ġpl ace
Ãº t
mer ic
Ġs er
Ġm in
Ġch áº¯c
Ġs Ã¡t
Ġwor d
i Ãª
Ġm on
Ġc Ãłng
in ess
Ġdá» ħ
Ġx a
Ġd ata
ing s
ĠÄĳá» §
Ġus ed
v Ãł
9 1
B Ã¢y
9 3
m s
Ġc Ã¢y
Ġb Ã¢y
Ġtr ang
K hÃ´ng
Ġp at
ap h
Ġv ÃŃ
Ġph im
ĠphÃ Ńa
Ġnhá» Ľ
p e
Th ank
one y
Ġf our
ure s
Ġb i
Ġb iá»ĥu
Ġh Æ°á»Łng
way s
Ġv ide
Æ° u
Ġgr ow
Ġh Ã´m
ĠÄĳo áº¡n
ot e
c o
Ġto o
Ġex t
Ġm et
Ġv u
Ġchá» ĭ
Ġwom en
ĠC hÃ
Ġm om
Ġv Å©
Ġk Ã¬
Ġch áº³ng
Ġtr Ã¡i
Ġpl an
Ġk iá»ĥm
Ġat t
iÃª ng
Ġm ed
Ġexam ple
Ġth Æ°Æ¡ng
et s
Ġl ight
form ation
Ġf in
Ķ ng
Ġng á»
Ġ5 0
Ġw ater
if ic
Ġd Ãłi
Ġv Ã²ng
ĠQ uá»ĳc
ere d
Ġo ld
Ġre ad
Ġo p
Ġch á»¯
Ġng á»¯
ĠA meric
Ġlu áºŃn
al e
ec ause
Ġd one
Ġph áº£n
ce pt
o ld
Ġ1 5
in s
con om
Ġli ve
Ġc ent
ĠÄĳ Ã´i
Ġc are
a ir
Ġ1 00
áº¡ y
Ġsm all
ĠÄĳ áº§y
Ġl ess
Ġdoes n
and s
Ġdá»¥ c
Ġwant ed
at ive
Ġtechn ology
or n
Ġlá» £i
Ġsec ond
Ġm us
ie nd
Ġk ia
Ġcont r
á»± a
Ġgi áº£m
Ġprod u
Ġexp l
Ġbe h
áº± m
Ġ ed
H Ã£y
a h
Ġlook ing
Ġth uá»ĳc
tern et
ab ly
Ġal ways
o y
Ġth áºŃm
Ġk iáº¿m
on t
al king
Ġbelie ve
Ġvá» «a
ĠchÃ ¢n
sel ves
T r
Ġt ÃŃch
Ġm oney
Ġth Æ°
Ġtr Äĥm
Ġe conom
Ġth Ã´i
Ġe ff
o ll
Ġchild ren
Ġvide o
Ġpart ic
Æ°á» ¡
Ġh á»Ļ
Ġgen er
ĠTr ung
ĠÄĳ Ã¬nh
iáº¿ u
Ġwor king
Ġcomp ut
Ġh áº¡n
c c
Ãł u
Ġb us
Ġgi ao
Ġb Æ°á»Ľc
ation al
Ġl á»ĩ
Ġl ai
Ġt er
Ġre as
p r
Ġp oss
Ġpr oc
Ġr un
Ġd em
ĠÄĳ Ã´
Ġwho le
n ce
Th áº¿
Ġte ach
Ġs Ã¢u
Ġc a
Ġr ob
Ġf ar
Ġbo ok
Ġa way
Ġtá» ī
Ġm Ã´i
Ġh y
Ġto Ã¡n
Ġg uy
Ġpro ject
Ġtr áº£i
Ġtrá» Ŀi
Ġh ard
iá»ģ m
Ġe ar
Ġtá»ĵ n
Ġin formation
Ġd iá»ĩn
Ġe l
Ġmo ve
hi p
Ġr á»Ļng
Ġn at
Ġphá»¥ c
Ġcount ry
Ġth anh
Ġtry ing
Ġh ome
Ġch i
i o
Ġkid s
Ġd Ãłnh
Ġn á»ĳi
Ġf ood
ĠÄĳá»ĭ a
Ġcre ate
ĠÄĳo Ã¡n
e e
Ġm ind
Ġl Ã²ng
ur al
Ġth uá»Ļc
uá»ĳ t
Ġhe alth
r ies
Ġr iÃªng
Ġre g
Ġvá» ĩ
l ed
Ġt áº¡p
ir d
Ġres p
B ecause
Ġl ar
Ġsá» £
Ġm áº¯t
ĠÄĳá» ©ng
Ġm á»¥c
hÃ ¡
Ġná» ķi
į c
Ġfr iend
Ġdáº¡ y
Ġl Ã£
Ġph á»§
n ect
t en
Ġth ÃŃ
ĠA r
is m
Ġsa i
olut ion
Ġv áº»
ĠÄĳ áº¡t
at ter
Ġle ad
Ġm illion
Ġus ing
Ġngh i
Ġdo ll
Ġf ive
Ġe ng
Ġme ans
Ġc Äĥn
Ġth Ãºc
Ġng hÃ
Ġká» ¹
Ġlu áºŃt
Ġs áº»
in es
b o
Ġt á»ĳi
Ġm áº«u
Ġx ung
it s
ac es
Ġs k
Ġl á»ĭch
Ġv is
ĠIn ternet
m an
ĠN g
Ġp ict
Ġs ing
Ġsu pp
Ġbec ome
Ġ So
in a
c k
Ġ Ã¡nh
Ġop en
Ġb Ãłn
Ġsu b
Ġproc ess
ĠÄĳá» įc
Ġmay be
áº· ng
Ġsp ace
Ġlá»Ľ p
Ġrob ot
áº¡ ng
Ġf ut
ru ct
ĠU n
Ġtr á»¥
Ġin f
Ġst r
Ġká» ·
g g
or ies
Ġy áº¿u
Ġcon f
Ġp ub
ment s
Ãł m
Ġto ok
Ġthink ing
Ġkh áº¯p
s w
k ay
Ġcomp an
b le
Ġevery thing
w h
Ġfor m
Ġsh are
Ġvu i
Ġtr Ã´ng
Ġkho áº»
Ġan im
Ġor gan
Ġe lect
Ġfut ure
á» ©
Ġt iáº¿t
Ġc ap
Ġch Æ°Æ¡ng
r an
Ġch áº¡y
Ġb est
Ġng á»ĵi
ĠphÃ Ń
ie w
i er
u es
Ġen erg
Ġg Ã¡i
Ġsay s
a ut
Ġf un
ĠphÃº t
Ġp ass
Ġqu ite
rou p
c er
Ġchá» ¥
Ġc áºŃu
Ġp op
Ġ X
ent ion
Ġtrá» £
ĠA l
Ġc uá»ĳn
Ġm á»ĳi
Ġsoci al
Ġs ol
Ġk Ã©
- -
Ġs áº¯c
Ġb uá»ķi
Æ°á»£ t
Ġre p
Ġnum ber
Ġch áº¯n
Ġl ang
ou se
á»ĵ ng
Ġ1 2
Ġs uá»ĳt
it ing
Ġen ough
Ġhe ad
Ġun iver
al f
H ow
Ġh áº§u
ver n
Ġle ft
Ġ Wh
Ġk iá»ĩn
Ġan sw
u ff
o h
Ġli ves
Ġb iá»ĥn
et y
e ver
Ġtr Ãºc
Ġcom es
Ġm Ã¹
á»į c
Ã Ķng
Ġc le
Ġch ung
e as
im es
ert ain
Ġenerg y
Ġget ting
u nd
Ġng Ã´n
al le
Ġmu a
Ġg roup
ci al
Ġdo anh
á» ĥ
Ġb ody
Ġbe g
Ġc ou
Ġw ar
Ġk iá»ĥu
it al
Ġs Æ°
ĠP hi
Ġma king
ĠAf ric
ĠH e
Ġp res
ĠI s
ĠY ork
Ġwe b
v ir
en c
Ġcá» Ńa
a ke
Ġ áº
Ġv áºŃn
ic es
ĠcÃ¡ nh
ĠkhÃ¡ m
Ġtim es
Ġs á»Ł
Ġng áº¡c
Ġgl ob
Ġmon th
Ġs et
ĠI nd
Ġx Ãºc
Ġm en
Ġx Ã©t
Ġre se
r on
Ġsp ec
Ġa ut
Ġro om
Ġr Ãłng
Ġmom ent
Ġl Ã¢u
Ġb an
Ġhappen ed
Ġtho áº¡i
Ġtu áº§n
Ġs ense
Ġb Ã¡n
er ing
Ġcount ries
Ġ /
Ġs ound
Ġh iá»ĥm
Ġto p
Ġma kes
r oss
Ġprob ably
Ġhá»ĵ i
em ber
t ty
Ġdoll ars
vir on
Ġj ob
ĠP h
re en
Ġwith out
G iá»
ĠchÃ ¡
Ġgo vern
Ġc áº¥u
Ġcon nect
Ġbus iness
id d
e x
Ġ What
Ġph ot
Ġt alking
Ġke ep
Ġnh iá»ĩm
l and
ĠH o
Ġinterest ing
ur ing
ĠN Ã³
Æ°á»¡ ng
n er
ap s
Ġw ond
Ġp ie
Ġph á»©c
Ġmus ic
Ġth iÃªn
Ġbe aut
Ġrese arch
Ġv al
Ġre d
Ġse em
Ġk ÃŃch
A nh
Ġd ist
Ġc ung
ot t
Ä© nh
Ġreas on
Ġexper ience
Ġn áº±m
Ġnh áºŃp
Ġto ld
Ġchuy Ãªn
Ġchá»¥ p
Ġst re
Ġad d
u p
Ġpre tty
Ġen viron
Ġb Ã³ng
ver y
á»§ ng
Ġed uc
O ne
Ġh ist
ver s
á»ĳ t
Ġwe e
Ġel se
ĠB áº¡n
Ġsci ence
Ġng Ã´i
Ġmin ut
B á»Łi
Ġd a
Ġyou ng
Ġc ur
Ġth Ã¡i
Ġc áº¡nh
Ġe y
Ġsu ch
i or
Ġk áº»
Ġ4 0
â Ģ
uy á»ĩn
Ġac ross
Ġc ult
b r
o v
á»¯ u
Ġph ys
Ġall ow
Ġsim ple
at t
Ġst and
Ġ âĢ
Ġo pp
uy Ãªn
Ġd et
id ed
Ġ1 8
ĠÄĳá»Ļ c
Ġpol it
Ġn am
Ġpr ot
Ġv iá»ĩn
ate ly
Ġm atter
Ġcell s
Ġh áº¡nh
M y
Ġb Äĥng
Ġh á»¯u
Ġlang u
áº µ
áº¿ p
Ġsa w
e ad
Ġs ign
Ġh alf
Th ese
Ġst uff
Ġho Ãł
Ġng Ãłnh
Ġchá» ©
Ġchá» Ĺ
ogr aph
as h
Ġe as
Ġc ase
Ġd ung
Ġtr Æ°á»Łng
d er
i ent
Ġv o
Ġg u
Ġway s
Ġask ed
Ġv áº½
Ġkh á»§ng
Ġli ving
Ġth áºŃp
l f
Ġs ide
Ġm ark
ĠB r
ort un
Ġ ÃŃch
Ġm or
áºµ n
Ġst op
Ġins ide
Ġmod el
ĠÄĳ a
Ġsci ent
Ġfam ily
ĠG o
Ġl ist
Ġh our
Ġh ope
Ġany thing
g s
Ġde p
Ġchu áº©n
g er
al ity
Ġbuild ing
D o
Ġb Ã¡c
a w
Ġb ad
Ġqu Ã½
áº© y
Ġbr ing
ĠphÃº c
Ġg hi
Ġth iáº¿u
in ce
Ġhapp ens
il t
Ġl ater
Ġv ir
Ġchá»ĭ u
wh ere
Ġa ir
im e
Ġgo es
l ing
Ġl ab
i ke
r ib
Ġhá» ģ
Ng Æ°á»Ŀi
Ġl áº¯ng
Ġho áº¡
Ġx anh
Ġcom ing
Ġt áº¥m
Ġwh ile
ul ation
Ġtá» ĩ
Ġs áºµn
Ġn iá»ĩm
Ġw rong
Ġch ar
Ġp ain
á»Ń i
Ġglob al
Ġc or
á»Ļ n
á»ĳ n
Ġpartic ular
Ġb re
Ġnh iÃªu
Ġph áº¡m
Ġre st
Ġtá» ©c
Ġsing le
Ġkh Äĥn
ĠK hÃ´ng
Ġt Ã¡i
P h
ĠÄĳ au
S au
Ġtr ai
Ġenviron ment
Ġw atch
Ġy et
Ġre f
ac y
Ġsp ea
m ost
Ġ Ã¡p
Ġs áº¯p
Ã³ n
Ãº i
Ġproblem s
F or
Ġh Æ¡i
S he
it er
Ġgi r
Ġl áº¡
Ġg á»
ap e
Ġf ig
iv id
Ġpro f
Ġch á»ĳng
Ġl áº¡c
Ġe qu
Ġth áº¥t
Ġs it
ar th
Ġpr op
are nt
u Ã´i
Ġha ving
Ġ2 5
Ġday s
Ġc am
ĠS h
T áº¥t
Ġm áº·c
Ġhe art
ĠNh Æ°ng
e g
Ġde f
Ġma ch
ogr am
Ġc áº£i
ĠÄĳ Ã¡
Ġm Ã£
Ġm ong
Ġdá»± a
Ġt est
Ġth ous
ĠchÃ ¢u
ĠÄĳÃ³ ng
Ġde v
Ġcomple te
Ġbeg in
Ġlo c
Ġse en
Ġcontr ol
Ġsome one
Ġx á»Ń
Ġmy self
n y
Ġch a
ter s
Ġword s
Ġb illion
y ing
Ġeff ect
Ġpub lic
Ġt re
A s
C áº£m
iz ation
ater ial
Ġc ertain
Ġl á»±a
Ġtr á»±c
Ġm em
Ġof ten
Ġle vel
Ġsay ing
á» ŀ
Ġam az
N Ãªn
Ġp os
ĠÄĳá»Ļ i
r ow
Ġb Ã¡nh
Ġw alk
Ġh áºŃu
Ġg ame
Ġcá» ķ
Ġpict ure
Ġwith in
Ġhe ar
s ide
Ġid eas
Ġtá»ķ ng
á» Ľi
Ġs ix
Ġlook ed
it ive
Ġkh á»ķ
Ġx in
Ġgir l
Ġn á»Ļi
Ġs ure
Ġse lf
Ġwh ether
Ġb oth
en e
Ġposs ible
Ġc ity
Ġkh áº¯c
Ġprodu ct
Ġm áºŃt
Ġv Æ°á»£t
Ġk ill
Ġx áº¥u
ant s
Ġt áº§m
Ġch Äĥm
Ġcomput er
Ġ áº©n
Ġf ore
Ġtá» ·
Ġcommun ity
T áº¡i
Ġd áº§n
Ġon ce
Ġto Ãł
l ish
Ġg á»Ńi
Ġnh u
un ch
Ġnot hing
Ġansw er
l ess
Ġf il
Ġlangu age
Ġth iá»ĩn
Ġhá» ©ng
Ġex c
Ġh áº¡t
Ġtr ue
Ġex act
an c
Ġp ar
Ġcl ass
o ot
Ġm ag
ĠE arth
L et
¨ o
ap er
ist an
ur y
¤ n
Ġm aterial
Ġu nt
Ġind ivid
Ġl Æ°u
Ġag e
Ġd anh
Ġal most
Ġwork s
Ġnew s
t s
Ġt ÃŃ
Ġc ond
alle ng
Ġtr áº¡ng
Ġch iá»ģu
Ġsp end
Ġent ire
ĠAfric a
p ect
Ġnh iá»ĩt
Ġis s
ĠlÃ£ nh
H ere
Ġn ight
Ġs ang
read y
Ġamaz ing
ĠÄĳ á»Ļt
Ġf ace
us h
Ġs w
Ġd áº§u
Ġn iá»ģm
re ct
Ġbeaut if
Ġinc red
idd le
Ġdis co
Ġrem ember
ĠH ow
r op
Ġch alleng
Ġbas ically
Ġindivid ual
Ġt á»Ļi
ag es
Ġhe ard
ĠnghÃ ¨o
Ġnh iá»ħ
oc r
l ine
Ġ Well
Ġn áº¡n
ie ld
Ġngo áº¡i
ust r
Giá» Ŀ
Ġc áºŃn
at ic
Ġimag ine
Ġthá» §
Ġc ost
iv es
Ġáº ¤n
Ġm ar
Ġu ng
Ġdec ided
Ġlook s
Ġchá»¯ a
Ġt reat
re am
Ġas s
Ġk ÃŃnh
er a
on es
Ġal ready
Ġf ull
Ġx o
Ġsu cc
Ġhist ory
ĠÄĳ áº¥u
Ġa ff
Ġp ast
im ate
Ġsp e
Ġn et
Ġd áº¥u
ĠÄĳ áº©y
Th á»±c
Ġfriend s
Ġa w
Ġto ol
Ġexper im
N A
ĠÄĲ Ã³
Ġá» ķ
Ġch e
Nh Æ°
Ġbu ilt
Ġná» Ĺi
oll ow
Ġcont in
t on
Ġwond er
e ly
at s
ĠUn ited
Ġre t
á»ĵ m
ea h
Ġad v
Ġsucc ess
og le
Ġh Ã¡t
Ġg hÃ
Ġst ories
os ed
nd red
Ġhu ndred
ĠkÃ© o
v ious
Ġng á»§
Ġcol lect
Ġfig ure
Ġth Ã¡ch
ĠÄĳ en
Ġf und
Ġf ollow
Ġp ay
Ġ1 1
ĠkhÃ¡ ch
Ġcou ple
Ġt áº¯c
Ġm il
ĠâĢ Ķ
Ġbeautif ul
Ġ Ã´
Ġw a
ou th
Ġin n
Ġwas n
ĠÄĲ á»Ļ
Ġres ult
Ġmonth s
Ġgi áº¥y
ĠChÃ ¢u
Ġgovern ment
Ġpie ce
Ġeduc ation
er n
Ġf ree
Ġtr ain
Ġph i
ent al
Ġng Æ°á»£c
Ġlar ge
ion al
Ġpr ogram
Ġn uÃ´i
are d
b on
x y
iáº¿ p
Ġhu ge
Ġminut es
s y
Ġb áº¡i
Ġor der
Ġbec ame
Ġ Æ°á»Ľc
iv ity
Ġde ep
b ers
is ing
Ġra d
ra z
V Ã¢ng
as ter
Ġta king
ĠT Ã¢y
oc us
Ġunt il
Ġqu áº£n
o ve
w ork
Ġso Ã¡t
Ġuniver se
Ġv iew
Ġcon st
Ġthou gh
Ġsoci ety
Ġ This
Ġ8 0
is ion
in ed
et ic
Ġlá» Ĺi
Ġevery body
Ġcomple x
am es
Ġt iá»ĩn
Ġl Ä©nh
Ġcá» Ń
Ġná» Ńa
Ġm áº¯c
Ġqu ick
ang e
Ġho áº¡ch
Ġthem selves
Ġ They
Ġm Æ¡
Ġwom an
Ġlearn ed
Ġl ÃŃ
Ġm ust
Ġfr ont
áº© u
Ġplan et
Ġeng ine
m ed
Ġg á»ĵm
Ġinc re
on y
Ġte am
Ġnhiá»ħ m
Ġd Æ°Æ¡ng
Ġtá»ĳ c
Ġexact ly
Ġch im
Ġkh iá»ĥn
i ans
t o
om es
ÄĲ á»ĥ
Ġcreat ed
Ġt áº£
Ġs Ã³c
Ġf ocus
ĠSt ates
Ġc áº¯t
Ġcan cer
Ġget s
Ġbeh av
Ãµ i
oh n
d en
Ġg Ã³
Ġ Z
© t
Ġh áº¡i
an e
Ġg iáº¿t
Ġcomplete ly
A ll
Ġm ic
Ġh ouse
Ġth áº³ng
ĠM á»Ļt
i k
Ġhappen ing
Ġstud y
X in
Ġqu en
ĠGo ogle
Ġb Ãły
Ġd Ã¢y
ou d
Ġqu Ã¢n
Ġ6 0
Ġt Ãłu
Ġkh á»ĳi
Th áºŃt
Ġkn ew
ĠÄĳ Ã´ng
th ers
i red
Ġst ruct
ĠÄĳ ÃŃch
Ġchiáº¿ u
ĠNh á»¯ng
Ġl Æ°á»Ľi
Ġb á»
ĠÄĳá» ©c
C Ã¡i
e v
Ġn ame
ab ility
Ġquest ions
Ġhour s
re t
c ul
u a
Ġth áº¥p
Ġsome body
Ġnhá» Ŀ
Ġd Ã²ng
Ġm Ãª
Ġshow s
Ġb áº§u
ĠC Ã³
Ġpl aces
Ġpro v
Ġngá» Ŀ
Ġnat ure
Ġc Æ°
Ġn iÃªn
ĠÄĳ Ãªm
Ġl Ã¡i
Ġis n
Ġkind s
Ġb ab
Ġit self
ĠÄĳá» ķ
Ġn on
Ġd Ãłng
ent ial
ĠphÃ ³ng
Ġla w
S á»±
i qu
Ġc Æ°á»Ŀi
Ġth i
Ġkh ai
Ġs Ãłng
ic ult
Ġhá» Ĺ
Ġa v
Ġour selves
Ġch áº¥p
Ġng áº¯n
Ġr á»ĳi
Ġx áº¿p
áº· n
el s
Ġagain st
Ġg á»ĳc
Ġme et
Ġon es
Ġdiffere nce
Ġt áºŃn
Ġab s
og n
Ġká» ī
itt ing
ĠCh ina
c le
Ġevery one
Ġph ong
ut e
Ġlist en
Ġn Ã´ng
Ġg áº¥p
as ure
ĠÄĲ Ã¢y
e ase
ĠÄĳ em
á»¯ a
ĠÄĳá» ¡
Ġst ate
uá» ·
Ġo thers
Ġopp ortun
Ġs ong
Ġs ince
Ġb áº¡o
Ġgi Ã¢y
Ġmark et
Ġspea k
Ġs Ã¢n
Ġl áº¯m
Ġp arent
Ġne ur
ra w
Ġthá» ¥
om et
ĠTh at
Ġcle ar
Ġexp ect
Ġstud ents
Ġob ject
er ia
Ġcl ose
pt ion
Ġtr Ã¡ch
Ġr is
Ġse x
Wh y
Ġg áº¯n
Ġg ave
at or
ĠE ng
Ġwork ed
Ġsomet imes
Ġinv est
Ġrel ations
Ġinn ov
I V
ī nh
Ġm ess
Ġm other
Ġv ai
ĠcÃ¡ o
Ġbá»ĳ n
Ġexpl ain
g et
r act
ol ved
Ġho ld
ĠAmeric an
Ġc Ã¢n
ist ic
l er
Ġl ine
Ġb ÃŃ
at ure
id er
ĠC an
ĠCh r
Ġcompan y
ĠD NA
Ġdiff icult
Ġtrá» «
Ġr ather
ĠÄĳá» £i
ne y
C Ã´
Ġd ru
ĠG od
Ġw on
re m
Ġp ot
Ġng Ãłn
Ġf ail
ur s
ĠE ur
Ġt Ã´n
Ġth ird
Ġa ud
Ġph áº«u
m a
Ġm ass
áº§ ng
um p
Ġcould n
Ġdis ease
Ġty p
l ud
Ã Ŀ
Ġh Ãłi
Ġsur pr
Ġthous ands
h aps
en ces
Ġinter act
b y
Ġ z
Ġx uyÃªn
ĠH IV
Ġde al
ib ly
Ġth Æ¡
Ġb ott
Ġho a
if e
ĠÃ Ĥ
Ġm iss
Ġb uy
Ġnh áº£y
ar ing
Ġco ll
ĠAmeric a
Ġl and
in ation
Ġchuy áº¿n
g est
Ġs iÃªu
Ġi ll
Ġhapp y
Ġam ount
Ġdá» «ng
Ġo per
op h
ill ions
uá» Ĺi
Ġar ch
Ġn orm
ĠB ut
Ġout side
Ã¨ n
sy ch
Ġl iter
od e
Ġchang ed
Ġlear ning
ĠInd ia
Ä ĳ
Ġc ir
Ġk Ä©
us s
Ġde l
Ġpower ful
re w
Ġngh á»ĭ
Ġst ep
ĠmÃł n
ĠH Ã£y
Ġem ot
i um
Ġo il
Ġk Ã½
Ġta kes
Ġal ong
Ġsystem s
Ġear ly
m ing
Ġl ao
Ġw ind
Ġg h
Th en
Ġid ent
Ġbehav ior
Ġt áº§ng
Ġgi ai
Ġre v
el t
bo ok
Ġpop ulation
n ot
ĠÄĳ áº£m
o ke
Ġ áº£o
Ġt áº£i
ĠTh ank
Ġs ens
Ġe le
Ġimp ro
Ġh áº¥p
as es
Ġde ath
Ġspec ies
Ġturn s
Ġp red
Ġle ast
Ġapp ro
ward s
ot s
Ġf ear
Ġ1 6
Ġbl ack
Ġ19 9
E very
k en
Ġf ly
Ġph á»ķ
em ent
Ġsh ort
Ġj our
s h
Ġd uring
pl es
Ġinst ead
Ġter r
Ġguy s
Ġpres ent
Ġlá» ĵ
is on
5 0
Ġc al
er v
ĠO h
Ġmach ine
Ġkh á»Łi
Ġá» §
Ġcult ure
Ġng Äĥn
Ġlot s
uc k
T o
á» ³
Ġt Ã¹
Ġm ot
Ġnh áº¯c
ĠJ ohn
id ent
ĠN o
ag ed
Ġrá» «ng
Ġdem ocr
Ġanim als
p ly
³ n
Ġm iddle
id es
Ġchá»ī nh
Ġgr and
ith er
Ġreal ized
Ġeas y
T uy
i ents
Ġe at
f ect
á» «
Ġp aper
Ġg Ã³c
or th
ow s
Ġyour self
Ġ es
áº ³n
Ġth áº£i
Ġf re
Ġf all
le ep
ĠkhÃ¡ i
iver s
O r
j or
iáº¿ ng
Ġgi ven
Ġre cent
Ġprot ect
o ok
Ġt em
Ġb om
Ġh Ãºt
Ġv ar
Ġd ig
as ed
Ġ9 0
ĠAf gh
Ġim age
Ġar g
ĠN am
ast ic
Ġmo le
Ġhá»Ļ p
Ġnghi Ãªm
Ġm ain
Ġd ream
ĠC ar
ull y
Ġbeh ind
Ġnat ural
Ġc ut
Ġl uyá»ĩn
Ġm Ã³n
am a
ver age
c om
en n
ap t
Ġ1 4
Ġan t
Ġneed ed
ĠChÃ º
Ġm ath
Ġk Ãª
Ġ20 1
Ġsim ply
Ġá»ķ n
ĠÃĤ u
l a
Ġkhu Ã´n
Ġl Ã¡
it ch
Ġneed s
Ġgi Ãłu
Ġvi ol
Ġperson al
ĠtÃŃ n
Ġrelations hip
Ġc áºŃp
Ġf ight
Ġf ather
Ġchu á»Ļt
Ġp sych
Ġse ven
Ġex ist
Ġey es
ĠAfgh an
Ġhand s
ve red
Ġgi Ãł
Ġdo ct
Ġcol le
Ġfin ally
f ace
an n
Ġf ield
Ġpr act
M á»įi
Ġl im
Ġl iá»ĩt
Ġco i
Ġng Ã¢n
Ġle ave
Ġcompan ies
ģ m
á» ·
Ġl ow
Ġtr ad
ĠÄĳá» ı
Ġcent ury
y ear
ĠÄĳ Ã¡m
Ã³ t
Ġst at
Ġph áºŃn
Ġst ay
Ġtuy áº¿n
Ġeconom ic
c ed
m b
Ġt áº¥n
Ġth áº¯ng
Ġf ac
it ions
Ġl an
Ġf elt
in ary
Ġper form
Ġdi rect
á» Ĺi
ĠT V
ĠH á»į
Ġmed ia
led ge
Ġloc al
h o
Ġtr ao
ĠC al
Ġma jor
our ce
ĠF r
i pp
Ġs un
Ġ7 0
Ġsupp ort
Ġpolit ical
R á»ĵi
os p
Ġr u
Ġta i
Ġ1 3
Ġare a
Ġfe et
Ġturn ed
ĠEur ope
c l
ĠÄĳ áº£o
Ġh uá»·
iv ed
ro om
Ġacc ess
Q u
e ople
Ġn áº·ng
Ġm Ã´n
Ġd u
ĠT áº¡i
ill s
olog ical
Ġob vious
Ġext ra
Ġval ue
Ġbre ak
V á»Ľi
i ally
Ġh áº³n
Ġp le
Ġchá» ©a
Ġsu per
Ġcomm on
Ġfam il
Ġd áºŃy
ĠN áº¿u
Ġmá» ģm
ain s
au ght
Ġta ken
Ġcan not
Ġser v
Ġpat tern
ĠHo a
b or
Ġv Ã¢n
Ġch em
Ġsp ent
Ġper haps
av id
Ġcommun ic
Ġke y
Ġbegin ning
ĠnÃ³ ng
id ence
Ġst rong
Ġpr ote
á» Ŀi
in al
Ġsee ing
Ġrec ord
S ome
Ġm áº¥y
ĠphÃ ¹
Ġmo ving
ĠchÃ ³
ĠC on
Ġor ig
um ent
Ġlong er
Ġext rem
Ġs ent
Ã² i
ĠP r
Ġmáº¡ ch
ĠchÃ ³ng
Ġle g
Ch á»ī
enc y
ĠchÃ¡ u
L Ãłm
Ġ á»ĳng
Ġm áº½
or ld
Ġ1 7
Ġse nd
á»ĭ p
ĠB áº¯c
iv ing
Ġpart s
Ġlead ers
ĠmÃ¹ a
ĠÄĳ iá»ĥn
Ġm ult
Ġb uá»Ļc
Ġv ac
rou ght
Ġquy á»ĥn
Ġth iá»ĩu
Ġs Ã³ng
Ġd Æ°á»¡ng
Ġtr Ã¹ng
ĠmÃ¡ u
Ġe ight
f ully
Ġh Ã£i
ut h
Ġ $
ı ng
Ġh áº¡
Ġd raw
áº¥ c
Ġli nh
Ġper fect
Ġen c
Ġsur v
Ġphot ograph
Ġwonder ful
Ġquick ly
e al
Ġc Å©
Ġth áº£o
Ġbe gan
Ġre ach
Ġrá» Ŀi
Ġfil m
ĠChÃº a
Ġs Æ¡
et er
Ġdes c
Ġchá»§ ng
Ġgrow th
V ÃŃ
v ent
ĠÄĳ e
ĠkhÃ¡ n
our ces
av or
Ġev ent
A t
Ġs ize
Ġg round
Ġd Ãµi
Ġu á»ĳng
Ġinc lud
Ġwee k
l t
ĠÄĳ iÃªn
ĠH ar
Ġco ol
Ġt áº£ng
Ġchá» Ŀ
Ġtá»ĵ i
y r
Ġl á»Ļ
Ġter ms
ĠWh y
Ġexperim ent
re nt
Ġlo áº¡n
Ġparent s
y l
Ġ ess
Ġl áº§m
it ect
le y
Ġdis c
Ġcar bon
Ġabs olut
O kay
ĠÄĳ Ã¡p
Ġs qu
Ġv á»¯ng
Ġre qu
Ġimp act
Ġspe cial
ĠA s
Ġbu á»ĵn
Ġl ost
ci ous
ĠÄĲ iá»ģu
e h
g n
Ġm áº¯n
Ġb ang
Ġp ick
as c
Ġsá»Ń a
Ġc iv
Ġw in
al es
ĠkhÃ ´
H o
Ġth Æ°á»Łng
Ġto t
Ġbo x
ĠgÃ³ p
ĠI ran
ĠD o
Ġwr ite
Ġc ities
Ġan al
ĠK á»³
ĠTr Ã¡i
Ġtra vel
C hÃ
Ġt Æ°á»Ŀng
Ġtr Ã¡nh
ĠTh áº¿
Ġkhá»ķ ng
Ġv ers
Ġmor ning
ĠAfghan istan
h ood
Ġo ce
Ġo cc
Ġtr ied
ĠA m
Ġne ar
Ġimag es
Ġrep res
Ġm iá»ħn
Ġg reen
er m
ĠÄĳÃ³ i
ra el
Ġkho áº£n
ard s
Ġcam era
ĠÄĳ Ã¨n
Ġl áº¡nh
Ã¡ u
il ar
Ġknow ledge
H iá»ĩn
O n
Ġo ng
Ġch Ãłng
ĠA n
is ed
ust ain
Ġvir us
Ġm Ã¡i
Ġde ad
ĠL e
Ġ19 8
Ġrec ogn
Ġappro ach
Ġá»§ ng
Ġb ene
Ġ2 1
Ġtá»ķ n
Ġc Æ¡n
Ġb áº£ng
Ġtr áº¯ng
ĠT rong
ive ly
Ġt á»Ļc
Ġl áº«n
it es
ut ion
Ġsp read
Ġins p
Ġsit u
Ġarch itect
A n
Ġs um
Ġm áº£nh
ĠM ar
ci ally
Ġpo or
Ġa verage
ĠÄĳá» īnh
Ġcon v
Ġint r
á»ı ng
Ġfe ed
Ġcons um
Ġwee ks
Ġris k
Ġd iá»ĩu
Ġme asure
Ġatt ention
e ed
o on
Ġs itting
Ġs leep
Ġtá» Ŀ
Ġob s
Ġopportun ity
r al
Ľ m
Ġc amp
Ġn Ãºi
Ġa p
Ġon line
Ġreal ity
Ġfeel ing
Ġaut h
e xt
Ġd est
Ġre le
ĠG i
Ġwould n
Ġmean ing
Ġca us
Ġe ither
Ġph á»ıng
ict ion
ress ion
Ġt iá»ĥu
at ors
op s
Ġwhat ever
ĠS p
ate g
ĠW orld
ĠEng lish
N o
ĠÄĳ Ãło
an a
Ġcom b
ĠB l
Ġb á»ģ
Ġb orn
Ġtr Ã¬
ur b
ĠÄĲ Ã´ng
Ġchang es
ri ed
C on
Ġb rought
Ġf oot
iz ing
Ġeconom y
gg est
Ġo pt
Ġf ast
Ġy es
ang er
Ġgiá» įng
Ġsu ggest
Ġtá»ĳ n
ĠIs rael
Ġstruct ure
c u
Ġ áº¥n
Ġ Ã¡o
Ġtr áºŃn
Ġgi ving
ib ility
Ġbas ed
Ġinterest ed
Ġresp ons
Ń nh
Ġh áº£o
Ġtr á»ĵng
Ġqu Ãªn
ĠC Ã¡c
ore d
Ġsu d
Ġphys ical
u nt
Ġst age
Ġchá» ĵ
Ġgiá» ıi
ad es
Ġi ce
Ġd ie
Ġr Æ¡i
Ã¹ a
Ġbl ue
Ġgrow ing
Ġprof ess
C Ã¢u
o f
Ġb ar
an ces
Ġqu áº£ng
Ġab ility
Ġsud den
y a
y n
Ġm Ã£i
Ġk im
Ġf avor
ic o
Ġind ust
Ġdevelop ed
ĠNg Æ°á»Ŀi
Ġanim al
Ġseem s
Ġvo ice
Ġtool s
Ġh osp
Ġg one
Ġch áº¡m
ĠB e
ĠCh in
Ch o
Ġmod ern
Ġh ar
Ġst ress
Ġso ft
um b
Ġknow n
Ġbook s
C Ã²n
s on
Ġt i
Ġc áº§m
Ġcá» ¡
pl oy
Ġh on
ch ie
VÃł o
Ġkhu áº©n
Ġb áºŃt
om en
ĠG e
ĠE m
Ġreal ize
Ġsm art
Ġprod uc
w are
Ġb á»ģn
Ġv á»ĳn
Ġuniver s
Ġaff ect
Ġo xy
is ter
Ġph áº¥n
Ġpr iv
ĠnghÃ ¬n
Ġchar act
r om
Ġs il
Ġs Ã¡nh
Ġd ark
ou ch
a ul
l u
Ġt iá»ģm
ĠÄĳ Æ°Æ¡ng
Ġp ress
Ġf ire
Ġj o
Ġte xt
Ġdevelop ing
Ġey e
P eople
t ed
Ġh Ã´n
Ġkho Ã¡
Ġnum bers
Ġl Æ°Æ¡ng
Ġngh á»ī
Ġcr it
Ġwr ote
Ġiss ue
Ġchalleng e
Ġn ice
Ġp ull
Ġch áº¥m
ĠvÃł ng
ĠS outh
Ġthan k
Ġchiáº¿ m
Ġinv ent
Ġdesc rib
l ict
o ad
u g
Ġho áº£ng
Ġmá» Ŀi
ace book
Ġcl imate
Ġrun ning
Ġweb s
Ġscient ists
Ġincred ible
Ġn áº¯m
Ġh ot
Ġk ÃŃ
Ġp ost
Ġr ich
ĠR ob
ĠkhÃŃ ch
Ġunderstand ing
I D
M á»Ĺi
Ġb á»¯a
Ġh iá»ĥn
Ġp ur
Ġp ath
Ġvá» £
Ġph á»ĳi
Ġstart ing
Ġpo ll
Ġhum ans
Ġcreat ing
Ġngá» «ng
p ar
Ġc y
Ġh Ãło
Ġg e
Ġsa ve
Ġ2 4
Ġbott om
Ġtrad ition
u ght
Ġt w
ĠÄĳ iá»ĩu
Ġh i
Ġh or
ĠlÃł ng
Ġvá» ¡
Ġlá» Ńa
Ġaud ience
Ġciv il
á» «ng
Ġs ustain
ĠV Ã¬
Ġ5 00
Ġro ad
Ġthá»ĭ t
O ur
l i
Ġt Ã¡ch
Ġm illions
Ġv Ä©
it i
Ġare n
Ġhá» ķ
ens ive
ĠQ u
Ġgirl s
Ġgh áº¿
Ġqu áº§n
Ġx Æ°Æ¡ng
ĠK en
Ġplay ing
Ġnet work
Ġs olution
ere nce
áº· m
ĠF acebook
Ġsc ale
ĠChin ese
i et
Ġch uá»Ĺi
ĠI f
ĠM y
Ġknow s
Ġná» ķ
Ġcol or
Ġwr iting
M ay
p ort
u ce
Ġd Æ°á»Ŀng
Ġtr ack
Ġr Ãºt
ĠÄĳá» «ng
Ġcon vers
Ġne igh
ĠH á»ĵi
Ġbene f
c ess
Ġl ay
Ġk á»ĭch
Ã³ m
Ġtr i
Ġkh áº©u
Ġal one
Ġliter ally
S t
Ġs Ã³t
Ġb iÃªn
er o
Ġch áº£y
Ġrel ig
pe cially
ĠÄĳ áº±ng
Ġany one
Ġar r
Ġbl ood
Ġsl ow
ĠT hÃ¡
Ġare as
Ġde g
Ġte nd
Ġem ail
Ġmo v
Ġbl og
Ġ19 7
Ġr ul
Ġgi Ã³
id ge
and a
if orn
ĠK hi
Ġtell ing
Ġbab y
Ġs n
Ġf em
Ġgi ves
Ġcon cept
st e
Ġlo áº¡t
Ġsá» Ľm
Ġte le
uá» µ
ĠTh ere
Ġtho Ã¡t
Ġgu ess
Ġinnov ation
Ġw all
Ġg ames
Ġtr uth
ad a
Ġprote in
Ġv ill
Ġch áºŃm
al a
Ġkh uy
Ġkh á»©
Ġwor th
Ġdevelop ment
ĠCal iforn
ch an
Ġas king
Ġexper i
Ġpol ic
Ġpred ict
Ġchá»ĵ ng
u el
Ġs áº¡ch
Ġr ate
Ġph one
Ġso on
ĠS c
áº¹ n
Ġsol ve
iqu e
I s
Ġt Ãłn
Ġt áº¯t
Ġd Ä©
ar r
Ġfor ward
Ġpr om
ob ody
ep t
olog ies
ĠÃ Ķng
Ġpat ients
Ġhundred s
Ġb Ã¨
Ġgi áº¥c
Ġpr og
ĠS ch
ĠÄĲ áº¡i
ĠV áºŃy
ub e
Ġsound s
Ġdep end
ĠCaliforn ia
ĠO K
Ġpat ient
Ġwh ite
Ġlo g
ĠD avid
ĠV Ã¢ng
p or
Ġl áº·p
Ġthe ory
Ġngh á»ģ
ir th
Ġpe ace
Ġshow ed
Ġtrans form
Ġdisco vered
T a
Ġim m
Ġsu áº¥t
Ġsu ff
Ġgá» £i
o x
Ġ er
Ġc op
Ġm Å©
Ġfor ce
ĠM c
ell ig
Ġav ail
Ġnorm al
T á»«
us ion
Ġqu á»¹
Ġre pl
ĠA d
Ġem p
ra q
Ġvac c
r os
á» Ľ
Ġa st
Ġb ur
Ġv ol
Ġtr ust
ent ially
ĠM ex
Æ°Æ¡ i
Ã© p
ond on
Ġcur rent
o es
Ġs on
Ġo kay
ĠchÃ ¬
if ied
Ġcent er
Ġprodu ce
Ġgener ation
Ġpict ures
Ġes pecially
as ing
ĠA t
ak es
Ġty pe
Ġsub ject
Ġrepres ent
Ġindust ry
A l
Ġl á»ĳi
Ġtr Æ°ng
Ġin tern
ĠphÃ ª
Ġlá» Ĺ
Ġmove ment
Ġfund am
Ġc u
Ġng áº¡i
if y
ĠL ondon
ĠD e
Ġpl ant
Ġsim ilar
Ġincred ibly
Ġt Ãºi
Ġs Ã´ng
Ã³ i
ĠnhÃ ©
Ġchang ing
Ġtalk ed
Ġmaterial s
Ġoce an
e y
Ġt Ã¡n
Ġb ed
Ġtr áº¡i
Ġser ious
Ġpot ential
Ġc ars
Ġtr á»¯
Ġcomp et
Ġteach ers
Ġwebs ite
N ot
N gh
p ed
Ġt ouch
Ġli f
Ġsa nd
Ġnguy á»ĩn
ph ere
ID S
R áº¥t
o or
Ġ est
Ġd áº·m
ĠI raq
ill i
ab or
Ġsur face
Ġth Æ°á»Ľc
Ġa ng
Ġk iá»ĩm
os ing
Ġha ven
am m
im ens
Ġle a
Ng Ãły
raz il
ste in
i od
Ġch ance
ĠCh ar
ec k
Ġres ources
Ġinv olved
Ġabsolut ely
D P
ĠÄĳ Äĥng
Ġa chie
Ġv iá»ħn
as k
ĠC l
iv al
Ġconf lict
Ġb all
is ions
le t
le x
Ġta ble
Th á»©
Ġem b
Ġdef in
Ġiss ues
b it
Ġ 0
ou ble
Ġcá» Ŀ
Ġha ng
Ġev olution
y ond
± ng
Ġse ll
Ġsh ape
il ities
Ġhapp iness
ĠW est
ass ion
he ad
Ġjour ney
p re
w it
Ġn Ã©
Ġh it
Ġqu ang
Ġsá» ¹
Ġper iod
ĠÄĳ uá»ķi
Ġb á»¥
ar a
ĠC áº£m
Ä© a
ĠkhÃ¡ ng
Ġam ong
l ike
Ġc Ãł
Ġn Ã¢ng
Ġd anger
Ġre ce
Ġfun ction
Ġgroup s
Ġdet ail
Ġb Æ¡i
Ġb irth
Ġbe yond
Ġu lt
Ġint ellig
Ġtin y
Ġschool s
Ġgener al
Ġvis ual
Ġavail able
Ġs at
Ġvá» ı
Ġne cess
Ġfl ow
Ġtechn ologies
ĠkÃ© m
u ct
Ġnh áº¯n
Ġf ur
Ġst ru
Ġmet h
ĠghÃ ©p
Ġmess age
b s
Ġc Ãº
Ġth Äĥm
Ġthá» Ł
Ġcho ice
Ġpr in
ĠB razil
Æ°á»¡ i
Ġvis ion
Ġstre et
Ġdemocr acy
Ġsitu ation
J ust
Ġph iÃªn
Ġsá»ĳ t
Ġso ld
Ġ3 00
ro ll
Ġmil es
Ġrul es
V áº¥n
Ġr áº»
et h
ip s
Ġelect ric
Ġdev ice
Ġrecent ly
o o
Ġth áº£m
Ġb reat
Ġw ish
or ge
Ġre act
Ġsa fe
ĠA IDS
ĠH a
Ġkho áº£nh
Ġsl ide
Ġproject s
i ar
r am
Ġc ause
or ing
el es
un e
Ġmed ic
B y
t Ã´i
Ġt Ãłng
Ġnh áºŃt
Tr Ãªn
Ġc raz
Ġl áº·ng
Ġv áº¿t
Ġf air
is hing
á»į t
Ġná» Ĺ
Ġtho áº£
Ġm ap
Ġb á»įn
Ġacc ount
Ġatt ack
Ġindividual s
Ġrev olution
Ġdig ital
S A
l ight
Ġs Ã¡u
Ġnh áº¹
Ġho ang
od ies
Ġne g
ant ly
Ġlike ly
Ġbec omes
ĠO kay
Ġput ting
Ġinst it
Ġs á»¥
Ġw alking
Ġse a
ĠM ich
Ġtell s
Ġoff ice
Ġmem ory
Ġxo ay
N Äĥm
m ore
Ġl á»įc
Ġtr Ã²n
ap an
st r
Ġbo y
Ġcr oss
Tr Æ°á»Ľc
a ur
Ġh Ã¹ng
Ġtr á»ĳng
ed om
st er
ĠC ol
ĠP hÃ¡
Ġact iv
Ġbig ger
Ġdr ive
Ġbá» Ŀ
ĠChr ist
ĠÄĳ iá»ĩp
Ġg t
ar ily
Ġdi ed
Ġdr op
Ġpass ion
u ly
Ġm ob
ĠP ar
ĠK h
Ġcreat ive
Ġev idence
f ort
i res
Ġl t
om ing
as hing
Ġme chan
Ġex cept
ci ent
Ġar m
Ġ19 6
Ġdesign ed
Ġreas ons
n ed
o id
Ġ Æ°u
Ã£ ng
ĠC am
ag n
ĠNh áºŃt
Ġmed ical
ĠBr it
ĠÄĳ áº³ng
it iz
Ġse arch
ĠL Ãłm
Ġact ion
ous ly
ĠmÃ¹ i
Ġresult s
c ol
f ord
ĠÄĳ áº¿
Ġd iv
Ġng áº«u
Ġcomp assion
ĠY eah
Ġvo i
f er
Ġl á»¥c
Ġe p
Ġdo áº¡
ĠE ast
Ġimpro ve
B Ãł
Ġt ar
Ġb Ã²
Ġto wards
ĠlÃł nh
ĠC Ã´
ĠS te
Ġem erg
Ġevery where
Ġgr ad
Ġcr is
Ġdru g
g es
z z
Ġn ine
ĠÄĳ am
Ġl ÃŃnh
Ġph il
Ġli ved
ĠJ apan
Ġbl ind
Ġcle an
Ġaw are
med i
ĠMex ico
Ġcraz y
v iew
Ġt Ã´
ng th
Ġl ed
Ġl ose
ain ed
Ġcons cious
Ġread y
Ġfavor ite
Ġsoft ware
N hÃ
ĠÄĳá» ±ng
om s
Ġpr im
Ãº a
ÄĲ Æ°á»£c
ĠS an
ĠN ow
ĠG r
Ġstart s
ĠY es
Ġbas ic
Ġpartic ip
Ġteach er
£ n
Ġc art
Ġc ode
Ġb ird
es tern
Ġthá» «a
Ġthu áºŃn
olut ions
W ith
k y
p ut
Ġt an
Ġth Ã¡c
ur t
Ġsh if
ĠÄĲ áº¥t
Ġun f
ish ed
Ġcertain ly
L iá»ĩu
á» ©ng
Ġb act
on se
Ġr Ã¡c
Ġta ught
Ġwas te
ol es
Ġthu á»·
Ġbig gest
Ġexam ples
Ġscient ific
h ow
Ġtr ial
Ġon to
ĠB á»Łi
ĠN orth
ore s
ĠÄĳo Ãłn
Ġmind s
G i
Ġc áº¥y
Ġm is
im b
Ġpr int
ĠB ill
ud e
Ġmo ved
Ġtrans l
Ġobvious ly
Ġfur ther
c hÃºng
g ed
Ġc itiz
Ġl au
Ġtr ÃŃch
ed ia
Ġqu ality
Ġse ver
ÄĲ áº§u
iz ations
Ġ4 00
Ġsc reen
oth ers
Ġcomput ers
Ġmor al
Ġparticular ly
Ġviol ence
Ġintr od
Ġprog ress
l in
n al
Ġth ang
Ġch áº·t
et t
Ġme ant
Ġcont ent
Ġcont ext
ru ction
Ġshow ing
Ġnhu áºŃn
ĠCan ada
Ġextra ord
Ġneigh bor
Ġd in
Ġr ock
Ġf aster
ay s
ur ity
Ġst e
ĠA D
ĠO r
Ġcommun ities
g round
ĠÄĳ áº¡p
Ġh uy
Ġp u
Ġgi áº£ng
Ġhá»į p
Ġcho ose
ĠW ar
Ġgr aph
Ġcons ider
ĠAr ab
ivers ity
Ġap art
Ġn ational
Ġm ount
ĠS he
te nd
Ġrep ort
Ġth reat
Ġl Æ°á»£c
Ġm iáº¿ng
an y
ĠA ll
Ġexp ert
Ġind eed
ĠlÃ£ ng
c ome
Ġc Ã£i
Ġa f
Ġnh á»±a
Ġdo or
ol f
Æ°á»Ŀ n
ĠG DP
Ġcl oud
Ġad m
Ġdec isions
Ġfl u
Ġreg ion
Ġresp onse
Ġrad io
Ġsurpr ising
Ġauth or
Ġt áºŃt
Ġl áº¯p
Ġwh e
Ġkh áº¥u
im s
Ġcon c
ĠS w
uc le
Ġstud ent
Ġsol ar
Ġhosp ital
Ġsever al
n ces
Ġch áº·n
ure d
ĠR e
ress ed
Ġfore st
Ġmag ic
Ġdru gs
Ġtot ally
A fter
o int
Ġr id
al d
ĠM o
and er
Ġbrain s
Ġconnect ed
Ġth ai
Ġh ung
os h
Ġr ap
Ġf ish
Ġe c
Ġwor se
ĠgiÃ¡ m
Ġngo Ã¡i
Ġsoci et
Ġvar i
ĠKen ya
a king
c is
Ġc e
Ġch Ãło
Ġra in
Ġlá» ħ
Ġmá» «ng
Ġrem ark
Ġpos itive
ĠChr is
3 0
c r
ĠÄĳ Ã²i
Ġg ra
Ġd am
Ġng ang
Ġy Ãªn
ĠS m
ĠE d
Ġstr ateg
Ġáº ¢
ChÃ Ńnh
C an
I m
V iá»ĩc
w or
Ġth áºŃn
Ġn obody
Ġh uá»ĳng
Ġthe r
Ġd iá»ĩt
Ġf ant
Ġf ix
Ġst ick
Ġpr ison
ok en
Ġim medi
ro f
Ġvir t
Ġass um
Ġwa it
Ġcoll abor
2 0
r ing
Ġth ao
Ġm áº¡i
Ġm Ã¢y
Ġp in
Ġd om
Ġcáº£ n
Ġwant s
ĠÄĲ á»©c
NÃ³ i
Ġcar ry
Ġ15 0
Ġjob s
Ġwatch ing
wit ter
d om
Ġl ink
Ġm ine
Ġm ental
Ġh Æ°Æ¡ng
Ġk o
Ġg rew
at ory
ver ty
Ġsh own
ĠN gh
ag ing
ĠP al
Ġchem ical
w in
Ġm Ã¬
Ġo h
Ġp ush
Ġd á»ĭ
Ġnot ice
Ġsá» ķ
Ġad ult
Ġinf lu
Ġallow ed
Ġxo Ã¡
Ġtrain ing
H ay
r or
Ġc orn
ou b
ĠchÃ ©p
Ġsp ir
Ġpers pect
Ġdet ect
Ġret urn
Ġth áº¥u
ĠÄĳ á»ĳng
ĠÄĳ Ã¹a
Ġb odies
Ġv ong
ic le
ĠT witter
ag ine
Ġsá» £i
Ġsy n
Ġdec ision
Ġsk in
Ġinf ect
Ġcir c
aught er
Ġinclud ing
May be
Ġvill age
Ġmeth od
Ġth Ã¹
Ġn ucle
Ġv Ãº
Ġk il
Ġtr Ãłn
in stein
ĠcÃ¡ t
Ġ2 000
Ġany body
Ġstud ies
Ġapp ear
Ġtre es
Ġpos ition
Ġcontin ue
Ġobject s
Ġdisc uss
Ġsudden ly
Ġcharact er
Ġc áº·p
Ġn an
Ġs an
Ġf asc
Ġcá» ©ng
so ci
olog ist
Ġmult i
Ġmov ie
C uá»ĳi
I T
Ġ Ã¡m
Ġb ank
Ġh op
Ġf ill
Ġtá» ı
ie f
Ġact ivity
ĠF ran
Ġbuild ings
Ã¨ o
Ġfar m
Ġlar gest
Ġnam ed
Ġfre edom
Ġm áºŃp
Ġi gn
ou ght
Ġf ine
it ary
ur g
oc ks
Ġevent ually
c y
Ġm á»±c
Ġw ife
Ġnh áº±m
en er
in ct
ĠcÃ¡ m
Ġph iáº¿u
Ġse par
ĠP aul
Ġem ploy
itt en
ĠF l
Ġcl os
Ġtuy Ãªn
Ġpo verty
Ġtem per
Ġcris is
f or
k n
er ve
Ġtr uly
Ġf a
ic a
ell ow
Ġminut e
p ing
v ision
Ġs Ãºng
Ġs we
Ġnh á»ĭp
ĠkhÃ Ńa
Ġfor ms
ĠC O
Ġde b
Ġlu ck
ff ic
Ġinc ome
Ng ay
Ã¨ m
Ġart ist
Ġelect r
Ġkill ed
Ġcond itions
Ġtradition al
Ġconvers ation
E ven
n ers
o e
Ġs ource
Ġm ist
Ġb á»ĳi
Ġb áº¯n
Ġh iáº¿m
Ġtr Ãło
od ay
ĠB ang
ist ics
Ġpl ants
Ġany more
Ġam p
Ġend ed
Ġsupp osed
Ġspec ific
ĠchÃ¡ n
Ġexc ited
Ġsá»¥ p
ashing ton
Ġt Ã¡
Ġc ong
re st
Ġg as
ĠA b
ul ate
ĠN ig
Ġcap t
Ġsign ific
Ġproduct s
Ġspe ed
Ġextrem ely
Ġti Ãªm
ĠAD N
L Ãºc
a el
c ape
Ġs olutions
Ġh Ãł
Ġk Ãªu
Ġp ack
os phere
Ġcl in
Ġeff ort
Ġresp ond
Ġrobot s
Ġpolit ics
Ġlab or
c ise
Ġm Ã³c
Ġh ig
nh Æ°ng
Ġng á»įn
ver t
ĠD an
Ġac cept
Ġfind ing
Ġprov ide
Ľ t
Ġk ept
áºŃ c
Ġkh ung
se ct
Ġgo al
Ġlá» «a
Ġal ive
Ġfe ll
ĠW ashington
Ġdis app
Ġco ok
oss ible
Ġro le
Ġsec ret
ĠÃ ģ
Ġpoint s
Ġsort s
Ġfin an
Ġsk ills
Ġallow s
Ġexc iting
Ġcolle ge
M ost
j oy
u f
Ġ Ã³c
Ġc ases
Ġl iá»ģn
Ġd á»ĳi
Ġtr iáº¿t
ent ly
Ġho Ãłng
ĠA ng
el ess
ĠD on
Ġcomp lic
ĠPhÃ¡ p
C Ã¡ch
h am
z e
Ġh Ã¨
use um
ĠbÃ© o
Ġread ing
Ġpub lish
ĠX in
ĠAfric an
Ġgá» Ĺ
Ġlisten ing
Ġsociet ies
Ġhig her
F irst
g ing
Ġc Ã´n
ĠÄĳ ua
Ġw ild
Æ°á»£ u
Ġdo c
Ġab ove
em ic
Ġj ud
Nh Ãł
Ġcá»¥ c
Ġser ies
ĠIs l
Ġthous and
Ġmath em
Ġserv ice
Ġextraord inary
C Ã´ng
K hÃ¡
Ġl ate
Ġthá» Ŀ
Ġwe ight
Ġan n
ĠA i
uá» ³
Ġdoct or
Ġprin ci
g o
Ġc at
Ġm Æ°a
al ia
om m
Ġst ra
ul f
ĠUn iversity
Ġdet erm
Ġmodel s
Ġaff ord
Ġsuccess ful
Ġfamil ies
Ġpur p
Ġstru gg
Ġfasc in
Ġc Äĥng
Ġth áº§y
Ġb á»ķ
Ġb unch
Ġkh áº£o
Ġlo ved
Ġsm ell
Ġsur g
eg r
Ġcal cul
Ġfundam ental
a id
Ġ quot
Ġs us
Ġb al
Ġb áºŃc
Ġh á»ĳi
er man
al y
id s
ĠG iá»
Ġmáº¡ c
Ġtho áº£i
Ġpolic y
C Ã¡m
Ġn áº¥m
ĠÄĳ áºŃp
Ġl Å©
Ġl ands
ou n
Ġng Æ°á»¡ng
Ġcon cer
ĠL a
Ġexp ensive
ĠTh áºŃt
Ġany where
Ġimp ossible
Ġsl ight
Ġcap ital
Ġmach ines
cul es
Ġneur ons
Ġch á»ĳt
ĠS á»±
Ġmá» ı
Ġdist rib
Ġfamil iar
S h
u it
Ġ Ã¡c
Ġth r
Ġch á»ĳi
ĠC ong
iv en
Ġen joy
Ġeff ic
enc ed
Ġcolle ag
Ġcrit ical
O f
d r
Ġt Ã¡o
Ġc ry
Ġth uyá»ģn
Ġs ou
Ġl ad
Ġl ower
Ġm Ã©t
The o
Ġpl astic
ĠW estern
Ġhu áº¥n
Ġfun ny
Ġstra ight
C Å©ng
g r
om as
ic ed
Ġra nd
ĠM IT
ers on
Ġsome where
ound s
Ġgen etic
Ġdem on
Ġlar ger
Ġsw im
Ġtyp es
Ġdoct ors
ĠThÃ¡ i
r ay
Ġnh Å©ng
Ġtr áº§m
Ġr Æ°á»£u
ar ies
Ġha ck
ig r
ÄĲ á»ĳi
Ġus ually
un k
Ġup on
Ġact ual
Ġá» Ĵ
Ġco ld
Ġro ll
Ġfam ous
Ġpie ces
Ġref lect
Ġcontin u
Ġhá»Ĺ n
Ġpattern s
Ġrecogn ize
a x
w ord
Ġm ir
am i
Ġra ise
ĠM ay
Ġj ump
Ġmá» ĵ
Ġbec oming
ĠW ik
Ġbo ard
Ġtalk s
ri pt
Ġgl ass
Ġresp ect
Ġtreat ment
ĠghÃ ©t
Ġdel iver
Ġsqu are
Ġphil os
b ack
l ier
á» ķi
ĠC ity
Ġgreat er
Ġsecond s
Ġexpl ore
Ġear th
Ġperspect ive
P S
n a
o ff
og en
Ġá» ©c
Ġla unch
att le
Ġmag n
ustr ial
urb an
Ġcitiz ens
L Ãł
Ġs ite
Ġb iá»ĩn
Ġb áº£y
Ġsa ving
ĠL et
Ġsome how
Ġright s
Ġ200 8
ĠAmeric ans
Ġteach ing
Ġkhuy áº¿n
ĠFran cis
Ġt iss
Ġl y
Ġv Ã¢ng
re ction
Ġr á»§
Ġr ise
Ġe t
th e
Ġsh ark
ĠB áº£n
Ġwill ing
ak istan
Ġeffect ive
Ġmole cules
Ġdemon str
N Ãło
b all
Ġn Ãºt
ĠÄĳ áº¯t
Ġtr uy
ap es
ĠC Ã´ng
um ents
Ġle gs
Ġgen es
Ġsmall er
Ġtá»ī nh
Ġbeaut y
Ġnet wor
Ho áº·c
Ġinstit ut
Ġspir it
Ġcomplic ated
Ġrand om
T oday
Ġs am
Ġp ort
Ġtr ib
Ġng Ã³n
Ġr an
Ġcá» ı
Ġe th
Th ay
Ġtá» ĭ
ct or
ke y
Ġwr itten
Ġshare d
ĠchÃ¡ y
Ġpain ting
Ġvers ion
Ġfem ale
Ġ áº¡
Ġp age
Ġy eah
Ã£ n
am ic
Ġst ore
ĠB ar
ĠN e
ĠphÃ¡ n
ĠTh uá»µ
ep end
olog ists
Ġsec urity
Ġhá»ĵ n
Ġcontr ib
ortun ately
Ġincre asing
Ġfinan cial
M Ãł
e f
Ġth row
Ġh ous
Ġthá» į
Ġx á»©ng
ĠS e
Ġus es
Ġgen e
Ġstand ing
Ġdisco ver
Ġopt im
m p
x i
Ġm áº¡o
it ation
om p
Ġas soci
Ġ3 5
Ġpre p
Ġdec ades
Ġhealth y
Ġorgan izations
Ġcost s
Ġincre ase
Ġbab ies
Im agine
Ġt Ãºc
Ġth iá»ĥu
Ġs al
Ġh áº¯n
Ġtr ick
le br
Ġst ar
ir ing
il ing
Nh iá»ģu
ĠP l
ĠP akistan
ĠÄĲ Æ°á»£c
Ġexp ress
Ġ4 5
Ġhuman ity
ee ch
Ġorgan ization
Ġconnect ion
Ġcor ru
Ġlevel s
Ġachie ve
Ġbact eria
t ime
£ t
Ġth áº£
Ġs Äĥn
Ġg á»įn
ĠB ig
Ġess entially
ĠmÅ© i
o ch
Ġc ard
Ġb read
re pre
or row
ar m
in ing
Ġgi áºŃn
ĠkhÃ¡ t
ac ity
ĠD r
ther n
Ġbeing s
Ġcá»¥ t
Ġold er
Ġple ase
Ġdanger ous
repre ne
D Ã¹
a ign
l ant
Ġth áº¡ch
Ġb Ã´ng
Ġd inh
Ġcá» Ĺ
Ġph en
Ġfor th
ver se
ĠC Ã¡i
Ġpr os
ĠB en
ag ement
Ġsp eech
ĠG u
ĠD ar
Ġtrá» ©ng
Ġpract ice
z a
Ġ Ãł
Ġm ix
Ġi nh
at ically
it or
Ġkh iáº¿p
ul ner
Ġal g
Ġma i
ĠG PS
ra ft
ĠO b
Ġdes p
Ġthrough out
Ġrem ind
Ġfin al
Ġengine ering
Ġremark able
Ġimmedi ately
A i
V á»ģ
s c
Ġt ia
Ġth iá»ĩp
Ġd Ãły
Ġcom fort
ab les
Ġthu Ãª
ĠJ e
Ġcreat ivity
Ġarchitect ure
Ġelectric ity
Ġsurg ery
Ġrá»§ i
& #
Ġc ust
Ġn áº¥u
ĠÄĳ áº¯n
Ġf it
ist ry
ci ence
Wh ere
ĠE instein
Ġbelie f
Ġbi ology
Ġmob ile
Ġfant astic
Ľ n
Ġc á»Ļt
Ġth Ã¡nh
Ġn ation
Ġl á»Ļn
Ġm á»Ļ
Ġm Ã²
Ġb inh
Ġh Æ°á»Ľc
os es
Ġx ong
Ġte en
iss ion
Ġenvironment al
g en
Ġm ention
Ġb á»Ļt
Ġb Ã£i
Ġk áº¹
Ġp an
Ġp ark
Ġd ad
ot y
it ude
Ġgi Ãłnh
Ġho le
ÄĲ Ãºng
ĠÄĲ Ãºng
ĠR ight
Ġco ver
Ġco ff
uc ed
Ġsc an
Ġev olved
Ġpol ice
Ġelect ron
Ġstand ard
Ġhon est
Ġtele vision
Ġ urban
Ġt Ã³c
ĠÄĳ á»ĳc
Ġm al
Ġm atch
Ġch air
Ġng Å©
Ġst ars
ol a
ĠT o
Æ°á»Ľ t
ĠH y
ĠL iÃªn
Ġdi agn
Ġoff ic
Ġinter view
cept ion
Ġprodu ction
Ġear lier
Ġprop ert
Ġfollow ing
Ġclear ly
Ġenc our
a f
y le
Ĺ ng
ĠÄĳ Ãłi
ĠÄĳ á»ĳt
Ġtr uyá»ĩn
Ġch áº©n
Ġch eck
Ġr Äĥng
Ġx Æ°a
am s
ĠphÃ ³
se qu
ĠM us
ĠA ustr
res h
ber g
Ġadd ress
Ġwalk ed
Ġchalleng es
Ġserv ices
Ġintern ational
o le
Ġd á»įc
Ġtr ade
ar ian
iá»ĩ ng
id ing
Ġpr ice
Ġor d
Ġsp ect
Ġthu áº§n
ĠmÃ¡ t
ĠNh Ãł
Ġapp ly
Ġstr ange
Ġwa iting
Ġce lebr
A ny
K h
Ġn ut
Ġb áº¡c
Ġh uyáº¿t
Ġv ict
Ġv eh
Ġr Æ°á»¡i
op er
ĠC ent
ĠT áº¥t
Ġse qu
ĠL os
Ġun ique
Ġuse ful
Ġunderst ood
Ġhelp ed
Ġcare er
Ġopp os
Ġcond ition
Ġmil itary
Ġmass ive
Ġemot ional
Ġ201 0
Ġpriv ate
e es
r is
Ġt ur
Ġn Æ¡
Ġm iá»ģn
Ġra ce
Ġchá» «ng
ren ch
Ġent reprene
bo ard
Ġpop ular
Ġperform ance
ĠNig eria
H ai
R I
T hÃ
a ff
b u
f l
p s
Ġt áº·ng
ĠÄĳ Ä©a
re et
Ġg Æ°Æ¡ng
is es
Ġwh ose
im ately
th ough
ĠM an
Ã½ t
Ch áº³ng
Ġsur round
Ġhim self
Ġaut om
ĠPh il
Ġsex ual
Ġintellig ence
Ġcoff ee
i est
Ġ áº¥m
Ġt ask
Ġb Ã³
Ġh iáº¿n
Ġnh áº¥n
Ġr áº¯c
Ġx Ã¢m
Ġcho ices
Ġthere fore
Ġsp aces
Ġpre vent
Ġhist or
Ġclass room
Ġexperim ents
ĠnÃ© m
ĠHa iti
Ġneighbor hood
Ġphen omen
v ard
Ġv Æ°á»Ŀn
Ã¡ y
Ġng Ãłi
Ġf old
ĠG erman
ec ond
Ġcá»ĳ t
Ġnhá» ī
oll y
ash ion
Ġspea king
Ġmedic ine
Ġslight ly
D on
Ġl ines
Ġv an
Ġi r
re es
Ġtr á»Ļn
Ġch ai
ed d
iáº¿ c
Th ose
Ġx áº¡
Ġdo g
im in
ĠA pp
ĠB er
Ġex h
ich ard
ĠL an
Ġwere n
ĠE l
ĠF or
wo od
ĠkhÃ³ c
Ġdec ide
Ġsim pl
Ġcreat es
ĠÃ Ŀ
ĠInd ian
Ġval ues
anc y
Ġ When
Ġl áº»
Ġm ale
Ġh us
Ġv ulner
Ġi Ph
Ġg ay
Ġd ance
Ġwe alth
Ġqu Ãª
Ġfor get
Ã¹ i
Ġwor ry
ĠN A
Wh ich
Ġpart y
Ġcent ral
Ġphys ics
c ope
Ġt uá»³
Ġc áº©n
Ġw ood
Ġd ai
Ġin sect
Ġdi rection
Ġhigh ly
Ġcomplex ity
Ġmeet ing
Ġdest ro
Ġet c
H áº§u
S omet
Ġh all
Ġp en
Ġd ÃŃnh
Ġnh o
en ing
Ġse lect
Ġlight s
Ġcou n
Ġmot iv
An other
Ġvacc ine
Ġnetwor ks
K ho
R ight
Ġm iá»ĩng
Ġd aughter
Ġr Ãło
is ms
ĠÄĳá» Ľn
Ġe ating
ĠC hi
Ġsh op
il es
ĠG reen
Ġinst ance
Ġfocus ed
Ġmic r
ĠHar vard
Ġsum mer
Ġnucle ar
Ġpurp ose
l oad
m m
r ast
Ġt áº¡m
Ġth áº©m
Ġb áº¯c
re g
ce ed
ag o
Ġdr ink
Ġ7 5
Ġtu á»ĩ
Ġansw ers
eas es
Ġphot o
Ġcult ural
Ġcamp aign
Ġinvent ed
y stem
į t
Ġc atch
Ġa head
Ġm iÃªu
Ġh áº¹n
ic ians
ĠÄĳÃ³ n
st ead
Ġsh ot
ĠB á»Ļ
ĠB ro
ac ed
Ġen orm
Ġdiffere nces
Ġtrans port
Ġatt ract
Ġstre ets
Ġprof ound
Ġspend ing
ĠFr ank
Ġsurv ive
ĠGe orge
ĠChar les
Ġtemper ature
C áºŃu
d d
i os
Ġt ree
Ġc á»ĳc
Ġm áº©u
Ġng áº§m
Ġin j
Ġph á»ķi
Ġst ates
ol ve
Ġlá» ıng
ĠO ne
Ġdis pl
Ġbo ys
ord er
Ġdec ade
Ġdr iving
ĠWe b
Ġlaw s
Ġtar get
Ġbird s
Ġt Ã²
Ġb ase
Ġg Ãł
Ġd ying
Ġnh áº¡y
ur d
Ġwor st
ĠnhÃ ¡
ĠG l
Ġcr ow
Ġgreat est
ĠÄĳÃ¡ y
Ġocc ur
Ġcust om
a j
Ġc and
ĠÄĳ áºŃu
re l
Ġg ent
at ives
Ġr ange
us ed
Ġre ve
ĠN ational
Ġbr ings
app ed
Ġad apt
Ġsy mb
Ġart ists
Ġvu Ã´ng
Ġter m
Ġshare s
Ġpass word
Ġident ity
Ġvar ious
Ġanal y
Ġinsp ired
c ing
Ġ Æ¡i
Ġb áº¡ch
Ġh iá»ĩp
Ġh áº¡ng
á»ĳ m
Ġbe at
ur ch
im er
ĠM iddle
ra id
Ġdis eases
Ġtho áº£ng
az z
Ġinst r
Ġsk y
Ġbre ast
Ġcaus es
Ġlau gh
Ġhus b
i ation
á» Ŀ
Ġc Æ°á»Ŀng
Ġl Ã£o
Ġto wn
or ith
Ġli ber
Ġ2 3
Ġterr ible
Ġgrad u
Ġaf raid
i ers
Ġt Ã¢y
Ġm ut
Ġw is
Ġk iÃªn
Ġd imens
Ġtr Ã´i
an i
Ġqu Ã¡i
ĠT alk
th etic
od es
ĠM in
Ġnot iced
Ġact ive
ĠJ ul
Ġres ist
Ġ19 4
Ġfl oor
Ġcommunic ate
Ġdoc ument
B áº±ng
P M
m y
Ġl apt
Ġd Ãłn
Ġr á»ĵ
Ġf at
or ry
Ġthá» £
Ġwe ap
Ġcon sequ
Ġho áº¡i
Ġfr ame
ath y
Ġscient ist
Ġfly ing
Ġdirect ly
Ġpublish ed
Ġalg orith
H Ã´m
S áº½
h ere
i ot
u ction
w ise
Ġl oss
Ġh áº±ng
Ġv ast
Ġp aid
Ġtr áº¯c
Ġf ing
Ġqu Ã¡n
ut ed
ĠT imes
ĠM ars
ĠB ecause
Ġbu b
Ġdr am
ĠTED x
Ġ200 7
Ġcap acity
Ph áº§n
anc ed
Ġru le
Ġsustain able
Ġmathem at
ĠiPh one
Ġt Ã³m
Ġn Æ°á»Ľng
Ġi ng
Ġg ala
Ġch áº¥n
ĠM Ä©
Ġhá» ©a
ag er
áº» o
Ġint egr
Ġknow ing
ĠE n
Ġle o
Ġtra ffic
Ġstre ngth
Ġtre m
Ġmiss ing
Ġtw ice
Ġexperi ences
B e
g ar
ĠÄĳ áº£ng
Ġa x
Ġl Ã¢y
Ġtr áº¡m
Ġtr ouble
Ġqu Ã©t
ly n
Ġgi Æ°á»Ŀng
Ġgi Ãły
Ġsa d
ĠB a
art in
Ġun c
Ġcomm er
Ġrel ative
Ġsupp ly
Ġz ero
Ġjour nal
Ġleaders hip
cu le
ĠMich ael
Ġ ut
ng u
Ġn Ã©t
Ġng Ã£
Ġng á»±a
ĠM e
Ġat m
Ġcomp on
itt ed
ĠTh omas
ell ing
Ġmost ly
ip edia
Ġapp lic
Ġind epend
Ġposs ibly
Ġstop ped
Ġmem bers
Ġclos er
Ġinstitut ions
g ain
Ġa id
Ġd oub
Ġch Äĥng
Ġr Ã´
Ġr ough
Ġgi ft
Ġfor g
ĠC á»±c
ĠS au
Ġcl ick
Ġdi vers
Ġbel ow
Ġbas is
idd en
Ġdev ices
Ġemot ion
ĠÄĳe o
Ġjo in
ĠSm ith
g y
Ġt ens
Ġn arr
Ġl Æ°ng
en ed
Ã¬ a
ve y
ĠphÃ ¬
em pt
ĠM r
ain ing
Ġbr oad
ud d
Ġcont roll
Ġ9 9
Ġconf erence
Ġaut ism
Ġfore ign
Ġcolleag ues
ĠOb ama
rast ruct
L ike
m en
u h
Ġl ack
Ġm áº»
Ġd en
Ġd yn
ĠI I
am in
Ġfor ces
ĠN ob
áº« m
iz es
Ġtuy áº¿t
ord ing
Ġmom ents
Ġdoll ar
Ġphot os
Ġred uce
ĠmÃ£ n
Ġopportun ities
Ġmole cule
ĠPar is
Ġwhe el
Ġphilos oph
Ġcorru ption
f r
o áº¡i
t a
Ġt Ä©nh
Ġv áº¯c
Ġp ig
Ġsh aring
Ġ2 2
ĠG h
ĠL ib
Ġtiáº¿ c
ĠR uss
Ġno vel
Ġair pl
Ġsw itch
Ġmic ro
Ġcommunic ation
Ġproduc ed
ĠÄĳáº¿ m
ĠFrancis co
Ġtiss ue
º c
Ġm Ã¨o
im p
ere k
Ġnot e
ess ion
el a
ĠJ er
Ġfeel s
Ġhelp ing
Ġplay ed
Ġbring ing
Ġhear ing
Ġav oid
O K
Ġn inh
Ġl ung
Ġv er
Ġk Ã¨m
Ġtr Äĥng
es ter
Ġf ashion
in o
Ġfor t
ir t
Ġsh oot
Ġpe ngu
ear s
ĠP er
Ġbr and
Ġag ree
Ġam b
Ġapp l
oth es
Ġinf rastruct
Ġpass ed
Ġprogram s
Ġmiss ion
Ġorig inal
ĠRob ert
Ġbá»¥ ng
uf act
ĠWik ipedia
Ġcrow d
O h
Y eah
v ant
Ġt Ã¡m
Ġh Ã´
Ġg un
Ġd Ã²
Ġd Ã¡n
ĠT om
Ġj oy
áº« y
Ġsu c
ĠK ing
Ġpo et
ric ult
Ġhy p
erv ation
Ġnear ly
Ġvol unt
Ġoppos ite
L ook
Ġl Äĥn
Ġd Ã£
Ġf aces
ve re
ic on
ic king
Ġra re
Ġst em
Ġse ed
Ġhá» ıng
Ġor g
Ġbl ock
Ġstud ying
Ġ200 9
Ġacc ur
Ġvis it
Ġadd ition
att an
ĠgÃ³ i
Ġoxy gen
Ġsignific ant
A r
T ube
i j
l im
o Ãłi
t oc
Ġto m
Ġin ch
Ġqu Ãł
Ġkh uyÃªn
Th áºŃm
ce ll
st it
ĠN or
ĠP ark
Wh o
Ġins ight
Ġstruct ures
Ġemot ions
Ġrelationship s
Ġrelig ion
Ġdeg rees
Ġconscious ness
Ġshif t
Ġpu zz
ĠNA SA
Ġhusb and
toc in
P A
T wo
Ġ Ã©p
Ġt iá»ĩc
Ġv inh
Ġtr áº§n
Ġf uel
ar ia
Ġcá» ±
as on
Ġre con
oc king
Ġman ufact
Ġimportant ly
ĠHe y
Ġcor rect
Ġgá» ¡
Ġther ap
M any
m e
o om
t r
Ġth Ã³i
Ġl Ã´i
Ġb ought
Ġh Æ°
Ġh om
os qu
Ġto ile
Ġgi áº¥u
Ġlá» ģ
ĠL at
uá» ¹
Ġany way
Ġfore ver
Ġnecess ary
ĠBrit ish
ĠNob el
Ġc ru
Ġl á»ĩnh
ct ually
Ġha ir
ig er
ĠC E
ad d
ĠM a
ĠM ont
ÄĲ Ã£
Ġmá» Ŀ
Ġbr oken
ĠF rench
ak er
Ġdá» ©t
ĠâĢ ĵ
Ġfull y
Ġadv ant
Ġtot al
Ġbenef its
Ġluck y
Ġtrem end
Ġatm osphere
F rom
k a
m ber
w ide
z en
Ġl Ã¢m
Ġm outh
Ġv ote
Ġg Ã£
Ġtr á»ĳn
Ġng on
ed ic
as se
ic les
Ġph iá»ģn
Ġhe o
il s
art ment
Ġal though
ud ience
In stead
Ġdifferent ly
Ġcá»¥ m
ri age
az on
ĠÃ ļ
Ġcons id
Ġeas ily
Ġentire ly
Ġfail ure
Ġrequ ire
ĠchÃ¬ m
ĠDar win
Ġwis dom
Ġt ung
Ġc ogn
Ġl áº·n
Ġm useum
Ġb Ã£o
Ġb atter
Ġw ide
Ġd Æ°
Ġto r
ĠN hÃ
Ġme as
anh attan
ĠG ab
ĠL u
Ġcl a
Ġback ground
ĠSt reet
Ġimag ination
Ġless on
ĠlÃ£ m
Ġval u
Ġrest aur
Ġpar ad
Ġmag az
Ġarg ument
ĠkÃª nh
ĠAng eles
C uá»Ļc
k ed
m on
r ight
v est
z y
Ġb urn
Ġv ot
Ġg Ãµ
os ystem
on om
Ġng á»įt
ĠÄĳá» ±c
Ġkh ao
am b
Ġan cient
Ġhe at
ĠA lex
if ically
Ġbr illi
Ġ3 6
ĠJ ust
Ġbu Ã´n
Ġstud io
Ġind ustrial
Ġcol ors
Ġev ents
Ġmajor ity
á»Ľ p
Ġcorn er
Ġtur ning
Ġenorm ous
Ġsymb ol
m ar
Ġp et
is ible
Ġgi Æ¡
Th ink
Ġha m
ĠM anhattan
ĠS u
if ying
ĠG reat
ĠR os
ĠCh á»ī
Ġco oper
he imer
ĠYou Tube
Ġmet aph
Ġlead ing
ĠNg a
Ġmatter s
ograph y
Ġequ al
Ġche ap
Ġdeep ly
Ġwind ow
Ġ199 0
Ġstat istics
b ased
n Ã³
z heimer
Ġ Æ°
Ġc áº¥t
Ġth Äĥng
Ġs ick
Ġl unch
Ġm á»ĩnh
Ġv eg
Ġd ao
Ġch ick
ap ers
ot a
ed y
Ġta x
Ġgi Ã¡n
ĠT or
Ġhe ld
ag ers
ĠJ ames
Ġun like
Ġgr own
ite ly
Ġsy m
Ġcr ime
ys is
Ġdem and
Ġeng age
enc ies
Ġnews p
Ġrespons ible
Ġdescrib e
NhÃ ¬n
Ġmount ain
Ġrap id
Ġec osystem
ĠÃļ c
Ġt our
Ġc ore
Ġs Ãłn
Ġh á»ĳ
re ci
ir l
ĠM al
ĠS un
ĠH ere
Ġkho an
ĠD erek
ib r
Ġthu áº¿
Ġag ricult
ra ham
ĠAl zheimer
Ġoxy tocin
Ġlands cape
Ġdivers ity
Y es
h and
i us
o ver
Ġm amm
Ġb one
Ġb ud
Ġh Ãłm
Ġv a
Ġtr Æ°a
an ia
qu ang
es ome
Ġthá» ķi
ar ter
ĠM ark
ul ous
ul ations
ĠL iá»ĩu
ĠL eg
Ġwork ers
ĠWh ere
Ġgovern ments
pect ed
Ġgrand m
Ġsuff ering
Ġrece ived
ĠcÃº m
ĠSte ve
Ġfascin ating
Ġinfrastruct ure
1 0
e qu
h a
h y
¢ m
Ġn one
Ġs á»¯a
Ġb ul
Ġb áºŃn
Ġb áº¿p
Ġg olf
Ġd Ã¡ng
Ġr out
Ġf ab
al t
le g
Ġqu ÃŃ
Ġx ÃŃ
Ġ2 7
Ġsp ort
Ġexp and
Ġcont act
ĠU S
Ġfl ight
ĠSt an
Ġ200 5
ph one
Giá» ĳng
Ġdream s
Ġgent lem
Y our
t le
Ġt Æ°Æ¡i
Ġl Ãµi
Ġm ort
Ġm osqu
Ġb le
Ġb ag
Ġb Ã¹ng
es ign
Ġbe es
Ġtá» §
Ġx inh
Ġre ward
Ġse ctor
Ġus ers
ost on
ĠE very
ĠR áºŃp
Ġgot ten
Ġoff er
pr od
How ever
Ġresearch ers
Ġphys ic
Ġinteract ion
Ġill ness
Ġfight ing
Ġextrem e
Ġbenef it
Ġbreat h
m Ãł
m ark
w ater
Ġt Ã¢n
Ġn or
Ġm id
Ġb ound
at r
Ġd Æ°á»£c
ĠlÃł n
it able
ic ago
Æ°á»£ n
Ġre pe
Ġpr oud
em en
Ġsh oes
ter m
Ġal tern
Ġjust ice
ĠR w
Ġem br
Ġshould n
Ġreg ular
Ġeffect s
Ġtre nd
Ġmarket ing
Ġill ustr
ĠAm azon
Ġrespons ibility
Ġpress ure
Ġbá»¥ i
Ġstrateg y
Ġdestro y
A re
L áº§n
Ġt ough
Ġc áº¥m
Ġn áº£y
Ġs ung
Ġh ost
Ġp air
Ġng áº¯m
Ġr Ã©t
Ġqu Ã¡t
Ġkh á»ī
th es
Ġsh ip
ĠM artin
ÄĲ Ã´i
ĠB oston
ĠS am
Ġsp ot
Ġcomp ared
Ġá» ŀ
ord ers
Ġchild hood
Ġrem ote
Ġcreat ures
Ġseem ed
rop y
ĠEurope an
Ġleg al
Ġep id
ĠJapan ese
Ġadult s
Ġbal ance
Ġdesp ite
p an
u ge
v al
Ġt áº¯m
Ġth áº»
Ġh áº£i
Ġp ian
á»Ļ m
ot ic
Ġe gg
Ġwe ar
id a
ĠA re
ul a
ĠÄĲ iá»ĥn
Ġcl imb
ĠCh icago
uc ks
Ġtu Ã½
Ġatt empt
anc ing
ĠAs ia
Ġlog ic
ĠAd am
Ġdefin ition
Ġt al
Ġs Æ°u
Ġl iá»ģu
Ġl Æ°á»Ŀng
Ġh ate
áº¿ ch
Ġqu ant
Ġha bit
ĠT al
Ġpr ior
ĠH ig
ĠH aw
el lect
ĠR ichard
Ġmet ers
Ġvo ices
Ġcollect ive
Ġperfect ly
Ġ197 0
Ġdin ner
ĠAustr alia
Ġlapt op
m á»Ļt
m it
Ġ Æ°a
Ġt um
Ġc Æ°á»Ľi
Ġm uá»Ĺi
at o
Ġch ann
Ġin ternet
Ġra ised
ad s
Ġsh ock
Ġhe av
Ġex er
Ġde fe
Ã© o
ĠE ve
Ġbr idge
Ġman aged
ep h
Ġthá»ĭ nh
ograph ic
rop h
Ġmar ried
Ġele ment
Ġfarm ers
Ġfa ith
Ġvolunt e
Ġveg et
C áº£
r ict
Ġt ast
Ġth Ã¡p
Ġs Æ¡n
Ġl Æ°á»Ľt
Ġd ouble
Ġr Ã£i
Ġgi ant
ent y
Ġst uck
ĠB an
ĠH á»Ļi
Ġal t
ĠG ates
Ġthink s
Ġpl at
Ġbr other
ru pt
ĠchÃº a
Ch áº¯c
Ġ6 00
Ġrel ated
Ġbi ological
Ġpain t
Ġequ ip
Ġ25 0
rop ri
Ġtyp ical
Ġcir cu
Ġdraw ing
ĠkhÃ´ n
Ġconv in
ĠSch ool
Ġrepl ace
Ġdom in
Ġtremend ous
r ain
Ġth Ã¹ng
Ġnh áº«n
Ġtr Æ°á»£t
Ġy ellow
VÃł i
Ġcon cent
ĠT ur
Ġgo ld
Ġas pect
ĠM on
ĠM á»įi
Ġ2 6
Ġint ellect
ĠÄĲ á»«ng
ĠJ ack
Ġcall s
ĠTr ans
Ġpre vious
Ġsc r
Ġposs ibility
Ġdist ance
Ġeas ier
Ġfail ed
Ġcy cle
Ġneg ative
ĠPal est
Ġinsect s
Ġcommer cial
Ġcogn itive
S econd
o ft
y e
Ġth Ã¡m
Ġn á»Ł
Ġnh áº¯m
Ġtr á»¥c
Ġng áºŃp
Ġng á»ĳc
Ġr ound
or an
as er
ur ies
á»¥ t
em y
Ġthu a
Ġdi et
Ġgen ome
Ġinv isible
con nect
Ġart ific
ific ation
ĠWh o
Ġcor por
Ġdisco very
Ġfigure d
Ġfre qu
Ġlim ited
Ġvers us
ĠkÃŃ n
Ġexpert s
ĠSw ed
Ġquot e
Ġeffic ient
ĠApp le
Ġadvant age
b áº¡n
c les
Ġt Æ°á»Ľng
Ġc ort
Ġth ÃŃnh
Ġn á»ĳt
Ġb illions
Ġh idden
Ġthá» īnh
in c
ĠchÃ ¢m
Ġwe ird
Ġph a
Ġgi am
ĠnÃł ng
Ġsa f
Ġu nd
Ġnot ion
Ġint u
ĠK inh
oc a
ĠE x
Ġgr ab
Ġdes ire
Ġlet ter
Ġbá»ĳ t
Ġhelp s
Ġinst all
Ġent er
Ġlead s
Ġlangu ages
Ph áº£i
Ġwatch ed
Ġinvest ment
Ġmot or
Ġbom b
Ġant ib
Ġess ential
Ġfair ly
Ġequip ment
G o
L Ã½
c ript
Ġt un
Ġc red
Ġi P
Ġd ue
Ġd Ã¡m
ap ed
Ġf ol
Ġf resh
Ġqu Ã£ng
Ġx Ã³m
Ġst im
ĠC o
Ġsh ut
Ġsh el
Ġhe ll
ĠA h
ant ic
ÄĲ áº¿n
Ġevery day
Ġun ex
Ġpart ners
ĠCh o
ber t
Ġnam es
ĠEng land
Ġterr or
Ġfeed back
imens ional
Ġnecess arily
ĠRw anda
Ġconcent r
e b
Ġc ateg
Ġw ire
Ġd áº¯t
Ġr at
Ġr iver
Ġin cent
ar b
Ġcá» «
ic ity
Ġkh á»Ľp
Ġst ri
ul pt
ate ll
Ġem pt
app ing
Ġsc ulpt
Ġfact s
Ġstud ied
Ġcre ation
Ġext ract
Ġop in
Ġhold ing
Ġinflu ence
Ġdai ly
gy pt
Ġsuc ceed
E m
O ver
c op
c ular
Ġt ick
Ġc áºŃy
Ġth iá»ĩt
Ġn áº¯ng
Ġm others
Ġh omes
ap se
Ġvá» Ł
ĠS ao
ĠphÃ¡ i
ĠP ro
ĠL in
are n
Ġmo ves
Ġdesign er
Ġplan ning
Ġplan ets
Ġed ge
Ġhy dr
Ġlead er
Ġbusiness es
Ġneur os
Ġinvest ig
ĠCar ol
Ġcu á»Ļn
Ġlea ving
Ġcirc um
kn own
Ġhous es
H is
d imensional
e ared
Ġth Ã¡o
Ġl Ã´ng
Ġm ill
Ġb Æ¡
Ġb ong
Ġto áº£
qu e
in ally
Ġph áº¡t
Ġra u
Æ°á»Ľ p
ĠB ab
ess ed
ob al
ĠE gypt
ĠR es
ĠJ o
Ġcomm it
Ġacc ident
Ġopen ed
Ġkeep ing
Ġdep ression
Ġprop er
Ġsurpr ise
Ġarg ue
Ġ196 0
Ġstrugg le
h old
u ing
Ķ i
Ġs ister
Ġs atell
Ġm áº¡n
Ġm ouse
Ġh áº§m
Ġg áº¥u
Ġtr Ãł
or g
al i
Ġthá» ĳ
Ġwe aring
ow ing
ent ally
ĠM ad
ĠnhÃ £n
ÄĲ á»«ng
Ġme at
Ġfr ag
ĠP e
Ġcomp are
Ġpre cise
Ġapp reci
Ġinv ited
Ġent ertain
pr int
Ġaw esome
Ġfollow ed
Ġrad ical
Ġdam age
Ġelectr ical
KhÃ¡ n
Ġincreasing ly
Ġplat form
A ctually
D Ä©
T ED
Ġt it
Ġc Æ°á»¡ng
Ġn á»į
ĠÄĳ uÃ´i
Ġl osing
Ġi ron
Ġd Ã£y
Ġkh Æ¡i
Ġli ked
ĠT á»ķ
th al
ĠM or
ĠB Ã¢y
ĠL ook
Ġtuy á»ĥn
ĠO x
Ġsur ge
end ed
Ġhigh est
Ġcap able
Ġbeg ins
ĠBr own
Ġunivers ity
Ġmetaph or
A gain
M áº·c
v i
Ġm aster
Ġo dd
Ġk ing
Ġp ock
Ġch Æ°á»Ľc
al ing
in ist
ĠT a
ĠM RI
il le
ĠN ot
el ine
ĠG and
ĠK ho
ĠJ on
Ġcl ip
ĠW all
Ġmo on
Ġres ource
Ġher o
Ġ9 5
Ġprot oty
Ġmark ets
Ġconst antly
Ġsurpr ised
Ġsurv ival
Ġhar m
Ġunivers al
Ġexperi enced
Ġgra v
Ġkil omet
Ġsepar ate
Ġcomfort able
Ġmagaz ine
Ġpian o
ĠHig gs
G áº§n
O nce
o ved
v ention
© o
Ġc ac
Ġth Ã´
ĠÄĳ Ã¢m
Ġs orry
Ġnh á»Ł
Ġr ural
ĠM áº¹
ill ed
ĠD el
ib ilities
Ġthu áº«n
Ġworld wide
ĠTh iÃªn
ĠTr á»Ŀi
fore st
Ġ200 4
Ġfin ished
ins on
Ġcond uct
Ġbá» Ľt
Ġorig ami
Ġcharact ers
Ġcompet ition
Somet imes
b ur
i h
v is
Ġt on
Ġl Ã¡t
Ġb and
Ġb attle
Ġg ather
Ġr ung
us hing
id ents
ce nd
ĠT e
ĠM and
ul s
ĠS il
Ġsu gar
Ġmu á»Ļn
Ġhá»ĩ t
ĠW illi
ĠO n
Ġbelie ved
iss ions
Ġkill ing
Ho Ã¡
Ġsuggest s
Ġprofess ional
Ġdescrib ed
Ġhor r
ĠchÃ¬ a
Ġult imately
Ġassoci ated
Ġphenomen on
Ġdimens ions
Ġweap ons
Ġairpl ane
ĠLat in
K áº¿t
T iáº¿p
g in
Ġth Æ°a
Ġl Ã²
Ġl Ã¹i
Ġm á»ĩt
Ġb á»į
Ġp urs
Ġp ounds
Ġg ap
Ġg ard
Ġd ry
Ġch á»Ł
Ġcá» Ł
ly mp
Ġra nh
ce ler
Ġsh apes
ĠA c
ĠÄĳi Ãªu
ĠL ad
ĠD Æ°Æ¡ng
Ġbr ight
Ġexp ression
Ġno ise
Ġad vert
ub lic
Ġlet ters
Ġ200 6
Ġstr ang
Ġchá»¥ c
Ġchar ge
ony m
Ġele ments
Ġdeg ree
Ġsus p
Ġconcer ned
Ġcoun ter
ĠGab by
Ġbrilli ant
B áº¥t
d am
r um
á» Ĵ
Ġl áº¡m
Ġh Ã²n
Ġh orm
re te
Ġ1 000
ĠC r
ĠT as
Ġho áº£
Ġmá» ¹
Ġag re
Ġper ce
Ġper ception
ak ed
Ġfl o
Ġbel ong
Ġcour age
Ġ200 3
Ġhard er
Ġnorm ally
Ġident ify
Ġast ron
Ġvirt ual
Ġorg ans
2 00
C Ã¹ng
U n
Ġth Ã´n
Ġb Ãºt
Ġh oles
er al
Ġng á»±c
ĠÄĳá» ¥
Ġph áº³ng
Ġqu e
ĠM ic
ac ing
ĠÄĳá»ĵ i
ĠO lymp
Ġná» £
Ġput s
Ġfact ory
Ġro ot
Ġvu a
Ġfin ish
Ġeconom ics
Ġhead s
ĠHo áº£
ipp ed
ĠGi Ã¡o
Ġmulti ple
Kho áº£ng
Ġartific ial
5 00
M T
T alk
v Ã¬
Ġ á»ĵn
Ġm Ãºa
Æ° Æ¡n
Ġp ow
Ġg Ã¡nh
Ġtr áº¥n
os m
en ry
al u
is f
it a
ĠÄĳá» Ľi
ĠkhÃ ºc
ol ves
ir ation
ĠC áºŃp
Ġsá» ©
ĠG al
Ġimp lic
ath an
ĠNh a
Ġind ic
Ġtrans p
Ġtrans formation
Ġgener ations
br idge
Ġtrain ed
Ġconst ruction
Ġoper ating
Ġslow ly
Ġlea ves
Ġsold iers
ĠCong o
Ġexh ib
Ġm áº¥u
Ġm igr
Ġk á»ĭp
at ures
Ġd ots
Ġd iction
Ġch ip
Ġsá»ĳ c
ul ated
Ġus er
ĠK oran
ĠR io
Ġhas n
Ġman age
ĠTh á»±c
Ġgr ade
Ġar ms
ĠV iá»ĩn
Ġco ast
Ġac ad
Ġad op
Ġ19 50
Ġcr ack
Ġ6 5
Ġacc ording
ĠChÃ Ńnh
Ġstre am
Ġcur ious
Ġmar riage
Ġengine ers
Ġfac ing
ipp ing
Ġcop y
Ġdetail s
Ġcart oon
Ġswe et
Ġord inary
Ġtoile t
ĠCE O
Ġvalu able
Ġunex pected
A udience
Ġv áº£i
Ġthe ater
Ġd ate
Ġto w
Ġr om
Ġin form
it ness
Ġwh om
Ġta il
Ġst ation
ce l
ĠC A
ĠT es
ĠB ur
Ġmá» ıi
um e
Ġ2 8
iz za
ĠR ep
Ġag ing
ĠJ an
ĠTh ese
Ġdes ert
Ġ19 5
Ch uyá»ĩn
te ch
Ġrá» ħ
Ġvide os
Ġorgan ic
iqu es
Ġanal ysis
Ġcaus ed
Ġcurrent ly
Ġpassion ate
Ġdistrib ution
Ġtom orrow
Ġconsid ered
Ġsaf ety
Ġcá»Ł i
m in
u k
z ing
Ġc ow
á»Ļ p
it als
Ġqu ad
Ġngh iá»ĩn
Ġst up
ĠT hÃ
ĠT ony
ĠN a
Ġex ch
ĠH Ãł
ĠP hÃ
Ġgr id
ell y
Ġsc ene
Ġinter p
Ġduy á»ĩt
Ġ12 0
Ġwond ering
Ġtest ing
Ġpay ing
Ġchem istry
ĠkhÃ´ i
Ġ198 0
Ġrelig ious
Ġlif et
Ġemploy ees
Ġoffic ial
Ġpropert y
Ġsym pt
ĠTas man
A R
D avid
E ach
M áº¹
T ake
c Ã³
d e
l ie
p rof
Ġc á»ĳi
Ġth Ã¢m
Ġl at
Ġm anh
Ġb Ãª
Ġh Æ°u
Ġh Ã£ng
os is
Ġr Ã¡p
ar i
Ġwe ather
Ġre form
ct ions
Ġngh á»ĭch
ĠM áº·t
ĠS ing
ro ve
Ġngo an
Ġsm ile
Ġrec y
Ġmus ical
Ġequ ival
Ġcollect ion
Ġlaw y
Ġstep s
Ġserious ly
Ġunf ortunately
Ġconsequ ences
e an
m as
n am
r s
Ġth a
Ġs ight
Ġh ip
Ġh urt
Ġg an
Ġnh áº·t
Ġch art
as ion
Ġkh áº³ng
Ġkh iáº¿m
op her
Ġas ks
ĠB ush
ĠN Ãły
ĠD i
ib an
ĠR om
Ġ3 2
Ġother wise
Ġcl osed
ĠW ith
Ġac celer
ĠTr Æ°á»Ŀng
ne ath
ĠY emen
Ġfeel ings
Ġhá»ĵ ng
Ġart icle
Ġinter face
Ġatt ach
ĠAr t
Ġelect ion
Ġcult ures
Ġref uge
Ġaw ful
Ġcut ting
Ġ201 1
Ġple asure
Ġsent ence
Ġhor se
Ġcivil ization
Ġwall s
Ġmosqu it
Ġempt y
Ġstup id
H Æ¡n
M ar
c are
d own
s p
u ed
Ġ era
Ġc aught
Ġl Æ°á»¡ng
Ġm Ã¢u
Ġv Ã¢y
Ġp ages
Ġg od
Ġnh iáº¿p
om b
Ġph ones
ir m
ĠC uá»Ļc
ĠM ah
Ġfr ustr
Ġj azz
ci pl
Ġhad n
ĠÄĳá»ĭ ch
Ġpart ner
Ġdis p
ĠU g
Ġapp ropri
Ġplan e
alle y
Ġset ting
Ġspec ifically
Ġtreat ed
Ġlim it
Ġphotograph s
Ġcu á»ĵng
Ġfill ed
Ġmal aria
Ġbub ble
Ġpengu ins
B á»©c
C Æ¡
M ore
P r
W ould
c raft
l ands
l ife
n s
Ġc osm
ĠÄĳ á»ĳ
Ġs áº¯t
Ġl aser
Ġh áº¹p
Ġv es
Ġv ibr
ent ed
ur ally
Ġdo l
Ġli qu
ĠT uy
Ġso il
Ġsh ad
Ġpe ak
Ġwhen ever
are t
ĠF ord
ĠTh á»ķ
Ġun less
ĠV á»Ľi
Ġhum or
ĠkhÃ³ i
ĠphÃŃ m
Ġsign al
Ġconst ruct
ros oft
ĠCam bridge
Ġclin ical
Ġshark s
Ġveh icle
Ġconvin ced
ĠOx ford
Ġcac bon
h ol
t ain
Ġt all
Ġl áºŃt
Ġv Æ°Æ¡n
Ġp al
Ġp il
Ġch ain
os ter
Ġr áº¯n
Ġf al
Ġin ner
ar ah
ĠI ce
Ġcon cl
Ġlo ck
ĠA nt
ill ing
ĠS yr
Ġj u
ĠH er
est s
ens ion
Ġid e
Ġpre gn
Ġfew er
Ġopen ing
Ġsub st
Ġpres ident
Ġexpect ed
ma king
Ġsend ing
yr us
Ġanal og
Ġprofess or
Ġaffect ed
Ġemp athy
Ġreact ion
Ġneg ot
Ġentreprene urs
Ġmicr ob
Ġing red
ĠStan ford
b el
f ather
s et
Ġt en
Ġt eles
Ġc up
Ġn erv
ĠÄĳ Ã¡o
ĠÄĳ Ãłm
Ġm áº£ng
Ġp ure
Ġf le
ic y
Ġkh uyáº¿t
Th á»Ŀi
Ġre in
Ġre ci
Ġdo gs
ill y
Ġmy th
ist ot
Ġsp oke
ĠD et
ib er
ĠF re
ens ity
Ġunder neath
Ġimport ance
Ġfour th
Ġsol id
Ġwar m
Ġpolit icians
Ġdeep er
Ġengine er
Äĳ Ã³
Ġrev iew
Ġdemocr atic
Ġpract ical
Ġrele ased
Ġpoll en
Ġarr ived
Ġdispl ay
Ġalgorith ms
Ġbatter y
Ġequival ent
Y et
c ast
i ors
o ons
u ary
ĠÄĳ áº»
Ġs ources
Ġg am
Ġg á»ĳi
Ġr ide
Ġf ed
or ation
Ġe ld
Ġta ng
Th á»Ń
ur ance
Ġst ood
ĠphÃ ´
Ġsa ved
Ã¹ m
ĠB Ãł
ag h
Ġex tend
ac le
Ġmy st
ĠH ans
ĠH á»įc
um an
ate ful
Ġsp l
Ġkho Ã¡i
ĠL ED
ĠE ric
ĠÄĳo an
Ġcont ain
Ġpre fer
Ġsc en
Ġdr iver
Ġtechn iques
Ġcol on
Ġthought s
Ġrá» Ńa
Ġorgan ized
Ġhope fully
Ġdef ine
Ġloc ation
Ġmic ros
Ġmole cular
Ġhon or
ĠAt lant
Ġlaunch ed
Ġgrandm other
Ġcá»« u
Ġves sel
H ave
I nd
e ng
h ai
p oint
Ġc áº¡n
Ġc ere
Ġp izza
er ge
Ġwe ak
Ġqu iet
Ġli ft
áº± n
Ġab st
ĠM ac
ĠB Ã¬nh
ĠB ank
ĠS l
ĠD is
Ġbr ief
ĠTh Æ°á»£ng
Ġbl ocks
Ġplay ers
Ġcontr act
Ġsing ing
Ġwar ming
Ġpsych ology
Ġabsolut e
Ġge nder
Ġprom ise
Ġdeb ate
ĠGiá» Ŀ
Ġsou l
Ġrelative ly
Ġgentlem en
Ġcircum st
Ġliqu id
b re
v an
w ell
Ġt áº§n
Ġc Æ°á»Ľp
Ġn ations
Ġs áº¡n
Ġs oph
Ġg a
Ġg ain
Ġd Ã¢m
Ġd áº»o
Ġr ational
it z
it arian
le ment
le ase
Ġph r
Ġcho col
Ġst aff
Ġfor ced
ĠmÃł ng
Ġli br
se y
Ġwor ried
ĠS ah
ĠchÃŃ n
ĠÄĲ á»ĥ
Ġem issions
Ġman ip
ĠJ oe
Ġgr ass
Ġdi al
Ġco vered
pl ace
Ġdr ag
Ġinv ention
ogr ap
Ġent ropy
Ġbit s
Ġmus h
Ġprocess es
Ġcir cle
Ġpick ed
Ġhosp itals
Ġbirth day
Ġprint ing
ĠFl or
Ġmá»ĵ i
ĠCent er
ĠUg anda
Ġnerv ous
B ao
S W
b les
k ins
Ġn urs
ĠÄĳ áº¡n
Ġl áºŃn
Ġv áº¹n
Ġd áº£i
Ġd áº¡o
Ġtr Ã¢n
ing ly
Ġqu al
Ġse vere
ĠS ub
The ir
ĠP ol
ĠP eter
Ġun cle
Ġpro ve
Ġgood s
ĠNh Æ°
Ġtrans ition
Ġart s
Ġmet al
Ġlá»ĩ ch
Ġconnect ions
Ġtre o
Ġbuy ing
Ġrequ ires
Ġconsum ption
Ġemerg ing
Ġhack er
Ġvict ims
ĠGh ana
Ġlifet ime
Ġfal se
Ġabst ract
b l
Ġc áº¯m
ĠÄĳ áº¡c
Ġs ides
Ġl ect
Ġb ow
Ġh em
Ġi l
Ġto ward
Ġf u
ed a
ic ip
Ġqu i
Ġbe ar
Ġsh ame
Ġlá» £n
ĠN an
Ġnot es
ĠD em
ĠK ore
Ġ3 3
ĠF ound
ĠW ow
ĠO k
Ġcall ing
Ġpo em
Ġev il
Ġdesign ers
Ġorgan isms
Every body
Ġstat us
Ġstrong er
for ce
Ġprinci ple
Ġvulner able
Ġindepend ent
Ġnarr ative
Ġdyn amic
Ġepid emic
ĠTal iban
Ġfol ks
ĠbÆ¡ m
ĠMic rosoft
Ġdol ph
ĠFlor ida
R Ãµ
W omen
w ich
y an
Ġt Ã´ng
Ġc áº¯p
Ġa th
Ġl ic
Ġb ath
Ġv e
Ġv Ä©nh
Ġf an
in ations
ly ing
Ġis land
Ġli e
ir ty
ĠT ex
ter day
Ġlá» Ŀ
ĠN ord
ĠH enry
ĠÄĳá»ģ n
act ion
Wh ile
ard o
Ġquy Ãªn
ĠJ es
Ġac qu
Ġid eal
Ġro of
Ġtechn ical
ĠTED Talk
Ġ200 1
be ing
Ġfound ation
old s
Ġeng aged
ĠNg Ãłi
Ġtop ic
Ġsign als
ĠHow ard
Ġris ks
Ġconv ention
Ġrele ase
Ġintellig ent
Ġinfect ed
Ġmist akes
Ġlad y
ĠNe ander
stit ute
Ġnewsp aper
Ġbud get
Ġmort ality
Ġheav y
Ġintellect ual
. .
B M
B á»Ļ
c ar
j o
Ġn orth
Ġb on
Ġb áº¯p
Ġb á»įc
Ġk iá»ĩt
at i
er r
Ġnh Ãłng
Ġtr ip
Ġr ow
Ġf iction
et ics
ent ure
ol ving
st ers
ĠC Ã²n
Ġkhi Ãªu
ul in
ant ed
ĠB on
ĠS im
ag en
Ġj ail
ĠH Ãłn
ĠH iá»ĩp
ĠP ort
ĠG ood
ĠL ong
Ġun us
Ġbu Ã½t
Ġdis h
ea k
uc ing
ath ers
Ġsc ar
we et
Ġtu Ã¢n
Ġmin im
Ġless ons
Ġeffect ively
Ġmem ories
Ġmot ion
Ġkhuy nh
Ġtrial s
Ġkáº¹ o
Ġkáº¹ t
olly wood
Ġcla im
Ġrestaur ant
ĠLeg o
istot le
Ġil leg
ĠTex as
1 8
S ee
b an
f oot
Ġn ose
Ġl áº¥p
Ġm Ã²n
Ġb ia
Ġh uyá»ģn
Ġv Ã©
Ġd á»įn
Ġnh áº§m
Ġto x
an ch
an th
Ġr ig
Ġr ates
in i
us es
Ġis ol
Ġli es
ĠC á»Ļng
ĠT á»«
th ur
Ġhe ight
ĠB áº£o
Ġex ists
um ber
ab ol
Ġma k
Ġman agement
ond s
Ġco al
ress ive
Ch ar
Ġfl at
ĠSt ate
Ġrem ain
Ġser ve
Ġpat ent
Ġmed ium
Ġposs ibilities
bo x
ove mber
Ġbott le
Ġele ph
Ġrele vant
Ġsil ence
Ġdefin itely
Ġsat isf
ĠIsl am
ĠCong ress
Ġspect rum
Ġrough ly
Ġchann el
Ġkilomet ers
a ving
c ut
d i
Ġth áº¯c
ĠÄĳ ai
Ġs outh
Ġw ave
at ar
Ġd ot
Ġin it
ĠÄĳá» Ĺ
ut es
Ġgi Ã£n
et r
ang ing
Ġfor mer
ac les
est ic
Ġact ions
ĠTh á»©
ĠchÃº c
Ġperson ally
Ġtrans pl
ĠÃ Ģ
Ġcare fully
ĠPh áº£i
Ġgrand father
Ġfall ing
Ġprotect ion
Ġprote ins
Ġproduc ing
Ġlay er
Ġer ror
Ġintrod uced
Ġprinci ples
ĠGerman y
ĠBro ok
Ġdram atic
Ġpoet ry
Ġaltern ative
Ġexer cise
Ġsoph istic
Ġchocol ate
T Æ°Æ¡ng
b ed
Ġc ave
Ġn ar
Ġn á»ģ
Ġn av
Ġs en
Ġl Å©ng
Ġm Æ°á»Ŀi
Ġh Ã£
Ġv ay
er ves
Ġtr Ãº
Ġr áºŃp
Ġx Ã¡m
Ġse at
Ġse es
ul ating
ĠB u
ĠB ol
ĠS at
ĠH igh
ĠG ree
Ġtá»± a
ĠR áº¥t
ĠJ im
ĠV ir
Ġfl ash
ĠÃ Ķi
Ġ8 5
Ġexplain s
Ġamount s
Ġocc up
Ġmeaning ful
Ġprofess ion
Ġdepend s
Ġlif est
NhÃ ¢n
ĠAb raham
Ġencour age
Ġcand id
Ġforg ot
Ġfort un
Ġchick en
Ġcort ex
Ġcred it
1 2
C á»©
S ince
V ery
g ets
w a
y o
z ed
ª m
Ġc Æ°Æ¡ng
Ġc ents
Ġth Ã©p
Ġn it
Ġs ke
Ġm á»įc
Ġw ars
Ġp ip
Ġd á»Ł
Ġch Äĥn
Ġin ev
Ġthá» ķ
ere nt
op ard
á»ĭ nh
Ġsh r
ĠnhÃ ³
Ġmá» ıng
ĠG ulf
ĠD ay
Ġpl ans
iz on
Ġen s
Ġsc ared
Ġfl ower
Ġdesign ing
Ġinterest s
Ġpartic les
Ġgener ate
Ġadd ed
Ġant i
Ġexist ing
Ġest ab
Ġfell ow
Ġdisapp ear
Ġmention ed
Ġreve al
Ġcompon ents
Ġcá»± u
Ġhydr ogen
Ġinterp ret
Ġcircumst ances
ĠSah ara
Ġmush room
A meric
D id
c est
Ġth áº±ng
Ġn Ãªu
Ġv Æ°á»£ng
Ġw ine
Ġd á»ĳc
Ġch ose
Ġin equ
it an
ĠÄĳá» £t
ĠkhÃ ©o
om pl
Ġit em
Ġre prod
ĠC Ã¡ch
ĠC Ã¡m
ĠC oca
Ġsh all
il ed
Ġfr ight
ab il
ĠL áº¡p
ĠD V
ĠR ev
Ġgr ateful
Ġpo ly
Ġpo ore
Ġ20 50
Ġbi ke
Ġngá» «a
enc ing
Ġenviron ments
Ġsit es
Ġdef ined
less ly
Ġadv ice
Ġtyp ically
Ġdeal ing
Ġfield s
Ġtrack ing
por ary
Ġsubject s
Ġintern al
Ġparticip ate
Ġintrod uce
Ġign or
kn ow
Ġsequ ence
Ġmathemat ics
Ġdoub t
Ġrapid ly
Ġopin ion
1 9
B a
E x
r ont
Ã Ģ
Ġt ap
Ġn Ã¡t
Ġs Ã´i
Ġl Æ°á»£t
Ġb Ã¡
Ġh Ã´i
Ġh Ã²
Ġv ang
at ers
Ġd Å©ng
os a
Ġr it
or gan
as ters
ic an
Ġgo als
Ġme l
um s
ĠG old
ĠK hÃ¡
Ġworld s
ĠJ ew
Ġun it
ĠV en
tern al
Ġbo at
ĠY our
Ġpercent age
Ġend s
Ġpol io
wh el
Ġsol ving
Ġrep air
Do es
Ġconst ant
Ġinnov ative
Ġsens es
Ġast on
Ġfundam entally
Ġaware ness
Ġvari ety
Ġcapt ure
Ġinstr ument
Ġframe work
Ġaccur ate
hy th
Ġgrav ity
Ġunus ual
J ohn
P er
R ob
c ons
i ency
p es
Ġt ons
Ġb Ã¹
Ġw itness
Ġd at
Ġr ing
Ġr áº½
Ġvá» Ĺ
ut her
Ġx Ã´i
Ġre verse
Ġchá» £
Ġan cest
ĠB ay
Ġmá» ī
ear ch
ab led
Ġint ense
Ġsp in
ĠL aw
Ġle ngth
Ġun s
ro vers
Ġover whel
Ġdis aster
Ġfact or
Ġtho Ã¡i
az e
Ġplay er
Ġcons ist
Ġeconom ies
Ġrun s
Ġwond ered
Ġlab el
Ġmess ages
Ġoper ate
Every thing
itch en
ĠBl ack
Ġpriv ile
Ġmov ies
Ġest im
Ġprim ary
Ġmount ains
Ġauthor ity
Ġforest s
Ġrid ic
Ġnan o
Ġjud g
Ġswim ming
Ġearth qu
Ġsam ple
Ġgala xy
Ġappl ied
Ġexch ange
prof it
ĠNord en
E C
G l
M áº·t
i en
k hÃ´ng
s ource
t it
Ġn áº£n
Ġm ember
Ġb ill
Ġh ide
Ġh áº¡ch
re ts
Ġo ption
Ġp un
Ġp ump
os n
an z
Ġr ot
or a
or ter
ct ic
am ent
ĠmÃł y
ĠC op
Ġho Ãłi
ĠA p
Ġat oms
ĠB ron
ĠH áº£i
Ġ2 9
ĠphÃ¡ c
all ed
ĠG ia
Ġsu it
ĠR ay
Ġ3 1
ro it
Å© i
end ing
Ġins ulin
Ġ7 00
Ġacc ompl
Ġexpl an
Ġeconom ists
Ġreg ions
Ġconf idence
Ġconf ront
ĠInd ones
Ġaut onom
Ġfil ms
ats on
Ġfund ing
Ġteam s
Ġele v
Ġcomb ine
Ġjo ined
Ġcrit ic
Ġsell ing
ĠBrit ain
Ġconc rete
Ġcarry ing
Ġhop ing
Ġpassword s
Ġgradu ate
Ġphilosoph y
Ġmanufact uring
Ġtum or
ĠSwed en
ĠMand ela
ĠDet roit
Ġnav ig
D A
a ven
Ġth áº§m
Ġb Ã¡ch
Ġv oc
Ġd á»Ļi
er as
Ġtr áºŃt
ou g
Ġch áº£
os ition
Ġf ake
ed ing
it ure
ll y
Ġph o
id i
st on
ad ed
Ġpr ay
Ġse m
ind er
Ġte eth
ĠG ore
Ġhow ever
Ġcomp ar
ĠR á»ĵi
Ġag g
ĠCh iáº¿n
Ġfact ors
Ġ8 00
Ġcent uries
Ġstr ing
Ġanim ation
ĠBr ian
Ġincre ased
Ġbá» Ĺng
els on
Ġsun light
Ġtravel ing
Ġoce ans
Ġyes terday
Ġbar ri
ĠSc ot
Ġvacc ines
Ġsand wich
ĠnÃ© n
Ġcollabor ation
ĠNgh á»ĩ
Ġchemical s
Ġdiscuss ion
ĠRos ling
Ġsport s
eph en
Ġrit ual
A M
C ola
M á»¥c
P hÃ
T in
e k
Ġt iá»ħn
áº ³m
ĠÄĳ áº½
Ġl oud
Ġm ere
Ġb áº¥y
Ġv Ãµ
Ġw ake
re y
Ġg Ã¡c
ap ore
Ġx Äĥng
Ġre bu
Ġngh iá»ĩt
ig m
ĠC D
ĠT á»±
ag ram
ok ing
and on
if er
ĠP res
ĠP eople
ĠE as
ans as
ĠW olf
Ġchu a
Ġcontr ast
Ġmove ments
Ġreg ard
wh at
Ġsol ved
Ġpos ter
Ġproduct ive
Ġtrá»« u
Ġoper ation
Ġbehavior al
Ġfac ial
Ġwin ter
Ġobs er
Ġcomb ination
Ġhar vest
Ġconvers ations
Ġcook ing
ĠMus lim
Ġtransport ation
Ġresist ance
ĠxÃŃ u
Ġantib iot
ĠFound ation
ĠIndones ia
B as
b ors
m ission
Ġth ick
Ġn á»¥
Ġm uá»ĳi
Ġb Ã¬a
Ġh á»¥t
Ġg all
ch ild
ic ing
am ine
ĠC yrus
ab et
ab ilities
ĠR ed
ĠV an
Ġres il
Ġad j
Ġbo ld
ph a
Ġcomput ing
Ġsk ill
Ġref r
Ġdev il
Ġcá»ķ ng
Ġchalleng ing
Ġass ign
Ġmil k
Ġbehav iors
ĠZ eal
ev in
Ġcoll apse
Ġfear s
Ġinclud e
Ġconsum er
Ġdest ruction
Ġcy ber
ĠSc ott
Ġste el
Ġprep ared
Ġapplic ations
Ġfab ric
bur gh
ĠSyr ia
Ġnegot i
ograp her
ĠBron x
L oáº¡i
a e
b b
d o
h á»į
l ines
r ition
t rong
Ġ á»ĵ
Ġt ank
Ġc ock
Ġth áº³m
ĠÄĳ Ãł
Ġl Æ¡
Ġl áº¯c
Ġo ught
er on
Ġch urch
Ġf lex
Ġin put
Ġx ÃŃch
Ġx Ã©
Ġre ven
Ġst ere
Ġ-- -
im eter
Ġcom ment
Ġfr ank
ĠH ai
og ue
ĠD en
Ġact ing
ĠK e
ĠF in
Ġ5 5
ict or
Ġdes k
Ġoff ers
chn ology
ĠIn stitute
con t
Ġhu nt
Ġinst inct
Ġwr iter
Ġcent ers
Ġgener ally
Ġbus y
pr ing
Ġproc ed
Ġhy d
Ġbom bs
Ġru á»ĵi
Ġrepres ents
Ġconv ince
Ġsn ow
arr ass
Ġmechan ism
Ġmir ror
Ġagricult ure
Ġegg s
ih ad
Ġlifest yle
C H
C ould
M A
S á»ĳ
l ation
m ers
v ille
w ar
´ n
Ġ á»ĳc
Ġc ure
Ġs Ãºc
Ġl Ãºa
Ġm ad
Ġm á»Ļng
Ġm aps
Ġb are
Ġh Ã³c
Ġg ar
Ġtr á»Ļm
nh á»¯ng
en a
Ġgi áº·t
et te
Ġst ands
im inal
op ia
Ġsa cr
st ream
ĠC áºŃu
ad ic
Ġso áº¡n
ĠM il
Ġne ut
ĠS ant
Ġor ch
ort ion
ree nh
ew art
Ġdr iven
Ġown ers
Ġob st
Ġvá»¥ n
pe are
Ġmet abol
Tr ung
Ġcle ver
Ġdep artment
Ġcam eras
Ġpar king
Ġrad iation
Ġliter ature
Ġstay ed
Ġinsp iration
Ġsitu ations
Ġsustain ability
Ġtransform ed
akes peare
Ġmist ake
ĠIsl amic
Ġsam ples
Ġentreprene ur
ĠRuss ia
Ġhyp othes
Ġtherap y
Ġcircu it
ĠCarol ina
Ġilleg al
Ġsophistic ated
ĠDV D
tit les
ĠZeal and
B C
H á»ĩ
H Ãłng
T hÃ´ng
c ks
i el
l ook
u x
Ġ ur
Ġ á»ĳm
Ġm at
Ġm Æ°Æ¡i
Ġb es
Ġb Æ°á»Ľ
Ġb orders
Ġh its
Ġg Å©i
Ġg reenh
ot o
Ġr Å©
ch air
Th ree
Ġx Æ°á»Łng
Ġx Æ°á»Ľng
Ġre ject
Ġst eal
Ġchá» £t
Ġan onym
st and
Ġu nh
ĠM at
ĠA ct
ĠS om
if th
ob i
ob s
ĠP at
ĠP ac
Ġte a
Ġpl us
Ġsome what
ose ph
ĠK im
ĠJ osh
Ġthan ks
ĠW atson
Ġpre m
Ġfl ag
Ġapp arent
Ġtechn ique
Ġstory t
ĠIs land
ĠYork er
Ġsign s
Ġdev ast
Ġwalk s
ĠtÃŃ m
Ġpot entially
Ġident ical
Ġbox es
Ġauth ent
Ġfoot print
Ġopt ions
Ġpull ed
Ġneigh bors
ĠThÃ¡ nh
Ġbur ning
Ġemb arrass
Ġcloud s
Ġhung er
Ġlabor atory
Ġdeterm ine
Ġlad ies
Ġcontroll ed
ĠPro ject
Ġsatell ite
ĠVir gin
Ġearthqu ake
ĠPres ident
B I
C l
H Ã¬nh
T Ãªn
e o
n ight
o op
u pp
Ġ áº¿ch
á» Ĺ
Ġth umb
Ġs ets
Ġm Æ°á»£n
Ġh Ã©t
Ġk m
Ġd ict
Ġd edic
Ġd ancing
er ry
Ġtr Ã¡ng
Ġch áº½
Ġng áº«m
es h
es ity
in ate
le vel
Ġwe l
Ġwh ist
Ġbe e
Ġre h
Ġre n
Ġst ock
Ġwas h
ĠC ount
Ġlo op
Ġas se
ĠA ir
ĠP ole
Ġkho Ã¡ng
ĠL ester
ĠD a
Ġsu ic
Ġbr oke
res p
Ġun known
Ġar rest
ĠV ictor
Ġ19 30
Ġdown load
Ġsur vey
Ġinst ruct
Ġplay s
ĠAr istotle
ĠNg Ã¢n
Ġprocess ing
Ġglob e
Ġphys ically
Ġallow ing
Ġequ ally
Ġtest s
Ġmem or
Ġadv anced
Ġcollect ed
Ġclose ly
Ġexist ence
ĠPr ize
Ġimm une
Ġemp ower
Al so
Ġult imate
Ġflow ers
Ġspirit ual
Ġpropert ies
Ġveh icles
Ġpuzz le
Ġembr ace
connect ed
ĠGand hi
Ġton ight
ĠWilli am
Ġhorr ible
Ġgard en
Ġastron om
Ġappropri ate
B Ãªn
K á»ĥ
S S
S im
g ie
n áº¿u
o oth
v ia
x ies
Ľ p
á» ħ
Ġc Æ°á»£c
Ġth in
Ġl Ã¢n
Ġm ales
Ġb in
Ġb áº©n
Ġv Ã¡n
Ġp ound
Ġp itch
Ġd ense
Ġnh Æ°á»Ŀng
Ġtr Ã¡n
Ġf urn
ar ant
ĠÄĳá» ĩ
as ks
ĠI m
Ġph ase
Ġqu áº·c
Ġbe ach
et ically
Ġx á»ī
ÃŃ n
ke ep
Ġcon ver
ol ar
ĠC omm
Ġas p
Ġsh ell
ĠM ill
ĠM useum
Ġfr og
ĠÄĳá»Ļ n
Ġj oke
Ġex ec
Ġout c
ĠnhÃł o
ĠD ep
Ġact s
Ġquy áº¿n
pp ed
ild ing
ĠW al
Ġimp lement
Ġover all
Ġdis s
Ġac know
Ġdes per
Ġcá»ĳ ng
ub es
Ġdá» Ĺ
Ġform ed
Ġkeep s
Ġdist inct
Ġpain ful
Ġcollect ing
Ġinteract ive
Ġarg uments
Ġmain ly
Ġspread ing
Ġactiv ities
Ġadm it
ĠLad en
Ġimplic ations
Ġrom antic
Ġsympt oms
ĠIce land
Ġtranspl ant
ĠRev olution
B Ãłi
C L
G O
L ast
T e
h our
i at
t ch
u ch
u gg
Ġt ape
Ġl Ã¡nh
Ġm áº¿n
Ġb áº¥m
Ġb Ã¡m
Ġb icy
Ġw ings
Ġk itchen
Ġnh áº¡t
os ph
Ġf oss
Ġf ert
le te
ic ious
ÄĲ iá»ĥm
ĠgÃ¬ n
ag ic
ĠH ollywood
ie v
ĠL ou
hi le
app y
Ġun com
ĠO l
Ġdis cipl
ĠV i
olog ically
Ġcont rovers
Ġpo ol
Ġunder water
Ġhand le
Ġhealth care
ran e
Ġstre tch
ĠSh akespeare
Ġcontin ent
Ġadv ance
Ġwa ves
Ġill usion
Ġsens itive
Qu Ã¡
Ġvirus es
ĠBl ue
Ġroad s
ept ember
Ġrepl ic
Ġconflict s
Ġattack s
Ġdiv ide
sc ale
Ġwheel chair
Ġlá»ģ u
ĠMont ana
Ġmeas uring
ĠTrans cript
Ġentertain ment
vi ol
Ġpock et
Ġconcl usion
Ġpregn ant
ĠSub titles
ĠDem ocr
Ġestab lish
Per haps
G e
N C
S ao
g ent
n el
Ġ Ã´m
Ġn á»ĵng
Ġs Ã´
Ġs Ã¡o
Ġs áº¯m
Ġm ent
Ġb order
Ġh iáº¿p
Ġp ill
Ġg est
Ġtr ig
Ġr ush
is ters
ar on
us ive
Ġbe et
Ġan th
ter y
ĠS en
Ġfr o
ĠH ay
Ġup per
ĠL ove
iv i
ĠR am
ĠR iver
ĠR ock
Ġbr ib
Ġbr others
Ġper man
Ġ3 7
Ġfe ature
Ġcl ock
Ġimp lant
ĠCh á»§
Ġcont em
Ġcomm and
Ġ200 2
Ġob esity
Ġdesign s
Ġrá» Ĺng
Ġreg ener
ĠmÃ£ nh
Ġclass es
Ġlarge ly
Ġprov iding
Ġexplain ed
Ġru á»Ļt
Ġrecord s
Ġreach ed
Ġrequ ired
Ġpoll ution
Ġsuff er
ĠChrist mas
Ġdrop ped
ĠGr and
Ġsurround ed
Ġir r
ĠChi le
Ġgala xies
Ġincent ives
ĠKho a
Ġprototy pe
Ġadvert ising
ĠJan uary
Ġaston ishing
hyth m
Gl obal
A b
f ield
n et
r as
u ous
z er
Ġ +
Ġc Ãłi
Ġn Ã´
Ġl Ã¹ng
Ġl uá»¹
Ġm im
Ġb en
Ġb oring
Ġv it
Ġp ushing
Ġnh á»ĩn
Ġtr uck
ĠchÃ ¹
ĠchÃ ´n
ĠI BM
Ġph un
et ch
Ġst orm
Ġli ver
Ġu b
Ġse ason
il a
ill a
Ġat tend
ĠB ob
ĠS k
ĠS eptember
ag os
Ġmá» ķ
ab in
Ġsp here
ĠL Ãł
ĠE th
Ġher oes
Ġ4 6
pl om
ord s
ak ers
Ġrem em
Ġins urance
Ġtrans fer
ĠNew ton
Thank s
Ġreg ret
ĠNg Ãły
ĠHe alth
Ġpres ence
Ġyoung er
Ġconst it
Ġsong s
Ġoper a
ĠAm y
Ġcaus ing
Ġang ry
Ġbreat he
Ġmechan ical
Ġassum e
Ġjud ge
ios ity
Ġmathemat ical
Ġunc ertain
ĠSil icon
Ġphr ase
Ġconvention al
Ġfrank ly
Ġgreenh ouse
B A
B á»ĳ
O L
P T
a eda
h h
v as
w orth
á» ©a
Ġc ous
Ġth ung
Ġth áº¥m
Ġl ying
Ġv áº¡ch
Ġk ick
Ġp apers
Ġd ress
Ġr ub
Ġr ating
or us
ar ry
Ġe ars
ut ch
Ġgiá» įt
Ġli kes
ĠT im
ĠM iss
ĠM ike
Ġme g
Ġout come
rou s
ĠK y
ĠK ar
Ġag encies
ep s
Ġgr ain
Ġxu Ã¢n
Ġ19 00
Ġlet s
Ġrem ove
Ġbi as
Ġfin ance
Ġcare ful
Ġnat urally
Ġvis ible
Ġeduc ational
Ġref er
Ġcoll aps
Ġdeath s
Ġlá»ĵ ng
Ġdig it
Ġfac ed
Qu an
ĠLe on
Ġrelig ions
Ġapart ment
Ġaf tern
Ġmethod s
Ġcontinu ed
Ġtrib e
Ġhous ing
Ġdiagn osed
Ġfing ers
Ġdefe nd
Ġstrang ers
Ġacad emic
Ġlat est
ĠSing apore
Ġeld er
Ġmyst ery
Ġnurs es
Ġath let
Ġantibiot ics
Bas ically
c ase
f ish
n ow
x im
Ġc ast
Ġth Æ°á»£ng
Ġs Ã©t
Ġw ise
Ġp ed
Ġp asse
Ġtr iá»ĩt
Ġch á»įc
ing u
Ġr Ã£
Ġin ject
Ġvá» Ŀ
Ġwh ales
ion e
Ġx Äĥm
Ġra w
im a
se e
ĠT em
ĠT anz
th ink
ĠM Ã¬nh
ĠM el
Ġlá» ¡
ĠS and
ĠS cience
ĠN Äĥm
Ġal b
ĠP an
Ġsp oken
ĠG ener
ĠD Ã¢n
Ġpl ate
ra h
Ġwhere ver
ĠJ ac
Ġcl othes
ge nd
ĠV alley
Ġshe ep
ict ed
Ġbl ank
Ġad oles
Ġpre tend
Ġoff ered
Ch iáº¿c
ĠNh Ä©
Ġeng agement
ĠUn ion
ĠHo Ãł
Ġheart s
Ġclass ic
ĠZ imb
Ġinteract ions
Ġsens ors
Ġ199 9
Ġmain tain
Ġviol ent
Ġlog o
Ġstru ck
Ġhuy nh
Ġfascin ated
Ġeffic iency
Ġcustom ers
ĠDel hi
ĠRep ublic
Ġrecy c
ĠhÃ£ m
ĠEas tern
Ġoutc omes
Ġpasse ng
B J
c a
c il
o ing
r ors
t Ã´
x in
Ġt Ãª
Ġt ivi
Ġc ards
Ġl Äĥng
Ġl Ã©o
Ġm Ã³ng
Ġb Ã³c
Ġh ur
Ġv ert
Ġv Ã²i
er ial
qu are
is her
Ġcá» į
Ġph arm
Ġph osph
ow ered
us ions
Ġdo p
op ath
st ruct
ĠC Æ¡
ĠC oll
Ġpr ost
Ġse ction
Ġsh ake
ĠM er
Ġhe aven
ĠN GO
ag ue
ĠH ill
Ġbut ton
Ġsp ring
Ġthem e
Ġcomp l
ĠE s
Ġag end
Ġwhere as
Ġcl ub
ĠW right
Ġgr ay
Ġdi ox
Ġac id
ew is
Ch a
Ġcr iminal
Ġdr ives
Ġel imin
Ġfun ctions
Ġsign ed
Ġcor al
Ġfig ures
Ġret ire
Ġneur on
Ġwind ows
Ġrecord ed
Ġreach ing
Ġobs essed
Ġhot el
Ġconcept s
Ġemb edd
Ġport ra
Ġcontrib ute
ĠJe ff
Ġteen agers
Ġvulner ability
Ġselect ion
Ġcompon ent
Ġtor t
Ġtast e
Ġdiction ary
Ġshad ow
Ġnar row
Ġdat ab
Ġrefr iger
Ġfurn iture
B r
D an
R e
V o
W K
b urg
c Ã´
h ouse
m ates
Ġ uy
Ġ áº©m
Ġt ight
ĠÄĳ c
Ġm i
Ġv Ã²
Ġg ut
Ġch rom
Ġin iti
it ors
as m
us al
Ġqu áº¡
ut an
id ay
Ġst ack
st one
st age
ĠT iáº¿n
ĠM ary
ĠB udd
ĠS ir
ĠS Ä©
ĠS ec
ĠH ouse
Ġde ploy
ok es
Ġkn ee
ĠP ower
ĠK ir
Ġtá»± u
ĠF ellow
Ġhapp ier
ĠW alk
Ġvá»ĭ nh
Ġdi plom
Ġ4 4
Ġsur f
Ġsur ve
Ġtechn ological
Ġrel ate
Ġcons erv
Ġexpl os
Ġbeh ave
ier ra
Ġgu arant
Ġequ ation
Ġmar ath
To Ãłn
Ġexist ed
Ġlim its
ĠFr ance
Ġenc oun
yl on
Ġtravel ed
iet nam
Ġevolution ary
Ġrece ive
Ġtransl ate
for ward
Ġdistrib uted
iven ess
Ġhistor ical
Ġapplic ation
Ġvolunte ers
Ġscr atch
Ġintu itive
aren cy
Ġcommit ment
Ġprecise ly
Ġingred ients
Ġlibr ary
Ġpoore st
Ġignor ance
ĠWolf ram
Ġfro zen
Ġaftern oon
1 00
A m
B ill
B áº£n
C ar
O ther
S te
b al
c al
j a
m et
n ik
r ich
y ard
Ġ Ã¡i
Ġt uá»·
Ġt ube
Ġl am
Ġp our
Ġch áº±m
an es
ar an
Ġy ield
Ġvá» ©t
Ġta ck
Ġchá» Ľp
ĠC Ã¢u
ĠT re
ĠT ed
Ġkhi Ãªm
ĠB ible
Ġmá» ³
if t
ind a
ĠP art
Ġma il
ĠL ee
Ġpl enty
Ġle ap
Ġlu i
Ġnow here
Ġcl us
ĠV ietnam
ell o
Ġeven ing
Ġcr ash
Ġfl ood
ĠSt ewart
ĠQ uá»¹
Ġinv ite
Ġev alu
Ġchu Ã´ng
Ġpol ar
Ġinter f
ĠkÃ¬ a
Ġrobot ic
Ġinf in
Ġpop ulations
Ġdist urb
Ġdist rict
Ġcur ve
Ġdep th
Ġair port
Ġche aper
ane ously
Ġspeak er
Ġz oom
ĠCar l
Ġ201 2
Ġpract ices
Ġstat ement
yr ight
Ġcomb ined
Ġvol ume
Ġtouch ed
ĠChar lie
Ġachie ved
Ġarm y
ett i
Ġfix ed
Ġcapt ured
Ġtrib es
Ġdram atically
Ġjournal ist
Ġseed s
Ġappreci ate
Ġspl it
Ġlic ense
ĠBrook lyn
Ġinequ ality
ĠScot land
Ġembedd ed
Ġchrom os
R em
T hÃ¡
f ortunately
z ler
Ġ 000
Ġn áº¿p
Ġa im
Ġl Æ°á»¡i
Ġb á»ĳc
Ġd ang
Ġtr illion
os aur
ing er
an o
Ġng áº©n
ch o
it ers
in ated
in ction
Ġwh ale
ĠÄĳÃ³ m
Ġx Ãł
Ġdo zen
ere nces
ĠT iáº¿ng
Ġu g
ĠM ed
Ġat e
ĠS ome
ag on
ĠH is
ĠL ike
Ġwant ing
ĠR and
Ġlu á»ĵng
Ġwork er
Ġen emy
Ġneed le
ĠW il
ĠO p
Ġdis order
Ġher self
Ġsm oke
Ġcol um
ren ce
ri ption
ope nh
Ġext ent
Ġatt rib
hip s
Ġelect ions
Ġroom s
Ġtest ed
Ġsure ly
Ġpar as
Ġnhiá»ħ u
Ġsuccess fully
Ġinn oc
Ġincre ases
Ġabs or
Ġaccess ible
Ġphotograph y
Ġ198 4
Ġang le
amm ad
ĠCl int
ĠArab ic
ĠMo ore
Ġhung ry
Ġoptim istic
Ġoccur red
ĠPark inson
ĠSu per
Ġdestroy ed
ĠHaw ai
ĠPalest ine
ĠPe ace
ĠAnt ar
ĠJes us
osa urs
ĠvÃµ ng
ĠVirgin ia
Ġfoss il
Ġdop amine
2 5
8 0
C omp
L áº¥y
b its
c ence
m ble
n ie
p et
r iend
u le
á» £p
Ġt weet
Ġth áº¯t
Ġb á»ĵi
Ġv en
Ġk iÃªng
Ġg áº¡ch
Ġd á»ĭp
Ġch ap
Ġch amp
on na
Ġto ler
Ġng Æ°ng
ot ion
Ġr on
Ġcá» ĵ
ic ian
Ġqu arter
Th iáº¿t
Th Ãłnh
am as
Ġra ising
Ġst ations
ĠC or
ĠT y
Ġho Ãłnh
Ġab andon
ĠB i
ĠB re
ĠB osn
ĠN elson
ĠH ave
Ġint ention
ive red
ĠL ife
ĠD id
ĠR o
ĠR ome
Ġbr anch
Ġag es
iá»ħ u
ĠJ ord
Ġbu ll
ĠÄĳo áº¡t
Ġfl ies
ĠSt ar
Ġrem ains
Ġrem oved
Ġrec o
Ġcons ervation
Ġimag ing
Ġimag ined
Ġext inct
Ġold est
ĠAr thur
Ġeng aging
up s
Ġstand ards
Ġchar ity
Ġref erence
Ġass ist
Ġadv oc
Ġhouse hold
Ġmeet ings
Ġexpect ations
Ġprotect ed
Ġant icip
Ġocc asion
Ġvill ages
Ġer adic
ĠCol umb
Ġappear s
Any way
ĠChi ld
rel ated
Ġaspect s
Ġsurge on
ĠTes zler
ĠTasman ian
ĠDis ney
M ark
T S
T Æ°á»Łng
h op
n ic
r id
t es
Ġ áº¥u
Ġt uá»µ
Ġn a
ĠÄĳ Ãºc
ĠÄĳ uá»ĳi
Ġs á»į
Ġm arch
Ġi con
Ġo x
Ġg áºŃy
Ġd er
Ġtr ies
ou nce
en ess
is y
Ġwe igh
et ers
se c
ĠT ah
Ġab und
ĠM ur
ĠB h
ĠB ell
ĠN et
Ġj ihad
ĠH om
ab eth
Ġsp inal
Ġkho Äĥn
ĠL ang
Æ°á»Ł i
iz abeth
ĠR oy
ĠTh á»Ŀi
ro ke
Ġbl ow
Ġpro of
Ġsc ore
Ġdec line
ĠTED Global
Ġev olve
Ġinst ant
ĠAnd rew
Ġngá» Ľ
air s
Ġexpl oration
ĠÄĳÃ´ la
ĠAr gent
Ġprot o
Ġbre aking
Ġprof it
Ġdirect or
Ġfeed ing
Ġconsum e
Ġsil ent
Ġdescrib es
ĠChrist ian
Ġbank s
oun ced
Ġpros per
Ġcelebr ate
Ġinstr uments
ĠAlex ander
Ġunlike ly
ĠiP od
ĠnhÃ³ c
Ġbicy cle
ĠTanz ania
openh agen
C A
F inally
G irl
H er
S p
S ah
b a
c ue
g u
l ims
r ol
r ist
w hile
ĠÄĳ áºŃm
Ġa h
Ġb oss
Ġb á»ĥ
Ġh áºŃn
Ġh ÃŃt
Ġk iss
Ġp ace
at om
Ġch os
Ġr ising
Ġf ifth
ĠI nt
Ġre ly
Ġan ts
Ġho Ã£n
ĠA v
ĠB el
ĠS inh
Ġmá» ¡
un ning
ĠK enn
Ġ4 8
ĠU y
tern ational
Ġbo om
Ġgen ius
Ġ20 30
ian a
Ch ris
Ġsc ary
ak ota
Ġdec re
Ġapp eared
Ġsl ides
amp s
Ġrá» ī
Ġlove ly
Ġbi om
ird s
ĠWh ite
Ġdist ract
Ġmor ality
Ġclass ical
Ġprov ided
Ġspeak ers
Ġmiss ed
Ġdel ivered
Ġpresent ed
cl ass
ĠLe ban
Ngh á»ĩ
Ġbreat hing
Ġdiv ided
Ġconc ert
Ġconc lud
Ġeffort s
Ġcry ing
Ġsaving s
Ġdemonstr ate
Ġpainting s
xi ety
ĠCent ral
ĠNhÃ ¢n
ĠTá»ķ ng
inist r
ĠOlymp ic
Ġteles cope
Ġhem is
Ġsuic ide
Ġagend a
Ġchos en
P aul
c alled
e ast
l ies
p arent
w r
Ń ng
Ġt iá»ĩm
ng ue
Ġc oc
Ġs ed
Ġb ones
Ġv áº£
er om
Ġnh á»§
Ġch est
qu ar
Ġng á»Ļt
al ian
in y
Ġph erom
ĠnÃł n
áº½ n
ĠC openhagen
ĠM oon
ul se
ĠS er
Ġmy ster
Ġor bit
Ġint ent
ĠL ine
Ġpl aced
Ġcomp rom
ĠÄĲ áº£ng
Ġ3 50
ra wn
ĠJ ones
ber ry
ak s
Ġfl our
Ġfind s
Ġdr one
Ġapp eal
Ng oÃłi
Ġrel i
Ġinst antly
ĠNew s
Ġacc um
Ġexpl oring
Ġca ke
Ġconnect ing
ĠghÃ ª
Äĳ Ã¢y
Ġperform ing
Ġintr ig
Ġmeasure d
ĠBe ij
Ġpriv acy
Ġhá»ķ ng
Ġfem ales
Ngh e
Ġamong st
Ġparticip ants
Ġcart oons
Ġflu id
Ġrain forest
Ġign ore
Ġdeb t
Ġthr own
Ġbelief s
Ġinj ury
Ġalgorith m
Ġfing er
Ġut ter
uh ammad
ĠJer usal
Ġneuros cience
Ġproper ly
Ġagre ed
Un fortunately
Ġscen ar
Ġorch est
ĠEth i
Ġdiox ide
ĠClint on
Ġreco very
ĠJerusal em
C C
M S
O k
T Ã¬nh
U s
f ast
l ings
t ail
Ġt att
Ġc anh
Ġc ens
ĠÄĳ iá»ģn
Ġl ens
Ġb Äĥn
Ġb áº§y
Ġv á»Ļi
Ġg om
Ġg Ã£y
Ġf ile
Ġf ool
om an
Ġyou th
us ing
Ġqu á»·
Ġbe er
Ġgi áºŃt
uy áº¿n
Ġngh áº½n
im al
Ġan xiety
ĠT am
ĠT ake
th rough
ad ing
od ed
Ġne ither
ĠS ierra
Ġex ternal
ĠH ung
ĠH el
if orm
Ġchuy á»ģn
ĠP op
Ġsp r
all ow
ĠD á»±
iz oph
ĠJ ill
Ġun its
Ġgr anted
ĠV iá»ĩt
Ġco ach
Ġres on
Ġres cue
av a
Ġdr ones
ĠIn ternational
ri x
Ġimag ery
Ġgrow s
co hol
Ġgener ated
Ġrob ust
Ġmusic ians
Ġcur iosity
Ph á»¥
Ġfail ing
Ġz one
Ġsens ory
Ġpresent ation
enn is
Ġple as
yl via
Ġess ence
On ly
Ġinsp iring
Ġconsum ers
Ġcomb at
ades h
Ġdepend ing
Ġrepresent ed
Ġang er
Ġfunction al
Ġinstit ution
Ġpu pp
Ġsurprising ly
ĠMo z
Ġhack ers
imin als
Ġhall uc
ĠnhÃ¡ nh
Ġcooper ation
Ġnor thern
Ġbound aries
Ġtal ent
ĠPalest in
Ġcorpor ate
Ġsculpt ure
Ġtit le
Ġpil ot
Ġmicros cope
Ġuncle ar
EC D
Ġexplan ation
ĠJosh ua
Ġmarath on
A dam
B áº¯t
B á»ĩnh
F G
J H
L u
p ower
Ġ Æ°Æ¡ng
Ġt ent
Ġc ord
Ġc ats
Ġm er
Ġm ile
Ġb áº©m
Ġh at
Ġv áº¥t
Ġv ital
Ġp ione
Ġg el
er d
er able
Ġtr o
Ġng á»¥
le ton
Ġgi en
am ed
op a
ĠC amp
Ġho an
em ents
Ġsh ocking
ĠM et
ul um
ĠB ern
ain t
est ed
Ġsp ell
Ġsp ark
ĠG en
our nal
ai re
ĠgiÃ¡ p
ach e
Ġco ord
Ġshe et
Ġcomm itted
Ġsc ript
Ġdr ill
Ġapp le
Ġlet ting
Ġinv olves
Ġsch izoph
á»ī nh
Ġmin or
Ġmin ister
Ġca fe
ĠAl pha
Ġrest ore
Ġcha os
ĠJohn ny
Ġ13 0
Qu Ã½
Ġrecogn ition
Ġpolic ies
Ġcop yright
Ġdin osaurs
Ġrock et
Ġstick s
Ġreturn ed
Ġafford able
Ġstrugg ling
fl ies
Ġneighborhood s
Ġmotiv ation
Ġshop ping
Ġax is
Ġparad igm
ĠBab ylon
Ġflo ating
Ġadop t
Ġfle w
Ġvessel s
Ġdolph ins
Ġeleph ant
Ġhyd ro
ĠZimb ab
Sah aran
R A
a it
c red
c apes
e ff
n es
r ome
v a
¹ ng
Ã Ĥ
Æ ¯
Ġt ill
Ġt asks
Ġth iÃªng
ĠÄĳ á»ĳm
Ġs Ãºp
Ġs ales
Ġl á»į
Ġm áº§m
Ġb á»ĵ
Ġb áº»
Ġd áº¡i
Ġd ign
Ġd á»ĩt
Ġtr Ãºng
Ġch Ãły
Ġto y
ot on
Ġf irm
al ed
is a
it ory
ĠI r
Ġta m
Ġbe ars
ut ing
Ġha mb
ur ation
Ġst able
Ġst ages
Ġst roke
ĠC om
ĠC ome
ĠT ay
ĠB áº±ng
ĠB ert
ĠS i
ĠS al
ĠH ir
Ġor ange
Ġde lic
ab ul
Ġact or
Ġsee k
ĠR oss
Ġfe atures
ĠF ar
ĠF irst
ĠJ ane
ĠJ une
ĠCh áº³ng
pt ions
ĠO f
Ġcont ains
Ġunder ground
ick s
ub a
Ġcr ops
Ġfl ip
con f
Ġcour t
Ġperson ality
Ġcar ried
Ġtra um
co ver
Ġfood s
Ġresearch er
ott on
Ġdep ressed
Ġcor resp
ĠghÃ ©
Ġexpect ancy
Every one
sh ah
Ġfall s
Ġprotect ing
yr am
ĠLe one
Ġrecogn ized
Ġsleep ing
Ġrich er
Ġball oon
col n
Ġreport ed
Ġsyn thes
Ġcharacter istics
Ġsepar ated
Ġprep are
Ġautom atically
ĠBro ad
Ġbase ball
Be fore
fr ont
Ġcru cial
Ġlock ed
Ġlect ure
Ġridic ulous
Ġadj ust
Ġapparent ly
Ġuncom fort
Ġanth rop
Ab out
PT CH
Ġalb um
Ġug ly
ĠZimbab we
N Æ¡i
T Ã¡c
T á»ķ
b ing
b ered
g ers
l en
l ow
p est
Ġ Ãło
á» Ńa
Ġt Ã¹ng
Ġt ied
Ġt ears
Ġc raft
Ġn om
Ġn ets
Ġs le
Ġs Æ°á»Ľng
Ġl á»Ļt
Ġh Ã´ng
Ġh oney
Ġv áº·t
Ġw ip
Ġk á»ģ
Ġd ies
Ġd ensity
Ġnh á»ĭ
Ġtr ash
Ġr áº¡p
Ġf athers
Ġin k
ch er
Ġph iÃªu
ĠnÃ³ n
Ġx Ã¡ch
Ġx á»©
se x
ke ley
ĠT Æ°
ĠT ime
ad o
ad ays
ĠM other
ĠM uhammad
ĠA ug
ĠB ud
ĠS ky
Ġus ual
ac ies
ĠH á»£p
ok ed
if ice
Ġal cohol
ĠD u
Ġpl ain
Ġyour s
iz a
ĠR on
ach el
Ġen zy
ĠW ill
Ġun bel
ro id
Ġdi verse
Ġover come
ĠO ECD
Ġdis rupt
Ġpre c
ĠSt ud
Ġcol ony
Ġphá»ĳ t
Ġafter wards
az a
Ġ9 6
Ġrec omm
Ġmon key
Ġmus cles
gg ed
Ġorgan ize
alle l
ĠNÃ³ i
Ġmusic ian
Ġdist ant
Ġgu ide
Ġdef ense
Ġpar aly
Ġpar allel
Ġxo áº¯n
Ġche ese
Ġcontin ues
Ġhold s
Ġinteract ing
ĠThank s
Ġimpro ved
mb ly
Ġdirect ions
Ġimpact s
Ġarchitect s
Ġfoot ball
ĠGe ographic
Ġproduc es
Ġtext book
Gi Ã¡o
Ġstrateg ies
Ġlink ed
ĠDan iel
Ġcry st
ĠMus lims
Ġagricult ural
Ġtrend s
Ġdomin ant
Ġwire less
ĠÄĳá»¥ ng
Ġtransp arency
eng ine
Ġens ure
ĠVen ice
abet es
Ġbare ly
ĠSant a
ĠPac ific
ĠDep artment
Ġperman ent
ĠvÃ² m
ĠBosn ia
shah idi
Ġuncomfort able
1 5
4 0
C áº§n
E d
M ich
O b
T á»ĳt
e z
l or
w est
Ġc as
Ġv Æ°Æ¡ng
Ġg ee
Ġg onna
Ġd ump
ap ing
ot ter
Ġr á»Ļn
Ġr Ã¬a
Ġf ishing
or al
ar p
Ġwh is
us i
Ġbe nd
ur ger
ig an
st ate
ĠT un
Ġu á»ĳn
ad el
Ġab use
em a
Ġas ide
Ġne ural
ÄĲ áº¥y
ĠS und
ĠS quare
ĠH ong
ess or
um in
ĠL Ã½
ast ics
iz z
Ġbr own
Ġag ency
Ġ3 8
Ġen able
ĠJ ud
ĠJ oseph
ĠW omen
ĠCh urch
cent ury
Ġcreat ure
Ġhel ic
Ġsec ure
ph ia
Ġent ered
Ġ8 6
arch y
Ġlight ing
Ġdem o
ĠAr ctic
Ġvis ited
Ġsupp ose
Ġsub tle
Ġcap ita
Ġcur ric
Ġequ ality
Ġcontrol s
Ġfil ter
Ġprov ides
Ġexplain ing
Ġdel ight
Ġes cape
Ġ14 0
Ġpsych ological
ChÃ º
Ġsil icon
Ġpredict ions
Ngh Ä©a
ĠCol omb
Ġsearch ing
Ġimprove ment
Ġemerg ency
Ġprint ed
Ġadm inistr
ĠBang l
Ġdisapp oint
Ġcalcul ate
Ġtá»ĭ ch
Ġmix ed
Ġelectron ic
Ġnut ri
ĠBer keley
ĠGreen land
Ġlaugh ing
Ġcontroll ing
Ġdyn am
Ġhom eless
ĠNhÃ ¬n
Ġrepe at
Ġlawy ers
Ġattach ed
agh etti
ĠNeander thal
opard y
Ġstere oty
Ġvit amin
ĠLeon ardo
Ġproto cell
7 0
G ia
L oÃłi
P l
d ing
e ch
l ock
m aker
t t
v y
v áºŃy
Ġt Ã´m
Ġt ired
Ġc ig
Ġth áº¯n
Ġa es
Ġs in
Ġm ice
Ġm á»ĳc
Ġb iáº¿m
Ġv eter
Ġd ow
Ġd áºŃp
Ġnh áº¥p
or ous
in burgh
ĠkhÃ ¹ng
om a
ĠcÃ¡ p
le ar
ĠI g
Ġe ast
Ġkh an
Ġkh en
Th Æ°á»Ŀng
Ġst one
Ġst yle
se ll
ĠC ur
Ġcáº£ ng
ĠM ir
ĠnhÃ £
ĠB oy
ĠS ud
ac ular
ĠH i
ĠH ad
ain e
ok yo
Ġout put
og er
un ction
Ġsp aghetti
ĠG il
Ġup load
ĠL ab
ĠD ub
Ġpl ot
Ġsu ck
pp ing
ĠCh Ãł
ĠCh uyá»ĩn
Ġdi am
ĠO ct
á»§ a
Ġ4 2
Ġ19 3
ire ct
ĠSt arb
ĠQ ue
Ġrec over
Ġser ved
Ġmin ing
Ġop ens
Ġexpl o
Ġglob ally
Ġstop s
Ġpain ted
Ġproduct ivity
Ġtreat ing
Ġview s
Ġident ified
Ġsens or
Ġtem pt
ann a
Ġorig in
Ġleg is
Ġpur ch
li ament
Ġbur st
Ngh iÃªn
Ġest imate
put er
Ġvirt ually
Ġassum ptions
Ġcolleag ue
Ġsou p
Ġdemonstr ation
Ġtrick s
Ġelectron ics
Ġchair s
Somet hing
ani el
Ġrepe ated
ĠLin coln
Ġthá»ĳ t
aze era
ĠSom alia
Ġren ew
Ge orge
Ġuncertain ty
Ġelder ly
ĠGener al
Ġencoun ter
ĠColumb ia
ĠArgent ina
ĠEthi opia
Ġunbel iev
1 3
B Æ°á»Ľc
Q ua
k hi
p ro
p ass
u á»ĵn
u its
y m
Ġb á»±c
Ġb Ãºa
Ġh ol
Ġk á»ĩ
Ġk áº½
Ġk em
Ġg ai
Ġd ive
Ġtr aged
Ġtr ucks
os al
Ġf ung
it ous
ll i
Ġcá»§ ng
ct ica
am ie
ur se
Ġst ores
se ction
ol i
ĠC ap
ĠC á»©
Ġlo ves
Ġpr ime
ĠM ount
ÄĲ Æ¡n
ĠB Ãłi
ĠS us
Ġme al
Ġex cell
ĠchÃŃ p
og ether
ĠnhÃł m
Ġkho ai
ĠL uther
ĠD oug
ib eria
are s
Ġem ph
Ġsá»Ń ng
ĠJ ay
Ġcl osing
Ġimp er
Ġdi agram
Ġdi abetes
Ġdis m
Ġ19 2
ne gie
Ġpers u
Ġtho Ã¡ng
Ġdr ivers
Ġla id
Ġgl ac
ph ones
Ġent h
Ġ7 2
Ġacc idents
Ġhigh light
ĠChÃ ¡
Ġfar mer
ĠPh áºŃt
Ġred uced
Ġass ets
Äĳ á»ĥ
Ġimpro v
Ġá»§ i
ĠCar negie
Ġlim b
Ġstay ing
Ġstrong ly
Ġrecord ing
ĠchÃ³ c
Ġfoot age
Ġsuggest ing
Ġdark ness
Ġdeg r
Ġtransl ation
Ġther m
Ġcollabor ative
Ġfa vel
Ġdisapp eared
ĠPl ay
Ġpros thetic
Ġnut rition
Ġvict im
ThÃ ªm
ĠPhil adel
Ġdrink ing
Ġliber al
ĠMin ister
Ġrare ly
Ġmanufact ure
Ġquant um
ĠEve rest
Ġveget ables
ĠiP ad
ĠTuy á»ĩt
ĠKore a
Ġtox ic
Ġinev itable
Ġresil ience
Ġinstruct ions
ĠÄĳá»ĩ m
Ġphosph orus
ĠHawai i
ĠKenn edy
Ġhemis phere
Ġschizoph ren
Ġhelic op
ĠStarb ucks
ĠPhiladel phia
A K
C hi
D á»±
N ext
N obody
a ves
h m
j amin
k ward
l as
n i
p art
u ity
w ind
á» £i
Ġt Äĥm
ĠÄĳ inh
Ġs its
Ġs Æ°á»Ŀn
Ġs ession
Ġl ions
Ġm Ã©p
Ġb orrow
Ġh Ã¡i
Ġh itting
Ġo oh
Ġk áº¹p
Ġp icking
Ġd á»ĵn
Ġd rove
Ġtr Ã¹m
Ġch Æ°á»Ľng
os ure
an ish
Ġr ay
Ġf usion
Ġf ulf
is ons
ar re
it ud
Ġph e
Ġph Æ¡i
Ġx á»Ļn
ur a
Ġcho Ã¡ng
Ġdo ors
ol ic
ĠT okyo
Ġpr ices
Ġsh aped
Ġne at
Ġat om
ĠB as
ĠN ike
Ġme lt
Ġmá» Ľ
Ġpe er
ĠH am
Ġout er
ĠG ive
ĠL o
ĠL ewis
ĠK u
Ġcomp elling
Ġle ather
Ġexp osed
Ġ3 000
ĠJ azeera
ĠTh Ãłnh
Ġcl ar
Ġun pre
Ġpart ies
Ġvá»ĭ t
ru ary
ath em
Ġpre f
Ġsc ores
Ġro ots
ĠSt ephen
Ġshould er
Ġend ing
Ng uyÃªn
Ġob l
Ġhu Ã½t
Ġrá» ¡
Ġmon itor
Tr áº»
oll o
Ġhy per
Ġbeg un
Giá» įng
Ġred ef
Ġred uction
ĠSh ir
Ġmag ical
Ġaw kward
Ġadv enture
Ġconst rain
ĠthÆ¡ m
Ġele g
Ġsent ences
Ġciv ic
ĠSp ut
Ġaffect s
ĠMc C
Ġlif es
Ġdetail ed
ĠCol le
Ġactiv ist
Ġlink s
Ġpush ed
Ġinflu enced
Ġscan ner
Don ald
ĠJul ia
Ġinch es
Ġinsight s
Ġphysic ist
eb ruary
Ġcateg ory
ĠRes earch
Ġhorm ones
ĠAtlant a
ĠSim on
Ġinit ial
Ġsen ior
ĠCop ern
Ġdedic ated
Ġfert il
Ġpasseng er
parent s
ĠAug ust
ĠTun is
B en
I A
M Ã¡y
N Æ°á»Ľc
b ie
b by
f ly
k g
k in
l o
t wo
v iet
Ġt áº¡ng
Ġth iá»ģn
ĠÄĳ om
Ġs ulf
Ġh ill
Ġh ier
Ġw ing
Ġw ound
Ġw ider
Ġp ink
Ġp yram
Ġg áº¡t
at ural
Ġd ust
Ġd ough
Ġd irty
Ġd rawn
Ġtr iá»ģu
Ġtr Ã¨o
Ġch ief
Ġng á»¥c
as a
Ġe nh
ut s
ut en
Th rough
op atch
Ġan es
ĠT wo
Ġse xy
ĠM ag
ĠA ch
ĠB á»ĳ
ĠS arah
ĠN L
ĠN Ãªn
ĠN ick
ag g
Ġkn ock
ĠP enn
Ġtá»ĳ ng
ĠK Ã¬
ĠK evin
ĠÄĲ á»ı
ment al
Ġsau ce
Ġlu x
ĠF ried
Ġbu g
ĠO s
Ġprob ability
Ġunder lying
uc es
pl ed
Ġpers ist
ren cy
ĠmÃ´ t
Ġrel ax
Ġrec ru
Ġrá» Ĺi
Ġbi od
Ġmus cle
Ġhealth ier
Ġsk ull
Ġopen ness
ĠPh áº§n
Ġgovern ance
Ġelse where
att ered
ĠâĢ ¦
Ġfund ed
Ġimpro ving
Ġ199 8
la im
Ġfac ility
Ġkey board
Ġleg it
Ġphotograph ed
vent ions
Ġspread s
Ġsuggest ed
Ġtele phone
ĠSc r
Ġdepend ent
Ġimm un
Ġcross ing
Ġce iling
ĠEd inburgh
Ġdá»ĭ u
Ġdeterm ined
Ġphilos opher
ĠJe opardy
ĠTur k
Ġodd s
Ġhorm one
Ġpow ers
Ind eed
Ġdial ogue
ĠNan opatch
Ġprofession als
Ġprivile ge
child ren
Ġreven ue
Ġgar age
ĠbÆ°á»Ľ m
Ġanonym ous
Ġwel come
Ġub iqu
ĠTem pest
ĠAntar ctica
ĠLeban on
Ġdign ity
Ġcurric ulum
ĠColomb ia
ĠSput nik
9 9
H C
O X
f all
i ac
r r
s es
w en
Ġ Ã¢u
Ġt Ãºng
Ġs illy
Ġl it
Ġm Æ°u
Ġh Ãłn
Ġv ent
Ġch ances
Ġng Æ°
ap agos
Ġr Ã¢u
Ġr ats
Ġr Ã¨n
it ic
it us
as p
ĠI re
Ġph iáº¿n
ow ers
Ġkh áº©n
Ġbe ll
Ġgi eo
Ġre cept
Ġre ef
Ġra il
ere n
Ġcon ven
Ġcon vert
ol as
Ġsa v
Ġpr ize
á»ĭ t
em ploy
ĠM om
ĠnhÃ º
ĠnhÃ ©t
ul u
ĠN air
ist en
Nh á»Ŀ
el f
ob ile
un ter
ĠL es
ĠD esign
ĠK am
ment ed
ĠR ad
Ġbr ut
áº¹ o
ĠF ort
ĠF OX
Ġcl ients
Ġgr at
Ġtrá»į n
ĠV iá»ĩc
Ġback wards
ĠU shahidi
Ġsc ream
ons cious
Ġdr um
ĠQ atar
ious ly
ĠIt aly
Ġtrans cend
Tr á»Ł
Ġhard ly
ĠAr my
Ġsk etch
ĠSo viet
Ġconf ident
Ġpass ing
Ġadd ing
Ġprot est
aw s
Ġlab s
Ġfocus ing
Ġmic roph
Ġnon viol
Äĳ iá»ģu
ĠJohn son
Ġviol in
Ġsupport ed
cl ock
Ġbreak through
Ġsuper mark
Ġong oing
Ġsmart phone
Ġlay ers
Ġarr ive
Ġbur den
ĠKh an
Ġtransl ated
Ġcitiz en
Ġgraph ic
Ġwhe at
Ġoptim ism
Ġexpress ions
Ġinh erent
Ġir re
Ġsimpl icity
ĠRuss ian
Ġaddition al
Ġparad ox
cop es
Ġgather ing
Ġperce ive
ĠGal apagos
min ute
Ġlawy er
Ġmosquit o
Ġmicrob es
Ġcolon ies
Ġancest ors
Ġrebu ild
Ġsacr ifice
Ġhypothes is
PTCH A
ĠSund ay
B an
E s
M an
P lease
W ill
a ult
b ar
b od
l ist
m akers
ª nh
Ġt áº©y
Ġc ath
Ġn urt
Ġn urse
Ġm all
Ġb at
Ġb ars
Ġb Ã³n
Ġh Æ°ng
Ġh Ã¢m
Ġv áº§n
Ġw edd
Ġi on
Ġd Ãª
Ġtr op
Ġtr oub
Ġto ys
it ate
in ter
ĠI M
Ġx en
Ġcho osing
im ent
ce mber
ke nd
ol ars
ĠT á»ĳt
od ing
em an
em ics
ĠM od
ĠM ovember
Ġcom edy
ÄĲ á»©a
ĠN ico
ure au
Ġsp ots
ĠL akota
ĠK ansas
ĠE conom
Ġen ables
ĠF ed
ĠJ u
ĠW ould
Ġun p
ĠCh Ãło
Ġdis orders
Ġtrá» ħ
Ġgen etically
Ġpre cious
Ġsm arter
Ġsm ooth
Ġrem ained
Ġtrans mit
ĠThe o
Ġgl ad
Ġhelp ful
Ġtra its
ween ey
Ġser ving
Ġngá» «
oll ar
Ġear n
Ġorgan ism
Ġansw ered
Ġset tle
Ġ18 0
Ġ18 5
Ġass ess
vious ly
Ġtrain s
Ġview er
Ġchim pan
Ġeat en
Ġpsych opath
Ġstat ist
Ġbreak fast
Ġorig inally
Ġinclud es
Ġspecial ized
Ġwin ning
Ġobs erv
Ġfast est
Ġindust ries
ĠEm ma
Ġsil ver
Ġtext ing
Ġpull ing
Ġrepresent ation
ĠDe cember
Ġult ra
Ġsold ier
ĠMich igan
Ġtar gets
Ġphil anth
Gi áº£
Ġmis erable
Ġsyn thetic
Ġaccept ed
Ġdoc uments
Ġcat ast
Ġconcer n
Ġdeliver y
Ġeth ical
Ġremind ed
Ġattract ive
Ġintegr ated
Ġshoot ing
Ġrestaur ants
Ġcircu its
Ġfrequ ency
Ġcateg ories
Ġsusp ended
ĠÄĳá»¥ c
Ġrefuge es
Ġfu els
Ġforgot ten
Ġitem s
Ġjudg ment
Ġowners hip
ĠBeij ing
Ġhamb urger
ĠBangl adesh
Ġcig aret
itud es
ĠColle ge
A S
R N
T iáº¿ng
l Ãł
m ill
t hÃ
t op
z ens
Ġt ubes
ĠÄĳ Ã²n
Ġa in
Ġs ink
Ġl es
Ġm urd
Ġb anh
Ġb á»Ļc
Ġb iz
Ġh ire
Ġv áº¡n
Ġw id
Ġw oke
Ġp and
Ġp ause
Ġg re
Ġg ang
Ġg ear
Ġd áº¹p
Ġnh i
Ġch ips
áº¥ ng
Ġf ires
Ġf ought
Ãª ng
á»ĳ p
Ġvá» įt
ĠcÃ³ c
as y
Ã¢ t
le ts
Ġph á»ĵng
ut ical
Ġx ay
am ing
Ġdo zens
ĠC oke
á»¥ i
á»ĭ a
ĠA sh
ÄĲ o
ÄĲ Æ°á»Ŀng
ĠB y
ĠS iberia
ĠN ep
ĠN Ãło
Ġfr uit
ĠH ol
ĠH all
um es
est ion
Ġbut t
ery l
ĠP lease
Ġma xim
Ġup d
Ġpl astics
Wh ether
iv a
ace utical
Ġem erge
Ġexp ed
ĠF ebruary
ep ing
ĠO ur
ĠO ak
ell er
Ġmo od
Ġtrá» «ng
ĠU N
Ġoff ices
ĠY out
Ch Æ°a
ric s
Ġinv olve
Ġins ist
Ġbas k
ĠAnd erson
Ġ9 8
Ġfound ed
Ġ7 4
Ġcons ult
Ġext ension
Ġatt itude
air o
Ġed ges
Ġchi Ãªm
ĠAr izon
Ġeng ines
gg ing
Ġconf used
Ġpub l
ĠAl ice
Ġwar ning
Ġphot ographer
ĠHo Ãłng
Ġred ucing
Ġwee kend
Ġopp osed
aw are
Ġglobal ization
Ġprop osed
Ġkill er
Ġexperim ental
Ġprogram ming
Ġnon profit
Ġobject ive
Ġdifficult y
Ġoper ations
Ġ16 0
Ġ199 5
Ġcal ories
Ġfac ilities
ĠAn as
ĠSp ace
ĠSp anish
ĠIsrael i
ĠBe ach
Ġhar ness
Ġunivers ities
Ġjo int
Ġprom ote
Ġpeace ful
Ġsuff ered
Ġbed room
ask a
uct ive
Ġprim arily
Ġimmedi ate
Ġdom estic
Ġinfect ion
Ġclin ic
Ġsus pect
Ġtiss ues
ĠSe attle
Ġdiagn osis
ĠBer lin
Ġanaly ze
fr iend
Ġfort une
Ġrout ine
Ġble nd
Ġhabit at
Ġking dom
Ġtransp arent
Ġrefuge e
Ġfrustr ated
oster one
Ġsubst ance
Ġfed eral
Ġmak ers
Char les
Ġmere ly
Ġproced ure
keep ers
Rem ember
Ġcá»ĵ n
ĠSud an
Ġbiz arre
ĠArizon a
B Ã¡c
F our
G r
G ood
I nt
M G
N umber
O PA
f ree
i ences
l an
l ar
r ary
r ogen
s au
t ical
y d
´ i
Ġ Æ°á»Ľt
Ġc ute
Ġn odes
Ġn aked
ĠÄĳ Ã¨
Ġs isters
Ġl Ã´
Ġl Ãª
Ġl amp
Ġm ate
Ġb ond
Ġb á»ĵn
Ġh al
Ġv áº¯ng
Ġv áº©n
Ġw ired
re al
Ġd Æ¡i
Ġnh a
Ġch ay
on ic
Ġng á»Ńi
Ġr á»ĳt
Ġf et
it age
Ġvá» Ľ
Ġqu it
Ġta xi
et on
Ġre think
Ġngh iÃªng
ke ys
ĠC N
ĠC ath
ĠT ib
ad emy
Ġsh ine
ĠM Ãł
ĠM os
ĠM ama
Ġwhat so
ĠB o
ĠS MS
ĠS weeney
ust ed
Ġmy cel
ĠphÃ¡ o
Ġour s
Ġte ch
Ġact ors
ĠK elly
Ġcomp os
Ġag ent
Ġman ager
Ġman agers
ĠF ree
Ġun employ
Ġbu á»ĵng
Ġdis ag
Ġpo ison
Ġ5 8
ĠTr Ãªn
Ġsm iling
Ġinc or
Ġinc ident
Ġfact ories
urn s
he art
Ġpoint ing
Ġcomple ted
Ġcre w
Ġmon it
Ġngá» £i
Ġgener ous
Ġreg ime
ĠX Ã´
Ġhead lines
Ġpres erve
ott ed
aw att
Ġprop ortion
Ġtest osterone
Ġret ina
Ġfund s
ĠÃ´ tÃ´
Ġinvest ors
Ġland ed
Ġgrand parents
enn ifer
ced ented
aught ers
ĠPr inc
Ġleg acy
Ġdraw ings
Ġinsp ire
umb ai
Ġarr ay
Ġarr ang
á»Ľ c
Ġhang ing
Ġmob ility
Ġshif ting
ĠIsl ands
Ġsou thern
Ġmagn etic
Ġprep aring
Ġspect acular
Ġweap on
Ġpig e
Ġpengu in
ĠNor way
Ġtun nel
Ġpurs uit
ĠPhÃ ²ng
ĠAtlant ic
Ġisol ated
Americ an
Ġaccompl ish
Ġremem bered
Ġpharm aceutical
Ġretire ment
Vo ice
Ġinnoc ent
Ġprosper ity
Ġconclud e
Ġparaly zed
Ġemph as
Ġunpre cedented
ĠNep al
ĠYout ube
Ġwhatso ever
ĠPrinc eton
A O
L ad
N á»ģn
R ichard
c in
f our
g i
w l
w alk
Ġ áº¥p
Ġt ear
Ġth áº¡o
Ġth rew
Ġth Ã¨m
Ġn Ã¢u
Ġn ative
Ġn uá»ĳt
Ġn erve
Ġl one
Ġb ind
Ġb Ã¡t
Ġb Æ°u
Ġb áº«y
Ġw att
Ġw aters
re h
Ġk Ã¬m
nd rome
Ġd Æ°a
Ġd ressed
on ia
Ġto ngue
Ġng Ã¢y
Ġph thal
Ġta g
ut y
et ho
Æ°á»£ m
Ġx áº£o
ent er
Ġon stage
id ers
ĠC our
Ġhe aling
ĠA g
ĠnhÃ ´
ĠnhÃ Ń
Ġme als
Ġde ce
ist or
ob er
Ġup set
ĠD ad
ĠD ie
ine a
ib ati
oc al
ĠE S
ĠR em
Ġexp ans
Ġcl ay
Ġar med
ĠO oh
ick ed
Ġbl ame
ĠTr Æ°á»Ľc
Ġ19 0
Ġcomm od
Ġbá»ı ng
ĠSt one
ĠSt age
Ġrem aining
Ġ... .
Ġsec rets
Ng Æ°á»£c
Ġwr iters
Ġart icles
Ġinter rupt
Ġinter vention
Ġmin i
Ġbi ote
Ġeconom ist
Ġban jo
Ġval id
Ġeduc ated
ash ed
Ġair craft
Ġfig uring
Ġfree ly
Ġrad i
rem e
Ġaud io
ĠÃĤ m
Ġdel ay
Ġdesc ription
asc ular
ĠAn n
Ġsum m
Ġobs erve
Ġobs ervation
Ġrespons es
Ġlea f
Ġprin ter
Ġaccount s
With in
Ġminds et
Ġann oy
Ġcapital ism
Ġstraight forward
Ġpan els
Ġwealth y
Ġbub bles
ĠSau di
Ġwide ly
ĠLu áºŃt
Ġvot ing
Ġmamm als
Ġrout e
Ġfab ulous
Ġphysic ian
Ġillustr ate
Ġprevious ly
Ġintu ition
Ġenter pr
arb age
Ġbrief ly
Ġske pt
ĠAp ollo
Ġmat rix
ĠMat th
ĠCount y
Ġconserv ative
Ġinfin ite
ÃĤ m
Æ¯ á»Ľc
Mich ael
ĠOct ober
ĠChÃ¡ u
Ġubiqu itous
ĠIre land
E instein
M e
d ig
d ollar
g aret
h alf
l aw
m ony
t i
y on
Ġ urg
Ġt áº£o
Ġt ip
Ġc ay
Ġc abin
Ġn áº¡p
Ġn erd
ĠÄĳ áº¯m
Ġa ward
Ġb áº¿n
Ġb áº©y
Ġh Ã©
Ġh iding
Ġp ile
Ġp unch
Ġp anc
Ġd Ã¢ng
er ved
áº¿ m
Ġch iÃªn
Ġch ron
on ing
Ġr á»±c
Ġf iring
ed ay
Ã¬ u
in ity
in arily
ĠI van
Ġwe t
ic ial
Ġph áº¿
Ġqu áºŃn
Ġta o
Ġbe ating
Ġgi g
Ġx áº¿
id ential
ang le
am med
ig ation
Ġst ability
ce an
ir ling
ĠC ru
ĠC airo
ĠM Ã¡y
ĠM umbai
ÄĲ a
ĠB ali
ĠS áº½
ĠS ol
ĠS ylvia
ĠN ations
ĠN ature
Ġal ien
Ġout r
au d
Ġpl ug
ĠÄĲ Ã´i
ĠR ose
Ġdon or
ra ig
Ġnow adays
ĠF ox
ep her
ĠW i
Ġar row
ĠCh a
Ġdis abled
ĠV á»ĭnh
Ġgot ta
Ġam ate
Ġ5 2
Ġ4 3
ak en
Ġcr op
Ġsch em
Ġ9 3
Ġsl ums
Ġhard ware
Ġel ite
Ġsub s
Ġform ula
Ġelect ed
ĠWh ich
alle t
ĠPh ot
Ġcur rency
lf riend
Ġvir Ãºt
Ġcor rel
Ġexc it
den ly
Ġbott les
Ġdel iber
Ġ199 6
Ġterr ifying
Ġgrand children
Ġarg uing
Ġpersonal ized
Ġperform ed
ĠFr iday
Ġrequ est
Ġhor iz
Ġpredict ed
Ġimm igr
ey er
Ġmechan isms
ĠSte ven
Ġemerg ed
Gi Ã¡
ĠxoÃ¡ y
Ġign ored
Ġclin ics
Ġann ounced
gr ad
Ġmir acle
Ġdesp air
Ġprofound ly
Ġunc onscious
Ġbroad cast
Ġden ial
Ġamb ig
ĠNor thern
Ġcla ims
Ġnewsp apers
Ġecosystem s
Ġexpand ing
ĠJack son
Second ly
Ġshel ter
Ġfrag ile
ĠAc ademy
Ġqual ities
Ġbath room
Ġoverwhel ming
Ġreh abil
ĠchÃ¹ m
Ġvert ical
Ġdatab ase
Ob viously
Ġtraged y
Ġmicroph one
etho ven
9 0
B ack
C ome
E A
M Ãłu
S R
S ud
c king
f old
l og
m art
r Ãºt
t z
Ġ =
Ġ Â
Ġc á»Ļ
Ġth iáº¿p
Ġn ÃŃn
Ġl in
Ġm ur
Ġb att
Ġp ir
Ġd iá»ģu
Ġd ose
Ġd uck
Ġd aughters
Ġnh á»ĵi
Ġnh á»Ļn
Ġtr ail
Ġto oth
Ġng Æ°Æ¡i
Ġr ice
Ġf ib
ch anging
it ating
Ġy og
ĠI d
ic er
Ġkh iáº¿u
Ġha bits
id ges
Ġcon ce
ĠC ont
Ġu á»·
Ġlo ad
ĠM T
ĠM ot
ĠM arch
ĠM edic
il i
Ġcom ments
ÄĲ á»Ļt
ÄĲ á»ĵng
ĠB ot
ĠB á»ĩnh
Ġj unk
ĠH imal
ate ver
and ering
nt il
Ġout s
Ġint im
ĠP re
Ġthu á»³
iz er
iz ers
reat ing
ĠÄĲ áº¡o
ĠE v
Ġbr ave
Ġper cept
Ġlu Ã¢n
ĠTh en
Ġcl ot
Ġun iform
Ġpart ly
ĠV Æ°Æ¡ng
Ġad s
Ġreal izing
ath ered
Ġvi Ãªm
Ġsim ult
per cent
Ġcar ing
Ġbelie ves
ph ony
Ġ9 7
Ġinter connected
Ġrec all
Ġbi ologists
Ġcare g
ont o
Ġhy br
Ġhome work
Ġrobot ics
Ġgu ard
Ġchar ming
Ġspea ks
Ġprof ile
Ġloc ated
Ġpos itions
Ġnhu á»Ļm
Ġtreat ments
by e
Ġtem porary
itch ell
ĠFr om
Ġsupport ing
Ġcommunic ations
yl ac
ĠIran ian
Ġnear by
Ġbene ath
Ġge omet
Ġ197 5
Ġexperi encing
Ġer rors
á»Ľ n
roll ed
ĠPhÃ¡ t
Ġexcept ion
ĠCam eron
ĠGr ace
ĠOr gan
Ġthreat ened
Ġvari ation
Ġdom ain
Ġcirc les
Ġglass es
Ġsal t
Ġsurround ing
ĠEl izabeth
ĠJer sey
Ar t
Ġpuzz les
Ġstim ul
Ġneuros cient
Ġrein vent
Ġcere mony
ĠTEDTalk s
Ġcandid ate
Ġfortun ate
ĠJew ish
Ġautonom ous
Ġnavig ate
Ġcompar ison
Ġflex ible
Ġstoryt elling
Ġdevast ating
ĠLester land
Ġcollaps ed
Ġathlet es
ĠJeff erson
ĠKir ibati
Ġguarant ee
ĠJord an
ĠSky pe
Ġbask et
Lad ies
Ġexcit ement
ĠHimal ay
6 00
C O
N one
S ix
b á»Łi
b orn
c an
i as
l ves
m ade
m ail
o ves
p ress
x ual
á» £
Ġt une
Ġc ert
Ġc yl
Ġth áº¯p
Ġs Ã¹ng
Ġl áºŃu
Ġb ite
Ġb ored
Ġh Ã¢n
Ġh ub
Ġo d
Ġg ate
Ġg á»Ļp
Ġg arbage
Ġd ear
Ġtr inh
Ġtr á»Ļi
Ġch at
Ġch ec
ing o
ĠI P
ic ient
us iness
Ġkh Äĥng
Ġx Ã´
Ġx Ã¡
Ġx áº£
Ġngh iá»ģn
Ġst ored
im ination
Ġwas hing
ĠC Ã¹ng
th ree
Ġse lves
Ġas leep
Ġso i
Ġsh ipping
Ġsh arp
ĠM áº¡ch
ĠM att
ĠM á»Ĺi
ĠA ny
ĠS ou
ĠS ee
ĠN á»¯
Ġj elly
ac re
ess ions
Ġbut ter
ĠG ar
ĠG et
ĠL en
ĠL Ãºc
ĠD es
ĠD utch
Ã© n
ĠK atr
ĠÄĲ a
ĠÄĲ Ã£
Ġbr ush
ĠF our
ĠV Ã´
ĠV Äĥn
Ġback yard
ĠU SA
Ġgen etics
Ġkhu áº¥t
Ch á»ĭ
Ch á»§
Ch ina
Ġcr imes
Ġcr ows
ĠSt r
Ġend ang
ri el
Ġcour ses
Ġ6 4
Ġsci ences
Ġ9 00
Ġart istic
Ġkid ney
Ġdem ands
Ġcap s
ĠAl aska
oh a
Ġpres ents
Ġgu err
Ph Æ°Æ¡ng
Ġprop h
ĠSh ang
Ġmem b
ocr acy
Ġmar ine
Ġrad ically
Ġstruct ural
Ġlisten ed
omet own
Ġinnov ations
Ġdemocr acies
Ġauth ors
ĠBe ethoven
Ġtend s
Ġtend ency
Ġemb od
Ġflow ing
orge ous
Ġactiv ate
Ġgrad ually
Ġthreat s
Ġdam n
Ġprison ers
Ġsignific antly
Ġbá»ķ ng
Ġroll ing
Ġeth nic
Ġremind s
ĠJe an
bu le
ĠGl obal
Ġreve als
Ġconsequ ence
Ġburn ed
Ġbag s
ĠTur key
Ġrat io
Ġperce ived
Ġexhib ition
ĠRom o
Ġpun ish
Ġritual s
Ġobst acles
Ġbes ides
ĠNGO s
Ġtack le
ĠBh utan
ĠHom o
Ġscenar io
Ġrecomm end
Ġschizophren ia
Ġwedd ing
ĠCN N
ĠCath olic
Ġmycel ium
epher d
Sud denly
F ive
H y
J ul
P eter
V áº«n
X L
i Ãªm
k rain
n ut
n ob
r ir
r ob
y al
Ã ģ
Ġ Ã¢n
á» µ
Ġt one
Ġc ai
Ġn u
Ġs áº¿p
Ġs Ã³i
Ġl á»Ļi
Ġl Æ°á»£m
Ġm á»įt
Ġb áº¿
Ġb ump
Ġv ia
Ġo y
Ġg áºŃp
Ġg ases
Ġd ent
Ġd il
Ġnh Äĥn
Ġtr Ãªu
Ġtr agic
en ix
qu is
Ġng Ã´
Ġng á»Ļ
ap or
Ġr ia
Ġr ope
Ġr ocks
ed ge
Ġdo od
im ore
ir a
Ġsa fer
ĠC ould
Ġse vent
ĠM ass
Ġne oc
ag an
ĠH on
ĠH ot
Ġde als
ab ad
ĠP ap
ĠP ost
ĠP rof
Ġsp ill
Ġsp ons
Ġsp ont
Ġkho Ã¡n
Ġyour selves
ast y
ĠK ib
ai red
ĠÄĲ an
ĠÄĲ á»ĵng
ĠR od
ĠR ich
Ġbr ows
ĠF red
ĠW ater
Ġun able
Ġgr oc
Ġbu ck
ro ad
ĠCh e
ĠO d
ĠO reg
ĠV al
Ġco vers
Ġcont ag
Ġlot tery
Ġres olve
ĠU s
ĠU krain
Ġsm oking
Ġdá» ¡
Ġdec l
ĠIn ter
ĠQ aeda
Ġsoci ally
Ġinter ventions
lic it
Ġpoint ed
Ġke o
Ġser oton
Ġmon keys
pe ech
Ġmet er
Ġed itor
Ġset t
ĠHo áº·c
Ġmark er
ĠSh ow
Ġfail ures
ĠEur opa
Ġimpro vis
Ġ199 4
Ġmain stream
Ġtrad itions
Ġsurv ived
Ġdisc r
Ġapproach es
Ġarchitect ural
ĠGi Ã¡ng
ug al
Ġpost ed
Ġtw ist
ĠMc G
ĠMc K
Ġast ero
Ġbur ied
Ġcu áº£
Ġcompet e
Ġreact ions
ĠCam bod
Ġdiv or
Ġexpert ise
Ġwhe els
ĠSw iss
ĠNgh e
Ġhop es
Ġmathem atic
Ġpurp oses
ĠGiá» Ľi
Ġcontinu ing
Ġthrow ing
ĠBen jamin
ĠGu inea
Ġfold ing
Ġgradu ated
Ġdimens ion
ĠJer ry
Ġver b
Ġrecon struct
Ġsymbol s
ĠTor onto
Ġclimb ing
ĠHaw king
Ġvolunte er
Ġcorpor ations
ĠCo ast
Ġtick et
Ġsatell ites
Ġagre ement
ĠTes la
Ġmosquit os
Ġreci pe
Ġbarri er
Ġbarri ers
Ġauthent ic
Ġacknow led
Ġcous in
Ġsurf aces
Ġcolum n
Ġcomprom ise
ĠTay lor
Ġnutri ents
Ġconstrain ts
ĠNair obi
ĠDie go
ĠOreg on
1 1
E n
G G
G M
P oint
R G
a way
b es
b ul
c Ã¡c
c rib
d is
g l
g al
h ay
l ong
r ian
s hip
u um
u ate
u ine
v á»Ľi
Ġc ra
Ġc ash
Ġc áº©u
Ġth ylac
Ġa ug
Ġs áº£nh
Ġm ac
Ġb á»Ľi
Ġh áº£
Ġh Ã¡n
Ġh ors
Ġh áº»o
Ġv áº«y
Ġtr Æ°Æ¡ng
Ġtr iv
ou ver
ot ed
Ġr áº£i
Ġr á»ķ
Ġr ivers
al in
ĠkhÃ ©p
ĠkhÃ ¢u
ll er
ll en
Ġkh e
Ġkh á»ĳn
Th Æ°a
am an
Ġst atic
Ġsa ke
ĠC her
ĠT Ã¬nh
ĠT hÃ´ng
Ġpr ol
Ġpr ide
ĠM ap
ter ing
ĠA ur
ill ance
ĠB ow
ĠN ovember
Ġj e
ĠH op
ĠH ind
um ble
ab it
if ty
un es
ĠG all
ĠL ake
ci p
ĠD oha
hi re
Ġcomp reh
ĠR ick
ĠR oger
Ġ3 4
Ġman if
ĠF GM
ĠTh u
Ġcl ue
Ġdi ver
ĠO cean
Ġ4 50
Ġgen uine
ip h
Ġoff ering
Ġdr own
Ġown er
Ġown ed
ĠSt ock
Ġins ane
Ġwr ap
Ġtra ject
Ġart work
Ġpat ents
Ġpartic le
Ġdem os
bo o
Ġ12 5
Ġgu id
Ġrest rict
Ġkill s
anc ouver
Ġcond oms
Ġnight s
Ġinvest ing
Ġaud iences
Ġlan es
Ġbreak s
Ġinclud ed
Ġaffect ing
Ġsil k
li est
Ġimm ense
col i
Ġdiv ision
ĠWar ren
Ġstrateg ic
Ġpack ed
Ġpack age
Ġcalcul ations
Ġmagn ific
Ġteen ager
Ġoffic er
Ġinterview s
Ġapply ing
ĠbÃ³ p
Ġhistor ic
Ġcand y
Ġindepend ence
imp se
ĠPer u
Ġmeas ures
Ġpair s
Ġterror ism
Ġpock ets
Ġdiction aries
Ġtow er
ĠTasman ia
Ġgod s
Ġanalog y
ĠGia i
Ġhunt ing
Ġwhist le
Ġarrest ed
Ġcontem porary
ras ound
Ġben ch
Ġadoles cent
Ġprost ate
Ġclus ters
Ġchap ter
ĠBert ie
Ġdow nt
Ġunbeliev able
Ġenth usi
ĠFOX O
Ġpand emic
dig it
Ġendang ered
ĠShang hai
Ġseroton in
1 4
3 00
C Ã¡
C ol
D r
I S
J o
J ames
L ife
N e
N ew
N Ã£o
P H
b Ã¢y
b ling
c us
k ind
o enix
r og
r á»ĵi
w w
z uel
§ a
Ġt Æ¡
Ġt ale
Ġc ub
Ġth resh
Ġn Ã£y
ĠÄĳ Ãłng
Ġl en
Ġl Æ°á»£n
Ġh ometown
Ġv áº·n
Ġo ct
Ġg iáº¿ng
Ġg ained
Ġd rought
Ġch áº·ng
Ġch á»ĳn
os ity
Ġng Æ¡i
Ġf ate
Ġf iber
al ore
Ġthá» ģ
ar g
á»į ng
ow itz
Ġkh á»ĳc
Th ird
Th omas
Ġx Ãłi
Ġre b
ent h
im ee
op o
ke l
Ġan atom
Ġsa cred
th als
Ġpr isons
out s
Ġso ap
Ġne ck
ÄĲ i
ĠB alt
ĠS now
ĠH as
ĠH á»ĩ
Ġor ient
Ġsá» ıi
Ġsp o
Ġsp ider
Ġsp ray
ĠG eh
Ġkho ang
ĠK áº¿t
oc ity
ĠÄĲ áº¿
Ġle an
pp er
Ġman ual
ach ing
ĠF ore
ĠF DA
ĠJ uly
Ġhapp ily
Ġbu ff
Ġbu cks
ro ver
ass es
ĠV ÃŃ
ĠV ol
ĠV ene
ĠV ancouver
ens es
nder ing
Ġshe ets
Ġ5 4
Ġres cu
ĠU p
Ġmay or
Ġdes erve
Ġsy ndrome
Ġgen oc
Ġ20 20
ne ys
Ġsc aff
Ġsch olars
Ġtrans m
Ġtrans mission
Ġtá»¥ t
Ġgl uc
Ġgl impse
Ġfound ations
pe ed
Ġread ers
ins ky
ĠAr k
Ġsub way
Ġsub urb
Ġinf ant
Ġstr ict
Ġstr ip
Ġform ing
Ġcap abilities
Ġhead ed
ĠInd ustrial
Ġaut istic
Ġtop ics
ĠPh Æ°Æ¡ng
Ġconnect s
Ġeduc ate
Ġda wn
Ġcult iv
Ġphys i
Ġloc ations
Ġbeautif ully
Ġcollect ively
Ġparent ing
Ġtyp ing
Ġ199 2
Ġ199 7
Ġfall en
ĠAs ian
Ġdest iny
ĠEm ily
ĠMc Donald
Ġblind ness
Ġreport s
osh op
Ġec ological
ĠBang alore
ĠAb u
Ġrespond ing
Ġdeterm ines
ĠMay a
Ġinh er
Ġteen age
Ġclassroom s
Ġsimpl est
ĠJul ian
Ġpig s
Ġgun s
Ġcooper ate
Ġbul let
Ġelement ary
Ġinstall ed
ĠCA PTCHA
Ġofficial s
Ġpal m
Ġju ice
ĠphÃ´ i
Ġfortun ately
Ġshr imp
Rob ert
ĠbÃ¹ n
ĠLaw rence
Ġestim ates
Ġdesper ately
iat ric
ĠKy oto
ĠPower Point
ĠWalk er
Ġexplos ion
ĠTre asure
Ġcorresp ond
ĠDub ai
oli ath
Ġexcell ent
Ġlifes pan
Ġpyram id
ĠOak land
ĠBalt imore
ĠVene zuel
A G
A V
C E
F r
H i
H áº¯n
K hÃ
b á»ĳt
e ffic
h all
l ad
l usive
r h
r in
s pring
Ġt ies
Ġn ap
Ġn est
Ġn uá»ĳi
Ġn áº¯p
Ġn áº¿m
Ġa we
Ġs ib
Ġl Ã¡ch
Ġb á»Ļi
Ġh Äĥng
Ġh Ãłu
Ġv Ã¡ch
Ġw ires
Ġg athered
Ġg orgeous
Ġd ys
Ġd umb
er k
er os
Ġnh Æ°á»£c
Ġtr ace
Ġch ess
on ac
Ġng áº¯t
Ġng Ãło
Ġr ang
Ġr Ã²
Ġr ip
Ġr áº·ng
Ġr ape
Ġf its
ĠvÃł n
in th
ĠchÃ ©
ĠÄĳá» įng
ic us
Ġqu áº¡t
Ġta ct
Ġkh iáº¿t
et ry
Ġx i
Ġx Æ¡
uy á»ĥn
ĠÄĳÃ£ i
Ġra cing
Ġli Ãªng
se en
Ġcon vey
ir ts
Ġsa il
st an
Ġlo a
Ġse w
Ġsh y
Ġhe al
Ġlá» ©a
Ġlá» Ńng
ĠB M
ĠB áº¯t
ĠS a
ĠS ea
ĠN i
Ġj ew
ĠH u
ĠH Ã´m
ab y
if ul
Ġal ign
ĠG ene
ĠG aza
ĠL i
ib onac
ack s
ast e
ĠK le
ĠK ong
oc ol
ĠÄĲ i
ĠÄĲ áº§u
ĠÄĲ iá»ĩn
ĠÄĲ á»ĭa
ĠÄĳá»ĵ n
Ġexp licit
Ġmu Ã´n
ĠF ull
ĠF BI
ĠJ ama
Ġcl iff
ĠW ind
ĠCh ad
Ġco inc
Ġac ids
Ġam bit
ru ce
Ġ4 7
ĠU CL
Ġbl ah
Ġpro ven
pl ess
int erest
ne e
Ġcr iter
ĠSt irling
Ġsim ulation
Ġbuild s
ri or
Ġmáº¹ o
Ġ7 7
Ġ8 2
Ġtu a
Ġdem ographic
Ġfriend ly
man uel
Ġstr anger
Ġban king
ead y
Ġsign ature
row ing
Ġchalleng ed
Ġmar ry
Ġmar vel
Ġadv ent
omet er
Ġinvest ed
Ġterr ain
Ġpsych ologist
Ġsurv iv
eh ran
Ġdead ly
Ġcamp s
ĠGi áº£i
Ġcy cles
ĠQu an
Ġworth y
Ġtransform ing
Ġimm ort
Ġrepresent ative
Ġmeth ane
Ġmedic ation
Ġmechan ics
Ġprim itive
Ġbact erial
Ġste pped
Ġgraph ics
Ġrid ing
Ġswe at
Ġelectr odes
Ġsmell s
Ġlands capes
Sh ould
Ġport ion
ĠPl ato
Ġachieve ment
Where as
Ġpan el
Ġcover ing
Ġhonest ly
Ġnut s
Ġsexual ity
Ġsimpl er
ĠFrank lin
Ġing en
Ġut il
Ġairpl anes
Ġlung s
Ġshock ed
Ġconcentr ation
Ġsurge ons
forest ation
uls es
ĠWilli ams
ĠbÃª nh
Ġteles copes
ĠNeander thals
Ġinit ially
ĠSat urn
Ġcandid ates
Ġagg ressive
Ġcyber cr
ĠOl iver
Ġdiscipl ine
Ġgest ure
Ġportra it
ĠBudd h
ThÃ¡ ng
Ġabandon ed
Ġoccasion ally
ĠMur ray
quar ters
Ġmyster ious
Ġreli able
Ġorchest ra
Ġhalluc inations
ĠQue en
Ġsupermark et
ĠCour t
Ġexpans ion
Ġlin ear
ibonac ci
E S
E ric
G et
M ED
R C
S am
S ame
S peech
b us
c ost
o ody
r us
r hythm
Ġt Ã¡t
Ġc otton
Ġn áº¡
ĠÄĳ an
ĠÄĳ un
Ġs ir
Ġs uá»ĳi
Ġs ons
Ġl áº¥n
Ġm apping
Ġh iáº¿u
Ġv Ã¡y
Ġthe ore
re ens
nd ers
Ġd Ã¢u
er als
Ġto a
Ġr ose
Ġr á»ĩt
or age
it ar
it ra
it ated
le an
Ġe ur
ic it
Ġqu Äĥng
et e
Ġre ass
Ġre wards
ur day
Ġra ises
Ġst om
Ġst ake
Ġcon qu
ir o
st ar
ĠC uba
ĠT enn
ĠT itan
ĠT ehran
ad ian
Ġlo ving
Ġab ilities
Ġse al
Ġsh it
ĠM as
ĠM id
ĠM all
ĠM ell
ĠM itchell
Ġwor ms
il ty
ÄĲ áº·c
ĠB ir
ĠB ah
ĠS ur
ĠS á»©c
ĠN orm
ag a
ag ger
Ġsom eday
ink er
Ġint ensive
ĠP o
ĠP otter
ĠG ard
ort ed
ĠL ar
ĠD ave
ĠD AR
ast ian
oc coli
Ġcomp ound
ĠÄĲ Ã´
Ġle verage
ĠR h
Ġbr ands
Ġag ents
Ġwork force
Ġcl ues
ĠW ait
Ġgr ace
ĠCh áº¯c
ĠCh iáº¿c
ĠO ut
Ġá» ª
ec ca
Ġ5 3
Ġngo áº¡n
Ġbo ost
Ġbo ots
pl ay
pl us
other ap
ĠY ale
we ight
Ġdá» Ŀi
ED I
Ġfind ings
Ġla ke
Ġcar r
Ġcar ries
Ġob ese
Ġchu i
Ġchu á»Ļng
Ġwr apped
Ġbelie ving
Ġinter ven
Ġ7 8
Ġke ys
Ġmod e
Ġmin es
Ġcontr ary
Tr Ã¡i
Ġbus h
Ġvis ually
Ġpass es
Ġmoment um
ĠPh oenix
Ġinteresting ly
Ġred esign
Ġ40 4
Ġ18 00
ograph ical
Ġstop ping
Ġbad ly
rib ly
Ġbre eding
Ġgir lfriend
Ġprof its
Ġprop ag
Ġprop osal
ush ed
Ġmar g
Ġche at
Ġ11 0
Ġdeep est
Ġengine ered
ane ous
Ġpsych ologists
cl op
Qu ay
ĠCon f
ĠDo es
Ġsuggest ion
Ġcompet ing
Ġcompet itive
Not hing
Ġparticip ation
ĠMo MA
Ġdam aged
Ġappear ance
ĠNig er
Ġwild life
ĠLa ure
Ġjump ed
the on
Ġinstitut ional
Ġcontrib ution
Ġdiscover ing
Ġcorru pt
sc ar
Ġinterview ed
Kh u
Ġhistor ically
Ġinj ured
Ġ194 5
Ġcru el
Ġgentlem an
ĠEvery body
thes ia
Ġtal ents
Ġtum ors
Ġchann els
Go ogle
Ġstri ke
ĠJo el
ĠGand o
Ġpurs ue
Ġcourage ous
Ġexhib it
ĠCA D
Ġmanip ulate
ĠSat urday
Ġnit ric
Ġmushroom s
Ġcock tail
ĠKe ith
Ġbombs ight
Ġneut ral
look ing
stand ing
Ġunh appy
Ġembarrass ing
ĠVictor ia
Ġmim ic
Ġrecyc led
Ġdisturb ing
Ġintrig uing
Ġlegis lation
Ġhelicop ter
Ġlux ury
Ġhoriz ont
Ġsimult aneously
Ġhybr id
ĠSou thern
ĠKatr ina
nob yl
Ġmagnific ent
ĠVenezuel a
Ġambit ious
Ġcriter ia
A d
A h
D aniel
J oe
K en
S M
T M
U ntil
V áºŃt
c ers
e em
f an
j u
l ers
m un
p en
r ance
s ized
t ained
x ious
Ġ Æ¡
Ġ Ãªm
Ġ á»ıi
Ġt Æ°á»Ľc
Ġt ie
Ġt áº¡c
Ġt urb
Ġc áº¯n
Ġc ua
Ġs ale
Ġl á»¥
Ġb ills
Ġh ated
Ġthe ories
Ġw ard
Ġo ven
Ġp ills
Ġg aps
at z
Ġnh áº¡o
Ġch am
Ġch uá»ĳi
on a
ing ton
Ġf is
Ġf ancy
or ious
ch ed
in ci
ĠÄĳá» ©t
ĠcÃ¡ n
le nd
Ġqu á»µ
Ġkh á»Ń
ur able
ig ma
Ġst raw
Ġst aring
Ġst unning
ol ine
ĠC P
ĠC áº£
ĠT itus
th eless
em ies
ĠM en
ĠM á»Ļc
ĠM edia
ĠM athem
ĠM eyer
ÄĲ iá»ĩn
ĠB áº¥t
ĠB ao
ĠN Æ°á»Ľc
ĠN az
Ġfr action
ust ing
art z
Ġde cent
Ġde af
Ġout d
ie ce
ĠP eps
ĠG ay
ĠG ord
Ġup side
ĠL uc
ĠL á»Ľn
Ġsee king
oc ke
ĠR ec
Ġper mission
ach er
ff iti
ond er
ĠF ire
ĠF ibonacci
ry pt
Ġgr ains
Ġgr asp
Ġimp ression
Ġover l
Ġná» ©t
Ġ5 7
Ġsy ring
Ġgen omes
pl ing
Ġreal m
Ġpre vention
Ġoff spring
we ets
Ġfl ows
Ġfl avor
Ġhuman itarian
Ġsystem atically
ail s
Ġla wn
Ġrem ix
Ġcol ored
Ġhel ium
Ġhel pless
ĠTED MED
Ġ6 8
Ġinst ruction
Ġrec laim
Ġext r
Ġproject ions
Ġhard est
Ġform at
Ġcap ability
Ġansw ering
Ġreason able
Ġgu ilty
Ġvir al
Ġfree zing
Ġmess y
Ġdemocr at
Ġstat istic
ĠCal tech
Ġvac uum
ĠHar ry
Ġvers ions
Ġhar bor
Ġfire flies
Ġwebs ites
Ġhor izon
Ġtrack s
Ġtruth s
Ġimm ers
Ġrepl aced
Ġdefin ing
Ġep is
Ġconscious ly
Ġauthor ities
Ġgra ve
Ġgra ffiti
ĠPal m
Ġdetect ion
Ġann ual
Ġconcer ns
Ġenjoy ed
ĠMay be
ĠWik i
ĠTo Ãłn
Ġcoun sel
ĠnhÃ¡ t
Ġcustom er
Ġresist ant
Ġbatter ies
Ġphysic ists
Ġregular ly
Ġshel f
Ġsucceed ed
ĠJon as
ĠJon athan
Ġconduct ed
Ġastron aut
ĠOlymp ics
Ġlimit ations
ĠFre edom
Ġextend ed
Ġdolph in
Ġminim um
Ġfright ening
Ġoverwhel med
Ġlabel ed
ĠLou is
Ġcontrovers ial
Ġreplic ate
Ġbeet les
Re ally
Ġsurve illance
osaur us
ĠOp rah
ĠChild ren
Ġtro ops
engine ering
Ġaes thetic
ĠSus an
Chi ld
ĠScr atch
ureau cr
thÃ ¬
ÄĲo áº¡n
Ġexped ition
Ġpige on
Ġcyl inder
Ġneoc ort
Ġtraject ory
Ġdownt own
Ġthresh old
Ġgenoc ide
A f
B oth
C om
J im
K e
K iá»ĥu
N ever
T w
T ÃŃnh
X em
a ise
f red
f ire
g iá»
g ence
g ener
k o
l v
m oud
r od
t ies
w orld
Ġ Ã´i
Ġc ube
Ġn erves
ĠÄĳ áº¡m
Ġa unt
Ġl Ã³t
Ġm ars
Ġh á»Ł
Ġh ired
Ġh ipp
Ġv enture
Ġw ow
Ġk iá»ģm
at em
at ics
Ġd á»ĵi
Ġd irt
Ġtr Ã³i
ou x
Ġch áº¡p
on ed
an et
Ġng áº£
Ġin ex
Ġin mates
ed s
ar in
ch ool
Ġy ards
Ġcá» įc
Ġbe ef
Ġtá» Ľ
Ġre vel
Ġha cking
Ġst orage
im ag
ol by
st orm
ĠC ase
ĠT w
ĠT en
ad or
Ġpr ose
Ġkhi nh
Ãº m
Ġsh out
Ġsh aking
ĠM P
ĠM ore
ĠM ond
ĠM oh
ĠA udience
ĠA aron
ĠA imee
ul es
ĠB or
ĠB Ã¡c
ĠB ra
ĠS in
ĠS ara
ĠN Æ¡i
Ġj et
ĠH uman
ok o
Ġsá» ©a
ĠP en
It s
ĠL ord
ĠD olby
act ive
Ġact ively
ib o
ĠK al
ach ine
ĠF e
ĠF er
ĠJ en
ĠTh ay
ĠW atch
Ġun st
Ġgr amm
Ġover se
Ġdis asters
ec d
Ġpo le
Ġam ino
Ġres olution
Ġher itage
Ġshow er
pl ic
Ch Ãł
Ġsc ales
ĠVÃł o
Ġcount ing
ile y
iver se
Ġsystem atic
Ġtechn ically
Ġinv olving
ri er
ĠTED Women
Ġunderstand s
Ġrel ation
Ġrec re
Ġrec ession
Ġ8 4
Ġcell o
Ġcell ular
Ġhigh way
Ġmod est
Ġmin us
Ġbi o
Ġbi ologist
Ġplan ned
ah a
Tr Ã´ng
Ġcomput ational
pr il
Ġca ves
Ġear liest
ĠAr ch
Ġvis cer
Ġsupp lies
Ġinf lation
Ġhead ing
ĠWh it
Ġseem ingly
Ġphys icians
ilt on
Ġprop ose
anc ers
Ġche ating
Ġfund ra
ev ity
Ġexpect ing
Ġinvest ments
Ġill usions
Ġpred iction
Ġterr ified
Ġcal c
Ġtem por
com puter
ann ah
ĠHar lem
Ġsum mar
ĠMar io
unt u
ĠGe or
Ġtw ins
Ġcivil izations
li hood
St ud
Ġlog ical
ĠMex ican
Al though
ĠDe velop
Ġplant ed
ĠCl oud
wit zer
Ġperiod s
bs olut
Ġmedic ines
Ġcompassion ate
Ġextraord inarily
Ġauthor itarian
Ġrap ed
Ġassum ed
Ġassum ption
ze es
dr iven
Ġreflect ion
Ġcontinu ous
Ġrandom ly
ĠGu ard
Ġencour aged
Ġencour aging
ĠPhil ip
Kho a
Ġdoub led
Ġtherap ies
Ġvot ed
ĠSam uel
Ġincent ive
Ġstri king
Ġsculpt ures
Ġopin ions
Ġthá»ĳ n
Ġconstruct ed
Ġsubst ant
Ġmak er
Ġinev it
Ġjudg ments
Ġvoc al
Ġbrib e
Ġicon ic
ĠTah rir
Ġabund ance
ĠLang ley
Ġdynam ics
ĠGil bert
Ġhier archy
ĠTib et
Ġlone ly
Ġoutr age
Ġrehabil itation
Ġclot hing
ĠGeh ry
Ġgluc ose
ĠTenn es
otherap y
4 5
6 0
C á»Ļng
H ans
I PA
J on
P at
W ow
b ao
j ev
n Ãªn
p erson
s a
u nder
v in
z ero
¨ n
Ã įt
Ġt áº»
ng Æ°á»Ŀi
Ġc áº¡o
Ġc Æ°á»¡i
Ġn áº¿n
Ġn áº·c
Ġn ode
Ġn á»Ļp
ĠÄĳ ÃŃnh
ĠÄĳ á»ĳn
Ġs od
Ġs Æ°á»Łi
Ġl á»įt
Ġb am
Ġv Æ°á»Ľng
Ġv ivid
Ġw ins
Ġg Äĥng
Ġd y
Ġd Ãło
Ġnh áº¥c
Ġch áºŃt
Ġch á»įi
Ġr h
Ġr ong
Ġf t
Ġthá» ı
Ġthá» «ng
it ative
in n
Ġy o
om in
Ġph Ãłn
Ġqu áº©n
ut ions
Ġgi Ãłn
Ġx á»ĳp
ct ors
ur f
Ġst air
im et
op us
Ġfor b
ol en
ol um
ĠC áº§u
ĠC raig
ĠT in
ĠT áº¡o
Ġho i
Ġsh ips
ĠA ust
ĠA ye
ĠS á»ĳ
ĠS her
ĠN BA
Ġj aw
Æ°Æ¡ c
ĠH Ãłnh
Ġor ang
Ġlike lihood
ab a
ab s
Ġsá» Ŀ
if ting
el ines
ob y
ink ing
ie ve
Ġsp an
Ġsp are
ĠG Ã´
ĠG oliath
ĠL ev
ĠD Ã¹
ĠD iana
ack ing
ĠK r
reat ic
ĠE lect
ĠE li
ĠR yan
Ġbr occoli
Ġen emies
ĠF ood
ĠJ ournal
ĠTh á»ĳng
Ġcl ient
Ġimp ressive
red d
Ġar bit
ĠO tt
Ġdis ability
Ġkind ness
ru ption
Ġher d
Ġreal istic
Ġpre v
Há»į c
ĠNh iá»ģu
Ġcr iminals
ons ider
Ġapp s
Ġlong evity
Ġsec ular
Ġngu á»Ļi
Ġent ry
Ġacc omp
Ġrá» Ľt
ĠYou ng
Ġmed itation
Ġcare s
Ġgener ic
Ġcomput ation
Ġfar ms
io v
Ġinf l
ĠphÃŃ ch
ĠAl bert
Ġsol o
Ġcou ch
Ġeas iest
aw i
Ġprop osition
Ġamaz ed
Ġself ish
Ġpast e
Ġadv ances
Ġngá»§ i
Ġname ly
ret t
Ġwind s
Ġappro ved
Ġcal m
uck y
Ġmot ors
Tuy á»ĩt
Ġcut s
ĠCon nect
Ġmult ip
Ġvac ation
Ġcool ing
Ġsqu ee
Ho Ãłn
Ġ198 9
Ġapproach ing
Ġintr ins
Ġcamp us
Ġfavor ites
Ġunivers es
ĠQu Ã¢n
Ġblog s
Ġprog eria
Ġemp owered
ĠDe f
Ngh Ä©
Ġtouch ing
ĠChar l
Ġrece iving
Ġult rasound
Ġsafe ly
eles cope
Ġattack ed
ster dam
With out
ĠArab ia
Ġremark ably
Ġdetect or
Ġtemper atures
Ġelectr ons
Ġcalcul ated
Ġjump ing
Ġmagn et
Ġdiscover ies
Ġassoci ate
Ġinh ib
Any one
ThÃ ¬
Ġphenomen a
Ġwood en
Ġpen is
Ġmotiv ated
Ġinj uries
Ġdocument ary
Ġfat al
ĠLib eria
Ġswitch ed
Ġcorrect ly
Ġtoile ts
ĠUS D
Ġreplace ment
Ġfrequ ently
Ġinstall ation
Ġpartners hip
Ġmill enn
Ġinform ed
Ġingred ient
Ġcontain er
Ġscen es
Ġlect ures
ĠGree k
Ġreprod uce
Ġregard less
Ġobser ved
Ġassign ment
Ġreject ed
Ġacknow ledge
Ġestablish ed
Ġtrig ger
Ġbeet le
Ġtoler ance
Ġtatt oo
ĠMoz art
abul ary
Ġfavel as
ĠCopern icus
Ġnonviol ent
Ġchimpan zees
Ġcatast roph
Ġincor por
Ġmonit oring
Ġimprovis ation
ĠCher nobyl
ĠUCL A
Ġstom ach
ĠPeps i
atem ala
ĠTennes see
7 5
A cc
C P
C S
C am
C á»¥
D Æ°á»Ŀng
H uman
M us
M RI
P re
R áº±ng
R ather
S Ã¡u
T om
T á»±
U nder
Z K
h al
o os
r ig
t áº¥t
y re
Ġ 00
Ġ áº¯c
Ġ Ã´n
ī a
Ġt iá»ĩt
Ġt ÃŃt
Ġc áº±n
Ġth us
Ġth iÃªu
Ġm ast
Ġm ask
Ġb Ã¬
Ġb other
Ġb á»įt
Ġh ut
Ġh un
Ġh int
Ġv Ã£
Ġv ary
Ġv alley
hÃ £
Ġk g
Ġg áº¯t
er ies
Ġtr á»ĩ
Ġtr apped
ou st
Ġch á»ĳc
Ġto ast
ot ing
ot ect
Ġr oles
Ġr hythm
ch ia
ch á»ī
ch ron
in come
Ġy east
Ġcá» Ľ
as king
le ans
ĠI ll
Ġph á»Ľ
Ġx áº¥p
Ġha o
Ġst abil
Ġst olen
Ġdo o
ol it
ol itan
ĠC oun
ĠT arah
th ony
Ġho ok
ad ium
Ġlo an
Ġlo ose
Ġse as
Ġsh epherd
ĠM oses
ĠM BA
ĠA ut
ĠA gain
il ation
ill as
ul ance
ÄĲ Æ°Æ¡ng
ĠB al
ĠB art
ĠS pring
ĠS witzer
Ġfr act
Ġfr ames
Ġj an
Ġus eless
ĠH an
um ara
ist ory
Ġkn ife
ĠG it
Ġkho Ã¡c
ich olas
ĠL ama
ĠL OL
ĠD al
ĠD ick
ĠD av
ĠD iet
are st
ĠK ay
ide o
ĠE ar
Ġle x
Ġle gend
Ġexp osure
ach es
Ġwork place
ep ler
ĠCh á»ĭ
Ġover head
Ġdis g
ea v
ĠV ery
ĠV áº¥n
ens us
ell ed
Ġco verage
ec onom
ult y
Ġ4 1
Ġdes cend
Ġreal ization
Ġpre par
Ġsc rew
Ġapp les
ĠSt and
Ġbel oved
Ġart ic
Ġent ering
erg y
Ġatt itudes
Tr Æ°á»Ŀng
Ġgener osity
ĠNg Ã´i
Ġsub t
Ġstr ings
Ġform al
Ġpass ive
ĠAl i
ĠAl fred
Ġda f
Ġpolit ician
ogram s
Ġnight m
Ġfollow s
Ġprogram mers
sy lv
ĠCar ib
ho áº·c
Ġorig ins
Ġfilm maker
Ġwin ner
ustain able
ĠSp ain
Ġprofess ors
Ġpredict able
Ġemp ath
Ġlif el
Ġcross ed
Ġshif ts
ĠOr leans
ĠEd ward
Ġfant asy
Ġinfect ions
Ġsignific ance
Ġtrib al
Ġscan ning
Ġhonest y
Ġworry ing
Ġdestro ying
Ġoccur ring
aj a
ĠMin istry
Ġnarr atives
amb ia
Ġ36 0
ĠAh med
cop ic
Ġbelong s
Ġide ology
Ġtang ible
Ġbow l
.. .
Ġaccompl ished
Ġconfront ed
Ġautonom y
Ġvoc abulary
á»ħ n
Ġexec ut
ĠPan theon
ĠEs sex
Ġelimin ate
Ġrefriger ator
ĠMary land
Ġchromos omes
Ġpleas ant
ĠPalestin ian
Ġglac ier
Ġeleg ant
ĠPenn sylv
ĠFree Speech
ĠOrgan ization
Ġjelly fish
ĠProf essor
Ġgroc ery
ĠOd ys
ĠHop kins
Ġrescu ed
ĠArk ansas
ĠNorm an
clop edia
Ġoverse as
Ġphá»Ľ t
ĠTarah umara
ĠSwitzer land
ĠPennsylv ania
A A
D R
D i
D uring
E G
H alf
K inh
L ee
P P
P ar
R es
R ec
T en
T urns
V Å©
V á»Ĺ
c orn
f a
g a
g ram
h ea
i ate
l av
m ate
m ind
o z
p os
p res
p owered
r ained
u i
v ation
Ġt s
Ġt uá»Ļc
Ġc Æ°a
Ġc ass
Ġc ope
Ġc raw
Ġth áº£y
Ġn ob
ĠÄĳ iáº¿u
Ġl on
Ġl ists
Ġm á»ĭ
Ġm ild
Ġm apped
Ġm esh
Ġb á»ī
Ġh Ã¡o
Ġh eter
Ġv el
Ġv Ã¹i
Ġw rest
Ġo l
Ġp ad
nd a
Ġg áº¡o
Ġd Æ°ng
Ġd ens
Ġd áº³ng
Ġnh á»¥c
Ġtr Ã¡
Ġtr Ãłng
Ġch ains
Ġng áº¡o
Ġng á»įc
ot te
Ġr Ã¬u
or ough
or ph
ĠvÃł nh
ar ians
Ġvá» ±ng
om i
as so
Ġe B
Ġe co
ic ut
Ġph anh
Ġta bles
Ġis lands
Ġgi Ã¡ng
iá»ģ ng
Ġre nt
ur ning
ig en
á»ĩ ch
Ġwas ted
Ġan ten
ĠC S
ĠC och
ĠT elescope
th etics
Ġcan vas
Ġcan cers
Ġsh ore
Ġsh ots
ĠM R
ĠA R
ĠA pril
il ated
ĠnhÃ ºng
ul ative
ĠB and
ĠN I
ĠN ov
ag u
ac on
art en
ĠH unt
Ġde forestation
el p
Ġkn ees
og y
Ġint act
Ġint ended
ĠP C
ĠP u
ĠG raham
ĠD h
act ic
Ġpl ates
Wh atever
ĠÄĲ á»Ļng
Ġle ver
ĠR ow
Ġbr idges
Ġman ner
Ġman aging
Ġen abled
ĠF a
ĠTh iáº¿t
ĠW is
ĠW ol
Ġun le
Ġgr am
Ġdi lem
ĠO scar
Ġá» «
ĠV oy
Ġshe er
Ġac cent
Ġam pl
ank a
Ġbl ocking
Ġkhu áº¿ch
ful ness
ert o
ĠY ves
Ch áº¥t
Ch rist
we g
Ġins ert
ĠTED sters
Ġsch ed
Ng Ã´n
Ġob so
ĠIt alian
be an
Ġbas king
Ġ9 4
Ġcons p
ĠWe ibo
Ġsmall est
Ġreg ulations
Ġvis ions
Ġinf er
Ġconf ig
Ġpass ions
ĠAl ber
ĠAfric ans
ĠPh á»¥
Ġresearch ing
Ġadd iction
Ġdep os
Ġgá» Ľm
Ġequ ations
Ġcond om
Ġamazing ly
Ġret ail
Ġbá» Ŀi
Ġz ones
Ġnorm s
Ġliter acy
Ġgh en
Ġpract icing
Qu áº£
Ġsqu ared
Ġocc urs
Ġconv icted
Ġmeasure ments
Ġobs c
Ġobs ession
Ġap olog
Ġdest ination
yn th
Ġtext ure
ĠRob ot
Ġpath s
ĠQu áº£ng
Ġfem inist
Ġunf air
ĠNgh iÃªn
ĠmÃ¬ n
Ġcorn ers
Ġsan itation
Ġcong estion
Ġrespond ed
Ġthr ive
Ġreflect ed
ĠGu atemala
Ġpan ic
Ġpark s
Ġdiagn ost
Ġautom obile
Ġattract ed
ĠJul ie
Ġlapt ops
Ġintegr ate
Be ing
Ġax it
Ġjournal ists
Ġtens ion
Ġphilosoph ical
Ġaccur acy
Ġbound ary
Ġembr acing
Ġquant ities
Ġalt ered
Ġdomin ated
Ġund erest
ĠEgypt ian
ĠBrown e
Ġadop ted
ĠThÃ ´i
Ġsympt om
Ġisol ation
Ġinterpret ation
ĠKhÃ¡ n
Ġspin ning
Ġconsist ent
Ġestim ated
Ġelev ator
ĠDen is
Ġproced ures
Ġmetabol ism
Ġur ge
Ġauthent icity
Sim ilar
Ġasp ir
ĠMill er
Ġment or
Ġregener ate
vas ive
Ġped est
Ġchromos ome
ĠBi osphere
Ġbranch es
Ġox ide
ĠSi oux
ĠTunis ia
Ġpanc reatic
Ġod or
Ġembod ied
Ãģ nh
ĠKib era
ĠCambod ia
Ġhors es
Ġmanif est
Ġoct opus
Ġsib lings
Ġjew el
Ġlá»¥ a
Ġcalc ulation
bsolut ely
jev o
ĠConnect icut
hÃ£ y
ĠDal ai
Ġprepar ation
8 00
B et
D Æ°á»Ľi
D esign
M Ã¹a
R NA
S B
S m
S á»©c
T D
T im
U p
a wn
c or
d ad
i ance
m ond
m oor
p ace
r it
r oc
u áº§n
u ana
x imately
y g
£ m
Ġt á»Ł
Ġt iger
Ġc Ãłnh
Ġc age
Ġc able
Ġth read
Ġn á»Ļ
ĠÄ ĥ
ĠÄĳ áº·n
Ġs izes
Ġl Ã¡ng
Ġl á»¥t
Ġm Ã¡c
Ġm Ã©o
Ġm entally
Ġh en
Ġh urd
Ġv áº¯t
Ġk iá»ģu
Ġp orn
Ġp ulse
at al
at ical
at ops
Ġd are
Ġd ating
Ġd rew
Ġnh áº¡i
Ġnh á»©c
Ġnh á»įn
Ġtr u
Ġch inh
qu es
Ġr ib
Ġf isher
or se
or ient
or ters
in ent
in ery
Ġwe lf
Ġcá»§ i
us et
us sell
Th á»īnh
am il
Ġcho Ãłng
Ġst adium
ere r
ith a
st rong
ĠC Å©ng
ĠC ape
ĠC omp
ĠT Ãłi
ĠT ai
ĠT so
á»¥ ng
Ġlo yal
od er
em on
em ical
Ġsh irt
ĠA st
Ġcom ic
ĠB il
ĠB ruce
ĠS el
ĠS ri
ĠS OPA
Ġfr uits
ac ious
ĠH iá»ĩn
est one
if act
ĠchÃŃ ch
ect ive
Ġal ph
ĠP ic
ĠP itt
Ġsp erm
ĠG G
ĠL isten
ci ety
ose xual
ĠK os
ĠK ent
ĠK ÃŃnh
Ġcomp aring
ĠR eg
ĠR NA
Ġdon ors
ach uset
itt y
áº¹ t
iff erent
ĠTh áº§n
ĠTh ula
ĠW ay
Ġun n
Ġbu á»ĵm
red ict
ea king
ple te
Ġná» Ľi
Ġunder m
ĠU t
Ġbl ur
Ġbl ess
Å© a
Ġbo ats
Ġsy mp
Ġcomm ission
Ġsc ans
Ġinc om
te en
Ġcount ed
Ġlong est
Ġend eav
Ġhel met
Ġ6 7
Ġtá»¥ ng
Ġrel ief
Ġart ifact
Ġfound er
Ġfam ously
Ġext inction
Ġplan es
Ġread er
Ġcare d
Ġexpl ores
Ġteach es
Ġreg rets
man n
ĠNg ay
Ġrep ut
ott o
Ġstre ams
ĠBr ad
Ġchar ged
Ġexc ess
atic a
Ġfriends hip
Ġaw ake
Ġpay s
Ġabs ence
Ġmass es
Ġmass ively
Ġarch ive
Ġsens ing
Ġcal end
ĠJohn s
Ġlow est
Ġcommunic ating
Some one
ĠAm sterdam
ĠMar garet
Ġconsum ed
Ġproduc ers
Ġrich est
Ġpath ways
St ephen
Ġemail s
Ġblog ger
Ġtele com
Ġsand s
ĠMich el
ĠCol or
Ġactiv ists
ĠChrist ians
ĠPar liament
Ġexcept ions
col m
Ġshif ted
Gi áº£i
lin ing
Ġgraph s
Ġapart ments
Ġmagic ian
Ġvari able
Ġcollabor ate
Ġperspect ives
Ġdiscuss ions
Ġroll ed
Ġreflect s
Ġsquare s
Ġeth ic
ĠBar b
ĠBar ack
ĠTo Ãł
Ġcelebr ity
Kh áº£
ThÃ º
fl ix
Ġwood s
ĠGl ass
Ġbeat en
Ġlaugh ed
Ġmut ations
Ġforg ive
Ġemotion ally
Ġaccur ately
Ġtom ato
ĠNor weg
Ġmuseum s
Ġbud gets
Ġillustr ates
Ġtal ented
Ġprior it
Ġveget able
Ġalt ru
Ġalt itude
Ġpow ered
Ġtow el
ĠRom an
Ġcosm ic
hol m
Ġgam ma
Ind ia
Ġeleph ants
ĠGree ce
Ġpip eline
ĠBay es
Ġprivile ged
Ġmetabol ic
Ġentrepreneur ial
Ġastronom ers
Ġirr ational
ingu ish
ĠMel inda
ĠSec ret
Ġdiplom acy
ĠWil son
Ġpherom ones
Ġenzy me
ĠStud io
Ġstereoty pes
Ġbiod iversity
Ġobserv ations
Ġpubl ishing
ĠMatth ew
ĠPhot oshop
Ġmemb rane
Ġsevent h
Ġdiscr imination
Ġtriv ial
Ġscaff old
ĠMathem atica
ĠSara jevo
Ġviscer al
Ġaccomp an
Ġobso lete
B ob
C hÃ¡
D e
E l
L iÃªn
L á»Ŀi
M á»Ľi
O C
O S
P ut
Q aeda
S á»Ń
a a
a que
b ow
c ale
e ven
e lect
f ound
f ood
f unction
h orn
i atr
o ving
w an
Ã Ķi
Ġt id
Ġt iles
ng e
ng h
Ġc Ãło
Ġn ud
Ġn á»±c
Ġn áº¥c
ĠÄĳ Æ°Æ¡c
Ġs Æ°Æ¡ng
Ġl Æ°á»Ŀi
Ġl oses
Ġl ingu
Ġm Ã´ng
Ġb á»±
Ġb ats
Ġb inary
Ġh uá»³
Ġk it
Ġp atch
Ġp enc
Ġp iles
Ġp estic
Ġg er
Ġg or
at ories
at ma
Ġd iá»ħu
Ġd ancers
er ving
Ġnh á»ĳt
Ġtr aces
Ġto áº¡
Ġto ll
an ne
ot es
Ġr ank
Ġr ode
Ġf er
Ġof fe
ar n
in ational
Ġvá» īa
ĠI K
ĠI Q
ic ill
Ġph áº£
Ġqu áº§y
ang u
Ġcho p
Ġcho ir
op p
op les
Ġli Ãªu
Ġan xious
ĠC ons
ĠC la
Ġpr imate
Ġse ats
Ġso vere
Ġsh ops
ĠM i
ĠM á»¥c
Ġhe y
ĠA ge
ÄĲ Ã¡ng
ÄĲ á»Ļng
ĠB P
ĠB Äĥng
ĠS um
ĠS co
ĠS econd
ĠN ic
ust y
Ġj ung
Ġex otic
Ġex quis
Ġex agger
Ġus age
Ġor ph
um or
Ġint ang
Ġint ric
ĠP ers
ĠP IPA
ĠG ary
Ġkho e
Ġthink ers
ĠL imb
Ġby pass
ĠÄĲ áº¿n
ous es
Ġexp on
res ist
Ġen vel
Ġen light
ĠF il
ĠF all
Ġun ve
Ġgr oss
Ġbu gs
Ġbu zz
ro y
Ġar ter
Ġar ise
ĠO w
ĠO ld
Ġco at
olog ic
ber ty
Ġunder grad
Ġmo ld
ĠU á»·
Ġpro ceed
Ġ19 93
ĠY o
ors hip
Ch iáº¿n
Ġsc reens
Ġdec ides
Ġfl aw
Ġdr ops
Ġdr unk
Ġind ex
Ġrem itt
per form
Ġshould ers
Ġcar p
Ġtrans it
Ġrel ates
Ġinter ior
Ġ7 6
Ġcre ep
ific ations
Ġed it
Ġter ribly
Ġdem ograph
Ġfar ming
Ġreg ist
ĠAr chie
Ġprocess ed
ĠAl an
ĠkÃ© p
Ġconnect ivity
ĠHo Ã¡
Ġreason ing
Ġcur ves
Ġgu itar
Ġside walk
ĠBr and
ger ies
Ph il
Ġdef ault
Ġpos ters
Ġpar ag
Ġpar ach
Ġsw allow
Ġmar row
Ġhuge ly
Ġmust ache
ĠZ e
Ġsex ually
Ġtem ple
Ġarg ued
ĠCar ter
com ing
Ġ201 3
mb led
Ġmult inational
gn es
Ġ198 8
Ġrele ases
ĠGi Ã¡
ĠEm p
Ġpur ple
Is n
Ġer otic
Ġtrust ed
Al most
Ġest ate
Ġball s
Ġemb ry
Ġvisual ize
ĠChrist opher
Ġclean ing
ĠRe ally
Ġvirt ue
Ġinfect ious
soci ation
Ġhop eless
Ġclos est
Ġluck ily
Ġenjoy ing
Ġmir acles
Ġcontrib uted
Ġsal ad
Ġmix ing
Ġinh abit
ThÃ Ń
ĠPhil ipp
Ġprevent ing
Ġexh a
Ġselect ed
Ġmut ual
Ġdocument ed
Ġintegr ation
ĠLib ya
Ġamb ulance
ij uana
ĠLu Ã¢n
Ġvot ers
Ġtax es
Ġremote ly
Ġgold en
Ġstim ulation
Ġterror ists
Ġconcentr ated
Ġmill imeter
Ġthá»ĳ i
Ġplatform s
Ġmaster y
Ġcrack s
Ġrom ance
ĠThÃ ¬
Ġreform s
Ġweak ness
Ġlift ed
bre ak
Ġacqu ired
Ġfright ened
Ġmel ting
Ġnegoti ate
cont rolled
ĠWal mart
Ġcontrovers y
Ġcous ins
ĠKar l
Ġrecyc ling
Ġportra its
Ġtort ure
Ġna ive
ĠInt el
Ġpherom one
ĠHung ary
Ġminor ity
ĠBroad moor
Ġcas ual
Ġadministr ation
Ġveter ans
Ġunp redict
ĠES G
Ġmur der
Ġgeomet ry
effic ient
ĠMond ay
Ġinevit ably
Ġstair case
olum ines
ĠCoun cil
Ġts un
ĠVoy ager
Ġwelf are
achuset ts
ĠSco op
Ġenvel ope
A T
C Ãłng
D I
E T
F i
G ive
K B
L áº¡i
M en
N G
Q uy
R ives
T Ã³m
b i
b ot
b et
c am
c ity
d y
d og
e u
f ur
f ive
h r
i ated
j i
k i
k m
l Ãłm
m ass
m inder
n ov
p age
p read
p iece
r at
r un
r ays
u z
v able
w andering
Ġ áº£
áº ¤n
Ġc um
Ġc Ãºi
Ġc ows
Ġth y
Ġn ick
ĠÄĳ áº¯ng
ĠÄĳ áº§m
Ġa o
Ġl Ãºng
Ġl ump
Ġl Ã©n
Ġm ater
Ġm erg
Ġb ore
Ġb Ã¡u
Ġb ureaucr
Ġv on
Ġk iáº¿p
Ġp ants
Ġg Ã¡n
Ġg á»¥c
Ġg áº§y
Ġg á»ĳm
at an
Ġd áº¡n
er ation
ou red
nh Æ°
Ġch ase
Ġto es
an as
ap minder
Ġr áº£nh
Ġr Ã¹a
Ġr ays
Ġf ence
in er
in as
in ating
ĠchÃ ªnh
le vant
Ġe ats
Ġph iá»ĩn
ow an
Ġbe lly
ĠnÃ³ c
Ġx áº»
Ġha unt
Ġst amp
Ġst igma
Ġchá» ķ
ĠmÃł i
se us
ĠC Ã¡
ĠC á»¥c
ĠC IA
ĠT el
th ay
th irds
Ġpr on
Ġse g
Ġsh ining
ĠM ull
ĠA ud
il ot
ĠB et
ĠB ax
ĠS á»Ń
ĠS aul
ĠN O
ĠN ether
ĠN ik
ĠN athan
Ġme ets
Ġj am
Ġj ack
Ġpe ers
Ġpe oples
ĠH Ã¬nh
ĠH Ãłng
ĠH ome
ĠH az
um ann
Nh áº¡c
if ies
if lu
Ġal ert
Ġint ensity
ĠP ear
ĠP ale
ĠG ill
ĠG reg
ĠL ess
ĠD J
ĠD ig
ĠD un
Ġsu Ã½t
hi o
ĠK n
ĠK epler
oc ative
Ġcomp ounds
Ġle opard
Ġper pet
ud ice
ff ice
ĠF ive
ĠTh á»§
Ġcl ips
ĠW ales
Ġgr ades
Ġimp ress
ro Ã
ro ch
orm al
Ġá» Ľt
ea ks
ĠV á»ģ
ĠV iv
Ġac oust
vel t
ber cul
Ġres idents
ank ton
Ġxu Ã´i
Ġbl owing
Ġdes erves
ĠTr áº¯ng
Ġ19 91
ip car
ĠY ellow
Ch Æ°Æ¡ng
Ch Ãło
ub ble
Ġsur geries
ail and
igh th
Ġend less
Ġcreat or
Ġrel atives
Ġnever theless
Ġsl ip
Ġcons cience
Ġ8 9
Ġfam ine
Ġser ver
Ġbi olumines
Ġexpl ored
Ġbeh alf
Ġproject ion
Ġear ning
Ġreg ul
Ġsk i
ĠSo bule
Ġsub m
Ġsub mit
Ġpass age
ĠX u
ĠX em
Ġhead line
ever ly
Ġwar rior
Ġpres idential
Ġdist ances
vers ion
ov o
ash y
Ġeas tern
Ġdep art
Ġref use
Ġpublic ly
ĠgÃ³ t
Ġexpect ation
Ġris es
Ġinnov ate
ĠCan yon
Ġfail s
Ġland ing
Ġill um
Ġalong side
Ġrev olutions
Ġsens ation
ides pread
Ġdream ed
Ġstay s
Some body
Ġenc y
Ġexperiment ing
asc al
Ġwin ners
Ġ198 5
Ġ198 6
Ġfeed s
Ġrisk y
Ġopt ical
umb ling
ĠGe org
ĠRob inson
Ġblog ging
Ġfem in
Ġsuff icient
Not ice
Ġvisual ization
Ġaccount ing
Ġdrop ping
ĠGr ant
Ġlau nd
Ġintrod uction
Ġec ology
Ġdetect ed
Ġsyn chron
Ġhop ed
ĠGiá» ĳng
Ġdemonstr ated
Ġoppos ition
Ġfold ed
ĠIndian a
Ġpen icill
Ġcatch ing
Ġtarget ed
ĠnhÃ¡ y
Ġadapt ation
Ġanaly zed
Ġmicro RNA
Ġorg asm
ĠJust in
Ġprior ity
Ġdefe at
ĠWho a
Ġantib odies
ĠCo oper
ĠLin ux
Ġharm ony
Ġsusp icious
Mar co
sp ec
ĠMah moud
ĠBon net
Ġscar ce
Ġsatisf action
Ex cept
ĠJew s
Ġmá»ī a
ston ia
Ġobser ving
Ġasse mble
ĠDemocr atic
NC RA
Ġcontem pl
Ġstorm s
Ġadoles cence
Ġiniti ative
ĠSec urity
Ġdeploy ed
Ġpour ing
ĠPart y
Ġparas ite
Us ing
ĠTam iflu
Ġdelic ious
Ġsle pt
Ġtextbook s
Ġfung i
ĠCá»© u
Ġdism iss
Ġclar ity
Ġanes thesia
Ġrecru it
Ġbrut al
Ġcath ed
Ġphilanth ropy
Ġcigaret te
ĠHimalay as
ĠPap ua
Ġbrows er
ĠAur ora
ĠStock holm
ĠBah amas
ĠGard en
Ġneocort ex
ĠGuard ian
econom ic
mind ed
Ġhuá»³ nh
ĠBax ter
ĠNether lands
bercul osis
Ġpenicill in
2 9
B á»įn
C uá»ĳn
G reat
H Ãłnh
M M
M Ã´
M áº¥y
M á»ĳi
P hÃ¡
R S
S Ã¡ng
T iáº¿n
T uá»ķi
T ime
V i
b ian
d rop
e en
f are
h ou
h ot
m es
o ir
p o
p ur
u ation
v ÃŃt
y th
Ġ )
Ġ Æ°Æ¡i
Ġt áº¡
Ġt ut
Ġt ide
Ġt ennis
Ġc Ã´i
Ġc Äĥm
Ġc av
Ġth áº£n
ĠÄĳ Æ°á»Ŀi
ĠÄĳ iá»ĥu
Ġs á»Ļ
Ġs áº¥u
Ġl os
Ġl Ã£i
Ġm it
Ġm ud
Ġm ature
Ġb á»ĩ
Ġv ag
Ġv ice
Ġw est
Ġw idespread
Ġo m
Ġo xi
at oes
Ġd ome
Ġch k
Ġch Ãł
Ġch áº£o
an ies
Ġng Ã¢m
Ġr od
Ġf ans
or ic
al ysis
Ġthá» ī
ar ak
it ler
in ch
in able
ĠchÃ ©o
ĠÄĳá» ±
ĠI mp
Ġqu áº¥n
Ġgi áº§y
Ġx Ã¬
Ġx Ãło
Ġx á»ķ
ere y
Ġli ps
Ġcon j
Ġan ecd
ĠC oh
ĠT il
ĠT Æ°Æ¡ng
ĠT Ã¬m
ad ow
Ġse ctions
ation ally
Ġsh aping
ĠM eg
Ġwor m
Ġhe ating
ĠA w
ĠA fter
ĠA cc
Ġhá» ©c
ĠB ach
ĠS pl
ĠS leep
ĠS cient
ĠS ystem
ĠN aj
Æ°Æ¡ m
ĠH unter
ok er
est y
ab el
ob ably
Ġal ike
Ġal arm
Ġal umin
Ġint imate
ĠP ass
ĠP ier
ĠP oint
Ġsp at
Ġsp ong
ĠG wen
ĠL ight
ĠL ear
ĠL HC
ĠL anka
ĠD am
ĠD ai
our ced
ib ri
iz ational
ĠK iva
iv il
ĠÄĲ Ãło
ĠÄĲ á»ĭnh
ĠR edd
Ġexp ort
Ġexp ressed
Ġman kind
Ġen vision
ĠJ ennifer
ĠTh ose
ĠTh ailand
ep r
ĠW ide
ĠW oo
Ġcont amin
cent ure
Ġngo áº·t
ick et
ĠU r
Ġbl oody
uc ation
int u
ian ces
ub arak
Ġsc ann
ak i
Ġcount s
Ġcr ank
Ġfl uct
ĠbÃ© n
Ġlet hal
he ld
be es
Ġgl ow
ph al
Ġtra it
Ġsl ower
Ġkid ding
Ġcons ensus
Ġtu berculosis
Ġimag ining
Ġdevelop ers
Ġser ves
Ġpat ience
Ġmet als
Ġgener ates
Ġcomput e
Ġca f
Ġtá»ī a
ĠSo cial
ĠSo ciety
ran ny
ĠAl t
ĠPh á»¥c
Ġdist inction
ortun e
Ġscient ifically
Ġchar ities
Ġchar ges
Ġbre ed
Ġref used
Ġmach inery
Ġexc use
Ġsw ing
Ġrad ar
Ġcá»Ń u
ĠCan adian
Ġoper ates
Äĳ Æ°á»£c
Ġcir cul
sh aped
Ġterr itory
Ġes c
Ġpsych iatr
Ġple ased
Ġchem ist
Ġsend s
Ġpick s
Ġapproach ed
ĠBl oom
Ġice berg
Ġstress ed
Ġstress ful
rom agn
Ġinvent or
Ġpost c
Ġge ography
ĠQu Ã¡
Ġcop ies
Ġsubject ive
ĠDe an
ĠDe ep
Ġest rogen
Ġneg lect
Ġimprove ments
Ġemerg ence
NhÃ ³m
Ġparticip ating
ĠBill y
Ġpu berty
cis es
Ġassum ing
ĠNgh á»ĭ
Ġkil os
Ġdiscuss ing
Ġfill ing
Ġcapt ain
Ġann ounce
omm od
Ġcalcul ating
Ġcontinu ously
off s
Ġdemonstr ates
Ġnetwor king
Ġsal ary
Ġmatch ed
ĠTo Ã¡n
Ġcelebr ated
Ġhall s
Ġtransport ed
Ġdispl ays
Ġ194 0
Ġphilosoph ers
irt ual
ĠKing dom
Ġhyp oth
Ar thur
ĠMont erey
mon th
Ġvot es
ĠMal ays
Ġbul b
Ġprior ities
Ġheav ily
ĠTrans ition
ĠSwed ish
ĠAc centure
ĠCr itic
Ġ195 7
ĠDi am
Ġacceler ate
ĠMah atma
Pr ince
Ġmicrob log
Ġcup s
Ġmyth s
bre aking
Ġpoem s
Ġdish es
Americ ans
Ġwitness ed
Ġmá»ī m
Ġreven ues
Ġsacr ific
Ġprem ise
Ġdict ators
Ġimplement ed
Ġrub ber
Ġattrib utes
Ġabsor b
Ġanticip ate
Ġabund ant
ĠNet flix
Ġdecre ase
Ġutter ly
Ġdisrupt ive
ĠAch ill
Ġstatist ical
Ġles bian
Ġdisag ree
Ġschem e
Ġyog a
Ġintim acy
ĠMass achusetts
ĠUkrain e
rover ts
ĠMell on
Ġsyring e
Af ric
Ġgramm ar
Ġbam boo
Acc ording
ĠCarib bean
ĠCoch rane
ynth ia
Ġtá»Ł m
ĠIK EA
6 5
C T
C Äĥn
H á»ĵi
M ean
P art
S ure
S upp
T B
U S
W as
b urn
b oy
b led
f i
f ig
f und
k h
l am
m ph
n ick
p at
r aph
s burgh
t Ã´ng
v Ãło
¥ c
¯ a
Ĥ n
Ġt Ã½
Ġt Ã²i
Ġc m
Ġc ob
Ġc Æ°ng
Ġc Ãły
Ġc Ãºng
Ġc oding
Ġth orough
ĠÄĳ iáº¿c
Ġs Ã¡p
Ġm áº§u
Ġm ant
Ġm á»Ļc
Ġv áº§y
Ġw ives
Ġw estern
Ġp a
Ġp it
Ġp ix
Ġd Ã¬
Ġd iving
Ġnh am
Ġtr ips
en ny
qu ality
Ġng á»±
Ġng uá»µ
Ġr áºŃm
Ġr á»ĵng
is er
is ol
ch e
ch ar
ĠÄĳá» Ĺi
om y
om ed
om ics
as ive
Æ¡ c
Ġqu ar
Ġqu áº¥y
Ġbe am
Ġbe ep
Th irty
Ġx Ã¡o
Ġx Ã³t
Ġx á»ĭt
Ġre un
Ġra c
Ġst eady
op y
Ġgiá» ¥c
ver b
ĠC reat
ĠC ode
ĠT Ã¢m
th á»±c
Ġlo bby
Ã¹ n
Ġas ham
Ġsh oe
ĠM ove
ĠM ubarak
ĠA ctually
ÄĲ áº¡i
ĠB uy
ĠB á»ĵ
ĠB erg
ĠB uff
ĠB BC
ĠS omet
ĠS add
ĠN obody
ag m
Ġpe an
ĠH osp
ĠH mm
ĠH ello
ĠH amps
Ġde br
um i
el and
og ens
ĠP oll
Ġbá»ĭ t
ĠG ra
ĠG apminder
ĠD D
our se
Ġtim ing
ose velt
ĠK as
ĠK ate
ĠÄĲ á»ĵ
ĠE EG
ĠR ub
ĠR achel
ĠR ussell
Ġper f
Ġman eu
ĠmÃ¡ nh
ĠJ up
ĠJ ava
ĠTh Æ°Æ¡ng
Ġcl itor
ĠW ang
ry st
Ġun w
Ġimp l
ĠV inci
ĠV irtual
Ġprob e
Ġunder go
Ġ5 000
ick r
ick en
Ġpro ved
Ġ10 1
ĠTr iá»ģu
ĠTr áº»
ĠTr icer
Ġgood bye
Ġ19 18
ress ing
Ġcount less
Ġdec k
Ġdec or
Ġgreat ly
Ġdr ama
ĠIn st
per a
Ġev apor
ĠÃ Ķ
Ġ7 50
Ġsl ope
Ġrec k
Ġhand y
Ġnum er
Ġmin erals
Ġsecond ary
oy ota
Ġel abor
Ġreg ional
bo ards
ĠNg oáº¡i
ĠSo lly
Ġprocess or
Ġspace craft
Ġstr and
Ġelect romagn
Ġpop s
ĠX anh
Ġpres um
ĠInd ians
Ġban ned
Ġwond ers
Ġval ve
Ġadd ict
Ġeduc ating
Ġyoung est
Ġ40 1
br ush
Ġ18 8
Ġprot ocol
Ġgu ards
Ġvir ut
Ġequ ity
less ness
Ġfil med
Ġxo a
Ġcontin ents
Ġret rof
Ġchim ps
ĠZ et
Ġoper ated
Ġappro ximately
Ġfre ak
Ġdig ging
ĠCar r
Ġ201 5
Ġexist ential
Ġru ins
ĠchÃ³ p
ĠAs sociation
Ġrecogn izing
ĠMar ia
ĠBe at
Ġcrit ically
Ġdescrib ing
ĠRob b
Ġge o
ĠKen yan
Ġbenef icial
Ġ197 3
Ġ197 9
Ġconcept ual
Ġprom ised
Ġachie ving
ĠCl ay
Ġfunction ing
Ġfair ness
Ġaccount ability
Ġrevolution ary
Ġ196 5
Ġmis under
Ġscreen ing
ĠRe zero
osh ima
wor ks
Ġreturn s
Ġnucle us
Ġdiscuss ed
Ġemploy ment
ĠFl ickr
Ġaccept ance
uf us
ĠDon ald
Ġprinci p
Ġcat ad
Ġlad der
Ġreflect ive
Ġcard iac
Ġmatch es
Ġaddress ing
Ġfold s
Ġpen etr
Ġmotiv ate
Ġinj ust
ĠGl ad
Ġadapt ive
Ġloss es
Ġintegr ity
Ġstrength s
Ġnovel ty
Ġnote book
asse mbly
Ġrequire ments
Ġcooper ative
Ġmamm ography
Ġexpand ed
Ġble w
Ġepid emics
Ġexer cises
Ġtast es
Ġcort isol
Ġfol k
Ġshel ves
Ġstri kes
Ġtick ets
Ġappreci ation
ĠOn line
ĠLad y
Ġinform al
Ġcere br
erge y
ĠKore an
force ment
Ġrig id
Ġreveal ed
cons cious
Ġcock ro
Ġbes ide
ĠbÆ°á»Ľ u
Ġsteal ing
Ġgest ures
ĠrÃ£ nh
Ġmi xt
Ġchamp ions
ĠTy pe
Ġadvoc ate
ĠRoy al
Ġmer it
ĠHir sh
ĠHir oshima
conf lict
Ġtraum a
front al
Ġprec ision
Ġdisappoint ed
Ġexplo it
Ġrenew able
ĠFried man
Ġscream ing
Ġtrop ical
ĠIM F
ĠEconom ist
Ġbutt ons
Int erest
Ġfet us
Ġenterpr ise
Ġchron ic
Ġfib ers
Ġpercept ions
Ġchec king
Ġoy ster
Ġcontag ious
Ġastero id
Ġdivor ce
ĠThu áºŃt
Ġanatom y
Ġtheore tical
Ġhorizont al
Ġcham ber
ĠGord on
Child ren
Tw enty
Ġfundra ising
Ġmultip ly
ĠCharl otte
Ġcatastroph ic
ĠIll ino
Ġnightm are
ĠOdys seus
ĠeB ay
Ġanten na
ĠÄĥ ng
ĠPitt sburgh
Ġpenc il
Ġparach ute
ĠEmp ire
Ġtsun ami
mass ive
ĠMalays ia
Ġasham ed
ĠHamps hire
ĠJup iter
ĠTricer atops
4 00
B i
C á»ĳ
C ont
D es
D Ã¢n
D á»±a
F ortunately
I Y
J eff
M ake
M att
T ell
T áº¥m
Y R
b one
c ott
j an
k er
m i
o it
p u
p ay
r ison
s um
s ize
w ick
y ou
z Æ¡
Ġ #
Ġt weets
Ġc attle
Ġn ail
Ġn asty
Ġa ort
Ġl áº§y
Ġm es
Ġm and
Ġm ating
Ġb Ã´i
Ġb áº§m
Ġh á»ĳc
Ġv Ã´i
Ġv Ã¡c
Ġv iá»ģn
Ġw are
Ġp ose
Ġp ne
Ġp iss
Ġg al
Ġg erm
Ġg ym
Ġd ivid
er ness
Ġtr ap
Ġtr iá»ħn
nh e
Ġch áº£i
Ġch iáº¿t
Ġto ken
Ġr Ãł
Ġin sec
is co
ar cer
ll ow
Ġe ase
Ġe rect
Ġe go
Ġkh á»ĳng
Ġgi un
Ġx Ã¢u
Ġx áº¯n
Ġre vers
ct ar
ur i
ur k
Ġra ins
ĠC y
ĠT ell
ĠT áº¡ng
ĠT oday
ĠT oyota
Ġlo ads
Ġab road
Ġso ck
Ġsh ed
ĠM inh
ĠM ake
Ġne ctar
ÄĲ Ãłn
ĠB á»©c
ĠS I
ĠS W
ĠS iÃªu
ĠS ix
ĠS up
Ġpe cul
ĠH al
ĠH um
ĠH ard
ĠH uck
Ġde pr
um en
ure ka
if i
ob e
og an
ĠP a
ĠP ur
ĠP yth
ĠG irl
au g
au nt
Ġup gr
Ġwho ever
ĠL as
ĠL oáº¡i
ĠL arry
ĠD IY
ib a
are foot
ĠK hÃ
ĠK in
Ġcomp ens
ĠÄĲ Ã´n
Ġworld view
Ġexp ense
ff e
ĠJ oh
Ġsomet ime
ĠTh Æ°a
Ġhapp iest
ĠW ood
Ġun iqu
Ġun seen
Ġun imag
Ġno isy
Ġgr an
Ġimp ulse
Ġover night
ount ered
ĠV áºŃt
Ġco h
ple x
ult ural
Ġ5 6
Ġtrá» Ľ
Ġtrá» Ĺi
Ġbl u
Ġgood ness
Ġbo ards
Ġsy mm
Ġhum ility
Ġ19 20
int egr
Ġpre frontal
Ġproblem atic
Ġinc ub
Ġinc arcer
There fore
Ġcr ushed
Ġdec iding
ile o
Ġfl esh
Ġind irect
ri ages
Ġthought ful
Ng uá»ĵn
Ġev olving
Ġtá»¥ i
Ġgl ue
Ġplay ful
Ġplay ground
Ġinter connect
Ġsl ice
Ġrec ur
Ġcons ent
Ġcons ol
Ġhand ful
oth y
Ġduy Ãªn
erg arten
co al
Ġgener ating
io let
Ġreg ulation
Ġreg ister
Ġsk ys
Ġsing ers
Ġform ation
ĠAl b
und red
Ġcou ples
ĠHe b
ĠPh ill
Ġ18 7
Ġpolit ically
ĠGo og
Ġlab els
Ġglobal ized
Ġequ als
ĠSh ah
Ġloc om
Ġloc ally
Ġsix th
Ġtreat y
Ġmust ard
Ġneur ological
Ġgh im
Ġgh ost
Ġes cal
ĠchÃ³ i
Ġdraw s
Ġenc ountered
Ġocc as
ĠMar co
Ġchá»ĵ n
ĠBe au
Ġpull s
Ġinvent ors
Ġpost ure
Ġhor ror
Ġsustain ed
ĠQu ay
Ġtri ang
Ġrepl acing
Ġang les
Ġactiv ated
Ġ196 2
Ġprim ates
Ġunf old
Ġunf ortun
Ġreport ing
Ġadm ire
Ġstick y
Ġprison er
Ġcharacter istic
Ġsan ct
Ġspeed s
Ġrespond s
Ġlabor atories
Ġann ivers
omm y
Ġthr illed
Ġmir rors
Ġeth ics
Ġoptim al
Ġpros pect
Ġalg ae
Any body
Ġvict ory
Ġanaly t
Ġanaly zing
Ġmut ation
ĠTalk s
Ġsad ness
Ġtherap ist
Ġconsid ering
Ġmagaz ines
Ġattempt s
Ġconvin cing
Ġconcentr ate
ĠLin us
Ġinvestig ation
que z
Ġiron y
Ġiron ic
onym ous
Ġpow der
Ġshad ows
Ġbon ob
Ġtox ins
Char lie
Ġoccup y
Ġske leton
Ġsem i
Ġinstinct s
ĠCount ry
Ġmemor ial
Ġempower ing
Ġempower ment
ĠVi king
ĠRiver side
Ġrating s
Ġathlet ic
Ġprost it
Ġcompl ain
Ġsurve ys
Ġcoc aine
Ġintent ions
Ġcens orship
Tá»ķ ng
Ġwip ed
ĠJud y
Ġrepeated ly
Ġtherm al
Ġenh ance
Ġlegit imate
ĠLes ters
Ġinherent ly
Ġirre levant
Ġphthal ate
ĠnhÃ´ m
Ġsubs id
Ġcorrel ation
Ġsett led
opo ly
Fr ank
ĠchÃ© n
ĠKle in
Ġcybercr iminals
ĠBuddh ist
Ġepis ode
ĠCase y
ĠDevelop ment
Ġarbit rary
ĠOtt oman
iov ascular
ĠDef ense
Ġapolog ize
ĠDenis ov
Similar ly
Ġreput ation
ĠBarb ara
ĠNorweg ian
ChÃ¡ u
Ġjung le
Ġintang ible
Ġdemograph ics
Ġunpredict able
ĠGill ian
ĠGeorg ia
ĠCoh en
Ġalumin um
ĠRedd it
Mean while
ĠHosp ital
Ġclitor is
Ġcerebr al
ĠIllino is
Ġpne um
Ġpecul iar
A C
B on
B ig
B oy
C al
C lear
D J
E ight
F re
H áº³n
J ay
K iáº¿n
R W
S uy
S ad
T H
T áº¿
T ry
V á»ĭ
b ut
c ow
g ill
j ah
l come
m udd
n Ã´
o an
o ac
o xy
p it
p ers
p ack
r ant
s or
s ight
s peed
u an
w all
x on
y les
Ġ áºŃp
Ġt á»Ļt
ĠÄĳ áº¯c
Ġa rous
Ġs áºŃp
Ġl ou
Ġl ap
Ġl ately
Ġl áº«y
Ġb Ãłnh
Ġb Ãłng
Ġb Ã¡ng
Ġb ip
Ġb onds
Ġh id
Ġv Ã¡
Ġv Å©ng
Ġv iá»ĩt
Ġw oo
Ġo v
Ġo we
Ġp ulses
nd ane
Ġg áºŃt
Ġg ains
Ġg iá»ģng
at us
Ġd áº¥n
Ġnh Æ°á»£ng
ou l
Ġch áº±ng
Ġch ord
Ġch asing
on ie
an cer
en berg
Ġng Æ°á»Ľc
Ġng áº·t
ot al
es ar
Ġf ame
Ġf ired
or ity
al ities
ar o
ch i
in id
in ators
in ema
om er
Ġe ighth
Ġqu Ã¡ng
ld er
ig g
Ġst er
Ġst are
Ġst ones
Ġst icking
Ġst eak
im i
im eters
ere nd
ere my
ĠphÃ ´ng
ver bal
ol is
ĠC ass
ĠC old
ĠC level
ĠT er
ĠT áº¿
ĠT ra
th áºŃt
Ġho ly
Ġho bby
Ġlo ans
od d
Ġgo at
Ġse ctors
Ġso cc
ĠM u
ĠM ard
ĠM ak
ĠM ax
ĠM BI
Ġhe h
Ġhe ct
ĠA gnes
il ia
ĠB alk
ĠB á»ĳn
ĠB arefoot
ĠS ay
ĠS ag
ĠS Ã¡u
ĠS orry
ĠN Ã´
ĠN av
Ġme erk
ore n
ag asc
ĠH ud
ĠH ell
ĠH itler
ind ing
Ġal le
og h
ĠP ent
un a
ĠG am
au c
ĠL y
ĠL áº¡t
ĠL ittle
ĠL abor
ĠD or
our i
our cing
ĠK ap
ĠK night
ĠK abul
ĠE r
ĠE van
ĠE DI
Ġle ak
ĠR ain
ĠR iley
Ġexp ose
app iness
Ġmu ndane
ĠJ ason
ĠTh ree
Ġcl im
ry n
Ġgr ant
Ġimp aired
ĠCh en
ound ing
Ġover look
ĠO hio
Ġdis par
ĠV iáº¿t
ĠV enter
ign ant
Ġcont ained
Ġres ur
ial s
Ġbl own
Ġad vers
ĠTr á»ĭ
ĠTr uyá»ģn
Ġnguy á»ĩt
Ġpre val
Ġkhu áº¥y
Ġoff sh
Ġsc al
Ġsc roll
ĠNh áº¥t
Ġvi able
Ġcr ap
Ġdec lining
Ġdr illing
Ġbrain storm
Ġapp et
ĠSt ation
Ġsoci o
Ġ6 6
ys on
Ġob tained
Ġexam ine
Ġkid n
Ġ8 3
Ġhand ed
Ġacc ommod
Ġ15 00
Ġbeh old
ĠAr m
Ġsk illed
Ġvis iting
Ġconf using
aut h
Ġhead quarters
Ġdist inguish
Ġstand point
Ġmark s
ĠBr other
Ġchar coal
Ġcor rid
eg al
aterial s
Ġmem e
Ġpar liament
Ġthá»§ ng
Ġass et
Ġret urning
Ġview ed
Ġinnov ators
Ġgh á»ģ
Ġident ities
Ġpred ator
ook ie
Ġarg ues
enn ett
Ġtrad ing
Ġsupport ive
cl air
Ġmult iverse
Ġreach es
vent ually
ĠHar ris
yr ne
Ġtravel s
Ġ198 3
Ġbar b
Ġbar rel
umb led
Ġnice ly
Ġcy m
ĠQu Ã½
iet ies
Ġcolor ful
Ġslow ing
Ġsn ake
chan ical
Ġprom ising
Ġtransform ative
Ġcop ying
Ġemp ire
Ġrepresent ing
ĠCl onie
Ġmob il
Ġbact er
Ġtransl ator
Ġrock ets
Ġste am
Ġste ep
Ġsociet al
Ġvari ables
Ġáº¢ o
Ġcollabor ators
Ġsan itary
Ġsepar ation
Ġaccept ing
Ġfell ows
Ġjud ges
Ġdeterm ination
Ġstrugg led
Ġbal anced
gr aph
Ġroll s
Ġmagn ets
Ġmagn itude
ĠNe il
ĠNe umann
Ġcontrib utions
ĠSe b
Ġcard iovascular
Ġremind er
ĠHy der
Ġcheck list
Ġord ered
Ġsequ ences
Ġphenomen al
ĠEl vis
Ġcampaign s
Ġenorm ously
ĠMin nes
Ġ194 9
ĠMars hall
Ġgift s
Ġbroad er
ĠPer ry
Ġcrowd s
ĠCE RN
add y
Ġmouth s
Ġ36 5
Ġpet als
ĠTor aja
Ġsym phony
ĠUS DA
ĠStan ley
Ġclimb ed
Ġfrequ encies
ĠEx xon
Ġmotor cy
Ġstim ulate
Ġinvestig ate
ĠNot hing
Ġhero ic
Ġprototy pes
Ġharm ful
Ġgrav it
uls ion
Ġacceler ating
Ġdisp ers
Ġpregn ancy
ĠBon o
ĠBon nie
Ġsatisf ying
Ġreprod uction
Ġpoly mer
Ġgall on
Ġgall ery
ĠScott ish
Ġdict ator
Ġconver ted
Ġimplant ed
Ġhur ts
ĠColl ider
Ġtort ured
Br ian
Ġtight ly
ĠBudd ha
Ġinterf aces
Ġcolum ns
Ġchamp ion
ĠRo osevelt
Ġweigh s
ĠSer ra
Ġappeal ing
Ġaccum ulate
Ġtatt oos
ĠHel en
ĠMoz amb
eff ective
ĠHad ron
Ġimper ative
Ġatom ic
ĠHam let
ĠOs ama
Ġlegit im
Ġconven ient
Ġgrat itude
ĠJu an
Ġassess ment
ĠMos cow
Ġbiote chnology
Ġannoy ing
ĠMedic ine
Ġneuroscient ist
Ġbasket ball
Ġguerr illas
Ġpunish ment
Ġthylac ine
ĠHind u
Ġadolescent s
ĠWind ows
ĠDAR PA
Ġinterven e
Ġpropag anda
ĠGay la
giá» Ŀ
ĠSin clair
Pre tty
ĠDav is
ĠNI H
ĠBil bao
Ġalph abet
ĠPic asso
ĠKos ovo
ĠColor ado
Ġency clopedia
ĠSpl ashy
intu itive
Ġdebr is
Ġinjust ice
ĠSup reme
Ġunfortun ate
Ġannivers ary
Clear ly
mudd in
Ġsocc er
agasc ar
ĠMinnes ota
6 4
9 8
A lex
A my
B R
B iá»ĥu
E ng
G od
H iá»ĥn
K áº¿
K evin
M artin
O thers
P L
R ory
R achel
S uá»ĳt
S cient
S eb
S even
T á»ĳi
T á»Ľi
T uáº§n
c os
g reat
g roup
h uman
k ut
l ined
m Ã´n
m aster
n ish
o ors
s aving
t w
u ci
v iolet
w ear
z one
Ã ©c
Ġ @
Ġ Ã¡
Ġ Æ¯á»Ľc
Ġt áº£n
Ġt áº·c
Ġt oss
Ġt Æ°á»Ľi
Ġc áº©m
Ġc ement
Ġc Ã²i
Ġth áº¹n
Ġn ic
Ġn á»ĵi
Ġn Ã¡o
ĠÄĳ áºŃy
ĠÄĳ áº¯p
Ġa ph
Ġs áº¹o
Ġl ion
Ġl ÃŃt
Ġm ao
Ġm áº·n
Ġb Ã£
Ġb ass
Ġh iÃªn
Ġv uá»ĳt
Ġv iáº¿ng
Ġw olves
Ġg reet
Ġg aining
at ible
at ivity
Ġd read
Ġd uty
Ġd ancer
Ġnh ai
Ġnh á»įc
Ġtr Æ¡n
Ġtr Ã¹
on ies
ing ing
an ium
Ġf MRI
ch ing
in cent
in ner
ay ing
as ant
ve t
ic se
á»± u
ut u
Th ings
Ġre o
Ġre nd
Ġre ct
Ġra bb
Ġst ir
Ġst agg
ere rs
Ġfor cing
ol s
st ory
st yle
st airs
ĠC art
ĠC uá»ĳi
ĠT Ãªn
ĠT ower
ĠT erence
th at
th ood
Ġho c
á»¥ p
Ġlo be
Ġpr Ã´
Ġse am
Ġse als
Ġse aw
Ġsh orter
ĠM O
ĠM áº·c
ĠM áº¡ng
So on
ĠA th
ĠA ctor
ĠA BC
ould er
Ġne arest
ĠB it
ĠB ion
ĠB eh
ĠS ac
ĠS hi
ĠS ave
ĠS erv
ĠS uf
ĠS isy
ĠN in
ag ra
Ġj okes
art ed
ĠH em
ĠH oll
ess ica
Ġde er
Ġde ception
um ental
ist ically
and al
ob ic
Ġal ar
ie u
ĠP i
ĠP et
ĠP ach
ĠP av
ĠP ran
ĠP ants
all ing
á»ģ u
Ġbá»ĭ ch
au x
ĠL ai
ci als
ĠD ow
ĠD ec
Ġká» µ
Ġsu Ã´n
ard ed
ĠK a
ĠK end
oc ation
Ġcomp osition
ĠÄĲ Ãłi
ĠE st
ĠE xt
ĠE nce
ment ation
ĠR a
Ġ3 9
ĠF ield
ĠF ortune
ĠJ R
Ġdiff er
ĠW ired
ĠW onder
so cial
Ġimp ose
ro vir
ĠCh op
Ġdi arr
Ġnew ly
Ġco ch
Ġco in
Ġkind ergarten
ĠU h
Ġbl ink
Ġgen ital
Ġreal ities
ark s
Ġpre ced
Ġpre cip
ĠY Ãªu
Ch á»¯
Ch ryst
lect ion
ak a
ak h
ars h
av ard
Ġcr ied
ons ense
Ġind oor
Ġind oors
ĠSt op
ĠIn formation
ĠQ ua
Ġinv itation
ri k
Ġcour ts
ĠTED ster
Ng Ãłnh
Ġmean ings
be e
Ġgl uten
Ġgl orious
Ġwr ink
When ever
Ġquestion ing
Ġcre am
Ġmon ster
Ġpat ri
Ġbi ased
Ġmom s
Ġexpl ode
oll s
Ġfar ther
Ġreg ulate
Ġconf ined
Ġanim ations
Ġfun eral
Ġrep orter
ĠHe ad
Ġweb cam
Ġmen u
Ġsound ed
ĠPh á»ĳ
ĠHo Ãłn
Ġeduc ators
Ġprot ests
ĠBr others
Ġmor ph
Ġhope ful
Ġprof itable
Ġfil ters
Ġsw am
rop olitan
Ġpay ments
Ġconst rained
Ġfront ier
ik i
Ġliter al
Äĳ i
Äĳ Ã£
uss ion
ium ph
Ġident ifying
Ġappro val
Ġshort ly
Ġterr ific
ook s
Ġdream ing
enn a
apt op
Ġ201 4
Ġfight s
Ġpract ically
Ġfac il
ĠFr iend
Qu ÃŃ
Ġsuper ior
Ġsurv iving
Ġsqu id
ĠIran ians
ChÃ ¢u
ĠAn thony
ĠLe o
Ġ198 2
Ġsum s
Ġpoor ly
Ġmeasure ment
ĠGi Ã¡m
ĠBl air
lu id
Ġjo ining
Ġtext s
ĠRob icse
Ġpath way
Ġsn eak
Ġprom ises
ĠSch w
Ġcop per
Ġrepresent atives
head s
Ġemerg es
Ġmis ery
Ġtransl ating
Ġintrod ucing
Ġdin osaur
Ġste pping
ĠAll en
ĠRe agan
Ġvari ations
Ġswe eping
ĠÃģ o
Ġcat aly
Ġsurg ical
gr and
gr ass
Ġrespect ed
Ġdeliver ing
Ġly mph
Ġwilling ness
Ġport ray
ef in
Ġtrick y
Ġcard board
Ġsequ encing
Ġdispl aced
Ġdocument ing
ĠEn viron
Ġax es
Ġjournal ism
ĠphÃ¬ nh
udd y
Ġden ied
Ġavoid ing
Ġappl ies
ĠLu ke
ĠJust ice
Ġpet ition
irl wind
ĠMal awi
Ġflight s
Ġillness es
Ġaltern atives
Ġhost ile
Ġattempt ed
Ġgrab bed
Ġtun a
ĠJo ey
ĠOn ly
Ġgard ens
Ġflo at
Ġindic ate
Ġmigr ation
Ġcoast al
Ġcartoon ist
ĠRep ort
Ġrecy cle
Ġvibr ating
Ġpil ots
Ġju ven
Ġide als
ĠFre ud
cast le
Ġeld ers
Ġquiet ly
Ġphr ases
Ġath lete
Ġacqu ire
Ġscar city
ĠBu ilding
Ġconsist ently
PhÃ Ńa
Ġresil ient
Ġtank s
Ġflex ibility
Ġneut r
Ġthumb s
Ġbee keepers
Ġasse mbly
Ġdesper ate
Te chnology
worth y
ĠMiss ouri
ĠColl ins
Ġparas ites
Comp anies
Ġhousehold s
Ġeradic ation
Ġflour ish
Ġreson ance
ĠDu ol
Ġprotocell s
Gia i
Ġdiam eter
Ġtempt ation
Ġpurch ase
pro of
Ġimprov ise
Ġredef ine
Ġultra violet
Ġmaxim um
Ġupd ate
Ġunemploy ed
Ġamate urs
Ġbatt les
nut rition
Ġbuck et
lad us
Ġingen uity
Ġcarr ot
ĠNiger ian
Ġrh et
pos itive
Ġvel ocity
Ġdilem ma
Ġdiagnost ic
Ġpedest rian
ĠKent ucky
Ġendeav or
resist ant
Ġarter ies
Ġremitt ances
Ġthá»ī u
Ġelabor ate
ĠZet as
ĠClevel and
ĠHyder abad
ĠMozamb ique
ĠSisy ph
ĠEnce ladus
ĠRobicse k
2 4
7 00
9 5
B u
B á»ĳn
C áº£nh
E L
E ventually
F L
H P
H ar
J K
J oseph
K ids
L á»ĭch
L arry
M á»©c
N T
N am
O V
Q uyá»ģn
S inh
T ony
T ogether
U lt
V Äĥn
a very
b ro
b ell
c Å©ng
d epend
f ight
i ens
i xt
j udice
m od
m ile
m etic
n o
n ame
o ven
p ite
p ox
t ent
t aining
u ates
u per
z o
Ġ q
Ġ áº§m
Ġ ÃŃn
Ġt read
Ġc od
Ġc ul
Ġc Ã¢m
Ġc ues
Ġc odes
Ġth Ã¬nh
Ġn ang
Ġn ai
ĠÄĳ Ãª
Ġa er
Ġs áº¡c
Ġl á»ĳ
Ġl á»Ļng
Ġl iá»ħu
Ġm um
Ġm asters
Ġb ust
Ġh Æ°Æ¡
Ġh áº¯c
Ġh Ã¨n
Ġv v
Ġv ig
Ġv ending
Ġv icious
Ġk á»ĭ
Ġk iÃªu
Ġp ity
Ġp ond
Ġg á»ĵ
Ġg Ã´n
Ġg áº§m
Ġg osh
at in
Ġd áº¥y
Ġd im
Ġd ates
Ġd oses
Ġd uration
Ġnh áº½
Ġtr á»ı
Ġtr iumph
Ġch anh
an ol
an cial
Ġng áº§n
ot ent
es ters
Ġr Ã¡ch
Ġr Ã²ng
or king
Ġin ade
is c
is an
is econd
Ġcá» Ĺi
ĠI D
ĠI stan
Ġe ureka
ic ations
Ġph ao
us se
Ġqu áº³ng
Ġbe ats
Ġgi ang
et ical
Ġx á»Ł
Ġre ndering
And rew
ang el
Ġhá»į ng
Ġst ew
Ġst airs
Ġchá» ķi
se a
ol ph
ir ms
ir atory
ĠC orn
ĠC apt
ĠC á»§a
ĠT i
ĠT ar
ĠT ide
ĠT iá»ģn
ĠT ulu
ĠT roy
ad ition
ĠM t
ĠM ao
ĠM ost
ĠM aps
ĠM Ã¹a
ĠM olly
ĠM achine
Ġcom a
Ġne o
ĠnhÃ ¬
ant ing
ÄĲ áº·t
ĠB all
ĠB áº£y
ĠB agh
ĠB yrne
ĠS ex
ĠS ev
ĠN ev
ĠN icholas
Ġj un
ac ent
art s
ĠH á»ĵng
ĠH avard
ĠH usse
ear d
Ġor b
Ġor th
el i
el le
ie ber
ie val
ĠG er
ĠG iff
ĠG owan
ich e
ĠL áº§n
ĠL á»ĭch
ĠL ock
ci um
ĠD M
ĠD olly
Ġsu ey
ack er
ĠK id
ĠK á»¹
ĠK urd
ĠK alu
ĠK now
ĠÄĲ á»ĳi
ĠÄĲ Æ°a
ĠE iff
ĠR ufus
Ġdon ated
itt ee
ĠF arm
ĠJ ose
ĠJ amie
ĠTh ung
Ġcl oth
Ġdiff usion
Ġun re
Ġun ite
Ġno ises
ge b
irst ream
ro ots
ĠCh ap
ound ed
ass y
ĠO z
Ġdis connect
ĠV erm
ec ess
Ġac res
Ġcont est
ult ure
Ġpo ets
Ġunder t
Ġres id
Ġbl essed
Ġbl oop
Ġdes ires
Ġad equ
ĠTr ust
ĠTr ade
Ġsc oop
ak sh
chn ya
Ġown s
ĠIn f
ĠQ uyá»ģn
Ġins ult
Ġ6 3
Ġafter ward
Ġcar pet
Ġcar cin
Ġba zÆ¡
Ġtrans istor
Ġbas ement
Ġláº½ o
ĠAnd y
Ġinter section
Ġinter rog
Ġent rance
Ġ7 3
Ġsl um
Ġrec ove
atch er
Ġschool ing
Ġ8 8
Ġbit ter
iss ipp
Ġdevelop ments
Ġmod ified
Ġnum b
Ġbi kes
Ġbi osphere
Ġbi och
Ġbi ologically
Ġngá» £p
Ġcare ers
Ġcontr ad
Tr ang
pr op
Ġear ned
Ġsing er
ruct ive
Ġstr ain
Ġconf irm
sw ana
Ġorgan izing
Ġenerg etic
ĠAl ger
vern ment
ĠHe ather
ĠIs a
ĠHo ff
Ġmor ally
Ġmodel ing
Ġdef icit
Ġcertain ty
Ġpos ed
Ġremember ing
Ġmar riages
Ġass ure
Ġche f
Ġwa king
Ġwa ited
Ġview ing
Ġfront al
Ġprov ocative
Ġmarket place
Ġpred ators
Ġcal cium
uck ily
ĠCar gill
Ġpersonal ities
Ġfight ers
Ġfac ulty
Qu Ã¢n
Ġsuper computer
Ġsuper massive
Ġchem otherapy
Ġ17 0
Ġspecial ist
Ġspecial ists
ĠAs s
Ġ198 7
Ġrecogn izes
ĠWorld W
Ġcomb inations
Ġhot ter
Ġpoll ut
ĠQu áº§n
Ġconcept ion
Ġtransform ations
Ġplant ing
Ġball ot
let t
Ġperiod ic
ĠBrazil ian
eth eless
Ġsá»¥ t
ĠMich oac
Ġarm or
Ġ196 8
Ġprim al
Ġintrod uces
Ġinflu ences
Ġcirc ulation
urg a
Ġemploy ee
Ġpack aging
ĠDan ish
ĠDan ny
Ġwild erness
Ġcat al
ĠGiá» įng
ĠSe an
Ġassoci ation
Ġstar vation
ĠDar fur
af i
Ġautom atic
Ġcand le
Ġadapt ed
Ġbreast s
Ġtown s
Ġliber als
Ġ194 8
ĠSau nders
ĠLib by
Ġnovel s
Ġsuc ks
me ister
ĠGab riel
Ġsymbol ic
Ġble eding
Ġreward ed
Ġshut tle
Ġpartners hips
Ġmill isecond
hold ers
ĠMad agascar
ĠMor gan
Ġque en
Ġmigr ate
AR S
Ġchart s
Ġfrustr ation
cipl inary
Ġappropri ately
Ġsetting s
Pr obably
Ġpure ly
Ġqual ified
Ġve il
Ġacqu is
Ġroof s
Ġminim al
ĠBrook s
Ġagg reg
ĠDen mark
Ġobst acle
Ġhypothes es
Ġstoryt eller
Ġembarrass ed
Ġwash ed
Ġfrog s
Ġrush ed
ĠSen egal
Ġben ign
ĠJac ob
ĠJac ques
Ġheaven s
Ġclub s
Ġdatab ases
Ste ve
Ġevalu ate
Sp ace
ĠAv iv
wr iting
Ġrainforest s
Ġadopt ion
ĠFar mer
ĠBroad way
Ġcraft s
ĠBud rus
Ġgee ks
ChÃº a
Ġimper fect
ĠShir ley
Ġsulf ur
Ġrecept or
Ġreef s
ĠRad io
Ġnurt ure
ĠMod ern
Ġstatist ically
friend ly
Ġunemploy ment
Ġamate ur
Ġambig uity
ĠMot or
Ġcareg ivers
Ġdood ling
Ġspont aneously
ĠChe chnya
Ġmathematic ians
Ġprol ifer
Ġje ans
Ġcompreh ensive
Ġguid ance
ĠJama ica
Ġcoinc idence
Ġsurviv ors
ĠConf erence
ĠWhit acre
Ġjan itor
Ġconsp ir
orient ed
Ġincom plete
ĠSecret ary
Ġaccompan ied
Ġcreep y
Ġparag raph
ĠPhilipp ines
ĠViv ian
Ġlaund ry
spec ific
Ġcathed ral
ĠÄĳá»± Æ¡c
Ġspat ial
ĠAlt os
ĠDiam ond
fund ed
ĠSadd am
Ġmixt ure
Sad ly
ĠCass ini
ĠSag meister
Ġseaw ater
ĠDuol ingo
Ġinade qu
ĠIstan bul
ĠBagh dad
ĠHusse in
ĠGowan us
ĠKalu za
ĠEiff el
aksh mi
Ġrecove red
issipp i
1 6
1 7
4 8
A dd
B re
B iáº¿t
C Ã¢y
C onsider
D ar
D ay
H O
H ope
J ack
J osh
L a
L uckily
M a
M uch
N Äĥng
T ext
X Ã£
Y ves
b ag
b ab
b ach
c ap
c Ã²n
e or
g reen
k ill
l ider
m al
m el
n ormal
o a
p ound
r ust
s en
s entially
u ated
v ance
z s
¨ ng
ħ u
á» «a
Ġt ips
Ġt urt
Ġc inema
Ġth Ãł
Ġth Ãªu
Ġth áº¡c
Ġn Ã²ng
Ġn áº¥ng
ĠÄ Ĥn
ĠÄĳ Ãºt
Ġa the
Ġs wo
Ġs essions
Ġl ent
Ġl áº¡y
Ġl emon
Ġm iÃªn
Ġm Ä©
Ġm Æ°á»Ŀng
Ġb Ãº
Ġb unk
Ġb aker
Ġv ect
Ġw re
Ġo k
Ġo ve
Ġo wl
Ġk i
Ġk ar
Ġk Ã¨n
Ġp ies
Ġp iv
Ġp av
Ġp ension
Ġg áº·m
Ġd um
Ġd Ã¨
Ġd ash
Ġnh áº¥m
Ġtr Ãºt
en ment
es is
Ġr á»įi
Ġr áº¡c
Ġr áº©y
Ġf est
al one
Ãª t
is ive
it o
in ished
om on
ĠI T
ll ular
Ġe ternal
Ġph u
Ġph áº«n
Ġqu o
Ġta gs
Ġkh á»Ŀ
Ġbe ast
Th áº¥y
Ġtá» ©
Ġx Ã³i
Ġre w
id t
id al
am y
Ġcho re
Ġst arch
im ents
im edia
Ġgiá» ħu
ol o
ĠC L
ĠT op
ĠT á»ĳi
ĠT ÃŃnh
ĠT own
ĠT urn
th áº¿
ad er
Ġlo Ã©
od s
Ġab alone
Ġcan n
Ġso fa
ĠM au
ĠM any
Ġwor ship
ĠA x
ĠA ward
Ġcom ed
ul ed
ul ously
ĠB in
ĠB Ãªn
ĠB est
ĠB ond
ĠB eth
ĠB usiness
ĠS n
ĠS ony
ĠS oph
ĠN ight
ĠN ath
ĠN ever
ĠN ext
ĠN SA
ĠN atural
Ġnot icing
Ġall ies
Ġj ury
ĠH ills
ab b
Ġsá» «ng
ect s
Ġal ter
ink y
ie ly
Ġint end
ĠP as
ĠP ine
ĠP ope
Ġma f
Ġte nder
Ġbá»ĭ p
ĠL yn
ci le
ĠD Ä©
ĠD ew
act or
ib l
Ġthu á»Ł
are r
ĠK nee
iv ia
ĠE b
ĠE t
ĠE nd
ĠE ll
ĠE ven
ĠR ou
ĠR ead
ven ue
Ġper m
Ġper se
Ġdon ation
Ġman ages
Ġfe ver
ach t
ach ed
ach ers
Ġen ab
Ġen forcement
ĠF ly
ĠF air
ĠTh Æ°
ĠTh ink
ĠTh ings
Ġcl icking
Ġun ity
Ġun int
Ġun equ
Ġun cover
Ġgr im
Ġgr ip
Ġgr ape
fe ller
Ġbu Ã´ng
Ġimp ressed
ro at
Ġstart ling
Ġar c
ĠCh áº¿t
ĠCh icken
Ġdis cl
ĠV o
ĠV er
ĠV ill
ĠV el
Ġback s
Ġres erves
ict ions
Ġad ren
ĠTr anh
Ġhum p
Ġhum ble
ish n
ip e
Ġpre judice
Ġsc ram
av in
Ġdec omp
Ġsur plus
ric ane
Ġind ul
Ġind igen
ĠIn uit
end o
ri et
Ġ6 2
Ġsch olar
Ġ9 2
Ġimag inary
Ġlearn s
ĠNew castle
Ġcell ul
Ġmet ric
Ġfin ishing
Ġread s
cept ible
Ġsmall pox
Ġed itors
ah n
Ġbus es
Ġreg ain
ĠAr iely
Ġstr ains
gg er
Ġconf usion
Ġorgan izational
Ġcou mar
ĠIs n
ĠPh Æ°á»£ng
Ġcult urally
br and
Ġhalf way
ĠGo ering
Ġlist ed
aw a
Ġbre w
Ġequ ipped
eg as
Ġcha otic
Ġspend s
Ġwonder fully
Ġret ired
Ġrad ius
ĠZ ipcar
Ġav atar
Ġabs urd
get own
Ġpot ent
Ġpot ato
Ġsurpr ises
Ġcoll agen
Ġoil ed
sh aring
sh irt
To Ãł
Ġprotect ive
Ġvar ieties
Ġarg u
Ġlim estone
Ġperform s
bor g
Ġexperiment ation
Ġrequ ests
ĠAn ne
ĠMar x
Ġconsum ing
Ġrele asing
ĠSp ider
Ġrespons ibilities
yn man
ĠGe off
Ġpress ing
Ġaren a
Ġlay ing
St ill
Ġkhuy a
Ġpolic ing
Ġsoon er
Ġprog ression
ĠSch war
Ġdepend ence
ĠMc Chryst
Ġemp ir
ĠDe ath
Ġwish es
Ġsea food
Ġep ic
ĠSte in
zz y
Ġclean er
Ġprogress ive
Ġdin ing
Ġthreat ening
rof luid
Ġvirt ues
Ġcollabor ator
Ġkil ograms
ĠPaul o
ĠPaul ing
Ġemploy ed
Ġmist aken
Ġgas oline
Ġaccept able
Ġdisapp ears
Ġcalcul us
erson al
Ġcontrib uting
Ġpark ed
Ġmal nutrition
Ġmatch ing
Ġdiagn ose
Ġsequ enced
Ġexh ilar
Ġgent le
Ġden y
Ġamb ition
Ġvisit ors
Ġrequire ment
Ġtor n
Ġbackground s
Ġvalu ed
Ġchick ens
Ġmamm ogram
Ġrout es
Ġmort g
Ġmid st
Ġalt ogether
Ġtun ed
ĠCho ir
Ġcateg or
Ġentertain ing
ĠTe le
ĠGal ileo
ĠCEO s
ĠNa omi
Ġattach ment
Ġtall er
Ġnegot iation
Ġfle et
Ġreci pes
ĠFre eman
Ġmicros copic
Ġlibr aries
ĠPol and
ĠNan o
ĠJes se
Ġbon us
anth a
ĠGree ks
Ġshall ow
organ ic
Ġmel ody
ĠVen us
Ġsuit case
Ġpray ing
ĠCD C
Ġnegoti ating
ĠMil ky
Cl ay
Ġasse mbled
Ġastronom y
Ġdiscipl ines
ĠDemocr ats
Ġub untu
Ġremem bers
Ġrefer red
Ġinject ion
ĠSand y
ĠRepublic ans
cil iation
Ġdang ers
Ġassist ance
Ġdistract ed
Ġmyster ies
Ġcoord ination
Ġtraum atic
Ġfulf illing
Ġpref erence
Ġpref erences
Through out
Ġknock ed
Ġsketch es
ĠNico le
Ġ185 8
Ġphilanth rop
Ġcigaret tes
Ġdece ased
Ġsumm ary
Ġurg ent
Ġimmigr ants
tz mann
ĠBot swana
ĠPre go
Ġcert ific
Ġaug mented
Ġinher ited
KhÃ ³
Ġdys function
Ġtact ics
ĠMid west
Ġmarg ins
Ġfis cal
Ġastronaut s
Ġunst able
Ġtempor al
Ġsummar ize
ĠGeor getown
Jon athan
Rec ently
Ġconfig uration
Ġjewel ry
Ġartifact s
Ġcalend ar
Ġexquis ite
Ġintric ate
ĠOw ens
Ġswallow ed
roÃ §a
ĠNaj muddin
Ġhypoth etical
Ġprincip al
ĠHirsh horn
Interest ingly
Des pite
Ġuniqu ely
Ġskys cr
inid ad
ĠArm strong
Scient ists
Ġstagg ering
ĠhÆ°Æ¡ u
ĠGiff ords
Ġindigen ous
Ġcoumar in
ĠMcChryst al
3 3
5 9
A L
A ng
A round
D á»¯
E R
G B
G u
H aving
H ello
I ran
J M
J ennifer
L M
L ess
L Æ°á»£ng
M W
M at
M al
M ong
N iá»ģm
N á»Ĺi
N athan
R on
R ad
R ock
R SW
S E
S ec
T y
T Ãłi
T iá»ģn
T á»ī
U E
X e
X Ã©t
b á»ĳn
c Ã¡i
d iving
e er
e id
f ill
f ashion
i ots
k ar
l us
l ived
m illion
m eg
n els
p ical
r áº±ng
r ise
s chool
t á»«
v o
v old
w id
z es
Ġ Æ°á»Ľp
Ġt ales
áº ¢
Ġc Ãµi
Ġn Ã´i
Ġn Ã´n
Ġn áº·n
ĠÄĳ iá»ģm
ĠÄĳ áº«m
ĠÄĳ áº¥ng
Ġs áº£y
Ġs áº¥m
Ġl as
Ġl aughter
Ġm iá»ĩt
Ġb ent
Ġb áº§n
Ġh unch
Ġv Ã³c
Ġv oy
Ġw ages
Ġw allet
Ġo zone
Ġk ite
Ġk iÃªm
Ġp ic
Ġp ale
Ġp oured
Ġg á»Łi
Ġd áº«u
er ic
er art
Ġtr Ã¢u
Ġtr ump
ou ston
Ġch á»ĩch
Ġto aster
en os
Ġr Ãłnh
Ġr áº¡ch
Ġr ings
Ġr áº¡ng
Ġr á»¥ng
Ġf ade
Ġf oster
Ġf aint
or r
Ġin organic
ar ke
ar rett
it ivity
in ator
Ġy ard
Ġvá» ĵ
ay a
ĠcÃ¡ u
ĠI NCRA
ll a
Ġe g
ow ler
Ġqu iz
Th u
Ġx ÃŃt
am ous
ur u
ur ge
Ġra ces
im agine
ol ia
ir able
Ġan om
ith metic
st op
st ep
ĠC a
ĠC ao
ĠC ross
ĠC ash
ĠC ivil
ĠT u
ĠT iÃªn
ĠT ob
ĠT uc
ĠT weet
ĠT reating
th en
Ġho áº¡n
Ġho oked
Ġho llow
ad y
Ġab used
Ġpr aise
Ġcan xi
Ġso le
ĠM Ã´i
ĠM Ãª
ĠM art
ĠM un
ĠM ead
ĠM aur
Ġwor ries
ĠA ires
ĠA irstream
Ġcom ics
ÄĲ á»Ļ
ÄĲ áº¥t
ĠB at
ĠB iá»ĥn
ĠB á»Ŀ
ĠS T
ĠS Ã¡ng
ĠS ach
ĠN ative
Ġfr ugal
Ġex it
ĠH ob
ĠH áº¯n
ĠH ipp
ĠH urt
Ġde ple
Ġde cept
Ġthere by
ist ine
Nh iá»ĩm
ab i
ab l
ab ian
ab ama
Ġsá» ¡
Ġjust ify
ĠP in
ĠP ia
ĠP ri
ĠP eters
ĠP inker
ĠP ascal
un s
Ġsp ear
Ġsp ills
ĠG á»Ńi
ĠG erm
ĠG ogh
ĠL ow
ĠL ind
ĠL Ã¢m
ĠL unch
ĠL aur
ĠL agos
ĠD Ãłn
ĠD yson
Ġpl ugg
ost a
ast ing
ĠK ite
ĠK aren
oc ate
Ġcomp ressed
iv able
reat ed
ĠÄĲ áº·c
ĠÄĲ á»Ŀi
ous ands
ĠE den
ĠE stonia
ĠR un
ĠR idge
ĠR ocke
Ġbr u
ĠcÆ¡ m
Ġfe e
Ġfe as
ĠJ oy
ĠW y
Ġun ch
Ġtrá»į t
ĠCh im
ĠCh uyáº¿n
pt a
Ġover t
Ġover weight
ĠO ver
ĠO la
ĠO ffice
Ġdis connected
ĠV ila
Ġback up
ens ively
Ġco ined
ign ed
Ġam en
Ġ5 9
In ternet
Ġ4 000
ank ind
ict ional
Ġxu áº©n
Ġbl ues
ĠTr Äĥng
Ġnguy á»ģn
Ġpre con
ĠY or
Ġcount y
Ġfl ock
Ġnhá» ķ
Ġtho a
Ġhuman ities
Ġla ure
Ġla zy
he im
Ġ6 50
Ng Ã¢n
be at
Ġhu h
Ġgl ory
Ġgl oves
Ġbas ics
Ġrel uct
Ġwr ites
Ġtra ff
Ġinter sect
Ġent ers
Ġ7 1
Ġcons ists
ix on
iss ance
alth y
Ġmod er
Ġmet an
Ġatt or
Ġlight ning
Tr Ã²
Ġeconom ically
Ġdem ol
Ġproject ed
Ġsk ip
ĠNg uyÃªn
Ġsupp ress
Ġstr ands
Ġcompan ion
ues day
Ġpass port
ĠAl abama
Ġrep et
Ġban anas
ĠHo ly
Ġreason ably
Ġadd ressed
br ight
Ġdet er
Ġwatch es
Ġref ined
iter ate
arth eid
ĠSh ar
ĠSh ould
ĠSh ack
Ġfore cast
Ġfil ming
ocr atic
Ġsuccess es
Ġplanet ary
ĠZ ero
ĠCan al
Ġpot atoes
ĠEur o
Ġcoll ision
Ġpresent ing
Ġcal o
ĠNo ah
enn ium
ann ica
Qu ite
bor ough
ĠPr od
Ġenc rypt
Ġsurv ives
Ġcool er
yl oid
ChÃ ¢n
ĠLe ague
Ġap oc
Ġprofess ions
Ġhon ored
ĠEm manuel
Ġproduc er
Ġinvent ions
Ġpath ology
Ġpoll s
Ġge ographic
Ġtradition ally
li ers
Ġlay s
Ġtri ple
Ġtri angle
Ġ197 6
Is rael
ĠMc M
Ġang els
ĠCl ub
Ġmedic ations
Ġaccount able
ĠBrit annica
Ġadm itted
Ġflu ores
ĠNgh Ä©a
Ġdetect ing
Ġnucle i
Ġcook ies
Ġquot es
igr uten
Ġreflect ing
ax is
Ġmir ac
ript ions
Ġexplore rs
Ġlaunch ing
ĠGu pta
sc reen
Ġurban ization
af a
Ġcheck ed
Ġord ers
Ġhistor ian
ĠFor ce
mm m
Ġdrink s
Ġattract ion
Ġanaly st
ĠJul iet
Ġfing ert
Ġsad ly
Ġver ge
Ġver bal
Ġappl ause
Ġcrowd ed
Ġblock ed
Ġrecon ciliation
tr ans
Ġparad ise
Ġindustrial ized
Ġmamm al
Ġgrandm others
atr ick
Ġhabit ats
Ġefficient ly
oca ust
Ġinstall ations
ĠBab y
vention al
Ġbattle field
Ġadvert is
Ġstrang ely
Ġflo ors
Ġroot ed
Ġcrack ed
Ġfrustr ating
Would n
Ġcosm os
Ġconcl usions
Ġentrepreneurs hip
Ġreci pr
Ġreview s
ĠHans en
hai red
ĠSl ow
Ġgrass roots
Ġdrag ged
Ġminim ize
Ġsatisf y
ĠhÃ£ nh
ĠBu enos
ĠBol t
ĠJim my
Ġoccup ation
Ġnit rogen
Ġpip e
Ġpoore r
Ġignor ant
cons in
cons um
Ġring ing
Ġexplan ations
Ġelev ated
Ġrebu ilding
Ġstere o
Ġcomment ary
ĠFin ance
Ġcircuit ry
ĠComm and
ĠSk id
Ġtransfer red
Ġconstit u
Ġkick ed
ĠMiss issippi
Ġdigit ally
Other wise
ĠVietnam ese
Ġevalu ation
ĠMed ical
ĠRand olph
ĠOp en
Ġattrib ute
ĠJord ans
Ġeradic ate
sec ond
rol ux
Ġflour ishing
Ġintrig ued
Ġpione ers
ĠRoss y
Ġwip e
ĠDu ke
Ġcryst al
Ġupload ed
Ġdegr aded
Ġfavel a
Ġmanufacture rs
Ġfulf ill
Ġrelax ed
Ġconven ience
Ġmurd ered
Ġ74 7
Ġweekend s
Ġroutine ly
Ġemphas is
Ġcommod ities
Ġbiote ch
Ġskept ical
ĠWi i
Ġdeliber ate
Ġambig uous
Ġtrail er
Ġbump s
ĠMcG on
Ġmathematic ian
Ġacknowled ged
Ġorient ation
Ġscholars hip
Ġcultiv ate
Ġexplicit ly
Ġimmort ality
lean or
Ġeur o
ĠMas low
ĠLar amie
ĠNaz i
Ġoutd oor
Ġlex ic
Ġartic ulate
Ġexecut ive
Ġmá»ĭ n
Ġol ive
ĠWis consin
ĠComp any
Ġunn ecess
ĠUt ah
Ġsymp athy
El izabeth
Ġpestic ides
hr vold
Ġcum ulative
Ġnick name
Ġbore al
ĠNik ola
Ġlos er
ĠDD T
Ġmaneu ver
Ġelectromagn etic
ĠGlad well
Ġanalyt ics
Ġpneum onia
ĠHud son
ĠKap lan
Ġoffsh ore
Ġbacter ium
Seb astian
ĠBit co
Ġdiarr hea
ĠSchw artz
ĠNev ada
ĠWorldW ide
Ġinadequ ate
Ġmaf ia
ĠTob ago
ĠTuc son
ĠHurt igruten
ĠPeters burg
ĠRocke feller
0 5
B S
B Ã¬nh
B uá»ķi
C ur
E ar
G en
H as
H iá»ĩu
L Ã²ng
L isten
M ic
M Ã¬nh
N in
O ut
O pen
P o
S how
S orry
S uch
T áº¡o
T á»©c
T unes
V Ã¹ng
W ar
a us
a ver
b ery
b ai
c re
g iving
h ma
h ops
l s
l ass
m ad
r and
r ia
v ol
w he
y ll
² m
Ġt Ãº
Ġt ilt
Ġc ables
Ġa qu
Ġs áº£i
Ġs Ãºt
Ġl áº©n
Ġm á»Ļi
Ġm ock
Ġm Ãºt
Ġm ash
Ġm attered
Ġb os
Ġb áº¡t
Ġb á»¥c
Ġh ind
Ġh ilar
Ġv Ãª
Ġw ore
Ġw ander
Ġw iring
Ġo w
Ġk ang
Ġp ul
Ġp ac
Ġg Ã²
Ġg Ãło
Ġg Ã¡y
at ra
Ġd uá»Ĺi
Ġd áº«m
Ġd well
Ġch er
Ġch ew
os oph
Ġng Ã¡ch
ot ive
Ġr app
Ġr Æ°á»Łi
Ġf og
Ġf ont
Ġf ocal
or ia
Ġin qu
Ġin ert
it ations
Ġy um
ĠI V
ic ism
Ġph ai
Ġqu áºŃt
Ġqu á»³
Ġgi Ã²n
Th á»ĭ
Ġtá» ĥ
Ġx Ã´ng
ang ed
ur ia
Ġra ft
Ġst agn
Ġst ole
Ġdo d
im o
op ening
Ġgiá» Ł
Ġli p
Ġsa bb
st ruction
ĠC á»ķ
ĠT est
ĠT reat
ĠT iáº¿p
ĠT NC
ĠT ijuana
ĠT uesday
ad vant
Ġlo Ãł
Ġlo ver
Ġlo aded
od ka
Ġab d
Ġcan e
Ġse ize
Ġsh red
Ġsh atter
ĠM ess
ĠM ister
ĠM ission
Ġhe ck
ter ol
ĠA ung
ÄĲ Ã¢u
ÄĲ Æ°a
ÄĲ Ã¡m
ĠB ul
ĠB ear
ĠS ure
ĠS á»ĳng
ĠS ting
ĠN ar
ĠN ation
Ġfr aud
ac ities
ĠH Ã¡t
ĠH annah
ĠH istory
ind ustrial
ia h
ink ering
ie g
un o
un ky
Ġthem es
ĠG ould
ĠG ame
ĠG rey
ĠG ranny
her ic
ĠL A
ĠD ennis
Ġpl ankton
Ġtim ber
Ġtim eline
Ġsu its
ib les
ĠK w
ĠK iáº¿n
oc c
oc amp
oc co
Ġcomp lim
iv als
ĠÄĲ o
ĠE ames
ans on
ĠR áº±ng
Ġem body
Ġexp ands
app ropri
ud ge
res pect
Ġdon ate
Ġdon ations
Ġfe es
Ġen vy
ĠF und
ĠJ ake
ĠJ obs
Ġany time
ĠW as
ĠW ild
Ġun l
Ġar tery
ĠCh and
ĠCh ev
ĠO nce
Ġdis advant
Ġback ed
Ġback ward
Ġfirst hand
Ġac ute
Ġcont ents
Ġam put
ick y
Ġbl ob
Ġad ul
ĠTr ib
ĠTr uth
Ġreal izes
Ġpre y
Ġcomm ands
ĠY ear
ĠY ah
Ch eryl
Ġsc rib
Ġsc aling
Ġsm ugg
Ġinc lusive
we il
Ġtho i
Ġins urg
Ng Ã´i
Ng Ãłi
az ar
ĠAnd roid
Ġent ities
Ġsl aughter
Ġsl ogan
Ġsl avery
Ġkid neys
Ġcommun al
Ġdevelop er
iÃª t
Ġext ensive
Ġfin ite
Ġsecond ly
Ġexpl oded
Ġed iting
Tr ÃŃ
Tr á»«
Ġter awatt
Ġdem ent
ĠnghÃ ªnh
Ġsub sc
Ġsub sequ
Ġsub conscious
Ġanim ated
cer pt
Ġpop ped
Ġpop ping
ĠX Ã£
ĠX Ã¢y
ĠX DR
ĠWh ole
Ġaut obi
Ġban ana
Ġphot on
Ġred uces
Ġcur ator
Ġenvironment ally
Ġprop ort
Ġcam els
ĠSh aw
Ġtest im
Ġpublic ation
Ġtre k
As k
Ġpos es
Ġexc lud
Ġpar alysis
Ġindivid ually
Ġpast ed
Ġche ated
Ġret ain
Ġfollow ers
Ġinn ate
Ġprogram mer
Ġprogram med
Ġview ers
Ġprov iders
ract able
Ġbott len
Ġoper ator
Ġdel ivers
ming ham
Ġident ification
Ġpred atory
Ġdirect ors
ipp er
Ġru pe
Ġbreak down
Ġsuper star
Ġcommon ly
Ġleg ally
Ġaffect ion
Ġeye br
Ġcivil ians
li u
Ġtrack ed
Ġ197 4
Ġ197 8
Ġsn akes
Ġworth while
Ġdevelopment al
ĠMc L
Ġrepl ied
ĠAd vent
Ġvol umes
Ġvol can
Ġbed s
Ġreact or
Ġcross es
Ġdiv ine
Ġep iph
Ġmeant ime
ĠShe ila
ĠAll o
ĠSm all
ĠPal in
win ning
Ġdetect ors
Ġnan os
Ġbank ers
Ġfa ult
Ġpack aged
oun cing
Ġtrib ute
ĠBar n
ĠBar bie
ĠNe ur
Ġassoci ations
Ġexpress ing
Ġexpress ive
ĠRight s
Ġoffic ers
Ġcondition ing
Ġsurround ings
ĠPhil ips
Ġprevent able
ĠFor bes
Ġmicr oc
Ġliber ty
Ġ194 7
iot ic
Ġax ÃŃt
Ġcommer cials
ĠMe chanical
Ġindepend ently
Ġvolunt ary
Ġrecon nect
Ġrecon cile
Ġham mer
ĠSu u
Ġmetaph ors
ĠTor osaurus
Ġdemand ing
ĠEvery one
ĠEvery thing
Ġembr aced
ĠEve lyn
Ġveget arian
Ġcorpor ation
Ġfrequ ent
Ġgrab s
Ġconcentr ations
Ġaccident ally
ĠMor occo
ĠSil ver
Ġindic ators
Ġvibr ant
Ġide ological
Ġmicrob ial
Ġreci p
Ġmanip ulation
ĠPol ice
Ġfu zzy
Ġclaim ed
Ġrig orous
wa it
Ġpip es
ĠBlack berry
Ġpump s
PhÃ ¢n
Ġharvest ing
Ġadj acent
ĠFin ancial
Ġprem ature
ĠIm agine
Ġpill ars
Ġtrig g
ĠRock ett
zer bai
Ġmim ics
ĠKy i
ĠRepublic an
Ġelimin ating
Ġflood ing
Ġdistrict s
Ġairport s
ĠSome body
Ġassist ant
Ġscenar ios
Lu áºŃt
Lu Ã´n
Ġpione er
ĠCamp aign
conf idence
Ġcorresp onds
Ġcryst all
Ġcryst als
Ġwhis key
Ġfung us
ĠShir ky
Ġsulf ide
Ġpersist ent
Ġbiod egr
Ġrecept ors
ĠnhÃº n
Es sentially
Ġdisag re
Ġphthal ates
ĠAg ency
Ġpir ate
ĠCont rol
Ġguerr illa
Ġspont aneous
Ġdecl ared
crib ed
Ġmac ro
ĠBow l
Ġdrown ing
ĠSnow den
Ġtransm itted
Ġphysi ology
Ġimmort al
ĠTitan ic
mun ications
ĠLuc y
Ġoverl ap
ĠWiki L
Ke ep
Ġmars hm
Ġhipp ocamp
Ġinex p
Ġrevel ation
Ġrecre ate
Stud ents
Ġforb id
ĠElect rolux
Ġprev ail
Ġsquee ze
Ġstabil ize
Ġseas ons
Ġdisg usting
Ġnob le
ĠBand ura
Christ opher
Ġobsc ure
Ġpriorit ize
Ġorph an
bet a
Ġdepart ments
PhÃ¡ t
epr int
Ġscann ed
Supp ose
ĠSomet imes
agm atic
ĠInst agram
ĠBeat les
Ġcockro ach
Ġaort a
Ġunimag inable
ĠHeb rew
erend ip
Ġgravit ational
ĠSisyph us
Ult imately
Ġpollut ants
Ġcatal og
Ġconspir acy
Ġunequ al
fashion ed
erart u
Ġsabb atical
zerbai jan
. &
3 8
A pp
B el
B á»ı
B áº£o
B Ã¡o
B eh
C R
C ard
D F
D em
D á»ĭch
F ifty
G ab
H áº¡t
I CE
I PP
J ean
K ir
L e
M Æ°á»Ŀi
N ature
O ft
P es
S ai
S phere
S arah
T á»«ng
X Ã¢y
b áº±ng
c ond
c iss
d in
d ale
f ting
g ate
h asa
i ologist
j ad
k ers
l ah
l usion
n is
n ational
o il
o oh
o lyn
r d
r ation
r ated
r iter
s ens
t an
t ra
v á»ģ
v ald
z ka
µ m
Ã ¶
Ã Ķ
Æ ł
à ¸
Ġ Ã¡t
Ġ áº£m
Ġ uyÃªn
áº ¨n
Ġc yn
Ġn in
Ġn á»įc
Ġn inth
Ġn onsense
ĠÄĳ Å©a
Ġa wards
Ġs ap
Ġs ie
Ġs Æ°ng
Ġs ane
Ġl ith
Ġl ag
Ġl anh
Ġl ane
Ġl akes
Ġl áº«m
Ġm un
Ġm ocking
Ġb ail
Ġb ands
Ġb iáº¿ng
Ġh orn
Ġh ats
Ġh ills
Ġv Äĥng
Ġv Ã£n
Ġv ascular
Ġthe ft
Ġi Tunes
re as
Ġk in
Ġp ist
Ġp est
Ġp up
Ġp aj
Ġg Ã¢n
at on
at isf
Ġd orm
Ġd á»ĳt
Ġd ental
Ġd ude
Ġd raft
Ġd azz
er in
Ġnh áº£m
Ġtr unk
Ġch en
Ġch áº¯t
Ġch unk
os lav
Ġr Ã¡n
Ġr ows
Ġf us
Ġf ictional
is ual
ch ester
it ter
it iba
ay an
ĠI x
Ġwe ts
Ġta gged
Ġbe ans
ut on
ut ure
ut ional
et to
Ġha z
am er
am en
ur ich
ig al
ig inal
Ġcho les
Ġst ated
Ġst oring
Ġst ocks
Ġchá» Ńng
op athy
Ġli ed
ver ted
ol ulu
ir med
Ġsa ves
st ru
st ock
ĠC H
ĠC eline
th an
Ġu h
Ġho o
Ġlo ops
od ops
Ġpr iest
em ia
Ġas h
Ġso y
ĠM ong
ĠM áº¯t
ĠM oney
ĠM ee
ĠM AS
ĠM itra
Ġhe ated
ĠA I
ĠA TM
ĠA bsolutely
il ocks
ul ates
Ġhá» Ŀi
ĠB os
ĠB og
ĠB ai
ĠB ue
ĠB rent
ĠB eck
ĠB irds
ĠB everly
ĠS it
ĠS ad
ĠS ue
ĠS áº¯p
ĠS af
ĠS imp
ĠS uther
ĠN R
ĠN ap
ĠN á»Ļi
ĠN ixon
Ġfr iction
Ġj ar
Ġj ur
Ġex ceed
Ġex cerpt
ight s
Ġpe l
ĠH Æ¡n
ĠH áº§u
ĠH AL
Ġde lete
ate l
est ine
est eem
if ted
if teen
el ing
ob ia
Ġal pha
Ġout break
Ġint roverts
ĠP R
ĠP or
ĠP orter
ĠP ilot
ĠP atel
un ned
Ġma u
Ġsp ores
ĠG áº§n
ĠG ib
ĠG round
ĠG ell
ĠG iÃª
ĠG roup
ĠL ion
ĠL áº¡i
ĠL im
ĠL ast
ĠL oÃłi
ĠL inda
ĠD od
ĠD ry
ĠD own
ĠD ror
Ġpl um
Ġpl ung
Ġsu ed
ib i
ĠK i
ĠK ur
ĠK ant
ĠK ind
ĠK ros
ĠK erry
oc zka
Ġcomp act
Ġcomp osed
ĠÄĲ Æ°á»Ŀng
ĠÄĲ áº¡t
ĠR och
ĠR aj
ĠR agu
Ġbr ow
Ġbr ick
Ġbr icks
Ġper vasive
ud a
Ġlu áº©n
ach i
ĠF ear
ĠF ez
ĠF owler
ĠJ et
ĠJ ans
ĠJ eremy
ĠTh atcher
ĠW u
ĠW ong
ĠW ag
ĠW ars
Ġun ion
Ġgr ams
Ġimp rob
Ġar ose
Ġar ithmetic
Ġpart ially
ĠCh Æ°Æ¡ng
ĠO xy
Ġdis ruption
ĠV as
ĠV á»¥
ĠV Å©
ĠV ald
ĠV ideo
ĠV egas
ens ed
sel s
ell ers
Ġam yloid
Ġmo ist
Ġres ort
Ġres olved
Ġres erv
Ġres erve
ick lider
ict ure
uc king
Ġ10 3
ĠTr Æ°á»Łng
ĠTr ue
Ġbo oth
Ġhum ankind
ish na
ark o
form ed
Ãµ m
ert s
ĠY ug
Ch á»©ng
xt in
Ġsc ope
Ġsc aled
Ġsm iles
Ġinc on
Ġinc omes
ak u
ĠNh iÃªn
we ek
Ġdec ode
ile ver
Ġfl ed
ĠSt at
ĠIn stead
Ġsim ulate
Ġinv iting
Ġrem oving
Ġins pect
Ġchu á»ĵng
Ġlast s
az o
az ing
Ġgl owing
Ġrel ie
Ġvá»¥ ng
Ġinst ances
ĠAnd es
Ġinter gal
Ġinter depend
Ġ7 9
Ġhand ling
ather ine
Ġacc used
Ġcommun ist
Ġmin isters
Ġbi of
Ġmed al
Ġlight er
Ġngá» Ńa
Ġcent imeter
ative ly
Ġbeh aving
oy d
Tr ans
Ġgener ator
Ġposs ess
Ġresp iratory
ĠAr ts
Ġsub mar
ĠUn cle
ĠUn ilever
Ġstr okes
gg y
Ġconf erences
Ġform ats
á»© t
ĠkÃ© n
Ġrep ly
How ard
ĠInd ex
Ġopp on
Ġ18 6
Ġsign ing
Ġgu ilt
Ġvir gin
Ġair line
Ġchar ism
Ġref ers
Ġref erences
Ġdef ines
Ġeffect iveness
Ġfil es
Ġexc lusive
Ġpar am
Ġiss ued
Ġmar king
Ġche er
Ġcontin ually
Ġret r
Ġfree way
Ġprogram m
Ġincre mental
Ġfocus es
ĠZ ambia
Ġprov ider
Ġthá»¥ c
ĠCan cer
Ġthird s
Ġz o
Ġbuy s
Ġliter ary
Ġsens ible
sh ine
Ġcal or
uck er
uck ed
Ġtem pl
Ġmain taining
Ġpsych iatric
ann es
Ġlim itation
Ġstat ue
mb ling
ĠEurope ans
Ġsuper power
bor azo
ĠCon stit
ĠPr ot
ĠPr ime
ĠHar vey
Ġ198 1
Ġ21 00
ĠMar c
Ġrele vance
ĠIsrael is
Ġstructure d
son ian
Ġsmart est
Ġpress ures
Ġfire fight
ug ata
Ġrich ness
Ġpoll ination
ĠQu áº£n
ĠMy hrvold
Ġarr og
Ġslow ed
Ġ197 2
Ġ197 7
Ġsn aps
Ġpredict ing
Ġcop ied
Ġavail ability
Ġast hma
Ġson ic
ĠAt t
ĠAt kins
Ġrece ives
Ġfunction ality
uct ions
Ġrevolution ize
ĠKh á»ĳi
ĠKh mer
Ġ196 3
Ġ196 9
Ġsearch es
Ġcris es
ĠGr iff
Ġmis con
Ġste er
Ġste ering
ĠOr nish
ĠWar ner
Ġconsider ation
Ġvari ability
Ġrain fall
Ġpin point
Ġsyn c
Ġmethod ology
Ġnan ot
ĠPaul a
ĠFl ore
Ġclos et
Ġsupposed ly
Ġcook ie
ze iro
Ġbal con
Ġdistrib ute
Ġthr illing
Ġexplore r
ogen ic
Ġcitizens hip
Ġeth anol
Ġspeech es
Ġmal ware
ĠAustr alian
Ġspect r
Ġcelebr ation
Ġcelebr ating
bu ilt
Ġautom ated
Ġsimpl istic
Ġselect ive
ĠGreen ville
ĠFrank en
Ġreve aling
Ġhusb ands
Ġliber ation
Ġut ility
Ġrough ness
Ġgift ed
Ġforg iveness
ĠMr s
uh an
ĠPer cy
Ġjoy ful
ĠLat inh
Ġburn s
ĠLeg os
Ġbul bs
Ġmosqu e
mark s
atr ice
ĠMon key
ĠEx pl
Ġhell o
Ġextract ed
Ġinvestig ating
ĠRes nick
Ġfrag mented
Ġtit les
ĠKho áº£ng
Ġkilomet er
uls ive
Ġhorr ific
Ġpurs uing
Ġcounter part
Un like
ĠJan ine
Ġdesert s
Ġcosm ology
ĠSyr ian
Ġrein for
bl owing
ĠPort ugal
Ġsatisf ied
Ġreprod uctive
ĠGold ilocks
Rob ot
Ġancest or
Ġbill board
Ġcritic ized
Ġcritic ism
Ġpray er
Ġcompar able
Ġsandwich es
ĠxÃ© n
Ġdesk top
Ġdevast ated
ĠVictor ian
Ġmemor able
ĠMill ennium
Ġexec uted
Ġdistinct ive
ĠSen ate
Ġregener ative
Ġconstit ution
Ġmeg awatt
Ġdigit ize
Ġpasseng ers
Ġelimin ated
Ġclus ter
Ġinterf ere
Ġdepth s
ThÃ¡ ch
Ġanticip ated
Ġeradic ated
ĠiPod s
Ġfinger print
Us ually
Ġpupp et
ournal ist
ĠIr ag
ĠBud ap
Ġdelight ed
Ġveter an
Ġlegis l
Ġhol iday
part y
ĠKu wait
Ġobl ig
Ġobl iv
ĠCopern ican
Ġbreakthrough s
Ġnurt uring
Ġtrop ics
Ġgang s
ĠHol ocaust
Ġmaxim ize
Ġinvolve ment
Ġinsist ed
Ġpubl isher
ĠBo ys
heart ed
Ġarrang ement
Ġcommod ity
Ġurg ency
ĠCru zeiro
Ġarrow s
ĠEv ans
Ġstimul us
ĠIP CC
Ġbutter flies
Jul ian
ĠHon olulu
ĠRich ards
ĠVal ent
Ġspo of
Ġstrict ly
Ġadvent ures
ĠRh ode
lend e
Ġsubstant ial
Ġoutrage ous
ĠAust in
redd ies
Ġintrins ic
Ġmillenn ia
ĠEar le
Ġlifel ike
Res earch
ĠDh ar
ĠAlber ta
amil iar
angu age
Ġsovere ign
Ġregist ered
Ġjack et
ĠDig ital
ĠYellow stone
Ġillum ination
Ġvag ina
Ġpostc ards
Afric a
Ġmant ra
ĠCreat ive
ĠMove ment
ĠRobb ins
Ġgym n
Ġblu eprint
undred s
Ġster ile
ĠMard uk
ĠMak oko
Ġmotorcy cle
ĠMO OC
ĠKa aba
ĠChop in
Ġjuven ile
Ġrhet oric
ĠCapt ain
geb ra
Ġadequ ate
ĠHoff man
Ġlas ers
ĠSach s
ĠMcGon igal
Ġdement ia
Ġhippocamp us
ICE F
Ġcholes terol
ĠSimp son
ĠSuther land
ĠDror i
ĠKros oczka
ĠVald ez
ĠYug oslav
Ġintergal actic
9 7
A ut
B áº£y
C o
C Æ°á»Ŀi
C ertain
D áº§u
D Ã¹ng
E P
E ve
G reen
H z
H enry
H undreds
I d
J E
L B
L P
L Ãªn
L ittle
L ewis
M Ã´i
M áº¥t
M á»Ł
M ike
P ros
S er
S cript
T á»ĩ
T áºŃp
T áº¡p
b our
c hÃ
c ore
c Ã¢u
c use
c ats
c ano
c ription
d uc
f it
g row
h ic
i ology
i kes
m eter
o cial
p se
p ose
r ine
r ared
s u
v ity
y our
¬ a
Ġ Ãºt
Ń n
á» ¡
Ġt áº¥u
Ġt Ãºp
Ġt oug
Ġc áºŃt
Ġc á»Ļi
Ġc ease
Ġc ops
Ġth Ãª
Ġth iá»ĥn
Ġn ung
Ġn aught
Ġn Ã¡u
ĠÄĳ áº¥m
Ġa pt
Ġs Ãªn
Ġs áº£o
Ġs á»¥c
Ġs ought
Ġs erendip
Ġl áº§u
Ġm ÃŃ
Ġm our
Ġm ates
Ġb ounce
Ġh Ã³t
Ġh iring
Ġh áº±n
Ġh unter
Ġv ow
Ġv Ã¡ng
Ġw i
re a
re z
Ġp ess
Ġp ets
Ġg ad
Ġg áº·t
Ġg oss
Ġd áº·n
Ġd imin
Ġd ye
Ġd aunt
ou fl
Ġch á»¯ng
Ġch iÃªu
Ġch ee
on i
ing le
an ing
Ġng Ã³
Ġng Æ¡
Ġng áº¥t
Ġng áº¥m
ap a
ot r
Ġr á»Ļ
Ġr Æ¡
Ġr á»ĩ
Ġr ipp
Ġr ipped
Ġr anging
Ġr á»¥i
Ġf ission
al o
al am
Ġof tent
Ãª c
is ch
is ure
ar atus
it is
in ates
ĠÄĳá» ħ
om ic
as ma
ĠI C
ĠI ng
ĠI ow
Ġe ager
Ġph á»ĵn
ow att
ut ter
ut ers
Ġre use
id el
id ental
ur ve
ig ers
Ġst ain
Ġst umbled
im ps
op t
op ran
Ġli vel
ver ing
ir ational
st ick
ĠC áº§n
ĠC ir
ĠC áº£nh
ĠT ul
ĠT á»Ń
ĠT ox
ĠT umor
Ġho Ã¡n
Ġho Ã³c
ad ema
Ġlo ang
Ġlo Ã£ng
Ġlo gging
od or
Ġso ber
ĠM ust
ĠM alth
ĠM ills
So cial
Ġwor n
Ġhe el
Ġhe ars
ĠA il
ĠA zerbaijan
il ion
il ibri
ill o
ul ent
ĠB uá»ķi
ĠS es
ĠS ide
ĠS pr
ĠS ergey
ĠN ad
Ġex ile
Ġpe ar
ĠH áº¡
ĠH or
ĠH ur
ĠH ers
ĠH appy
ist ance
Nh á»Ľ
Ġ2 20
el ah
Ġal gebra
ink ed
Ġout ward
Ġint ractable
ĠP ink
ĠP sych
Ġma j
Ġsp raw
Ġsp iders
Ġbá»ĭ a
ĠG uy
ĠG ross
Ġkho áº£
Ġkho anh
Ġkho Ã¡t
ich a
Ġthink er
ĠL áºŃp
ĠL ead
ĠL isa
ĠD C
ĠD áº¡
ĠD ata
ĠD elt
Ġpl aque
Ġact ed
ast ically
Ġtheir s
Ġthu nder
iz able
ĠK áº»
ĠK oh
ĠK á»ĥ
ĠK á»·
oc y
Ġcomp r
Ġcomp ress
ĠÄĲ áº¥y
ĠE p
ĠE at
ĠE bert
ĠE leanor
Ġle nd
Ġle isure
ĠR an
ĠR ica
Ġbr akes
Ġag rees
Ġfe ared
ra it
Ġen rich
ĠF I
ĠF ight
ĠF oster
ĠF err
ĠJ ihad
ĠJ essica
Ġcl ash
Ġcl apping
Ġcl oned
ĠW alt
Ġun ple
Ġun con
Ġun ited
Ġun think
Ġun lock
Ġun aware
Ġno i
Ġbu nd
Ġimp rison
own ed
ĠCh u
ĠCh Æ°a
ĠCh á»ĳng
pt ic
ass ador
Ġdi ary
Ġover d
Ġá» ľ
Ġright ly
Ġdis sect
Ġdis abilities
ĠV on
ĠV ua
ign ific
Ġac ry
Ġkind ly
Ġunder p
Ġunder cover
ĠU C
ĠU nder
Ġbl ows
Ġbl obs
uc cess
ĠTr iá»ĥn
ĠTr inidad
ish man
Ġdown stairs
ne g
ĠY et
xt apos
Ġsc our
Ġsc are
ars on
Ġvi Ãªc
av ors
Ġcr ust
Ġcr oc
Ġcr ude
Ġcr icket
Ġfl ipping
Ġhuman e
Ġhuman oid
Ġapp rent
Ġapp oint
Ġapp aratus
ĠSt art
ĠIn side
Ġbel t
Ġend ow
Ġcreat ors
Ġ6 000
Ġcar bo
Ġcar bs
Ġev olves
Ġmean while
Ġlast ed
Ġexam s
Ġrel ational
Ġrel ativity
Ġwr ist
Ġfound ing
Ġsl ing
Ġsl ate
Ġbit es
Ġtu Ã´n
Ġacc ord
Ġcell phone
Ġke en
Ġquestion ed
Ġmon k
Ġbi oph
ĠChÃ ¢n
Ġmed ieval
Ġ100 00
oy le
Ġca ffe
Ġproject or
Ġel ites
Ġcountry side
Ġreg imes
Ġlar v
bo at
ĠNg uy
ĠNg Æ°Æ¡i
Ġinf rared
Ġstr at
ĠAl lende
ĠWh irlwind
Ġcou p
ĠHe h
ĠHe art
ĠPh ong
aps es
Ġdist orted
Ġadd icted
Ġhist ories
Ġey ew
Ġprot on
Ġprot esters
áºµ ng
Ġmark ed
Ġpain ts
Ġrest or
Ġrest oration
Ph ong
most at
ape ut
Ġequ ator
arth a
Ġworks hop
Ġtool box
Ġcollect ions
Ġfund ers
Ġpay ment
Ġfree ze
to lem
ik h
Ġprov in
urs day
Ġaud ition
Ġaud itor
Ġz ip
Ġz oning
Ġdeal t
Ġmiss ions
Ġland m
Ġwind mill
Ġsens itivity
Ġshort age
ĠNo el
Ġvar ied
Ġant id
Ġpract iced
Ġtrad ed
Ġstat ements
Ġbeginning s
ĠCon c
Ġmult it
Ġcarbon ate
asc a
ChÃ ºc
Ġconv iction
ĠBe fore
Ġjo ins
Ġinvent ing
Ġpost s
Ġpoll inators
Ġcivil ian
St ep
St ories
Ġarr ives
ĠThÃ¡ p
Ġemail ed
Ġtele phones
Ġguess es
Ġprom pt
Ġprom oting
ĠAd ams
Ġvol cano
ey e
Ġcompet itors
Ġrece iver
ĠHa idt
Ġfair y
Ġsá»¥ n
Ġclean ed
Ġparticip ated
put ers
Ġunf inished
Ġneighbor ing
ĠOr kut
Ġconsider ably
Ġther mostat
Ġcollabor ating
Ġcirc ular
Ġswe ats
oe ing
Ġsecret ly
Ġfinan cially
KhÃ¡ i
Ġcalcul ators
Ġsus hi
Ġsus pected
Ġsus ceptible
Ġbal ancing
ĠWestern ers
igr ade
Ġrespect s
Ġoptim ize
ĠPl an
Ġstandard ized
Ġoffic ially
ĠAustr ia
Ġsurround s
Ġspaces hip
Ġprevent ed
Ġhall way
Ġnho i
Ġnho Ã¡ng
Ġcoun cil
Ġfat ty
Ġvast ly
Ġclick s
Ġver bs
Ar istotle
ĠNor se
tr ack
Ġadvant ages
Ġtremend ously
ĠNhÃ ³m
Ġchick s
Ġtour s
ĠMal colm
Ġbul lets
Ġmid night
Ġillustr ation
Ġquant itative
ĠAh mad
Ġterror ist
Ġinvestig ative
Ġappreci ated
Ġiron ically
ĠMor ning
Ġhero in
Ġconduct or
ĠTe ch
ĠMand arin
Ġcounter intuitive
Ġimplic ation
Ġtransformation al
Ġacad emics
ĠThÃ Ń
Ġsight ed
Ġacceler ated
Ġvibr ate
Ġvibr ations
ĠAnt on
Ġju xtapos
Ġdrag ging
ograp hing
Ġsevere ly
ĠPol ar
car bon
ĠBol tzmann
Ġoccup ied
wa ves
Ġshr ink
Ġuns ustainable
Ġsem ester
Ġassign ed
Ġnegoti ations
Ġinstinct ively
Ġunh e
Ġfootprint s
Ġstock p
Ġastronom ical
Ġwings uit
Ġfert ility
Ġmeg a
Ġvert ically
ĠHill ary
ĠSir i
Ġconserv atives
Ġguarant eed
Car l
Ste fan
Ġintention al
Ġfool ed
Ġreson ate
Ġhat red
Ġfirm ly
Ġsynthes is
Ġanthrop ology
Ġanthrop ologist
Ġenzy mes
Ġdump ed
Ġaes thetics
Ġsin ister
ĠIg bo
Ġdiam ond
Ġkáº½ m
ĠMount ain
ĠMount ains
Ġpersu ade
Ġdegr ad
ĠPlay er
ĠLo an
ĠKu z
ĠMcC ain
Ġfertil izer
ĠnhÃº t
Ġnonviol ence
Es pecially
Ġsettle ment
Ġupd ated
yd ney
Ġdeliber ately
Ġbroadcast ing
Ġtooth brush
Ġneuroscient ists
Ġchec ks
Ġcra ving
Ġthylac ines
ĠGall ery
Ġrestrict ed
Ġcub ic
Ġsuburb s
aby te
ĠGene va
Ġsurviv or
ĠBir mingham
ĠFe ynman
ĠFer ris
ĠArch itect
urf ing
Ġintrins ically
Ġincorpor ate
olit ical
Ġdens er
ĠCS F
ĠFa iza
Ġsched ule
Ġinfer ior
Ġunderest imate
Sm all
ĠCla us
Ġundergrad uate
ĠPale xtin
ĠAchill es
Ġrac ism
Ġimpl ants
Ġware house
Ġupgr ade
Ġtriang les
Ġlou der
ĠBalk ans
ĠLabor atory
Ġoverlook ed
Ġsocio economic
Ġcym atics
Ġrend ered
ĠHoll and
Ġcoch lear
Ġcataly st
Ġtread mill
Ġstew ards
ĠAlger ia
Ġmillisecond s
Ġacquis ition
Dar win
Ġwre ck
ĠRou ge
Ġenab ling
Ġcellul ose
Ġexhilar ating
ĠGerm ans
Ġfingert ips
Ġbos on
Ġhilar ious
ĠMcL uhan
ĠAllo Sphere
ĠWikiL eaks
Ġmarshm allow
Ġimprob able
ĠBudap est
Ġtoug her
Ġpess im
Ġoftent imes
ĠIow a
ĠMalth us
ĠAil en
ilibri um
ĠDelt a
Ġunple asant
3 7
A nt
B ÃŃ
B ab
C or
C ynthia
D U
D is
D NA
D ean
E ur
F ort
F ree
F red
H ad
H á»Ļi
J O
J ane
K n
L S
L ater
M L
N elson
P sych
P ublic
S K
S us
S il
S ev
S eth
S cience
S ylvia
T O
T Ã¬m
T áº§m
W atch
W orking
b in
b art
b and
b ound
b ird
b up
c ling
d oor
d aughter
d ef
d esign
g ic
h an
h ib
h ome
h ak
i hood
k u
k ina
k ho
k ley
l ishing
m á»įi
m outh
n ity
n als
n ets
p ot
p ically
r ate
t ion
t rovir
v ory
w ith
w atch
w ired
w oman
y ama
z u
z ee
Ġt ense
ng er
áº ©ng
Ġc el
Ġc ush
Ġc asc
Ġth áº§u
Ġth Ã©t
Ġth uyÃªn
Ġn áº¡i
Ġn áº¡t
Ġn Ã¡ch
Ġn áº¥p
Ġn Ãºm
ĠÄ ©
ĠÄĳ áº£
ĠÄĳ ong
ĠÄĳ Ã¹i
Ġa is
Ġa ims
Ġs Ãłnh
Ġs Ã²
Ġs opran
Ġl Ã¬nh
Ġl á»ĳc
Ġl Ã³ng
Ġl atter
Ġl ined
Ġl bs
Ġm Äĥng
Ġm ites
Ġb ot
Ġv et
Ġv áº¥p
Ġv ague
Ġw ounds
Ġi bup
Ġp onds
Ġg aga
at ile
Ġd ing
Ġd Ã©p
Ġd unes
Ġch áºŃu
os ion
on al
en za
en burg
Ġr Ã¢m
Ġr áº¯m
Ġr áº«y
Ġf ond
Ġf irms
or fer
al er
al ine
is el
ch a
it ives
in ance
Ġy elling
Ġcá» £t
le ments
ĠI an
Ġe cho
Ġwe aker
Ġwh ip
ic ides
us c
us er
Ġqu ir
et ed
Th am
Th ousands
Ġx ao
Ġre pr
Ġre imagine
ent o
am ily
ur man
ig man
im ated
ere ck
Ġfor age
Ġfor ged
Ġli king
Ġli vest
se mble
Ġwas ting
ol ate
Ġan ch
st ood
ĠC ou
ĠC ave
ĠC up
ĠC osta
ĠT B
ĠT inh
ĠT ab
ĠT ry
ĠT Ã¡m
th ird
Ġho od
ad ij
Ġpr ince
Ġgo ats
Ġcan opy
inh ab
Ġsh ade
Ġsh ipped
ĠM Ã£
ĠM Æ°á»Ŀi
ĠM am
ĠM ain
ĠM atch
ĠM Ãłu
ĠM illy
ĠM agic
ĠM aine
ĠA ld
ĠA id
ĠA gar
il ized
ul ator
Ġhá» īnh
ant i
ant om
ĠB R
ĠB ess
ĠB ose
ĠB Ã³ng
ĠB oot
ĠB otton
ĠS á»Ł
ĠS Ã¡ch
ĠS á»¹
ĠS aint
ĠS ARS
ĠN ice
ĠN Ã£o
ĠN ino
Ġnot ions
ore x
ag ne
ac c
ac orex
ĠH od
ĠH art
ĠH iá»ĩu
ĠH alf
ĠH anc
ĠH utch
ĠH atz
ĠH ubble
ĠH ouston
Ġde le
Ġde ngue
Nh áºŃn
Ġsá» §a
el bart
Ġout we
og g
Ġint ol
ĠP SA
ĠP ublic
ĠP MT
Ġsp am
Ġsp ite
Ġsp ouse
Ġsp ike
ĠG ut
Ġkho Ã©
Ġup s
Ġup t
ĠL and
ĠL au
ĠL ower
ĠL áº¡y
ĠL ocke
ĠL oren
ĠL aptop
ĠL uton
ĠD all
ĠD iá»ħn
ĠD iver
ĠD ead
ĠD ev
ĠD erartu
ĠD oyle
act ly
Ġpl otted
Ġsu g
ib ia
ĠK at
ĠK Ã´ng
ĠK iá»ĥm
ĠK ool
ĠK IPP
Ġcomp ost
iv ation
iv ate
ai res
ai pur
ĠÄĲ Ã¢u
ĠÄĲ á»Ļc
ous y
ĠE cu
ĠE llen
Ġle aks
uá» £
Ġtin iest
ĠR en
ĠR ic
ĠR ory
ĠR ail
ace llular
Ġag ed
Ġexp osing
age ye
Ġlu á»ĵn
Ġfe at
ild es
ra vel
iff e
ĠF as
ĠF est
ĠF ah
ĠF ern
ĠF ek
ĠJ ob
ĠJ aw
ĠJ arrett
ĠTh á»Ń
ĠTh ird
ĠTh ursday
ĠW inter
ĠW HO
Ġimp osing
ro vert
red it
Ġpart ial
Ġvá»ĭ n
ĠCh á»©c
ĠCh az
ĠCh alleng
ĠCh á»Ŀ
ĠO MG
Ġá» Ŀ
Ġdis k
Ġdis integr
ĠV ent
Ġco here
ater al
Ġid iot
Ġam mon
Ġunder way
ru bs
Ġres idential
Ġ4 9
ank s
Ġpro ving
Ġad ap
Ġbo iling
Ġhum id
Ġ19 10
ip er
ip otent
Ġpre view
Ġcomm ons
Ġcomm ute
Ġcomm ander
ian e
Ch u
Ch uyáº¿n
Ġsc andal
Ġsm ashed
av i
av ed
Ġfl ap
Ġfl ick
Ġfl ipped
Ġfl aws
Ġsur re
Ġsur rog
ft s
ire ction
ire trovir
Ġwell s
Ġsystem ic
Ġlet t
Ġinv asion
Ġrem ed
Ġend uring
Ġend lessly
Ġlast ing
Ġhu g
az ine
Ġtrans national
ork ers
Ġpower less
Ġpol ite
Ġ9 1
Ġinter pre
Ġent ity
Ġ7 000
Ġsl ave
Ġsl ices
Ġsl ime
Ġsl aves
ix ote
Ġacc idental
Ġrá» £
Ġdevelop s
Ġcre ations
Ġmod ify
Ġplace bo
Ġser ial
Ġser vers
Ġmon ument
Ġplan ner
Ġngá» Ŀi
Ġcent r
air y
Ġed ited
Ġvá»ĩ t
ten berg
Ġnghi Ã£
Ġsing ular
Ġstr ive
wh ite
ran n
ier ce
Ġrep orters
und y
Ġcou pled
Ġwar mer
Ġwar fare
ĠHe idi
Ġpres cription
Ġmonth ly
Ġroom mate
Giá» ¯a
Ġgovern ed
Ġadd s
Ġvo ic
Ġdep ict
Ġpain ter
Ph ot
Ph áº£n
Ph ys
Ġref ine
Ġequ ilibrium
ĠSh eph
Ġmem es
Ġkill ings
Ġfore ns
Ġfil ed
Ġcond em
rop he
Ġmar ries
Ġtreat ies
Ġass ault
Ġret reat
Ġmil imet
Ġwa ist
to o
ret ched
Ġnon etheless
Ġlisten er
Ġneur ologic
ĠbÃŃ p
Ġthird ly
Ġaud itory
Ġz oo
Ġ16 00
To Ã¡n
ivers al
Ġprotect s
Ġbom bers
Ġdig est
Ġant iretrovir
ĠChÃº c
mb les
Ġperform er
Ġperform ances
ho le
Ġsupport s
Ġru in
cl iffe
Ġdu g
Ġsuper f
Ġsuper her
Some how
ĠCon n
ĠPr otect
Ġdesc riptions
Ġground ed
ĠHar bor
Ġexperiment er
Ġess ay
Ġdisc our
ĠAs pen
Ho áº¡t
erm at
ĠAn im
Ġinsp irational
Ġap artheid
Ġdest ructive
ĠGi ac
Ġmeaning less
ĠBl og
Ġsuggest ions
Ġrespons ive
of i
li ance
ĠQu ixote
St r
Ġrul ed
Ġsn ap
ala am
Ġpredict ive
ĠSch ul
ĠAd v
Ġtrust ing
ĠAt ala
Al an
Al ain
Ġsimilar ly
Ġball oons
Ġemb roid
Ġdefin itions
Ġsell s
Ġattack ing
Ġinstit ute
Ġboy friend
Ġactiv ism
Ġpassion ately
ĠPar ik
Ġmechan ically
Ġexcept ional
Ġep it
Ġep oxy
ĠSte fan
urt is
Ġmis car
Ġtransl ates
Ġprogress ively
ĠOr well
ĠSw apt
ĠMo i
Ġgra vel
ĠEd wards
ĠEd ison
rof en
Ġvirt uous
Ġassum es
20 11
ĠPal mer
Ġswe ep
ĠAb out
Ġcook ed
ĠAng el
ĠDon na
KhÃ¡ c
Ġdeterm ining
Ġquot ed
Ġrespect ful
Ġly rics
Ġrandom ness
Ġeth n
ĠBar cel
Ġsal mon
Ġstar ving
ĠPakistan i
Ġachieve ments
ĠHy per
Ġinterview ing
ris k
ĠMan ju
edd y
Ġselect ively
Ġcampaign ing
ĠFrank ie
urd o
urd y
Ġinstr umental
Ġgradu ates
ĠMin ority
ĠEn ron
ĠMe et
ĠSmith sonian
Ġtens ions
fr og
ĠRuss ians
ĠTom orrow
Ġrecon struction
Ġhom osexual
ĠDarwin ian
ĠAlex is
Ġcheap ly
Ġtax pay
hy dr
ĠUS B
Ġble ed
Ġreward ing
ĠEvery where
ĠSam antha
Ġattempt ing
Ġveget ation
Ġdomin ance
ĠMon ster
Ġcognitive ly
Ġbomb ing
Go vern
Ġtun nels
Ġstri pped
Ġextract ion
Ġsucceed ing
ĠEgypt ians
hold er
ĠMad rid
Ġbelong ing
200 8
Ġmigr ant
Ġstream ing
Ġtow ers
ĠBur ma
ĠBur kina
Ġ195 3
de velop
nam ed
Ġpeak s
Ġmyth ology
Ġdisplay ed
ĠLED s
Ġcontain ers
Ġmanip ulated
ĠOk ina
Ġve ins
ĠPort land
Ġrig ged
Ġheight s
Ġflat ten
cut ting
Ġdot com
Ġgrateful ness
ĠGold en
Ġnavig ation
Ġsem inal
Ġgall ons
ĠFin land
ĠMil an
Ġreject ion
ĠAir port
Sim on
keep er
Ġconver ting
Ġshell s
ugg ets
Ġstretch ed
Ġperman ently
Ġattend ance
Ġrub ble
ĠKar achi
Ġcollaps es
Ġdefend ing
Ġped iatric
gend orfer
Ġpharm ac
ĠMer ced
Ġcompl ained
ĠEs k
Ġiniti atives
Ġexplos ions
Ġintuitive ly
Ste ven
ĠRand i
Ġchap ters
Ġanticip ation
Ġder ived
Ġbiom aterials
ĠHung arian
Ġpupp ets
Ġgel atin
ĠBern ers
ĠIr áº¯c
ĠJane iro
Ġsynthes ize
Ġdies el
cher i
ĠRon ald
otter dam
Ġglac iers
Ġhelicop ters
Ġfertil izers
Ġimmun ity
ĠKam en
ĠRad cliffe
Ġgrat ification
Ġngá»« Æ¡i
Ġchimpan zee
Ġcatast rophe
Ġgre ed
ĠUN ES
Ġblend ed
Ġcompos er
ĠES P
Ġinterrupt ed
Ġenterpr ises
ĠMatth ieu
Ġcabin et
Ġnerd y
Ġgig antic
ĠMot ors
Ġintim id
Ġreinvent ing
Ġcert ified
Ġnu anced
ĠHon or
ĠHot mail
ĠRod rig
Ġcontag ion
Ġastero ids
crib e
Ġguid elines
Ġenthusi asm
ĠHas bro
Ġsuburb ia
Ġphysi ological
Ġinher it
ĠBM W
ĠJama ican
Ġeur os
ĠLar ge
Ġmarg inal
Ġfis cheri
ĠMeyer owitz
Ġoutd ated
Ġshout ing
Ġsubstant ially
Ġsod a
Ġorang utan
Ġprev ents
Ġhint s
ĠDiet rich
Ġlifel ong
ĠAR ES
atal ie
Ġfisher men
ĠTai wan
ĠSel igman
Ġtelecom munications
Ġoffe nd
Ġexpon entially
Ġcasual ties
Ġmater nal
ĠPear l
Ġbiolumines cent
Ġsubm itted
Ġtut or
ĠAw esome
ĠPier re
Ġpsychiatr ist
pat tern
Ġthorough ly
Ġquar ters
Ġreun ion
ĠBerg en
ĠBuff ett
Ġpean ut
ĠJava Script
Ġerect us
urk heim
ĠPyth on
ĠJoh annes
ĠPhill ips
Ġlocom otion
Ġbonob o
Ġbip olar
Ġresur rect
Ġcorrid ors
cos ia
ĠServ ice
ĠSuf i
Ġalar ming
ĠPran av
ĠField s
adition al
Ġbioch em
prop ortion
Josh ua
ĠAx is
ĠNath aniel
Ġperse ver
Rad io
Ġpic nic
Ġattor ney
Ġencrypt ed
ĠMcM urdo
Nin ety
whe el
appropri ate
Ġnanos cale
Pes a
vald s
Ġlith ium
erin ck
ĠNR K
Ġbrow se
Ġobliv ious
ĠMOOC s
duc er
Ġgoss ip
Ġrá»ĩ p
Ġlivel ihood
Ġunthink able
Ġacry lic
Ġlarv ae
Ġauditor ium
Ġantid ote
Ġmultit asking
Ġunhe althy
Fort y
Ġibup rofen
Ġlivest ock
adij a
ĠPMT CT
ĠFek i
Ġammon ia
ĠBarcel ona
ĠUNES CO
4 2
7 8
8 4
A bsolutely
B O
B ath
B uá»ĵn
B usiness
C a
C Æ¡n
C Ãº
C ity
D am
D iá»ħn
D erek
D ifferent
F ur
F ast
F ifteen
H um
H ub
I I
J S
J ake
L anguage
M on
M iá»ħn
N H
N i
N orm
P R
P e
P ro
R ed
S an
S áº£n
S un
S oph
T ai
U N
V Ã¢y
V ideo
W illi
a ad
a fe
b ly
b age
b ecca
b untu
c m
c ot
c áº£m
c onds
d u
f at
f ed
h ard
j in
l ap
l ia
l ov
l era
l aug
m om
m ia
m ath
m Ã©t
m á»Ĺi
n Ã³i
o ys
r áº¥t
r ase
s ix
t in
t áº¡i
w as
w estern
w right
z weil
Ġ Æ°Æ¡m
Ġt ub
Ġt ire
Ġt ipping
Ġc ab
Ġc ue
Ġc ater
Ġc áº·n
Ġth roat
ĠÄĳ áº§n
ĠÄĳ Æ°á»Ľc
Ġa pe
Ġa ah
Ġa erial
Ġs ings
Ġl Æ°
Ġl á»Ł
Ġl ining
Ġm m
Ġm ans
Ġb Ã´
Ġb id
Ġb ung
Ġb umble
Ġb ibl
Ġh ust
Ġh atch
Ġh ives
Ġh Ã³m
Ġh arsh
Ġv áº¡t
Ġv Æ°á»£n
Ġv apor
Ġw and
Ġw ww
re ne
Ġo un
Ġp ly
Ġp ore
Ġg au
Ġg eck
Ġg aze
at Ã´ng
at ized
Ġd áº¿
Ġd áº¡t
Ġd áº±n
Ġd airy
er ick
Ġtr Æ¡
Ġtr Æ°á»Ľng
Ġtr oll
ou lli
Ġch áºŃp
Ġch á»Ļp
Ġto mb
an ic
Ġng Ãł
Ġng uá»
Ġng Ãµ
Ġng Ã³c
Ġng Ã²i
Ġng áº©ng
ap ot
Ġr áº§u
Ġr áº§m
Ġr amp
Ġf o
Ġf itting
Ġf ills
Ġf ierce
or o
or able
Ġin ability
is d
is cover
ed uc
ar se
ar ity
ch est
ch el
ch ange
in ia
in ative
in vasive
ĠchÃ ¨o
ĠchÃ ¨n
Ġcá» ıi
as is
le ngth
ll ip
ic ke
ic ated
Ġph iá»ĩt
us sels
Ġqu art
Ġqu áº·ng
Ġgi Ã´ng
et ric
Th uá»ĳc
Th áº§y
Ġre ar
Ġre nder
ang es
ur ated
Ġra cial
Ġcho lera
Ġst ab
Ġst akes
im ental
op ing
op es
op lin
op edic
op rene
Ġfor aging
ĠmÃł o
ol t
ol ith
ĠC á»ĳ
ĠC ob
ĠC auc
ĠC ookie
ĠT E
ĠT áºŃp
ĠT ree
ĠT able
ĠT áº¡m
ĠT uring
ad der
Ġlo anh
Ġlo vers
Ġab normal
Ġpr izes
Ġse men
Ġse aled
em in
ĠkhÃ¡ nh
Ġsh ook
Ġsh attered
Ġsh redd
ĠM s
ĠM es
ĠM ob
ĠM Ãły
ĠM istry
ĠM add
ĠM artha
ter ior
ĠA z
ĠA ction
ĠA ges
Ġwhat not
il age
ul ence
ant astic
ÄĲ á»Ļi
ĠB C
ĠB ass
ĠB ea
ĠB Ã¡o
ĠB ageye
ĠS ard
ĠS tern
ĠS ivers
ĠS olar
ĠS OL
ĠS elf
ĠN Y
ĠN ok
ĠN ash
ĠN FL
Ġfr idge
ers hip
ag ging
Ġj ars
ac er
Ġpe nd
ĠH á»ĵ
ĠH oney
ĠH orn
ear ing
um n
um atic
ate au
ab ble
el ve
Ġkn ives
Ġal leg
ĠP ut
ĠP att
ĠP oor
ĠP etr
ĠP TS
ĠP ET
ĠP tolem
un ks
Ġsp ine
Ġsp otted
Ġsp ikes
ĠG ot
ĠG ambia
ĠL ist
ĠL ive
ĠL iz
ĠL á»Ŀi
ĠL á»ħ
ĠL uria
Ġby e
Ġby prod
ĠD ist
ĠD anh
ĠD á»ĭch
Ġpl ut
ine ering
gh ar
Ġsu p
ose conds
ĠK P
ĠK ick
ĠK ev
ĠK erm
ĠK rist
ĠK obe
oc ated
iv ated
ai k
ĠÄĲ á»ĳc
ĠÄĲ á»£i
ous ing
ĠE ff
ĠE co
Ġle vers
Ġle aked
ĠR id
ĠR ah
ĠR ives
ĠR eal
ĠR umi
ĠR OV
Ġem an
Ġbr ig
Ġexp o
Ġper p
Ġper me
Ġper iph
res olution
Ġwhere by
ĠF E
ĠF ildes
ĠJ am
ĠTh á»ĭ
ĠTh anh
Ġneed ing
Ġneed les
ĠW or
ĠW ool
ĠW off
Ġun m
Ġun ified
Ġgr ief
Ġimp ulses
ro ves
ro ids
Ġdi als
ĠO ther
ĠO per
Ġdis son
Ġdis proportion
ĠV áº«n
ĠV isual
ell s
ell ar
Ġco ins
Ġam ph
Ġná» ĥ
Ġbet a
Ġbet ting
Ġmo ons
ĠU NA
Ġbl iss
Ġpro ves
ĠTr ÃŃ
Ġdifferent iate
ord ial
int osh
Ġpre h
Ġoff ensive
Ch im
ub le
ak ery
Ġcr ater
Ġcr unch
Ġdec on
Ġdec isive
Ġpers ons
Ġfl own
Ġdr ople
ĠSt ay
ĠSt ore
ĠSt alin
ĠIn vest
Ġtechn ologists
Ġinv is
Ġinv aded
Ġinv asive
Ġwom b
per ial
á»ķ ng
Ġsec re
Ġins ignific
Ġ6 1
Ng oáº¡i
Ġev ident
Ġtrans f
ty pe
Ġsuy á»ħn
Ġbas eline
Ġrel ies
ĠÃ įt
Ġinst ability
Ġmight y
ph ua
Ġpol es
Ġent it
Ġsl ash
Ġsl iced
Ġimag inations
Ġmon sters
Ġbi ases
ote chnology
co vered
Ġmet rics
Ġmet ropolitan
Ġngá» £m
Ġwater fall
ale en
Tr uyá»ģn
Ġdem oral
Ġeng ulf
ĠNg uá»ĵn
Ġopen ly
Ġsub d
Ġstr ips
gg ie
Ġconf use
ĠX áº¿p
Ġsol ves
Ġrep erto
Ġhead ache
Ġcle ared
Ġtop s
ĠchÃ¡ nh
idd ing
ĠHo le
Ġwond rous
Ġval ves
Ġred iscover
ott a
Ġcur tain
Ġdet r
Ġdet erg
Ġstuff ed
Ġgu est
ĠBr in
Ġcor als
Ġcor related
Ġrest ored
Ġrest oring
Ġref lex
Ġprop osing
Ġcam el
ĠSh ake
ĠSh reddies
Ġdev ised
Ġexc uses
Ġworks hops
Ġsw ap
rop on
Ġcost ly
Ġmar atÃ´ng
Ġass ert
Ġpast ing
NA SA
Ġcollect s
Ġpay off
Ġpay load
Ġwa ving
Ġresult ed
aster y
Ġfront iers
ĠZ urich
Ġmic row
Ġmic rop
ik er
ik ed
Ġav iation
omet ers
Ġtyp ed
Ġz eros
Ġmiss ile
Ġland fill
Ġill iterate
Äĳ áº¿n
book s
Ġshort cut
Ġjour nals
sh ot
sh oo
sh ifting
Ġpresent ations
Ġcal ibr
ĠNam ibia
Ġviol ation
Ġviol ated
Ġpsych otic
ann on
ann el
Ġlim bs
osp heric
Ġru á»Ļng
Qu est
bor ne
ĠchÃ³ t
Ġextrem ists
ĠPr og
Ġmult id
Ġmult imedia
Ġenc oded
Ġphotograph ic
Ġfilm makers
Ġground s
Ġground breaking
lt an
ĠAn na
An n
Ġconsum es
Ġap es
Ġdest ined
ĠGi ao
Ġcomb ining
unt a
Ġblue grass
yn thetic
Ġsmart phones
Ġfire fly
Ġtext ile
Ġpoll inate
Ġ24 0
Ġtw in
Ġsustain ing
ĠQu áº£
St art
Ġarr iving
Ġsn iff
ste au
Ġguess ed
Ġpredict s
uel ing
Ġprom otion
Ġpeace keepers
Ġtransform s
Ġer osion
ĠAd m
Ġvacc inated
Al ready
Ġintern ationally
Ġtouch es
ĠIraq i
ĠCl arke
Ġball ast
Ġtable t
Ġemb ark
Ġhang s
head ed
Ġvisual s
Ġvision ary
oid s
Ġsearch ed
Ġclean ers
Ġprim ordial
Ġcart ilage
Ġunf amiliar
Gi ao
ĠArab s
Ġconc ussion
ĠRe becca
Ġrain bow
cr ates
Ġgra ves
Ġdam aging
ĠEd ucation
Ġther apeut
Ġfix ing
20 10
Ġpush es
Ġinflu enza
Ġsyn apses
Ġkil owatt
Ġappear ing
Ġmulti pl
Ġelectr ode
Ġspeed ing
Ġpack ing
ĠÃģ n
Ġpublish ers
Ġcalcul ator
aid an
Ġslight est
Ġcontinu um
ĠMay an
Ġmá»ĵ m
back s
Ġdemonstr ating
Ġport able
Ġthrow s
ĠPl anet
verse ly
ulner ability
Ġencour ages
Ġautom otive
ĠBer ry
Ġsimpl ify
ĠiPh ones
Ġmotiv ations
Ġmotiv ates
ios is
Ġlaws uit
Ġcustom ization
Ġterm inal
Ġintegr ating
ĠEn ri
Ġbroad ly
Ġcontroll er
ĠLib Äĥng
ĠLib rary
Ġpuzz ling
Ġrecon fig
Ġhom em
Ġcru x
Ġhair s
Ġmeas urable
ĠRos al
Ġdemand ed
hand ed
ĠMark et
Ġbul k
Ġcontact s
ĠUS C
Ġrepe ating
Ġtough est
Ġwear able
Ġbomb ed
Ġshel ters
Ġwire lessly
ĠPro v
ĠBab bage
ĠMad ison
Ġprototy ping
Ġconduct ive
bur st
ĠTe chnology
Ġadop ting
ĠNa uy
Ġgrid lock
prof its
ĠWith out
Ġacceler ation
Mar garet
Ġanalog ies
Ġreview ed
Ġgam ing
Ġgam ers
Ġcere al
ĠMac intosh
ĠSl ick
Ġcontract s
Ġsoul s
ĠOk lah
Ġscar f
ĠIslam ist
Ġchannel rh
ĠBol ivia
Ġestab lishing
Ġpun ct
Ġrot ating
cont roll
Ġmad ness
ĠMil k
Ġur ges
Ġanonym ity
Ġflag s
Ġdevast ation
Ġwhist ling
Ġreh ears
ĠIm perial
ĠComm un
Ġdiss ent
Te ch
Te acher
ĠVi agra
ĠDemocr acy
Ġtrig gers
Ġbrib es
Ġirr igation
Ġattend ed
Ġdigit ized
ĠSand berg
ĠJac obs
Ġrefriger ators
Ġgut s
bal ance
Ġyield s
Ġleap frog
Ġcrash es
Ġflood s
ĠAntar ctic
Ġven om
Ġtoler ate
Ġcá»ĵ ng
ĠTah ltan
gu ard
Ġdecre ased
Ġconcert s
Ġsed uction
Ġfool ish
Ġspr int
Ġpleas ures
Ġtent h
ĠBern ard
ĠCom puter
Ġdelic ate
ĠThanks giving
Ġgee k
Ġwhis per
Ġnutri ent
Ġrenew ables
Ġunbeliev ably
Ġhol istic
Ġlimb ic
Ġmanufacture r
Ġobl igation
ĠTurk ish
rr rr
Ġtroub ling
Ġpsychopath s
Ġwid ow
Ġincident ally
Ġarrang ed
Ġarrang ements
Ġaccomplish ment
Ġemphas ize
Ġtear ing
Ġmini ature
ĠSol omon
ĠEv il
Ġpercept ual
Ġcareg iver
Art ist
ĠDes ert
Ġproph et
Ġoy sters
ĠGall up
Ġgenuine ly
Ġdrown ed
Ġenthusi astic
Ġdrought s
arg on
Ġsew age
Ġingen ious
Ġextr acellular
Ġimmers ed
Ġhipp ie
Ġprose cut
ĠMoh amed
Ġvivid ly
Mus ic
olit ics
ĠAgain st
Ġlegend ary
Ġsubt ract
Ġcraw l
Ġheter osexual
Ġunle ash
ĠAlber to
Bet ween
Ġunderm ine
Ġaltru ism
Ġgor o
ĠFil m
Ġcarp enter
Ġinhabit ants
Ġexha usted
nov ation
roch emical
Ġfemin ism
drop ping
Ġanecd ote
ĠMeg gendorfer
Ġspong e
ĠDai ly
Ġfluct u
Ġpix els
ĠPoll ock
Ġnumer ous
Ġcatad ore
Ġpiss ed
Ġinsec ure
ĠGirl s
Ġincarcer ation
Ġsanct uary
Eight y
Ġscal able
Ġaccommod ate
Ġlegitim acy
Ġwrink les
Ġq Ãºi
Ġjun ior
Ġorb iting
ĠDM CA
ĠKurd istan
Ġscoop ed
ĠMichoac Ã¡n
zs child
Ġvect or
ĠRead er
ĠSchwar zschild
Ġcertific ate
Mal colm
Sec ret
Ġreluct ant
Ġmoder ate
Ġdeter ior
Ġmirac ulous
ĠCommand ments
Ġunnecess ary
Ġkang ar
ĠTNC s
ĠMess age
ĠChand ler
Ġadul thood
ĠYah oo
Ġtestim ony
Ġrupe es
Ġinexp ensive
Oft en
tra umatic
Ġmun icip
Ġdazz ling
ĠIx aren
Ġwets uit
ĠMong olia
ĠKur zweil
Ġnanot ubes
ĠFranken stein
ĠTul ley
ĠSes ame
ĠKuz nets
Kn owing
Ġsopran o
ĠCou steau
Ġoutwe igh
Ġadap ting
ĠSheph elah
Ġembroid ery
ĠSwapt ree
Fur ther
Hum ans
Willi am
chest ra
Ġshredd ed
ĠPTS D
Ġbyprod uct
Ġperiph ery
Ġreperto ire
ĠOklah oma
. -
2 1
2 2
2 3
7 7
A W
A c
B áº¥y
B Ã¡nh
B ern
B razil
C ong
C omm
D D
D oug
D ennis
E lect
E conom
E ither
F N
F O
F e
G F
G h
G iven
H D
H S
H ome
J B
J N
J Y
K á»³
L ots
M et
M ah
N E
O R
O W
P al
Q uá»ĳc
R ep
R oy
R eg
R eal
R oger
S ong
T T
T inh
T iÃªu
U ng
V M
V iá»ĩn
V áºŃn
Y áº¿u
a ic
b ard
b ish
b read
b order
e ur
e ight
f el
f elt
f illed
g eren
h ed
h em
j ac
k w
k owitz
l on
l Ãª
l apse
m ons
n old
n atural
o i
p y
p hÃ
p op
r Ã´
r ick
r ified
s i
s is
s á»±
s ler
s olving
s quare
v iá»ĩc
v ana
w ed
y ce
z ac
¡ n
¢ t
Ã ¸
Ķ n
á» Ĺng
Ġt il
Ġt Ãºm
Ġc Ã²
Ġc uc
Ġc ada
Ġth Ã¢y
Ġn i
Ġn our
Ġn ost
Ġn Ã¨
Ġn ests
ĠÄĳ Äĥ
Ġl á»Ļc
Ġl ava
Ġl Ãµm
Ġm as
Ġm asks
Ġb á»Ł
Ġb ark
Ġb atch
Ġb ald
Ġh es
Ġh Å©
Ġv iv
Ġw andering
Ġi cons
re f
re p
re str
re nhe
Ġo Ãł
Ġk r
Ġk ings
Ġp od
Ġp ads
Ġg um
Ġg anh
Ġg Ã£i
Ġg á»ī
Ġg ently
Ġg ears
Ġg yrus
at able
at ism
Ġd Ã³
Ġd ÃŃ
Ġd ated
Ġd une
Ġd anced
er ala
Ġnh an
Ġnh en
Ġnh á»ĳi
Ã´ c
Ġtr Å©ng
ou p
Ġch Æ°ng
Ġto ng
an ine
es on
Ġr Ã¹ng
Ġr Äĥn
Ġr á»¯a
Ġr Ã³t
Ġr iot
Ġr hy
Ġr hyth
Ġf use
Ġf ences
or p
al il
al ach
al ph
al ah
Ġin efficient
Ġin effective
Ġthá» ģm
ar ial
ch t
ch ant
ch eck
in ning
Ġy a
Ġvá» Ľt
om bo
as than
ĠI GF
Ġwh aling
Ġph Æ°á»Ľc
us on
us ch
us ter
Ġqu Ã¢y
Ġta boo
á»± ng
ut t
ut iful
ĠnÃł nh
Th o
Ġtá» £n
Ġre ception
Ġre bel
Ġre lying
Ġre organ
ent iful
id ays
ang a
am ents
am ination
ig ate
ig ue
ig uel
Ġra ge
Ġra ging
Ġst itch
Ġst unt
Ġst unned
im Ã©t
ere en
Ġgiá» ı
Ġcon form
ir vana
st ore
st eps
ĠC ed
ĠC as
ĠC ut
ĠC od
ĠC ron
ĠC ox
ĠC ultural
ĠC urtis
ĠT H
ĠT at
ĠT Ãłng
ĠT Ã¢n
ĠT Æ°á»Łng
ĠT áº¡p
ĠT ata
ĠT oo
ĠT aj
ĠT oby
th s
th et
th á»©
th á»Ŀi
Ġu mb
Ġwith d
Ġlo bes
Ġpr one
Ġgo Ã¡
Ġgo ogle
em or
em ple
Ġas yl
Ġas cend
Ġso cks
Ġsh o
Ġsh oved
ĠM S
ĠM Ã´ng
ĠM ik
ĠM ann
ĠM ason
ĠM izz
ĠM aidan
So bule
ĠnÄĥ n
ĠA K
ĠA T
ĠA k
ĠA mb
ĠA venue
ĠA icha
il iation
ill er
Ġne on
ĠB B
ĠB j
ĠB iáº¿n
ĠB á»ı
ĠB Ã¡n
ĠB á»įn
ĠB ook
ĠB urns
ĠB acon
ĠB ennett
ĠB oulder
ĠB ieber
ĠB oeing
ĠB undy
ĠS A
ĠS uy
ĠS ally
ĠS Ã£o
ĠS val
ĠS earch
ĠS peed
ĠS AT
ĠS ydney
ĠS alaam
ĠN ou
ĠN ab
ĠN Äĥng
ĠN á»ķ
ĠN eg
ĠN á»Ĺi
Ġme adow
ag ically
ag les
ust ion
Ġj ets
Ġj eal
Ġj ams
ac s
ĠH ang
ĠH ood
ĠH ama
ĠH ero
ĠH uh
ear ning
ist ors
ist rib
est a
est ial
Nh iáº¿p
and i
and ro
ab asca
ung u
el ope
ob iles
áº» m
Ġkn ot
Ġkn ocking
og l
ie ces
ĠP H
ĠP M
ĠP ay
ĠP ra
ĠP RI
ĠP imp
ĠP atrick
un n
un us
Ġma id
Ġte apot
ĠG an
ĠG le
ĠG ol
ĠG ian
ĠG rove
ĠG rier
Ġup wards
Ġwho a
ĠL er
ĠL ip
ĠL aman
ĠL GB
ĠL azar
ĠD Ã¢y
ĠD ink
ĠD ance
ĠD akota
ĠD ereck
act er
Ġpl ur
Ġpl acing
Ġpl entiful
ame en
ast rous
are z
ĠK áº¿
ĠK an
ĠK em
ĠK are
ĠK ath
ĠK ins
ĠK ohn
ĠK arm
ĠK iev
ide press
Ġcomp ass
ĠÄĲ Ã¡ng
ĠÄĲ á»©a
ĠE qu
ĠE nt
ĠE aster
ĠE mb
ĠE rik
ĠE cosia
Ġle ash
ĠR as
ĠR ao
ĠR oth
ĠR ee
ĠR eed
ĠR ey
ĠR IS
ĠR atan
ĠR otterdam
ace y
ven ient
Ġbr ink
Ġmu ff
ra ib
Ġen act
Ġen for
itt e
ĠF M
ĠF lem
ĠF erg
ĠJ r
ĠJ ung
ĠJ urve
ĠJ oplin
ĠTh áºŃm
ĠTh uyáº¿t
Ġdiff use
ĠW in
ĠW att
ĠW ash
ĠW ald
ĠW ounded
ĠW inky
Ġun ac
Ġun ravel
Ġimp osed
ro e
ro v
ro ir
ĠCh á»¯
ĠCh uck
ass a
Ġdi Ãªm
Ġá» ¨ng
Ġdis se
Ġdis put
Ġdis eng
Ġdis cont
Ġdis section
Ġdis astrous
ea f
ĠV e
ĠV Æ°á»Ŀn
Ġback pack
ell ie
Ġcont aining
Ġpo etic
Ġná» ī
vel ile
ody nam
ru g
ru p
ru gu
ick ly
Ġxu a
ĠU lt
ĠU rugu
Ġbl ast
Ġbl amed
Ġbl adder
Ġdes ks
ĠTr acy
Ġdifferent ial
Ġbo il
Ġbo ils
Ġsy ll
pl aces
Ġhum ili
Ġdown stream
ian o
ĠY R
ĠY unus
Ch á»¥p
Ġinc ons
Ġinc omp
te in
ĠNh áºŃn
Ġro oft
av an
av ior
av ored
Ġcr ay
Ġcr ab
Ġcr ipp
Ġfl ute
Ġfl ashing
Ġfl utes
Ġgreat ness
ft y
Ġdr ift
ire ctor
Ġapp alling
Ġind uced
Ġind efin
ĠIn v
Ġlong ing
Ġtechn ician
per or
Ġcreat ively
ys s
ull inger
Ġchu á»ĵn
Ġexam ining
Ġtrans act
Ġtrans ducer
Ġunderstand able
Ġbas es
Ġpower fully
ph em
Ġinter tw
Ġfound ers
Ġcons erve
ily n
oth ar
Ġcre st
Ġmod em
ĠWe lcome
Ġmon et
Ġmon opoly
Ġpat ron
pe ople
pe ace
Ġbi ography
Ġgrow ers
Ġmed i
Ġlight bul
Ġlight weight
Ġfin est
Ġwater front
Ġread ily
ins p
ins ula
Ġless er
Ġexpl oding
Tr á»įng
Ġter roir
Ġposs essions
Ġel usive
ten borough
ĠAr nold
Ġsk ies
ĠSo k
Ġsub urban
Ġsub mers
Ġconf ession
Ġconf irmed
Ġelect oral
Ġcap acities
ĠAl ley
Ġsol itary
Ġhead phones
und i
Ġwar n
ĠHe ads
Ġpres ervation
Ġpres erved
Ġpres erving
enc ia
Ġspec ulation
Ġgovern ors
Ġphot ographing
Ġdist ill
Ġdist ort
Ġdist ress
Ġeduc ator
Ġyoung sters
Ġopp ression
Ġ18 50
ograph ically
Ġgu ga
ĠBr ain
ĠBr ussels
Ġdep ressing
aw ton
Ġ25 00
Ġheart beat
Ġdev otion
row d
Ġboth ered
Ġfore most
Ġfore head
Ġnhu áº§n
Ġpar an
Ġclass ification
ts on
ush room
Ġcost ing
Ġass ured
Ġret inal
Ġadv is
Ġcollect or
Ġwa x
Ġresult ing
ĠZ abb
ĠZ ullinger
ik a
ik en
Ġbá» «a
Ġprov ince
Ġprov oke
ĠEng elbart
Ġhold ers
Ġpot s
ma id
Ġtyp ew
Ġcoll ar
oph is
oph obia
Ġarch ety
Ġpred omin
Ġfear less
sh ed
To o
Ġfre aking
ĠCar roÃ§a
apt ist
Ġant idepress
Ġ201 6
Ġhands ome
Ġpract ition
Ġlim iting
Ġdirect ed
ĠTV s
ĠCal cut
Ġsun shine
Ġdu plic
Ġple a
Ġsuper p
Ġcommon place
Ġchem ists
Ġstrong est
Ġextrem es
ĠPr ogram
Ġvac ant
Ġphotograph ers
Ġweek ly
ĠHar old
ĠHar riet
Ġcool est
Ġdisc rete
Ġdisc arded
Ġimpact ing
Ġimpact ed
Ġvers a
ĠAm anda
ĠMar ie
ĠMar cus
ĠMar ilyn
ĠBl u
ĠBl ock
ĠBl anc
Ġhar ass
chie f
Ġunivers ally
Ġfire men
Ġpost ing
ĠRob in
ĠRob bie
par ov
Ġcy cl
Ġcy borg
ĠThÃ¡ ng
Ġguess ing
Ġsounds cape
Ġdepend ed
Ġer u
Ġer ase
ĠAt tenborough
Al ong
ĠDe pp
Ġsimilar ities
Ġcompet itions
illi ard
Ġconflict ing
lex ic
Ġ0 5
wit z
Ġvisual izing
Ġreact ing
ram ento
Ġattack er
light s
ĠKh u
ĠKh adija
Ġ196 7
Ġemerg ent
Ġblind ly
ĠGr ameen
Ġparticip atory
ĠAD HD
ĠWar craft
Ġthreat ens
Ġadm ired
Ġflu ent
ucle ar
Ġec st
Ġpositive ly
ĠSm art
ĠEd dy
wor king
ĠPal o
Ġcong rat
Ġclin ically
ĠAng ola
ĠAng ela
Ġwild ly
Ġjud ging
Ġsmell ed
Ġconcer ning
Sh ame
Sh bab
Ġthr iving
Ġenjoy ment
gr own
unk er
Ġcontinu ity
ax e
Ġjump s
ĠSe ng
ĠSe oul
Ġsal aries
och ai
och ond
ĠDr acorex
Ġpros thes
Ġcust oms
ams ala
Ġaddress es
fl ow
ĠMan chester
Ġautom ation
Ġautom obiles
Ġhistor ians
Ġir reg
ĠApp alach
Ġwealth ier
ĠNA TO
Ġpen ny
ĠGreen e
ĠWeb b
Ġlaws uits
ĠGl as
Ġsymb iosis
Ġanaly tical
Ġbeat box
Ġsky diving
Ġliber ated
Ġgradu ation
Ġmut ant
odes k
ĠEn light
Ġstrength en
Ġatm ospheric
Like wise
Ġlack ing
ĠGh raib
Ġver ify
Ġshoot s
Ġbrand ed
Ġcru ise
ĠMont real
Ġcogn ition
ĠLu x
amb urg
Ġbrilli ance
ĠSu z
ĠSu ghar
ĠTor valds
Ġtour ist
ĠMal i
ĠSun ni
ha as
Ġcontact ed
Ġillustr ated
Ġhost s
Ġship yard
Ġdefe ated
eph an
roph obic
Ġdomin ate
Ġscr ut
Ġartific ially
ĠSwed es
Ġgrab bing
Ġbomb ard
Ġantib ody
Ġstim ulated
Ġrat ios
Ġincent iv
Ġextract s
Ġextract ing
Ġhydr oc
Ġinvestig ations
Ġfrag ment
Ġtit led
Ġconduct ing
ĠTe chn
ĠAc umen
Ġstrang eness
ĠCr ick
Ġperce iving
Ġimplic it
Ġindic ation
Ġindic ates
Ġindic ating
Ġexhib itions
Ġcrack ers
Ġcartoon ists
ĠBur ger
Ġ195 4
min ster
Ġrecy cl
Ġsight s
Ġmosquit oes
sp eak
ĠMah ab
Ġdisp ute
Ġdisp osal
Ġconstruct ive
Ġpal ette
Ġfle e
Ġrein force
Ġlift s
Ġmanip ulating
Ġnurs ing
ĠBol te
Ġske let
Ġpip elines
ĠnhÃ³ t
Ġdisappear ing
Ġinterpret ed
Americ a
Does n
Ġwitness ing
Ġdat as
Ġuns afe
osn i
Ġrot ate
Ġagg ression
PhÃ ³ng
PhÃ ²ng
Ġcyber att
Ġcock pit
ĠKe ep
ĠSom ali
Ġwhist les
Ġsuic idal
Ġdownload ed
Ġmemor ize
Ġspiritual ity
ĠComm ons
Ġasp ire
ĠMill iken
Ġexec ution
ĠWal ter
Ġdesper ation
iat ry
uch ia
Ġpool s
Ġment ality
Ġdefend ers
xim ity
Ġcast ing
see able
ĠPan ama
Ġblank et
Ġhur ry
cÃ´ la
Ġstack s
Ġstack ing
Ġdeploy ment
ĠKir k
Ġencoun ters
Car oline
Ġtack ling
ĠTre k
ĠPart ners
ĠPart icip
Ġcrash ed
Ġinterf erence
Ġinfin itely
Ġdisturb ed
Comp assion
Ġchamp agne
Ġintention ally
ĠStar ck
Ġadvoc ating
Ġadvoc acy
ĠDisney land
Ġmarch ed
Ġder ive
Ġboss y
Ġkiss ing
ĠBel g
quar ium
ĠTam il
ĠHel p
ĠPop corn
ĠPalestin ians
ĠCamp uchia
Ġspell s
Ġscript s
ĠSal inas
Ġhoney bees
Ġká»ģ nh
Ġprec aut
Ġprec urs
Ed ward
Ġcas ually
Ġbend ing
ĠChurch ill
Ġdelight ful
ĠCur itiba
ĠDub lin
ĠDoug las
Ġ192 6
Ġ192 9
Ġimprov ising
Ġnutrition al
las ma
Ġmelt ed
Ġclar ify
Ġredef ining
fly er
Ġwound ed
ĠMag gie
ĠMag azine
ĠAch e
ĠOs lo
ĠScr abble
Ġvent ilation
ĠKam kw
Ġtroub led
Ġsettle ments
Ġpsychopath ic
ĠUN ICEF
Ġjoint s
Ġsuspect s
lar ation
ĠMos kowitz
Ġcompos ite
Ġincor rect
Ġmonit ored
Ġwatt s
ĠnhÃŃ m
istor ic
Ġdelay ed
Ġpanc reas
ĠCru z
Ġunconscious ly
Ġtooth p
Ġyog urt
ĠId ol
Ġbutter fly
Ġdent ist
Ġdood le
Ġspons ored
ĠUs ing
ĠUs ain
ĠInter val
ĠMcK ay
dis ciplinary
Ne il
Ne ither
ĠHas an
KhÃ Ń
Ġnap ot
ĠHu ang
ĠHu gh
ĠKle e
RC K
Sam uel
Ġconqu er
Ġturb ines
Ġrevel ations
Ġprose c
ĠHuman ity
ĠJen ning
ĠGeor ges
ĠCloud burst
Ġforb idden
ĠAust en
ĠFood s
Ġhun ters
ĠvÃ£ nh
otect ed
ĠAut odesk
ĠBart ok
Ġlex icon
ĠAhmed abad
Ġexecut ives
Ġcass ette
Ġwrest le
ĠPu gh
ĠPu erto
Ġmanifest ation
Bet ter
Ġrib bon
Ġloyal ty
Ġbless ing
ĠBrad ley
Ġoffe nders
ĠCla es
ĠNic olas
Ġexpon ential
ĠOld enburg
perform ance
Ġembry onic
Ġthy roid
ĠMull ins
ĠBet ty
ĠHaz leton
Ġacoust ic
Ġbiolumines cence
Ġrecruit ment
ĠImp rov
ĠPass age
Ġcaf et
Ġesc aped
Ġdictators hip
ĠKas parov
ĠRub y
ĠCarr illo
Ġantenna e
Ġdivid ing
Ġdepr ivation
ĠKin sey
Ġsymm etry
Ġincub ator
Ġindirect ly
ĠAlb ania
Ġ187 9
Ġoccas ional
Ġprostit ution
Ġmeerk ats
ĠGam ble
Ġappet ite
Ġbarb ec
ĠSeb astian
Ġrect angle
ĠprÃ´ tein
Ġseam lessly
ĠBeh ar
ĠSac ramento
ĠPi erson
Ġorth opedic
ĠVerm eer
ĠIsa ac
ĠMorgan a
Ġprolifer ation
ĠMau i
ĠSoph ia
ĠPas ht
ĠVill age
Ġadren aline
Ġempir ical
Ġmortg age
Ġdysfunction al
Gu ess
wid th
Ġvá»ĵ ng
ĠMead ow
ĠPri us
ĠKite flyer
ĠChim borazo
Ġtraff icked
ĠShack leton
Ġapoc aly
ĠBitco in
Ġepiph any
Ġtrigg ered
Ġdisagre ement
Dem ocracy
ĠMee geren
Ġplum met
ĠKind le
ĠRaj asthan
ĠWag ner
Ġmoist ure
arko zy
ĠFlore nce
ĠDhar amsala
Certain ly
Pros pera
Ġdaunt ing
otr ans
ĠrÆ¡ m
Ġcompr ised
Ġcroc od
Ġcaffe ine
Ġstrat osphere
Ġrestor ative
Ġdegrad ation
Ġpessim istic
Eur ope
Sus an
design ed
Ġcel estial
ĠKool haas
ĠRail way
ĠFas o
ĠFah renhe
Ġsurrog ate
Ġantiretrovir al
Ġply wood
Ġgeck o
Ġnguá» Ŀi
ĠCauc as
ĠDist rict
ĠRid ley
ĠWoff ord
Ġmicrop roc
Ġchannelrh odops
yce phal
Ġrhyth ms
ĠMizz one
ĠSval bard
ĠLGB T
ĠLazar us
ĠKins hasa
ĠKarm apa
ĠRIS D
ĠFerg uson
ĠJurve tson
odynam ics
ĠUrugu ay
ĠZabb aleen
ĠCalcut ta
ĠFahrenhe it
2 7
5 3
6 8
B l
B ot
B Ãłn
B Ã©
B arry
C N
C ities
D áº¥u
D Ã²ng
D á»ħ
E v
E xt
F C
G uy
G reg
G raham
G wen
H elp
I M
J ac
L ong
L ÃŃ
L á»±c
L uc
L á»±a
L ead
M U
M el
M ars
M illions
M ann
N áº¡n
N ine
N á»Ļi
N ico
N á»Ńa
O xy
P op
R ay
S ing
S al
S ounds
S cott
T Æ°
T ay
T Ã¢m
T á»ĳc
T urn
T á»·
V á»¥
V áº»
V á»£
W orld
Z e
a ism
b illion
c áº£
c á»¥
c ia
c ro
c ising
c ourse
d Ã¹
d em
d ie
d ala
g ow
g one
g rowing
g urdy
h ov
h ouses
i i
i ery
j ec
k ig
l Ã´
l est
n iv
p ill
r il
r áºŃp
r ma
s im
s aw
t uy
t own
t enth
v ar
w rest
z im
Ġ _
Ġ Ãºp
Ġ áº¯p
Ġ Æł
Ġt ant
Ġt Ã©
Ġt ucked
Ġt igers
Ġc er
Ġc ords
Ġth orn
Ġth Ã²i
Ġn oun
ĠÄĳ Ãªn
ĠÄĳ Ã¹ng
ĠÄĳ uá»£
Ġa ur
Ġs á»¯ng
Ġs áº§u
Ġs á»ĵi
Ġs cent
Ġs orrow
Ġl Ãº
Ġl áº¹
Ġl atr
Ġm á»¥
Ġm Ã¹ng
Ġm áº¯ng
Ġm oth
Ġm ism
Ġm erge
Ġm otto
Ġb ise
Ġb Ã¹a
Ġb Ã¹m
Ġb iÃªt
Ġh ers
Ġh ive
Ġh áº¡c
Ġh ull
Ġh á»ĳt
Ġh uyá»ĩn
Ġh Ã©o
Ġv Æ¡
Ġv ic
Ġv alle
Ġw ob
Ġw akes
Ġk its
Ġk ett
Ġp H
Ġp ine
Ġp ave
Ġp ork
Ġp ier
Ġp enn
Ġp unk
Ġp oker
Ġg Ãłng
Ġg uru
at ient
Ġd áº·t
Ġd ub
Ġd ull
Ġd ances
er idge
er ald
Ġnh Ãłn
Ġnh ung
Ġnh áº§y
Ġtr Äĥn
Ġtr Ã²ng
Ġtr illions
Ġch áº§n
Ġch ao
Ġch Å©ng
Ġch uá»Ļc
Ġch alk
Ġch atter
os y
os cope
on ian
Ġto Ã¡i
ing e
Ġng áº§u
Ġng á»ı
Ġng Æ°á»£ng
Ġng áº¡t
ot ional
ot eric
Ġr Ãªn
Ġr ation
Ġr ick
Ġr ider
Ġr Ã¨m
Ġr ushing
Ġr iots
Ġf ount
Ġf aked
Ġf ifty
or um
al m
al ians
is en
ed e
ed ical
ar io
ch u
in av
in fect
Ġy áº¿n
Ġvá» ĥ
om o
om atic
as ia
ĠI l
Ġe tern
Ġwh oles
Ġph á»ī
us cript
Ġkh ay
Ġkh áº¯t
Ġbe ard
ut ans
Ġit er
Ġgi ra
et ooth
Th iÃªn
Ġx iáº¿t
Ġre ver
Ġre pt
Ġre ign
Ġre arr
Ġre ju
ent in
Ġha il
uy á»ħn
am el
am orous
ig nt
Ġra b
Ġra o
Ġra v
Ġst ap
Ġst ink
Ġst ark
Ġst ats
Ġst igm
Ġdo ve
Ġdo ck
im en
ce ived
Ġchá» «
Ġchá» «a
op ic
op sy
Ġgiá» Ŀi
Ġfor um
ol an
ol io
ir rel
Ġsa us
Ġsa int
st ation
ĠC T
ĠC age
ĠC ub
ĠC iti
ĠC ynthia
ĠC á»±u
ĠC arson
ĠT an
ĠT Ãłu
ĠT uyÃªn
ĠT á»«ng
ĠT win
th em
th est
th reat
Ġu Ã½
Ġgo gg
Ġcan s
ht aking
Ġsh ores
ĠM ack
ĠM ade
ĠM mm
ĠM aker
ĠA O
ĠA y
ĠA ra
ĠA bor
ĠA RN
il st
il itating
ill ings
ĠnhÃ µm
ant e
ÄĲ áº¡o
ÄĲ á»©c
ÄĲ Ãªm
ÄĲ á»ĭnh
ĠB K
ĠB ed
ĠB ÃŃ
ĠB Æ°á»Ľc
ĠB Ã¡nh
ĠB ull
ĠB ati
ĠB AS
ĠB RCK
ĠS ar
ĠS ong
ĠS et
ĠS ai
ĠS áºµn
ĠS pect
ĠS ending
ĠN áº¥m
Ġnot ed
Ġnot ation
Ġfr ail
ag all
ĠnghÄ© nh
Ġj argon
Ġus d
ac ial
ac ier
art a
ĠH and
ĠH ope
ĠH ock
ĠH ands
ĠH utu
ĠH osni
ear ly
Ġor al
um bo
Nh u
Nh iá»ĩt
and y
and inav
el ig
ob in
ĠphÃ¡ ch
Ġout lines
Ġint imately
ĠP ot
ĠP ed
ĠP ack
ĠP ew
ĠP ool
ĠP AC
un al
un ed
un ci
Ġma ze
Ġte ens
Ġsp okes
ĠG a
ĠG Ã¬
ĠL áº¥y
ĠL em
ĠL otto
ci ating
ci ences
ĠD ur
ĠD ear
ĠD iff
ĠD ream
ĠD iction
ĠD ays
ĠD irect
act ory
Ġpl ural
Ġact ress
Ġim itate
Ġsee ks
Ġsu ite
Ġsu ited
ĠK ings
ĠK af
Ġcomp elled
Ġcomp atible
ĠÄĲ ang
ĠÄĲ Ãłn
ĠÄĲ Æ°Æ¡ng
ĠÄĲ áº£o
ĠÄĲ Ãªm
ĠÄĲ á»©ng
ĠE ver
ĠE PA
ĠR out
ĠR ag
ĠR est
ĠR up
ĠR ita
ĠR ena
ĠR abin
ĠR ift
Ġem ulate
Ġem itted
Ġbr on
Ġbr iqu
Ġag on
Ġexp end
Ġper c
Ġ3 30
Ġman ia
Ġman uscript
ĠmÃ¡ ch
ild red
Ġen list
ĠF i
ĠF is
ĠF itz
ĠF isher
ĠJ ak
ĠJ eh
ĠTh ai
ĠTh áº§y
Ġcl oning
ĠW a
Ġun lim
Ġun related
Ġgr app
Ġgr illed
Ġbu c
ice lli
Ġar k
Ġar ises
ĠCh am
ĠCh ia
ass um
ĠO pp
ĠO ops
Ġdis bel
Ġdis char
ount ry
ea ve
ĠV iá»ħn
Ġnew est
ens ible
ens pace
ell ows
Ġco er
ec y
ec ies
ult s
Ġpo ke
cent ric
Ġam yg
Ġunder sea
Ġbet ray
ru b
ru ciating
Ġmo i
Ġtrá» Ŀ
In ter
In side
Ġday light
Ġday care
ĠU V
ĠU ng
Ġbl unt
Ġbl aming
Ġpro hib
Ġpro ximity
Ġdes al
Ġdes irable
Ġad age
ĠTr á»Ł
ĠTr Ã²
Ġbo ot
ath ai
ath etic
ish es
int ed
other mal
Ġcomm ittee
ĠY ochai
Ch uyá»ĥn
Ġsc iss
Ġsc ares
Ġsc attered
Ġinc ap
Ġinc idence
Ġinc idents
ak is
ĠVÃł i
ĠVÃł ng
av ic
we ed
Ġcr ammed
Ġnhá» ©ng
Ġdr ank
Ġdr ied
Ġdr ifting
ric ia
ire n
Ġsim ulated
Ġla ze
ri ka
Ġafter math
ys ics
Ġcar c
Ġob ey
Ġba it
Ġlast ly
Ġexam ined
Ġtrans istors
ĠThe od
Ġgl ands
gan istan
Ġvá»¥ t
Ġwr apping
Ġinter medi
Ġsl ot
Ġsl ows
Ġ8 000
Ġtu á»Ļt
Ġimag inative
Ġrá» £n
ĠAf ganistan
Ġquestion n
aph or
Ġmet ast
Ġngá» ¡
Ġop aque
cept ions
Ġcent ered
Ġcent igrade
Ġed ition
Ġrun ners
Ġbook store
Ġhy ena
ten ance
ĠAr c
Ġsk ier
ĠNg Ã´n
Ġsupp ressed
ĠSo x
ĠUn iversal
ran es
Ġpop ulated
ĠX e
ĠX ia
-- -
Ġrep os
Ġrep ublic
Ġhead aches
vern mental
ĠWh ile
ever al
Ġcle arer
Ġwar rant
ĠIs abel
Ġset up
ĠInd ust
ĠâĢ ĭ
Ġ18 90
Ġprot ons
Ġgu ides
Ġmark ers
ĠBr agg
ortun ity
Ġpain s
Ġrest ing
Ġrest rain
Ph iÃªn
Ġgá» £n
Ġprop oses
ĠSh in
ĠSh elf
ĠSh eryl
Ġheart felt
Ġdef riend
Ġdev oted
Ġpicture d
Ġexc av
Ġexc ruciating
anc a
Ġpar abol
Ġmag ically
Ġsw ord
Ġsw ept
ocr ates
Ġass ass
Ġaff irm
Ġaff airs
Ġaw ak
Ġpay check
Ġview point
Ġcomplex ities
ĠZ ach
Ġmic rof
cul us
Ġnon profits
icult ural
Ġneur otrans
Ġmess aging
Ġdifficult ies
Ġaud acious
Ġinteract ed
Ġarch ives
Ġarch ae
Ġfear ful
Ġblack board
sh ake
Ġlá»ĵ i
com ed
enn ial
Ġ14 00
Ġant ique
Ġpsych e
Ġfac ade
Ġperform ers
ĠFr ans
ĠFr aser
Ġsun ny
Ġsun set
Ġru ined
Ġcommunic ates
Ġextrem ist
ĠPr ay
ĠPr int
ĠPr ickly
Ġperfect ion
Ġenc ode
Ġenc oder
Ġdisc ount
eh r
eh man
ĠAn other
Ġap athy
Ġfoot steps
Ġopt ic
Ġopt ics
Ġbar bar
Ġsil ently
ouch ed
Ġfire man
ug aad
Ġpoll ing
Ġge ological
Ġge ographical
Ġcivil ized
ĠMy Space
St an
St op
St ewart
Ġarr ival
Ġsn ob
Ġkhá»© u
Ġpolic emen
Ġpolic eman
ĠSc andinav
arr icelli
Ġsounds capes
Ġlog istics
Ġsuff ers
Ġast ounding
Ġtrust worthy
Ġbed r
Ġserious ness
Ġang el
ĠCl ark
ĠCl imate
Ġdefin itive
Ġevolution arily
Ġdanger ously
Ġnecess ity
oo oo
Ġbreat htaking
Ġwish ed
Ġreact ed
Ġcross word
Ġarm ies
ĠCam er
col a
ĠNorth west
Gi áº¥c
Ġcontext s
Ġdin er
Ġthreat en
ĠRe ich
ĠRe uters
Ġrain water
Ġinflu ential
Ġspir al
Ġkil ogram
Ġposition ing
Ġfreedom s
Ġemploy ing
Ġclos es
Ġtemper ate
Ġdeb ates
Ġcong ress
Ġcapt uring
Ġstrugg les
Ġbá»ķ n
Ġsmell y
Ġsmell ing
Ġcapital ist
Sh ort
Sh eryl
Ġthr ived
Ġenjoy able
Ġeffic acy
Ġgenetic ist
Ġstar ve
iling ual
Ġord ering
ThÃ ´i
Ġforget ting
Kho áº£nh
reg ated
Ġphoto j
Ġdispl ace
ĠWeb ster
ĠnhÃ¡ p
Ġcustom ized
Ġterm ites
Ġliber ating
Ġmut ilation
ĠEn ter
Be au
Ġax e
Ġut er
Ġclick ed
Ġmicro RN
Ġver se
Ġappl iances
Ġinfrastruct ures
Look ing
ij i
Ġpuzz led
ĠMa jor
ĠLu áºŃn
Ġbrilli antly
ĠSun itha
ĠLeg adema
Ġhost ility
ĠHig g
ĠTur bo
Ġintellect ually
ĠJack ie
Ġround ed
Ġdiet ing
Ġund ers
Go ing
Ġcred ible
Ġstim ulating
Ġinvestig ated
Ġmill imeters
Ġfrag rance
Ġodd ly
ĠJon ny
Ġgard ening
Ġbelong ed
Ġque ue
Ġmigr ants
ĠTony a
ĠPhÃ Ńa
Ġsmile y
ĠYemen i
More over
Ġvibr ation
Ġconstruct ions
Ġtall est
Ġpal ms
ĠHer itage
Ġsubst ances
Ġwarm th
Ġtang o
Ġdrag on
etr ical
Ġsen iors
Ġflash es
Ġnit Æ¡
Ġshr inking
Ġflower ing
ĠhÃ² m
organ isms
Ġmel ts
Ġconsist ency
ĠBlack awton
Ġrot ates
Ġconfront ation
ek hov
Ġrebu ilt
ĠEas y
Ġobser ver
Ġgall eries
Ġassign ments
Ġchurch es
Ġneut ron
Ġur anium
ĠPat ent
Ġprem ium
Ġstoryt ellers
Ġembarrass ment
Ġwel comed
resp ons
Ġthin ner
Ġbeach es
Ġconver ts
ĠComm ission
Ġasp iration
Ġimplement ation
ĠVi enna
Ġreplic ated
viol ent
Ġestablish ment
Ġment oring
Ġpill ow
ĠSen ior
ĠRock well
Ġfeature d
Ġ46 6
Ġrub bish
Ġcollaps ing
Ġcast le
Ġped al
Ġpretend ing
ĠColl usion
Ġcompl aining
Ġrefriger ation
Br it
Ġflood ed
ĠHis pan
Comp are
Ġtoler ant
Ġbull do
Ġprosper ous
ĠSer b
Ġaccum ulated
ĠBeij erinck
Ġalgorithm ic
tail ed
Ġcens us
Ġlens es
Ġhalluc ination
ĠBern oulli
Ġspell ed
Ġspark ed
Ġanthrop ologists
Ġsle e
Ed ucation
umin ous
ĠJud aism
Ġadministr ators
Ġdynam ically
Ġstereoty pe
Ġsuck ed
Ġdiam onds
Ġ193 8
ĠQue ens
Ġpurch ases
Ġpurch asing
pro v
Ġtherm o
Ġborrow ed
ĠTunis ian
Ġhier arch
Ġpyram ids
Ġenh ances
Ġenh anced
Ġimmun ization
Ġvent ilated
Ġbell s
Ġrail way
Ġsav anna
ĠnhÃº m
Ġsupermark ets
ĠMod el
ĠFed eral
ĠFed eration
Ġmurd erer
Ġgre edy
ĠAsh down
aware ness
Ġfet uses
ĠBo ard
gi ene
ĠRem ember
Ġannoy ed
Ġwet lands
ĠÂ ¼
ĠMedic ines
Ġinterconnected ness
ĠStr at
Ġmemb ranes
ĠPost Secret
Ġspons or
Ġbrows ing
Ġdecl ined
Ġdivor ced
Ġcra ve
Ġprol ong
Ġwhistle bl
Jo el
Ġspo il
Ġspray ing
ĠVol vo
ĠchÃ© m
Ġalign ment
Ġutil ize
Ġutil itarian
Ġreass uring
Ġstake holders
ĠLaure n
Ġlawn s
Ġdemocrat ization
Ġimmers ion
gener ation
gener ated
ĠTw ain
ĠJen kins
Ġtempor arily
Ġsummar ized
Ġempath ize
Ġcass ava
ĠCS I
Ġá»« m
Ġaspir ations
Ġhurd le
Ġlingu istic
opp y
Ġsovere ignt
Ġenlight ened
Ġundergrad uates
Ġflaw ed
perform ing
Phil ip
nov a
Ġhaunt ed
ĠDun lap
Ġperpet ual
Ġregul atory
Ġski ing
Ġfemin ine
Ġcontamin ated
Ġpsychiatr ists
Ġsacrific es
Ġundergo ing
Ġpresum ably
Ġcatad ores
Ġpenetr ate
Ġmes se
Ġdivid es
ifi able
Ġrecur rent
Ġconsol ation
Ġoccas ions
ĠDenisov ans
ĠEr n
Ġdispar ate
Ġpreval ent
Ġhoc key
ĠPach ycephal
ĠKend all
Ġcourts hip
ĠCorn ell
ĠTi Vo
ĠInf inity
Ġcarcin ogens
ĠAss ange
Ġaggreg ate
Bre nda
Hope fully
Ġswo llen
Ġove rest
Ġkar ate
Ġpav ilion
Ġfest ival
Ġcann ib
Ġcomed ian
Ġtender ness
ĠDew ey
Ġunint ended
ĠVel cro
áº¢ nh
Ġrecipr ocity
Ġfulfill ment
Ear ly
ĠBul gar
ieg el
ĠChev al
Ġsubsequ ently
Bel ieve
sens itive
Ġnin ja
Ġsie ge
Ġhaz ard
Ġjur isd
Ġreserv ations
Ġprogramm able
Ġcalor ie
Ġtempl ate
ĠYugoslav ia
idel ity
ĠTox o
Ġsober ing
Ġspraw l
Ġuncon ventional
Ġeyew itness
Sev enty
Ġsug ars
Ġcohere nt
ĠParik rma
Govern ments
Ġpersever ance
Ġcater pill
Ġgau ge
ĠNok ia
ĠKerm it
Ġdecon struct
Ġmicrow ave
ĠProg ress
ĠEnri quez
ĠDemocracy OS
Ġcuc umber
ĠCron in
Ġasyl um
ogl obin
Ġincons ist
Ġtypew riter
Ġsuperp owers
Ġirreg ular
ĠGlas gow
ĠBelg ium
Ġcafet eria
kig ai
ĠÄĳuá»£ c
Ġbise xual
Ġvalle ys
Ġreju ven
Ġgogg les
ĠBati uk
ĠRena issance
Ġunlim ited
Ġdisbel ief
Ġamyg dala
Ġsciss ors
ĠmicroRN As
3 4
5 4
A p
A ct
A id
A fe
A aron
B ea
B ring
B everly
B á»Ĺng
C r
C á»§a
D H
D áº§n
D anh
D ave
D ata
D AR
D ER
E B
E st
E llen
G áº¥p
G ever
G ener
G rowing
I P
J U
K ÃŃnh
L G
L V
L ight
L Å©
L á»Ľp
L ocal
L earning
M c
M r
M or
M áº«u
M áº¡ng
M ik
N á»¯
N Ãły
N ick
N icholas
P O
P ower
P oor
R P
R ick
R yan
S J
S uz
S everal
T G
T al
T Ã´n
T ra
U se
V ai
V Ã²ng
V á»«a
X u
Y B
Y Ãªu
b Ãª
b ac
b ott
b irth
b irds
b imet
c ock
c ologist
d a
d ul
d est
d oc
d irection
e at
e nh
f in
f its
f ried
f athers
g ard
h u
h ar
i ary
j ack
k man
k irts
l it
l asses
n ar
n ote
n ier
n esty
p ont
p arency
r áº¯c
r Ã©
s son
t ic
t ouch
v ie
v isions
v ani
w al
w aters
y ad
z an
z be
© n
Ã ¤
Ã ¼
Ġ ÃŃ
Ġ Æ°ng
Ġ áº¡t
Ń i
á» ª
Ġt ed
Ġt ul
Ġt áº±m
Ġt ides
Ġt icking
ng al
ng ay
ng Ãły
Ġc ured
Ġc ubes
Ġc oded
Ġth áº©n
Ġth irty
Ġn od
Ġn Æ°Æ¡ng
Ġn áº¹p
Ġn iÃªm
ĠÄĳ u
ĠÄĳ Ã¡i
Ġa ver
Ġa irst
Ġa ids
Ġs id
Ġs iáº¿t
Ġs á»ĩt
Ġs ank
Ġs á»įc
Ġs eren
Ġl ing
Ġl á»±
Ġl ol
Ġl ust
Ġl un
Ġl áº£ng
Ġl Ã³c
Ġl uá»µ
Ġl uyáº¿n
Ġl á»ĳp
Ġl á»¥i
Ġm Ã³
Ġm Ã¡ng
Ġm Ã²ng
Ġm alle
Ġb um
Ġb un
Ġb ury
Ġb leep
Ġb ounds
[...]
