{
    "<s>": 0,
    "<pad>": 1,
    "</s>": 2,
    "<unk>": 3,
    "<mask>": 4,
    "!": 5,
    "\"": 6,
    "#": 7,
    "$": 8,
    "%": 9,
    "&": 10,
    "'": 11,
    "(": 12,
    ")": 13,
    "*": 14,
    "+": 15,
    ",": 16,
    "-": 17,
    ".": 18,
    "/": 19,
    "0": 20,
    "1": 21,
    "2": 22,
    "3": 23,
    "4": 24,
    "5": 25,
    "6": 26,
    "7": 27,
    "8": 28,
    "9": 29,
    ":": 30,
    ";": 31,
    "<": 32,
    "=": 33,
    ">": 34,
    "?": 35,
    "@": 36,
    "A": 37,
    "B": 38,
    "C": 39,
    "D": 40,
    "E": 41,
    "F": 42,
    "G": 43,
    "H": 44,
    "I": 45,
    "J": 46,
    "K": 47,
    "L": 48,
    "M": 49,
    "N": 50,
    "O": 51,
    "P": 52,
    "Q": 53,
    "R": 54,
    "S": 55,
    "T": 56,
    "U": 57,
    "V": 58,
    "W": 59,
    "X": 60,
    "Y": 61,
    "Z": 62,
    "[": 63,
    "\\": 64,
    "]": 65,
    "^": 66,
    "_": 67,
    "`": 68,
    "a": 69,
    "b": 70,
    "c": 71,
    "d": 72,
    "e": 73,
    "f": 74,
    "g": 75,
    "h": 76,
    "i": 77,
    "j": 78,
    "k": 79,
    "l": 80,
    "m": 81,
    "n": 82,
    "o": 83,
    "p": 84,
    "q": 85,
    "r": 86,
    "s": 87,
    "t": 88,
    "u": 89,
    "v": 90,
    "w": 91,
    "x": 92,
    "y": 93,
    "z": 94,
    "{": 95,
    "|": 96,
    "}": 97,
    "~": 98,
    "¡": 99,
    "¢": 100,
    "£": 101,
    "¤": 102,
    "¥": 103,
    "¦": 104,
    "§": 105,
    "¨": 106,
    "©": 107,
    "ª": 108,
    "«": 109,
    "¬": 110,
    "®": 111,
    "¯": 112,
    "°": 113,
    "±": 114,
    "²": 115,
    "³": 116,
    "´": 117,
    "µ": 118,
    "¶": 119,
    "·": 120,
    "¸": 121,
    "¹": 122,
    "º": 123,
    "»": 124,
    "¼": 125,
    "½": 126,
    "¾": 127,
    "¿": 128,
    "À": 129,
    "Á": 130,
    "Â": 131,
    "Ã": 132,
    "Ä": 133,
    "Å": 134,
    "Æ": 135,
    "Ç": 136,
    "È": 137,
    "É": 138,
    "Ê": 139,
    "Ë": 140,
    "Ì": 141,
    "Í": 142,
    "Î": 143,
    "Ï": 144,
    "Ð": 145,
    "Ñ": 146,
    "Ò": 147,
    "Ó": 148,
    "Ô": 149,
    "Õ": 150,
    "Ö": 151,
    "×": 152,
    "Ø": 153,
    "Ù": 154,
    "Ú": 155,
    "Û": 156,
    "Ü": 157,
    "Ý": 158,
    "Þ": 159,
    "ß": 160,
    "à": 161,
    "á": 162,
    "â": 163,
    "ã": 164,
    "ä": 165,
    "å": 166,
    "æ": 167,
    "ç": 168,
    "è": 169,
    "é": 170,
    "ê": 171,
    "ë": 172,
    "ì": 173,
    "í": 174,
    "î": 175,
    "ï": 176,
    "ð": 177,
    "ñ": 178,
    "ò": 179,
    "ó": 180,
    "ô": 181,
    "õ": 182,
    "ö": 183,
    "÷": 184,
    "ø": 185,
    "ù": 186,
    "ú": 187,
    "û": 188,
    "ü": 189,
    "ý": 190,
    "þ": 191,
    "ÿ": 192,
    "Ā": 193,
    "ā": 194,
    "Ă": 195,
    "ă": 196,
    "Ą": 197,
    "ą": 198,
    "Ć": 199,
    "ć": 200,
    "Ĉ": 201,
    "ĉ": 202,
    "Ċ": 203,
    "ċ": 204,
    "Č": 205,
    "č": 206,
    "Ď": 207,
    "ď": 208,
    "Đ": 209,
    "đ": 210,
    "Ē": 211,
    "ē": 212,
    "Ĕ": 213,
    "ĕ": 214,
    "Ė": 215,
    "ė": 216,
    "Ę": 217,
    "ę": 218,
    "Ě": 219,
    "ě": 220,
    "Ĝ": 221,
    "ĝ": 222,
    "Ğ": 223,
    "ğ": 224,
    "Ġ": 225,
    "ġ": 226,
    "Ģ": 227,
    "ģ": 228,
    "Ĥ": 229,
    "ĥ": 230,
    "Ħ": 231,
    "ħ": 232,
    "Ĩ": 233,
    "ĩ": 234,
    "Ī": 235,
    "ī": 236,
    "Ĭ": 237,
    "ĭ": 238,
    "Į": 239,
    "į": 240,
    "İ": 241,
    "ı": 242,
    "Ĳ": 243,
    "ĳ": 244,
    "Ĵ": 245,
    "ĵ": 246,
    "Ķ": 247,
    "ķ": 248,
    "ĸ": 249,
    "Ĺ": 250,
    "ĺ": 251,
    "Ļ": 252,
    "ļ": 253,
    "Ľ": 254,
    "ľ": 255,
    "Ŀ": 256,
    "ŀ": 257,
    "Ł": 258,
    "ł": 259,
    "Ń": 260,
    "á»": 261,
    "Ġt": 262,
    "ng": 263,
    "áº": 264,
    "Ġc": 265,
    "Ġth": 266,
    "Ġ,": 267,
    "Ġn": 268,
    "Ãł": 269,
    "ĠÄ": 270,
    "ĠÄĳ": 271,
    "Ġ.": 272,
    "Ġa": 273,
    "Ġs": 274,
    "Ġl": 275,
    "Ġm": 276,
    "Ġb": 277,
    "Ġh": 278,
    "Ġv": 279,
    "Ġthe": 280,
    "Ġw": 281,
    "hÃ": 282,
    "Ġi": 283,
    "re": 284,
    "Æ°": 285,
    "Ġo": 286,
    "Ġk": 287,
    "Ġp": 288,
    "Ã³": 289,
    "nd": 290,
    "Ġg": 291,
    "at": 292,
    "Ġd": 293,
    "er": 294,
    "Ġnh": 295,
    "iá»": 296,
    "Ã´": 297,
    "Ġ&": 298,
    "Ã¡": 299,
    "Ġtr": 300,
    "ou": 301,
    "nh": 302,
    "áº¿": 303,
    "áº¡": 304,
    "Æ°á»": 305,
    "Ġch": 306,
    "á»Ļ": 307,
    "os": 308,
    "on": 309,
    "Ġto": 310,
    "ing": 311,
    "an": 312,
    "en": 313,
    "qu": 314,
    "Ġng": 315,
    "ap": 316,
    "ĠlÃł": 317,
    "áº£": 318,
    "áº¥": 319,
    "Ã´i": 320,
    "ot": 321,
    "es": 322,
    "Ġr": 323,
    "Ġf": 324,
    "or": 325,
    "apos": 326,
    "al": 327,
    "Ġof": 328,
    "ĠvÃł": 329,
    "Ġin": 330,
    "Ġthá»": 331,
    "Ġand": 332,
    "Ãª": 333,
    "is": 334,
    "ed": 335,
    "Ã¬": 336,
    "ar": 337,
    "ch": 338,
    "á»ĳ": 339,
    "á»Ļt": 340,
    "it": 341,
    "in": 342,
    "ĠchÃ": 343,
    "ĠtÃ´i": 344,
    "á»¯": 345,
    "Ġy": 346,
    "Ġmá»Ļt": 347,
    "Ġvá»": 348,
    "ĠÄĳá»": 349,
    "Ġcá»": 350,
    "ºng": 351,
    "ĠcÃ³": 352,
    "ĠkhÃ": 353,
    "Ġthat": 354,
    "om": 355,
    "ay": 356,
    "Ãªn": 357,
    "áºŃ": 358,
    "ĠcÃ¡": 359,
    "as": 360,
    "Ã¢": 361,
    "le": 362,
    "iá»ĩ": 363,
    "ĠI": 364,
    "á»¯ng": 365,
    "Ŀi": 366,
    "ll": 367,
    "á»į": 368,
    "Ġyou": 369,
    "ve": 370,
    "quot": 371,
    "Æ¡": 372,
    "Ġe": 373,
    "Ġwe": 374,
    "Ľi": 375,
    "Ġnhá»¯ng": 376,
    "Ġwh": 377,
    "ic": 378,
    "Ġcá»§": 379,
    "ĠchÃºng": 380,
    "Ġcá»§a": 381,
    "Ġph": 382,
    "ow": 383,
    "áº§": 384,
    "iáº¿": 385,
    "us": 386,
    "Ġqu": 387,
    "Ġta": 388,
    "áº¥t": 389,
    "Ġkh": 390,
    "Ã£": 391,
    "ly": 392,
    "Ġis": 393,
    "á»±": 394,
    "áº¡n": 395,
    "Ġbe": 396,
    "ut": 397,
    "ong": 398,
    "ion": 399,
    "´ng": 400,
    "Ġit": 401,
    "Ġgi": 402,
    "ĠnÃł": 403,
    "iá»ģ": 404,
    "et": 405,
    "ĠkhÃ´ng": 406,
    "á»Ł": 407,
    "Æ°á»£": 408,
    "ĠnÃ³": 409,
    "Th": 410,
    "Ġtá»": 411,
    "Æ°á»Ŀi": 412,
    "ĠÄĳÃ³": 413,
    "Ġx": 414,
    "iá»ģu": 415,
    "Ġre": 416,
    "ent": 417,
    "ĠngÆ°á»Ŀi": 418,
    "ct": 419,
    "Ġbáº¡n": 420,
    "Ġha": 421,
    "áº¡i": 422,
    "Ġon": 423,
    "ld": 424,
    "uy": 425,
    "Ġtrong": 426,
    "Ġthá»ĥ": 427,
    "Ġngh": 428,
    "And": 429,
    "Æ°á»£c": 430,
    "Ġ?": 431,
    "ĠnÃły": 432,
    "ĠÄĳÃ£": 433,
    "áº¯": 434,
    "id": 435,
    "ĠcÃ¡c": 436,
    "Äĥ": 437,
    "ĠÄĳÆ°á»£c": 438,
    "ang": 439,
    "Ã¢y": 440,
    "ĠnhÆ°": 441,
    "Ġhá»į": 442,
    "Ġ-": 443,
    "am": 444,
    "ur": 445,
    "Ġthis": 446,
    "Ã´ng": 447,
    "Ã¬nh": 448,
    "ig": 449,
    "Ġra": 450,
    "Ġcho": 451,
    "Ġvá»Ľi": 452,
    "áº¥y": 453,
    "Ġst": 454,
    "ÃŃ": 455,
    "Ġ--": 456,
    "Ġdo": 457,
    "á»ĩ": 458,
    "im": 459,
    "ere": 460,
    "VÃł": 461,
    "Ġsá»±": 462,
    "ce": 463,
    "Ġchá»": 464,
    "áº½": 465,
    "op": 466,
    "ĠphÃ": 467,
    "áº§n": 468,
    "Ġgiá»": 469,
    "Ġfor": 470,
    "ĠmÃł": 471,
    "Ġli": 472,
    "áº£i": 473,
    "ver": 474,
    "ĠlÃłm": 475,
    "se": 476,
    "áº±": 477,
    "ke": 478,
    "Ġ1": 479,
    "Ġcon": 480,
    "Ġwas": 481,
    "ol": 482,
    "Ġá»Ł": 483,
    "áº±ng": 484,
    "ir": 485,
    "Ġan": 486,
    "ith": 487,
    "ĠÄĳá»ĥ": 488,
    "Ġsa": 489,
    "st": 490,
    "Ġvá»ģ": 491,
    "ĠC": 492,
    "ĠT": 493,
    "Ġsáº½": 494,
    "Ġare": 495,
    "Ġcáº£": 496,
    "th": 497,
    "Ġu": 498,
    "ally": 499,
    "iá»ĥ": 500,
    "Æ¡n": 501,
    "iáº¿t": 502,
    "áº·": 503,
    "Ġwith": 504,
    "Ġho": 505,
    "uá»ĳ": 506,
    "áºŃt": 507,
    "iÃªn": 508,
    "Ġ:": 509,
    "á»¥": 510,
    "ĠÄĳiá»ģu": 511,
    "Ä©": 512,
    "Ġhave": 513,
    "Ġtháº¿": 514,
    "ad": 515,
    "Ġlo": 516,
    "áº§u": 517,
    "od": 518,
    "Ġab": 519,
    "Ġpr": 520,
    "Ġthey": 521,
    "Ġgo": 522,
    "Ġcan": 523,
    "Ġse": 524,
    "Æ°á»Ľ": 525,
    "á»ĭ": 526,
    "áº¿n": 527,
    "Ã¹": 528,
    "em": 529,
    "Ġtá»«": 530,
    "Ãłnh": 531,
    "Ġkhi": 532,
    "©ng": 533,
    "ation": 534,
    "ĠkhÃ¡": 535,
    "ht": 536,
    "Ġsá»ĳ": 537,
    "out": 538,
    "Ġas": 539,
    "ĠnÃ³i": 540,
    "Ãº": 541,
    "Ġso": 542,
    "inh": 543,
    "©c": 544,
    "iá»ĩn": 545,
    "Ġsh": 546,
    "ĠM": 547,
    "So": 548,
    "Ġwor": 549,
    "ĠnÄĥ": 550,
    "Ġhe": 551,
    "ter": 552,
    "±c": 553,
    "ĠA": 554,
    "Ġwhat": 555,
    "ĠÄĳáº¿n": 556,
    "áº¿t": 557,
    "il": 558,
    "Ġcom": 559,
    "ould": 560,
    "Ġlá»": 561,
    "ill": 562,
    "Ġne": 563,
    "Ġpháº£i": 564,
    "ĠnhÃ": 565,
    "ul": 566,
    "Ã²": 567,
    "iá»ĩc": 568,
    "Ġat": 569,
    "Ġhá»": 570,
    "Ġabout": 571,
    "ant": 572,
    "Æ°á»Ŀ": 573,
    "Æ°á»Ľc": 574,
    "ÄĲ": 575,
    "ĠB": 576,
    "Ġráº±ng": 577,
    "ĠS": 578,
    "ĠN": 579,
    "The": 580,
    "Ġnot": 581,
    "Ġme": 582,
    "ĠvÃło": 583,
    "ĠgÃ¬": 584,
    "Æ°á»Ŀng": 585,
    "ĠÄĳang": 586,
    "ore": 587,
    "Ãłn": 588,
    "Ġviá»ĩc": 589,
    "Ġfr": 590,
    "ers": 591,
    "ag": 592,
    "Ġláº¡i": 593,
    "áº£n": 594,
    "áºŃn": 595,
    "ust": 596,
    "Ġtháº¥y": 597,
    "Ġall": 598,
    "ĠnghÄ©": 599,
    "ĠÄĳá»Ļ": 600,
    "Ġj": 601,
    "Ġráº¥t": 602,
    "ĠcÃ¡ch": 603,
    "Ã½": 604,
    "Ġex": 605,
    "ĠhÆ¡n": 606,
    "00": 607,
    "Ġus": 608,
    "ac": 609,
    "Ġnhiá»ģu": 610,
    "ight": 611,
    "Ġmy": 612,
    "Ã¹ng": 613,
    "Ġmá»": 614,
    "Ġsom": 615,
    "Æ°Æ¡": 616,
    "Ãłi": 617,
    "Ġpe": 618,
    "art": 619,
    "ĠH": 620,
    "ain": 621,
    "ear": 622,
    "Ġthá»±c": 623,
    "iáº¿n": 624,
    "ĠÄĳáº§u": 625,
    "TÃ´i": 626,
    "Æ°Æ¡ng": 627,
    "áºŃy": 628,
    "Ġor": 629,
    "ess": 630,
    "We": 631,
    "ople": 632,
    "á»ĵ": 633,
    "ĠÄĳÃ¢y": 634,
    "Ġde": 635,
    "ok": 636,
    "Ġhá»įc": 637,
    "um": 638,
    "Ġthere": 639,
    "ĠkhÃ¡c": 640,
    "áº¡o": 641,
    "á»ĳi": 642,
    "ist": 643,
    "ķi": 644,
    "á»įi": 645,
    "Ã¢u": 646,
    "Ġchá»ī": 647,
    "ate": 648,
    "est": 649,
    "áº¿u": 650,
    "Nh": 651,
    "ĠcÃ´ng": 652,
    "Ġpeople": 653,
    "ĠtrÃªn": 654,
    "Ã¡c": 655,
    "ure": 656,
    "Ġlike": 657,
    "hÃºng": 658,
    "Ġ2": 659,
    "anh": 660,
    "and": 661,
    "ĠcÃ¡i": 662,
    "ĠnÃło": 663,
    "Ġone": 664,
    "ab": 665,
    "ies": 666,
    "Ġbiáº¿t": 667,
    "Ġfrom": 668,
    "nt": 669,
    "ĠvÃ¬": 670,
    "ity": 671,
    "Ġsá»": 672,
    "if": 673,
    "Ġchuy": 674,
    "ĠÄĳá»ģ": 675,
    "ao": 676,
    "ĠchÃŃ": 677,
    "ung": 678,
    "Ãłng": 679,
    "el": 680,
    "iá»ĩu": 681,
    "ob": 682,
    "ĠphÃ¡": 683,
    "áº»": 684,
    "ĠnÄĥm": 685,
    "¢n": 686,
    "Å©ng": 687,
    "Æ¡i": 688,
    "ind": 689,
    "Ġkn": 690,
    "Ġour": 691,
    "ĠÄĳi": 692,
    "use": 693,
    "Ġbec": 694,
    "uá»ĳn": 695,
    "Ġthá»©": 696,
    "Ġbut": 697,
    "Ġdá»¥": 698,
    "ĠthÃłnh": 699,
    "á»Ļc": 700,
    "ect": 701,
    "ia": 702,
    "áº¯t": 703,
    "Ã¢n": 704,
    "Ġal": 705,
    "ink": 706,
    "Ġout": 707,
    "og": 708,
    "ie": 709,
    "Ġint": 710,
    "Æ°ng": 711,
    "ause": 712,
    "ery": 713,
    "Ġjust": 714,
    "ĠP": 715,
    "It": 716,
    "un": 717,
    "ĠcÅ©ng": 718,
    "Ġma": 719,
    "ĠnhÃł": 720,
    "ive": 721,
    "rou": 722,
    "Ġte": 723,
    "ChÃºng": 724,
    "uá»Ļc": 725,
    "Ġsp": 726,
    "Ġknow": 727,
    "all": 728,
    "á»ģ": 729,
    "áº«": 730,
    "Ġbá»ĭ": 731,
    "Ã¡ng": 732,
    "Ġthem": 733,
    "Ġthing": 734,
    "ĠG": 735,
    "Ġquan": 736,
    "Ġkho": 737,
    "áºŃp": 738,
    "au": 739,
    "Ġmuá»ĳn": 740,
    "ÃŃch": 741,
    "ich": 742,
    "ort": 743,
    "Ġthese": 744,
    "á»ı": 745,
    "her": 746,
    "Ġif": 747,
    "ĠmÃ¬nh": 748,
    "Ġup": 749,
    "Ġwho": 750,
    "á»Łi": 751,
    "Ġthink": 752,
    "Ġvery": 753,
    "Ġnháº¥t": 754,
    "ĠL": 755,
    "one": 756,
    "Ġget": 757,
    "ci": 758,
    "Æ°á»Ł": 759,
    "Ġtáº¡o": 760,
    "Æ°á»Łng": 761,
    "ĠÄĳá»Ļng": 762,
    "Ã¡i": 763,
    "But": 764,
    "Ġgiá»Ľi": 765,
    "ĠchÃŃnh": 766,
    "áº·t": 767,
    "ĠnhÆ°ng": 768,
    "Ġby": 769,
    "áº¥n": 770,
    "ĠnÃªn": 771,
    "Ġwhen": 772,
    "ĠD": 773,
    "act": 774,
    "Ġpl": 775,
    "our": 776,
    "Wh": 777,
    "Ġact": 778,
    "Ġyour": 779,
    "ĠváºŃy": 780,
    "Ġtim": 781,
    "Ġmore": 782,
    "Ġim": 783,
    "Ġsome": 784,
    "ĳng": 785,
    "Ġgoing": 786,
    "Ãły": 787,
    "á»ģn": 788,
    "Ġká»": 789,
    "Ġsee": 790,
    "ine": 791,
    "Ã²n": 792,
    "áº©": 793,
    "Ġyear": 794,
    "Ġlá»Ľ": 795,
    "gh": 796,
    "áº¯c": 797,
    "Ãªu": 798,
    "Ġbecause": 799,
    "ĠhÃ¬nh": 800,
    "Æ°a": 801,
    "NhÆ°ng": 802,
    "Ġsu": 803,
    "Ãºc": 804,
    "á»ĩn": 805,
    "ib": 806,
    "ame": 807,
    "Ã©": 808,
    "Ġhad": 809,
    "iá»ĥu": 810,
    "Ġhiá»ĩn": 811,
    "ost": 812,
    "Ġgiá»Ŀ": 813,
    "Ġsá»ĳng": 814,
    "ack": 815,
    "Ġná»¯": 816,
    "Ġtiáº¿": 817,
    "Ġwould": 818,
    "Ġtáº¡i": 819,
    "ard": 820,
    "ĠnháºŃn": 821,
    "Ġwere": 822,
    "Ġmá»įi": 823,
    "Ġhow": 824,
    "ose": 825,
    "Ġever": 826,
    "Æ°á»£ng": 827,
    "ast": 828,
    "Ġnáº¿u": 829,
    "Ġtheir": 830,
    "Ġthu": 831,
    "¬n": 832,
    "Ġquy": 833,
    "iz": 834,
    "Ġcuá»Ļc": 835,
    "á»ĵi": 836,
    "Ġtá»ĳ": 837,
    "Ã¡n": 838,
    "king": 839,
    "Ġcáº§n": 840,
    "Ã¢m": 841,
    "hi": 842,
    "are": 843,
    "ĥn": 844,
    "Ġhay": 845,
    "Ġwhich": 846,
    "ĠK": 847,
    "Ġtá»±": 848,
    "áº·c": 849,
    "oc": 850,
    "Ġwant": 851,
    "Ġreally": 852,
    "Ġlook": 853,
    "ĠthÃ¬": 854,
    "ide": 855,
    "á»Ļi": 856,
    "ÃŃnh": 857,
    "ually": 858,
    "ĠÄĳá»ĭ": 859,
    "Ġcomp": 860,
    "iv": 861,
    "ai": 862,
    "reat": 863,
    "ĠÄĲ": 864,
    "ous": 865,
    "ĠÄĳá»ĵ": 866,
    "Ġtáº¥t": 867,
    "ĠÃ´ng": 868,
    "Ġway": 869,
    "Ġáº¥y": 870,
    "ĠE": 871,
    "Ġtá»Ľi": 872,
    "Ġbá»Łi": 873,
    "Ġle": 874,
    "ment": 875,
    "Ġtheo": 876,
    "uá»": 877,
    "áº«n": 878,
    "Ġbáº¯t": 879,
    "Ã´n": 880,
    "ans": 881,
    "Ġtin": 882,
    "ĠcÃ²n": 883,
    "iá»ĥm": 884,
    "ĠnhÃ¬n": 885,
    "Ġlá»Ľn": 886,
    "hing": 887,
    "ĠR": 888,
    "Ġworld": 889,
    "ĠcÃ¹ng": 890,
    "Ġbáº±ng": 891,
    "ĠÃ½": 892,
    "Ġcáº£m": 893,
    "iá»ĥn": 894,
    "Ġtáº¿": 895,
    "You": 896,
    "Ġsau": 897,
    "Ġdá»¥ng": 898,
    "Ġcá»©": 899,
    "ace": 900,
    "ĠtháºŃt": 901,
    "ĠlÃªn": 902,
    "Ġbáº£n": 903,
    "ĠcÃ¢u": 904,
    "Ġanh": 905,
    "Ġem": 906,
    "ĠgiÃ¡": 907,
    "ven": 908,
    "Ġbr": 909,
    "Ġag": 910,
    "áº£ng": 911,
    "Ġexp": 912,
    "Ġsao": 913,
    "ther": 914,
    "Ġthá»Ŀi": 915,
    "Ġchuyá»ĩn": 916,
    "Ġhere": 917,
    "Ġtrá»Ł": 918,
    "pp": 919,
    "Ġqua": 920,
    "Ġsay": 921,
    "Ġthen": 922,
    "iá»ĩm": 923,
    "ĠnhÃ¢n": 924,
    "ĠngÃły": 925,
    "ĠcÆ¡": 926,
    "Ġtime": 927,
    "Ġhas": 928,
    "Ġbá»Ļ": 929,
    "This": 930,
    "Ġsinh": 931,
    "Äĥn": 932,
    "age": 933,
    "ions": 934,
    "Ĺi": 935,
    "Ġevery": 936,
    "app": 937,
    "Ġper": 938,
    "Ġ3": 939,
    "ud": 940,
    "áº£nh": 941,
    "res": 942,
    "ĠnÄĥng": 943,
    "áº¡t": 944,
    "Ġdon": 945,
    "á»±c": 946,
    "Ġactually": 947,
    "Ġmu": 948,
    "Ġman": 949,
    "Ġsá»Ń": 950,
    "ĠphÃ¡t": 951,
    "ĠtrÆ°á»Ľc": 952,
    "ĠnÆ°á»Ľc": 953,
    "Ġlu": 954,
    "ĠÄĳá»ķi": 955,
    "iá»ĩt": 956,
    "Ġinto": 957,
    "Ġfe": 958,
    "ĠtoÃłn": 959,
    "ence": 960,
    "Ġcould": 961,
    "ĠmÃ¡": 962,
    "áº£o": 963,
    "Ã¬m": 964,
    "ıi": 965,
    "Ġpháº§n": 966,
    "ach": 967,
    "ĠnÆ¡i": 968,
    "Ġwill": 969,
    "Ġwork": 970,
    "Ġgia": 971,
    "Ã¡nh": 972,
    "ĠthÃ´ng": 973,
    "ild": 974,
    "Ġdá»±": 975,
    "Ġnhau": 976,
    "ĠtÃ¬m": 977,
    "Ġyears": 978,
    "Ġmá»Ľi": 979,
    "ra": 980,
    "Ġdid": 981,
    "Ġthay": 982,
    "Ġnow": 983,
    "Ġváº¥n": 984,
    "ĠÄĳá»ĭnh": 985,
    "Ġen": 986,
    "Ġother": 987,
    "ff": 988,
    "ond": 989,
    "itt": 990,
    "Ġthings": 991,
    "Ġhá»ĩ": 992,
    "ĠtrÆ°á»Ŀng": 993,
    "áº¹": 994,
    "iff": 995,
    "ĠnhiÃªn": 996,
    "ĠtÃŃnh": 997,
    "iá»ħ": 998,
    "Ġwhere": 999,
    "ĠF": 1000,
    "ĠtrÃ¬nh": 1001,
    "ĠJ": 1002,
    "Ġmáº¡": 1003,
    "Ġtá»ĳt": 1004,
    "ĠtÆ°á»Łng": 1005,
    "Ã¡ch": 1006,
    "Ġthan": 1007,
    "áº¥u": 1008,
    "Ġkáº¿t": 1009,
    "ical": 1010,
    "They": 1011,
    "Ġsomet": 1012,
    "Äĥng": 1013,
    "Now": 1014,
    "áº¥p": 1015,
    "ĠTh": 1016,
    "ĠváºŃt": 1017,
    "Ġcl": 1018,
    "ep": 1019,
    "áº£y": 1020,
    "Ġdiff": 1021,
    "Ġhapp": 1022,
    "ĠlÃ½": 1023,
    "ĠhÃłng": 1024,
    "Ã£y": 1025,
    "Ġmake": 1026,
    "wo": 1027,
    "Ġhá»ıi": 1028,
    "Ġneed": 1029,
    "Ġany": 1030,
    "ĠW": 1031,
    "ry": 1032,
    "£p": 1033,
    "Ġun": 1034,
    "Ġno": 1035,
    "ĠmÃ¡y": 1036,
    "áº¡c": 1037,
    "Ġáº£nh": 1038,
    "Ġgr": 1039,
    "Ġ;": 1040,
    "Ġbeen": 1041,
    "so": 1042,
    "ĠTÃ´i": 1043,
    "fe": 1044,
    "Ġhá»£p": 1045,
    "Ġbu": 1046,
    "ome": 1047,
    "ge": 1048,
    "ice": 1049,
    "Ġimp": 1050,
    "Ġmáº·t": 1051,
    "irst": 1052,
    "ro": 1053,
    "áº¯n": 1054,
    "NÃ³": 1055,
    "ree": 1056,
    "ĠhÃłnh": 1057,
    "Ġtiáº¿p": 1058,
    "Ġsaid": 1059,
    "Ġstart": 1060,
    "red": 1061,
    "ite": 1062,
    "Ġná»¯a": 1063,
    "Ġar": 1064,
    "Ġkinh": 1065,
    "ory": 1066,
    "ÄĲÃ¢y": 1067,
    "Ġgian": 1068,
    "Ġthá»©c": 1069,
    "³ng": 1070,
    "Ġhá»Ļi": 1071,
    "Ġpart": 1072,
    "alk": 1073,
    "Ġtrá»į": 1074,
    "Ġvá»ĭ": 1075,
    "own": 1076,
    "ĠCh": 1077,
    "Ġthiáº¿t": 1078,
    "Ãło": 1079,
    "Ġchiáº¿": 1080,
    "Ńa": 1081,
    "Ġtuy": 1082,
    "pt": 1083,
    "orm": 1084,
    "Ġxem": 1085,
    "Ġliá»ĩu": 1086,
    "ves": 1087,
    "Ġrá»ĵi": 1088,
    "ound": 1089,
    "ass": 1090,
    "Ġdi": 1091,
    "Ġtrá»įng": 1092,
    "Ġover": 1093,
    "Ġphá»¥": 1094,
    "ĠO": 1095,
    "ĠhoÃ¡": 1096,
    "uá»ķi": 1097,
    "Ġá»": 1098,
    "Ġsomething": 1099,
    "ĠthÃŃch": 1100,
    "Ġtwo": 1101,
    "Ġright": 1102,
    "Ġdis": 1103,
    "ount": 1104,
    "ĠcÃ´": 1105,
    "á»ĩnh": 1106,
    "ea": 1107,
    "ĠÄĳá»ĵng": 1108,
    "Ã¡t": 1109,
    "round": 1110,
    "iá»ħn": 1111,
    "ĠV": 1112,
    "Ġback": 1113,
    "Ġmuch": 1114,
    "Ġgiáº£i": 1115,
    "ue": 1116,
    "Ġdiffere": 1117,
    "iÃªu": 1118,
    "Ġfirst": 1119,
    "Ġnew": 1120,
    "ens": 1121,
    "sel": 1122,
    "nder": 1123,
    "Ġtráº»": 1124,
    "ell": 1125,
    "ĠlÆ°á»£ng": 1126,
    "Ġcall": 1127,
    "áº¯ng": 1128,
    "Ġhai": 1129,
    "Ġprob": 1130,
    "ving": 1131,
    "Ġai": 1132,
    "Ġco": 1133,
    "ĠthÆ°á»Ŀng": 1134,
    "Ġbáº¥t": 1135,
    "rong": 1136,
    "Ġthose": 1137,
    "ĠvÃłi": 1138,
    "ĠÄĳá»ģu": 1139,
    "ĠÄĳo": 1140,
    "ple": 1141,
    "Ġshe": 1142,
    "olog": 1143,
    "Ġalso": 1144,
    "á»©c": 1145,
    "ĠtiÃªn": 1146,
    "ec": 1147,
    "Ġgiá»¯": 1148,
    "ater": 1149,
    "ign": 1150,
    "ĠÄĳá»ĳi": 1151,
    "ĠsÃ¡ng": 1152,
    "á»Ļng": 1153,
    "Ġac": 1154,
    "á»ĥn": 1155,
    "Ġgot": 1156,
    "Ġhiá»ĥu": 1157,
    "ĠquÃ¡": 1158,
    "Ġnay": 1159,
    "ĠtÃ¢m": 1160,
    "Ġid": 1161,
    "Ġlife": 1162,
    "á»ĳc": 1163,
    "Ġcont": 1164,
    "ght": 1165,
    "Ġloáº¡i": 1166,
    "ÄĲÃ³": 1167,
    "ult": 1168,
    "Ġpo": 1169,
    "cent": 1170,
    "Ġgiá»ĳng": 1171,
    "Ġam": 1172,
    "Ġlot": 1173,
    "Ġláº§n": 1174,
    "Ġná»": 1175,
    "Ġkind": 1176,
    "ittle": 1177,
    "Ġcá»©u": 1178,
    "vel": 1179,
    "way": 1180,
    "ber": 1181,
    "Ġthá»ĳng": 1182,
    "Ġbá»ĩnh": 1183,
    "Ġbao": 1184,
    "áº£m": 1185,
    "Báº¡n": 1186,
    "Ġlittle": 1187,
    "Ã²ng": 1188,
    "able": 1189,
    "ody": 1190,
    "ĠviÃªn": 1191,
    "á»§": 1192,
    "Ġunder": 1193,
    "Ġbet": 1194,
    "Ġ5": 1195,
    "á»ĭch": 1196,
    "oss": 1197,
    "ru": 1198,
    "Ġhis": 1199,
    "Ãºng": 1200,
    "Ġmost": 1201,
    "Ġnghá»ĩ": 1202,
    "á»ĩt": 1203,
    "Ġmo": 1204,
    "Ġtrá»": 1205,
    "Ġchang": 1206,
    "iá»ģn": 1207,
    "ĠÄĳiá»ĥm": 1208,
    "000": 1209,
    "Ġngo": 1210,
    "ĠnghÄ©a": 1211,
    "Ãªm": 1212,
    "In": 1213,
    "Ġgá»įi": 1214,
    "Ġres": 1215,
    "ick": 1216,
    "Ġnhá»ı": 1217,
    "Ġday": 1218,
    "Ġonly": 1219,
    "ated": 1220,
    "ĠchÃº": 1221,
    "Ġeven": 1222,
    "ations": 1223,
    "What": 1224,
    "Ġher": 1225,
    "Ġ4": 1226,
    "ank": 1227,
    "ĠÄĳÆ°a": 1228,
    "ial": 1229,
    "ĠhoÃłn": 1230,
    "ĠtÆ°Æ¡ng": 1231,
    "ict": 1232,
    "Ġxu": 1233,
    "ĠU": 1234,
    "Ġnghiá»ĩm": 1235,
    "Ġbl": 1236,
    "Ġmay": 1237,
    "Ġpro": 1238,
    "Ġquáº£": 1239,
    "Ġdes": 1240,
    "Ġad": 1241,
    "VÃ¬": 1242,
    "ĠtÃ¡c": 1243,
    "ĠÄĳÆ°á»Ŀng": 1244,
    "uc": 1245,
    "ade": 1246,
    "Ġváº«n": 1247,
    "Ġmany": 1248,
    "Ġtake": 1249,
    "tern": 1250,
    "Ġ10": 1251,
    "Å©": 1252,
    "Äĥm": 1253,
    "Ġxáº£y": 1254,
    "ĠTr": 1255,
    "Ġdifferent": 1256,
    "rough": 1257,
    "Ġgood": 1258,
    "Ġshow": 1259,
    "Ġchiáº¿c": 1260,
    "Ġbo": 1261,
    "Ġnguy": 1262,
    "Ġsy": 1263,
    "Ġgen": 1264,
    "ew": 1265,
    "ood": 1266,
    "ĠthuáºŃt": 1267,
    "Má»Ļt": 1268,
    "Ġbiá»ĩt": 1269,
    "ĠdÃ¹ng": 1270,
    "áº³ng": 1271,
    "ĠÄĳáº¡i": 1272,
    "pl": 1273,
    "ance": 1274,
    "Ġhum": 1275,
    "ĠbÃªn": 1276,
    "Ġtá»«ng": 1277,
    "Ġreal": 1278,
    "lem": 1279,
    "Ġhoáº·c": 1280,
    "ĠdÃ¢n": 1281,
    "Ġcá»ĳ": 1282,
    "ase": 1283,
    "Ġtriá»ĥn": 1284,
    "Ã£o": 1285,
    "uyá»ģn": 1286,
    "iá»ĩp": 1287,
    "Ġchuyá»ĥn": 1288,
    "Ġ19": 1289,
    "ĠlÃºc": 1290,
    "Ġdiá»ħn": 1291,
    "ord": 1292,
    "VáºŃy": 1293,
    "áº©n": 1294,
    "ath": 1295,
    "ish": 1296,
    "ip": 1297,
    "int": 1298,
    "Ġaround": 1299,
    "Ġthrough": 1300,
    "Ġ20": 1301,
    "Ġdoes": 1302,
    "Ġtrá»ĭ": 1303,
    "Ġquyáº¿t": 1304,
    "«ng": 1305,
    "á»įn": 1306,
    "Ġcao": 1307,
    "other": 1308,
    "Ġnghe": 1309,
    "Ãºp": 1310,
    "Ã¡o": 1311,
    "ning": 1312,
    "ark": 1313,
    "ents": 1314,
    "ĠÄĥn": 1315,
    "Ġpre": 1316,
    "Ġdáº¡": 1317,
    "Ġcomm": 1318,
    "uá»ĳc": 1319,
    "ress": 1320,
    "Ġtuyá»ĩt": 1321,
    "Ġcáº§u": 1322,
    "Ġtá»ķ": 1323,
    "Ġmá»Ĺi": 1324,
    "uá»ĳi": 1325,
    "Ġkhoáº£ng": 1326,
    "Ġtalk": 1327,
    "That": 1328,
    "form": 1329,
    "Ġlá»±c": 1330,
    "Ġkáº¿": 1331,
    "Ġcháº¥t": 1332,
    "Ġtell": 1333,
    "Ġkhu": 1334,
    "Ġdown": 1335,
    "Ġbeing": 1336,
    "Ġoff": 1337,
    "CÃ³": 1338,
    "ary": 1339,
    "Ġput": 1340,
    "Ġlá»Ŀi": 1341,
    "ĠgiÃ¡o": 1342,
    "£i": 1343,
    "áº§m": 1344,
    "ĠÄĳáº¥t": 1345,
    "ĠgiÃºp": 1346,
    "Ġuse": 1347,
    "áº¯p": 1348,
    "²ng": 1349,
    "ĠÆ¡n": 1350,
    "Ġ&#": 1351,
    "ian": 1352,
    "ible": 1353,
    "Ãµ": 1354,
    "ful": 1355,
    "Ġthou": 1356,
    "ne": 1357,
    "©a": 1358,
    "Ġtrung": 1359,
    "Ġproblem": 1360,
    "ert": 1361,
    "ĠY": 1362,
    "Ġchá»§": 1363,
    "áº©m": 1364,
    "Ġbáº£o": 1365,
    "Há»į": 1366,
    "wn": 1367,
    "ors": 1368,
    "Ch": 1369,
    "ub": 1370,
    "xt": 1371,
    "Ġtiáº¿n": 1372,
    "Ġháº¿t": 1373,
    "Ġsc": 1374,
    "Ġsm": 1375,
    "ĠphÃ²ng": 1376,
    "Ġhappen": 1377,
    "Æ°á»Ľi": 1378,
    "ject": 1379,
    "ĠtÃ¬nh": 1380,
    "ĠnghiÃªn": 1381,
    "ĠchÆ°a": 1382,
    "lect": 1383,
    "Ġinc": 1384,
    "hÃ´ng": 1385,
    "Ġxuáº¥t": 1386,
    "Æ°á»Ľng": 1387,
    "ual": 1388,
    "Ġmang": 1389,
    "ether": 1390,
    "ak": 1391,
    "te": 1392,
    "ĠVÃł": 1393,
    "Well": 1394,
    "day": 1395,
    "Ġfact": 1396,
    "Ġxe": 1397,
    "Ġsame": 1398,
    "á»¹": 1399,
    "ĠliÃªn": 1400,
    "Ġcount": 1401,
    "ĠphÃ¢n": 1402,
    "Ġtranh": 1403,
    "ĠbÃłi": 1404,
    "á»ĳng": 1405,
    "ĠNh": 1406,
    "Ġro": 1407,
    "ĠkhÃ³": 1408,
    "ĠÄĳÆ¡n": 1409,
    "ĠnÃ£o": 1410,
    "ower": 1411,
    "ars": 1412,
    "ĠtáºŃp": 1413,
    "Ġtruyá»ģn": 1414,
    "Ġtuá»ķi": 1415,
    "ĠÄĳÃºng": 1416,
    "Ġvi": 1417,
    "ĠÄĳiá»ĩn": 1418,
    "ĠphÆ°Æ¡ng": 1419,
    "ĠbÃ¬nh": 1420,
    "áºŃu": 1421,
    "There": 1422,
    "ÄĲiá»ģu": 1423,
    "ĠÄĳáº·t": 1424,
    "Ġtry": 1425,
    "av": 1426,
    "ĠtÆ°á»£ng": 1427,
    "we": 1428,
    "Ġdá»": 1429,
    "Ġcome": 1430,
    "Ġtay": 1431,
    "Ġbig": 1432,
    "Ġbiáº¿n": 1433,
    "Ġcr": 1434,
    "stem": 1435,
    "urn": 1436,
    "Ġtiá»ģn": 1437,
    "Ġgiá»¯a": 1438,
    "ĠyÃªu": 1439,
    "ons": 1440,
    "Ġsáº£n": 1441,
    "Ġdec": 1442,
    "ting": 1443,
    "ED": 1444,
    "Ġtiáº¿ng": 1445,
    "Ġpers": 1446,
    "ile": 1447,
    "Ġfl": 1448,
    "á»ĵn": 1449,
    "Ġthree": 1450,
    "Ġnhá»": 1451,
    "Ġdoing": 1452,
    "Ġfind": 1453,
    "áº¡nh": 1454,
    "Ġtho": 1455,
    "ĠbÃ©": 1456,
    "áº·p": 1457,
    "Ġtráº£": 1458,
    "Ġkháº£": 1459,
    "iver": 1460,
    "Ġngay": 1461,
    "Ġgreat": 1462,
    "Ġkhoa": 1463,
    "Ġsur": 1464,
    "ved": 1465,
    "ĠhÃ£y": 1466,
    "ÃŃt": 1467,
    "chn": 1468,
    "ĠthÃº": 1469,
    "Ġbá»ı": 1470,
    "ft": 1471,
    "ically": 1472,
    "©p": 1473,
    "Ġláº¥y": 1474,
    "Ġ!": 1475,
    "Náº¿u": 1476,
    "ces": 1477,
    "Ġty": 1478,
    "Ġdr": 1479,
    "ric": 1480,
    "self": 1481,
    "Ġgáº§n": 1482,
    "Ġhuman": 1483,
    "ire": 1484,
    "Ġpercent": 1485,
    "ĠxÃ£": 1486,
    "Ġstud": 1487,
    "Ġhoáº¡t": 1488,
    "Ġquest": 1489,
    "fter": 1490,
    "Ġbrain": 1491,
    "Ġwell": 1492,
    "Nhá»¯ng": 1493,
    "Ġ..": 1494,
    "Ġchiáº¿n": 1495,
    "fore": 1496,
    "Ġchild": 1497,
    "Ġthá»ĭ": 1498,
    "ĠÄĳÃ¡ng": 1499,
    "Ġsystem": 1500,
    "ĠsÃ¡ch": 1501,
    "Ġapp": 1502,
    "Ġlear": 1503,
    "ail": 1504,
    "ics": 1505,
    "Ġpháº©m": 1506,
    "igh": 1507,
    "Ġind": 1508,
    "ĠthÃ¢n": 1509,
    "Ġlet": 1510,
    "Ġown": 1511,
    "áº¥m": 1512,
    "ĠphÃ¡p": 1513,
    "ates": 1514,
    "Ġhiá»ĩu": 1515,
    "ĠSt": 1516,
    "Ġcalled": 1517,
    "Ġcá»¥": 1518,
    "ĠkhÃŃ": 1519,
    "ĠIn": 1520,
    "Ġcuá»ĳi": 1521,
    "Ġlong": 1522,
    "ĠQ": 1523,
    "ĠÄĳá»Ŀi": 1524,
    "Ġtechn": 1525,
    "Ġwhy": 1526,
    "end": 1527,
    "ĠchÆ¡i": 1528,
    "Ã³c": 1529,
    "ating": 1530,
    "ition": 1531,
    "mer": 1532,
    "Ġsoci": 1533,
    "Ġsim": 1534,
    "Ġinv": 1535,
    "Ġbel": 1536,
    "thing": 1537,
    "Ġmáº¥t": 1538,
    "Ġminh": 1539,
    "Ġsá»©c": 1540,
    "ology": 1541,
    "ious": 1542,
    "illion": 1543,
    "Ġbuild": 1544,
    "Ġmade": 1545,
    "Ġká»ĥ": 1546,
    "Ġwom": 1547,
    "Ġla": 1548,
    "ĠphÃº": 1549,
    "áº«u": 1550,
    "Ġrem": 1551,
    "ĠMá»¹": 1552,
    "įng": 1553,
    "Ġagain": 1554,
    "per": 1555,
    "Ġshould": 1556,
    "con": 1557,
    "Ġmáº¡nh": 1558,
    "Ã©t": 1559,
    "Ġimport": 1560,
    "Ġnghiá»ĩp": 1561,
    "Ġend": 1562,
    "Ġcol": 1563,
    "ool": 1564,
    "ĠngoÃłi": 1565,
    "á»ķ": 1566,
    "Khi": 1567,
    "ĠÃŃt": 1568,
    "Ġdáº«n": 1569,
    "Ġunderst": 1570,
    "ĠláºŃp": 1571,
    "ren": 1572,
    "ĠtÃłi": 1573,
    "ĠÄĳáº¥y": 1574,
    "ks": 1575,
    "ize": 1576,
    "á»¥c": 1577,
    "Ġ...": 1578,
    "Ġexper": 1579,
    "Ġcreat": 1580,
    "Ġhel": 1581,
    "ĠmÃ´": 1582,
    "Ġsec": 1583,
    "If": 1584,
    "«a": 1585,
    "ĠloÃłi": 1586,
    "he": 1587,
    "ri": 1588,
    "Ġká»³": 1589,
    "Ġbá»©c": 1590,
    "les": 1591,
    "áºŃm": 1592,
    "Ġins": 1593,
    "Ġtinh": 1594,
    "Ġcour": 1595,
    "ĠTED": 1596,
    "ĠluÃ´n": 1597,
    "Ġdá»±ng": 1598,
    "ĠxÃ¢y": 1599,
    "Ġchange": 1600,
    "ĠtrÃŃ": 1601,
    "He": 1602,
    "olut": 1603,
    "ĠtiÃªu": 1604,
    "ities": 1605,
    "Ġperson": 1606,
    "Ġphá»ĳ": 1607,
    "á»Ń": 1608,
    "uá»ĳng": 1609,
    "ĠtÃªn": 1610,
    "ĠvÃ´": 1611,
    "uyáº¿t": 1612,
    "Ġcá»Ļng": 1613,
    "ĠvÄĥn": 1614,
    "Ġtoday": 1615,
    "ĠÃ¢m": 1616,
    "Ġchá»©ng": 1617,
    "Ġfeel": 1618,
    "Ġ6": 1619,
    "Ġsch": 1620,
    "Ġdidn": 1621,
    "ope": 1622,
    "Ġthought": 1623,
    "Ġtá»Ń": 1624,
    "Ġimportant": 1625,
    "áº§y": 1626,
    "Ng": 1627,
    "ĠhÆ°á»Ľng": 1628,
    "Ġafter": 1629,
    "Ġhá»ĵ": 1630,
    "ys": 1631,
    "Ġcar": 1632,
    "Ġnháº¡c": 1633,
    "Ġask": 1634,
    "Ġev": 1635,
    "Ġidea": 1636,
    "ise": 1637,
    "Ġmean": 1638,
    "Ġsci": 1639,
    "Ġthá»Ń": 1640,
    "Ġ200": 1641,
    "Ġob": 1642,
    "Ġviáº¿t": 1643,
    "Ġba": 1644,
    "ĠÄĳÃ¢u": 1645,
    "Ġchá»©c": 1646,
    "ĠnguyÃªn": 1647,
    "ull": 1648,
    "Ġchu": 1649,
    "Ġkiáº¿n": 1650,
    "Ġquá»ĳc": 1651,
    "Ġgiáº£": 1652,
    "Ġlast": 1653,
    "áº¡m": 1654,
    "Ġá»©ng": 1655,
    "Ġvá»Ŀi": 1656,
    "Ġstarted": 1657,
    "Ã¨": 1658,
    "ave": 1659,
    "ogr": 1660,
    "Ġexam": 1661,
    "Ġchá»įn": 1662,
    "erest": 1663,
    "Ã´m": 1664,
    "Ã¡m": 1665,
    "Ġgiáº£n": 1666,
    "ĠIt": 1667,
    "Ġquyá»ģn": 1668,
    "be": 1669,
    "Ġhu": 1670,
    "Ġcháº¿": 1671,
    "az": 1672,
    "Ġtrans": 1673,
    "Ġunderstand": 1674,
    "body": 1675,
    "ĠÄĳáº·c": 1676,
    "ĠThe": 1677,
    "ty": 1678,
    "Ġtá»¥": 1679,
    "Ġgl": 1680,
    "Ġsuy": 1681,
    "Ġbá»ĳ": 1682,
    "Ġcháº¿t": 1683,
    "ĠtÆ°": 1684,
    "Ġhelp": 1685,
    "als": 1686,
    "á»ıi": 1687,
    "iáº¿m": 1688,
    "ĠbÃło": 1689,
    "Ġwent": 1690,
    "áº¡ch": 1691,
    "ese": 1692,
    "Ġmáº¡ng": 1693,
    "Ġbas": 1694,
    "Ġits": 1695,
    "gan": 1696,
    "Ġcáº¥p": 1697,
    "Ġrel": 1698,
    "ĠÃ": 1699,
    "Ġvá»¥": 1700,
    "Ġtriá»ĩu": 1701,
    "ĠbÃł": 1702,
    "áº¡p": 1703,
    "ĠtÄĥng": 1704,
    "ough": 1705,
    "ork": 1706,
    "Trong": 1707,
    "Ġinst": 1708,
    "áº¹p": 1709,
    "Ġtháº§n": 1710,
    "Ġná»ģn": 1711,
    "Ġstory": 1712,
    "ĠÄĳáº¡o": 1713,
    "Ġwr": 1714,
    "Ġbefore": 1715,
    "Ġláº½": 1716,
    "Ġbelie": 1717,
    "³m": 1718,
    "Ġmight": 1719,
    "ĠÄĳá»©a": 1720,
    "Ġdesign": 1721,
    "ĠAnd": 1722,
    "Ġplay": 1723,
    "Ġpower": 1724,
    "Ġngu": 1725,
    "kes": 1726,
    "ph": 1727,
    "Ġtra": 1728,
    "ĠsÄ©": 1729,
    "Ġprod": 1730,
    "Ġpol": 1731,
    "Ġkhá»ıi": 1732,
    "ĠmÃłu": 1733,
    "CÃ¡c": 1734,
    "Ġ9": 1735,
    "Ġinterest": 1736,
    "Ġhim": 1737,
    "Ġnever": 1738,
    "Ġart": 1739,
    "ĠÄĳÃ¡nh": 1740,
    "Ġinter": 1741,
    "Ġgive": 1742,
    "Ġfound": 1743,
    "Ġcourse": 1744,
    "Ġmáº¹": 1745,
    "ular": 1746,
    "Ġent": 1747,
    "Ġbetter": 1748,
    "Ġ7": 1749,
    "Ġgáº·p": 1750,
    "áº¯m": 1751,
    "ĠthÃ¡ng": 1752,
    "Ġsl": 1753,
    "ĠdÆ°á»Ľi": 1754,
    "Ġrec": 1755,
    "atch": 1756,
    "Ġtá»ĵ": 1757,
    "Ġkid": 1758,
    "Ġcons": 1759,
    "Ġschool": 1760,
    "Ġturn": 1761,
    "Ġ8": 1762,
    "Ġstill": 1763,
    "Ġable": 1764,
    "ĠchÃºt": 1765,
    "Ġfam": 1766,
    "ists": 1767,
    "Ġbit": 1768,
    "Ġxuá»ĳng": 1769,
    "ility": 1770,
    "Ġtu": 1771,
    "amp": 1772,
    "ix": 1773,
    "ily": 1774,
    "lic": 1775,
    "Ġgáº¯ng": 1776,
    "Ġhand": 1777,
    "Ġpoint": 1778,
    "Ġimag": 1779,
    "Ã¢ng": 1780,
    "Ġfew": 1781,
    "Ġlearn": 1782,
    "ather": 1783,
    "ience": 1784,
    "When": 1785,
    "ween": 1786,
    "Ã¡p": 1787,
    "ĠphÃ©p": 1788,
    "oth": 1789,
    "ĠNew": 1790,
    "velop": 1791,
    "Ġquanh": 1792,
    "ĠnhÃ³m": 1793,
    "ock": 1794,
    "Ġdá»ĭch": 1795,
    "Ġmá»Ł": 1796,
    "Ġbay": 1797,
    "Ġ%": 1798,
    "Ġcame": 1799,
    "Ġacc": 1800,
    "ata": 1801,
    "Ġvá»±c": 1802,
    "Ġkhiáº¿n": 1803,
    "ĠxÃ¡c": 1804,
    "Ġdá»¯": 1805,
    "ĠÃ¡n": 1806,
    "Ġcommun": 1807,
    "Ġnext": 1808,
    "Ġchia": 1809,
    "ĠChÃºng": 1810,
    "Ã£i": 1811,
    "Ġtog": 1812,
    "Ġtogether": 1813,
    "ness": 1814,
    "Ġduy": 1815,
    "erg": 1816,
    "Ġrá»": 1817,
    "iss": 1818,
    "Ġtham": 1819,
    "ĠthÃªm": 1820,
    "Ġcell": 1821,
    "ĠtrÃ²": 1822,
    "¢u": 1823,
    "Ġanother": 1824,
    "Ġthuyáº¿t": 1825,
    "Ġeach": 1826,
    "Ġmá»©c": 1827,
    "Ġke": 1828,
    "Ġnhanh": 1829,
    "ĠAf": 1830,
    "Ġquay": 1831,
    "Ġcomple": 1832,
    "Ġlove": 1833,
    "ited": 1834,
    "read": 1835,
    "Ġdáº¡ng": 1836,
    "alth": 1837,
    "ĠÄĳÃłn": 1838,
    "Ã³ng": 1839,
    "Ġcá»±c": 1840,
    "ĠgÃ¢y": 1841,
    "ward": 1842,
    "ĠrÃµ": 1843,
    "Ġbetween": 1844,
    "Ġvá»įng": 1845,
    "ction": 1846,
    "ense": 1847,
    "Ġquestion": 1848,
    "Ġdevelop": 1849,
    "Ġcre": 1850,
    "Ġhigh": 1851,
    "ized": 1852,
    "Ġmod": 1853,
    "Ġnguá»ĵn": 1854,
    "ĠAnh": 1855,
    "Ġago": 1856,
    "Ġnum": 1857,
    "ĠvÃ¹ng": 1858,
    "arch": 1859,
    "Ġcáº£nh": 1860,
    "ied": 1861,
    "ĠÄĳáº¹p": 1862,
    "Ġ30": 1863,
    "ĠbÃ¡o": 1864,
    "Ġsort": 1865,
    "Ġtá»¥c": 1866,
    "ĠYou": 1867,
    "ĠdÃ¹": 1868,
    "ĠWe": 1869,
    "ĠgiÃ¡c": 1870,
    "á»ī": 1871,
    "Ġplace": 1872,
    "Ãºt": 1873,
    "meric": 1874,
    "Ġser": 1875,
    "Ġmin": 1876,
    "Ġcháº¯c": 1877,
    "ĠsÃ¡t": 1878,
    "Ġword": 1879,
    "iÃª": 1880,
    "Ġmon": 1881,
    "ĠcÃłng": 1882,
    "iness": 1883,
    "Ġdá»ħ": 1884,
    "Ġxa": 1885,
    "Ġdata": 1886,
    "ings": 1887,
    "ĠÄĳá»§": 1888,
    "Ġused": 1889,
    "vÃł": 1890,
    "91": 1891,
    "BÃ¢y": 1892,
    "93": 1893,
    "ms": 1894,
    "ĠcÃ¢y": 1895,
    "ĠbÃ¢y": 1896,
    "Ġtrang": 1897,
    "KhÃ´ng": 1898,
    "Ġpat": 1899,
    "aph": 1900,
    "ĠvÃŃ": 1901,
    "Ġphim": 1902,
    "ĠphÃŃa": 1903,
    "Ġnhá»Ľ": 1904,
    "pe": 1905,
    "Thank": 1906,
    "oney": 1907,
    "Ġfour": 1908,
    "ures": 1909,
    "Ġbi": 1910,
    "Ġbiá»ĥu": 1911,
    "ĠhÆ°á»Łng": 1912,
    "ways": 1913,
    "Ġvide": 1914,
    "Æ°u": 1915,
    "Ġgrow": 1916,
    "ĠhÃ´m": 1917,
    "ĠÄĳoáº¡n": 1918,
    "ote": 1919,
    "co": 1920,
    "Ġtoo": 1921,
    "Ġext": 1922,
    "Ġmet": 1923,
    "Ġvu": 1924,
    "Ġchá»ĭ": 1925,
    "Ġwomen": 1926,
    "ĠChÃ": 1927,
    "Ġmom": 1928,
    "ĠvÅ©": 1929,
    "ĠkÃ¬": 1930,
    "Ġcháº³ng": 1931,
    "ĠtrÃ¡i": 1932,
    "Ġplan": 1933,
    "Ġkiá»ĥm": 1934,
    "Ġatt": 1935,
    "iÃªng": 1936,
    "Ġmed": 1937,
    "Ġexample": 1938,
    "ĠthÆ°Æ¡ng": 1939,
    "ets": 1940,
    "Ġlight": 1941,
    "formation": 1942,
    "Ġfin": 1943,
    "Ķng": 1944,
    "Ġngá»": 1945,
    "Ġ50": 1946,
    "Ġwater": 1947,
    "ific": 1948,
    "ĠdÃłi": 1949,
    "ĠvÃ²ng": 1950,
    "ĠQuá»ĳc": 1951,
    "ered": 1952,
    "Ġold": 1953,
    "Ġread": 1954,
    "Ġop": 1955,
    "Ġchá»¯": 1956,
    "Ġngá»¯": 1957,
    "ĠAmeric": 1958,
    "ĠluáºŃn": 1959,
    "ale": 1960,
    "ecause": 1961,
    "Ġdone": 1962,
    "Ġpháº£n": 1963,
    "cept": 1964,
    "old": 1965,
    "Ġ15": 1966,
    "ins": 1967,
    "conom": 1968,
    "Ġlive": 1969,
    "Ġcent": 1970,
    "ĠÄĳÃ´i": 1971,
    "Ġcare": 1972,
    "air": 1973,
    "Ġ100": 1974,
    "áº¡y": 1975,
    "Ġsmall": 1976,
    "ĠÄĳáº§y": 1977,
    "Ġless": 1978,
    "Ġdoesn": 1979,
    "ands": 1980,
    "Ġdá»¥c": 1981,
    "Ġwanted": 1982,
    "ative": 1983,
    "Ġtechnology": 1984,
    "orn": 1985,
    "Ġlá»£i": 1986,
    "Ġsecond": 1987,
    "Ġmus": 1988,
    "iend": 1989,
    "Ġkia": 1990,
    "Ġcontr": 1991,
    "á»±a": 1992,
    "Ġgiáº£m": 1993,
    "Ġprodu": 1994,
    "Ġexpl": 1995,
    "Ġbeh": 1996,
    "áº±m": 1997,
    "Ġed": 1998,
    "HÃ£y": 1999,
    "ah": 2000,
    "Ġlooking": 2001,
    "Ġthuá»ĳc": 2002,
    "ternet": 2003,
    "ably": 2004,
    "Ġalways": 2005,
    "oy": 2006,
    "ĠtháºŃm": 2007,
    "Ġkiáº¿m": 2008,
    "ont": 2009,
    "alking": 2010,
    "Ġbelieve": 2011,
    "Ġvá»«a": 2012,
    "ĠchÃ¢n": 2013,
    "selves": 2014,
    "Tr": 2015,
    "ĠtÃŃch": 2016,
    "Ġmoney": 2017,
    "ĠthÆ°": 2018,
    "ĠtrÄĥm": 2019,
    "Ġeconom": 2020,
    "ĠthÃ´i": 2021,
    "Ġeff": 2022,
    "oll": 2023,
    "Ġchildren": 2024,
    "Ġvideo": 2025,
    "Ġpartic": 2026,
    "Æ°á»¡": 2027,
    "Ġhá»Ļ": 2028,
    "Ġgener": 2029,
    "ĠTrung": 2030,
    "ĠÄĳÃ¬nh": 2031,
    "iáº¿u": 2032,
    "Ġworking": 2033,
    "Ġcomput": 2034,
    "Ġháº¡n": 2035,
    "cc": 2036,
    "Ãłu": 2037,
    "Ġbus": 2038,
    "Ġgiao": 2039,
    "ĠbÆ°á»Ľc": 2040,
    "ational": 2041,
    "Ġlá»ĩ": 2042,
    "Ġlai": 2043,
    "Ġter": 2044,
    "Ġreas": 2045,
    "pr": 2046,
    "Ġposs": 2047,
    "Ġproc": 2048,
    "Ġrun": 2049,
    "Ġdem": 2050,
    "ĠÄĳÃ´": 2051,
    "Ġwhole": 2052,
    "nce": 2053,
    "Tháº¿": 2054,
    "Ġteach": 2055,
    "ĠsÃ¢u": 2056,
    "Ġca": 2057,
    "Ġrob": 2058,
    "Ġfar": 2059,
    "Ġbook": 2060,
    "Ġaway": 2061,
    "Ġtá»ī": 2062,
    "ĠmÃ´i": 2063,
    "Ġhy": 2064,
    "ĠtoÃ¡n": 2065,
    "Ġguy": 2066,
    "Ġproject": 2067,
    "Ġtráº£i": 2068,
    "Ġtrá»Ŀi": 2069,
    "Ġhard": 2070,
    "iá»ģm": 2071,
    "Ġear": 2072,
    "Ġtá»ĵn": 2073,
    "Ġinformation": 2074,
    "Ġdiá»ĩn": 2075,
    "Ġel": 2076,
    "Ġmove": 2077,
    "hip": 2078,
    "Ġrá»Ļng": 2079,
    "Ġnat": 2080,
    "Ġphá»¥c": 2081,
    "Ġcountry": 2082,
    "Ġthanh": 2083,
    "Ġtrying": 2084,
    "Ġhome": 2085,
    "Ġchi": 2086,
    "io": 2087,
    "Ġkids": 2088,
    "ĠdÃłnh": 2089,
    "Ġná»ĳi": 2090,
    "Ġfood": 2091,
    "ĠÄĳá»ĭa": 2092,
    "Ġcreate": 2093,
    "ĠÄĳoÃ¡n": 2094,
    "ee": 2095,
    "Ġmind": 2096,
    "ĠlÃ²ng": 2097,
    "ural": 2098,
    "Ġthuá»Ļc": 2099,
    "uá»ĳt": 2100,
    "Ġhealth": 2101,
    "ries": 2102,
    "ĠriÃªng": 2103,
    "Ġreg": 2104,
    "Ġvá»ĩ": 2105,
    "led": 2106,
    "Ġtáº¡p": 2107,
    "ird": 2108,
    "Ġresp": 2109,
    "Because": 2110,
    "Ġlar": 2111,
    "Ġsá»£": 2112,
    "Ġmáº¯t": 2113,
    "ĠÄĳá»©ng": 2114,
    "Ġmá»¥c": 2115,
    "hÃ¡": 2116,
    "Ġná»ķi": 2117,
    "įc": 2118,
    "Ġfriend": 2119,
    "Ġdáº¡y": 2120,
    "ĠlÃ£": 2121,
    "Ġphá»§": 2122,
    "nect": 2123,
    "ten": 2124,
    "ĠthÃŃ": 2125,
    "ĠAr": 2126,
    "ism": 2127,
    "Ġsai": 2128,
    "olution": 2129,
    "Ġváº»": 2130,
    "ĠÄĳáº¡t": 2131,
    "atter": 2132,
    "Ġlead": 2133,
    "Ġmillion": 2134,
    "Ġusing": 2135,
    "Ġnghi": 2136,
    "Ġdoll": 2137,
    "Ġfive": 2138,
    "Ġeng": 2139,
    "Ġmeans": 2140,
    "ĠcÄĥn": 2141,
    "ĠthÃºc": 2142,
    "ĠnghÃ": 2143,
    "Ġká»¹": 2144,
    "ĠluáºŃt": 2145,
    "Ġsáº»": 2146,
    "ines": 2147,
    "bo": 2148,
    "Ġtá»ĳi": 2149,
    "Ġmáº«u": 2150,
    "Ġxung": 2151,
    "its": 2152,
    "aces": 2153,
    "Ġsk": 2154,
    "Ġlá»ĭch": 2155,
    "Ġvis": 2156,
    "ĠInternet": 2157,
    "man": 2158,
    "ĠNg": 2159,
    "Ġpict": 2160,
    "Ġsing": 2161,
    "Ġsupp": 2162,
    "Ġbecome": 2163,
    "ĠSo": 2164,
    "ina": 2165,
    "ck": 2166,
    "ĠÃ¡nh": 2167,
    "Ġopen": 2168,
    "ĠbÃłn": 2169,
    "Ġsub": 2170,
    "Ġprocess": 2171,
    "ĠÄĳá»įc": 2172,
    "Ġmaybe": 2173,
    "áº·ng": 2174,
    "Ġspace": 2175,
    "Ġlá»Ľp": 2176,
    "Ġrobot": 2177,
    "áº¡ng": 2178,
    "Ġfut": 2179,
    "ruct": 2180,
    "ĠUn": 2181,
    "Ġtrá»¥": 2182,
    "Ġinf": 2183,
    "Ġstr": 2184,
    "Ġká»·": 2185,
    "gg": 2186,
    "ories": 2187,
    "Ġyáº¿u": 2188,
    "Ġconf": 2189,
    "Ġpub": 2190,
    "ments": 2191,
    "Ãłm": 2192,
    "Ġtook": 2193,
    "Ġthinking": 2194,
    "Ġkháº¯p": 2195,
    "sw": 2196,
    "kay": 2197,
    "Ġcompan": 2198,
    "ble": 2199,
    "Ġeverything": 2200,
    "wh": 2201,
    "Ġform": 2202,
    "Ġshare": 2203,
    "Ġvui": 2204,
    "ĠtrÃ´ng": 2205,
    "Ġkhoáº»": 2206,
    "Ġanim": 2207,
    "Ġorgan": 2208,
    "Ġelect": 2209,
    "Ġfuture": 2210,
    "á»©": 2211,
    "Ġtiáº¿t": 2212,
    "Ġcap": 2213,
    "ĠchÆ°Æ¡ng": 2214,
    "ran": 2215,
    "Ġcháº¡y": 2216,
    "Ġbest": 2217,
    "Ġngá»ĵi": 2218,
    "ĠphÃŃ": 2219,
    "iew": 2220,
    "ier": 2221,
    "ues": 2222,
    "Ġenerg": 2223,
    "ĠgÃ¡i": 2224,
    "Ġsays": 2225,
    "aut": 2226,
    "Ġfun": 2227,
    "ĠphÃºt": 2228,
    "Ġpass": 2229,
    "Ġquite": 2230,
    "roup": 2231,
    "cer": 2232,
    "Ġchá»¥": 2233,
    "ĠcáºŃu": 2234,
    "Ġpop": 2235,
    "ĠX": 2236,
    "ention": 2237,
    "Ġtrá»£": 2238,
    "ĠAl": 2239,
    "Ġcuá»ĳn": 2240,
    "Ġmá»ĳi": 2241,
    "Ġsocial": 2242,
    "Ġsol": 2243,
    "ĠkÃ©": 2244,
    "--": 2245,
    "Ġsáº¯c": 2246,
    "Ġbuá»ķi": 2247,
    "Æ°á»£t": 2248,
    "Ġrep": 2249,
    "Ġnumber": 2250,
    "Ġcháº¯n": 2251,
    "Ġlang": 2252,
    "ouse": 2253,
    "á»ĵng": 2254,
    "Ġ12": 2255,
    "Ġsuá»ĳt": 2256,
    "iting": 2257,
    "Ġenough": 2258,
    "Ġhead": 2259,
    "Ġuniver": 2260,
    "alf": 2261,
    "How": 2262,
    "Ġháº§u": 2263,
    "vern": 2264,
    "Ġleft": 2265,
    "ĠWh": 2266,
    "Ġkiá»ĩn": 2267,
    "Ġansw": 2268,
    "uff": 2269,
    "oh": 2270,
    "Ġlives": 2271,
    "Ġbiá»ĥn": 2272,
    "ety": 2273,
    "ever": 2274,
    "ĠtrÃºc": 2275,
    "Ġcomes": 2276,
    "ĠmÃ¹": 2277,
    "á»įc": 2278,
    "ÃĶng": 2279,
    "Ġcle": 2280,
    "Ġchung": 2281,
    "eas": 2282,
    "imes": 2283,
    "ertain": 2284,
    "Ġenergy": 2285,
    "Ġgetting": 2286,
    "und": 2287,
    "ĠngÃ´n": 2288,
    "alle": 2289,
    "Ġmua": 2290,
    "Ġgroup": 2291,
    "cial": 2292,
    "Ġdoanh": 2293,
    "á»ĥ": 2294,
    "Ġbody": 2295,
    "Ġbeg": 2296,
    "Ġcou": 2297,
    "Ġwar": 2298,
    "Ġkiá»ĥu": 2299,
    "ital": 2300,
    "ĠsÆ°": 2301,
    "ĠPhi": 2302,
    "Ġmaking": 2303,
    "ĠAfric": 2304,
    "ĠHe": 2305,
    "Ġpres": 2306,
    "ĠIs": 2307,
    "ĠYork": 2308,
    "Ġweb": 2309,
    "vir": 2310,
    "enc": 2311,
    "Ġcá»Ńa": 2312,
    "ake": 2313,
    "Ġáº": 2314,
    "ĠváºŃn": 2315,
    "ices": 2316,
    "ĠcÃ¡nh": 2317,
    "ĠkhÃ¡m": 2318,
    "Ġtimes": 2319,
    "Ġsá»Ł": 2320,
    "Ġngáº¡c": 2321,
    "Ġglob": 2322,
    "Ġmonth": 2323,
    "Ġset": 2324,
    "ĠInd": 2325,
    "ĠxÃºc": 2326,
    "Ġmen": 2327,
    "ĠxÃ©t": 2328,
    "Ġrese": 2329,
    "ron": 2330,
    "Ġspec": 2331,
    "Ġaut": 2332,
    "Ġroom": 2333,
    "ĠrÃłng": 2334,
    "Ġmoment": 2335,
    "ĠlÃ¢u": 2336,
    "Ġban": 2337,
    "Ġhappened": 2338,
    "Ġthoáº¡i": 2339,
    "Ġtuáº§n": 2340,
    "Ġsense": 2341,
    "ĠbÃ¡n": 2342,
    "ering": 2343,
    "Ġcountries": 2344,
    "Ġ/": 2345,
    "Ġsound": 2346,
    "Ġhiá»ĥm": 2347,
    "Ġtop": 2348,
    "Ġmakes": 2349,
    "ross": 2350,
    "Ġprobably": 2351,
    "Ġhá»ĵi": 2352,
    "ember": 2353,
    "tty": 2354,
    "Ġdollars": 2355,
    "viron": 2356,
    "Ġjob": 2357,
    "ĠPh": 2358,
    "reen": 2359,
    "Ġwithout": 2360,
    "Giá»": 2361,
    "ĠchÃ¡": 2362,
    "Ġgovern": 2363,
    "Ġcáº¥u": 2364,
    "Ġconnect": 2365,
    "Ġbusiness": 2366,
    "idd": 2367,
    "ex": 2368,
    "ĠWhat": 2369,
    "Ġphot": 2370,
    "Ġtalking": 2371,
    "Ġkeep": 2372,
    "Ġnhiá»ĩm": 2373,
    "land": 2374,
    "ĠHo": 2375,
    "Ġinteresting": 2376,
    "uring": 2377,
    "ĠNÃ³": 2378,
    "Æ°á»¡ng": 2379,
    "ner": 2380,
    "aps": 2381,
    "Ġwond": 2382,
    "Ġpie": 2383,
    "Ġphá»©c": 2384,
    "Ġmusic": 2385,
    "ĠthiÃªn": 2386,
    "Ġbeaut": 2387,
    "Ġresearch": 2388,
    "Ġval": 2389,
    "Ġred": 2390,
    "Ġseem": 2391,
    "ĠkÃŃch": 2392,
    "Anh": 2393,
    "Ġdist": 2394,
    "Ġcung": 2395,
    "ott": 2396,
    "Ä©nh": 2397,
    "Ġreason": 2398,
    "Ġexperience": 2399,
    "Ġnáº±m": 2400,
    "ĠnháºŃp": 2401,
    "Ġtold": 2402,
    "ĠchuyÃªn": 2403,
    "Ġchá»¥p": 2404,
    "Ġstre": 2405,
    "Ġadd": 2406,
    "up": 2407,
    "Ġpretty": 2408,
    "Ġenviron": 2409,
    "ĠbÃ³ng": 2410,
    "very": 2411,
    "á»§ng": 2412,
    "Ġeduc": 2413,
    "One": 2414,
    "Ġhist": 2415,
    "vers": 2416,
    "á»ĳt": 2417,
    "Ġwee": 2418,
    "Ġelse": 2419,
    "ĠBáº¡n": 2420,
    "Ġscience": 2421,
    "ĠngÃ´i": 2422,
    "Ġminut": 2423,
    "Bá»Łi": 2424,
    "Ġda": 2425,
    "Ġyoung": 2426,
    "Ġcur": 2427,
    "ĠthÃ¡i": 2428,
    "Ġcáº¡nh": 2429,
    "Ġey": 2430,
    "Ġsuch": 2431,
    "ior": 2432,
    "Ġkáº»": 2433,
    "Ġ40": 2434,
    "âĢ": 2435,
    "uyá»ĩn": 2436,
    "Ġacross": 2437,
    "Ġcult": 2438,
    "br": 2439,
    "ov": 2440,
    "á»¯u": 2441,
    "Ġphys": 2442,
    "Ġallow": 2443,
    "Ġsimple": 2444,
    "att": 2445,
    "Ġstand": 2446,
    "ĠâĢ": 2447,
    "Ġopp": 2448,
    "uyÃªn": 2449,
    "Ġdet": 2450,
    "ided": 2451,
    "Ġ18": 2452,
    "ĠÄĳá»Ļc": 2453,
    "Ġpolit": 2454,
    "Ġnam": 2455,
    "Ġprot": 2456,
    "Ġviá»ĩn": 2457,
    "ately": 2458,
    "Ġmatter": 2459,
    "Ġcells": 2460,
    "Ġháº¡nh": 2461,
    "My": 2462,
    "ĠbÄĥng": 2463,
    "Ġhá»¯u": 2464,
    "Ġlangu": 2465,
    "áºµ": 2466,
    "áº¿p": 2467,
    "Ġsaw": 2468,
    "ead": 2469,
    "Ġsign": 2470,
    "Ġhalf": 2471,
    "These": 2472,
    "Ġstuff": 2473,
    "ĠhoÃł": 2474,
    "ĠngÃłnh": 2475,
    "Ġchá»©": 2476,
    "Ġchá»Ĺ": 2477,
    "ograph": 2478,
    "ash": 2479,
    "Ġeas": 2480,
    "Ġcase": 2481,
    "Ġdung": 2482,
    "ĠtrÆ°á»Łng": 2483,
    "der": 2484,
    "ient": 2485,
    "Ġvo": 2486,
    "Ġgu": 2487,
    "Ġways": 2488,
    "Ġasked": 2489,
    "Ġváº½": 2490,
    "Ġkhá»§ng": 2491,
    "Ġliving": 2492,
    "ĠtháºŃp": 2493,
    "lf": 2494,
    "Ġside": 2495,
    "Ġmark": 2496,
    "ĠBr": 2497,
    "ortun": 2498,
    "ĠÃŃch": 2499,
    "Ġmor": 2500,
    "áºµn": 2501,
    "Ġstop": 2502,
    "Ġinside": 2503,
    "Ġmodel": 2504,
    "ĠÄĳa": 2505,
    "Ġscient": 2506,
    "Ġfamily": 2507,
    "ĠGo": 2508,
    "Ġlist": 2509,
    "Ġhour": 2510,
    "Ġhope": 2511,
    "Ġanything": 2512,
    "gs": 2513,
    "Ġdep": 2514,
    "Ġchuáº©n": 2515,
    "ger": 2516,
    "ality": 2517,
    "Ġbuilding": 2518,
    "Do": 2519,
    "ĠbÃ¡c": 2520,
    "aw": 2521,
    "Ġbad": 2522,
    "ĠquÃ½": 2523,
    "áº©y": 2524,
    "Ġbring": 2525,
    "ĠphÃºc": 2526,
    "Ġghi": 2527,
    "Ġthiáº¿u": 2528,
    "ince": 2529,
    "Ġhappens": 2530,
    "ilt": 2531,
    "Ġlater": 2532,
    "Ġvir": 2533,
    "Ġchá»ĭu": 2534,
    "where": 2535,
    "Ġair": 2536,
    "ime": 2537,
    "Ġgoes": 2538,
    "ling": 2539,
    "Ġlab": 2540,
    "ike": 2541,
    "rib": 2542,
    "Ġhá»ģ": 2543,
    "NgÆ°á»Ŀi": 2544,
    "Ġláº¯ng": 2545,
    "Ġhoáº¡": 2546,
    "Ġxanh": 2547,
    "Ġcoming": 2548,
    "Ġtáº¥m": 2549,
    "Ġwhile": 2550,
    "ulation": 2551,
    "Ġtá»ĩ": 2552,
    "Ġsáºµn": 2553,
    "Ġniá»ĩm": 2554,
    "Ġwrong": 2555,
    "Ġchar": 2556,
    "Ġpain": 2557,
    "á»Ńi": 2558,
    "Ġglobal": 2559,
    "Ġcor": 2560,
    "á»Ļn": 2561,
    "á»ĳn": 2562,
    "Ġparticular": 2563,
    "Ġbre": 2564,
    "ĠnhiÃªu": 2565,
    "Ġpháº¡m": 2566,
    "Ġrest": 2567,
    "Ġtá»©c": 2568,
    "Ġsingle": 2569,
    "ĠkhÄĥn": 2570,
    "ĠKhÃ´ng": 2571,
    "ĠtÃ¡i": 2572,
    "Ph": 2573,
    "ĠÄĳau": 2574,
    "Sau": 2575,
    "Ġtrai": 2576,
    "Ġenvironment": 2577,
    "Ġwatch": 2578,
    "Ġyet": 2579,
    "Ġref": 2580,
    "acy": 2581,
    "Ġspea": 2582,
    "most": 2583,
    "ĠÃ¡p": 2584,
    "Ġsáº¯p": 2585,
    "Ã³n": 2586,
    "Ãºi": 2587,
    "Ġproblems": 2588,
    "For": 2589,
    "ĠhÆ¡i": 2590,
    "She": 2591,
    "iter": 2592,
    "Ġgir": 2593,
    "Ġláº¡": 2594,
    "Ġgá»": 2595,
    "ape": 2596,
    "Ġfig": 2597,
    "ivid": 2598,
    "Ġprof": 2599,
    "Ġchá»ĳng": 2600,
    "Ġláº¡c": 2601,
    "Ġequ": 2602,
    "Ġtháº¥t": 2603,
    "Ġsit": 2604,
    "arth": 2605,
    "Ġprop": 2606,
    "arent": 2607,
    "uÃ´i": 2608,
    "Ġhaving": 2609,
    "Ġ25": 2610,
    "Ġdays": 2611,
    "Ġcam": 2612,
    "ĠSh": 2613,
    "Táº¥t": 2614,
    "Ġmáº·c": 2615,
    "Ġheart": 2616,
    "ĠNhÆ°ng": 2617,
    "eg": 2618,
    "Ġdef": 2619,
    "Ġmach": 2620,
    "ogram": 2621,
    "Ġcáº£i": 2622,
    "ĠÄĳÃ¡": 2623,
    "ĠmÃ£": 2624,
    "Ġmong": 2625,
    "Ġdá»±a": 2626,
    "Ġtest": 2627,
    "Ġthous": 2628,
    "ĠchÃ¢u": 2629,
    "ĠÄĳÃ³ng": 2630,
    "Ġdev": 2631,
    "Ġcomplete": 2632,
    "Ġbegin": 2633,
    "Ġloc": 2634,
    "Ġseen": 2635,
    "Ġcontrol": 2636,
    "Ġsomeone": 2637,
    "Ġxá»Ń": 2638,
    "Ġmyself": 2639,
    "ny": 2640,
    "Ġcha": 2641,
    "ters": 2642,
    "Ġwords": 2643,
    "Ġbillion": 2644,
    "ying": 2645,
    "Ġeffect": 2646,
    "Ġpublic": 2647,
    "Ġtre": 2648,
    "As": 2649,
    "Cáº£m": 2650,
    "ization": 2651,
    "aterial": 2652,
    "Ġcertain": 2653,
    "Ġlá»±a": 2654,
    "Ġtrá»±c": 2655,
    "Ġmem": 2656,
    "Ġoften": 2657,
    "Ġlevel": 2658,
    "Ġsaying": 2659,
    "á»ŀ": 2660,
    "Ġamaz": 2661,
    "NÃªn": 2662,
    "Ġpos": 2663,
    "ĠÄĳá»Ļi": 2664,
    "row": 2665,
    "ĠbÃ¡nh": 2666,
    "Ġwalk": 2667,
    "ĠháºŃu": 2668,
    "Ġgame": 2669,
    "Ġcá»ķ": 2670,
    "Ġpicture": 2671,
    "Ġwithin": 2672,
    "Ġhear": 2673,
    "side": 2674,
    "Ġideas": 2675,
    "Ġtá»ķng": 2676,
    "á»Ľi": 2677,
    "Ġsix": 2678,
    "Ġlooked": 2679,
    "itive": 2680,
    "Ġkhá»ķ": 2681,
    "Ġxin": 2682,
    "Ġgirl": 2683,
    "Ġná»Ļi": 2684,
    "Ġsure": 2685,
    "Ġself": 2686,
    "Ġwhether": 2687,
    "Ġboth": 2688,
    "ene": 2689,
    "Ġpossible": 2690,
    "Ġcity": 2691,
    "Ġkháº¯c": 2692,
    "Ġproduct": 2693,
    "ĠmáºŃt": 2694,
    "ĠvÆ°á»£t": 2695,
    "Ġkill": 2696,
    "Ġxáº¥u": 2697,
    "ants": 2698,
    "Ġtáº§m": 2699,
    "ĠchÄĥm": 2700,
    "Ġcomputer": 2701,
    "Ġáº©n": 2702,
    "Ġfore": 2703,
    "Ġtá»·": 2704,
    "Ġcommunity": 2705,
    "Táº¡i": 2706,
    "Ġdáº§n": 2707,
    "Ġonce": 2708,
    "ĠtoÃł": 2709,
    "lish": 2710,
    "Ġgá»Ńi": 2711,
    "Ġnhu": 2712,
    "unch": 2713,
    "Ġnothing": 2714,
    "Ġanswer": 2715,
    "less": 2716,
    "Ġfil": 2717,
    "Ġlanguage": 2718,
    "Ġthiá»ĩn": 2719,
    "Ġhá»©ng": 2720,
    "Ġexc": 2721,
    "Ġháº¡t": 2722,
    "Ġtrue": 2723,
    "Ġexact": 2724,
    "anc": 2725,
    "Ġpar": 2726,
    "Ġclass": 2727,
    "oot": 2728,
    "Ġmag": 2729,
    "ĠEarth": 2730,
    "Let": 2731,
    "¨o": 2732,
    "aper": 2733,
    "istan": 2734,
    "ury": 2735,
    "¤n": 2736,
    "Ġmaterial": 2737,
    "Ġunt": 2738,
    "Ġindivid": 2739,
    "ĠlÆ°u": 2740,
    "Ġage": 2741,
    "Ġdanh": 2742,
    "Ġalmost": 2743,
    "Ġworks": 2744,
    "Ġnews": 2745,
    "ts": 2746,
    "ĠtÃŃ": 2747,
    "Ġcond": 2748,
    "alleng": 2749,
    "Ġtráº¡ng": 2750,
    "Ġchiá»ģu": 2751,
    "Ġspend": 2752,
    "Ġentire": 2753,
    "ĠAfrica": 2754,
    "pect": 2755,
    "Ġnhiá»ĩt": 2756,
    "Ġiss": 2757,
    "ĠlÃ£nh": 2758,
    "Here": 2759,
    "Ġnight": 2760,
    "Ġsang": 2761,
    "ready": 2762,
    "Ġamazing": 2763,
    "ĠÄĳá»Ļt": 2764,
    "Ġface": 2765,
    "ush": 2766,
    "Ġsw": 2767,
    "Ġdáº§u": 2768,
    "Ġniá»ģm": 2769,
    "rect": 2770,
    "Ġbeautif": 2771,
    "Ġincred": 2772,
    "iddle": 2773,
    "Ġdisco": 2774,
    "Ġremember": 2775,
    "ĠHow": 2776,
    "rop": 2777,
    "Ġchalleng": 2778,
    "Ġbasically": 2779,
    "Ġindividual": 2780,
    "Ġtá»Ļi": 2781,
    "ages": 2782,
    "Ġheard": 2783,
    "ĠnghÃ¨o": 2784,
    "Ġnhiá»ħ": 2785,
    "ocr": 2786,
    "line": 2787,
    "ĠWell": 2788,
    "Ġnáº¡n": 2789,
    "ield": 2790,
    "Ġngoáº¡i": 2791,
    "ustr": 2792,
    "Giá»Ŀ": 2793,
    "ĠcáºŃn": 2794,
    "atic": 2795,
    "Ġimagine": 2796,
    "Ġthá»§": 2797,
    "Ġcost": 2798,
    "ives": 2799,
    "Ġáº¤n": 2800,
    "Ġmar": 2801,
    "Ġung": 2802,
    "Ġdecided": 2803,
    "Ġlooks": 2804,
    "Ġchá»¯a": 2805,
    "Ġtreat": 2806,
    "ream": 2807,
    "Ġass": 2808,
    "ĠkÃŃnh": 2809,
    "era": 2810,
    "ones": 2811,
    "Ġalready": 2812,
    "Ġfull": 2813,
    "Ġxo": 2814,
    "Ġsucc": 2815,
    "Ġhistory": 2816,
    "ĠÄĳáº¥u": 2817,
    "Ġaff": 2818,
    "Ġpast": 2819,
    "imate": 2820,
    "Ġspe": 2821,
    "Ġnet": 2822,
    "Ġdáº¥u": 2823,
    "ĠÄĳáº©y": 2824,
    "Thá»±c": 2825,
    "Ġfriends": 2826,
    "Ġaw": 2827,
    "Ġtool": 2828,
    "Ġexperim": 2829,
    "NA": 2830,
    "ĠÄĲÃ³": 2831,
    "Ġá»ķ": 2832,
    "Ġche": 2833,
    "NhÆ°": 2834,
    "Ġbuilt": 2835,
    "Ġná»Ĺi": 2836,
    "ollow": 2837,
    "Ġcontin": 2838,
    "ton": 2839,
    "Ġwonder": 2840,
    "ely": 2841,
    "ats": 2842,
    "ĠUnited": 2843,
    "Ġret": 2844,
    "á»ĵm": 2845,
    "eah": 2846,
    "Ġadv": 2847,
    "Ġsuccess": 2848,
    "ogle": 2849,
    "ĠhÃ¡t": 2850,
    "ĠghÃ": 2851,
    "Ġstories": 2852,
    "osed": 2853,
    "ndred": 2854,
    "Ġhundred": 2855,
    "ĠkÃ©o": 2856,
    "vious": 2857,
    "Ġngá»§": 2858,
    "Ġcollect": 2859,
    "Ġfigure": 2860,
    "ĠthÃ¡ch": 2861,
    "ĠÄĳen": 2862,
    "Ġfund": 2863,
    "Ġfollow": 2864,
    "Ġpay": 2865,
    "Ġ11": 2866,
    "ĠkhÃ¡ch": 2867,
    "Ġcouple": 2868,
    "Ġtáº¯c": 2869,
    "Ġmil": 2870,
    "ĠâĢĶ": 2871,
    "Ġbeautiful": 2872,
    "ĠÃ´": 2873,
    "Ġwa": 2874,
    "outh": 2875,
    "Ġinn": 2876,
    "Ġwasn": 2877,
    "ĠÄĲá»Ļ": 2878,
    "Ġresult": 2879,
    "Ġmonths": 2880,
    "Ġgiáº¥y": 2881,
    "ĠChÃ¢u": 2882,
    "Ġgovernment": 2883,
    "Ġpiece": 2884,
    "Ġeducation": 2885,
    "ern": 2886,
    "Ġfree": 2887,
    "Ġtrain": 2888,
    "Ġphi": 2889,
    "ental": 2890,
    "ĠngÆ°á»£c": 2891,
    "Ġlarge": 2892,
    "ional": 2893,
    "Ġprogram": 2894,
    "ĠnuÃ´i": 2895,
    "ared": 2896,
    "bon": 2897,
    "xy": 2898,
    "iáº¿p": 2899,
    "Ġhuge": 2900,
    "Ġminutes": 2901,
    "sy": 2902,
    "Ġbáº¡i": 2903,
    "Ġorder": 2904,
    "Ġbecame": 2905,
    "ĠÆ°á»Ľc": 2906,
    "ivity": 2907,
    "Ġdeep": 2908,
    "bers": 2909,
    "ising": 2910,
    "Ġrad": 2911,
    "raz": 2912,
    "VÃ¢ng": 2913,
    "aster": 2914,
    "Ġtaking": 2915,
    "ĠTÃ¢y": 2916,
    "ocus": 2917,
    "Ġuntil": 2918,
    "Ġquáº£n": 2919,
    "ove": 2920,
    "work": 2921,
    "ĠsoÃ¡t": 2922,
    "Ġuniverse": 2923,
    "Ġview": 2924,
    "Ġconst": 2925,
    "Ġthough": 2926,
    "Ġsociety": 2927,
    "ĠThis": 2928,
    "Ġ80": 2929,
    "ision": 2930,
    "ined": 2931,
    "etic": 2932,
    "Ġlá»Ĺi": 2933,
    "Ġeverybody": 2934,
    "Ġcomplex": 2935,
    "ames": 2936,
    "Ġtiá»ĩn": 2937,
    "ĠlÄ©nh": 2938,
    "Ġcá»Ń": 2939,
    "Ġná»Ńa": 2940,
    "Ġmáº¯c": 2941,
    "Ġquick": 2942,
    "ange": 2943,
    "Ġhoáº¡ch": 2944,
    "Ġthemselves": 2945,
    "ĠThey": 2946,
    "ĠmÆ¡": 2947,
    "Ġwoman": 2948,
    "Ġlearned": 2949,
    "ĠlÃŃ": 2950,
    "Ġmust": 2951,
    "Ġfront": 2952,
    "áº©u": 2953,
    "Ġplanet": 2954,
    "Ġengine": 2955,
    "med": 2956,
    "Ġgá»ĵm": 2957,
    "Ġincre": 2958,
    "ony": 2959,
    "Ġteam": 2960,
    "Ġnhiá»ħm": 2961,
    "ĠdÆ°Æ¡ng": 2962,
    "Ġtá»ĳc": 2963,
    "Ġexactly": 2964,
    "Ġchim": 2965,
    "Ġkhiá»ĥn": 2966,
    "ians": 2967,
    "to": 2968,
    "omes": 2969,
    "ÄĲá»ĥ": 2970,
    "Ġcreated": 2971,
    "Ġtáº£": 2972,
    "ĠsÃ³c": 2973,
    "Ġfocus": 2974,
    "ĠStates": 2975,
    "Ġcáº¯t": 2976,
    "Ġcancer": 2977,
    "Ġgets": 2978,
    "Ġbehav": 2979,
    "Ãµi": 2980,
    "ohn": 2981,
    "den": 2982,
    "ĠgÃ³": 2983,
    "ĠZ": 2984,
    "©t": 2985,
    "Ġháº¡i": 2986,
    "ane": 2987,
    "Ġgiáº¿t": 2988,
    "Ġcompletely": 2989,
    "All": 2990,
    "Ġmic": 2991,
    "Ġhouse": 2992,
    "Ġtháº³ng": 2993,
    "ĠMá»Ļt": 2994,
    "ik": 2995,
    "Ġhappening": 2996,
    "Ġstudy": 2997,
    "Xin": 2998,
    "Ġquen": 2999,
    "ĠGoogle": 3000,
    "ĠbÃły": 3001,
    "ĠdÃ¢y": 3002,
    "oud": 3003,
    "ĠquÃ¢n": 3004,
    "Ġ60": 3005,
    "ĠtÃłu": 3006,
    "Ġkhá»ĳi": 3007,
    "TháºŃt": 3008,
    "Ġknew": 3009,
    "ĠÄĳÃ´ng": 3010,
    "thers": 3011,
    "ired": 3012,
    "Ġstruct": 3013,
    "ĠÄĳÃŃch": 3014,
    "Ġchiáº¿u": 3015,
    "ĠNhá»¯ng": 3016,
    "ĠlÆ°á»Ľi": 3017,
    "Ġbá»": 3018,
    "ĠÄĳá»©c": 3019,
    "CÃ¡i": 3020,
    "ev": 3021,
    "Ġname": 3022,
    "ability": 3023,
    "Ġquestions": 3024,
    "Ġhours": 3025,
    "ret": 3026,
    "cul": 3027,
    "ua": 3028,
    "Ġtháº¥p": 3029,
    "Ġsomebody": 3030,
    "Ġnhá»Ŀ": 3031,
    "ĠdÃ²ng": 3032,
    "ĠmÃª": 3033,
    "Ġshows": 3034,
    "Ġbáº§u": 3035,
    "ĠCÃ³": 3036,
    "Ġplaces": 3037,
    "Ġprov": 3038,
    "Ġngá»Ŀ": 3039,
    "Ġnature": 3040,
    "ĠcÆ°": 3041,
    "ĠniÃªn": 3042,
    "ĠÄĳÃªm": 3043,
    "ĠlÃ¡i": 3044,
    "Ġisn": 3045,
    "Ġkinds": 3046,
    "Ġbab": 3047,
    "Ġitself": 3048,
    "ĠÄĳá»ķ": 3049,
    "Ġnon": 3050,
    "ĠdÃłng": 3051,
    "ential": 3052,
    "ĠphÃ³ng": 3053,
    "Ġlaw": 3054,
    "Sá»±": 3055,
    "iqu": 3056,
    "ĠcÆ°á»Ŀi": 3057,
    "Ġthi": 3058,
    "Ġkhai": 3059,
    "ĠsÃłng": 3060,
    "icult": 3061,
    "Ġhá»Ĺ": 3062,
    "Ġav": 3063,
    "Ġourselves": 3064,
    "Ġcháº¥p": 3065,
    "Ġngáº¯n": 3066,
    "Ġrá»ĳi": 3067,
    "Ġxáº¿p": 3068,
    "áº·n": 3069,
    "els": 3070,
    "Ġagainst": 3071,
    "Ġgá»ĳc": 3072,
    "Ġmeet": 3073,
    "Ġones": 3074,
    "Ġdifference": 3075,
    "ĠtáºŃn": 3076,
    "Ġabs": 3077,
    "ogn": 3078,
    "Ġká»ī": 3079,
    "itting": 3080,
    "ĠChina": 3081,
    "cle": 3082,
    "Ġeveryone": 3083,
    "Ġphong": 3084,
    "ute": 3085,
    "Ġlisten": 3086,
    "ĠnÃ´ng": 3087,
    "Ġgáº¥p": 3088,
    "asure": 3089,
    "ĠÄĲÃ¢y": 3090,
    "ease": 3091,
    "ĠÄĳem": 3092,
    "á»¯a": 3093,
    "ĠÄĳá»¡": 3094,
    "Ġstate": 3095,
    "uá»·": 3096,
    "Ġothers": 3097,
    "Ġopportun": 3098,
    "Ġsong": 3099,
    "Ġsince": 3100,
    "Ġbáº¡o": 3101,
    "ĠgiÃ¢y": 3102,
    "Ġmarket": 3103,
    "Ġspeak": 3104,
    "ĠsÃ¢n": 3105,
    "Ġláº¯m": 3106,
    "Ġparent": 3107,
    "Ġneur": 3108,
    "raw": 3109,
    "Ġthá»¥": 3110,
    "omet": 3111,
    "ĠThat": 3112,
    "Ġclear": 3113,
    "Ġexpect": 3114,
    "Ġstudents": 3115,
    "Ġobject": 3116,
    "eria": 3117,
    "Ġclose": 3118,
    "ption": 3119,
    "ĠtrÃ¡ch": 3120,
    "Ġris": 3121,
    "Ġsex": 3122,
    "Why": 3123,
    "Ġgáº¯n": 3124,
    "Ġgave": 3125,
    "ator": 3126,
    "ĠEng": 3127,
    "Ġworked": 3128,
    "Ġsometimes": 3129,
    "Ġinvest": 3130,
    "Ġrelations": 3131,
    "Ġinnov": 3132,
    "IV": 3133,
    "īnh": 3134,
    "Ġmess": 3135,
    "Ġmother": 3136,
    "Ġvai": 3137,
    "ĠcÃ¡o": 3138,
    "Ġbá»ĳn": 3139,
    "Ġexplain": 3140,
    "get": 3141,
    "ract": 3142,
    "olved": 3143,
    "Ġhold": 3144,
    "ĠAmerican": 3145,
    "ĠcÃ¢n": 3146,
    "istic": 3147,
    "ler": 3148,
    "Ġline": 3149,
    "ĠbÃŃ": 3150,
    "ature": 3151,
    "ider": 3152,
    "ĠCan": 3153,
    "ĠChr": 3154,
    "Ġcompany": 3155,
    "ĠDNA": 3156,
    "Ġdifficult": 3157,
    "Ġtrá»«": 3158,
    "Ġrather": 3159,
    "ĠÄĳá»£i": 3160,
    "ney": 3161,
    "CÃ´": 3162,
    "Ġdru": 3163,
    "ĠGod": 3164,
    "Ġwon": 3165,
    "rem": 3166,
    "Ġpot": 3167,
    "ĠngÃłn": 3168,
    "Ġfail": 3169,
    "urs": 3170,
    "ĠEur": 3171,
    "ĠtÃ´n": 3172,
    "Ġthird": 3173,
    "Ġaud": 3174,
    "Ġpháº«u": 3175,
    "ma": 3176,
    "Ġmass": 3177,
    "áº§ng": 3178,
    "ump": 3179,
    "Ġcouldn": 3180,
    "Ġdisease": 3181,
    "Ġtyp": 3182,
    "lud": 3183,
    "ÃĿ": 3184,
    "ĠhÃłi": 3185,
    "Ġsurpr": 3186,
    "Ġthousands": 3187,
    "haps": 3188,
    "ences": 3189,
    "Ġinteract": 3190,
    "by": 3191,
    "Ġz": 3192,
    "ĠxuyÃªn": 3193,
    "ĠHIV": 3194,
    "Ġdeal": 3195,
    "ibly": 3196,
    "ĠthÆ¡": 3197,
    "Ġbott": 3198,
    "Ġhoa": 3199,
    "ife": 3200,
    "ĠÃĤ": 3201,
    "Ġmiss": 3202,
    "Ġbuy": 3203,
    "Ġnháº£y": 3204,
    "aring": 3205,
    "Ġcoll": 3206,
    "ĠAmerica": 3207,
    "Ġland": 3208,
    "ination": 3209,
    "Ġchuyáº¿n": 3210,
    "gest": 3211,
    "ĠsiÃªu": 3212,
    "Ġill": 3213,
    "Ġhappy": 3214,
    "Ġamount": 3215,
    "Ġdá»«ng": 3216,
    "Ġoper": 3217,
    "oph": 3218,
    "illions": 3219,
    "uá»Ĺi": 3220,
    "Ġarch": 3221,
    "Ġnorm": 3222,
    "ĠBut": 3223,
    "Ġoutside": 3224,
    "Ã¨n": 3225,
    "sych": 3226,
    "Ġliter": 3227,
    "ode": 3228,
    "Ġchanged": 3229,
    "Ġlearning": 3230,
    "ĠIndia": 3231,
    "Äĳ": 3232,
    "Ġcir": 3233,
    "ĠkÄ©": 3234,
    "uss": 3235,
    "Ġdel": 3236,
    "Ġpowerful": 3237,
    "rew": 3238,
    "Ġnghá»ĭ": 3239,
    "Ġstep": 3240,
    "ĠmÃłn": 3241,
    "ĠHÃ£y": 3242,
    "Ġemot": 3243,
    "ium": 3244,
    "Ġoil": 3245,
    "ĠkÃ½": 3246,
    "Ġtakes": 3247,
    "Ġalong": 3248,
    "Ġsystems": 3249,
    "Ġearly": 3250,
    "ming": 3251,
    "Ġlao": 3252,
    "Ġwind": 3253,
    "Ġgh": 3254,
    "Then": 3255,
    "Ġident": 3256,
    "Ġbehavior": 3257,
    "Ġtáº§ng": 3258,
    "Ġgiai": 3259,
    "Ġrev": 3260,
    "elt": 3261,
    "book": 3262,
    "Ġpopulation": 3263,
    "not": 3264,
    "ĠÄĳáº£m": 3265,
    "oke": 3266,
    "Ġáº£o": 3267,
    "Ġtáº£i": 3268,
    "ĠThank": 3269,
    "Ġsens": 3270,
    "Ġele": 3271,
    "Ġimpro": 3272,
    "Ġháº¥p": 3273,
    "ases": 3274,
    "Ġdeath": 3275,
    "Ġspecies": 3276,
    "Ġturns": 3277,
    "Ġpred": 3278,
    "Ġleast": 3279,
    "Ġappro": 3280,
    "wards": 3281,
    "ots": 3282,
    "Ġfear": 3283,
    "Ġ16": 3284,
    "Ġblack": 3285,
    "Ġ199": 3286,
    "Every": 3287,
    "ken": 3288,
    "Ġfly": 3289,
    "Ġphá»ķ": 3290,
    "ement": 3291,
    "Ġshort": 3292,
    "Ġjour": 3293,
    "sh": 3294,
    "Ġduring": 3295,
    "ples": 3296,
    "Ġinstead": 3297,
    "Ġterr": 3298,
    "Ġguys": 3299,
    "Ġpresent": 3300,
    "Ġlá»ĵ": 3301,
    "ison": 3302,
    "50": 3303,
    "Ġcal": 3304,
    "erv": 3305,
    "ĠOh": 3306,
    "Ġmachine": 3307,
    "Ġkhá»Łi": 3308,
    "Ġá»§": 3309,
    "Ġculture": 3310,
    "ĠngÄĥn": 3311,
    "Ġlots": 3312,
    "uck": 3313,
    "To": 3314,
    "á»³": 3315,
    "ĠtÃ¹": 3316,
    "Ġmot": 3317,
    "Ġnháº¯c": 3318,
    "ĠJohn": 3319,
    "ident": 3320,
    "ĠNo": 3321,
    "aged": 3322,
    "Ġrá»«ng": 3323,
    "Ġdemocr": 3324,
    "Ġanimals": 3325,
    "ply": 3326,
    "³n": 3327,
    "Ġmiddle": 3328,
    "ides": 3329,
    "Ġchá»īnh": 3330,
    "Ġgrand": 3331,
    "ither": 3332,
    "Ġrealized": 3333,
    "Ġeasy": 3334,
    "Tuy": 3335,
    "ients": 3336,
    "Ġeat": 3337,
    "fect": 3338,
    "á»«": 3339,
    "Ġpaper": 3340,
    "ĠgÃ³c": 3341,
    "orth": 3342,
    "ows": 3343,
    "Ġyourself": 3344,
    "Ġes": 3345,
    "áº³n": 3346,
    "Ġtháº£i": 3347,
    "Ġfre": 3348,
    "Ġfall": 3349,
    "leep": 3350,
    "ĠkhÃ¡i": 3351,
    "ivers": 3352,
    "Or": 3353,
    "jor": 3354,
    "iáº¿ng": 3355,
    "Ġgiven": 3356,
    "Ġrecent": 3357,
    "Ġprotect": 3358,
    "ook": 3359,
    "Ġtem": 3360,
    "Ġbom": 3361,
    "ĠhÃºt": 3362,
    "Ġvar": 3363,
    "Ġdig": 3364,
    "ased": 3365,
    "Ġ90": 3366,
    "ĠAfgh": 3367,
    "Ġimage": 3368,
    "Ġarg": 3369,
    "ĠNam": 3370,
    "astic": 3371,
    "Ġmole": 3372,
    "Ġhá»Ļp": 3373,
    "ĠnghiÃªm": 3374,
    "Ġmain": 3375,
    "Ġdream": 3376,
    "ĠCar": 3377,
    "ully": 3378,
    "Ġbehind": 3379,
    "Ġnatural": 3380,
    "Ġcut": 3381,
    "Ġluyá»ĩn": 3382,
    "ĠmÃ³n": 3383,
    "ama": 3384,
    "verage": 3385,
    "com": 3386,
    "enn": 3387,
    "apt": 3388,
    "Ġ14": 3389,
    "Ġant": 3390,
    "Ġneeded": 3391,
    "ĠChÃº": 3392,
    "Ġmath": 3393,
    "ĠkÃª": 3394,
    "Ġ201": 3395,
    "Ġsimply": 3396,
    "Ġá»ķn": 3397,
    "ĠÃĤu": 3398,
    "la": 3399,
    "ĠkhuÃ´n": 3400,
    "ĠlÃ¡": 3401,
    "itch": 3402,
    "Ġneeds": 3403,
    "ĠgiÃłu": 3404,
    "Ġviol": 3405,
    "Ġpersonal": 3406,
    "ĠtÃŃn": 3407,
    "Ġrelationship": 3408,
    "ĠcáºŃp": 3409,
    "Ġfight": 3410,
    "Ġfather": 3411,
    "Ġchuá»Ļt": 3412,
    "Ġpsych": 3413,
    "Ġseven": 3414,
    "Ġexist": 3415,
    "Ġeyes": 3416,
    "ĠAfghan": 3417,
    "Ġhands": 3418,
    "vered": 3419,
    "ĠgiÃł": 3420,
    "Ġdoct": 3421,
    "Ġcolle": 3422,
    "Ġfinally": 3423,
    "face": 3424,
    "ann": 3425,
    "Ġfield": 3426,
    "Ġpract": 3427,
    "Má»įi": 3428,
    "Ġlim": 3429,
    "Ġliá»ĩt": 3430,
    "Ġcoi": 3431,
    "ĠngÃ¢n": 3432,
    "Ġleave": 3433,
    "Ġcompanies": 3434,
    "ģm": 3435,
    "á»·": 3436,
    "Ġlow": 3437,
    "Ġtrad": 3438,
    "ĠÄĳá»ı": 3439,
    "Ġcentury": 3440,
    "year": 3441,
    "ĠÄĳÃ¡m": 3442,
    "Ã³t": 3443,
    "Ġstat": 3444,
    "ĠpháºŃn": 3445,
    "Ġstay": 3446,
    "Ġtuyáº¿n": 3447,
    "Ġeconomic": 3448,
    "ced": 3449,
    "mb": 3450,
    "Ġtáº¥n": 3451,
    "Ġtháº¯ng": 3452,
    "Ġfac": 3453,
    "itions": 3454,
    "Ġlan": 3455,
    "Ġfelt": 3456,
    "inary": 3457,
    "Ġperform": 3458,
    "Ġdirect": 3459,
    "á»Ĺi": 3460,
    "ĠTV": 3461,
    "ĠHá»į": 3462,
    "Ġmedia": 3463,
    "ledge": 3464,
    "Ġlocal": 3465,
    "ho": 3466,
    "Ġtrao": 3467,
    "ĠCal": 3468,
    "Ġmajor": 3469,
    "ource": 3470,
    "ĠFr": 3471,
    "ipp": 3472,
    "Ġsun": 3473,
    "Ġ70": 3474,
    "Ġsupport": 3475,
    "Ġpolitical": 3476,
    "Rá»ĵi": 3477,
    "osp": 3478,
    "Ġru": 3479,
    "Ġtai": 3480,
    "Ġ13": 3481,
    "Ġarea": 3482,
    "Ġfeet": 3483,
    "Ġturned": 3484,
    "ĠEurope": 3485,
    "cl": 3486,
    "ĠÄĳáº£o": 3487,
    "Ġhuá»·": 3488,
    "ived": 3489,
    "room": 3490,
    "Ġaccess": 3491,
    "Qu": 3492,
    "eople": 3493,
    "Ġnáº·ng": 3494,
    "ĠmÃ´n": 3495,
    "Ġdu": 3496,
    "ĠTáº¡i": 3497,
    "ills": 3498,
    "ological": 3499,
    "Ġobvious": 3500,
    "Ġextra": 3501,
    "Ġvalue": 3502,
    "Ġbreak": 3503,
    "Vá»Ľi": 3504,
    "ially": 3505,
    "Ġháº³n": 3506,
    "Ġple": 3507,
    "Ġchá»©a": 3508,
    "Ġsuper": 3509,
    "Ġcommon": 3510,
    "Ġfamil": 3511,
    "ĠdáºŃy": 3512,
    "ĠNáº¿u": 3513,
    "Ġmá»ģm": 3514,
    "ains": 3515,
    "aught": 3516,
    "Ġtaken": 3517,
    "Ġcannot": 3518,
    "Ġserv": 3519,
    "Ġpattern": 3520,
    "ĠHoa": 3521,
    "bor": 3522,
    "ĠvÃ¢n": 3523,
    "Ġchem": 3524,
    "Ġspent": 3525,
    "Ġperhaps": 3526,
    "avid": 3527,
    "Ġcommunic": 3528,
    "Ġkey": 3529,
    "Ġbeginning": 3530,
    "ĠnÃ³ng": 3531,
    "idence": 3532,
    "Ġstrong": 3533,
    "Ġprote": 3534,
    "á»Ŀi": 3535,
    "inal": 3536,
    "Ġseeing": 3537,
    "Ġrecord": 3538,
    "Some": 3539,
    "Ġmáº¥y": 3540,
    "ĠphÃ¹": 3541,
    "Ġmoving": 3542,
    "ĠchÃ³": 3543,
    "ĠCon": 3544,
    "Ġorig": 3545,
    "ument": 3546,
    "Ġlonger": 3547,
    "Ġextrem": 3548,
    "Ġsent": 3549,
    "Ã²i": 3550,
    "ĠPr": 3551,
    "Ġmáº¡ch": 3552,
    "ĠchÃ³ng": 3553,
    "Ġleg": 3554,
    "Chá»ī": 3555,
    "ency": 3556,
    "ĠchÃ¡u": 3557,
    "LÃłm": 3558,
    "Ġá»ĳng": 3559,
    "Ġmáº½": 3560,
    "orld": 3561,
    "Ġ17": 3562,
    "Ġsend": 3563,
    "á»ĭp": 3564,
    "ĠBáº¯c": 3565,
    "iving": 3566,
    "Ġparts": 3567,
    "Ġleaders": 3568,
    "ĠmÃ¹a": 3569,
    "ĠÄĳiá»ĥn": 3570,
    "Ġmult": 3571,
    "Ġbuá»Ļc": 3572,
    "Ġvac": 3573,
    "rought": 3574,
    "Ġquyá»ĥn": 3575,
    "Ġthiá»ĩu": 3576,
    "ĠsÃ³ng": 3577,
    "ĠdÆ°á»¡ng": 3578,
    "ĠtrÃ¹ng": 3579,
    "ĠmÃ¡u": 3580,
    "Ġeight": 3581,
    "fully": 3582,
    "ĠhÃ£i": 3583,
    "uth": 3584,
    "Ġ$": 3585,
    "ıng": 3586,
    "Ġháº¡": 3587,
    "Ġdraw": 3588,
    "áº¥c": 3589,
    "Ġlinh": 3590,
    "Ġperfect": 3591,
    "Ġenc": 3592,
    "Ġsurv": 3593,
    "Ġphotograph": 3594,
    "Ġwonderful": 3595,
    "Ġquickly": 3596,
    "eal": 3597,
    "ĠcÅ©": 3598,
    "Ġtháº£o": 3599,
    "Ġbegan": 3600,
    "Ġreach": 3601,
    "Ġrá»Ŀi": 3602,
    "Ġfilm": 3603,
    "ĠChÃºa": 3604,
    "ĠsÆ¡": 3605,
    "eter": 3606,
    "Ġdesc": 3607,
    "Ġchá»§ng": 3608,
    "Ġgrowth": 3609,
    "VÃŃ": 3610,
    "vent": 3611,
    "ĠÄĳe": 3612,
    "ĠkhÃ¡n": 3613,
    "ources": 3614,
    "avor": 3615,
    "Ġevent": 3616,
    "At": 3617,
    "Ġsize": 3618,
    "Ġground": 3619,
    "ĠdÃµi": 3620,
    "Ġuá»ĳng": 3621,
    "Ġinclud": 3622,
    "Ġweek": 3623,
    "lt": 3624,
    "ĠÄĳiÃªn": 3625,
    "ĠHar": 3626,
    "Ġcool": 3627,
    "Ġtáº£ng": 3628,
    "Ġchá»Ŀ": 3629,
    "Ġtá»ĵi": 3630,
    "yr": 3631,
    "Ġlá»Ļ": 3632,
    "Ġterms": 3633,
    "ĠWhy": 3634,
    "Ġexperiment": 3635,
    "rent": 3636,
    "Ġloáº¡n": 3637,
    "Ġparents": 3638,
    "yl": 3639,
    "Ġess": 3640,
    "Ġláº§m": 3641,
    "itect": 3642,
    "ley": 3643,
    "Ġdisc": 3644,
    "Ġcarbon": 3645,
    "Ġabsolut": 3646,
    "Okay": 3647,
    "ĠÄĳÃ¡p": 3648,
    "Ġsqu": 3649,
    "Ġvá»¯ng": 3650,
    "Ġrequ": 3651,
    "Ġimpact": 3652,
    "Ġspecial": 3653,
    "ĠAs": 3654,
    "Ġbuá»ĵn": 3655,
    "Ġlost": 3656,
    "cious": 3657,
    "ĠÄĲiá»ģu": 3658,
    "eh": 3659,
    "gn": 3660,
    "Ġmáº¯n": 3661,
    "Ġbang": 3662,
    "Ġpick": 3663,
    "asc": 3664,
    "Ġsá»Ńa": 3665,
    "Ġciv": 3666,
    "Ġwin": 3667,
    "ales": 3668,
    "ĠkhÃ´": 3669,
    "Ho": 3670,
    "ĠthÆ°á»Łng": 3671,
    "Ġtot": 3672,
    "Ġbox": 3673,
    "ĠgÃ³p": 3674,
    "ĠIran": 3675,
    "ĠDo": 3676,
    "Ġwrite": 3677,
    "Ġcities": 3678,
    "Ġanal": 3679,
    "ĠKá»³": 3680,
    "ĠTrÃ¡i": 3681,
    "Ġtravel": 3682,
    "ChÃ": 3683,
    "ĠtÆ°á»Ŀng": 3684,
    "ĠtrÃ¡nh": 3685,
    "ĠTháº¿": 3686,
    "Ġkhá»ķng": 3687,
    "Ġvers": 3688,
    "Ġmorning": 3689,
    "ĠAfghanistan": 3690,
    "hood": 3691,
    "Ġoce": 3692,
    "Ġocc": 3693,
    "Ġtried": 3694,
    "ĠAm": 3695,
    "Ġnear": 3696,
    "Ġimages": 3697,
    "Ġrepres": 3698,
    "Ġmiá»ħn": 3699,
    "Ġgreen": 3700,
    "erm": 3701,
    "ĠÄĳÃ³i": 3702,
    "rael": 3703,
    "Ġkhoáº£n": 3704,
    "ards": 3705,
    "Ġcamera": 3706,
    "ĠÄĳÃ¨n": 3707,
    "Ġláº¡nh": 3708,
    "Ã¡u": 3709,
    "ilar": 3710,
    "Ġknowledge": 3711,
    "Hiá»ĩn": 3712,
    "On": 3713,
    "Ġong": 3714,
    "ĠchÃłng": 3715,
    "ĠAn": 3716,
    "ised": 3717,
    "ustain": 3718,
    "Ġvirus": 3719,
    "ĠmÃ¡i": 3720,
    "Ġdead": 3721,
    "ĠLe": 3722,
    "Ġ198": 3723,
    "Ġrecogn": 3724,
    "Ġapproach": 3725,
    "Ġá»§ng": 3726,
    "Ġbene": 3727,
    "Ġ21": 3728,
    "Ġtá»ķn": 3729,
    "ĠcÆ¡n": 3730,
    "Ġbáº£ng": 3731,
    "Ġtráº¯ng": 3732,
    "ĠTrong": 3733,
    "ively": 3734,
    "Ġtá»Ļc": 3735,
    "Ġláº«n": 3736,
    "ites": 3737,
    "ution": 3738,
    "Ġspread": 3739,
    "Ġinsp": 3740,
    "Ġsitu": 3741,
    "Ġarchitect": 3742,
    "An": 3743,
    "Ġsum": 3744,
    "Ġmáº£nh": 3745,
    "ĠMar": 3746,
    "cially": 3747,
    "Ġpoor": 3748,
    "Ġaverage": 3749,
    "ĠÄĳá»īnh": 3750,
    "Ġconv": 3751,
    "Ġintr": 3752,
    "á»ıng": 3753,
    "Ġfeed": 3754,
    "Ġconsum": 3755,
    "Ġweeks": 3756,
    "Ġrisk": 3757,
    "Ġdiá»ĩu": 3758,
    "Ġmeasure": 3759,
    "Ġattention": 3760,
    "eed": 3761,
    "oon": 3762,
    "Ġsitting": 3763,
    "Ġsleep": 3764,
    "Ġtá»Ŀ": 3765,
    "Ġobs": 3766,
    "Ġopportunity": 3767,
    "ral": 3768,
    "Ľm": 3769,
    "Ġcamp": 3770,
    "ĠnÃºi": 3771,
    "Ġap": 3772,
    "Ġonline": 3773,
    "Ġreality": 3774,
    "Ġfeeling": 3775,
    "Ġauth": 3776,
    "ext": 3777,
    "Ġdest": 3778,
    "Ġrele": 3779,
    "ĠGi": 3780,
    "Ġwouldn": 3781,
    "Ġmeaning": 3782,
    "Ġcaus": 3783,
    "Ġeither": 3784,
    "Ġphá»ıng": 3785,
    "iction": 3786,
    "ression": 3787,
    "Ġtiá»ĥu": 3788,
    "ators": 3789,
    "ops": 3790,
    "Ġwhatever": 3791,
    "ĠSp": 3792,
    "ateg": 3793,
    "ĠWorld": 3794,
    "ĠEnglish": 3795,
    "No": 3796,
    "ĠÄĳÃło": 3797,
    "ana": 3798,
    "Ġcomb": 3799,
    "ĠBl": 3800,
    "Ġbá»ģ": 3801,
    "Ġborn": 3802,
    "ĠtrÃ¬": 3803,
    "urb": 3804,
    "ĠÄĲÃ´ng": 3805,
    "Ġchanges": 3806,
    "ried": 3807,
    "Con": 3808,
    "Ġbrought": 3809,
    "Ġfoot": 3810,
    "izing": 3811,
    "Ġeconomy": 3812,
    "ggest": 3813,
    "Ġopt": 3814,
    "Ġfast": 3815,
    "Ġyes": 3816,
    "anger": 3817,
    "Ġgiá»įng": 3818,
    "Ġsuggest": 3819,
    "Ġtá»ĳn": 3820,
    "ĠIsrael": 3821,
    "Ġstructure": 3822,
    "cu": 3823,
    "Ġáº¥n": 3824,
    "ĠÃ¡o": 3825,
    "ĠtráºŃn": 3826,
    "Ġgiving": 3827,
    "ibility": 3828,
    "Ġbased": 3829,
    "Ġinterested": 3830,
    "Ġrespons": 3831,
    "Ńnh": 3832,
    "Ġháº£o": 3833,
    "Ġtrá»ĵng": 3834,
    "ĠquÃªn": 3835,
    "ĠCÃ¡c": 3836,
    "ored": 3837,
    "Ġsud": 3838,
    "Ġphysical": 3839,
    "unt": 3840,
    "Ġstage": 3841,
    "Ġchá»ĵ": 3842,
    "Ġgiá»ıi": 3843,
    "ades": 3844,
    "Ġice": 3845,
    "Ġdie": 3846,
    "ĠrÆ¡i": 3847,
    "Ã¹a": 3848,
    "Ġblue": 3849,
    "Ġgrowing": 3850,
    "Ġprofess": 3851,
    "CÃ¢u": 3852,
    "of": 3853,
    "Ġbar": 3854,
    "ances": 3855,
    "Ġquáº£ng": 3856,
    "Ġability": 3857,
    "Ġsudden": 3858,
    "ya": 3859,
    "yn": 3860,
    "ĠmÃ£i": 3861,
    "Ġkim": 3862,
    "Ġfavor": 3863,
    "ico": 3864,
    "Ġindust": 3865,
    "Ġdeveloped": 3866,
    "ĠNgÆ°á»Ŀi": 3867,
    "Ġanimal": 3868,
    "Ġseems": 3869,
    "Ġvoice": 3870,
    "Ġtools": 3871,
    "Ġhosp": 3872,
    "Ġgone": 3873,
    "Ġcháº¡m": 3874,
    "ĠBe": 3875,
    "ĠChin": 3876,
    "Cho": 3877,
    "Ġmodern": 3878,
    "Ġhar": 3879,
    "Ġstress": 3880,
    "Ġsoft": 3881,
    "umb": 3882,
    "Ġknown": 3883,
    "Ġbooks": 3884,
    "CÃ²n": 3885,
    "son": 3886,
    "Ġti": 3887,
    "Ġcáº§m": 3888,
    "Ġcá»¡": 3889,
    "ploy": 3890,
    "Ġhon": 3891,
    "chie": 3892,
    "VÃło": 3893,
    "Ġkhuáº©n": 3894,
    "ĠbáºŃt": 3895,
    "omen": 3896,
    "ĠGe": 3897,
    "ĠEm": 3898,
    "Ġrealize": 3899,
    "Ġsmart": 3900,
    "Ġproduc": 3901,
    "ware": 3902,
    "Ġbá»ģn": 3903,
    "Ġvá»ĳn": 3904,
    "Ġunivers": 3905,
    "Ġaffect": 3906,
    "Ġoxy": 3907,
    "ister": 3908,
    "Ġpháº¥n": 3909,
    "Ġpriv": 3910,
    "ĠnghÃ¬n": 3911,
    "Ġcharact": 3912,
    "rom": 3913,
    "Ġsil": 3914,
    "ĠsÃ¡nh": 3915,
    "Ġdark": 3916,
    "ouch": 3917,
    "aul": 3918,
    "lu": 3919,
    "Ġtiá»ģm": 3920,
    "ĠÄĳÆ°Æ¡ng": 3921,
    "Ġpress": 3922,
    "Ġfire": 3923,
    "Ġjo": 3924,
    "Ġtext": 3925,
    "Ġdeveloping": 3926,
    "Ġeye": 3927,
    "People": 3928,
    "ted": 3929,
    "ĠhÃ´n": 3930,
    "ĠkhoÃ¡": 3931,
    "Ġnumbers": 3932,
    "ĠlÆ°Æ¡ng": 3933,
    "Ġnghá»ī": 3934,
    "Ġcrit": 3935,
    "Ġwrote": 3936,
    "Ġissue": 3937,
    "Ġchallenge": 3938,
    "Ġnice": 3939,
    "Ġpull": 3940,
    "Ġcháº¥m": 3941,
    "ĠvÃłng": 3942,
    "ĠSouth": 3943,
    "Ġthank": 3944,
    "Ġchiáº¿m": 3945,
    "Ġinvent": 3946,
    "Ġdescrib": 3947,
    "lict": 3948,
    "oad": 3949,
    "ug": 3950,
    "Ġhoáº£ng": 3951,
    "Ġmá»Ŀi": 3952,
    "acebook": 3953,
    "Ġclimate": 3954,
    "Ġrunning": 3955,
    "Ġwebs": 3956,
    "Ġscientists": 3957,
    "Ġincredible": 3958,
    "Ġnáº¯m": 3959,
    "Ġhot": 3960,
    "ĠkÃŃ": 3961,
    "Ġpost": 3962,
    "Ġrich": 3963,
    "ĠRob": 3964,
    "ĠkhÃŃch": 3965,
    "Ġunderstanding": 3966,
    "ID": 3967,
    "Má»Ĺi": 3968,
    "Ġbá»¯a": 3969,
    "Ġhiá»ĥn": 3970,
    "Ġpur": 3971,
    "Ġpath": 3972,
    "Ġvá»£": 3973,
    "Ġphá»ĳi": 3974,
    "Ġstarting": 3975,
    "Ġpoll": 3976,
    "Ġhumans": 3977,
    "Ġcreating": 3978,
    "Ġngá»«ng": 3979,
    "par": 3980,
    "Ġcy": 3981,
    "ĠhÃło": 3982,
    "Ġge": 3983,
    "Ġsave": 3984,
    "Ġ24": 3985,
    "Ġbottom": 3986,
    "Ġtradition": 3987,
    "ught": 3988,
    "Ġtw": 3989,
    "ĠÄĳiá»ĩu": 3990,
    "Ġhi": 3991,
    "Ġhor": 3992,
    "ĠlÃłng": 3993,
    "Ġvá»¡": 3994,
    "Ġlá»Ńa": 3995,
    "Ġaudience": 3996,
    "Ġcivil": 3997,
    "á»«ng": 3998,
    "Ġsustain": 3999,
    "ĠVÃ¬": 4000,
    "Ġ500": 4001,
    "Ġroad": 4002,
    "Ġthá»ĭt": 4003,
    "Our": 4004,
    "li": 4005,
    "ĠtÃ¡ch": 4006,
    "Ġmillions": 4007,
    "ĠvÄ©": 4008,
    "iti": 4009,
    "Ġaren": 4010,
    "Ġhá»ķ": 4011,
    "ensive": 4012,
    "ĠQu": 4013,
    "Ġgirls": 4014,
    "Ġgháº¿": 4015,
    "Ġquáº§n": 4016,
    "ĠxÆ°Æ¡ng": 4017,
    "ĠKen": 4018,
    "Ġplaying": 4019,
    "Ġnetwork": 4020,
    "Ġsolution": 4021,
    "erence": 4022,
    "áº·m": 4023,
    "ĠFacebook": 4024,
    "Ġscale": 4025,
    "ĠChinese": 4026,
    "iet": 4027,
    "Ġchuá»Ĺi": 4028,
    "ĠIf": 4029,
    "ĠMy": 4030,
    "Ġknows": 4031,
    "Ġná»ķ": 4032,
    "Ġcolor": 4033,
    "Ġwriting": 4034,
    "May": 4035,
    "port": 4036,
    "uce": 4037,
    "ĠdÆ°á»Ŀng": 4038,
    "Ġtrack": 4039,
    "ĠrÃºt": 4040,
    "ĠÄĳá»«ng": 4041,
    "Ġconvers": 4042,
    "Ġneigh": 4043,
    "ĠHá»ĵi": 4044,
    "Ġbenef": 4045,
    "cess": 4046,
    "Ġlay": 4047,
    "Ġká»ĭch": 4048,
    "Ã³m": 4049,
    "Ġtri": 4050,
    "Ġkháº©u": 4051,
    "Ġalone": 4052,
    "Ġliterally": 4053,
    "St": 4054,
    "ĠsÃ³t": 4055,
    "ĠbiÃªn": 4056,
    "ero": 4057,
    "Ġcháº£y": 4058,
    "Ġrelig": 4059,
    "pecially": 4060,
    "ĠÄĳáº±ng": 4061,
    "Ġanyone": 4062,
    "Ġarr": 4063,
    "Ġblood": 4064,
    "Ġslow": 4065,
    "ĠThÃ¡": 4066,
    "Ġareas": 4067,
    "Ġdeg": 4068,
    "Ġtend": 4069,
    "Ġemail": 4070,
    "Ġmov": 4071,
    "Ġblog": 4072,
    "Ġ197": 4073,
    "Ġrul": 4074,
    "ĠgiÃ³": 4075,
    "idge": 4076,
    "anda": 4077,
    "iforn": 4078,
    "ĠKhi": 4079,
    "Ġtelling": 4080,
    "Ġbaby": 4081,
    "Ġsn": 4082,
    "Ġfem": 4083,
    "Ġgives": 4084,
    "Ġconcept": 4085,
    "ste": 4086,
    "Ġloáº¡t": 4087,
    "Ġsá»Ľm": 4088,
    "Ġtele": 4089,
    "uá»µ": 4090,
    "ĠThere": 4091,
    "ĠthoÃ¡t": 4092,
    "Ġguess": 4093,
    "Ġinnovation": 4094,
    "Ġwall": 4095,
    "Ġgames": 4096,
    "Ġtruth": 4097,
    "ada": 4098,
    "Ġprotein": 4099,
    "Ġvill": 4100,
    "ĠcháºŃm": 4101,
    "ala": 4102,
    "Ġkhuy": 4103,
    "Ġkhá»©": 4104,
    "Ġworth": 4105,
    "Ġdevelopment": 4106,
    "ĠCaliforn": 4107,
    "chan": 4108,
    "Ġasking": 4109,
    "Ġexperi": 4110,
    "Ġpolic": 4111,
    "Ġpredict": 4112,
    "Ġchá»ĵng": 4113,
    "uel": 4114,
    "Ġsáº¡ch": 4115,
    "Ġrate": 4116,
    "Ġphone": 4117,
    "Ġsoon": 4118,
    "ĠSc": 4119,
    "áº¹n": 4120,
    "Ġsolve": 4121,
    "ique": 4122,
    "Is": 4123,
    "ĠtÃłn": 4124,
    "Ġtáº¯t": 4125,
    "ĠdÄ©": 4126,
    "arr": 4127,
    "Ġforward": 4128,
    "Ġprom": 4129,
    "obody": 4130,
    "ept": 4131,
    "ologies": 4132,
    "ĠÃĶng": 4133,
    "Ġpatients": 4134,
    "Ġhundreds": 4135,
    "ĠbÃ¨": 4136,
    "Ġgiáº¥c": 4137,
    "Ġprog": 4138,
    "ĠSch": 4139,
    "ĠÄĲáº¡i": 4140,
    "ĠVáºŃy": 4141,
    "ube": 4142,
    "Ġsounds": 4143,
    "Ġdepend": 4144,
    "ĠCalifornia": 4145,
    "ĠOK": 4146,
    "Ġpatient": 4147,
    "Ġwhite": 4148,
    "Ġlog": 4149,
    "ĠDavid": 4150,
    "ĠVÃ¢ng": 4151,
    "por": 4152,
    "Ġláº·p": 4153,
    "Ġtheory": 4154,
    "Ġnghá»ģ": 4155,
    "irth": 4156,
    "Ġpeace": 4157,
    "Ġshowed": 4158,
    "Ġtransform": 4159,
    "Ġdiscovered": 4160,
    "Ta": 4161,
    "Ġimm": 4162,
    "Ġsuáº¥t": 4163,
    "Ġsuff": 4164,
    "Ġgá»£i": 4165,
    "ox": 4166,
    "Ġer": 4167,
    "Ġcop": 4168,
    "ĠmÅ©": 4169,
    "Ġforce": 4170,
    "ĠMc": 4171,
    "ellig": 4172,
    "Ġavail": 4173,
    "Ġnormal": 4174,
    "Tá»«": 4175,
    "usion": 4176,
    "Ġquá»¹": 4177,
    "Ġrepl": 4178,
    "ĠAd": 4179,
    "Ġemp": 4180,
    "raq": 4181,
    "Ġvacc": 4182,
    "ros": 4183,
    "á»Ľ": 4184,
    "Ġast": 4185,
    "Ġbur": 4186,
    "Ġvol": 4187,
    "Ġtrust": 4188,
    "entially": 4189,
    "ĠMex": 4190,
    "Æ°Æ¡i": 4191,
    "Ã©p": 4192,
    "ondon": 4193,
    "Ġcurrent": 4194,
    "oes": 4195,
    "Ġson": 4196,
    "Ġokay": 4197,
    "ĠchÃ¬": 4198,
    "ified": 4199,
    "Ġcenter": 4200,
    "Ġproduce": 4201,
    "Ġgeneration": 4202,
    "Ġpictures": 4203,
    "Ġespecially": 4204,
    "asing": 4205,
    "ĠAt": 4206,
    "akes": 4207,
    "Ġtype": 4208,
    "Ġsubject": 4209,
    "Ġrepresent": 4210,
    "Ġindustry": 4211,
    "Al": 4212,
    "Ġlá»ĳi": 4213,
    "ĠtrÆ°ng": 4214,
    "Ġintern": 4215,
    "ĠphÃª": 4216,
    "Ġlá»Ĺ": 4217,
    "Ġmovement": 4218,
    "Ġfundam": 4219,
    "Ġcu": 4220,
    "Ġngáº¡i": 4221,
    "ify": 4222,
    "ĠLondon": 4223,
    "ĠDe": 4224,
    "Ġplant": 4225,
    "Ġsimilar": 4226,
    "Ġincredibly": 4227,
    "ĠtÃºi": 4228,
    "ĠsÃ´ng": 4229,
    "Ã³i": 4230,
    "ĠnhÃ©": 4231,
    "Ġchanging": 4232,
    "Ġtalked": 4233,
    "Ġmaterials": 4234,
    "Ġocean": 4235,
    "ey": 4236,
    "ĠtÃ¡n": 4237,
    "Ġbed": 4238,
    "Ġtráº¡i": 4239,
    "Ġserious": 4240,
    "Ġpotential": 4241,
    "Ġcars": 4242,
    "Ġtrá»¯": 4243,
    "Ġcompet": 4244,
    "Ġteachers": 4245,
    "Ġwebsite": 4246,
    "Not": 4247,
    "Ngh": 4248,
    "ped": 4249,
    "Ġtouch": 4250,
    "Ġlif": 4251,
    "Ġsand": 4252,
    "Ġnguyá»ĩn": 4253,
    "phere": 4254,
    "IDS": 4255,
    "Ráº¥t": 4256,
    "oor": 4257,
    "Ġest": 4258,
    "Ġdáº·m": 4259,
    "ĠIraq": 4260,
    "illi": 4261,
    "abor": 4262,
    "Ġsurface": 4263,
    "ĠthÆ°á»Ľc": 4264,
    "Ġang": 4265,
    "Ġkiá»ĩm": 4266,
    "osing": 4267,
    "Ġhaven": 4268,
    "amm": 4269,
    "imens": 4270,
    "Ġlea": 4271,
    "NgÃły": 4272,
    "razil": 4273,
    "stein": 4274,
    "iod": 4275,
    "Ġchance": 4276,
    "ĠChar": 4277,
    "eck": 4278,
    "Ġresources": 4279,
    "Ġinvolved": 4280,
    "Ġabsolutely": 4281,
    "DP": 4282,
    "ĠÄĳÄĥng": 4283,
    "Ġachie": 4284,
    "Ġviá»ħn": 4285,
    "ask": 4286,
    "ĠCl": 4287,
    "ival": 4288,
    "Ġconflict": 4289,
    "Ġball": 4290,
    "isions": 4291,
    "let": 4292,
    "lex": 4293,
    "Ġtable": 4294,
    "Thá»©": 4295,
    "Ġemb": 4296,
    "Ġdefin": 4297,
    "Ġissues": 4298,
    "bit": 4299,
    "Ġ0": 4300,
    "ouble": 4301,
    "Ġcá»Ŀ": 4302,
    "Ġhang": 4303,
    "Ġevolution": 4304,
    "yond": 4305,
    "±ng": 4306,
    "Ġsell": 4307,
    "Ġshape": 4308,
    "ilities": 4309,
    "Ġhappiness": 4310,
    "ĠWest": 4311,
    "assion": 4312,
    "head": 4313,
    "Ġjourney": 4314,
    "pre": 4315,
    "wit": 4316,
    "ĠnÃ©": 4317,
    "Ġhit": 4318,
    "Ġquang": 4319,
    "Ġsá»¹": 4320,
    "Ġperiod": 4321,
    "ĠÄĳuá»ķi": 4322,
    "Ġbá»¥": 4323,
    "ara": 4324,
    "ĠCáº£m": 4325,
    "Ä©a": 4326,
    "ĠkhÃ¡ng": 4327,
    "Ġamong": 4328,
    "like": 4329,
    "ĠcÃł": 4330,
    "ĠnÃ¢ng": 4331,
    "Ġdanger": 4332,
    "Ġrece": 4333,
    "Ġfunction": 4334,
    "Ġgroups": 4335,
    "Ġdetail": 4336,
    "ĠbÆ¡i": 4337,
    "Ġbirth": 4338,
    "Ġbeyond": 4339,
    "Ġult": 4340,
    "Ġintellig": 4341,
    "Ġtiny": 4342,
    "Ġschools": 4343,
    "Ġgeneral": 4344,
    "Ġvisual": 4345,
    "Ġavailable": 4346,
    "Ġsat": 4347,
    "Ġvá»ı": 4348,
    "Ġnecess": 4349,
    "Ġflow": 4350,
    "Ġtechnologies": 4351,
    "ĠkÃ©m": 4352,
    "uct": 4353,
    "Ġnháº¯n": 4354,
    "Ġfur": 4355,
    "Ġstru": 4356,
    "Ġmeth": 4357,
    "ĠghÃ©p": 4358,
    "Ġmessage": 4359,
    "bs": 4360,
    "ĠcÃº": 4361,
    "ĠthÄĥm": 4362,
    "Ġthá»Ł": 4363,
    "Ġchoice": 4364,
    "Ġprin": 4365,
    "ĠBrazil": 4366,
    "Æ°á»¡i": 4367,
    "Ġvision": 4368,
    "Ġstreet": 4369,
    "Ġdemocracy": 4370,
    "Ġsituation": 4371,
    "Just": 4372,
    "ĠphiÃªn": 4373,
    "Ġsá»ĳt": 4374,
    "Ġsold": 4375,
    "Ġ300": 4376,
    "roll": 4377,
    "Ġmiles": 4378,
    "Ġrules": 4379,
    "Váº¥n": 4380,
    "Ġráº»": 4381,
    "eth": 4382,
    "ips": 4383,
    "Ġelectric": 4384,
    "Ġdevice": 4385,
    "Ġrecently": 4386,
    "oo": 4387,
    "Ġtháº£m": 4388,
    "Ġbreat": 4389,
    "Ġwish": 4390,
    "orge": 4391,
    "Ġreact": 4392,
    "Ġsafe": 4393,
    "ĠAIDS": 4394,
    "ĠHa": 4395,
    "Ġkhoáº£nh": 4396,
    "Ġslide": 4397,
    "Ġprojects": 4398,
    "iar": 4399,
    "ram": 4400,
    "Ġcause": 4401,
    "oring": 4402,
    "eles": 4403,
    "une": 4404,
    "Ġmedic": 4405,
    "By": 4406,
    "tÃ´i": 4407,
    "ĠtÃłng": 4408,
    "ĠnháºŃt": 4409,
    "TrÃªn": 4410,
    "Ġcraz": 4411,
    "Ġláº·ng": 4412,
    "Ġváº¿t": 4413,
    "Ġfair": 4414,
    "ishing": 4415,
    "á»įt": 4416,
    "Ġná»Ĺ": 4417,
    "Ġthoáº£": 4418,
    "Ġmap": 4419,
    "Ġbá»įn": 4420,
    "Ġaccount": 4421,
    "Ġattack": 4422,
    "Ġindividuals": 4423,
    "Ġrevolution": 4424,
    "Ġdigital": 4425,
    "SA": 4426,
    "light": 4427,
    "ĠsÃ¡u": 4428,
    "Ġnháº¹": 4429,
    "Ġhoang": 4430,
    "odies": 4431,
    "Ġneg": 4432,
    "antly": 4433,
    "Ġlikely": 4434,
    "Ġbecomes": 4435,
    "ĠOkay": 4436,
    "Ġputting": 4437,
    "Ġinstit": 4438,
    "Ġsá»¥": 4439,
    "Ġwalking": 4440,
    "Ġsea": 4441,
    "ĠMich": 4442,
    "Ġtells": 4443,
    "Ġoffice": 4444,
    "Ġmemory": 4445,
    "Ġxoay": 4446,
    "NÄĥm": 4447,
    "more": 4448,
    "Ġlá»įc": 4449,
    "ĠtrÃ²n": 4450,
    "apan": 4451,
    "str": 4452,
    "Ġboy": 4453,
    "Ġcross": 4454,
    "TrÆ°á»Ľc": 4455,
    "aur": 4456,
    "ĠhÃ¹ng": 4457,
    "Ġtrá»ĳng": 4458,
    "edom": 4459,
    "ster": 4460,
    "ĠCol": 4461,
    "ĠPhÃ¡": 4462,
    "Ġactiv": 4463,
    "Ġbigger": 4464,
    "Ġdrive": 4465,
    "Ġbá»Ŀ": 4466,
    "ĠChrist": 4467,
    "ĠÄĳiá»ĩp": 4468,
    "Ġgt": 4469,
    "arily": 4470,
    "Ġdied": 4471,
    "Ġdrop": 4472,
    "Ġpassion": 4473,
    "uly": 4474,
    "Ġmob": 4475,
    "ĠPar": 4476,
    "ĠKh": 4477,
    "Ġcreative": 4478,
    "Ġevidence": 4479,
    "fort": 4480,
    "ires": 4481,
    "Ġlt": 4482,
    "oming": 4483,
    "ashing": 4484,
    "Ġmechan": 4485,
    "Ġexcept": 4486,
    "cient": 4487,
    "Ġarm": 4488,
    "Ġ196": 4489,
    "Ġdesigned": 4490,
    "Ġreasons": 4491,
    "ned": 4492,
    "oid": 4493,
    "ĠÆ°u": 4494,
    "Ã£ng": 4495,
    "ĠCam": 4496,
    "agn": 4497,
    "ĠNháºŃt": 4498,
    "Ġmedical": 4499,
    "ĠBrit": 4500,
    "ĠÄĳáº³ng": 4501,
    "itiz": 4502,
    "Ġsearch": 4503,
    "ĠLÃłm": 4504,
    "Ġaction": 4505,
    "ously": 4506,
    "ĠmÃ¹i": 4507,
    "Ġresults": 4508,
    "col": 4509,
    "ford": 4510,
    "ĠÄĳáº¿": 4511,
    "Ġdiv": 4512,
    "Ġngáº«u": 4513,
    "Ġcompassion": 4514,
    "ĠYeah": 4515,
    "Ġvoi": 4516,
    "fer": 4517,
    "Ġlá»¥c": 4518,
    "Ġep": 4519,
    "Ġdoáº¡": 4520,
    "ĠEast": 4521,
    "Ġimprove": 4522,
    "BÃł": 4523,
    "Ġtar": 4524,
    "ĠbÃ²": 4525,
    "Ġtowards": 4526,
    "ĠlÃłnh": 4527,
    "ĠCÃ´": 4528,
    "ĠSte": 4529,
    "Ġemerg": 4530,
    "Ġeverywhere": 4531,
    "Ġgrad": 4532,
    "Ġcris": 4533,
    "Ġdrug": 4534,
    "ges": 4535,
    "zz": 4536,
    "Ġnine": 4537,
    "ĠÄĳam": 4538,
    "ĠlÃŃnh": 4539,
    "Ġphil": 4540,
    "Ġlived": 4541,
    "ĠJapan": 4542,
    "Ġblind": 4543,
    "Ġclean": 4544,
    "Ġaware": 4545,
    "medi": 4546,
    "ĠMexico": 4547,
    "Ġcrazy": 4548,
    "view": 4549,
    "ĠtÃ´": 4550,
    "ngth": 4551,
    "Ġled": 4552,
    "Ġlose": 4553,
    "ained": 4554,
    "Ġconscious": 4555,
    "Ġready": 4556,
    "Ġfavorite": 4557,
    "Ġsoftware": 4558,
    "NhÃ": 4559,
    "ĠÄĳá»±ng": 4560,
    "oms": 4561,
    "Ġprim": 4562,
    "Ãºa": 4563,
    "ÄĲÆ°á»£c": 4564,
    "ĠSan": 4565,
    "ĠNow": 4566,
    "ĠGr": 4567,
    "Ġstarts": 4568,
    "ĠYes": 4569,
    "Ġbasic": 4570,
    "Ġparticip": 4571,
    "Ġteacher": 4572,
    "£n": 4573,
    "Ġcart": 4574,
    "Ġcode": 4575,
    "Ġbird": 4576,
    "estern": 4577,
    "Ġthá»«a": 4578,
    "ĠthuáºŃn": 4579,
    "olutions": 4580,
    "With": 4581,
    "ky": 4582,
    "put": 4583,
    "Ġtan": 4584,
    "ĠthÃ¡c": 4585,
    "urt": 4586,
    "Ġshif": 4587,
    "ĠÄĲáº¥t": 4588,
    "Ġunf": 4589,
    "ished": 4590,
    "Ġcertainly": 4591,
    "Liá»ĩu": 4592,
    "á»©ng": 4593,
    "Ġbact": 4594,
    "onse": 4595,
    "ĠrÃ¡c": 4596,
    "Ġtaught": 4597,
    "Ġwaste": 4598,
    "oles": 4599,
    "Ġthuá»·": 4600,
    "Ġbiggest": 4601,
    "Ġexamples": 4602,
    "Ġscientific": 4603,
    "how": 4604,
    "Ġtrial": 4605,
    "Ġonto": 4606,
    "ĠBá»Łi": 4607,
    "ĠNorth": 4608,
    "ores": 4609,
    "ĠÄĳoÃłn": 4610,
    "Ġminds": 4611,
    "Gi": 4612,
    "Ġcáº¥y": 4613,
    "Ġmis": 4614,
    "imb": 4615,
    "Ġprint": 4616,
    "ĠBill": 4617,
    "ude": 4618,
    "Ġmoved": 4619,
    "Ġtransl": 4620,
    "Ġobviously": 4621,
    "Ġfurther": 4622,
    "chÃºng": 4623,
    "ged": 4624,
    "Ġcitiz": 4625,
    "Ġlau": 4626,
    "ĠtrÃŃch": 4627,
    "edia": 4628,
    "Ġquality": 4629,
    "Ġsever": 4630,
    "ÄĲáº§u": 4631,
    "izations": 4632,
    "Ġ400": 4633,
    "Ġscreen": 4634,
    "others": 4635,
    "Ġcomputers": 4636,
    "Ġmoral": 4637,
    "Ġparticularly": 4638,
    "Ġviolence": 4639,
    "Ġintrod": 4640,
    "Ġprogress": 4641,
    "lin": 4642,
    "nal": 4643,
    "Ġthang": 4644,
    "Ġcháº·t": 4645,
    "ett": 4646,
    "Ġmeant": 4647,
    "Ġcontent": 4648,
    "Ġcontext": 4649,
    "ruction": 4650,
    "Ġshowing": 4651,
    "ĠnhuáºŃn": 4652,
    "ĠCanada": 4653,
    "Ġextraord": 4654,
    "Ġneighbor": 4655,
    "Ġdin": 4656,
    "Ġrock": 4657,
    "Ġfaster": 4658,
    "ays": 4659,
    "urity": 4660,
    "Ġste": 4661,
    "ĠAD": 4662,
    "ĠOr": 4663,
    "Ġcommunities": 4664,
    "ground": 4665,
    "ĠÄĳáº¡p": 4666,
    "Ġhuy": 4667,
    "Ġpu": 4668,
    "Ġgiáº£ng": 4669,
    "Ġhá»įp": 4670,
    "Ġchoose": 4671,
    "ĠWar": 4672,
    "Ġgraph": 4673,
    "Ġconsider": 4674,
    "ĠArab": 4675,
    "iversity": 4676,
    "Ġapart": 4677,
    "Ġnational": 4678,
    "Ġmount": 4679,
    "ĠShe": 4680,
    "tend": 4681,
    "Ġreport": 4682,
    "Ġthreat": 4683,
    "ĠlÆ°á»£c": 4684,
    "Ġmiáº¿ng": 4685,
    "any": 4686,
    "ĠAll": 4687,
    "Ġexpert": 4688,
    "Ġindeed": 4689,
    "ĠlÃ£ng": 4690,
    "come": 4691,
    "ĠcÃ£i": 4692,
    "Ġaf": 4693,
    "Ġnhá»±a": 4694,
    "Ġdoor": 4695,
    "olf": 4696,
    "Æ°á»Ŀn": 4697,
    "ĠGDP": 4698,
    "Ġcloud": 4699,
    "Ġadm": 4700,
    "Ġdecisions": 4701,
    "Ġflu": 4702,
    "Ġregion": 4703,
    "Ġresponse": 4704,
    "Ġradio": 4705,
    "Ġsurprising": 4706,
    "Ġauthor": 4707,
    "ĠtáºŃt": 4708,
    "Ġláº¯p": 4709,
    "Ġwhe": 4710,
    "Ġkháº¥u": 4711,
    "ims": 4712,
    "Ġconc": 4713,
    "ĠSw": 4714,
    "ucle": 4715,
    "Ġstudent": 4716,
    "Ġsolar": 4717,
    "Ġhospital": 4718,
    "Ġseveral": 4719,
    "nces": 4720,
    "Ġcháº·n": 4721,
    "ured": 4722,
    "ĠRe": 4723,
    "ressed": 4724,
    "Ġforest": 4725,
    "Ġmagic": 4726,
    "Ġdrugs": 4727,
    "Ġtotally": 4728,
    "After": 4729,
    "oint": 4730,
    "Ġrid": 4731,
    "ald": 4732,
    "ĠMo": 4733,
    "ander": 4734,
    "Ġbrains": 4735,
    "Ġconnected": 4736,
    "Ġthai": 4737,
    "Ġhung": 4738,
    "osh": 4739,
    "Ġrap": 4740,
    "Ġfish": 4741,
    "Ġec": 4742,
    "Ġworse": 4743,
    "ĠgiÃ¡m": 4744,
    "ĠngoÃ¡i": 4745,
    "Ġsociet": 4746,
    "Ġvari": 4747,
    "ĠKenya": 4748,
    "aking": 4749,
    "cis": 4750,
    "Ġce": 4751,
    "ĠchÃło": 4752,
    "Ġrain": 4753,
    "Ġlá»ħ": 4754,
    "Ġmá»«ng": 4755,
    "Ġremark": 4756,
    "Ġpositive": 4757,
    "ĠChris": 4758,
    "30": 4759,
    "cr": 4760,
    "ĠÄĳÃ²i": 4761,
    "Ġgra": 4762,
    "Ġdam": 4763,
    "Ġngang": 4764,
    "ĠyÃªn": 4765,
    "ĠSm": 4766,
    "ĠEd": 4767,
    "Ġstrateg": 4768,
    "Ġáº¢": 4769,
    "ChÃŃnh": 4770,
    "Can": 4771,
    "Im": 4772,
    "Viá»ĩc": 4773,
    "wor": 4774,
    "ĠtháºŃn": 4775,
    "Ġnobody": 4776,
    "Ġhuá»ĳng": 4777,
    "Ġther": 4778,
    "Ġdiá»ĩt": 4779,
    "Ġfant": 4780,
    "Ġfix": 4781,
    "Ġstick": 4782,
    "Ġprison": 4783,
    "oken": 4784,
    "Ġimmedi": 4785,
    "rof": 4786,
    "Ġvirt": 4787,
    "Ġassum": 4788,
    "Ġwait": 4789,
    "Ġcollabor": 4790,
    "20": 4791,
    "ring": 4792,
    "Ġthao": 4793,
    "Ġmáº¡i": 4794,
    "ĠmÃ¢y": 4795,
    "Ġpin": 4796,
    "Ġdom": 4797,
    "Ġcáº£n": 4798,
    "Ġwants": 4799,
    "ĠÄĲá»©c": 4800,
    "NÃ³i": 4801,
    "Ġcarry": 4802,
    "Ġ150": 4803,
    "Ġjobs": 4804,
    "Ġwatching": 4805,
    "witter": 4806,
    "dom": 4807,
    "Ġlink": 4808,
    "Ġmine": 4809,
    "Ġmental": 4810,
    "ĠhÆ°Æ¡ng": 4811,
    "Ġko": 4812,
    "Ġgrew": 4813,
    "atory": 4814,
    "verty": 4815,
    "Ġshown": 4816,
    "ĠNgh": 4817,
    "aging": 4818,
    "ĠPal": 4819,
    "Ġchemical": 4820,
    "win": 4821,
    "ĠmÃ¬": 4822,
    "Ġoh": 4823,
    "Ġpush": 4824,
    "Ġdá»ĭ": 4825,
    "Ġnotice": 4826,
    "Ġsá»ķ": 4827,
    "Ġadult": 4828,
    "Ġinflu": 4829,
    "Ġallowed": 4830,
    "ĠxoÃ¡": 4831,
    "Ġtraining": 4832,
    "Hay": 4833,
    "ror": 4834,
    "Ġcorn": 4835,
    "oub": 4836,
    "ĠchÃ©p": 4837,
    "Ġspir": 4838,
    "Ġperspect": 4839,
    "Ġdetect": 4840,
    "Ġreturn": 4841,
    "Ġtháº¥u": 4842,
    "ĠÄĳá»ĳng": 4843,
    "ĠÄĳÃ¹a": 4844,
    "Ġbodies": 4845,
    "Ġvong": 4846,
    "icle": 4847,
    "ĠTwitter": 4848,
    "agine": 4849,
    "Ġsá»£i": 4850,
    "Ġsyn": 4851,
    "Ġdecision": 4852,
    "Ġskin": 4853,
    "Ġinfect": 4854,
    "Ġcirc": 4855,
    "aughter": 4856,
    "Ġincluding": 4857,
    "Maybe": 4858,
    "Ġvillage": 4859,
    "Ġmethod": 4860,
    "ĠthÃ¹": 4861,
    "Ġnucle": 4862,
    "ĠvÃº": 4863,
    "Ġkil": 4864,
    "ĠtrÃłn": 4865,
    "instein": 4866,
    "ĠcÃ¡t": 4867,
    "Ġ2000": 4868,
    "Ġanybody": 4869,
    "Ġstudies": 4870,
    "Ġappear": 4871,
    "Ġtrees": 4872,
    "Ġposition": 4873,
    "Ġcontinue": 4874,
    "Ġobjects": 4875,
    "Ġdiscuss": 4876,
    "Ġsuddenly": 4877,
    "Ġcharacter": 4878,
    "Ġcáº·p": 4879,
    "Ġnan": 4880,
    "Ġsan": 4881,
    "Ġfasc": 4882,
    "Ġcá»©ng": 4883,
    "soci": 4884,
    "ologist": 4885,
    "Ġmulti": 4886,
    "Ġmovie": 4887,
    "Cuá»ĳi": 4888,
    "IT": 4889,
    "ĠÃ¡m": 4890,
    "Ġbank": 4891,
    "Ġhop": 4892,
    "Ġfill": 4893,
    "Ġtá»ı": 4894,
    "ief": 4895,
    "Ġactivity": 4896,
    "ĠFran": 4897,
    "Ġbuildings": 4898,
    "Ã¨o": 4899,
    "Ġfarm": 4900,
    "Ġlargest": 4901,
    "Ġnamed": 4902,
    "Ġfreedom": 4903,
    "ĠmáºŃp": 4904,
    "Ġign": 4905,
    "ought": 4906,
    "Ġfine": 4907,
    "itary": 4908,
    "urg": 4909,
    "ocks": 4910,
    "Ġeventually": 4911,
    "cy": 4912,
    "Ġmá»±c": 4913,
    "Ġwife": 4914,
    "Ġnháº±m": 4915,
    "ener": 4916,
    "inct": 4917,
    "ĠcÃ¡m": 4918,
    "Ġphiáº¿u": 4919,
    "Ġsepar": 4920,
    "ĠPaul": 4921,
    "Ġemploy": 4922,
    "itten": 4923,
    "ĠFl": 4924,
    "Ġclos": 4925,
    "ĠtuyÃªn": 4926,
    "Ġpoverty": 4927,
    "Ġtemper": 4928,
    "Ġcrisis": 4929,
    "for": 4930,
    "kn": 4931,
    "erve": 4932,
    "Ġtruly": 4933,
    "Ġfa": 4934,
    "ica": 4935,
    "ellow": 4936,
    "Ġminute": 4937,
    "ping": 4938,
    "vision": 4939,
    "ĠsÃºng": 4940,
    "Ġswe": 4941,
    "Ġnhá»ĭp": 4942,
    "ĠkhÃŃa": 4943,
    "Ġforms": 4944,
    "ĠCO": 4945,
    "Ġdeb": 4946,
    "Ġluck": 4947,
    "ffic": 4948,
    "Ġincome": 4949,
    "Ngay": 4950,
    "Ã¨m": 4951,
    "Ġartist": 4952,
    "Ġelectr": 4953,
    "Ġkilled": 4954,
    "Ġconditions": 4955,
    "Ġtraditional": 4956,
    "Ġconversation": 4957,
    "Even": 4958,
    "ners": 4959,
    "oe": 4960,
    "Ġsource": 4961,
    "Ġmist": 4962,
    "Ġbá»ĳi": 4963,
    "Ġbáº¯n": 4964,
    "Ġhiáº¿m": 4965,
    "ĠtrÃło": 4966,
    "oday": 4967,
    "ĠBang": 4968,
    "istics": 4969,
    "Ġplants": 4970,
    "Ġanymore": 4971,
    "Ġamp": 4972,
    "Ġended": 4973,
    "Ġsupposed": 4974,
    "Ġspecific": 4975,
    "ĠchÃ¡n": 4976,
    "Ġexcited": 4977,
    "Ġsá»¥p": 4978,
    "ashington": 4979,
    "ĠtÃ¡": 4980,
    "Ġcong": 4981,
    "rest": 4982,
    "Ġgas": 4983,
    "ĠAb": 4984,
    "ulate": 4985,
    "ĠNig": 4986,
    "Ġcapt": 4987,
    "Ġsignific": 4988,
    "Ġproducts": 4989,
    "Ġspeed": 4990,
    "Ġextremely": 4991,
    "ĠtiÃªm": 4992,
    "ĠADN": 4993,
    "LÃºc": 4994,
    "ael": 4995,
    "cape": 4996,
    "Ġsolutions": 4997,
    "ĠhÃł": 4998,
    "ĠkÃªu": 4999,
    "Ġpack": 5000,
    "osphere": 5001,
    "Ġclin": 5002,
    "Ġeffort": 5003,
    "Ġrespond": 5004,
    "Ġrobots": 5005,
    "Ġpolitics": 5006,
    "Ġlabor": 5007,
    "cise": 5008,
    "ĠmÃ³c": 5009,
    "Ġhig": 5010,
    "nhÆ°ng": 5011,
    "Ġngá»įn": 5012,
    "vert": 5013,
    "ĠDan": 5014,
    "Ġaccept": 5015,
    "Ġfinding": 5016,
    "Ġprovide": 5017,
    "Ľt": 5018,
    "Ġkept": 5019,
    "áºŃc": 5020,
    "Ġkhung": 5021,
    "sect": 5022,
    "Ġgoal": 5023,
    "Ġlá»«a": 5024,
    "Ġalive": 5025,
    "Ġfell": 5026,
    "ĠWashington": 5027,
    "Ġdisapp": 5028,
    "Ġcook": 5029,
    "ossible": 5030,
    "Ġrole": 5031,
    "Ġsecret": 5032,
    "ĠÃģ": 5033,
    "Ġpoints": 5034,
    "Ġsorts": 5035,
    "Ġfinan": 5036,
    "Ġskills": 5037,
    "Ġallows": 5038,
    "Ġexciting": 5039,
    "Ġcollege": 5040,
    "Most": 5041,
    "joy": 5042,
    "uf": 5043,
    "ĠÃ³c": 5044,
    "Ġcases": 5045,
    "Ġliá»ģn": 5046,
    "Ġdá»ĳi": 5047,
    "Ġtriáº¿t": 5048,
    "ently": 5049,
    "ĠhoÃłng": 5050,
    "ĠAng": 5051,
    "eless": 5052,
    "ĠDon": 5053,
    "Ġcomplic": 5054,
    "ĠPhÃ¡p": 5055,
    "CÃ¡ch": 5056,
    "ham": 5057,
    "ze": 5058,
    "ĠhÃ¨": 5059,
    "useum": 5060,
    "ĠbÃ©o": 5061,
    "Ġreading": 5062,
    "Ġpublish": 5063,
    "ĠXin": 5064,
    "ĠAfrican": 5065,
    "Ġgá»Ĺ": 5066,
    "Ġlistening": 5067,
    "Ġsocieties": 5068,
    "Ġhigher": 5069,
    "First": 5070,
    "ging": 5071,
    "ĠcÃ´n": 5072,
    "ĠÄĳua": 5073,
    "Ġwild": 5074,
    "Æ°á»£u": 5075,
    "Ġdoc": 5076,
    "Ġabove": 5077,
    "emic": 5078,
    "Ġjud": 5079,
    "NhÃł": 5080,
    "Ġcá»¥c": 5081,
    "Ġseries": 5082,
    "ĠIsl": 5083,
    "Ġthousand": 5084,
    "Ġmathem": 5085,
    "Ġservice": 5086,
    "Ġextraordinary": 5087,
    "CÃ´ng": 5088,
    "KhÃ¡": 5089,
    "Ġlate": 5090,
    "Ġthá»Ŀ": 5091,
    "Ġweight": 5092,
    "Ġann": 5093,
    "ĠAi": 5094,
    "uá»³": 5095,
    "Ġdoctor": 5096,
    "Ġprinci": 5097,
    "go": 5098,
    "Ġcat": 5099,
    "ĠmÆ°a": 5100,
    "alia": 5101,
    "omm": 5102,
    "Ġstra": 5103,
    "ulf": 5104,
    "ĠUniversity": 5105,
    "Ġdeterm": 5106,
    "Ġmodels": 5107,
    "Ġafford": 5108,
    "Ġsuccessful": 5109,
    "Ġfamilies": 5110,
    "Ġpurp": 5111,
    "Ġstrugg": 5112,
    "Ġfascin": 5113,
    "ĠcÄĥng": 5114,
    "Ġtháº§y": 5115,
    "Ġbá»ķ": 5116,
    "Ġbunch": 5117,
    "Ġkháº£o": 5118,
    "Ġloved": 5119,
    "Ġsmell": 5120,
    "Ġsurg": 5121,
    "egr": 5122,
    "Ġcalcul": 5123,
    "Ġfundamental": 5124,
    "aid": 5125,
    "Ġquot": 5126,
    "Ġsus": 5127,
    "Ġbal": 5128,
    "ĠbáºŃc": 5129,
    "Ġhá»ĳi": 5130,
    "erman": 5131,
    "aly": 5132,
    "ids": 5133,
    "ĠGiá»": 5134,
    "Ġmáº¡c": 5135,
    "Ġthoáº£i": 5136,
    "Ġpolicy": 5137,
    "CÃ¡m": 5138,
    "Ġnáº¥m": 5139,
    "ĠÄĳáºŃp": 5140,
    "ĠlÅ©": 5141,
    "Ġlands": 5142,
    "oun": 5143,
    "ĠngÆ°á»¡ng": 5144,
    "Ġconcer": 5145,
    "ĠLa": 5146,
    "Ġexpensive": 5147,
    "ĠTháºŃt": 5148,
    "Ġanywhere": 5149,
    "Ġimpossible": 5150,
    "Ġslight": 5151,
    "Ġcapital": 5152,
    "Ġmachines": 5153,
    "cules": 5154,
    "Ġneurons": 5155,
    "Ġchá»ĳt": 5156,
    "ĠSá»±": 5157,
    "Ġmá»ı": 5158,
    "Ġdistrib": 5159,
    "Ġfamiliar": 5160,
    "Sh": 5161,
    "uit": 5162,
    "ĠÃ¡c": 5163,
    "Ġthr": 5164,
    "Ġchá»ĳi": 5165,
    "ĠCong": 5166,
    "iven": 5167,
    "Ġenjoy": 5168,
    "Ġeffic": 5169,
    "enced": 5170,
    "Ġcolleag": 5171,
    "Ġcritical": 5172,
    "Of": 5173,
    "dr": 5174,
    "ĠtÃ¡o": 5175,
    "Ġcry": 5176,
    "Ġthuyá»ģn": 5177,
    "Ġsou": 5178,
    "Ġlad": 5179,
    "Ġlower": 5180,
    "ĠmÃ©t": 5181,
    "Theo": 5182,
    "Ġplastic": 5183,
    "ĠWestern": 5184,
    "Ġhuáº¥n": 5185,
    "Ġfunny": 5186,
    "Ġstraight": 5187,
    "CÅ©ng": 5188,
    "gr": 5189,
    "omas": 5190,
    "iced": 5191,
    "Ġrand": 5192,
    "ĠMIT": 5193,
    "erson": 5194,
    "Ġsomewhere": 5195,
    "ounds": 5196,
    "Ġgenetic": 5197,
    "Ġdemon": 5198,
    "Ġlarger": 5199,
    "Ġswim": 5200,
    "Ġtypes": 5201,
    "Ġdoctors": 5202,
    "ĠThÃ¡i": 5203,
    "ray": 5204,
    "ĠnhÅ©ng": 5205,
    "Ġtráº§m": 5206,
    "ĠrÆ°á»£u": 5207,
    "aries": 5208,
    "Ġhack": 5209,
    "igr": 5210,
    "ÄĲá»ĳi": 5211,
    "Ġusually": 5212,
    "unk": 5213,
    "Ġupon": 5214,
    "Ġactual": 5215,
    "Ġá»Ĵ": 5216,
    "Ġcold": 5217,
    "Ġroll": 5218,
    "Ġfamous": 5219,
    "Ġpieces": 5220,
    "Ġreflect": 5221,
    "Ġcontinu": 5222,
    "Ġhá»Ĺn": 5223,
    "Ġpatterns": 5224,
    "Ġrecognize": 5225,
    "ax": 5226,
    "word": 5227,
    "Ġmir": 5228,
    "ami": 5229,
    "Ġraise": 5230,
    "ĠMay": 5231,
    "Ġjump": 5232,
    "Ġmá»ĵ": 5233,
    "Ġbecoming": 5234,
    "ĠWik": 5235,
    "Ġboard": 5236,
    "Ġtalks": 5237,
    "ript": 5238,
    "Ġglass": 5239,
    "Ġrespect": 5240,
    "Ġtreatment": 5241,
    "ĠghÃ©t": 5242,
    "Ġdeliver": 5243,
    "Ġsquare": 5244,
    "Ġphilos": 5245,
    "back": 5246,
    "lier": 5247,
    "á»ķi": 5248,
    "ĠCity": 5249,
    "Ġgreater": 5250,
    "Ġseconds": 5251,
    "Ġexplore": 5252,
    "Ġearth": 5253,
    "Ġperspective": 5254,
    "PS": 5255,
    "na": 5256,
    "off": 5257,
    "ogen": 5258,
    "Ġá»©c": 5259,
    "Ġlaunch": 5260,
    "attle": 5261,
    "Ġmagn": 5262,
    "ustrial": 5263,
    "urban": 5264,
    "Ġcitizens": 5265,
    "LÃł": 5266,
    "Ġsite": 5267,
    "Ġbiá»ĩn": 5268,
    "Ġbáº£y": 5269,
    "Ġsaving": 5270,
    "ĠLet": 5271,
    "Ġsomehow": 5272,
    "Ġrights": 5273,
    "Ġ2008": 5274,
    "ĠAmericans": 5275,
    "Ġteaching": 5276,
    "Ġkhuyáº¿n": 5277,
    "ĠFrancis": 5278,
    "Ġtiss": 5279,
    "Ġly": 5280,
    "ĠvÃ¢ng": 5281,
    "rection": 5282,
    "Ġrá»§": 5283,
    "Ġrise": 5284,
    "Ġet": 5285,
    "the": 5286,
    "Ġshark": 5287,
    "ĠBáº£n": 5288,
    "Ġwilling": 5289,
    "akistan": 5290,
    "Ġeffective": 5291,
    "Ġmolecules": 5292,
    "Ġdemonstr": 5293,
    "NÃło": 5294,
    "ball": 5295,
    "ĠnÃºt": 5296,
    "ĠÄĳáº¯t": 5297,
    "Ġtruy": 5298,
    "apes": 5299,
    "ĠCÃ´ng": 5300,
    "uments": 5301,
    "Ġlegs": 5302,
    "Ġgenes": 5303,
    "Ġsmaller": 5304,
    "Ġtá»īnh": 5305,
    "Ġbeauty": 5306,
    "Ġnetwor": 5307,
    "Hoáº·c": 5308,
    "Ġinstitut": 5309,
    "Ġspirit": 5310,
    "Ġcomplicated": 5311,
    "Ġrandom": 5312,
    "Today": 5313,
    "Ġsam": 5314,
    "Ġport": 5315,
    "Ġtrib": 5316,
    "ĠngÃ³n": 5317,
    "Ġran": 5318,
    "Ġcá»ı": 5319,
    "Ġeth": 5320,
    "Thay": 5321,
    "Ġtá»ĭ": 5322,
    "ctor": 5323,
    "key": 5324,
    "Ġwritten": 5325,
    "Ġshared": 5326,
    "ĠchÃ¡y": 5327,
    "Ġpainting": 5328,
    "Ġversion": 5329,
    "Ġfemale": 5330,
    "Ġáº¡": 5331,
    "Ġpage": 5332,
    "Ġyeah": 5333,
    "Ã£n": 5334,
    "amic": 5335,
    "Ġstore": 5336,
    "ĠBar": 5337,
    "ĠNe": 5338,
    "ĠphÃ¡n": 5339,
    "ĠThuá»µ": 5340,
    "epend": 5341,
    "ologists": 5342,
    "Ġsecurity": 5343,
    "Ġhá»ĵn": 5344,
    "Ġcontrib": 5345,
    "ortunately": 5346,
    "Ġincreasing": 5347,
    "Ġfinancial": 5348,
    "MÃł": 5349,
    "ef": 5350,
    "Ġthrow": 5351,
    "Ġhous": 5352,
    "Ġthá»į": 5353,
    "Ġxá»©ng": 5354,
    "ĠSe": 5355,
    "Ġuses": 5356,
    "Ġgene": 5357,
    "Ġstanding": 5358,
    "Ġdiscover": 5359,
    "Ġoptim": 5360,
    "mp": 5361,
    "xi": 5362,
    "Ġmáº¡o": 5363,
    "itation": 5364,
    "omp": 5365,
    "Ġassoci": 5366,
    "Ġ35": 5367,
    "Ġprep": 5368,
    "Ġdecades": 5369,
    "Ġhealthy": 5370,
    "Ġorganizations": 5371,
    "Ġcosts": 5372,
    "Ġincrease": 5373,
    "Ġbabies": 5374,
    "Imagine": 5375,
    "ĠtÃºc": 5376,
    "Ġthiá»ĥu": 5377,
    "Ġsal": 5378,
    "Ġháº¯n": 5379,
    "Ġtrick": 5380,
    "lebr": 5381,
    "Ġstar": 5382,
    "iring": 5383,
    "iling": 5384,
    "Nhiá»ģu": 5385,
    "ĠPl": 5386,
    "ĠPakistan": 5387,
    "ĠÄĲÆ°á»£c": 5388,
    "Ġexpress": 5389,
    "Ġ45": 5390,
    "Ġhumanity": 5391,
    "eech": 5392,
    "Ġorganization": 5393,
    "Ġconnection": 5394,
    "Ġcorru": 5395,
    "Ġlevels": 5396,
    "Ġachieve": 5397,
    "Ġbacteria": 5398,
    "time": 5399,
    "£t": 5400,
    "Ġtháº£": 5401,
    "ĠsÄĥn": 5402,
    "Ġgá»įn": 5403,
    "ĠBig": 5404,
    "Ġessentially": 5405,
    "ĠmÅ©i": 5406,
    "och": 5407,
    "Ġcard": 5408,
    "Ġbread": 5409,
    "repre": 5410,
    "orrow": 5411,
    "arm": 5412,
    "ining": 5413,
    "ĠgiáºŃn": 5414,
    "ĠkhÃ¡t": 5415,
    "acity": 5416,
    "ĠDr": 5417,
    "thern": 5418,
    "Ġbeings": 5419,
    "Ġcá»¥t": 5420,
    "Ġolder": 5421,
    "Ġplease": 5422,
    "Ġdangerous": 5423,
    "reprene": 5424,
    "DÃ¹": 5425,
    "aign": 5426,
    "lant": 5427,
    "Ġtháº¡ch": 5428,
    "ĠbÃ´ng": 5429,
    "Ġdinh": 5430,
    "Ġcá»Ĺ": 5431,
    "Ġphen": 5432,
    "Ġforth": 5433,
    "verse": 5434,
    "ĠCÃ¡i": 5435,
    "Ġpros": 5436,
    "ĠBen": 5437,
    "agement": 5438,
    "Ġspeech": 5439,
    "ĠGu": 5440,
    "ĠDar": 5441,
    "Ġtrá»©ng": 5442,
    "Ġpractice": 5443,
    "za": 5444,
    "ĠÃł": 5445,
    "Ġmix": 5446,
    "Ġinh": 5447,
    "atically": 5448,
    "itor": 5449,
    "Ġkhiáº¿p": 5450,
    "ulner": 5451,
    "Ġalg": 5452,
    "Ġmai": 5453,
    "ĠGPS": 5454,
    "raft": 5455,
    "ĠOb": 5456,
    "Ġdesp": 5457,
    "Ġthroughout": 5458,
    "Ġremind": 5459,
    "Ġfinal": 5460,
    "Ġengineering": 5461,
    "Ġremarkable": 5462,
    "Ġimmediately": 5463,
    "Ai": 5464,
    "Vá»ģ": 5465,
    "sc": 5466,
    "Ġtia": 5467,
    "Ġthiá»ĩp": 5468,
    "ĠdÃły": 5469,
    "Ġcomfort": 5470,
    "ables": 5471,
    "ĠthuÃª": 5472,
    "ĠJe": 5473,
    "Ġcreativity": 5474,
    "Ġarchitecture": 5475,
    "Ġelectricity": 5476,
    "Ġsurgery": 5477,
    "Ġrá»§i": 5478,
    "&#": 5479,
    "Ġcust": 5480,
    "Ġnáº¥u": 5481,
    "ĠÄĳáº¯n": 5482,
    "Ġfit": 5483,
    "istry": 5484,
    "cience": 5485,
    "Where": 5486,
    "ĠEinstein": 5487,
    "Ġbelief": 5488,
    "Ġbiology": 5489,
    "Ġmobile": 5490,
    "Ġfantastic": 5491,
    "Ľn": 5492,
    "Ġcá»Ļt": 5493,
    "ĠthÃ¡nh": 5494,
    "Ġnation": 5495,
    "Ġlá»Ļn": 5496,
    "Ġmá»Ļ": 5497,
    "ĠmÃ²": 5498,
    "Ġbinh": 5499,
    "ĠhÆ°á»Ľc": 5500,
    "oses": 5501,
    "Ġxong": 5502,
    "Ġteen": 5503,
    "ission": 5504,
    "Ġenvironmental": 5505,
    "gen": 5506,
    "Ġmention": 5507,
    "Ġbá»Ļt": 5508,
    "ĠbÃ£i": 5509,
    "Ġkáº¹": 5510,
    "Ġpan": 5511,
    "Ġpark": 5512,
    "Ġdad": 5513,
    "oty": 5514,
    "itude": 5515,
    "ĠgiÃłnh": 5516,
    "Ġhole": 5517,
    "ÄĲÃºng": 5518,
    "ĠÄĲÃºng": 5519,
    "ĠRight": 5520,
    "Ġcover": 5521,
    "Ġcoff": 5522,
    "uced": 5523,
    "Ġscan": 5524,
    "Ġevolved": 5525,
    "Ġpolice": 5526,
    "Ġelectron": 5527,
    "Ġstandard": 5528,
    "Ġhonest": 5529,
    "Ġtelevision": 5530,
    "Ġurban": 5531,
    "ĠtÃ³c": 5532,
    "ĠÄĳá»ĳc": 5533,
    "Ġmal": 5534,
    "Ġmatch": 5535,
    "Ġchair": 5536,
    "ĠngÅ©": 5537,
    "Ġstars": 5538,
    "ola": 5539,
    "ĠTo": 5540,
    "Æ°á»Ľt": 5541,
    "ĠHy": 5542,
    "ĠLiÃªn": 5543,
    "Ġdiagn": 5544,
    "Ġoffic": 5545,
    "Ġinterview": 5546,
    "ception": 5547,
    "Ġproduction": 5548,
    "Ġearlier": 5549,
    "Ġpropert": 5550,
    "Ġfollowing": 5551,
    "Ġclearly": 5552,
    "Ġencour": 5553,
    "af": 5554,
    "yle": 5555,
    "Ĺng": 5556,
    "ĠÄĳÃłi": 5557,
    "ĠÄĳá»ĳt": 5558,
    "Ġtruyá»ĩn": 5559,
    "Ġcháº©n": 5560,
    "Ġcheck": 5561,
    "ĠrÄĥng": 5562,
    "ĠxÆ°a": 5563,
    "ams": 5564,
    "ĠphÃ³": 5565,
    "sequ": 5566,
    "ĠMus": 5567,
    "ĠAustr": 5568,
    "resh": 5569,
    "berg": 5570,
    "Ġaddress": 5571,
    "Ġwalked": 5572,
    "Ġchallenges": 5573,
    "Ġservices": 5574,
    "Ġinternational": 5575,
    "ole": 5576,
    "Ġdá»įc": 5577,
    "Ġtrade": 5578,
    "arian": 5579,
    "iá»ĩng": 5580,
    "iding": 5581,
    "Ġprice": 5582,
    "Ġord": 5583,
    "Ġspect": 5584,
    "Ġthuáº§n": 5585,
    "ĠmÃ¡t": 5586,
    "ĠNhÃł": 5587,
    "Ġapply": 5588,
    "Ġstrange": 5589,
    "Ġwaiting": 5590,
    "Ġcelebr": 5591,
    "Any": 5592,
    "Kh": 5593,
    "Ġnut": 5594,
    "Ġbáº¡c": 5595,
    "Ġhuyáº¿t": 5596,
    "Ġvict": 5597,
    "Ġveh": 5598,
    "ĠrÆ°á»¡i": 5599,
    "oper": 5600,
    "ĠCent": 5601,
    "ĠTáº¥t": 5602,
    "Ġsequ": 5603,
    "ĠLos": 5604,
    "Ġunique": 5605,
    "Ġuseful": 5606,
    "Ġunderstood": 5607,
    "Ġhelped": 5608,
    "Ġcareer": 5609,
    "Ġoppos": 5610,
    "Ġcondition": 5611,
    "Ġmilitary": 5612,
    "Ġmassive": 5613,
    "Ġemotional": 5614,
    "Ġ2010": 5615,
    "Ġprivate": 5616,
    "ees": 5617,
    "ris": 5618,
    "Ġtur": 5619,
    "ĠnÆ¡": 5620,
    "Ġmiá»ģn": 5621,
    "Ġrace": 5622,
    "Ġchá»«ng": 5623,
    "rench": 5624,
    "Ġentreprene": 5625,
    "board": 5626,
    "Ġpopular": 5627,
    "Ġperformance": 5628,
    "ĠNigeria": 5629,
    "Hai": 5630,
    "RI": 5631,
    "ThÃ": 5632,
    "aff": 5633,
    "bu": 5634,
    "fl": 5635,
    "ps": 5636,
    "Ġtáº·ng": 5637,
    "ĠÄĳÄ©a": 5638,
    "reet": 5639,
    "ĠgÆ°Æ¡ng": 5640,
    "ises": 5641,
    "Ġwhose": 5642,
    "imately": 5643,
    "though": 5644,
    "ĠMan": 5645,
    "Ã½t": 5646,
    "Cháº³ng": 5647,
    "Ġsurround": 5648,
    "Ġhimself": 5649,
    "Ġautom": 5650,
    "ĠPhil": 5651,
    "Ġsexual": 5652,
    "Ġintelligence": 5653,
    "Ġcoffee": 5654,
    "iest": 5655,
    "Ġáº¥m": 5656,
    "Ġtask": 5657,
    "ĠbÃ³": 5658,
    "Ġhiáº¿n": 5659,
    "Ġnháº¥n": 5660,
    "Ġráº¯c": 5661,
    "ĠxÃ¢m": 5662,
    "Ġchoices": 5663,
    "Ġtherefore": 5664,
    "Ġspaces": 5665,
    "Ġprevent": 5666,
    "Ġhistor": 5667,
    "Ġclassroom": 5668,
    "Ġexperiments": 5669,
    "ĠnÃ©m": 5670,
    "ĠHaiti": 5671,
    "Ġneighborhood": 5672,
    "Ġphenomen": 5673,
    "vard": 5674,
    "ĠvÆ°á»Ŀn": 5675,
    "Ã¡y": 5676,
    "ĠngÃłi": 5677,
    "Ġfold": 5678,
    "ĠGerman": 5679,
    "econd": 5680,
    "Ġcá»ĳt": 5681,
    "Ġnhá»ī": 5682,
    "olly": 5683,
    "ashion": 5684,
    "Ġspeaking": 5685,
    "Ġmedicine": 5686,
    "Ġslightly": 5687,
    "Don": 5688,
    "Ġlines": 5689,
    "Ġvan": 5690,
    "Ġir": 5691,
    "rees": 5692,
    "Ġtrá»Ļn": 5693,
    "Ġchai": 5694,
    "edd": 5695,
    "iáº¿c": 5696,
    "Those": 5697,
    "Ġxáº¡": 5698,
    "Ġdog": 5699,
    "imin": 5700,
    "ĠApp": 5701,
    "ĠBer": 5702,
    "Ġexh": 5703,
    "ichard": 5704,
    "ĠLan": 5705,
    "Ġweren": 5706,
    "ĠEl": 5707,
    "ĠFor": 5708,
    "wood": 5709,
    "ĠkhÃ³c": 5710,
    "Ġdecide": 5711,
    "Ġsimpl": 5712,
    "Ġcreates": 5713,
    "ĠÃĿ": 5714,
    "ĠIndian": 5715,
    "Ġvalues": 5716,
    "ancy": 5717,
    "ĠWhen": 5718,
    "Ġláº»": 5719,
    "Ġmale": 5720,
    "Ġhus": 5721,
    "Ġvulner": 5722,
    "ĠiPh": 5723,
    "Ġgay": 5724,
    "Ġdance": 5725,
    "Ġwealth": 5726,
    "ĠquÃª": 5727,
    "Ġforget": 5728,
    "Ã¹i": 5729,
    "Ġworry": 5730,
    "ĠNA": 5731,
    "Which": 5732,
    "Ġparty": 5733,
    "Ġcentral": 5734,
    "Ġphysics": 5735,
    "cope": 5736,
    "Ġtuá»³": 5737,
    "Ġcáº©n": 5738,
    "Ġwood": 5739,
    "Ġdai": 5740,
    "Ġinsect": 5741,
    "Ġdirection": 5742,
    "Ġhighly": 5743,
    "Ġcomplexity": 5744,
    "Ġmeeting": 5745,
    "Ġdestro": 5746,
    "Ġetc": 5747,
    "Háº§u": 5748,
    "Somet": 5749,
    "Ġhall": 5750,
    "Ġpen": 5751,
    "ĠdÃŃnh": 5752,
    "Ġnho": 5753,
    "ening": 5754,
    "Ġselect": 5755,
    "Ġlights": 5756,
    "Ġcoun": 5757,
    "Ġmotiv": 5758,
    "Another": 5759,
    "Ġvaccine": 5760,
    "Ġnetworks": 5761,
    "Kho": 5762,
    "Right": 5763,
    "Ġmiá»ĩng": 5764,
    "Ġdaughter": 5765,
    "ĠrÃło": 5766,
    "isms": 5767,
    "ĠÄĳá»Ľn": 5768,
    "Ġeating": 5769,
    "ĠChi": 5770,
    "Ġshop": 5771,
    "iles": 5772,
    "ĠGreen": 5773,
    "Ġinstance": 5774,
    "Ġfocused": 5775,
    "Ġmicr": 5776,
    "ĠHarvard": 5777,
    "Ġsummer": 5778,
    "Ġnuclear": 5779,
    "Ġpurpose": 5780,
    "load": 5781,
    "mm": 5782,
    "rast": 5783,
    "Ġtáº¡m": 5784,
    "Ġtháº©m": 5785,
    "Ġbáº¯c": 5786,
    "reg": 5787,
    "ceed": 5788,
    "ago": 5789,
    "Ġdrink": 5790,
    "Ġ75": 5791,
    "Ġtuá»ĩ": 5792,
    "Ġanswers": 5793,
    "eases": 5794,
    "Ġphoto": 5795,
    "Ġcultural": 5796,
    "Ġcampaign": 5797,
    "Ġinvented": 5798,
    "ystem": 5799,
    "įt": 5800,
    "Ġcatch": 5801,
    "Ġahead": 5802,
    "ĠmiÃªu": 5803,
    "Ġháº¹n": 5804,
    "icians": 5805,
    "ĠÄĳÃ³n": 5806,
    "stead": 5807,
    "Ġshot": 5808,
    "ĠBá»Ļ": 5809,
    "ĠBro": 5810,
    "aced": 5811,
    "Ġenorm": 5812,
    "Ġdifferences": 5813,
    "Ġtransport": 5814,
    "Ġattract": 5815,
    "Ġstreets": 5816,
    "Ġprofound": 5817,
    "Ġspending": 5818,
    "ĠFrank": 5819,
    "Ġsurvive": 5820,
    "ĠGeorge": 5821,
    "ĠCharles": 5822,
    "Ġtemperature": 5823,
    "CáºŃu": 5824,
    "dd": 5825,
    "ios": 5826,
    "Ġtree": 5827,
    "Ġcá»ĳc": 5828,
    "Ġmáº©u": 5829,
    "Ġngáº§m": 5830,
    "Ġinj": 5831,
    "Ġphá»ķi": 5832,
    "Ġstates": 5833,
    "olve": 5834,
    "Ġlá»ıng": 5835,
    "ĠOne": 5836,
    "Ġdispl": 5837,
    "Ġboys": 5838,
    "order": 5839,
    "Ġdecade": 5840,
    "Ġdriving": 5841,
    "ĠWeb": 5842,
    "Ġlaws": 5843,
    "Ġtarget": 5844,
    "Ġbirds": 5845,
    "ĠtÃ²": 5846,
    "Ġbase": 5847,
    "ĠgÃł": 5848,
    "Ġdying": 5849,
    "Ġnháº¡y": 5850,
    "urd": 5851,
    "Ġworst": 5852,
    "ĠnhÃ¡": 5853,
    "ĠGl": 5854,
    "Ġcrow": 5855,
    "Ġgreatest": 5856,
    "ĠÄĳÃ¡y": 5857,
    "Ġoccur": 5858,
    "Ġcustom": 5859,
    "aj": 5860,
    "Ġcand": 5861,
    "ĠÄĳáºŃu": 5862,
    "rel": 5863,
    "Ġgent": 5864,
    "atives": 5865,
    "Ġrange": 5866,
    "used": 5867,
    "Ġreve": 5868,
    "ĠNational": 5869,
    "Ġbrings": 5870,
    "apped": 5871,
    "Ġadapt": 5872,
    "Ġsymb": 5873,
    "Ġartists": 5874,
    "ĠvuÃ´ng": 5875,
    "Ġterm": 5876,
    "Ġshares": 5877,
    "Ġpassword": 5878,
    "Ġidentity": 5879,
    "Ġvarious": 5880,
    "Ġanaly": 5881,
    "Ġinspired": 5882,
    "cing": 5883,
    "ĠÆ¡i": 5884,
    "Ġbáº¡ch": 5885,
    "Ġhiá»ĩp": 5886,
    "Ġháº¡ng": 5887,
    "á»ĳm": 5888,
    "Ġbeat": 5889,
    "urch": 5890,
    "imer": 5891,
    "ĠMiddle": 5892,
    "raid": 5893,
    "Ġdiseases": 5894,
    "Ġthoáº£ng": 5895,
    "azz": 5896,
    "Ġinstr": 5897,
    "Ġsky": 5898,
    "Ġbreast": 5899,
    "Ġcauses": 5900,
    "Ġlaugh": 5901,
    "Ġhusb": 5902,
    "iation": 5903,
    "á»Ŀ": 5904,
    "ĠcÆ°á»Ŀng": 5905,
    "ĠlÃ£o": 5906,
    "Ġtown": 5907,
    "orith": 5908,
    "Ġliber": 5909,
    "Ġ23": 5910,
    "Ġterrible": 5911,
    "Ġgradu": 5912,
    "Ġafraid": 5913,
    "iers": 5914,
    "ĠtÃ¢y": 5915,
    "Ġmut": 5916,
    "Ġwis": 5917,
    "ĠkiÃªn": 5918,
    "Ġdimens": 5919,
    "ĠtrÃ´i": 5920,
    "ani": 5921,
    "ĠquÃ¡i": 5922,
    "ĠTalk": 5923,
    "thetic": 5924,
    "odes": 5925,
    "ĠMin": 5926,
    "Ġnoticed": 5927,
    "Ġactive": 5928,
    "ĠJul": 5929,
    "Ġresist": 5930,
    "Ġ194": 5931,
    "Ġfloor": 5932,
    "Ġcommunicate": 5933,
    "Ġdocument": 5934,
    "Báº±ng": 5935,
    "PM": 5936,
    "my": 5937,
    "Ġlapt": 5938,
    "ĠdÃłn": 5939,
    "Ġrá»ĵ": 5940,
    "Ġfat": 5941,
    "orry": 5942,
    "Ġthá»£": 5943,
    "Ġweap": 5944,
    "Ġconsequ": 5945,
    "Ġhoáº¡i": 5946,
    "Ġframe": 5947,
    "athy": 5948,
    "Ġscientist": 5949,
    "Ġflying": 5950,
    "Ġdirectly": 5951,
    "Ġpublished": 5952,
    "Ġalgorith": 5953,
    "HÃ´m": 5954,
    "Sáº½": 5955,
    "here": 5956,
    "iot": 5957,
    "uction": 5958,
    "wise": 5959,
    "Ġloss": 5960,
    "Ġháº±ng": 5961,
    "Ġvast": 5962,
    "Ġpaid": 5963,
    "Ġtráº¯c": 5964,
    "Ġfing": 5965,
    "ĠquÃ¡n": 5966,
    "uted": 5967,
    "ĠTimes": 5968,
    "ĠMars": 5969,
    "ĠBecause": 5970,
    "Ġbub": 5971,
    "Ġdram": 5972,
    "ĠTEDx": 5973,
    "Ġ2007": 5974,
    "Ġcapacity": 5975,
    "Pháº§n": 5976,
    "anced": 5977,
    "Ġrule": 5978,
    "Ġsustainable": 5979,
    "Ġmathemat": 5980,
    "ĠiPhone": 5981,
    "ĠtÃ³m": 5982,
    "ĠnÆ°á»Ľng": 5983,
    "Ġing": 5984,
    "Ġgala": 5985,
    "Ġcháº¥n": 5986,
    "ĠMÄ©": 5987,
    "Ġhá»©a": 5988,
    "ager": 5989,
    "áº»o": 5990,
    "Ġintegr": 5991,
    "Ġknowing": 5992,
    "ĠEn": 5993,
    "Ġleo": 5994,
    "Ġtraffic": 5995,
    "Ġstrength": 5996,
    "Ġtrem": 5997,
    "Ġmissing": 5998,
    "Ġtwice": 5999,
    "Ġexperiences": 6000,
    "Be": 6001,
    "gar": 6002,
    "ĠÄĳáº£ng": 6003,
    "Ġax": 6004,
    "ĠlÃ¢y": 6005,
    "Ġtráº¡m": 6006,
    "Ġtrouble": 6007,
    "ĠquÃ©t": 6008,
    "lyn": 6009,
    "ĠgiÆ°á»Ŀng": 6010,
    "ĠgiÃły": 6011,
    "Ġsad": 6012,
    "ĠBa": 6013,
    "artin": 6014,
    "Ġunc": 6015,
    "Ġcommer": 6016,
    "Ġrelative": 6017,
    "Ġsupply": 6018,
    "Ġzero": 6019,
    "Ġjournal": 6020,
    "Ġleadership": 6021,
    "cule": 6022,
    "ĠMichael": 6023,
    "Ġut": 6024,
    "ngu": 6025,
    "ĠnÃ©t": 6026,
    "ĠngÃ£": 6027,
    "Ġngá»±a": 6028,
    "ĠMe": 6029,
    "Ġatm": 6030,
    "Ġcompon": 6031,
    "itted": 6032,
    "ĠThomas": 6033,
    "elling": 6034,
    "Ġmostly": 6035,
    "ipedia": 6036,
    "Ġapplic": 6037,
    "Ġindepend": 6038,
    "Ġpossibly": 6039,
    "Ġstopped": 6040,
    "Ġmembers": 6041,
    "Ġcloser": 6042,
    "Ġinstitutions": 6043,
    "gain": 6044,
    "Ġaid": 6045,
    "Ġdoub": 6046,
    "ĠchÄĥng": 6047,
    "ĠrÃ´": 6048,
    "Ġrough": 6049,
    "Ġgift": 6050,
    "Ġforg": 6051,
    "ĠCá»±c": 6052,
    "ĠSau": 6053,
    "Ġclick": 6054,
    "Ġdivers": 6055,
    "Ġbelow": 6056,
    "Ġbasis": 6057,
    "idden": 6058,
    "Ġdevices": 6059,
    "Ġemotion": 6060,
    "ĠÄĳeo": 6061,
    "Ġjoin": 6062,
    "ĠSmith": 6063,
    "gy": 6064,
    "Ġtens": 6065,
    "Ġnarr": 6066,
    "ĠlÆ°ng": 6067,
    "ened": 6068,
    "Ã¬a": 6069,
    "vey": 6070,
    "ĠphÃ¬": 6071,
    "empt": 6072,
    "ĠMr": 6073,
    "aining": 6074,
    "Ġbroad": 6075,
    "udd": 6076,
    "Ġcontroll": 6077,
    "Ġ99": 6078,
    "Ġconference": 6079,
    "Ġautism": 6080,
    "Ġforeign": 6081,
    "Ġcolleagues": 6082,
    "ĠObama": 6083,
    "rastruct": 6084,
    "Like": 6085,
    "men": 6086,
    "uh": 6087,
    "Ġlack": 6088,
    "Ġmáº»": 6089,
    "Ġden": 6090,
    "Ġdyn": 6091,
    "ĠII": 6092,
    "amin": 6093,
    "Ġforces": 6094,
    "ĠNob": 6095,
    "áº«m": 6096,
    "izes": 6097,
    "Ġtuyáº¿t": 6098,
    "ording": 6099,
    "Ġmoments": 6100,
    "Ġdollar": 6101,
    "Ġphotos": 6102,
    "Ġreduce": 6103,
    "ĠmÃ£n": 6104,
    "Ġopportunities": 6105,
    "Ġmolecule": 6106,
    "ĠParis": 6107,
    "Ġwheel": 6108,
    "Ġphilosoph": 6109,
    "Ġcorruption": 6110,
    "fr": 6111,
    "oáº¡i": 6112,
    "ta": 6113,
    "ĠtÄ©nh": 6114,
    "Ġváº¯c": 6115,
    "Ġpig": 6116,
    "Ġsharing": 6117,
    "Ġ22": 6118,
    "ĠGh": 6119,
    "ĠLib": 6120,
    "Ġtiáº¿c": 6121,
    "ĠRuss": 6122,
    "Ġnovel": 6123,
    "Ġairpl": 6124,
    "Ġswitch": 6125,
    "Ġmicro": 6126,
    "Ġcommunication": 6127,
    "Ġproduced": 6128,
    "ĠÄĳáº¿m": 6129,
    "ĠFrancisco": 6130,
    "Ġtissue": 6131,
    "ºc": 6132,
    "ĠmÃ¨o": 6133,
    "imp": 6134,
    "erek": 6135,
    "Ġnote": 6136,
    "ession": 6137,
    "ela": 6138,
    "ĠJer": 6139,
    "Ġfeels": 6140,
    "Ġhelping": 6141,
    "Ġplayed": 6142,
    "Ġbringing": 6143,
    "Ġhearing": 6144,
    "Ġavoid": 6145,
    "OK": 6146,
    "Ġninh": 6147,
    "Ġlung": 6148,
    "Ġver": 6149,
    "ĠkÃ¨m": 6150,
    "ĠtrÄĥng": 6151,
    "ester": 6152,
    "Ġfashion": 6153,
    "ino": 6154,
    "Ġfort": 6155,
    "irt": 6156,
    "Ġshoot": 6157,
    "Ġpengu": 6158,
    "ears": 6159,
    "ĠPer": 6160,
    "Ġbrand": 6161,
    "Ġagree": 6162,
    "Ġamb": 6163,
    "Ġappl": 6164,
    "othes": 6165,
    "Ġinfrastruct": 6166,
    "Ġpassed": 6167,
    "Ġprograms": 6168,
    "Ġmission": 6169,
    "Ġoriginal": 6170,
    "ĠRobert": 6171,
    "Ġbá»¥ng": 6172,
    "ufact": 6173,
    "ĠWikipedia": 6174,
    "Ġcrowd": 6175,
    "Oh": 6176,
    "Yeah": 6177,
    "vant": 6178,
    "ĠtÃ¡m": 6179,
    "ĠhÃ´": 6180,
    "Ġgun": 6181,
    "ĠdÃ²": 6182,
    "ĠdÃ¡n": 6183,
    "ĠTom": 6184,
    "Ġjoy": 6185,
    "áº«y": 6186,
    "Ġsuc": 6187,
    "ĠKing": 6188,
    "Ġpoet": 6189,
    "ricult": 6190,
    "Ġhyp": 6191,
    "ervation": 6192,
    "Ġnearly": 6193,
    "Ġvolunt": 6194,
    "Ġopposite": 6195,
    "Look": 6196,
    "ĠlÄĥn": 6197,
    "ĠdÃ£": 6198,
    "Ġfaces": 6199,
    "vere": 6200,
    "icon": 6201,
    "icking": 6202,
    "Ġrare": 6203,
    "Ġstem": 6204,
    "Ġseed": 6205,
    "Ġhá»ıng": 6206,
    "Ġorg": 6207,
    "Ġblock": 6208,
    "Ġstudying": 6209,
    "Ġ2009": 6210,
    "Ġaccur": 6211,
    "Ġvisit": 6212,
    "Ġaddition": 6213,
    "attan": 6214,
    "ĠgÃ³i": 6215,
    "Ġoxygen": 6216,
    "Ġsignificant": 6217,
    "Ar": 6218,
    "Tube": 6219,
    "ij": 6220,
    "lim": 6221,
    "oÃłi": 6222,
    "toc": 6223,
    "Ġtom": 6224,
    "Ġinch": 6225,
    "ĠquÃł": 6226,
    "ĠkhuyÃªn": 6227,
    "TháºŃm": 6228,
    "cell": 6229,
    "stit": 6230,
    "ĠNor": 6231,
    "ĠPark": 6232,
    "Who": 6233,
    "Ġinsight": 6234,
    "Ġstructures": 6235,
    "Ġemotions": 6236,
    "Ġrelationships": 6237,
    "Ġreligion": 6238,
    "Ġdegrees": 6239,
    "Ġconsciousness": 6240,
    "Ġshift": 6241,
    "Ġpuzz": 6242,
    "ĠNASA": 6243,
    "Ġhusband": 6244,
    "tocin": 6245,
    "PA": 6246,
    "Two": 6247,
    "ĠÃ©p": 6248,
    "Ġtiá»ĩc": 6249,
    "Ġvinh": 6250,
    "Ġtráº§n": 6251,
    "Ġfuel": 6252,
    "aria": 6253,
    "Ġcá»±": 6254,
    "ason": 6255,
    "Ġrecon": 6256,
    "ocking": 6257,
    "Ġmanufact": 6258,
    "Ġimportantly": 6259,
    "ĠHey": 6260,
    "Ġcorrect": 6261,
    "Ġgá»¡": 6262,
    "Ġtherap": 6263,
    "Many": 6264,
    "me": 6265,
    "oom": 6266,
    "tr": 6267,
    "ĠthÃ³i": 6268,
    "ĠlÃ´i": 6269,
    "Ġbought": 6270,
    "ĠhÆ°": 6271,
    "Ġhom": 6272,
    "osqu": 6273,
    "Ġtoile": 6274,
    "Ġgiáº¥u": 6275,
    "Ġlá»ģ": 6276,
    "ĠLat": 6277,
    "uá»¹": 6278,
    "Ġanyway": 6279,
    "Ġforever": 6280,
    "Ġnecessary": 6281,
    "ĠBritish": 6282,
    "ĠNobel": 6283,
    "Ġcru": 6284,
    "Ġlá»ĩnh": 6285,
    "ctually": 6286,
    "Ġhair": 6287,
    "iger": 6288,
    "ĠCE": 6289,
    "add": 6290,
    "ĠMa": 6291,
    "ĠMont": 6292,
    "ÄĲÃ£": 6293,
    "Ġmá»Ŀ": 6294,
    "Ġbroken": 6295,
    "ĠFrench": 6296,
    "aker": 6297,
    "Ġdá»©t": 6298,
    "ĠâĢĵ": 6299,
    "Ġfully": 6300,
    "Ġadvant": 6301,
    "Ġtotal": 6302,
    "Ġbenefits": 6303,
    "Ġlucky": 6304,
    "Ġtremend": 6305,
    "Ġatmosphere": 6306,
    "From": 6307,
    "ka": 6308,
    "mber": 6309,
    "wide": 6310,
    "zen": 6311,
    "ĠlÃ¢m": 6312,
    "Ġmouth": 6313,
    "Ġvote": 6314,
    "ĠgÃ£": 6315,
    "Ġtrá»ĳn": 6316,
    "Ġngon": 6317,
    "edic": 6318,
    "asse": 6319,
    "icles": 6320,
    "Ġphiá»ģn": 6321,
    "Ġheo": 6322,
    "ils": 6323,
    "artment": 6324,
    "Ġalthough": 6325,
    "udience": 6326,
    "Instead": 6327,
    "Ġdifferently": 6328,
    "Ġcá»¥m": 6329,
    "riage": 6330,
    "azon": 6331,
    "ĠÃļ": 6332,
    "Ġconsid": 6333,
    "Ġeasily": 6334,
    "Ġentirely": 6335,
    "Ġfailure": 6336,
    "Ġrequire": 6337,
    "ĠchÃ¬m": 6338,
    "ĠDarwin": 6339,
    "Ġwisdom": 6340,
    "Ġtung": 6341,
    "Ġcogn": 6342,
    "Ġláº·n": 6343,
    "Ġmuseum": 6344,
    "ĠbÃ£o": 6345,
    "Ġbatter": 6346,
    "Ġwide": 6347,
    "ĠdÆ°": 6348,
    "Ġtor": 6349,
    "ĠNhÃ": 6350,
    "Ġmeas": 6351,
    "anhattan": 6352,
    "ĠGab": 6353,
    "ĠLu": 6354,
    "Ġcla": 6355,
    "Ġbackground": 6356,
    "ĠStreet": 6357,
    "Ġimagination": 6358,
    "Ġlesson": 6359,
    "ĠlÃ£m": 6360,
    "Ġvalu": 6361,
    "Ġrestaur": 6362,
    "Ġparad": 6363,
    "Ġmagaz": 6364,
    "Ġargument": 6365,
    "ĠkÃªnh": 6366,
    "ĠAngeles": 6367,
    "Cuá»Ļc": 6368,
    "ked": 6369,
    "mon": 6370,
    "right": 6371,
    "vest": 6372,
    "zy": 6373,
    "Ġburn": 6374,
    "Ġvot": 6375,
    "ĠgÃµ": 6376,
    "osystem": 6377,
    "onom": 6378,
    "Ġngá»įt": 6379,
    "ĠÄĳá»±c": 6380,
    "Ġkhao": 6381,
    "amb": 6382,
    "Ġancient": 6383,
    "Ġheat": 6384,
    "ĠAlex": 6385,
    "ifically": 6386,
    "Ġbrilli": 6387,
    "Ġ36": 6388,
    "ĠJust": 6389,
    "ĠbuÃ´n": 6390,
    "Ġstudio": 6391,
    "Ġindustrial": 6392,
    "Ġcolors": 6393,
    "Ġevents": 6394,
    "Ġmajority": 6395,
    "á»Ľp": 6396,
    "Ġcorner": 6397,
    "Ġturning": 6398,
    "Ġenormous": 6399,
    "Ġsymbol": 6400,
    "mar": 6401,
    "Ġpet": 6402,
    "isible": 6403,
    "ĠgiÆ¡": 6404,
    "Think": 6405,
    "Ġham": 6406,
    "ĠManhattan": 6407,
    "ĠSu": 6408,
    "ifying": 6409,
    "ĠGreat": 6410,
    "ĠRos": 6411,
    "ĠChá»ī": 6412,
    "Ġcooper": 6413,
    "heimer": 6414,
    "ĠYouTube": 6415,
    "Ġmetaph": 6416,
    "Ġleading": 6417,
    "ĠNga": 6418,
    "Ġmatters": 6419,
    "ography": 6420,
    "Ġequal": 6421,
    "Ġcheap": 6422,
    "Ġdeeply": 6423,
    "Ġwindow": 6424,
    "Ġ1990": 6425,
    "Ġstatistics": 6426,
    "based": 6427,
    "nÃ³": 6428,
    "zheimer": 6429,
    "ĠÆ°": 6430,
    "Ġcáº¥t": 6431,
    "ĠthÄĥng": 6432,
    "Ġsick": 6433,
    "Ġlunch": 6434,
    "Ġmá»ĩnh": 6435,
    "Ġveg": 6436,
    "Ġdao": 6437,
    "Ġchick": 6438,
    "apers": 6439,
    "ota": 6440,
    "edy": 6441,
    "Ġtax": 6442,
    "ĠgiÃ¡n": 6443,
    "ĠTor": 6444,
    "Ġheld": 6445,
    "agers": 6446,
    "ĠJames": 6447,
    "Ġunlike": 6448,
    "Ġgrown": 6449,
    "itely": 6450,
    "Ġsym": 6451,
    "Ġcrime": 6452,
    "ysis": 6453,
    "Ġdemand": 6454,
    "Ġengage": 6455,
    "encies": 6456,
    "Ġnewsp": 6457,
    "Ġresponsible": 6458,
    "Ġdescribe": 6459,
    "NhÃ¬n": 6460,
    "Ġmountain": 6461,
    "Ġrapid": 6462,
    "Ġecosystem": 6463,
    "ĠÃļc": 6464,
    "Ġtour": 6465,
    "Ġcore": 6466,
    "ĠsÃłn": 6467,
    "Ġhá»ĳ": 6468,
    "reci": 6469,
    "irl": 6470,
    "ĠMal": 6471,
    "ĠSun": 6472,
    "ĠHere": 6473,
    "Ġkhoan": 6474,
    "ĠDerek": 6475,
    "ibr": 6476,
    "Ġthuáº¿": 6477,
    "Ġagricult": 6478,
    "raham": 6479,
    "ĠAlzheimer": 6480,
    "Ġoxytocin": 6481,
    "Ġlandscape": 6482,
    "Ġdiversity": 6483,
    "Yes": 6484,
    "hand": 6485,
    "ius": 6486,
    "over": 6487,
    "Ġmamm": 6488,
    "Ġbone": 6489,
    "Ġbud": 6490,
    "ĠhÃłm": 6491,
    "Ġva": 6492,
    "ĠtrÆ°a": 6493,
    "ania": 6494,
    "quang": 6495,
    "esome": 6496,
    "Ġthá»ķi": 6497,
    "arter": 6498,
    "ĠMark": 6499,
    "ulous": 6500,
    "ulations": 6501,
    "ĠLiá»ĩu": 6502,
    "ĠLeg": 6503,
    "Ġworkers": 6504,
    "ĠWhere": 6505,
    "Ġgovernments": 6506,
    "pected": 6507,
    "Ġgrandm": 6508,
    "Ġsuffering": 6509,
    "Ġreceived": 6510,
    "ĠcÃºm": 6511,
    "ĠSteve": 6512,
    "Ġfascinating": 6513,
    "Ġinfrastructure": 6514,
    "10": 6515,
    "equ": 6516,
    "ha": 6517,
    "hy": 6518,
    "¢m": 6519,
    "Ġnone": 6520,
    "Ġsá»¯a": 6521,
    "Ġbul": 6522,
    "ĠbáºŃn": 6523,
    "Ġbáº¿p": 6524,
    "Ġgolf": 6525,
    "ĠdÃ¡ng": 6526,
    "Ġrout": 6527,
    "Ġfab": 6528,
    "alt": 6529,
    "leg": 6530,
    "ĠquÃŃ": 6531,
    "ĠxÃŃ": 6532,
    "Ġ27": 6533,
    "Ġsport": 6534,
    "Ġexpand": 6535,
    "Ġcontact": 6536,
    "ĠUS": 6537,
    "Ġflight": 6538,
    "ĠStan": 6539,
    "Ġ2005": 6540,
    "phone": 6541,
    "Giá»ĳng": 6542,
    "Ġdreams": 6543,
    "Ġgentlem": 6544,
    "Your": 6545,
    "tle": 6546,
    "ĠtÆ°Æ¡i": 6547,
    "ĠlÃµi": 6548,
    "Ġmort": 6549,
    "Ġmosqu": 6550,
    "Ġble": 6551,
    "Ġbag": 6552,
    "ĠbÃ¹ng": 6553,
    "esign": 6554,
    "Ġbees": 6555,
    "Ġtá»§": 6556,
    "Ġxinh": 6557,
    "Ġreward": 6558,
    "Ġsector": 6559,
    "Ġusers": 6560,
    "oston": 6561,
    "ĠEvery": 6562,
    "ĠRáºŃp": 6563,
    "Ġgotten": 6564,
    "Ġoffer": 6565,
    "prod": 6566,
    "However": 6567,
    "Ġresearchers": 6568,
    "Ġphysic": 6569,
    "Ġinteraction": 6570,
    "Ġillness": 6571,
    "Ġfighting": 6572,
    "Ġextreme": 6573,
    "Ġbenefit": 6574,
    "Ġbreath": 6575,
    "mÃł": 6576,
    "mark": 6577,
    "water": 6578,
    "ĠtÃ¢n": 6579,
    "Ġnor": 6580,
    "Ġmid": 6581,
    "Ġbound": 6582,
    "atr": 6583,
    "ĠdÆ°á»£c": 6584,
    "ĠlÃłn": 6585,
    "itable": 6586,
    "icago": 6587,
    "Æ°á»£n": 6588,
    "Ġrepe": 6589,
    "Ġproud": 6590,
    "emen": 6591,
    "Ġshoes": 6592,
    "term": 6593,
    "Ġaltern": 6594,
    "Ġjustice": 6595,
    "ĠRw": 6596,
    "Ġembr": 6597,
    "Ġshouldn": 6598,
    "Ġregular": 6599,
    "Ġeffects": 6600,
    "Ġtrend": 6601,
    "Ġmarketing": 6602,
    "Ġillustr": 6603,
    "ĠAmazon": 6604,
    "Ġresponsibility": 6605,
    "Ġpressure": 6606,
    "Ġbá»¥i": 6607,
    "Ġstrategy": 6608,
    "Ġdestroy": 6609,
    "Are": 6610,
    "Láº§n": 6611,
    "Ġtough": 6612,
    "Ġcáº¥m": 6613,
    "Ġnáº£y": 6614,
    "Ġsung": 6615,
    "Ġhost": 6616,
    "Ġpair": 6617,
    "Ġngáº¯m": 6618,
    "ĠrÃ©t": 6619,
    "ĠquÃ¡t": 6620,
    "Ġkhá»ī": 6621,
    "thes": 6622,
    "Ġship": 6623,
    "ĠMartin": 6624,
    "ÄĲÃ´i": 6625,
    "ĠBoston": 6626,
    "ĠSam": 6627,
    "Ġspot": 6628,
    "Ġcompared": 6629,
    "Ġá»ŀ": 6630,
    "orders": 6631,
    "Ġchildhood": 6632,
    "Ġremote": 6633,
    "Ġcreatures": 6634,
    "Ġseemed": 6635,
    "ropy": 6636,
    "ĠEuropean": 6637,
    "Ġlegal": 6638,
    "Ġepid": 6639,
    "ĠJapanese": 6640,
    "Ġadults": 6641,
    "Ġbalance": 6642,
    "Ġdespite": 6643,
    "pan": 6644,
    "uge": 6645,
    "val": 6646,
    "Ġtáº¯m": 6647,
    "Ġtháº»": 6648,
    "Ġháº£i": 6649,
    "Ġpian": 6650,
    "á»Ļm": 6651,
    "otic": 6652,
    "Ġegg": 6653,
    "Ġwear": 6654,
    "ida": 6655,
    "ĠAre": 6656,
    "ula": 6657,
    "ĠÄĲiá»ĥn": 6658,
    "Ġclimb": 6659,
    "ĠChicago": 6660,
    "ucks": 6661,
    "ĠtuÃ½": 6662,
    "Ġattempt": 6663,
    "ancing": 6664,
    "ĠAsia": 6665,
    "Ġlogic": 6666,
    "ĠAdam": 6667,
    "Ġdefinition": 6668,
    "Ġtal": 6669,
    "ĠsÆ°u": 6670,
    "Ġliá»ģu": 6671,
    "ĠlÆ°á»Ŀng": 6672,
    "Ġhate": 6673,
    "áº¿ch": 6674,
    "Ġquant": 6675,
    "Ġhabit": 6676,
    "ĠTal": 6677,
    "Ġprior": 6678,
    "ĠHig": 6679,
    "ĠHaw": 6680,
    "ellect": 6681,
    "ĠRichard": 6682,
    "Ġmeters": 6683,
    "Ġvoices": 6684,
    "Ġcollective": 6685,
    "Ġperfectly": 6686,
    "Ġ1970": 6687,
    "Ġdinner": 6688,
    "ĠAustralia": 6689,
    "Ġlaptop": 6690,
    "má»Ļt": 6691,
    "mit": 6692,
    "ĠÆ°a": 6693,
    "Ġtum": 6694,
    "ĠcÆ°á»Ľi": 6695,
    "Ġmuá»Ĺi": 6696,
    "ato": 6697,
    "Ġchann": 6698,
    "Ġinternet": 6699,
    "Ġraised": 6700,
    "ads": 6701,
    "Ġshock": 6702,
    "Ġheav": 6703,
    "Ġexer": 6704,
    "Ġdefe": 6705,
    "Ã©o": 6706,
    "ĠEve": 6707,
    "Ġbridge": 6708,
    "Ġmanaged": 6709,
    "eph": 6710,
    "Ġthá»ĭnh": 6711,
    "ographic": 6712,
    "roph": 6713,
    "Ġmarried": 6714,
    "Ġelement": 6715,
    "Ġfarmers": 6716,
    "Ġfaith": 6717,
    "Ġvolunte": 6718,
    "Ġveget": 6719,
    "Cáº£": 6720,
    "rict": 6721,
    "Ġtast": 6722,
    "ĠthÃ¡p": 6723,
    "ĠsÆ¡n": 6724,
    "ĠlÆ°á»Ľt": 6725,
    "Ġdouble": 6726,
    "ĠrÃ£i": 6727,
    "Ġgiant": 6728,
    "enty": 6729,
    "Ġstuck": 6730,
    "ĠBan": 6731,
    "ĠHá»Ļi": 6732,
    "Ġalt": 6733,
    "ĠGates": 6734,
    "Ġthinks": 6735,
    "Ġplat": 6736,
    "Ġbrother": 6737,
    "rupt": 6738,
    "ĠchÃºa": 6739,
    "Cháº¯c": 6740,
    "Ġ600": 6741,
    "Ġrelated": 6742,
    "Ġbiological": 6743,
    "Ġpaint": 6744,
    "Ġequip": 6745,
    "Ġ250": 6746,
    "ropri": 6747,
    "Ġtypical": 6748,
    "Ġcircu": 6749,
    "Ġdrawing": 6750,
    "ĠkhÃ´n": 6751,
    "Ġconvin": 6752,
    "ĠSchool": 6753,
    "Ġreplace": 6754,
    "Ġdomin": 6755,
    "Ġtremendous": 6756,
    "rain": 6757,
    "ĠthÃ¹ng": 6758,
    "Ġnháº«n": 6759,
    "ĠtrÆ°á»£t": 6760,
    "Ġyellow": 6761,
    "VÃłi": 6762,
    "Ġconcent": 6763,
    "ĠTur": 6764,
    "Ġgold": 6765,
    "Ġaspect": 6766,
    "ĠMon": 6767,
    "ĠMá»įi": 6768,
    "Ġ26": 6769,
    "Ġintellect": 6770,
    "ĠÄĲá»«ng": 6771,
    "ĠJack": 6772,
    "Ġcalls": 6773,
    "ĠTrans": 6774,
    "Ġprevious": 6775,
    "Ġscr": 6776,
    "Ġpossibility": 6777,
    "Ġdistance": 6778,
    "Ġeasier": 6779,
    "Ġfailed": 6780,
    "Ġcycle": 6781,
    "Ġnegative": 6782,
    "ĠPalest": 6783,
    "Ġinsects": 6784,
    "Ġcommercial": 6785,
    "Ġcognitive": 6786,
    "Second": 6787,
    "oft": 6788,
    "ye": 6789,
    "ĠthÃ¡m": 6790,
    "Ġná»Ł": 6791,
    "Ġnháº¯m": 6792,
    "Ġtrá»¥c": 6793,
    "ĠngáºŃp": 6794,
    "Ġngá»ĳc": 6795,
    "Ġround": 6796,
    "oran": 6797,
    "aser": 6798,
    "uries": 6799,
    "á»¥t": 6800,
    "emy": 6801,
    "Ġthua": 6802,
    "Ġdiet": 6803,
    "Ġgenome": 6804,
    "Ġinvisible": 6805,
    "connect": 6806,
    "Ġartific": 6807,
    "ification": 6808,
    "ĠWho": 6809,
    "Ġcorpor": 6810,
    "Ġdiscovery": 6811,
    "Ġfigured": 6812,
    "Ġfrequ": 6813,
    "Ġlimited": 6814,
    "Ġversus": 6815,
    "ĠkÃŃn": 6816,
    "Ġexperts": 6817,
    "ĠSwed": 6818,
    "Ġquote": 6819,
    "Ġefficient": 6820,
    "ĠApple": 6821,
    "Ġadvantage": 6822,
    "báº¡n": 6823,
    "cles": 6824,
    "ĠtÆ°á»Ľng": 6825,
    "Ġcort": 6826,
    "ĠthÃŃnh": 6827,
    "Ġná»ĳt": 6828,
    "Ġbillions": 6829,
    "Ġhidden": 6830,
    "Ġthá»īnh": 6831,
    "inc": 6832,
    "ĠchÃ¢m": 6833,
    "Ġweird": 6834,
    "Ġpha": 6835,
    "Ġgiam": 6836,
    "ĠnÃłng": 6837,
    "Ġsaf": 6838,
    "Ġund": 6839,
    "Ġnotion": 6840,
    "Ġintu": 6841,
    "ĠKinh": 6842,
    "oca": 6843,
    "ĠEx": 6844,
    "Ġgrab": 6845,
    "Ġdesire": 6846,
    "Ġletter": 6847,
    "Ġbá»ĳt": 6848,
    "Ġhelps": 6849,
    "Ġinstall": 6850,
    "Ġenter": 6851,
    "Ġleads": 6852,
    "Ġlanguages": 6853,
    "Pháº£i": 6854,
    "Ġwatched": 6855,
    "Ġinvestment": 6856,
    "Ġmotor": 6857,
    "Ġbomb": 6858,
    "Ġantib": 6859,
    "Ġessential": 6860,
    "Ġfairly": 6861,
    "Ġequipment": 6862,
    "Go": 6863,
    "LÃ½": 6864,
    "cript": 6865,
    "Ġtun": 6866,
    "Ġcred": 6867,
    "ĠiP": 6868,
    "Ġdue": 6869,
    "ĠdÃ¡m": 6870,
    "aped": 6871,
    "Ġfol": 6872,
    "Ġfresh": 6873,
    "ĠquÃ£ng": 6874,
    "ĠxÃ³m": 6875,
    "Ġstim": 6876,
    "ĠCo": 6877,
    "Ġshut": 6878,
    "Ġshel": 6879,
    "Ġhell": 6880,
    "ĠAh": 6881,
    "antic": 6882,
    "ÄĲáº¿n": 6883,
    "Ġeveryday": 6884,
    "Ġunex": 6885,
    "Ġpartners": 6886,
    "ĠCho": 6887,
    "bert": 6888,
    "Ġnames": 6889,
    "ĠEngland": 6890,
    "Ġterror": 6891,
    "Ġfeedback": 6892,
    "imensional": 6893,
    "Ġnecessarily": 6894,
    "ĠRwanda": 6895,
    "Ġconcentr": 6896,
    "eb": 6897,
    "Ġcateg": 6898,
    "Ġwire": 6899,
    "Ġdáº¯t": 6900,
    "Ġrat": 6901,
    "Ġriver": 6902,
    "Ġincent": 6903,
    "arb": 6904,
    "Ġcá»«": 6905,
    "icity": 6906,
    "Ġkhá»Ľp": 6907,
    "Ġstri": 6908,
    "ulpt": 6909,
    "atell": 6910,
    "Ġempt": 6911,
    "apping": 6912,
    "Ġsculpt": 6913,
    "Ġfacts": 6914,
    "Ġstudied": 6915,
    "Ġcreation": 6916,
    "Ġextract": 6917,
    "Ġopin": 6918,
    "Ġholding": 6919,
    "Ġinfluence": 6920,
    "Ġdaily": 6921,
    "gypt": 6922,
    "Ġsucceed": 6923,
    "Em": 6924,
    "Over": 6925,
    "cop": 6926,
    "cular": 6927,
    "Ġtick": 6928,
    "ĠcáºŃy": 6929,
    "Ġthiá»ĩt": 6930,
    "Ġnáº¯ng": 6931,
    "Ġmothers": 6932,
    "Ġhomes": 6933,
    "apse": 6934,
    "Ġvá»Ł": 6935,
    "ĠSao": 6936,
    "ĠphÃ¡i": 6937,
    "ĠPro": 6938,
    "ĠLin": 6939,
    "aren": 6940,
    "Ġmoves": 6941,
    "Ġdesigner": 6942,
    "Ġplanning": 6943,
    "Ġplanets": 6944,
    "Ġedge": 6945,
    "Ġhydr": 6946,
    "Ġleader": 6947,
    "Ġbusinesses": 6948,
    "Ġneuros": 6949,
    "Ġinvestig": 6950,
    "ĠCarol": 6951,
    "Ġcuá»Ļn": 6952,
    "Ġleaving": 6953,
    "Ġcircum": 6954,
    "known": 6955,
    "Ġhouses": 6956,
    "His": 6957,
    "dimensional": 6958,
    "eared": 6959,
    "ĠthÃ¡o": 6960,
    "ĠlÃ´ng": 6961,
    "Ġmill": 6962,
    "ĠbÆ¡": 6963,
    "Ġbong": 6964,
    "Ġtoáº£": 6965,
    "que": 6966,
    "inally": 6967,
    "Ġpháº¡t": 6968,
    "Ġrau": 6969,
    "Æ°á»Ľp": 6970,
    "ĠBab": 6971,
    "essed": 6972,
    "obal": 6973,
    "ĠEgypt": 6974,
    "ĠRes": 6975,
    "ĠJo": 6976,
    "Ġcommit": 6977,
    "Ġaccident": 6978,
    "Ġopened": 6979,
    "Ġkeeping": 6980,
    "Ġdepression": 6981,
    "Ġproper": 6982,
    "Ġsurprise": 6983,
    "Ġargue": 6984,
    "Ġ1960": 6985,
    "Ġstruggle": 6986,
    "hold": 6987,
    "uing": 6988,
    "Ķi": 6989,
    "Ġsister": 6990,
    "Ġsatell": 6991,
    "Ġmáº¡n": 6992,
    "Ġmouse": 6993,
    "Ġháº§m": 6994,
    "Ġgáº¥u": 6995,
    "ĠtrÃł": 6996,
    "org": 6997,
    "ali": 6998,
    "Ġthá»ĳ": 6999,
    "Ġwearing": 7000,
    "owing": 7001,
    "entally": 7002,
    "ĠMad": 7003,
    "ĠnhÃ£n": 7004,
    "ÄĲá»«ng": 7005,
    "Ġmeat": 7006,
    "Ġfrag": 7007,
    "ĠPe": 7008,
    "Ġcompare": 7009,
    "Ġprecise": 7010,
    "Ġappreci": 7011,
    "Ġinvited": 7012,
    "Ġentertain": 7013,
    "print": 7014,
    "Ġawesome": 7015,
    "Ġfollowed": 7016,
    "Ġradical": 7017,
    "Ġdamage": 7018,
    "Ġelectrical": 7019,
    "KhÃ¡n": 7020,
    "Ġincreasingly": 7021,
    "Ġplatform": 7022,
    "Actually": 7023,
    "DÄ©": 7024,
    "TED": 7025,
    "Ġtit": 7026,
    "ĠcÆ°á»¡ng": 7027,
    "Ġná»į": 7028,
    "ĠÄĳuÃ´i": 7029,
    "Ġlosing": 7030,
    "Ġiron": 7031,
    "ĠdÃ£y": 7032,
    "ĠkhÆ¡i": 7033,
    "Ġliked": 7034,
    "ĠTá»ķ": 7035,
    "thal": 7036,
    "ĠMor": 7037,
    "ĠBÃ¢y": 7038,
    "ĠLook": 7039,
    "Ġtuyá»ĥn": 7040,
    "ĠOx": 7041,
    "Ġsurge": 7042,
    "ended": 7043,
    "Ġhighest": 7044,
    "Ġcapable": 7045,
    "Ġbegins": 7046,
    "ĠBrown": 7047,
    "Ġuniversity": 7048,
    "Ġmetaphor": 7049,
    "Again": 7050,
    "Máº·c": 7051,
    "vi": 7052,
    "Ġmaster": 7053,
    "Ġodd": 7054,
    "Ġking": 7055,
    "Ġpock": 7056,
    "ĠchÆ°á»Ľc": 7057,
    "aling": 7058,
    "inist": 7059,
    "ĠTa": 7060,
    "ĠMRI": 7061,
    "ille": 7062,
    "ĠNot": 7063,
    "eline": 7064,
    "ĠGand": 7065,
    "ĠKho": 7066,
    "ĠJon": 7067,
    "Ġclip": 7068,
    "ĠWall": 7069,
    "Ġmoon": 7070,
    "Ġresource": 7071,
    "Ġhero": 7072,
    "Ġ95": 7073,
    "Ġprototy": 7074,
    "Ġmarkets": 7075,
    "Ġconstantly": 7076,
    "Ġsurprised": 7077,
    "Ġsurvival": 7078,
    "Ġharm": 7079,
    "Ġuniversal": 7080,
    "Ġexperienced": 7081,
    "Ġgrav": 7082,
    "Ġkilomet": 7083,
    "Ġseparate": 7084,
    "Ġcomfortable": 7085,
    "Ġmagazine": 7086,
    "Ġpiano": 7087,
    "ĠHiggs": 7088,
    "Gáº§n": 7089,
    "Once": 7090,
    "oved": 7091,
    "vention": 7092,
    "©o": 7093,
    "Ġcac": 7094,
    "ĠthÃ´": 7095,
    "ĠÄĳÃ¢m": 7096,
    "Ġsorry": 7097,
    "Ġnhá»Ł": 7098,
    "Ġrural": 7099,
    "ĠMáº¹": 7100,
    "illed": 7101,
    "ĠDel": 7102,
    "ibilities": 7103,
    "Ġthuáº«n": 7104,
    "Ġworldwide": 7105,
    "ĠThiÃªn": 7106,
    "ĠTrá»Ŀi": 7107,
    "forest": 7108,
    "Ġ2004": 7109,
    "Ġfinished": 7110,
    "inson": 7111,
    "Ġconduct": 7112,
    "Ġbá»Ľt": 7113,
    "Ġorigami": 7114,
    "Ġcharacters": 7115,
    "Ġcompetition": 7116,
    "Sometimes": 7117,
    "bur": 7118,
    "ih": 7119,
    "vis": 7120,
    "Ġton": 7121,
    "ĠlÃ¡t": 7122,
    "Ġband": 7123,
    "Ġbattle": 7124,
    "Ġgather": 7125,
    "Ġrung": 7126,
    "ushing": 7127,
    "idents": 7128,
    "cend": 7129,
    "ĠTe": 7130,
    "ĠMand": 7131,
    "uls": 7132,
    "ĠSil": 7133,
    "Ġsugar": 7134,
    "Ġmuá»Ļn": 7135,
    "Ġhá»ĩt": 7136,
    "ĠWilli": 7137,
    "ĠOn": 7138,
    "Ġbelieved": 7139,
    "issions": 7140,
    "Ġkilling": 7141,
    "HoÃ¡": 7142,
    "Ġsuggests": 7143,
    "Ġprofessional": 7144,
    "Ġdescribed": 7145,
    "Ġhorr": 7146,
    "ĠchÃ¬a": 7147,
    "Ġultimately": 7148,
    "Ġassociated": 7149,
    "Ġphenomenon": 7150,
    "Ġdimensions": 7151,
    "Ġweapons": 7152,
    "Ġairplane": 7153,
    "ĠLatin": 7154,
    "Káº¿t": 7155,
    "Tiáº¿p": 7156,
    "gin": 7157,
    "ĠthÆ°a": 7158,
    "ĠlÃ²": 7159,
    "ĠlÃ¹i": 7160,
    "Ġmá»ĩt": 7161,
    "Ġbá»į": 7162,
    "Ġpurs": 7163,
    "Ġpounds": 7164,
    "Ġgap": 7165,
    "Ġgard": 7166,
    "Ġdry": 7167,
    "Ġchá»Ł": 7168,
    "Ġcá»Ł": 7169,
    "lymp": 7170,
    "Ġranh": 7171,
    "celer": 7172,
    "Ġshapes": 7173,
    "ĠAc": 7174,
    "ĠÄĳiÃªu": 7175,
    "ĠLad": 7176,
    "ĠDÆ°Æ¡ng": 7177,
    "Ġbright": 7178,
    "Ġexpression": 7179,
    "Ġnoise": 7180,
    "Ġadvert": 7181,
    "ublic": 7182,
    "Ġletters": 7183,
    "Ġ2006": 7184,
    "Ġstrang": 7185,
    "Ġchá»¥c": 7186,
    "Ġcharge": 7187,
    "onym": 7188,
    "Ġelements": 7189,
    "Ġdegree": 7190,
    "Ġsusp": 7191,
    "Ġconcerned": 7192,
    "Ġcounter": 7193,
    "ĠGabby": 7194,
    "Ġbrilliant": 7195,
    "Báº¥t": 7196,
    "dam": 7197,
    "rum": 7198,
    "á»Ĵ": 7199,
    "Ġláº¡m": 7200,
    "ĠhÃ²n": 7201,
    "Ġhorm": 7202,
    "rete": 7203,
    "Ġ1000": 7204,
    "ĠCr": 7205,
    "ĠTas": 7206,
    "Ġhoáº£": 7207,
    "Ġmá»¹": 7208,
    "Ġagre": 7209,
    "Ġperce": 7210,
    "Ġperception": 7211,
    "aked": 7212,
    "Ġflo": 7213,
    "Ġbelong": 7214,
    "Ġcourage": 7215,
    "Ġ2003": 7216,
    "Ġharder": 7217,
    "Ġnormally": 7218,
    "Ġidentify": 7219,
    "Ġastron": 7220,
    "Ġvirtual": 7221,
    "Ġorgans": 7222,
    "200": 7223,
    "CÃ¹ng": 7224,
    "Un": 7225,
    "ĠthÃ´n": 7226,
    "ĠbÃºt": 7227,
    "Ġholes": 7228,
    "eral": 7229,
    "Ġngá»±c": 7230,
    "ĠÄĳá»¥": 7231,
    "Ġpháº³ng": 7232,
    "Ġque": 7233,
    "ĠMic": 7234,
    "acing": 7235,
    "ĠÄĳá»ĵi": 7236,
    "ĠOlymp": 7237,
    "Ġná»£": 7238,
    "Ġputs": 7239,
    "Ġfactory": 7240,
    "Ġroot": 7241,
    "Ġvua": 7242,
    "Ġfinish": 7243,
    "Ġeconomics": 7244,
    "Ġheads": 7245,
    "ĠHoáº£": 7246,
    "ipped": 7247,
    "ĠGiÃ¡o": 7248,
    "Ġmultiple": 7249,
    "Khoáº£ng": 7250,
    "Ġartificial": 7251,
    "500": 7252,
    "MT": 7253,
    "Talk": 7254,
    "vÃ¬": 7255,
    "Ġá»ĵn": 7256,
    "ĠmÃºa": 7257,
    "Æ°Æ¡n": 7258,
    "Ġpow": 7259,
    "ĠgÃ¡nh": 7260,
    "Ġtráº¥n": 7261,
    "osm": 7262,
    "enry": 7263,
    "alu": 7264,
    "isf": 7265,
    "ita": 7266,
    "ĠÄĳá»Ľi": 7267,
    "ĠkhÃºc": 7268,
    "olves": 7269,
    "iration": 7270,
    "ĠCáºŃp": 7271,
    "Ġsá»©": 7272,
    "ĠGal": 7273,
    "Ġimplic": 7274,
    "athan": 7275,
    "ĠNha": 7276,
    "Ġindic": 7277,
    "Ġtransp": 7278,
    "Ġtransformation": 7279,
    "Ġgenerations": 7280,
    "bridge": 7281,
    "Ġtrained": 7282,
    "Ġconstruction": 7283,
    "Ġoperating": 7284,
    "Ġslowly": 7285,
    "Ġleaves": 7286,
    "Ġsoldiers": 7287,
    "ĠCongo": 7288,
    "Ġexhib": 7289,
    "Ġmáº¥u": 7290,
    "Ġmigr": 7291,
    "Ġká»ĭp": 7292,
    "atures": 7293,
    "Ġdots": 7294,
    "Ġdiction": 7295,
    "Ġchip": 7296,
    "Ġsá»ĳc": 7297,
    "ulated": 7298,
    "Ġuser": 7299,
    "ĠKoran": 7300,
    "ĠRio": 7301,
    "Ġhasn": 7302,
    "Ġmanage": 7303,
    "ĠThá»±c": 7304,
    "Ġgrade": 7305,
    "Ġarms": 7306,
    "ĠViá»ĩn": 7307,
    "Ġcoast": 7308,
    "Ġacad": 7309,
    "Ġadop": 7310,
    "Ġ1950": 7311,
    "Ġcrack": 7312,
    "Ġ65": 7313,
    "Ġaccording": 7314,
    "ĠChÃŃnh": 7315,
    "Ġstream": 7316,
    "Ġcurious": 7317,
    "Ġmarriage": 7318,
    "Ġengineers": 7319,
    "Ġfacing": 7320,
    "ipping": 7321,
    "Ġcopy": 7322,
    "Ġdetails": 7323,
    "Ġcartoon": 7324,
    "Ġsweet": 7325,
    "Ġordinary": 7326,
    "Ġtoilet": 7327,
    "ĠCEO": 7328,
    "Ġvaluable": 7329,
    "Ġunexpected": 7330,
    "Audience": 7331,
    "Ġváº£i": 7332,
    "Ġtheater": 7333,
    "Ġdate": 7334,
    "Ġtow": 7335,
    "Ġrom": 7336,
    "Ġinform": 7337,
    "itness": 7338,
    "Ġwhom": 7339,
    "Ġtail": 7340,
    "Ġstation": 7341,
    "cel": 7342,
    "ĠCA": 7343,
    "ĠTes": 7344,
    "ĠBur": 7345,
    "Ġmá»ıi": 7346,
    "ume": 7347,
    "Ġ28": 7348,
    "izza": 7349,
    "ĠRep": 7350,
    "Ġaging": 7351,
    "ĠJan": 7352,
    "ĠThese": 7353,
    "Ġdesert": 7354,
    "Ġ195": 7355,
    "Chuyá»ĩn": 7356,
    "tech": 7357,
    "Ġrá»ħ": 7358,
    "Ġvideos": 7359,
    "Ġorganic": 7360,
    "iques": 7361,
    "Ġanalysis": 7362,
    "Ġcaused": 7363,
    "Ġcurrently": 7364,
    "Ġpassionate": 7365,
    "Ġdistribution": 7366,
    "Ġtomorrow": 7367,
    "Ġconsidered": 7368,
    "Ġsafety": 7369,
    "Ġcá»Łi": 7370,
    "min": 7371,
    "uk": 7372,
    "zing": 7373,
    "Ġcow": 7374,
    "á»Ļp": 7375,
    "itals": 7376,
    "Ġquad": 7377,
    "Ġnghiá»ĩn": 7378,
    "Ġstup": 7379,
    "ĠThÃ": 7380,
    "ĠTony": 7381,
    "ĠNa": 7382,
    "Ġexch": 7383,
    "ĠHÃł": 7384,
    "ĠPhÃ": 7385,
    "Ġgrid": 7386,
    "elly": 7387,
    "Ġscene": 7388,
    "Ġinterp": 7389,
    "Ġduyá»ĩt": 7390,
    "Ġ120": 7391,
    "Ġwondering": 7392,
    "Ġtesting": 7393,
    "Ġpaying": 7394,
    "Ġchemistry": 7395,
    "ĠkhÃ´i": 7396,
    "Ġ1980": 7397,
    "Ġreligious": 7398,
    "Ġlifet": 7399,
    "Ġemployees": 7400,
    "Ġofficial": 7401,
    "Ġproperty": 7402,
    "Ġsympt": 7403,
    "ĠTasman": 7404,
    "AR": 7405,
    "David": 7406,
    "Each": 7407,
    "Máº¹": 7408,
    "Take": 7409,
    "cÃ³": 7410,
    "de": 7411,
    "lie": 7412,
    "prof": 7413,
    "Ġcá»ĳi": 7414,
    "ĠthÃ¢m": 7415,
    "Ġlat": 7416,
    "Ġmanh": 7417,
    "ĠbÃª": 7418,
    "ĠhÆ°u": 7419,
    "ĠhÃ£ng": 7420,
    "osis": 7421,
    "ĠrÃ¡p": 7422,
    "ari": 7423,
    "Ġweather": 7424,
    "Ġreform": 7425,
    "ctions": 7426,
    "Ġnghá»ĭch": 7427,
    "ĠMáº·t": 7428,
    "ĠSing": 7429,
    "rove": 7430,
    "Ġngoan": 7431,
    "Ġsmile": 7432,
    "Ġrecy": 7433,
    "Ġmusical": 7434,
    "Ġequival": 7435,
    "Ġcollection": 7436,
    "Ġlawy": 7437,
    "Ġsteps": 7438,
    "Ġseriously": 7439,
    "Ġunfortunately": 7440,
    "Ġconsequences": 7441,
    "ean": 7442,
    "mas": 7443,
    "nam": 7444,
    "rs": 7445,
    "Ġtha": 7446,
    "Ġsight": 7447,
    "Ġhip": 7448,
    "Ġhurt": 7449,
    "Ġgan": 7450,
    "Ġnháº·t": 7451,
    "Ġchart": 7452,
    "asion": 7453,
    "Ġkháº³ng": 7454,
    "Ġkhiáº¿m": 7455,
    "opher": 7456,
    "Ġasks": 7457,
    "ĠBush": 7458,
    "ĠNÃły": 7459,
    "ĠDi": 7460,
    "iban": 7461,
    "ĠRom": 7462,
    "Ġ32": 7463,
    "Ġotherwise": 7464,
    "Ġclosed": 7465,
    "ĠWith": 7466,
    "Ġacceler": 7467,
    "ĠTrÆ°á»Ŀng": 7468,
    "neath": 7469,
    "ĠYemen": 7470,
    "Ġfeelings": 7471,
    "Ġhá»ĵng": 7472,
    "Ġarticle": 7473,
    "Ġinterface": 7474,
    "Ġattach": 7475,
    "ĠArt": 7476,
    "Ġelection": 7477,
    "Ġcultures": 7478,
    "Ġrefuge": 7479,
    "Ġawful": 7480,
    "Ġcutting": 7481,
    "Ġ2011": 7482,
    "Ġpleasure": 7483,
    "Ġsentence": 7484,
    "Ġhorse": 7485,
    "Ġcivilization": 7486,
    "Ġwalls": 7487,
    "Ġmosquit": 7488,
    "Ġempty": 7489,
    "Ġstupid": 7490,
    "HÆ¡n": 7491,
    "Mar": 7492,
    "care": 7493,
    "down": 7494,
    "sp": 7495,
    "ued": 7496,
    "Ġera": 7497,
    "Ġcaught": 7498,
    "ĠlÆ°á»¡ng": 7499,
    "ĠmÃ¢u": 7500,
    "ĠvÃ¢y": 7501,
    "Ġpages": 7502,
    "Ġgod": 7503,
    "Ġnhiáº¿p": 7504,
    "omb": 7505,
    "Ġphones": 7506,
    "irm": 7507,
    "ĠCuá»Ļc": 7508,
    "ĠMah": 7509,
    "Ġfrustr": 7510,
    "Ġjazz": 7511,
    "cipl": 7512,
    "Ġhadn": 7513,
    "ĠÄĳá»ĭch": 7514,
    "Ġpartner": 7515,
    "Ġdisp": 7516,
    "ĠUg": 7517,
    "Ġappropri": 7518,
    "Ġplane": 7519,
    "alley": 7520,
    "Ġsetting": 7521,
    "Ġspecifically": 7522,
    "Ġtreated": 7523,
    "Ġlimit": 7524,
    "Ġphotographs": 7525,
    "Ġcuá»ĵng": 7526,
    "Ġfilled": 7527,
    "Ġmalaria": 7528,
    "Ġbubble": 7529,
    "Ġpenguins": 7530,
    "Bá»©c": 7531,
    "CÆ¡": 7532,
    "More": 7533,
    "Pr": 7534,
    "Would": 7535,
    "craft": 7536,
    "lands": 7537,
    "life": 7538,
    "ns": 7539,
    "Ġcosm": 7540,
    "ĠÄĳá»ĳ": 7541,
    "Ġsáº¯t": 7542,
    "Ġlaser": 7543,
    "Ġháº¹p": 7544,
    "Ġves": 7545,
    "Ġvibr": 7546,
    "ented": 7547,
    "urally": 7548,
    "Ġdol": 7549,
    "Ġliqu": 7550,
    "ĠTuy": 7551,
    "Ġsoil": 7552,
    "Ġshad": 7553,
    "Ġpeak": 7554,
    "Ġwhenever": 7555,
    "aret": 7556,
    "ĠFord": 7557,
    "ĠThá»ķ": 7558,
    "Ġunless": 7559,
    "ĠVá»Ľi": 7560,
    "Ġhumor": 7561,
    "ĠkhÃ³i": 7562,
    "ĠphÃŃm": 7563,
    "Ġsignal": 7564,
    "Ġconstruct": 7565,
    "rosoft": 7566,
    "ĠCambridge": 7567,
    "Ġclinical": 7568,
    "Ġsharks": 7569,
    "Ġvehicle": 7570,
    "Ġconvinced": 7571,
    "ĠOxford": 7572,
    "Ġcacbon": 7573,
    "hol": 7574,
    "tain": 7575,
    "Ġtall": 7576,
    "ĠláºŃt": 7577,
    "ĠvÆ°Æ¡n": 7578,
    "Ġpal": 7579,
    "Ġpil": 7580,
    "Ġchain": 7581,
    "oster": 7582,
    "Ġráº¯n": 7583,
    "Ġfal": 7584,
    "Ġinner": 7585,
    "arah": 7586,
    "ĠIce": 7587,
    "Ġconcl": 7588,
    "Ġlock": 7589,
    "ĠAnt": 7590,
    "illing": 7591,
    "ĠSyr": 7592,
    "Ġju": 7593,
    "ĠHer": 7594,
    "ests": 7595,
    "ension": 7596,
    "Ġide": 7597,
    "Ġpregn": 7598,
    "Ġfewer": 7599,
    "Ġopening": 7600,
    "Ġsubst": 7601,
    "Ġpresident": 7602,
    "Ġexpected": 7603,
    "making": 7604,
    "Ġsending": 7605,
    "yrus": 7606,
    "Ġanalog": 7607,
    "Ġprofessor": 7608,
    "Ġaffected": 7609,
    "Ġempathy": 7610,
    "Ġreaction": 7611,
    "Ġnegot": 7612,
    "Ġentrepreneurs": 7613,
    "Ġmicrob": 7614,
    "Ġingred": 7615,
    "ĠStanford": 7616,
    "bel": 7617,
    "father": 7618,
    "set": 7619,
    "Ġten": 7620,
    "Ġteles": 7621,
    "Ġcup": 7622,
    "Ġnerv": 7623,
    "ĠÄĳÃ¡o": 7624,
    "ĠÄĳÃłm": 7625,
    "Ġmáº£ng": 7626,
    "Ġpure": 7627,
    "Ġfle": 7628,
    "icy": 7629,
    "Ġkhuyáº¿t": 7630,
    "Thá»Ŀi": 7631,
    "Ġrein": 7632,
    "Ġreci": 7633,
    "Ġdogs": 7634,
    "illy": 7635,
    "Ġmyth": 7636,
    "istot": 7637,
    "Ġspoke": 7638,
    "ĠDet": 7639,
    "iber": 7640,
    "ĠFre": 7641,
    "ensity": 7642,
    "Ġunderneath": 7643,
    "Ġimportance": 7644,
    "Ġfourth": 7645,
    "Ġsolid": 7646,
    "Ġwarm": 7647,
    "Ġpoliticians": 7648,
    "Ġdeeper": 7649,
    "Ġengineer": 7650,
    "ÄĳÃ³": 7651,
    "Ġreview": 7652,
    "Ġdemocratic": 7653,
    "Ġpractical": 7654,
    "Ġreleased": 7655,
    "Ġpollen": 7656,
    "Ġarrived": 7657,
    "Ġdisplay": 7658,
    "Ġalgorithms": 7659,
    "Ġbattery": 7660,
    "Ġequivalent": 7661,
    "Yet": 7662,
    "cast": 7663,
    "iors": 7664,
    "oons": 7665,
    "uary": 7666,
    "ĠÄĳáº»": 7667,
    "Ġsources": 7668,
    "Ġgam": 7669,
    "Ġgá»ĳi": 7670,
    "Ġride": 7671,
    "Ġfed": 7672,
    "oration": 7673,
    "Ġeld": 7674,
    "Ġtang": 7675,
    "Thá»Ń": 7676,
    "urance": 7677,
    "Ġstood": 7678,
    "ĠphÃ´": 7679,
    "Ġsaved": 7680,
    "Ã¹m": 7681,
    "ĠBÃł": 7682,
    "agh": 7683,
    "Ġextend": 7684,
    "acle": 7685,
    "Ġmyst": 7686,
    "ĠHans": 7687,
    "ĠHá»įc": 7688,
    "uman": 7689,
    "ateful": 7690,
    "Ġspl": 7691,
    "ĠkhoÃ¡i": 7692,
    "ĠLED": 7693,
    "ĠEric": 7694,
    "ĠÄĳoan": 7695,
    "Ġcontain": 7696,
    "Ġprefer": 7697,
    "Ġscen": 7698,
    "Ġdriver": 7699,
    "Ġtechniques": 7700,
    "Ġcolon": 7701,
    "Ġthoughts": 7702,
    "Ġrá»Ńa": 7703,
    "Ġorganized": 7704,
    "Ġhopefully": 7705,
    "Ġdefine": 7706,
    "Ġlocation": 7707,
    "Ġmicros": 7708,
    "Ġmolecular": 7709,
    "Ġhonor": 7710,
    "ĠAtlant": 7711,
    "Ġlaunched": 7712,
    "Ġgrandmother": 7713,
    "Ġcá»«u": 7714,
    "Ġvessel": 7715,
    "Have": 7716,
    "Ind": 7717,
    "eng": 7718,
    "hai": 7719,
    "point": 7720,
    "Ġcáº¡n": 7721,
    "Ġcere": 7722,
    "Ġpizza": 7723,
    "erge": 7724,
    "Ġweak": 7725,
    "Ġquiet": 7726,
    "Ġlift": 7727,
    "áº±n": 7728,
    "Ġabst": 7729,
    "ĠMac": 7730,
    "ĠBÃ¬nh": 7731,
    "ĠBank": 7732,
    "ĠSl": 7733,
    "ĠDis": 7734,
    "Ġbrief": 7735,
    "ĠThÆ°á»£ng": 7736,
    "Ġblocks": 7737,
    "Ġplayers": 7738,
    "Ġcontract": 7739,
    "Ġsinging": 7740,
    "Ġwarming": 7741,
    "Ġpsychology": 7742,
    "Ġabsolute": 7743,
    "Ġgender": 7744,
    "Ġpromise": 7745,
    "Ġdebate": 7746,
    "ĠGiá»Ŀ": 7747,
    "Ġsoul": 7748,
    "Ġrelatively": 7749,
    "Ġgentlemen": 7750,
    "Ġcircumst": 7751,
    "Ġliquid": 7752,
    "bre": 7753,
    "van": 7754,
    "well": 7755,
    "Ġtáº§n": 7756,
    "ĠcÆ°á»Ľp": 7757,
    "Ġnations": 7758,
    "Ġsáº¡n": 7759,
    "Ġsoph": 7760,
    "Ġga": 7761,
    "Ġgain": 7762,
    "ĠdÃ¢m": 7763,
    "Ġdáº»o": 7764,
    "Ġrational": 7765,
    "itz": 7766,
    "itarian": 7767,
    "lement": 7768,
    "lease": 7769,
    "Ġphr": 7770,
    "Ġchocol": 7771,
    "Ġstaff": 7772,
    "Ġforced": 7773,
    "ĠmÃłng": 7774,
    "Ġlibr": 7775,
    "sey": 7776,
    "Ġworried": 7777,
    "ĠSah": 7778,
    "ĠchÃŃn": 7779,
    "ĠÄĲá»ĥ": 7780,
    "Ġemissions": 7781,
    "Ġmanip": 7782,
    "ĠJoe": 7783,
    "Ġgrass": 7784,
    "Ġdial": 7785,
    "Ġcovered": 7786,
    "place": 7787,
    "Ġdrag": 7788,
    "Ġinvention": 7789,
    "ograp": 7790,
    "Ġentropy": 7791,
    "Ġbits": 7792,
    "Ġmush": 7793,
    "Ġprocesses": 7794,
    "Ġcircle": 7795,
    "Ġpicked": 7796,
    "Ġhospitals": 7797,
    "Ġbirthday": 7798,
    "Ġprinting": 7799,
    "ĠFlor": 7800,
    "Ġmá»ĵi": 7801,
    "ĠCenter": 7802,
    "ĠUganda": 7803,
    "Ġnervous": 7804,
    "Bao": 7805,
    "SW": 7806,
    "bles": 7807,
    "kins": 7808,
    "Ġnurs": 7809,
    "ĠÄĳáº¡n": 7810,
    "ĠláºŃn": 7811,
    "Ġváº¹n": 7812,
    "Ġdáº£i": 7813,
    "Ġdáº¡o": 7814,
    "ĠtrÃ¢n": 7815,
    "ingly": 7816,
    "Ġqual": 7817,
    "Ġsevere": 7818,
    "ĠSub": 7819,
    "Their": 7820,
    "ĠPol": 7821,
    "ĠPeter": 7822,
    "Ġuncle": 7823,
    "Ġprove": 7824,
    "Ġgoods": 7825,
    "ĠNhÆ°": 7826,
    "Ġtransition": 7827,
    "Ġarts": 7828,
    "Ġmetal": 7829,
    "Ġlá»ĩch": 7830,
    "Ġconnections": 7831,
    "Ġtreo": 7832,
    "Ġbuying": 7833,
    "Ġrequires": 7834,
    "Ġconsumption": 7835,
    "Ġemerging": 7836,
    "Ġhacker": 7837,
    "Ġvictims": 7838,
    "ĠGhana": 7839,
    "Ġlifetime": 7840,
    "Ġfalse": 7841,
    "Ġabstract": 7842,
    "bl": 7843,
    "Ġcáº¯m": 7844,
    "ĠÄĳáº¡c": 7845,
    "Ġsides": 7846,
    "Ġlect": 7847,
    "Ġbow": 7848,
    "Ġhem": 7849,
    "Ġil": 7850,
    "Ġtoward": 7851,
    "Ġfu": 7852,
    "eda": 7853,
    "icip": 7854,
    "Ġqui": 7855,
    "Ġbear": 7856,
    "Ġshame": 7857,
    "Ġlá»£n": 7858,
    "ĠNan": 7859,
    "Ġnotes": 7860,
    "ĠDem": 7861,
    "ĠKore": 7862,
    "Ġ33": 7863,
    "ĠFound": 7864,
    "ĠWow": 7865,
    "ĠOk": 7866,
    "Ġcalling": 7867,
    "Ġpoem": 7868,
    "Ġevil": 7869,
    "Ġdesigners": 7870,
    "Ġorganisms": 7871,
    "Everybody": 7872,
    "Ġstatus": 7873,
    "Ġstronger": 7874,
    "force": 7875,
    "Ġprinciple": 7876,
    "Ġvulnerable": 7877,
    "Ġindependent": 7878,
    "Ġnarrative": 7879,
    "Ġdynamic": 7880,
    "Ġepidemic": 7881,
    "ĠTaliban": 7882,
    "Ġfolks": 7883,
    "ĠbÆ¡m": 7884,
    "ĠMicrosoft": 7885,
    "Ġdolph": 7886,
    "ĠFlorida": 7887,
    "RÃµ": 7888,
    "Women": 7889,
    "wich": 7890,
    "yan": 7891,
    "ĠtÃ´ng": 7892,
    "Ġcáº¯p": 7893,
    "Ġath": 7894,
    "Ġlic": 7895,
    "Ġbath": 7896,
    "Ġve": 7897,
    "ĠvÄ©nh": 7898,
    "Ġfan": 7899,
    "inations": 7900,
    "lying": 7901,
    "Ġisland": 7902,
    "Ġlie": 7903,
    "irty": 7904,
    "ĠTex": 7905,
    "terday": 7906,
    "Ġlá»Ŀ": 7907,
    "ĠNord": 7908,
    "ĠHenry": 7909,
    "ĠÄĳá»ģn": 7910,
    "action": 7911,
    "While": 7912,
    "ardo": 7913,
    "ĠquyÃªn": 7914,
    "ĠJes": 7915,
    "Ġacqu": 7916,
    "Ġideal": 7917,
    "Ġroof": 7918,
    "Ġtechnical": 7919,
    "ĠTEDTalk": 7920,
    "Ġ2001": 7921,
    "being": 7922,
    "Ġfoundation": 7923,
    "olds": 7924,
    "Ġengaged": 7925,
    "ĠNgÃłi": 7926,
    "Ġtopic": 7927,
    "Ġsignals": 7928,
    "ĠHoward": 7929,
    "Ġrisks": 7930,
    "Ġconvention": 7931,
    "Ġrelease": 7932,
    "Ġintelligent": 7933,
    "Ġinfected": 7934,
    "Ġmistakes": 7935,
    "Ġlady": 7936,
    "ĠNeander": 7937,
    "stitute": 7938,
    "Ġnewspaper": 7939,
    "Ġbudget": 7940,
    "Ġmortality": 7941,
    "Ġheavy": 7942,
    "Ġintellectual": 7943,
    "..": 7944,
    "BM": 7945,
    "Bá»Ļ": 7946,
    "car": 7947,
    "jo": 7948,
    "Ġnorth": 7949,
    "Ġbon": 7950,
    "Ġbáº¯p": 7951,
    "Ġbá»įc": 7952,
    "Ġkiá»ĩt": 7953,
    "ati": 7954,
    "err": 7955,
    "ĠnhÃłng": 7956,
    "Ġtrip": 7957,
    "Ġrow": 7958,
    "Ġfiction": 7959,
    "etics": 7960,
    "enture": 7961,
    "olving": 7962,
    "sters": 7963,
    "ĠCÃ²n": 7964,
    "ĠkhiÃªu": 7965,
    "ulin": 7966,
    "anted": 7967,
    "ĠBon": 7968,
    "ĠSim": 7969,
    "agen": 7970,
    "Ġjail": 7971,
    "ĠHÃłn": 7972,
    "ĠHiá»ĩp": 7973,
    "ĠPort": 7974,
    "ĠGood": 7975,
    "ĠLong": 7976,
    "Ġunus": 7977,
    "ĠbuÃ½t": 7978,
    "Ġdish": 7979,
    "eak": 7980,
    "ucing": 7981,
    "athers": 7982,
    "Ġscar": 7983,
    "weet": 7984,
    "ĠtuÃ¢n": 7985,
    "Ġminim": 7986,
    "Ġlessons": 7987,
    "Ġeffectively": 7988,
    "Ġmemories": 7989,
    "Ġmotion": 7990,
    "Ġkhuynh": 7991,
    "Ġtrials": 7992,
    "Ġkáº¹o": 7993,
    "Ġkáº¹t": 7994,
    "ollywood": 7995,
    "Ġclaim": 7996,
    "Ġrestaurant": 7997,
    "ĠLego": 7998,
    "istotle": 7999,
    "Ġilleg": 8000,
    "ĠTexas": 8001,
    "18": 8002,
    "See": 8003,
    "ban": 8004,
    "foot": 8005,
    "Ġnose": 8006,
    "Ġláº¥p": 8007,
    "ĠmÃ²n": 8008,
    "Ġbia": 8009,
    "Ġhuyá»ģn": 8010,
    "ĠvÃ©": 8011,
    "Ġdá»įn": 8012,
    "Ġnháº§m": 8013,
    "Ġtox": 8014,
    "anch": 8015,
    "anth": 8016,
    "Ġrig": 8017,
    "Ġrates": 8018,
    "ini": 8019,
    "uses": 8020,
    "Ġisol": 8021,
    "Ġlies": 8022,
    "ĠCá»Ļng": 8023,
    "ĠTá»«": 8024,
    "thur": 8025,
    "Ġheight": 8026,
    "ĠBáº£o": 8027,
    "Ġexists": 8028,
    "umber": 8029,
    "abol": 8030,
    "Ġmak": 8031,
    "Ġmanagement": 8032,
    "onds": 8033,
    "Ġcoal": 8034,
    "ressive": 8035,
    "Char": 8036,
    "Ġflat": 8037,
    "ĠState": 8038,
    "Ġremain": 8039,
    "Ġserve": 8040,
    "Ġpatent": 8041,
    "Ġmedium": 8042,
    "Ġpossibilities": 8043,
    "box": 8044,
    "ovember": 8045,
    "Ġbottle": 8046,
    "Ġeleph": 8047,
    "Ġrelevant": 8048,
    "Ġsilence": 8049,
    "Ġdefinitely": 8050,
    "Ġsatisf": 8051,
    "ĠIslam": 8052,
    "ĠCongress": 8053,
    "Ġspectrum": 8054,
    "Ġroughly": 8055,
    "Ġchannel": 8056,
    "Ġkilometers": 8057,
    "aving": 8058,
    "cut": 8059,
    "di": 8060,
    "Ġtháº¯c": 8061,
    "ĠÄĳai": 8062,
    "Ġsouth": 8063,
    "Ġwave": 8064,
    "atar": 8065,
    "Ġdot": 8066,
    "Ġinit": 8067,
    "ĠÄĳá»Ĺ": 8068,
    "utes": 8069,
    "ĠgiÃ£n": 8070,
    "etr": 8071,
    "anging": 8072,
    "Ġformer": 8073,
    "acles": 8074,
    "estic": 8075,
    "Ġactions": 8076,
    "ĠThá»©": 8077,
    "ĠchÃºc": 8078,
    "Ġpersonally": 8079,
    "Ġtranspl": 8080,
    "ĠÃĢ": 8081,
    "Ġcarefully": 8082,
    "ĠPháº£i": 8083,
    "Ġgrandfather": 8084,
    "Ġfalling": 8085,
    "Ġprotection": 8086,
    "Ġproteins": 8087,
    "Ġproducing": 8088,
    "Ġlayer": 8089,
    "Ġerror": 8090,
    "Ġintroduced": 8091,
    "Ġprinciples": 8092,
    "ĠGermany": 8093,
    "ĠBrook": 8094,
    "Ġdramatic": 8095,
    "Ġpoetry": 8096,
    "Ġalternative": 8097,
    "Ġexercise": 8098,
    "Ġsophistic": 8099,
    "Ġchocolate": 8100,
    "TÆ°Æ¡ng": 8101,
    "bed": 8102,
    "Ġcave": 8103,
    "Ġnar": 8104,
    "Ġná»ģ": 8105,
    "Ġnav": 8106,
    "Ġsen": 8107,
    "ĠlÅ©ng": 8108,
    "ĠmÆ°á»Ŀi": 8109,
    "ĠhÃ£": 8110,
    "Ġvay": 8111,
    "erves": 8112,
    "ĠtrÃº": 8113,
    "ĠráºŃp": 8114,
    "ĠxÃ¡m": 8115,
    "Ġseat": 8116,
    "Ġsees": 8117,
    "ulating": 8118,
    "ĠBu": 8119,
    "ĠBol": 8120,
    "ĠSat": 8121,
    "ĠHigh": 8122,
    "ĠGree": 8123,
    "Ġtá»±a": 8124,
    "ĠRáº¥t": 8125,
    "ĠJim": 8126,
    "ĠVir": 8127,
    "Ġflash": 8128,
    "ĠÃĶi": 8129,
    "Ġ85": 8130,
    "Ġexplains": 8131,
    "Ġamounts": 8132,
    "Ġoccup": 8133,
    "Ġmeaningful": 8134,
    "Ġprofession": 8135,
    "Ġdepends": 8136,
    "Ġlifest": 8137,
    "NhÃ¢n": 8138,
    "ĠAbraham": 8139,
    "Ġencourage": 8140,
    "Ġcandid": 8141,
    "Ġforgot": 8142,
    "Ġfortun": 8143,
    "Ġchicken": 8144,
    "Ġcortex": 8145,
    "Ġcredit": 8146,
    "12": 8147,
    "Cá»©": 8148,
    "Since": 8149,
    "Very": 8150,
    "gets": 8151,
    "wa": 8152,
    "yo": 8153,
    "zed": 8154,
    "ªm": 8155,
    "ĠcÆ°Æ¡ng": 8156,
    "Ġcents": 8157,
    "ĠthÃ©p": 8158,
    "Ġnit": 8159,
    "Ġske": 8160,
    "Ġmá»įc": 8161,
    "Ġwars": 8162,
    "Ġpip": 8163,
    "Ġdá»Ł": 8164,
    "ĠchÄĥn": 8165,
    "Ġinev": 8166,
    "Ġthá»ķ": 8167,
    "erent": 8168,
    "opard": 8169,
    "á»ĭnh": 8170,
    "Ġshr": 8171,
    "ĠnhÃ³": 8172,
    "Ġmá»ıng": 8173,
    "ĠGulf": 8174,
    "ĠDay": 8175,
    "Ġplans": 8176,
    "izon": 8177,
    "Ġens": 8178,
    "Ġscared": 8179,
    "Ġflower": 8180,
    "Ġdesigning": 8181,
    "Ġinterests": 8182,
    "Ġparticles": 8183,
    "Ġgenerate": 8184,
    "Ġadded": 8185,
    "Ġanti": 8186,
    "Ġexisting": 8187,
    "Ġestab": 8188,
    "Ġfellow": 8189,
    "Ġdisappear": 8190,
    "Ġmentioned": 8191,
    "Ġreveal": 8192,
    "Ġcomponents": 8193,
    "Ġcá»±u": 8194,
    "Ġhydrogen": 8195,
    "Ġinterpret": 8196,
    "Ġcircumstances": 8197,
    "ĠSahara": 8198,
    "Ġmushroom": 8199,
    "Americ": 8200,
    "Did": 8201,
    "cest": 8202,
    "Ġtháº±ng": 8203,
    "ĠnÃªu": 8204,
    "ĠvÆ°á»£ng": 8205,
    "Ġwine": 8206,
    "Ġdá»ĳc": 8207,
    "Ġchose": 8208,
    "Ġinequ": 8209,
    "itan": 8210,
    "ĠÄĳá»£t": 8211,
    "ĠkhÃ©o": 8212,
    "ompl": 8213,
    "Ġitem": 8214,
    "Ġreprod": 8215,
    "ĠCÃ¡ch": 8216,
    "ĠCÃ¡m": 8217,
    "ĠCoca": 8218,
    "Ġshall": 8219,
    "iled": 8220,
    "Ġfright": 8221,
    "abil": 8222,
    "ĠLáº¡p": 8223,
    "ĠDV": 8224,
    "ĠRev": 8225,
    "Ġgrateful": 8226,
    "Ġpoly": 8227,
    "Ġpoore": 8228,
    "Ġ2050": 8229,
    "Ġbike": 8230,
    "Ġngá»«a": 8231,
    "encing": 8232,
    "Ġenvironments": 8233,
    "Ġsites": 8234,
    "Ġdefined": 8235,
    "lessly": 8236,
    "Ġadvice": 8237,
    "Ġtypically": 8238,
    "Ġdealing": 8239,
    "Ġfields": 8240,
    "Ġtracking": 8241,
    "porary": 8242,
    "Ġsubjects": 8243,
    "Ġinternal": 8244,
    "Ġparticipate": 8245,
    "Ġintroduce": 8246,
    "Ġignor": 8247,
    "know": 8248,
    "Ġsequence": 8249,
    "Ġmathematics": 8250,
    "Ġdoubt": 8251,
    "Ġrapidly": 8252,
    "Ġopinion": 8253,
    "19": 8254,
    "Ba": 8255,
    "Ex": 8256,
    "ront": 8257,
    "ÃĢ": 8258,
    "Ġtap": 8259,
    "ĠnÃ¡t": 8260,
    "ĠsÃ´i": 8261,
    "ĠlÆ°á»£t": 8262,
    "ĠbÃ¡": 8263,
    "ĠhÃ´i": 8264,
    "ĠhÃ²": 8265,
    "Ġvang": 8266,
    "aters": 8267,
    "ĠdÅ©ng": 8268,
    "osa": 8269,
    "Ġrit": 8270,
    "organ": 8271,
    "asters": 8272,
    "ican": 8273,
    "Ġgoals": 8274,
    "Ġmel": 8275,
    "ums": 8276,
    "ĠGold": 8277,
    "ĠKhÃ¡": 8278,
    "Ġworlds": 8279,
    "ĠJew": 8280,
    "Ġunit": 8281,
    "ĠVen": 8282,
    "ternal": 8283,
    "Ġboat": 8284,
    "ĠYour": 8285,
    "Ġpercentage": 8286,
    "Ġends": 8287,
    "Ġpolio": 8288,
    "whel": 8289,
    "Ġsolving": 8290,
    "Ġrepair": 8291,
    "Does": 8292,
    "Ġconstant": 8293,
    "Ġinnovative": 8294,
    "Ġsenses": 8295,
    "Ġaston": 8296,
    "Ġfundamentally": 8297,
    "Ġawareness": 8298,
    "Ġvariety": 8299,
    "Ġcapture": 8300,
    "Ġinstrument": 8301,
    "Ġframework": 8302,
    "Ġaccurate": 8303,
    "hyth": 8304,
    "Ġgravity": 8305,
    "Ġunusual": 8306,
    "John": 8307,
    "Per": 8308,
    "Rob": 8309,
    "cons": 8310,
    "iency": 8311,
    "pes": 8312,
    "Ġtons": 8313,
    "ĠbÃ¹": 8314,
    "Ġwitness": 8315,
    "Ġdat": 8316,
    "Ġring": 8317,
    "Ġráº½": 8318,
    "Ġvá»Ĺ": 8319,
    "uther": 8320,
    "ĠxÃ´i": 8321,
    "Ġreverse": 8322,
    "Ġchá»£": 8323,
    "Ġancest": 8324,
    "ĠBay": 8325,
    "Ġmá»ī": 8326,
    "earch": 8327,
    "abled": 8328,
    "Ġintense": 8329,
    "Ġspin": 8330,
    "ĠLaw": 8331,
    "Ġlength": 8332,
    "Ġuns": 8333,
    "rovers": 8334,
    "Ġoverwhel": 8335,
    "Ġdisaster": 8336,
    "Ġfactor": 8337,
    "ĠthoÃ¡i": 8338,
    "aze": 8339,
    "Ġplayer": 8340,
    "Ġconsist": 8341,
    "Ġeconomies": 8342,
    "Ġruns": 8343,
    "Ġwondered": 8344,
    "Ġlabel": 8345,
    "Ġmessages": 8346,
    "Ġoperate": 8347,
    "Everything": 8348,
    "itchen": 8349,
    "ĠBlack": 8350,
    "Ġprivile": 8351,
    "Ġmovies": 8352,
    "Ġestim": 8353,
    "Ġprimary": 8354,
    "Ġmountains": 8355,
    "Ġauthority": 8356,
    "Ġforests": 8357,
    "Ġridic": 8358,
    "Ġnano": 8359,
    "Ġjudg": 8360,
    "Ġswimming": 8361,
    "Ġearthqu": 8362,
    "Ġsample": 8363,
    "Ġgalaxy": 8364,
    "Ġapplied": 8365,
    "Ġexchange": 8366,
    "profit": 8367,
    "ĠNorden": 8368,
    "EC": 8369,
    "Gl": 8370,
    "Máº·t": 8371,
    "ien": 8372,
    "khÃ´ng": 8373,
    "source": 8374,
    "tit": 8375,
    "Ġnáº£n": 8376,
    "Ġmember": 8377,
    "Ġbill": 8378,
    "Ġhide": 8379,
    "Ġháº¡ch": 8380,
    "rets": 8381,
    "Ġoption": 8382,
    "Ġpun": 8383,
    "Ġpump": 8384,
    "osn": 8385,
    "anz": 8386,
    "Ġrot": 8387,
    "ora": 8388,
    "orter": 8389,
    "ctic": 8390,
    "ament": 8391,
    "ĠmÃły": 8392,
    "ĠCop": 8393,
    "ĠhoÃłi": 8394,
    "ĠAp": 8395,
    "Ġatoms": 8396,
    "ĠBron": 8397,
    "ĠHáº£i": 8398,
    "Ġ29": 8399,
    "ĠphÃ¡c": 8400,
    "alled": 8401,
    "ĠGia": 8402,
    "Ġsuit": 8403,
    "ĠRay": 8404,
    "Ġ31": 8405,
    "roit": 8406,
    "Å©i": 8407,
    "ending": 8408,
    "Ġinsulin": 8409,
    "Ġ700": 8410,
    "Ġaccompl": 8411,
    "Ġexplan": 8412,
    "Ġeconomists": 8413,
    "Ġregions": 8414,
    "Ġconfidence": 8415,
    "Ġconfront": 8416,
    "ĠIndones": 8417,
    "Ġautonom": 8418,
    "Ġfilms": 8419,
    "atson": 8420,
    "Ġfunding": 8421,
    "Ġteams": 8422,
    "Ġelev": 8423,
    "Ġcombine": 8424,
    "Ġjoined": 8425,
    "Ġcritic": 8426,
    "Ġselling": 8427,
    "ĠBritain": 8428,
    "Ġconcrete": 8429,
    "Ġcarrying": 8430,
    "Ġhoping": 8431,
    "Ġpasswords": 8432,
    "Ġgraduate": 8433,
    "Ġphilosophy": 8434,
    "Ġmanufacturing": 8435,
    "Ġtumor": 8436,
    "ĠSweden": 8437,
    "ĠMandela": 8438,
    "ĠDetroit": 8439,
    "Ġnavig": 8440,
    "DA": 8441,
    "aven": 8442,
    "Ġtháº§m": 8443,
    "ĠbÃ¡ch": 8444,
    "Ġvoc": 8445,
    "Ġdá»Ļi": 8446,
    "eras": 8447,
    "ĠtráºŃt": 8448,
    "oug": 8449,
    "Ġcháº£": 8450,
    "osition": 8451,
    "Ġfake": 8452,
    "eding": 8453,
    "iture": 8454,
    "lly": 8455,
    "Ġpho": 8456,
    "idi": 8457,
    "ston": 8458,
    "aded": 8459,
    "Ġpray": 8460,
    "Ġsem": 8461,
    "inder": 8462,
    "Ġteeth": 8463,
    "ĠGore": 8464,
    "Ġhowever": 8465,
    "Ġcompar": 8466,
    "ĠRá»ĵi": 8467,
    "Ġagg": 8468,
    "ĠChiáº¿n": 8469,
    "Ġfactors": 8470,
    "Ġ800": 8471,
    "Ġcenturies": 8472,
    "Ġstring": 8473,
    "Ġanimation": 8474,
    "ĠBrian": 8475,
    "Ġincreased": 8476,
    "Ġbá»Ĺng": 8477,
    "elson": 8478,
    "Ġsunlight": 8479,
    "Ġtraveling": 8480,
    "Ġoceans": 8481,
    "Ġyesterday": 8482,
    "Ġbarri": 8483,
    "ĠScot": 8484,
    "Ġvaccines": 8485,
    "Ġsandwich": 8486,
    "ĠnÃ©n": 8487,
    "Ġcollaboration": 8488,
    "ĠNghá»ĩ": 8489,
    "Ġchemicals": 8490,
    "Ġdiscussion": 8491,
    "ĠRosling": 8492,
    "Ġsports": 8493,
    "ephen": 8494,
    "Ġritual": 8495,
    "AM": 8496,
    "Cola": 8497,
    "Má»¥c": 8498,
    "PhÃ": 8499,
    "Tin": 8500,
    "ek": 8501,
    "Ġtiá»ħn": 8502,
    "áº³m": 8503,
    "ĠÄĳáº½": 8504,
    "Ġloud": 8505,
    "Ġmere": 8506,
    "Ġbáº¥y": 8507,
    "ĠvÃµ": 8508,
    "Ġwake": 8509,
    "rey": 8510,
    "ĠgÃ¡c": 8511,
    "apore": 8512,
    "ĠxÄĥng": 8513,
    "Ġrebu": 8514,
    "Ġnghiá»ĩt": 8515,
    "igm": 8516,
    "ĠCD": 8517,
    "ĠTá»±": 8518,
    "agram": 8519,
    "oking": 8520,
    "andon": 8521,
    "ifer": 8522,
    "ĠPres": 8523,
    "ĠPeople": 8524,
    "ĠEas": 8525,
    "ansas": 8526,
    "ĠWolf": 8527,
    "Ġchua": 8528,
    "Ġcontrast": 8529,
    "Ġmovements": 8530,
    "Ġregard": 8531,
    "what": 8532,
    "Ġsolved": 8533,
    "Ġposter": 8534,
    "Ġproductive": 8535,
    "Ġtrá»«u": 8536,
    "Ġoperation": 8537,
    "Ġbehavioral": 8538,
    "Ġfacial": 8539,
    "Ġwinter": 8540,
    "Ġobser": 8541,
    "Ġcombination": 8542,
    "Ġharvest": 8543,
    "Ġconversations": 8544,
    "Ġcooking": 8545,
    "ĠMuslim": 8546,
    "Ġtransportation": 8547,
    "Ġresistance": 8548,
    "ĠxÃŃu": 8549,
    "Ġantibiot": 8550,
    "ĠFoundation": 8551,
    "ĠIndonesia": 8552,
    "Bas": 8553,
    "bors": 8554,
    "mission": 8555,
    "Ġthick": 8556,
    "Ġná»¥": 8557,
    "Ġmuá»ĳi": 8558,
    "ĠbÃ¬a": 8559,
    "Ġhá»¥t": 8560,
    "Ġgall": 8561,
    "child": 8562,
    "icing": 8563,
    "amine": 8564,
    "ĠCyrus": 8565,
    "abet": 8566,
    "abilities": 8567,
    "ĠRed": 8568,
    "ĠVan": 8569,
    "Ġresil": 8570,
    "Ġadj": 8571,
    "Ġbold": 8572,
    "pha": 8573,
    "Ġcomputing": 8574,
    "Ġskill": 8575,
    "Ġrefr": 8576,
    "Ġdevil": 8577,
    "Ġcá»ķng": 8578,
    "Ġchallenging": 8579,
    "Ġassign": 8580,
    "Ġmilk": 8581,
    "Ġbehaviors": 8582,
    "ĠZeal": 8583,
    "evin": 8584,
    "Ġcollapse": 8585,
    "Ġfears": 8586,
    "Ġinclude": 8587,
    "Ġconsumer": 8588,
    "Ġdestruction": 8589,
    "Ġcyber": 8590,
    "ĠScott": 8591,
    "Ġsteel": 8592,
    "Ġprepared": 8593,
    "Ġapplications": 8594,
    "Ġfabric": 8595,
    "burgh": 8596,
    "ĠSyria": 8597,
    "Ġnegoti": 8598,
    "ographer": 8599,
    "ĠBronx": 8600,
    "Loáº¡i": 8601,
    "ae": 8602,
    "bb": 8603,
    "do": 8604,
    "há»į": 8605,
    "lines": 8606,
    "rition": 8607,
    "trong": 8608,
    "Ġá»ĵ": 8609,
    "Ġtank": 8610,
    "Ġcock": 8611,
    "Ġtháº³m": 8612,
    "ĠÄĳÃł": 8613,
    "ĠlÆ¡": 8614,
    "Ġláº¯c": 8615,
    "Ġought": 8616,
    "eron": 8617,
    "Ġchurch": 8618,
    "Ġflex": 8619,
    "Ġinput": 8620,
    "ĠxÃŃch": 8621,
    "ĠxÃ©": 8622,
    "Ġreven": 8623,
    "Ġstere": 8624,
    "Ġ---": 8625,
    "imeter": 8626,
    "Ġcomment": 8627,
    "Ġfrank": 8628,
    "ĠHai": 8629,
    "ogue": 8630,
    "ĠDen": 8631,
    "Ġacting": 8632,
    "ĠKe": 8633,
    "ĠFin": 8634,
    "Ġ55": 8635,
    "ictor": 8636,
    "Ġdesk": 8637,
    "Ġoffers": 8638,
    "chnology": 8639,
    "ĠInstitute": 8640,
    "cont": 8641,
    "Ġhunt": 8642,
    "Ġinstinct": 8643,
    "Ġwriter": 8644,
    "Ġcenters": 8645,
    "Ġgenerally": 8646,
    "Ġbusy": 8647,
    "pring": 8648,
    "Ġproced": 8649,
    "Ġhyd": 8650,
    "Ġbombs": 8651,
    "Ġruá»ĵi": 8652,
    "Ġrepresents": 8653,
    "Ġconvince": 8654,
    "Ġsnow": 8655,
    "arrass": 8656,
    "Ġmechanism": 8657,
    "Ġmirror": 8658,
    "Ġagriculture": 8659,
    "Ġeggs": 8660,
    "ihad": 8661,
    "Ġlifestyle": 8662,
    "CH": 8663,
    "Could": 8664,
    "MA": 8665,
    "Sá»ĳ": 8666,
    "lation": 8667,
    "mers": 8668,
    "ville": 8669,
    "war": 8670,
    "´n": 8671,
    "Ġá»ĳc": 8672,
    "Ġcure": 8673,
    "ĠsÃºc": 8674,
    "ĠlÃºa": 8675,
    "Ġmad": 8676,
    "Ġmá»Ļng": 8677,
    "Ġmaps": 8678,
    "Ġbare": 8679,
    "ĠhÃ³c": 8680,
    "Ġgar": 8681,
    "Ġtrá»Ļm": 8682,
    "nhá»¯ng": 8683,
    "ena": 8684,
    "Ġgiáº·t": 8685,
    "ette": 8686,
    "Ġstands": 8687,
    "iminal": 8688,
    "opia": 8689,
    "Ġsacr": 8690,
    "stream": 8691,
    "ĠCáºŃu": 8692,
    "adic": 8693,
    "Ġsoáº¡n": 8694,
    "ĠMil": 8695,
    "Ġneut": 8696,
    "ĠSant": 8697,
    "Ġorch": 8698,
    "ortion": 8699,
    "reenh": 8700,
    "ewart": 8701,
    "Ġdriven": 8702,
    "Ġowners": 8703,
    "Ġobst": 8704,
    "Ġvá»¥n": 8705,
    "peare": 8706,
    "Ġmetabol": 8707,
    "Trung": 8708,
    "Ġclever": 8709,
    "Ġdepartment": 8710,
    "Ġcameras": 8711,
    "Ġparking": 8712,
    "Ġradiation": 8713,
    "Ġliterature": 8714,
    "Ġstayed": 8715,
    "Ġinspiration": 8716,
    "Ġsituations": 8717,
    "Ġsustainability": 8718,
    "Ġtransformed": 8719,
    "akespeare": 8720,
    "Ġmistake": 8721,
    "ĠIslamic": 8722,
    "Ġsamples": 8723,
    "Ġentrepreneur": 8724,
    "ĠRussia": 8725,
    "Ġhypothes": 8726,
    "Ġtherapy": 8727,
    "Ġcircuit": 8728,
    "ĠCarolina": 8729,
    "Ġillegal": 8730,
    "Ġsophisticated": 8731,
    "ĠDVD": 8732,
    "titles": 8733,
    "ĠZealand": 8734,
    "BC": 8735,
    "Há»ĩ": 8736,
    "HÃłng": 8737,
    "ThÃ´ng": 8738,
    "cks": 8739,
    "iel": 8740,
    "look": 8741,
    "ux": 8742,
    "Ġur": 8743,
    "Ġá»ĳm": 8744,
    "Ġmat": 8745,
    "ĠmÆ°Æ¡i": 8746,
    "Ġbes": 8747,
    "ĠbÆ°á»Ľ": 8748,
    "Ġborders": 8749,
    "Ġhits": 8750,
    "ĠgÅ©i": 8751,
    "Ġgreenh": 8752,
    "oto": 8753,
    "ĠrÅ©": 8754,
    "chair": 8755,
    "Three": 8756,
    "ĠxÆ°á»Łng": 8757,
    "ĠxÆ°á»Ľng": 8758,
    "Ġreject": 8759,
    "Ġsteal": 8760,
    "Ġchá»£t": 8761,
    "Ġanonym": 8762,
    "stand": 8763,
    "Ġunh": 8764,
    "ĠMat": 8765,
    "ĠAct": 8766,
    "ĠSom": 8767,
    "ifth": 8768,
    "obi": 8769,
    "obs": 8770,
    "ĠPat": 8771,
    "ĠPac": 8772,
    "Ġtea": 8773,
    "Ġplus": 8774,
    "Ġsomewhat": 8775,
    "oseph": 8776,
    "ĠKim": 8777,
    "ĠJosh": 8778,
    "Ġthanks": 8779,
    "ĠWatson": 8780,
    "Ġprem": 8781,
    "Ġflag": 8782,
    "Ġapparent": 8783,
    "Ġtechnique": 8784,
    "Ġstoryt": 8785,
    "ĠIsland": 8786,
    "ĠYorker": 8787,
    "Ġsigns": 8788,
    "Ġdevast": 8789,
    "Ġwalks": 8790,
    "ĠtÃŃm": 8791,
    "Ġpotentially": 8792,
    "Ġidentical": 8793,
    "Ġboxes": 8794,
    "Ġauthent": 8795,
    "Ġfootprint": 8796,
    "Ġoptions": 8797,
    "Ġpulled": 8798,
    "Ġneighbors": 8799,
    "ĠThÃ¡nh": 8800,
    "Ġburning": 8801,
    "Ġembarrass": 8802,
    "Ġclouds": 8803,
    "Ġhunger": 8804,
    "Ġlaboratory": 8805,
    "Ġdetermine": 8806,
    "Ġladies": 8807,
    "Ġcontrolled": 8808,
    "ĠProject": 8809,
    "Ġsatellite": 8810,
    "ĠVirgin": 8811,
    "Ġearthquake": 8812,
    "ĠPresident": 8813,
    "BI": 8814,
    "Cl": 8815,
    "HÃ¬nh": 8816,
    "TÃªn": 8817,
    "eo": 8818,
    "night": 8819,
    "oop": 8820,
    "upp": 8821,
    "Ġáº¿ch": 8822,
    "á»Ĺ": 8823,
    "Ġthumb": 8824,
    "Ġsets": 8825,
    "ĠmÆ°á»£n": 8826,
    "ĠhÃ©t": 8827,
    "Ġkm": 8828,
    "Ġdict": 8829,
    "Ġdedic": 8830,
    "Ġdancing": 8831,
    "erry": 8832,
    "ĠtrÃ¡ng": 8833,
    "Ġcháº½": 8834,
    "Ġngáº«m": 8835,
    "esh": 8836,
    "esity": 8837,
    "inate": 8838,
    "level": 8839,
    "Ġwel": 8840,
    "Ġwhist": 8841,
    "Ġbee": 8842,
    "Ġreh": 8843,
    "Ġren": 8844,
    "Ġstock": 8845,
    "Ġwash": 8846,
    "ĠCount": 8847,
    "Ġloop": 8848,
    "Ġasse": 8849,
    "ĠAir": 8850,
    "ĠPole": 8851,
    "ĠkhoÃ¡ng": 8852,
    "ĠLester": 8853,
    "ĠDa": 8854,
    "Ġsuic": 8855,
    "Ġbroke": 8856,
    "resp": 8857,
    "Ġunknown": 8858,
    "Ġarrest": 8859,
    "ĠVictor": 8860,
    "Ġ1930": 8861,
    "Ġdownload": 8862,
    "Ġsurvey": 8863,
    "Ġinstruct": 8864,
    "Ġplays": 8865,
    "ĠAristotle": 8866,
    "ĠNgÃ¢n": 8867,
    "Ġprocessing": 8868,
    "Ġglobe": 8869,
    "Ġphysically": 8870,
    "Ġallowing": 8871,
    "Ġequally": 8872,
    "Ġtests": 8873,
    "Ġmemor": 8874,
    "Ġadvanced": 8875,
    "Ġcollected": 8876,
    "Ġclosely": 8877,
    "Ġexistence": 8878,
    "ĠPrize": 8879,
    "Ġimmune": 8880,
    "Ġempower": 8881,
    "Also": 8882,
    "Ġultimate": 8883,
    "Ġflowers": 8884,
    "Ġspiritual": 8885,
    "Ġproperties": 8886,
    "Ġvehicles": 8887,
    "Ġpuzzle": 8888,
    "Ġembrace": 8889,
    "connected": 8890,
    "ĠGandhi": 8891,
    "Ġtonight": 8892,
    "ĠWilliam": 8893,
    "Ġhorrible": 8894,
    "Ġgarden": 8895,
    "Ġastronom": 8896,
    "Ġappropriate": 8897,
    "BÃªn": 8898,
    "Ká»ĥ": 8899,
    "SS": 8900,
    "Sim": 8901,
    "gie": 8902,
    "náº¿u": 8903,
    "ooth": 8904,
    "via": 8905,
    "xies": 8906,
    "Ľp": 8907,
    "á»ħ": 8908,
    "ĠcÆ°á»£c": 8909,
    "Ġthin": 8910,
    "ĠlÃ¢n": 8911,
    "Ġmales": 8912,
    "Ġbin": 8913,
    "Ġbáº©n": 8914,
    "ĠvÃ¡n": 8915,
    "Ġpound": 8916,
    "Ġpitch": 8917,
    "Ġdense": 8918,
    "ĠnhÆ°á»Ŀng": 8919,
    "ĠtrÃ¡n": 8920,
    "Ġfurn": 8921,
    "arant": 8922,
    "ĠÄĳá»ĩ": 8923,
    "asks": 8924,
    "ĠIm": 8925,
    "Ġphase": 8926,
    "Ġquáº·c": 8927,
    "Ġbeach": 8928,
    "etically": 8929,
    "Ġxá»ī": 8930,
    "ÃŃn": 8931,
    "keep": 8932,
    "Ġconver": 8933,
    "olar": 8934,
    "ĠComm": 8935,
    "Ġasp": 8936,
    "Ġshell": 8937,
    "ĠMill": 8938,
    "ĠMuseum": 8939,
    "Ġfrog": 8940,
    "ĠÄĳá»Ļn": 8941,
    "Ġjoke": 8942,
    "Ġexec": 8943,
    "Ġoutc": 8944,
    "ĠnhÃło": 8945,
    "ĠDep": 8946,
    "Ġacts": 8947,
    "Ġquyáº¿n": 8948,
    "pped": 8949,
    "ilding": 8950,
    "ĠWal": 8951,
    "Ġimplement": 8952,
    "Ġoverall": 8953,
    "Ġdiss": 8954,
    "Ġacknow": 8955,
    "Ġdesper": 8956,
    "Ġcá»ĳng": 8957,
    "ubes": 8958,
    "Ġdá»Ĺ": 8959,
    "Ġformed": 8960,
    "Ġkeeps": 8961,
    "Ġdistinct": 8962,
    "Ġpainful": 8963,
    "Ġcollecting": 8964,
    "Ġinteractive": 8965,
    "Ġarguments": 8966,
    "Ġmainly": 8967,
    "Ġspreading": 8968,
    "Ġactivities": 8969,
    "Ġadmit": 8970,
    "ĠLaden": 8971,
    "Ġimplications": 8972,
    "Ġromantic": 8973,
    "Ġsymptoms": 8974,
    "ĠIceland": 8975,
    "Ġtransplant": 8976,
    "ĠRevolution": 8977,
    "BÃłi": 8978,
    "CL": 8979,
    "GO": 8980,
    "Last": 8981,
    "Te": 8982,
    "hour": 8983,
    "iat": 8984,
    "tch": 8985,
    "uch": 8986,
    "ugg": 8987,
    "Ġtape": 8988,
    "ĠlÃ¡nh": 8989,
    "Ġmáº¿n": 8990,
    "Ġbáº¥m": 8991,
    "ĠbÃ¡m": 8992,
    "Ġbicy": 8993,
    "Ġwings": 8994,
    "Ġkitchen": 8995,
    "Ġnháº¡t": 8996,
    "osph": 8997,
    "Ġfoss": 8998,
    "Ġfert": 8999,
    "lete": 9000,
    "icious": 9001,
    "ÄĲiá»ĥm": 9002,
    "ĠgÃ¬n": 9003,
    "agic": 9004,
    "ĠHollywood": 9005,
    "iev": 9006,
    "ĠLou": 9007,
    "hile": 9008,
    "appy": 9009,
    "Ġuncom": 9010,
    "ĠOl": 9011,
    "Ġdiscipl": 9012,
    "ĠVi": 9013,
    "ologically": 9014,
    "Ġcontrovers": 9015,
    "Ġpool": 9016,
    "Ġunderwater": 9017,
    "Ġhandle": 9018,
    "Ġhealthcare": 9019,
    "rane": 9020,
    "Ġstretch": 9021,
    "ĠShakespeare": 9022,
    "Ġcontinent": 9023,
    "Ġadvance": 9024,
    "Ġwaves": 9025,
    "Ġillusion": 9026,
    "Ġsensitive": 9027,
    "QuÃ¡": 9028,
    "Ġviruses": 9029,
    "ĠBlue": 9030,
    "Ġroads": 9031,
    "eptember": 9032,
    "Ġreplic": 9033,
    "Ġconflicts": 9034,
    "Ġattacks": 9035,
    "Ġdivide": 9036,
    "scale": 9037,
    "Ġwheelchair": 9038,
    "Ġlá»ģu": 9039,
    "ĠMontana": 9040,
    "Ġmeasuring": 9041,
    "ĠTranscript": 9042,
    "Ġentertainment": 9043,
    "viol": 9044,
    "Ġpocket": 9045,
    "Ġconclusion": 9046,
    "Ġpregnant": 9047,
    "ĠSubtitles": 9048,
    "ĠDemocr": 9049,
    "Ġestablish": 9050,
    "Perhaps": 9051,
    "Ge": 9052,
    "NC": 9053,
    "Sao": 9054,
    "gent": 9055,
    "nel": 9056,
    "ĠÃ´m": 9057,
    "Ġná»ĵng": 9058,
    "ĠsÃ´": 9059,
    "ĠsÃ¡o": 9060,
    "Ġsáº¯m": 9061,
    "Ġment": 9062,
    "Ġborder": 9063,
    "Ġhiáº¿p": 9064,
    "Ġpill": 9065,
    "Ġgest": 9066,
    "Ġtrig": 9067,
    "Ġrush": 9068,
    "isters": 9069,
    "aron": 9070,
    "usive": 9071,
    "Ġbeet": 9072,
    "Ġanth": 9073,
    "tery": 9074,
    "ĠSen": 9075,
    "Ġfro": 9076,
    "ĠHay": 9077,
    "Ġupper": 9078,
    "ĠLove": 9079,
    "ivi": 9080,
    "ĠRam": 9081,
    "ĠRiver": 9082,
    "ĠRock": 9083,
    "Ġbrib": 9084,
    "Ġbrothers": 9085,
    "Ġperman": 9086,
    "Ġ37": 9087,
    "Ġfeature": 9088,
    "Ġclock": 9089,
    "Ġimplant": 9090,
    "ĠChá»§": 9091,
    "Ġcontem": 9092,
    "Ġcommand": 9093,
    "Ġ2002": 9094,
    "Ġobesity": 9095,
    "Ġdesigns": 9096,
    "Ġrá»Ĺng": 9097,
    "Ġregener": 9098,
    "ĠmÃ£nh": 9099,
    "Ġclasses": 9100,
    "Ġlargely": 9101,
    "Ġproviding": 9102,
    "Ġexplained": 9103,
    "Ġruá»Ļt": 9104,
    "Ġrecords": 9105,
    "Ġreached": 9106,
    "Ġrequired": 9107,
    "Ġpollution": 9108,
    "Ġsuffer": 9109,
    "ĠChristmas": 9110,
    "Ġdropped": 9111,
    "ĠGrand": 9112,
    "Ġsurrounded": 9113,
    "Ġirr": 9114,
    "ĠChile": 9115,
    "Ġgalaxies": 9116,
    "Ġincentives": 9117,
    "ĠKhoa": 9118,
    "Ġprototype": 9119,
    "Ġadvertising": 9120,
    "ĠJanuary": 9121,
    "Ġastonishing": 9122,
    "hythm": 9123,
    "Global": 9124,
    "Ab": 9125,
    "field": 9126,
    "net": 9127,
    "ras": 9128,
    "uous": 9129,
    "zer": 9130,
    "Ġ+": 9131,
    "ĠcÃłi": 9132,
    "ĠnÃ´": 9133,
    "ĠlÃ¹ng": 9134,
    "Ġluá»¹": 9135,
    "Ġmim": 9136,
    "Ġben": 9137,
    "Ġboring": 9138,
    "Ġvit": 9139,
    "Ġpushing": 9140,
    "Ġnhá»ĩn": 9141,
    "Ġtruck": 9142,
    "ĠchÃ¹": 9143,
    "ĠchÃ´n": 9144,
    "ĠIBM": 9145,
    "Ġphun": 9146,
    "etch": 9147,
    "Ġstorm": 9148,
    "Ġliver": 9149,
    "Ġub": 9150,
    "Ġseason": 9151,
    "ila": 9152,
    "illa": 9153,
    "Ġattend": 9154,
    "ĠBob": 9155,
    "ĠSk": 9156,
    "ĠSeptember": 9157,
    "agos": 9158,
    "Ġmá»ķ": 9159,
    "abin": 9160,
    "Ġsphere": 9161,
    "ĠLÃł": 9162,
    "ĠEth": 9163,
    "Ġheroes": 9164,
    "Ġ46": 9165,
    "plom": 9166,
    "ords": 9167,
    "akers": 9168,
    "Ġremem": 9169,
    "Ġinsurance": 9170,
    "Ġtransfer": 9171,
    "ĠNewton": 9172,
    "Thanks": 9173,
    "Ġregret": 9174,
    "ĠNgÃły": 9175,
    "ĠHealth": 9176,
    "Ġpresence": 9177,
    "Ġyounger": 9178,
    "Ġconstit": 9179,
    "Ġsongs": 9180,
    "Ġopera": 9181,
    "ĠAmy": 9182,
    "Ġcausing": 9183,
    "Ġangry": 9184,
    "Ġbreathe": 9185,
    "Ġmechanical": 9186,
    "Ġassume": 9187,
    "Ġjudge": 9188,
    "iosity": 9189,
    "Ġmathematical": 9190,
    "Ġuncertain": 9191,
    "ĠSilicon": 9192,
    "Ġphrase": 9193,
    "Ġconventional": 9194,
    "Ġfrankly": 9195,
    "Ġgreenhouse": 9196,
    "BA": 9197,
    "Bá»ĳ": 9198,
    "OL": 9199,
    "PT": 9200,
    "aeda": 9201,
    "hh": 9202,
    "vas": 9203,
    "worth": 9204,
    "á»©a": 9205,
    "Ġcous": 9206,
    "Ġthung": 9207,
    "Ġtháº¥m": 9208,
    "Ġlying": 9209,
    "Ġváº¡ch": 9210,
    "Ġkick": 9211,
    "Ġpapers": 9212,
    "Ġdress": 9213,
    "Ġrub": 9214,
    "Ġrating": 9215,
    "orus": 9216,
    "arry": 9217,
    "Ġears": 9218,
    "utch": 9219,
    "Ġgiá»įt": 9220,
    "Ġlikes": 9221,
    "ĠTim": 9222,
    "ĠMiss": 9223,
    "ĠMike": 9224,
    "Ġmeg": 9225,
    "Ġoutcome": 9226,
    "rous": 9227,
    "ĠKy": 9228,
    "ĠKar": 9229,
    "Ġagencies": 9230,
    "eps": 9231,
    "Ġgrain": 9232,
    "ĠxuÃ¢n": 9233,
    "Ġ1900": 9234,
    "Ġlets": 9235,
    "Ġremove": 9236,
    "Ġbias": 9237,
    "Ġfinance": 9238,
    "Ġcareful": 9239,
    "Ġnaturally": 9240,
    "Ġvisible": 9241,
    "Ġeducational": 9242,
    "Ġrefer": 9243,
    "Ġcollaps": 9244,
    "Ġdeaths": 9245,
    "Ġlá»ĵng": 9246,
    "Ġdigit": 9247,
    "Ġfaced": 9248,
    "Quan": 9249,
    "ĠLeon": 9250,
    "Ġreligions": 9251,
    "Ġapartment": 9252,
    "Ġaftern": 9253,
    "Ġmethods": 9254,
    "Ġcontinued": 9255,
    "Ġtribe": 9256,
    "Ġhousing": 9257,
    "Ġdiagnosed": 9258,
    "Ġfingers": 9259,
    "Ġdefend": 9260,
    "Ġstrangers": 9261,
    "Ġacademic": 9262,
    "Ġlatest": 9263,
    "ĠSingapore": 9264,
    "Ġelder": 9265,
    "Ġmystery": 9266,
    "Ġnurses": 9267,
    "Ġathlet": 9268,
    "Ġantibiotics": 9269,
    "Basically": 9270,
    "case": 9271,
    "fish": 9272,
    "now": 9273,
    "xim": 9274,
    "Ġcast": 9275,
    "ĠthÆ°á»£ng": 9276,
    "ĠsÃ©t": 9277,
    "Ġwise": 9278,
    "Ġped": 9279,
    "Ġpasse": 9280,
    "Ġtriá»ĩt": 9281,
    "Ġchá»įc": 9282,
    "ingu": 9283,
    "ĠrÃ£": 9284,
    "Ġinject": 9285,
    "Ġvá»Ŀ": 9286,
    "Ġwhales": 9287,
    "ione": 9288,
    "ĠxÄĥm": 9289,
    "Ġraw": 9290,
    "ima": 9291,
    "see": 9292,
    "ĠTem": 9293,
    "ĠTanz": 9294,
    "think": 9295,
    "ĠMÃ¬nh": 9296,
    "ĠMel": 9297,
    "Ġlá»¡": 9298,
    "ĠSand": 9299,
    "ĠScience": 9300,
    "ĠNÄĥm": 9301,
    "Ġalb": 9302,
    "ĠPan": 9303,
    "Ġspoken": 9304,
    "ĠGener": 9305,
    "ĠDÃ¢n": 9306,
    "Ġplate": 9307,
    "rah": 9308,
    "Ġwherever": 9309,
    "ĠJac": 9310,
    "Ġclothes": 9311,
    "gend": 9312,
    "ĠValley": 9313,
    "Ġsheep": 9314,
    "icted": 9315,
    "Ġblank": 9316,
    "Ġadoles": 9317,
    "Ġpretend": 9318,
    "Ġoffered": 9319,
    "Chiáº¿c": 9320,
    "ĠNhÄ©": 9321,
    "Ġengagement": 9322,
    "ĠUnion": 9323,
    "ĠHoÃł": 9324,
    "Ġhearts": 9325,
    "Ġclassic": 9326,
    "ĠZimb": 9327,
    "Ġinteractions": 9328,
    "Ġsensors": 9329,
    "Ġ1999": 9330,
    "Ġmaintain": 9331,
    "Ġviolent": 9332,
    "Ġlogo": 9333,
    "Ġstruck": 9334,
    "Ġhuynh": 9335,
    "Ġfascinated": 9336,
    "Ġefficiency": 9337,
    "Ġcustomers": 9338,
    "ĠDelhi": 9339,
    "ĠRepublic": 9340,
    "Ġrecyc": 9341,
    "ĠhÃ£m": 9342,
    "ĠEastern": 9343,
    "Ġoutcomes": 9344,
    "Ġpasseng": 9345,
    "BJ": 9346,
    "ca": 9347,
    "cil": 9348,
    "oing": 9349,
    "rors": 9350,
    "tÃ´": 9351,
    "xin": 9352,
    "ĠtÃª": 9353,
    "Ġtivi": 9354,
    "Ġcards": 9355,
    "ĠlÄĥng": 9356,
    "ĠlÃ©o": 9357,
    "ĠmÃ³ng": 9358,
    "ĠbÃ³c": 9359,
    "Ġhur": 9360,
    "Ġvert": 9361,
    "ĠvÃ²i": 9362,
    "erial": 9363,
    "quare": 9364,
    "isher": 9365,
    "Ġcá»į": 9366,
    "Ġpharm": 9367,
    "Ġphosph": 9368,
    "owered": 9369,
    "usions": 9370,
    "Ġdop": 9371,
    "opath": 9372,
    "struct": 9373,
    "ĠCÆ¡": 9374,
    "ĠColl": 9375,
    "Ġprost": 9376,
    "Ġsection": 9377,
    "Ġshake": 9378,
    "ĠMer": 9379,
    "Ġheaven": 9380,
    "ĠNGO": 9381,
    "ague": 9382,
    "ĠHill": 9383,
    "Ġbutton": 9384,
    "Ġspring": 9385,
    "Ġtheme": 9386,
    "Ġcompl": 9387,
    "ĠEs": 9388,
    "Ġagend": 9389,
    "Ġwhereas": 9390,
    "Ġclub": 9391,
    "ĠWright": 9392,
    "Ġgray": 9393,
    "Ġdiox": 9394,
    "Ġacid": 9395,
    "ewis": 9396,
    "Cha": 9397,
    "Ġcriminal": 9398,
    "Ġdrives": 9399,
    "Ġelimin": 9400,
    "Ġfunctions": 9401,
    "Ġsigned": 9402,
    "Ġcoral": 9403,
    "Ġfigures": 9404,
    "Ġretire": 9405,
    "Ġneuron": 9406,
    "Ġwindows": 9407,
    "Ġrecorded": 9408,
    "Ġreaching": 9409,
    "Ġobsessed": 9410,
    "Ġhotel": 9411,
    "Ġconcepts": 9412,
    "Ġembedd": 9413,
    "Ġportra": 9414,
    "Ġcontribute": 9415,
    "ĠJeff": 9416,
    "Ġteenagers": 9417,
    "Ġvulnerability": 9418,
    "Ġselection": 9419,
    "Ġcomponent": 9420,
    "Ġtort": 9421,
    "Ġtaste": 9422,
    "Ġdictionary": 9423,
    "Ġshadow": 9424,
    "Ġnarrow": 9425,
    "Ġdatab": 9426,
    "Ġrefriger": 9427,
    "Ġfurniture": 9428,
    "Br": 9429,
    "Dan": 9430,
    "Re": 9431,
    "Vo": 9432,
    "WK": 9433,
    "burg": 9434,
    "cÃ´": 9435,
    "house": 9436,
    "mates": 9437,
    "Ġuy": 9438,
    "Ġáº©m": 9439,
    "Ġtight": 9440,
    "ĠÄĳc": 9441,
    "Ġmi": 9442,
    "ĠvÃ²": 9443,
    "Ġgut": 9444,
    "Ġchrom": 9445,
    "Ġiniti": 9446,
    "itors": 9447,
    "asm": 9448,
    "usal": 9449,
    "Ġquáº¡": 9450,
    "utan": 9451,
    "iday": 9452,
    "Ġstack": 9453,
    "stone": 9454,
    "stage": 9455,
    "ĠTiáº¿n": 9456,
    "ĠMary": 9457,
    "ĠBudd": 9458,
    "ĠSir": 9459,
    "ĠSÄ©": 9460,
    "ĠSec": 9461,
    "ĠHouse": 9462,
    "Ġdeploy": 9463,
    "okes": 9464,
    "Ġknee": 9465,
    "ĠPower": 9466,
    "ĠKir": 9467,
    "Ġtá»±u": 9468,
    "ĠFellow": 9469,
    "Ġhappier": 9470,
    "ĠWalk": 9471,
    "Ġvá»ĭnh": 9472,
    "Ġdiplom": 9473,
    "Ġ44": 9474,
    "Ġsurf": 9475,
    "Ġsurve": 9476,
    "Ġtechnological": 9477,
    "Ġrelate": 9478,
    "Ġconserv": 9479,
    "Ġexplos": 9480,
    "Ġbehave": 9481,
    "ierra": 9482,
    "Ġguarant": 9483,
    "Ġequation": 9484,
    "Ġmarath": 9485,
    "ToÃłn": 9486,
    "Ġexisted": 9487,
    "Ġlimits": 9488,
    "ĠFrance": 9489,
    "Ġencoun": 9490,
    "ylon": 9491,
    "Ġtraveled": 9492,
    "ietnam": 9493,
    "Ġevolutionary": 9494,
    "Ġreceive": 9495,
    "Ġtranslate": 9496,
    "forward": 9497,
    "Ġdistributed": 9498,
    "iveness": 9499,
    "Ġhistorical": 9500,
    "Ġapplication": 9501,
    "Ġvolunteers": 9502,
    "Ġscratch": 9503,
    "Ġintuitive": 9504,
    "arency": 9505,
    "Ġcommitment": 9506,
    "Ġprecisely": 9507,
    "Ġingredients": 9508,
    "Ġlibrary": 9509,
    "Ġpoorest": 9510,
    "Ġignorance": 9511,
    "ĠWolfram": 9512,
    "Ġfrozen": 9513,
    "Ġafternoon": 9514,
    "100": 9515,
    "Am": 9516,
    "Bill": 9517,
    "Báº£n": 9518,
    "Car": 9519,
    "Other": 9520,
    "Ste": 9521,
    "bal": 9522,
    "cal": 9523,
    "ja": 9524,
    "met": 9525,
    "nik": 9526,
    "rich": 9527,
    "yard": 9528,
    "ĠÃ¡i": 9529,
    "Ġtuá»·": 9530,
    "Ġtube": 9531,
    "Ġlam": 9532,
    "Ġpour": 9533,
    "Ġcháº±m": 9534,
    "anes": 9535,
    "aran": 9536,
    "Ġyield": 9537,
    "Ġvá»©t": 9538,
    "Ġtack": 9539,
    "Ġchá»Ľp": 9540,
    "ĠCÃ¢u": 9541,
    "ĠTre": 9542,
    "ĠTed": 9543,
    "ĠkhiÃªm": 9544,
    "ĠBible": 9545,
    "Ġmá»³": 9546,
    "ift": 9547,
    "inda": 9548,
    "ĠPart": 9549,
    "Ġmail": 9550,
    "ĠLee": 9551,
    "Ġplenty": 9552,
    "Ġleap": 9553,
    "Ġlui": 9554,
    "Ġnowhere": 9555,
    "Ġclus": 9556,
    "ĠVietnam": 9557,
    "ello": 9558,
    "Ġevening": 9559,
    "Ġcrash": 9560,
    "Ġflood": 9561,
    "ĠStewart": 9562,
    "ĠQuá»¹": 9563,
    "Ġinvite": 9564,
    "Ġevalu": 9565,
    "ĠchuÃ´ng": 9566,
    "Ġpolar": 9567,
    "Ġinterf": 9568,
    "ĠkÃ¬a": 9569,
    "Ġrobotic": 9570,
    "Ġinfin": 9571,
    "Ġpopulations": 9572,
    "Ġdisturb": 9573,
    "Ġdistrict": 9574,
    "Ġcurve": 9575,
    "Ġdepth": 9576,
    "Ġairport": 9577,
    "Ġcheaper": 9578,
    "aneously": 9579,
    "Ġspeaker": 9580,
    "Ġzoom": 9581,
    "ĠCarl": 9582,
    "Ġ2012": 9583,
    "Ġpractices": 9584,
    "Ġstatement": 9585,
    "yright": 9586,
    "Ġcombined": 9587,
    "Ġvolume": 9588,
    "Ġtouched": 9589,
    "ĠCharlie": 9590,
    "Ġachieved": 9591,
    "Ġarmy": 9592,
    "etti": 9593,
    "Ġfixed": 9594,
    "Ġcaptured": 9595,
    "Ġtribes": 9596,
    "Ġdramatically": 9597,
    "Ġjournalist": 9598,
    "Ġseeds": 9599,
    "Ġappreciate": 9600,
    "Ġsplit": 9601,
    "Ġlicense": 9602,
    "ĠBrooklyn": 9603,
    "Ġinequality": 9604,
    "ĠScotland": 9605,
    "Ġembedded": 9606,
    "Ġchromos": 9607,
    "Rem": 9608,
    "ThÃ¡": 9609,
    "fortunately": 9610,
    "zler": 9611,
    "Ġ000": 9612,
    "Ġnáº¿p": 9613,
    "Ġaim": 9614,
    "ĠlÆ°á»¡i": 9615,
    "Ġbá»ĳc": 9616,
    "Ġdang": 9617,
    "Ġtrillion": 9618,
    "osaur": 9619,
    "inger": 9620,
    "ano": 9621,
    "Ġngáº©n": 9622,
    "cho": 9623,
    "iters": 9624,
    "inated": 9625,
    "inction": 9626,
    "Ġwhale": 9627,
    "ĠÄĳÃ³m": 9628,
    "ĠxÃł": 9629,
    "Ġdozen": 9630,
    "erences": 9631,
    "ĠTiáº¿ng": 9632,
    "Ġug": 9633,
    "ĠMed": 9634,
    "Ġate": 9635,
    "ĠSome": 9636,
    "agon": 9637,
    "ĠHis": 9638,
    "ĠLike": 9639,
    "Ġwanting": 9640,
    "ĠRand": 9641,
    "Ġluá»ĵng": 9642,
    "Ġworker": 9643,
    "Ġenemy": 9644,
    "Ġneedle": 9645,
    "ĠWil": 9646,
    "ĠOp": 9647,
    "Ġdisorder": 9648,
    "Ġherself": 9649,
    "Ġsmoke": 9650,
    "Ġcolum": 9651,
    "rence": 9652,
    "ription": 9653,
    "openh": 9654,
    "Ġextent": 9655,
    "Ġattrib": 9656,
    "hips": 9657,
    "Ġelections": 9658,
    "Ġrooms": 9659,
    "Ġtested": 9660,
    "Ġsurely": 9661,
    "Ġparas": 9662,
    "Ġnhiá»ħu": 9663,
    "Ġsuccessfully": 9664,
    "Ġinnoc": 9665,
    "Ġincreases": 9666,
    "Ġabsor": 9667,
    "Ġaccessible": 9668,
    "Ġphotography": 9669,
    "Ġ1984": 9670,
    "Ġangle": 9671,
    "ammad": 9672,
    "ĠClint": 9673,
    "ĠArabic": 9674,
    "ĠMoore": 9675,
    "Ġhungry": 9676,
    "Ġoptimistic": 9677,
    "Ġoccurred": 9678,
    "ĠParkinson": 9679,
    "ĠSuper": 9680,
    "Ġdestroyed": 9681,
    "ĠHawai": 9682,
    "ĠPalestine": 9683,
    "ĠPeace": 9684,
    "ĠAntar": 9685,
    "ĠJesus": 9686,
    "osaurs": 9687,
    "ĠvÃµng": 9688,
    "ĠVirginia": 9689,
    "Ġfossil": 9690,
    "Ġdopamine": 9691,
    "25": 9692,
    "80": 9693,
    "Comp": 9694,
    "Láº¥y": 9695,
    "bits": 9696,
    "cence": 9697,
    "mble": 9698,
    "nie": 9699,
    "pet": 9700,
    "riend": 9701,
    "ule": 9702,
    "á»£p": 9703,
    "Ġtweet": 9704,
    "Ġtháº¯t": 9705,
    "Ġbá»ĵi": 9706,
    "Ġven": 9707,
    "ĠkiÃªng": 9708,
    "Ġgáº¡ch": 9709,
    "Ġdá»ĭp": 9710,
    "Ġchap": 9711,
    "Ġchamp": 9712,
    "onna": 9713,
    "Ġtoler": 9714,
    "ĠngÆ°ng": 9715,
    "otion": 9716,
    "Ġron": 9717,
    "Ġcá»ĵ": 9718,
    "ician": 9719,
    "Ġquarter": 9720,
    "Thiáº¿t": 9721,
    "ThÃłnh": 9722,
    "amas": 9723,
    "Ġraising": 9724,
    "Ġstations": 9725,
    "ĠCor": 9726,
    "ĠTy": 9727,
    "ĠhoÃłnh": 9728,
    "Ġabandon": 9729,
    "ĠBi": 9730,
    "ĠBre": 9731,
    "ĠBosn": 9732,
    "ĠNelson": 9733,
    "ĠHave": 9734,
    "Ġintention": 9735,
    "ivered": 9736,
    "ĠLife": 9737,
    "ĠDid": 9738,
    "ĠRo": 9739,
    "ĠRome": 9740,
    "Ġbranch": 9741,
    "Ġages": 9742,
    "iá»ħu": 9743,
    "ĠJord": 9744,
    "Ġbull": 9745,
    "ĠÄĳoáº¡t": 9746,
    "Ġflies": 9747,
    "ĠStar": 9748,
    "Ġremains": 9749,
    "Ġremoved": 9750,
    "Ġreco": 9751,
    "Ġconservation": 9752,
    "Ġimaging": 9753,
    "Ġimagined": 9754,
    "Ġextinct": 9755,
    "Ġoldest": 9756,
    "ĠArthur": 9757,
    "Ġengaging": 9758,
    "ups": 9759,
    "Ġstandards": 9760,
    "Ġcharity": 9761,
    "Ġreference": 9762,
    "Ġassist": 9763,
    "Ġadvoc": 9764,
    "Ġhousehold": 9765,
    "Ġmeetings": 9766,
    "Ġexpectations": 9767,
    "Ġprotected": 9768,
    "Ġanticip": 9769,
    "Ġoccasion": 9770,
    "Ġvillages": 9771,
    "Ġeradic": 9772,
    "ĠColumb": 9773,
    "Ġappears": 9774,
    "Anyway": 9775,
    "ĠChild": 9776,
    "related": 9777,
    "Ġaspects": 9778,
    "Ġsurgeon": 9779,
    "ĠTeszler": 9780,
    "ĠTasmanian": 9781,
    "ĠDisney": 9782,
    "Mark": 9783,
    "TS": 9784,
    "TÆ°á»Łng": 9785,
    "hop": 9786,
    "nic": 9787,
    "rid": 9788,
    "tes": 9789,
    "Ġáº¥u": 9790,
    "Ġtuá»µ": 9791,
    "Ġna": 9792,
    "ĠÄĳÃºc": 9793,
    "ĠÄĳuá»ĳi": 9794,
    "Ġsá»į": 9795,
    "Ġmarch": 9796,
    "Ġicon": 9797,
    "Ġox": 9798,
    "ĠgáºŃy": 9799,
    "Ġder": 9800,
    "Ġtries": 9801,
    "ounce": 9802,
    "eness": 9803,
    "isy": 9804,
    "Ġweigh": 9805,
    "eters": 9806,
    "sec": 9807,
    "ĠTah": 9808,
    "Ġabund": 9809,
    "ĠMur": 9810,
    "ĠBh": 9811,
    "ĠBell": 9812,
    "ĠNet": 9813,
    "Ġjihad": 9814,
    "ĠHom": 9815,
    "abeth": 9816,
    "Ġspinal": 9817,
    "ĠkhoÄĥn": 9818,
    "ĠLang": 9819,
    "Æ°á»Łi": 9820,
    "izabeth": 9821,
    "ĠRoy": 9822,
    "ĠThá»Ŀi": 9823,
    "roke": 9824,
    "Ġblow": 9825,
    "Ġproof": 9826,
    "Ġscore": 9827,
    "Ġdecline": 9828,
    "ĠTEDGlobal": 9829,
    "Ġevolve": 9830,
    "Ġinstant": 9831,
    "ĠAndrew": 9832,
    "Ġngá»Ľ": 9833,
    "airs": 9834,
    "Ġexploration": 9835,
    "ĠÄĳÃ´la": 9836,
    "ĠArgent": 9837,
    "Ġproto": 9838,
    "Ġbreaking": 9839,
    "Ġprofit": 9840,
    "Ġdirector": 9841,
    "Ġfeeding": 9842,
    "Ġconsume": 9843,
    "Ġsilent": 9844,
    "Ġdescribes": 9845,
    "ĠChristian": 9846,
    "Ġbanks": 9847,
    "ounced": 9848,
    "Ġprosper": 9849,
    "Ġcelebrate": 9850,
    "Ġinstruments": 9851,
    "ĠAlexander": 9852,
    "Ġunlikely": 9853,
    "ĠiPod": 9854,
    "ĠnhÃ³c": 9855,
    "Ġbicycle": 9856,
    "ĠTanzania": 9857,
    "openhagen": 9858,
    "CA": 9859,
    "Finally": 9860,
    "Girl": 9861,
    "Her": 9862,
    "Sp": 9863,
    "Sah": 9864,
    "ba": 9865,
    "cue": 9866,
    "gu": 9867,
    "lims": 9868,
    "rol": 9869,
    "rist": 9870,
    "while": 9871,
    "ĠÄĳáºŃm": 9872,
    "Ġah": 9873,
    "Ġboss": 9874,
    "Ġbá»ĥ": 9875,
    "ĠháºŃn": 9876,
    "ĠhÃŃt": 9877,
    "Ġkiss": 9878,
    "Ġpace": 9879,
    "atom": 9880,
    "Ġchos": 9881,
    "Ġrising": 9882,
    "Ġfifth": 9883,
    "ĠInt": 9884,
    "Ġrely": 9885,
    "Ġants": 9886,
    "ĠhoÃ£n": 9887,
    "ĠAv": 9888,
    "ĠBel": 9889,
    "ĠSinh": 9890,
    "Ġmá»¡": 9891,
    "unning": 9892,
    "ĠKenn": 9893,
    "Ġ48": 9894,
    "ĠUy": 9895,
    "ternational": 9896,
    "Ġboom": 9897,
    "Ġgenius": 9898,
    "Ġ2030": 9899,
    "iana": 9900,
    "Chris": 9901,
    "Ġscary": 9902,
    "akota": 9903,
    "Ġdecre": 9904,
    "Ġappeared": 9905,
    "Ġslides": 9906,
    "amps": 9907,
    "Ġrá»ī": 9908,
    "Ġlovely": 9909,
    "Ġbiom": 9910,
    "irds": 9911,
    "ĠWhite": 9912,
    "Ġdistract": 9913,
    "Ġmorality": 9914,
    "Ġclassical": 9915,
    "Ġprovided": 9916,
    "Ġspeakers": 9917,
    "Ġmissed": 9918,
    "Ġdelivered": 9919,
    "Ġpresented": 9920,
    "class": 9921,
    "ĠLeban": 9922,
    "Nghá»ĩ": 9923,
    "Ġbreathing": 9924,
    "Ġdivided": 9925,
    "Ġconcert": 9926,
    "Ġconclud": 9927,
    "Ġefforts": 9928,
    "Ġcrying": 9929,
    "Ġsavings": 9930,
    "Ġdemonstrate": 9931,
    "Ġpaintings": 9932,
    "xiety": 9933,
    "ĠCentral": 9934,
    "ĠNhÃ¢n": 9935,
    "ĠTá»ķng": 9936,
    "inistr": 9937,
    "ĠOlympic": 9938,
    "Ġtelescope": 9939,
    "Ġhemis": 9940,
    "Ġsuicide": 9941,
    "Ġagenda": 9942,
    "Ġchosen": 9943,
    "Paul": 9944,
    "called": 9945,
    "east": 9946,
    "lies": 9947,
    "parent": 9948,
    "wr": 9949,
    "Ńng": 9950,
    "Ġtiá»ĩm": 9951,
    "ngue": 9952,
    "Ġcoc": 9953,
    "Ġsed": 9954,
    "Ġbones": 9955,
    "Ġváº£": 9956,
    "erom": 9957,
    "Ġnhá»§": 9958,
    "Ġchest": 9959,
    "quar": 9960,
    "Ġngá»Ļt": 9961,
    "alian": 9962,
    "iny": 9963,
    "Ġpherom": 9964,
    "ĠnÃłn": 9965,
    "áº½n": 9966,
    "ĠCopenhagen": 9967,
    "ĠMoon": 9968,
    "ulse": 9969,
    "ĠSer": 9970,
    "Ġmyster": 9971,
    "Ġorbit": 9972,
    "Ġintent": 9973,
    "ĠLine": 9974,
    "Ġplaced": 9975,
    "Ġcomprom": 9976,
    "ĠÄĲáº£ng": 9977,
    "Ġ350": 9978,
    "rawn": 9979,
    "ĠJones": 9980,
    "berry": 9981,
    "aks": 9982,
    "Ġflour": 9983,
    "Ġfinds": 9984,
    "Ġdrone": 9985,
    "Ġappeal": 9986,
    "NgoÃłi": 9987,
    "Ġreli": 9988,
    "Ġinstantly": 9989,
    "ĠNews": 9990,
    "Ġaccum": 9991,
    "Ġexploring": 9992,
    "Ġcake": 9993,
    "Ġconnecting": 9994,
    "ĠghÃª": 9995,
    "ÄĳÃ¢y": 9996,
    "Ġperforming": 9997,
    "Ġintrig": 9998,
    "Ġmeasured": 9999,
    "ĠBeij": 10000,
    "Ġprivacy": 10001,
    "Ġhá»ķng": 10002,
    "Ġfemales": 10003,
    "Nghe": 10004,
    "Ġamongst": 10005,
    "Ġparticipants": 10006,
    "Ġcartoons": 10007,
    "Ġfluid": 10008,
    "Ġrainforest": 10009,
    "Ġignore": 10010,
    "Ġdebt": 10011,
    "Ġthrown": 10012,
    "Ġbeliefs": 10013,
    "Ġinjury": 10014,
    "Ġalgorithm": 10015,
    "Ġfinger": 10016,
    "Ġutter": 10017,
    "uhammad": 10018,
    "ĠJerusal": 10019,
    "Ġneuroscience": 10020,
    "Ġproperly": 10021,
    "Ġagreed": 10022,
    "Unfortunately": 10023,
    "Ġscenar": 10024,
    "Ġorchest": 10025,
    "ĠEthi": 10026,
    "Ġdioxide": 10027,
    "ĠClinton": 10028,
    "Ġrecovery": 10029,
    "ĠJerusalem": 10030,
    "CC": 10031,
    "MS": 10032,
    "Ok": 10033,
    "TÃ¬nh": 10034,
    "Us": 10035,
    "fast": 10036,
    "lings": 10037,
    "tail": 10038,
    "Ġtatt": 10039,
    "Ġcanh": 10040,
    "Ġcens": 10041,
    "ĠÄĳiá»ģn": 10042,
    "Ġlens": 10043,
    "ĠbÄĥn": 10044,
    "Ġbáº§y": 10045,
    "Ġvá»Ļi": 10046,
    "Ġgom": 10047,
    "ĠgÃ£y": 10048,
    "Ġfile": 10049,
    "Ġfool": 10050,
    "oman": 10051,
    "Ġyouth": 10052,
    "using": 10053,
    "Ġquá»·": 10054,
    "Ġbeer": 10055,
    "ĠgiáºŃt": 10056,
    "uyáº¿n": 10057,
    "Ġngháº½n": 10058,
    "imal": 10059,
    "Ġanxiety": 10060,
    "ĠTam": 10061,
    "ĠTake": 10062,
    "through": 10063,
    "ading": 10064,
    "oded": 10065,
    "Ġneither": 10066,
    "ĠSierra": 10067,
    "Ġexternal": 10068,
    "ĠHung": 10069,
    "ĠHel": 10070,
    "iform": 10071,
    "Ġchuyá»ģn": 10072,
    "ĠPop": 10073,
    "Ġspr": 10074,
    "allow": 10075,
    "ĠDá»±": 10076,
    "izoph": 10077,
    "ĠJill": 10078,
    "Ġunits": 10079,
    "Ġgranted": 10080,
    "ĠViá»ĩt": 10081,
    "Ġcoach": 10082,
    "Ġreson": 10083,
    "Ġrescue": 10084,
    "ava": 10085,
    "Ġdrones": 10086,
    "ĠInternational": 10087,
    "rix": 10088,
    "Ġimagery": 10089,
    "Ġgrows": 10090,
    "cohol": 10091,
    "Ġgenerated": 10092,
    "Ġrobust": 10093,
    "Ġmusicians": 10094,
    "Ġcuriosity": 10095,
    "Phá»¥": 10096,
    "Ġfailing": 10097,
    "Ġzone": 10098,
    "Ġsensory": 10099,
    "Ġpresentation": 10100,
    "ennis": 10101,
    "Ġpleas": 10102,
    "ylvia": 10103,
    "Ġessence": 10104,
    "Only": 10105,
    "Ġinspiring": 10106,
    "Ġconsumers": 10107,
    "Ġcombat": 10108,
    "adesh": 10109,
    "Ġdepending": 10110,
    "Ġrepresented": 10111,
    "Ġanger": 10112,
    "Ġfunctional": 10113,
    "Ġinstitution": 10114,
    "Ġpupp": 10115,
    "Ġsurprisingly": 10116,
    "ĠMoz": 10117,
    "Ġhackers": 10118,
    "iminals": 10119,
    "Ġhalluc": 10120,
    "ĠnhÃ¡nh": 10121,
    "Ġcooperation": 10122,
    "Ġnorthern": 10123,
    "Ġboundaries": 10124,
    "Ġtalent": 10125,
    "ĠPalestin": 10126,
    "Ġcorporate": 10127,
    "Ġsculpture": 10128,
    "Ġtitle": 10129,
    "Ġpilot": 10130,
    "Ġmicroscope": 10131,
    "Ġunclear": 10132,
    "ECD": 10133,
    "Ġexplanation": 10134,
    "ĠJoshua": 10135,
    "Ġmarathon": 10136,
    "Adam": 10137,
    "Báº¯t": 10138,
    "Bá»ĩnh": 10139,
    "FG": 10140,
    "JH": 10141,
    "Lu": 10142,
    "power": 10143,
    "ĠÆ°Æ¡ng": 10144,
    "Ġtent": 10145,
    "Ġcord": 10146,
    "Ġcats": 10147,
    "Ġmer": 10148,
    "Ġmile": 10149,
    "Ġbáº©m": 10150,
    "Ġhat": 10151,
    "Ġváº¥t": 10152,
    "Ġvital": 10153,
    "Ġpione": 10154,
    "Ġgel": 10155,
    "erd": 10156,
    "erable": 10157,
    "Ġtro": 10158,
    "Ġngá»¥": 10159,
    "leton": 10160,
    "Ġgien": 10161,
    "amed": 10162,
    "opa": 10163,
    "ĠCamp": 10164,
    "Ġhoan": 10165,
    "ements": 10166,
    "Ġshocking": 10167,
    "ĠMet": 10168,
    "ulum": 10169,
    "ĠBern": 10170,
    "aint": 10171,
    "ested": 10172,
    "Ġspell": 10173,
    "Ġspark": 10174,
    "ĠGen": 10175,
    "ournal": 10176,
    "aire": 10177,
    "ĠgiÃ¡p": 10178,
    "ache": 10179,
    "Ġcoord": 10180,
    "Ġsheet": 10181,
    "Ġcommitted": 10182,
    "Ġscript": 10183,
    "Ġdrill": 10184,
    "Ġapple": 10185,
    "Ġletting": 10186,
    "Ġinvolves": 10187,
    "Ġschizoph": 10188,
    "á»īnh": 10189,
    "Ġminor": 10190,
    "Ġminister": 10191,
    "Ġcafe": 10192,
    "ĠAlpha": 10193,
    "Ġrestore": 10194,
    "Ġchaos": 10195,
    "ĠJohnny": 10196,
    "Ġ130": 10197,
    "QuÃ½": 10198,
    "Ġrecognition": 10199,
    "Ġpolicies": 10200,
    "Ġcopyright": 10201,
    "Ġdinosaurs": 10202,
    "Ġrocket": 10203,
    "Ġsticks": 10204,
    "Ġreturned": 10205,
    "Ġaffordable": 10206,
    "Ġstruggling": 10207,
    "flies": 10208,
    "Ġneighborhoods": 10209,
    "Ġmotivation": 10210,
    "Ġshopping": 10211,
    "Ġaxis": 10212,
    "Ġparadigm": 10213,
    "ĠBabylon": 10214,
    "Ġfloating": 10215,
    "Ġadopt": 10216,
    "Ġflew": 10217,
    "Ġvessels": 10218,
    "Ġdolphins": 10219,
    "Ġelephant": 10220,
    "Ġhydro": 10221,
    "ĠZimbab": 10222,
    "Saharan": 10223,
    "RA": 10224,
    "ait": 10225,
    "cred": 10226,
    "capes": 10227,
    "eff": 10228,
    "nes": 10229,
    "rome": 10230,
    "va": 10231,
    "¹ng": 10232,
    "ÃĤ": 10233,
    "Æ¯": 10234,
    "Ġtill": 10235,
    "Ġtasks": 10236,
    "ĠthiÃªng": 10237,
    "ĠÄĳá»ĳm": 10238,
    "ĠsÃºp": 10239,
    "Ġsales": 10240,
    "Ġlá»į": 10241,
    "Ġmáº§m": 10242,
    "Ġbá»ĵ": 10243,
    "Ġbáº»": 10244,
    "Ġdáº¡i": 10245,
    "Ġdign": 10246,
    "Ġdá»ĩt": 10247,
    "ĠtrÃºng": 10248,
    "ĠchÃły": 10249,
    "Ġtoy": 10250,
    "oton": 10251,
    "Ġfirm": 10252,
    "aled": 10253,
    "isa": 10254,
    "itory": 10255,
    "ĠIr": 10256,
    "Ġtam": 10257,
    "Ġbears": 10258,
    "uting": 10259,
    "Ġhamb": 10260,
    "uration": 10261,
    "Ġstable": 10262,
    "Ġstages": 10263,
    "Ġstroke": 10264,
    "ĠCom": 10265,
    "ĠCome": 10266,
    "ĠTay": 10267,
    "ĠBáº±ng": 10268,
    "ĠBert": 10269,
    "ĠSi": 10270,
    "ĠSal": 10271,
    "ĠHir": 10272,
    "Ġorange": 10273,
    "Ġdelic": 10274,
    "abul": 10275,
    "Ġactor": 10276,
    "Ġseek": 10277,
    "ĠRoss": 10278,
    "Ġfeatures": 10279,
    "ĠFar": 10280,
    "ĠFirst": 10281,
    "ĠJane": 10282,
    "ĠJune": 10283,
    "ĠCháº³ng": 10284,
    "ptions": 10285,
    "ĠOf": 10286,
    "Ġcontains": 10287,
    "Ġunderground": 10288,
    "icks": 10289,
    "uba": 10290,
    "Ġcrops": 10291,
    "Ġflip": 10292,
    "conf": 10293,
    "Ġcourt": 10294,
    "Ġpersonality": 10295,
[...]
