#version: 0.2 - Trained by `huggingface/tokenizers`
Ġ t
Ġt h
Ġ a
i n
Ġ ,
Ġ w
Ġth e
r e
Ġ .
Ġ o
Ġ s
a t
n d
e r
o u
Ġ c
i s
i t
Ġ &
o s
Ġ b
in g
Ġ m
e n
a p
Ġ h
o n
Ġt o
Ġ p
Ġ f
e s
a n
ap os
Ġ d
o r
Ġo f
a l
Ġ in
Ġa nd
e d
Ġ l
a r
o t
Ġ y
Ġth at
o m
Ġ g
a s
i c
l e
Ġ I
v e
Ġy ou
l l
Ġ n
Ġw e
Ġw h
o w
Ġ e
u s
Ġ is
l y
Ġb e
u t
i on
Ġ it
e t
Ġ re
en t
q u
c t
Ġo n
l d
v er
a y
i d
T h
A nd
Ġh a
i m
Ġth is
u r
i g
Ġs t
c h
e re
qu ot
r o
k e
Ġf or
c e
i f
s e
Ġw as
i r
a m
o p
it h
Ġa n
Ġd o
s t
Ġa re
o l
al ly
Ġw ith
t h
Ġha ve
r a
Ġa b
Ġg o
Ġ u
Ġthe y
Ġs e
Ġc an
Ġ k
at ion
Ġa s
- -
Ġ --
ou t
h t
Ġl i
Ġs h
Ġw or
a d
S o
Ġ ?
Ġwh at
Ġh e
o d
Ġm e
ou ld
Ġc om
i ll
ver y
Ġn e
Ġa t
Ġab out
g e
t er
an t
Ġn ot
u l
i l
Ġs o
o re
Th e
Ġf r
us t
Ġa ll
er s
Ġ j
Ġe x
Ġc h
Ġd e
Ġ r
Ġ us
Ġm y
ig ht
Ġs om
Ġp ro
Ġp e
e ar
Ġo r
ar t
es s
op le
W e
Ġthe re
Ġc on
c k
at e
Ġpe ople
Ġli ke
u m
u re
i es
o k
i ve
Ġon e
Ġfr om
es t
is t
it y
n t
Ġl o
b le
Ġm a
Ġk n
Ġo ur
us e
Ġbe c
Ġ v
in d
Ġb ut
Ġt e
e ct
Ġ A
r ou
Ġo ut
Ġa l
in k
al l
Ġ :
Ġin t
u n
a use
Ġj ust
I t
id e
a nd
Ġkn ow
Ġs p
Ġthe m
Ġth ing
i e
Ġ S
Ġt r
B ut
Ġse e
Ġthe se
h er
Ġ if
or t
c i
Ġwh o
Ġu p
Ġth ink
Ġ very
Ġg et
e l
ic h
Ġb y
on e
a in
Ġwh en
Ġp l
Ġa ct
Ġyou r
Ġm ore
i v
Ġ C
W h
Ġsom e
Ġgo ing
Ġ 1
Ġ im
Ġy ear
Ġbec ause
e m
Ġha d
ou r
Ġs a
Ġw ould
Ġ M
os t
Ġwe re
o g
Ġh ow
am e
Ġthe ir
in e
Ġt im
os e
as t
Ġwh ich
m ent
Ġwor k
Ġs u
Ġw ant
Ġre ally
Ġlo ok
i z
u ally
a re
Ġcom p
g h
0 0
a ct
re at
ou s
ar d
Ġw ay
a ck
Ġ en
Ġt a
Ġwor ld
a b
h ing
Ġl e
Y ou
an s
Ġex p
a g
th er
Ġh ere
on g
Ġtim e
Ġ B
Ġthe n
Th is
Ġh as
p p
ion s
Ġe very
Ġp er
Ġs ay
ap p
al k
a ge
Ġd on
Ġact ually
Ġm an
Ġ qu
Ġint o
Ġe v
a ce
Ġc ould
u d
en ce
re s
Ġw ill
i ld
Ġ H
Ġf e
Ġyear s
Ġd id
Ġn ow
Ġo ther
N ow
a ch
Ġthing s
Ġa g
it t
Ġwh ere
if f
nd er
Ġ T
Ġ G
Ġn o
f f
The y
ic al
Ġsom et
ic e
Ġd iff
Ġh app
Ġma ke
Ġne ed
Ġu n
Ġan y
Ġth an
Ġ E
Ġt w
Ġc l
Ġp r
Ġ P
Ġbe en
i p
Ġ D
s o
Ġim p
ir st
om e
Ġsa id
Ġst art
i a
Ġa r
Ġ 2
if e
re d
Ġp art
or y
re e
r y
Ġ N
p t
Ġc o
Ġo ver
Ġb u
Ġsomet hing
ow n
Ġtw o
u ch
it e
or m
Ġr ight
Ġd is
ou nt
as s
an g
rou nd
Ġb ack
ig n
Ġm uch
e p
i b
Ġdiff ere
ou nd
Ġf irst
Ġne w
se l
a c
Ġc all
en s
Ġsh e
Ġt alk
u e
Ġth ose
ra in
Ġp o
Ġm o
Ġal so
ol og
Ġsp e
at er
v es
Ġg ot
c ent
l o
Ġ ro
Ġ L
Ġl ife
g ht
Ġcon t
k ing
ul t
Ġl ot
Ġk ind
p le
itt le
Ġa c
Ġl ittle
ve l
w ay
Ġu nder
Ġbe t
od y
Ġh is
Th at
b er
Ġm ost
os s
r u
v ing
Ġp h
Ġa m
Ġf o
e ll
Ġre s
Ġ R
I n
Ġd ay
Ġon ly
at ed
a ble
Ġev en
ation s
Wh at
Ġh er
i al
Ġd es
c o
Ġa d
ic t
Ġb o
Ġman y
Ġta ke
Ġ F
Ġdiffere nt
Ġ ;
rou gh
Ġ W
Ġgo od
an k
Ġs y
i re
Ġsh ow
d u
Ġh um
ic k
Ġe m
Ġre al
an ce
Ġ ide
as e
Ġg r
Ġth rough
Ġa round
in t
Ġdo es
c ess
ot her
Th ere
a k
n ing
Ġp re
Ġcom m
is h
Ġ O
ent s
Ġ J
f orm
Ġte ll
Ġof f
Ġd own
m s
an ge
Ġbe ing
at h
Ġp ut
res s
Ġus e
Ġw r
i ble
Ġth ou
Ġpro ble
f ul
ad e
w n
Ġhapp en
Ġs m
or s
l es
ar k
ar y
x t
Ġin c
et her
j ect
Ġf act
u al
Ġ U
Ġs ame
d ay
Ġc ount
We ll
le ct
i ver
or d
Ġs c
n e
Ġb r
Ġm ay
ow er
Ġtr y
Ġcom e
c es
Ġb ig
st em
y s
t ing
i le
Ġg en
Ġp ers
p er
ur n
ar s
ter n
Ġth ree
Ġde c
Ġdo ing
v ed
Ġf ind
Ġg reat
on s
Ġs ur
Ġexp er
ch n
ic ally
sel f
t e
Ġhum an
Ġper cent
ci al
Ġqu est
f ter
Ġt ra
Ġb rain
Ġwe ll
w e
b e
f ore
Ġch ild
nd s
ĠC h
Ġsy stem
ic s
i ed
Ġa pp
Ġl ear
Ġo wn
Ġl et
Ġst ud
b ody
Ġcall ed
Ġte chn
Ġwh y
Ġin d
at ing
Ġs im
th ing
ig h
i an
Ġ ra
Ġin v
it ion
a v
Ġc r
ill ion
Ġbu ild
Ġm ade
Ġw om
Ġg u
Ġb l
re n
Ġbe l
olog y
r ic
at es
Ġre m
Ġag ain
Ġsh ould
i ous
Ġimp ort
m er
Ġc ol
Ġunder st
Ġc reat
Ġas k
I f
Ġl ong
c on
iz e
l p
Ġ K
Th ank
Ġch ange
ol ut
Ġpers on
it ies
H e
u b
t y
Ġin s
Ġe nd
Ġto day
l ic
p e
ch o
Ġfe el
Ġdid n
Ġthou ght
Ġimport ant
Ġa fter
a il
Ġide a
Ġf l
am p
Ġme an
h e
Ġs ci
f t
is e
e w
Ġc our
Ġ 3
Ġo b
cho ol
Ġl ast
Ġhe lp
Ġstart ed
ere st
Ġunderst and
Ġtr ans
Ġw ent
ĠI t
Ġb as
Ġit s
u ll
es e
Ġin st
op e
Ġre l
Ġst ory
Ġbe fore
Ġproble m
Ġbel ie
i ly
Ġm ight
Ġ ke
k es
ou gh
Ġd r
Ġc ar
Ġdes ign
al s
Ġp ower
Ġpl ay
g an
o b
a ve
Ġp ol
Ġpro du
Ġint erest
Ġh im
Ġne ver
00 0
Ġar t
Ġin ter
Ġg ive
Ġcour se
Ġbet ter
ul ar
e c
u nd
Ġk id
Ġs chool
Ġcon s
Ġt urn
Ġst ill
Ġab le
Ġf am
Ġf ound
ist s
ct ion
il ity
o ld
Ġ ent
Ġpo int
Ġim ag
Ġfe w
er t
Ġlear n
v en
Ġb it
i ence
Wh en
o c
Ġ And
vel op
Ġ& #
Ġc ame
i x
at her
we en
Ġcomm un
Ġne xt
Ġst r
at ch
Ġ The
Ġto g
Ġtog ether
p l
Ġ Y
n g
n ess
Ġe ach
Ġan other
ĠS t
Ġd at
ot h
ĠI n
Ġc ell
er g
Ġlo ve
u c
Ġex am
it ed
Ġcomp le
Ġbet ween
Ġquest ion
en se
Ġde velop
re ad
Ġh igh
al th
iz ed
Ġag o
Ġn um
ar ch
Ġm od
Ġs l
Ġs ort
w ard
a z
Ġc re
is s
Ġpl ace
or k
Ġ1 0
Ġwor d
Ġm in
Ġus ed
Ġ1 9
Ġm on
in ess
Ġdat a
p h
Ġp at
c y
ing s
ure s
mer ic
Ġf our
way s
Ġgr ow
Ġ2 0
Ġto o
Ġex t
Ġg ra
Ġs er
one y
Ġwom en
Ġm om
Ġat t
Ġpl an
Ġexam ple
ap h
Ġl ight
form ation
Ġ You
Ġm ed
Ġf in
Ġl a
o od
Ġm et
if ic
c ed
con om
ere d
Ġw ater
Ġo ld
ce pt
Ġd one
Ġre ad
Ġo p
ec ause
Ġli ve
Ġc are
Ġsm all
Ġ We
Ġl ess
Ġdoes n
et s
ĠA meric
Ġwant ed
Ġtechn ology
co nd
Ġm us
at ive
a h
g er
Ġbe h
Ġlook ing
Ġal ways
ab ly
Ġch ang
Ġbelie ve
Ġ ed
Ġre c
Ġc ent
sel ves
al e
Ġm oney
Ġe conom
Ġe ff
and s
Ġchild ren
Ġe ver
ĠA f
Ġpart ic
Ġg iv
Ġgen er
Ġcomp ut
Ġexp l
Ġre as
Ġwork ing
Ġp oss
Ġwho le
Ġte ach
Ġre p
Ġf ar
Ġb us
Ġt er
Ġa way
Ġbo ok
Ġ 5
Ġh ard
Ġpro ject
Ġe ar
Ġin formation
ation al
Ġmo ve
Ġde m
Ġcount ry
l ed
Ġn at
Ġtry ing
Ġkid s
n ce
Ġh ome
Ġe l
Ġfo od
Ġcre ate
Ġm ind
Ġhe alth
r ies
Ġre g
a ir
h ip
Ġres p
B ecause
Ġl ar
ver s
ur al
Ġ 4
Ġr un
ot e
Ġst u
Ġb i
Ġfr ie
c er
ir d
Ġle ad
olut ion
w h
Ġus ing
Ġm illion
Ġf ive
Ġme ans
at ter
is m
n ect
Ġen g
ment s
p r
on t
ra ct
E D
Ġp ict
Ġv is
g g
Ġf un
Ġs k
Ġc ou
id ent
Ġbec ome
Ġsu pp
Ġp ass
g r
Ġs ing
Ġpro cess
in s
Ġsu b
Ġop en
in es
Ġha nd
Ġsp ace
Ġmay be
Ġf ut
ru ct
Ġac c
Ġin f
it s
a ut
Ġdo ll
Ġcon f
t en
Ġp ub
or ies
ir on
Ġto ok
Ġse cond
Ġthink ing
Ġc or
Ġcomp an
ac es
Ġevery thing
Ġsh are
r ib
Ġw alk
Ġan im
Ġfut ure
o nd
s w
Ġc ap
Ġfor m
Ġb est
Ġor gan
Ġen erg
Ġsay s
Ġqu ite
rou p
Ġ !
ie w
ĠU n
ent ion
u es
Ġpro b
iver s
Ġso cial
Ġcont ro
Ġnum ber
Ġso ci
Ġs ol
og r
Ġen ough
it ing
ver n
al f
Ġe lect
lo b
Ġan sw
Ġle ft
Ġ So
Ġli ves
e k
Ġhe ad
Ġcom es
a ke
n er
et y
H ow
Ġp op
Ġc le
ert ain
Ġget ting
Ġenerg y
Wh y
ou se
Ġ V
Ġg roup
ar r
Th ese
Ġb ody
Ġbe g
k ay
Ġma king
ir l
Ġp res
ĠAf ric
c us
i er
e ver
it al
Ġtim es
Ġmon th
Ġen v
y ing
Ġre se
Ġs et
Ġv al
Ġro om
t s
Ġa ut
Ġmom ent
Ġhappen ed
Ġs ense
Ġspe c
re en
Ġcount ries
ic es
Ġma kes
Ġprob ably
ĠCh in
t ty
Ġj ob
Ġs ound
Ġwith out
r oss
Ġgo vern
Ġcon nect
Ġbus iness
ĠT ED
Ġtalk ing
Ġke ep
im es
Ġdoll ars
Ġ What
Ġinterest ing
Ġto p
Ġw ar
Ġp ie
i or
Ġbe aut
id d
Ġmus ic
Ġrese arch
ur ing
Ġd ist
ang u
i o
Ġde f
Ġreas on
Ġexper ience
Ġto ld
Ġad d
Ġph ot
ap s
Ġpre tty
lob al
Ġenv iron
Ġt y
Ġh ist
Ġed uc
Ġel se
O ne
Ġsci ence
Ġmin ut
Ġyou ng
Ġc ur
Ġ2 00
Ġe y
Ġsu ch
Ġac ross
Ġc ult
Ġall ow
Ġph ys
Ġsim ple
Ġw o
Ġst and
Ġo pp
id ed
Ġpol it
9 3
Ġd et
i ent
ate ly
Ġm atter
Ġcell s
ĠI nd
Ġch o
Ġl angu
M y
Ġs ign
Ġm en
Ġsa w
Ġstu ff
Ġh alf
Ġv ide
9 1
e ad
b o
Ġc ase
Ġs ide
Ġe as
Ġway s
Ġask ed
Ġli ving
d er
Ġst op
Ġpr ot
em ber
Ġsci ent
Ġfam ily
Ġm or
Ġmod el
Ġins ide
w ork
Ġany thing
Ġh our
ort un
g s
Ġbuild ing
Ġh ope
al ity
Ġwe ek
Ġme m
Ġbr ing
Ġb ad
Ġl ist
Ġhapp ens
Ġl ater
ll ow
Ġgo es
m an
ogr aph
Ġcom ing
wh ere
Ġwh ile
ul ation
in ce
e nd
l f
u ght
Ġch ar
Ġwr ong
re am
Ġpartic ular
Ġre st
ĠN ew
Ġp ain
Ġl ab
Ġg lobal
im e
Ġsu c
Ġm ark
ĠH e
Ġsing le
Ġb re
il t
Ġenviron ment
Ġa ir
Ġw atch
m ost
Ġy et
Ġre f
Ġproble ms
F or
u ge
it er
ot t
Ġf ig
S he
iv id
Ġa ge
Ġg irl
Ġe qu
Ġpro f
are nt
Ġs it
Ġha ving
Ġday s
Ġwo nder
or n
Ġhe art
Ġth ous
Ġcomple te
Ġbeg in
Ġse en
Ġcontro l
Ġsome one
Ġmy self
Ġma ch
Ġword s
Ġb illion
Ġeff ect
Ġpub lic
Ġansw er
l ess
as h
Ġc ertain
ap e
ater ial
A s
Ġof ten
ot s
iz ation
Ġle vel
Ġsay ing
Ġam az
en g
Ġhe ar
Ġro b
Ġpict ure
Ġwith in
n o
Ġlo c
Ġide as
Ġs ix
Ġlook ed
i ke
Ġt est
it ive
Ġse lf
Ġs ure
Ġwh ether
Ġb oth
Ġposs ible
Ġc ity
Ġprodu ct
ter s
m ed
Ġk ill
Ġcomput er
Ġf ore
Ġcommun ity
Ġde v
ar th
Ġon ce
l ing
Ġnot hing
iver se
l ish
Ġlangu age
Ġvide o
Ġex act
Ġtr ue
Ġdis e
ĠI s
u p
Ġcl ass
Ġp os
ant s
s ide
Ġf il
L et
un ch
Ġ3 0
Ġm aterial
ap er
Ġind ivid
e e
Ġu nt
gr am
Ġal most
Ġwork s
Ġnew s
re m
Ġb lo
Ġco nd
Ġs w
Ġent ire
Ġis s
Ġch e
Ġma g
H ere
Ġn ight
ro p
Ġamaz ing
read y
ĠAfric a
ur y
p ect
er ing
Ġp ar
Ġbeaut if
en e
Ġinc red
w are
Ġf ace
as es
Ġrem ember
idd le
Ġch all
Ġdis co
Ġbas ically
Ġindivid ual
Ġhe ard
ĠE arth
d e
und red
Ġimag ine
Ġg l
Ġspe nd
e x
Ġc ost
Ġdec ided
Ġlook s
Ġt reat
Ġas s
Ġal ready
Ġf ull
Ġex c
Ġhist ory
e ly
u ck
g et
Ġa ff
im ate
Ġgu y
Ġ Well
ĠIn tern
Ġfrie nds
Ġto ol
ag es
Ġexper im
Ġ5 0
Ġp ast
ust r
iv es
o ck
Ġbu ilt
Ġw a
Ġn et
Ġcont in
Ġad v
Ġsuc cess
i red
Ġd ire
os ed
Ġst ories
n y
Ġh undred
Ġre t
ĠUn ited
k en
at ic
Ġcol lect
Ġfig ure
v ious
Ġst ate
ie ld
Ġfo llow
Ġcou ple
t o
Ġp ay
Ġ1 5
Ġbeautif ul
Ġwas n
Ġor der
Ġres ult
Ġmonth s
â Ģ
Ġgovern ment
Ġpie ce
Ġ âĢ
Ġeduc ation
b s
c ing
l and
Ġ 6
Ġlar ge
Ġpro gram
Ġf ree
Ġ 9
Ġt rain
Ġh uge
ion al
Ġse c
Ġminut es
Ġbec ame
iv ity
ĠH ow
Ġde ep
Ġc a
Ġta king
Ġunt il
b ers
is ing
Ġun iverse
Ġcon st
Ġthou gh
Ġsoci ety
Ġv iew
Ġ This
re t
am es
Ġevery body
Ġwom an
b r
et ic
in ed
Ġ 7
Ġ 8
is ion
us h
Ġthem selves
Ġqu ick
Ġd ra
Ġlearn ed
Ġ They
Ġm ust
Ġfr ont
Ġeng ine
ent al
Ġinc re
Ġapp ro
Ġplan et
Ġte am
are d
Ġexact ly
as ter
Ġcomple x
i ans
Ġj o
Ġm il
Ġd i
Ġ1 00
Ġcreat ed
ĠIntern et
om es
Ġfo cus
ĠSt ates
a king
Ġget s
Ġcan cer
l ine
Ġin no
Ġspe ak
s y
Ġbeh av
Ġf und
Ġcomplete ly
Ġh ouse
ĠâĢ Ķ
Ġhappen ing
Ġstud y
Ġse x
ou th
Ġv ir
Ġkn ew
Ġst ruct
an e
th ers
at s
Ġn ame
Ġquest ions
Ġhour s
Ġsome body
A ll
. .
i en
Ġpro v
Ġpl aces
Ġnat ure
c ul
d d
Ġis n
Ġkind s
Ġit self
ab ility
e ah
Ġv o
Ġla w
Ġshow s
Ġb ab
ic ult
Ġour selves
Ġ ve
Ġc ra
Ġg ame
Ġagain st
Ġem p
r on
Ġa v
Ġon es
Ġdiffere nce
Ġab s
Ġme et
itt ing
Ġde p
Ġevery one
Ġ That
Ġlist en
c le
g est
Ġm ess
og n
a w
i qu
on es
Th en
ĠChin a
Ġopp ortun
Ġ. ..
Ġo thers
Ġs ince
Ġp arent
v ation
Ġcle ar
Ġexp ect
Ġstud ents
Ġob ject
r ow
Ġcl ose
Ġg ave
ut e
Ġwork ed
Ġsomet imes
m ing
Ġm other
Ġinv est
Ġrel ations
Ġexpl ain
Ġh old
as ure
ol ved
at t
Ġr is
ĠN o
ist ic
Ġcompan y
Ġl ine
Ġdiff icult
Ġr ather
er n
act er
Ġra d
i ol
Ġw on
at or
at ure
Ġf ail
Ġd ru
Ġth ird
i ents
h aps
Ġa ud
Ġcould n
Ġdise ase
l ud
Ġne ur
Ġsur pr
Ġthous ands
Ġm ass
ĠA r
Ġinter act
ur s
Ġde al
Ġimp ro
ib ly
Ġsim p
Ġnet work
Ġb ott
ct or
Ġm iss
ĠAmeric an
ent ial
c c
in ation
Ġp ot
id er
Ġam ount
Ġl and
om et
ill ions
Ġhapp y
ivers ity
Ġ ill
Ġd a
Ġn orm
Ġout side
Ġl iter
Ġlear ning
Ġchang ed
Ġty p
k s
Ġar ch
Ġpower ful
o h
ar ing
Ġst ep
Ġco ll
Ġem ot
Ġo il
Ġc ir
Ġal ong
Ġta kes
ĠAmeric a
Ġde l
ĠE ng
Ġsystem s
Ġear ly
Ġmark et
Ġ But
ĠInd ia
Ġbehav ior
Ġ ident
Ġw ind
Ġre v
Ġpop ulation
ĠB r
ĠG od
um p
Ġ Thank
Ġs ens
Ġde ath
el t
Ġturn s
n ot
Ġle ast
Ġspec ies
E very
Ġe le
Ġj our
Ġbl ack
Ġm ic
Ġp red
Ġd uring
Ġsh ort
Ġgu ys
Ġinst ead
Ġpres ent
Ġf ly
Ġ z
ĠE ur
Ġf ear
Ġmach ine
ward s
Ġcult ure
if t
Ġlot s
Ġm iddle
Ġdem oc
Ġanim als
sy ch
ve red
Ġo per
Ġst re
ith er
Ġreal ized
ĠY ork
as ed
Ġe at
Ġeas y
f ect
Ġm ot
Ġp aper
Ġyour self
Ġg reen
Ġext ra
Ġf re
Ġf all
Ġgra nd
Ġre cent
Ġgiv en
Ġprot ect
r an
Ġv ar
Ġim age
Ġar g
O r
Ġd ig
Ġmo le
on y
Ġd ream
Ġha nds
pt ion
ull y
Ġbeh ind
Ġnat ural
ver age
ast ic
j or
Ġc ut
Ġneed ed
i um
o ve
Ġ es
er y
id es
Ġsimp ly
le ep
Ġan t
Ġm ath
Ġneed s
Ġperson al
Ġ Wh
Ġf ight
Ġf ather
Ġsa f
Ġrelations hip
Ġex ist
Ġey es
Ġse ven
ĠG o
Ġn on
ĠS h
Ġcol le
Ġfin ally
Ġp ract
Ġl ow
Ġf ield
f ace
ro om
Ġle ave
Ġcompan ies
Ġh y
Ġcent ury
y ear
er a
Ġte m
Ġre d
Ġst ay
ĠA l
Ġ1 2
Ġeconom ic
Ġtra d
led ge
it ions
Ġf elt
od e
Ġper form
o es
in ary
op h
Ġloc al
Ġma jor
el s
Ġmed ia
Ġsupp ort
Ġpolit ical
Ġb ro
ne y
Ġare a
our ce
Ġturn ed
Ġter r
Ġsu per
Ġac cess
ĠEur ope
Ġl im
ci ous
av or
Ġob vious
Ġval ue
i ally
v ent
re w
Ġcomm on
Ġfam il
os p
e ople
Ġs un
Ġp sych
iv ed
Ġta ken
Ġser v
Ġp le
Ġsp ent
Ġper haps
olog ical
Ġcommun ic
Ġ4 0
Ġfrie nd
Ġbre ak
Ġbegin ning
is on
Ġcan not
Ġch em
Ġem b
id ence
ro du
Ġsee ing
Ġpat tern
Ġrec ord
S ome
Ġt re
ow s
Ġstr ong
Ġmo ving
Ġke y
or th
Ġv iol
Ġlong er
Ġext rem
i pp
o ok
Ġs ent
um ent
N A
ill s
Ġpart s
Ġlead ers
rou ght
c r
in al
Ġle g
Ġe ight
N o
f ully
g en
Ġm ult
u nt
Ġper fect
Ġsur v
Ġphot ograph
Ġwonder ful
Ġquick ly
Ġbe gan
Ġre ach
iv ing
Ġdra w
u le
Ġ1 8
Ġgrow th
Ġc al
Ġs ize
Ġg round
Ġev ent
ĠO h
Ġinc lud
it ch
our ces
Ġ Why
Ġter ms
Ġexperim ent
Ġfil m
Ġparent s
Ġ ess
ut h
Ġspe cial
Ġabs olut
c rib
l t
m b
Ġre qu
Ġco ol
p ort
Ġs qu
Ġl ost
h ood
it ect
Ġp ick
un g
o le
Ġc y
Ġw in
Ġen c
Ġto t
Ġimp act
Ġbo x
A t
Ġwr ite
Ġrob ot
Ġc am
Ġc ities
Ġtra vel
Ġ vers
Ġse nd
Ġmor ning
l er
o y
Ġo ce
Ġne ar
Ġtr ied
Ġbu y
Ġimag es
Ġrep res
r om
Ġg e
b y
Ġan al
re nt
il ar
Ġknow ledge
Ġo cc
ou d
ust ain
O n
b or
Ġc iv
is ed
Ġde ad
Ġrec ogn
rib ut
Ġb ene
Ġappro ach
ive ly
e ed
Ġsp read
ci ally
Ġins p
Ġsit u
Ġpo or
Ġa verage
Ġcon v
Ġfe ed
Ġcons um
Ġweek s
Ġris k
Ġarch itect
s h
Ġme asure
Ġatt ention
Ġs itting
al es
Ġob s
Ġdire ct
Ġopportun ity
Ġs um
Ġs leep
Ġc amp
Ġreal ity
Ġfeel ing
c l
Ġre le
Ġwould n
Ġmean ing
Ġaut h
Ġca us
Ġd est
Ġe ither
ard s
ress ion
z y
at ors
it ut
Ġwhat ever
ate g
Ġf lo
Ġb orn
ict ion
Ġchang es
t on
Ġa p
Ġb rought
en ge
Ġcom b
iz ing
Ġeconom y
gg est
ĠEng lish
Ġo pt
Ġor ig
Ġsu ggest
ang er
Ġstruct ure
ap t
Ġf ast
Ġy es
ck s
ib ility
ac y
Ġbas ed
Ġinterest ed
Ġgiv ing
Ġresp ons
er m
an ces
or ld
ĠD NA
Ġphys ical
O kay
ore d
c om
e xt
Ġ Th
Ġ ice
in y
Ġd ie
ag ed
Ġgrow ing
Ġprof ess
dd en
Ġst age
Ġab ility
Ġsu dden
Ġvo ice
Ġf avor
Ġsee ms
Ġdevelop ed
Ġanim al
Ġtool s
x y
Ġh osp
Ġg one
Ġ2 5
Ġind ust
Ġmod ern
Ġbook s
Ġcir c
Ġf ac
Ġst at
Ġknow n
Ġst e
ra cy
Ġso ft
lo y
Ġreal ize
Ġbl ue
ĠA s
Ġey e
Ġpr iv
Ġaff ect
A n
Ġ /
an n
Ġd ark
u g
Ġa w
ou ch
Ġp ress
Ġre du
Ġfo ot
P eople
e v
Ġh ar
Ġf ire
as c
ain s
Ġsm art
Ġnum bers
T o
Ġv ac
Ġte xt
Ġwr ote
Ġcr it
Ġdevelop ing
Ġiss ue
Ġchall enge
Ġp ull
ur b
Ġinv ent
l ict
it es
Ġma in
Ġthan k
Ġcl imate
Ġdes crib
Ġrun ning
Ġscient ists
Ġincred ible
Ġunderstand ing
Ġn ice
amp les
o f
Ġp ur
Ġp ath
Ġstart ing
Ġpo ll
Ġhum ans
Ġcreat ing
g ed
r al
Ġs ustain
Ġsa ve
ĠCh r
Ġbott om
Ġtrad ition
Ġaud ience
Ġciv il
b on
ch ie
Ġro ad
O ur
a i
Ġm illions
Ġare n
ens ive
Ġgirl s
Ġh or
Ġp ost
ver t
Ġplay ing
o on
Ġs olution
Ġsc ale
ĠChin ese
Ġknow s
Ġwr iting
Ġcol or
Ġh ot
ĠI f
Ġne igh
Ġcon vers
Ġbene f
Ġte le
Ġal one
ĠC an
Ġliter ally
g ress
Ġin tern
pe cially
Ġs ong
is ter
om en
Ġany one
Ġrel ig
Ġsl ow
Ġblo od
Ġare as
Ġsee m
Ġmo v
Ġon line
am ed
Ġr ul
Ġtell ing
i k
l u
Ġf em
Ġcon cept
Ġgu ess
Ġgiv es
Ġinno vation
ic y
ist an
Ġtr uth
Ġbab y
p ar
Ġ There
Ġw all
Ġh on
Ġwor th
Ġdevelop ment
ere nce
Ġas king
Ġexper ien
Ġpred ict
Ġso on
Ġr ate
Ġv ill
Ġsol ve
Ġty pe
le t
Ġfor ward
Ġpro p
Ġpat ients
Ġhundred s
Ġb ra
Ġde g
Ġph one
Ġtechn olog
Ġl if
Ġde pe
ĠW orld
Ġpat ient
i et
Ġpr om
o ll
p or
Ġthe ory
Ġshow ed
Ġtrans form
Ġdisco vered
Ġwh ite
Ġpe ace
Ġsu ff
Ġc op
Ġfor ce
Ġim m
Ġav ail
Ġnorm al
Ġf a
ir th
ell ig
Ġ er
Ġs il
Ġsound s
bo ok
iqu e
er v
as ing
ent ially
Ġv ol
Ġtr ust
Ġar r
Ġcur rent
Ġa st
Ġprodu ce
Ġcent er
Ġgener ation
Ġpict ures
Ġes pecially
Ġfe et
Ġsub ject
Ġrepres ent
Ġindust ry
g o
Ġ Z
Ġm ar
if ied
Ġpro per
Ġmove ment
Ġfund am
Ġpl ant
Ġsim ilar
Ġincred ibly
Ġst ra
Ġtalk ed
Ġchang ing
Ġmaterial s
Ġchall eng
Ġoce an
I s
Ġb ed
le y
us ion
if y
Ġser ious
Ġpot ential
y ond
Ġc ars
Ġg ames
ĠA n
ĠS outh
Ġcomp et
Ġteach ers
N ot
i od
Ġt ouch
ch an
Ġb ur
Ġsur face
os ing
im ens
og le
ab or
ĠL e
i ant
Ġch ance
Ġres ources
Ġinv olved
Ġabsolut ely
Ġa chie
Ġo kay
Ġha ven
Ġconf lict
en ces
Ġdef in
Ġiss ues
in a
is ions
Ġta ble
Ġev olution
Ġse ll
Ġsh ape
Ġhapp iness
ass ion
Ġtra ck
Ġjour ney
y r
Ġb all
il ities
Ġper iod
ĠP h
Ġs on
Ġm arr
Ġam ong
Ġcar bon
p re
Ġs n
Ġd anger
iv al
Ġfun ction
Ġgroup s
Ġdet ail
oh n
b it
Ġt iny
Ġbe yond
Ġre ce
Ġu lt
Ġint ellig
Ġschool s
Ġgener al
Ġvis ual
Ġmic ro
Ġavail able
l ike
Ġs at
Ġb irth
Ġne cess
Ġtechnolog ies
Ġf ur
Ġl ay
Ġst ru
Ġmess age
or ing
ad es
Ġfl ow
Ġvis ion
Ġcho ice
Ġdemoc racy
Ġstre et
Ġsitu ation
Ġ est
Ġso ld
Ġte nd
Ġpr in
Ġrul es
o id
Ġh it
ĠM y
Ġdev ice
Ġrecent ly
Ġd ou
Ġr ich
he ad
Ġelect ric
Ġ8 0
J ust
p ut
Ġw ish
Ġc ause
Ġb reat
Ġre act
ĠF r
Ġfl u
Ġmed ic
Ġproject s
B y
l ight
en cy
Ġf air
Ġ1 1
Ġle a
Ġmet h
Ġ6 0
i ar
is hing
os ph
Ġm ap
ar ily
Ġatt ack
Ġacc ount
Ġindividual s
Ġmil es
Ġrev olution
Ġf u
st r
od ies
Ġne g
Ġlike ly
Ġbec omes
Ġput ting
D o
Ġtell s
Ġoff ice
Ġwalk ing
Ġmem ory
Ġdig ital
C h
Ġse a
Ġbo y
Ġcr oss
cus s
ap an
Ġact iv
ĠB e
Ġbig ger
Ġdr ive
n ed
u it
Ġd ied
ip s
ress ed
Ġpass ion
ĠGo ogle
ay be
Ġev idence
Ġcreat ive
u ly
om s
Ġme chan
Ġex cept
Ġar m
Ġreas ons
m a
y n
et er
Ġdesign ed
Ġmed ical
i res
Ġc e
ra ge
Ġse arch
Ġact ion
ous ly
Ġresult s
o ke
Ġc it
Ġd iv
Ġcomp assion
Ġmo b
f ort
g es
p an
as k
un e
ci ent
Ġimpro ve
S t
t ed
Ġt ar
Ġto wards
Ġevery where
ĠW est
Ġem erg
Ġcr is
Ġa ware
Ġn ine
Ġwas te
Ġli ved
ant ly
ĠJ apan
Ġbl ind
Ġcle an
Ġcra zy
Ġdru g
I V
Ġcons cious
med i
Ġfavor ite
Ġsoft ware
m ore
Ġl ose
ag n
Ġpr im
Ġstart s
Ġph il
Ġbas ic
Ġinst itut
Ġread y
Ġpartic ip
Ġteach er
Ġc art
Ġb ird
Ġl ed
am a
ore s
Ġun f
W ith
v iew
Ġ rain
on se
Ġl t
Ġg t
ct ors
ish ed
olut ions
Ġcertain ly
om ing
Ġex amples
Ġta ught
Ġbig gest
Ġscient ific
Ġb acter
ed om
Ġon to
Ġtr ial
Ġmind s
Ġr id
Ġpr int
Ġmo ved
ĠO kay
Ġsc reen
Ġtrans l
Ġobvious ly
Ġfur ther
Ġm is
Ġp u
es tern
Ġse ver
Ġpro gress
Ġint rodu
ĠS e
iz ations
Ġqu ality
ĠY es
Ġcomput ers
Ġmor al
Ġparticular ly
Ġmole c
Ġviol ence
Ġcit iz
h ow
Ġ Now
al a
Ġe p
Ġme ant
um b
Ġcont ent
Ġcont ext
ru ction
Ġshow ing
Ġextra ord
Ġenc ou
Ġcam era
Ġneigh bor
Ġc ode
Ġf aster
Ġd in
ur ity
ud e
ĠH IV
e ch
g round
ĠT V
Ġcons ider
Ġcommun ities
Ġcho ose
Ġap art
o ot
Ġm ount
Ġn ational
ra b
Ġrep ort
Ġth reat
am m
ĠP r
Ġgr aph
Ġind eed
n ers
Ġa f
Ġdo or
ĠE ast
Ġad m
ak es
Ġdec isions
Ġreg ion
Ġresp onse
Ġsurpr ising
Ġsaf e
Ġauth or
c ome
Ġwh e
Ġstud ent
Ġsol ar
Ġfore st
Ġhosp ital
Ġvac c
Ġsever al
n ces
t ure
et h
Ġmag ic
Ġdru gs
Ġtot ally
A l
A fter
g ing
r ast
w o
Ġs and
im s
Ġbrain s
oth ers
Ġconnect ed
Ġe c
Ġwor se
Ġcl oud
Ġsoci et
ĠBr it
n al
ĠD e
Ġpos itive
Ġvir us
ĠS w
Ġrem ark
Ġstr ateg
Ġthe r
Ġb ar
Ġf ant
Ġf ix
Ġno body
Ġpr ison
uc le
Ġass um
Ġwa it
Ġvir t
Ġcoll abor
u ed
Ġs we
Ġd am
Ġim medi
Ġwant s
ĠJ ohn
Ġcar ry
Ġ19 9
Ġjob s
Ġwatch ing
Ġm ine
Ġf ish
Ġg rew
ver ty
Ġsh own
co nds
pl ace
Ġchem ical
at ory
Ġp ush
Ġwe bs
Ġst ick
op s
Ġad ult
ĠAf gh
Ġallow ed
d om
Ġm ental
Ġnot ice
Ġsp ir
Ġpers pect
te nd
Ġinf lu
Ġdet ect
Ġret urn
Ġtrain ing
M aybe
Ġb odies
Ġd om
ig er
Ġdec ision
ĠY eah
Ġfin an
Ġsk in
Ġinf ect
Ġinclud ing
Ġmov ie
Ġvill age
Ġmeth od
ay s
id ge
ol es
ag ine
ff ic
Ġany body
Ġdis cuss
Ġro ck
Ġapp ear
Ġstud ies
Ġchar acter
Ġpos ition
Ġcontin ue
Ġobject s
Ġtre es
Ġsudden ly
C an
i ers
Ġf asc
Ġ1 6
Ġun ivers
m en
Ġf ill
Ġact ivity
so ci
Ġbuild ings
Ġfar m
Ġlar gest
ught er
Ġ ign
Ġb al
Ġb om
Ġb ank
Ġf ine
Ġn amed
ie f
ĠN orth
Ġevent ually
5 0
I m
in ct
Ġw ife
ou ght
Ġst ress
Ġse par
Ġcl os
Ġpo verty
Ġtem per
Ġcris is
ic le
Ġtr uly
Ġminut e
ĠAfgh an
p ed
r os
er o
it ary
Ġp an
Ġl uck
Ġn ucle
Ġfor ms
Ġde b
ĠS he
itt en
Ġpr ote
Ġinc ome
av id
Ġkill ed
Ġcond itions
Ġtradition al
Ġconvers ation
Ġdepe nd
E ven
r ing
r or
Ġs ource
Ġm ist
Ġcon c
ist ics
Ġpl ants
Ġany more
Ġend ed
Ġsupp osed
Ġspec ific
Ġexc ited
Ġn arr
Ġ1 4
olog ist
Ġspe ed
Ġsy n
lic ated
Ġart ist
Ġsign ific
Ġproduct s
Ġextrem ely
f or
in ing
Ġs olutions
er ve
el ess
Ġcl in
Ġeff ort
Ġpolit ics
Ġlab or
Ġ9 0
c ise
en n
Ġp ack
ul ate
Ġfind ing
Ġ20 1
Ġprov ide
a id
a ur
ig her
se ct
Ġgo al
ĠA t
Ġal ive
ci p
Ġdis app
Ġro le
Ġac cept
oss ible
Ġke pt
Ġpoint s
Ġsort s
Ġsk ills
Ġallow s
Ġexc iting
Ġsec ret
Ġcolle ge
M ost
Ġc ases
od ay
Ġear l
h ere
z z
Ġo xy
Ġr ap
use um
ĠC al
ĠC ar
Ġpub lish
ĠAfric an
Ġlisten ing
Ġsociet ies
F irst
f r
Ġw ild
Ġh igher
Ġl ink
Ġab ove
Ġen j
ĠO K
Ġsur ger
Ġthous and
Ġfre edom
Ġmath em
Ġserv ice
Ġextraord inary
Ġt rou
Ġl ate
Ġwe ight
Ġdo ctor
Ġj ud
Ġco ok
Ġemp loy
Ġs ch
Ġh op
an y
ĠA rab
Ġread ing
Ġmodel s
Ġaff ord
Ġsuccess ful
Ġfamil ies
Ġpur p
ĠChr ist
Ġstru gg
Ġfasc in
c ies
c ape
u be
Ġb unch
Ġdo c
ies t
Ġlo ved
Ġsm ell
Ġeng age
Ġcor re
Ġdet erm
Ġcal cul
Ġfundam ental
i ation
y l
Ġpol icy
ĠIs l
Ġl ands
st er
Ġcon cer
Ġ1 3
Ġexp ensive
Ġany where
Ġimp ossible
Ġsl ight
Ġcap ital
Ġmach ines
Ġrob ots
Ġneur ons
e es
Ġfamil iar
Ġ i
iv en
Ġeff ic
Ġcolle ag
Ġcrit ical
O f
Ġl ower
ĠG e
Ġstra ight
osph ere
Ġc ry
it i
Ġl ad
Ġdo ctors
Ġsome where
Ġ1 7
ĠW estern
Ġgen etic
Ġser ies
Ġlar ger
Ġfun ny
Ġsw im
Ġ7 0
cul es
Ġtyp es
o int
Ġs ou
ar ies
Ġus ually
ĠA m
Ġup on
Ġpl astic
Ġact ual
Ġco ld
Ġfam ous
Ġdem on
Ġpie ces
Ġref lect
Ġpattern s
Ġrecogn ize
f er
Ġth r
le x
Ġbec oming
ĠA ll
Ġtalk s
Ġra nd
Ġra ise
Ġresp ect
Ġgl ass
Ġtreat ment
Ġphil os
l a
Ġm ir
Ġh ur
an a
ra el
Ġse conds
ain ed
ĠB ra
ell ow
Ġgreat er
Ġexpl ore
Ġear th
ĠUn iversity
Ġche ck
Ġsqu are
Ġperspect ive
un k
Ġro ll
ĠW ar
Ġla unch
ustr ial
Ġcitiz ens
t ime
Ġ quot
im b
ro f
Ġsome how
Ġsa ving
Ġright s
ĠR e
Ġstr ange
Ġteach ing
Ġmag n
Ġt iss
is es
Ġf ra
Ġsh ark
Ġr ise
Ġman age
Ġwill ing
Ġbo ard
Ġsc r
ĠAmeric ans
Ġeffect ive
Ġmole cules
urb an
b ack
e gr
v ision
Ġt ur
Ġs ite
am ic
Ġj ump
Ġcomp licated
Ġle gs
Ġsmall er
Ġbeaut y
Ġspir it
Ġfinan cial
Ġdemon str
Ġrand om
T oday
um ents
Ġtr ib
Ġwr itten
Ġshare d
Ġpain ting
Ġvers ion
Ġfem ale
Ġs us
ap es
Ġp ort
Ġg as
ic ed
Ġst ore
ĠL et
Ġpre p
Ġresp ond
ortun ately
Ġsec urity
Ġincre asing
f act
Ġth row
Ġc at
Ġm al
Ġh ous
Ġp age
Ġk il
Ġhe av
Ġus es
ep end
ound s
Ġstand ing
Ġdisco ver
Ġinno v
Ġopt im
S e
b b
om m
ent ly
Ġas soci
Ġgen es
Ġdec ades
Ġ19 8
Ġhealth y
Ġorgan izations
Ġcost s
Ġincre ase
Ġbab ies
Im agine
Ġ X
re st
Ġd rop
us s
Ġst ar
ir ing
Ġan g
ul f
il ing
Ġr an
Ġtr ick
Ġexp ress
ĠH ar
Ġhuman ity
Ġorgan ization
Ġconnect ion
Ġlevel s
Ġachie ve
Ġbacter ia
Ġwebs ite
er man
it ation
im p
ag ing
Ġsy m
ĠK en
Ġcor ru
Ġdist ribut
Ġess entially
re pre
Ġb read
Ġbeing s
Ġold er
Ġple ase
Ġdanger ous
repre ne
b all
le br
ĠI ran
Ġfor th
Ġpr os
ĠD o
ac ity
Ġspe ech
Ġpract ice
ĠAfghan istan
at ically
Ġe th
Ġdes p
Ġthrough out
Ġrem ind
Ġfin al
Ġengine ering
Ġimmedi ately
a ff
a ign
al y
Ġcom fort
Ġal g
ther n
Ġcreat ivity
ĠIs rael
Ġelectric ity
Ġremark able
Ġsurger y
p ing
r ay
u gh
Ġc ust
Ġp en
Ġf it
Wh ere
ab les
Ġbelie f
Ġbi ology
Ġmob ile
Ġfant astic
Ġc ard
Ġe t
Ġenvironment al
Ġarchitect ure
Ġm ention
Ġh ole
Ġp ark
Ġd ro
Ġn ation
Ġev olved
Ġco ff
Ġpol ice
Ġstand ard
Ġtele vision
n ter
Ġ urban
it ude
Ġm atch
Ġd ad
ul ner
Ġch air
ĠM an
Ġprodu ction
Ġinter view
Ġfollow ing
Ġdi agn
Ġclear ly
Ġhon est
Ġearl ier
w ord
or row
ar ian
Ġ2 1
Ġco ver
olog ists
Ġph en
Ġoff ic
Ġwalk ed
Ġadd ress
Ġserv ices
Ġintern ational
Ġchalleng es
Ġs al
ot y
id s
se qu
Ġpr ice
ĠR ight
Ġtra de
Ġapp ly
Ġwa iting
Ġce lebr
A ny
a ul
s on
it or
Ġse qu
Ġv ict
Ġun ique
ĠO r
Ġuse ful
Ġunderst ood
Ġhelp ed
cept ion
Ġcare er
Ġopp os
Ġcond ition
Ġmil itary
Ġve h
Ġemot ional
Ġpriv ate
B e
er al
Ġn ut
ig r
ber t
Ġra ce
Ġent reprene
Ġpop ular
Ġmass ive
Ġperform ance
Ġenj oy
Ġm ix
Ġwe b
Ġwh ose
id ing
im ately
Ġst ars
th ough
Ġsh ock
ist ry
em ent
res h
Ġem ail
Ġsur round
Ġhim self
Ġaut om
Ġsex ual
att le
Ġsum mer
Ġintellig ence
Ġcoff ee
Ġt ask
ra q
Ġsh ift
Ġthere fore
Ġsp ect
Ġsp aces
Ġpre vent
Ġsk y
Ġhist or
Ġcho ices
Ġclass room
Ġexperim ents
Ġneighbor hood
Ġphen omen
th e
ĠC ity
ĠM ar
Ġspe aking
ĠF ace
bo ard
ash ion
Ġblo ck
Ġmedic ine
Ġslight ly
Ġ ir
re es
Ġl ines
Th ose
ra d
Ġex h
ci ence
Ġwere n
Ġfo ld
Ġdec ide
Ġcreat es
Ġval ues
Ġmult ip
Ġ When
Ġm ale
Ġh us
us ed
Ġfor get
Ġwor ry
Ġv ulner
and a
ĠS p
Wh ich
ud d
ĠD avid
Ġcent ral
Ġphys ics
Ġrad io
a f
i ate
u ing
Ġw ood
Ġin sect
Ġwe alth
ĠB l
ren ch
Ġgra du
Ġphot o
Ġdire ction
Ġcomplex ity
Ġmeet ing
Ġdest ro
I D
o e
Ġh all
Ġd ance
Ġy eah
ow d
Ġdo g
Ġse lect
ĠS te
ĠG erman
ip t
ĠD on
Ġhigh ly
iss ion
Ġlight s
Ġnetwork s
Ġmot iv
An other
R ight
S omet
Ġ Q
is ms
ĠI raq
im in
ĠL ond
Ġinst ance
Ġ19 7
Ġfocus ed
Ġda ughter
Ġnucle ar
Ġpurp ose
o ff
y le
Ġ $
al ing
ic ians
Ġe ating
ce ed
Ġdr ink
Ġansw ers
Ġcult ural
Ġcamp aign
Ġinvent ed
ĠLond on
Ġa head
os es
Ġlo g
Ġen orm
Ġdiffere nces
Ġtrans port
Ġprof ound
Ġspend ing
ex ic
Ġsurv ive
Ġtemper ature
ĠFace book
Ġt ree
en ing
Ġst ates
am s
Ġan n
st ead
ol ve
Ġint egr
Ġ2 4
Ġpart y
ib r
Ġbo ys
ord er
Ġdec ade
Ġdr iving
Ġsl ide
Ġlaw s
Ġstre ets
Ġtar get
Ġbird s
Ġtrou ble
r atic
Ġo h
Ġd ying
Ġin j
st e
Ġsh op
Ġwor st
Ġte en
ĠA d
ĠA ustr
ĠC l
Ġgreat est
lic ations
Ġocc ur
Ġcust om
i ot
y stem
Ġs ad
at ives
Ġc and
Ġc atch
en ed
Ġg ent
Ġr ange
Ġor d
ĠM us
app ed
Ġad apt
Ġbr ings
Ġart ists
Ġter m
Ġshare s
Ġvar ious
Ġanal y
Ġinsp ired
c ope
Ġt rem
or ge
op er
ra id
Ġsh ot
ad em
ant ic
ĠM iddle
Ġinst r
Ġelect r
Ġbre ast
Ġdise ases
Ġident ity
Ġcaus es
Ġet c
Ġhus b
o x
r ied
Ġto wn
an cy
ar m
ce ll
Ġsy mb
Ġterr ible
Ġaf raid
m ic
u ct
Ġ ver
Ġw is
Ġb ase
Ġm ut
Ġd imens
or ith
Ġnot iced
il es
Ġres ist
Ġcommunic ate
Ġdoc ument
g th
y a
Ġf at
Ġwe ap
Ġst ren
Ġfr ame
Ġcon sequ
ĠM exic
Ġla ugh
Ġscient ist
Ġdirect ly
Ġpublish ed
a x
w ise
Ġp aid
Ġf ing
or ry
Ġl oss
ke y
if orn
th etic
Ġr ule
Ġv ast
Ġact ive
ĠM c
ĠB ecause
ĠP ar
Ġdr am
Ġ5 00
Ġcap acity
Ġvar i
Ġsustain able
Ġmathem at
Ġalg orith
n a
Ġ ing
Ġg ala
et t
Ġknow ing
ĠC ong
Ġtw ice
Ġtra ffic
Ġbl og
Ġmiss ing
Ġfly ing
Ġflo or
Ġexperien ces
ĠCal iforn
Ġstren gth
z e
al ia
il le
ĠC ent
ĠC ol
lo ad
Ġcomm er
ĠO ne
Ġrel ative
ĠInd ian
Ġjour nal
Ġleaders hip
Ġ ut
ed d
ed ia
as hing
Ġat m
Ġcomp on
itt ed
Ġmost ly
Ġind epend
Ġposs ibly
Ġsupp ly
Ġstop ped
eng u
Ġinstitut ions
Ġclos er
S h
z il
Ġa id
Ġta x
Ġdis pl
Ġbel ow
Ġbas is
ruct ure
Ġmem bers
Ġdev ices
Ġjo in
Ġemot ion
Ġdel iver
Ġdou b
Ġgent le
ĠCaliforn ia
D P
i os
Ġt ens
Ġr ough
ph one
Ġconf erence
Ġcontro ll
Ġaut ism
idd en
Ġfore ign
Ġbro ad
Ġi P
Ġcolleag ues
S A
g ain
n ow
Ġl ack
Ġre ve
Ġfor ces
em pt
iz es
Ġmom ents
Ġphot os
Ġopportun ities
Ġz ero
Ġredu ce
Ġmolec ule
Ġwhe el
Ġphilos oph
ID S
L ike
Ġp ig
an ced
Ġd yn
Ġbe at
Ġno vel
Ġun c
Ġprodu ced
Ġcap ture
Ġelect ron
Ġair pl
Ġcommunic ation
Ġtiss ue
Ġcorru ption
f l
it ter
Ġsh aring
Ġnot e
ĠS c
Ġfeel s
Ġhelp ing
Ġplay ed
Ġbring ing
Ġhear ing
Ġsw itch
Ġav oid
g y
u fact
Ġb an
Ġh ang
Ġp engu
Ġf ashion
Ġfor t
Ġag ree
ĠF or
ath y
ĠCh ar
Ġcr owd
Ġpass ed
Ġinf rast
Ġprogram s
Ġmiss ion
Ġorig inal
Ġbra nd
i age
at r
er vation
Ġf ro
Ġg un
ib er
Ġpo et
ord ing
ric ult
oth es
Ġatt ract
Ġjo y
Ġnear ly
Ġvol unt
Ġoppos ite
ste in
L ook
Ġf aces
Ġst em
Ġse ed
Ġli ber
ĠD r
Ġsc an
Ġstud ying
Ġra re
Ġacc ur
Ġadd ition
Ġsignific ant
ĠBra zil
s c
os h
Ġor g
ĠM r
ĠT w
Ġam b
ĠR uss
Ġins ight
Ġvis it
Ġstruct ures
Ġemot ions
Ġrelationship s
Ġrelig ion
Ġdeg rees
Ġconscious ness
Ġpu zz
Ġoxy gen
Ġhusb and
M any
Ġd en
Ġre con
ch es
Ġfor g
ad a
ant age
Wh o
Ġman ufact
Ġapp l
Ġimportant ly
Ġfu el
Ġther ap
T wo
t le
Ġb ought
Ġto m
ic king
Ġre b
Ġha ck
il s
ĠT r
Ġany way
Ġpass word
Ġfore ver
Ġnecess ary
Ġcorre ct
Ġcommer cial
os qu
ar ia
ct ually
ĠA IDS
and er
Ġsur ve
Ġfull y
Ġbenef its
Ġluck y
Ġtrem end
Ġatm osphere
F rom
g n
k y
Ġc ru
Ġm outh
am b
ear s
art ment
Ġv ote
Ġal though
ud ience
ĠP l
ell ing
In stead
Ġdifferent ly
Ġcons id
Ġeas ily
Ġentire ly
Ġfail ure
Ġbro ken
Ġrequ ire
Ġtot al
Ġwis dom
D on
h and
l im
o o
w ide
Ġw ide
ou n
Ġc ogn
Ġm useum
Ġre co
Ġha ir
Ġme as
ĠN ational
Ġback ground
ac ed
ak er
Ġimag ination
Ġless on
Ġrest aur
Ġmag az
Ġarg ument
Y es
v est
os ystem
Ġh om
ic les
Ġan cient
Ġhe at
Ġv ot
Ġev ents
ĠP ro
Ġbr ill
Ġind ustrial
Ġcol ors
Ġcor ner
Ġpar ad
Ġmajor ity
Ġtur ning
Ġenorm ous
is ible
Ġb atter
ve re
if ically
if ying
ir t
ĠM e
ag er
Ġcl a
ĠN or
Ġco oper
ĠF rench
Ġmet aph
Ġlead ing
Ġmatter s
Ġequ al
Ġche ap
Ġdeep ly
Ġwind ow
Ġstat istics
Ġsymb ol
b ased
g ar
z en
re et
Ġs ick
ap ers
ic on
Th ink
Ġst ream
Ġhe ld
Ġch ick
ag ers
Ġun like
ite ly
Ġgr own
ys is
Ġ19 6
Ġdem and
Ġnews p
Ġhy p
Ġrespons ible
Ġdescrib e
Ġmount ain
Ġec osystem
Ġrap id
h ouse
Ġc ore
Ġb le
Ġb urn
Ġp et
Ġd iversity
ed ic
rou d
ain ing
Ġag ricult
Ġcr ime
Ġ3 00
Ġhy d
Ġlands cape
v ity
Ġb one
Ġm amm
Ġl unch
ro ll
Ġsh oot
ul ous
ul ations
ure d
ĠM ich
Ġwork ers
lo ck
Ġgovern ments
pect ed
Ġgrand m
ĠWh ere
Ġsuff ering
Ġrece ived
ĠBrit ish
Ġfascin ating
Ġinfrast ructure
g al
h a
h y
l i
v ant
w in
Ġb ud
Ġto r
Ġf ab
Ġn one
Ġsp ort
Ġexp and
Ġcont act
Ġam p
Ġfl ight
Ġacc ident
Ġdream s
Y eah
e qu
w ater
Ġb ul
Ġm ort
Ġm osqu
Ġbe es
Ġre ward
ver se
Ġus ers
ĠH ere
Ġgot ten
Ġoff er
How ever
Ġresearch ers
Ġphys ic
ograph y
ĠHe y
Ġinteract ion
Ġfight ing
Ġextrem e
Ġbenef it
Ġbreat h
m ark
re ci
Ġb ag
Ġb ound
Ġm id
Ġre pe
Ġse ctor
Ġsh oes
Ġal tern
Ġjust ice
ĠC on
Ġshould n
Ġreg ular
Ġeffect s
Ġill ness
Ġemb ra
Ġrespons ibility
Ġpress ure
Ġstrateg y
Ġdestro y
A re
Y our
k ed
Ġt ough
it able
en cies
Ġp air
Ġp roud
Ġg ift
Ġn or
th es
Ġsh ip
ers on
Ġsp ot
ĠS m
Ġtr ip
Ġsee med
Ġcomp ared
ord ers
Ġrem ote
Ġcreat ures
Ġill ustr
ipp ed
Ġleg al
ĠJapan ese
Ġadult s
Ġbal ance
Ġdesp ite
k n
m p
Ġg ay
ic a
Ġwe ar
Ġe gg
ur ch
ter m
Ġex er
Ġr out
ĠM ars
Ġcl imb
Ġchild hood
Ġapp e
Ġatt empt
ĠEurope an
cr ipt
Ġdefin ition
Ġprote in
f ord
Ġh ate
Ġh ost
Ġha bit
ĠS an
el lect
ĠM in
Ġqu ant
Ġpr ior
ĠP al
ĠR o
Ġpres ident
Ġcollect ive
Ġvo ices
Ġperfect ly
Ġep ide
Ġdin ner
Ġt um
es ome
es ign
Ġd an
Ġman aged
ia ble
Ġcont ribut
Ġra ised
Ġmet ers
Ġ4 00
Ġve get
Ġele ment
ĠAs ia
Ġfa ith
Ġmarr ied
Ġdom in
Ġfarm ers
Ġvolunt e
Ġt al
Ġt ast
Ġg iant
Ġre place
Ġal t
Ġtr uck
Ġthink s
ĠH a
Ġbr other
Ġtrans m
Ġrel ated
Ġstu ck
Ġbi ological
Ġpain t
Ġequ ip
Ġtyp ical
Ġdraw ing
Ġconv in
Ġtremend ous
ar ter
Ġy ellow
Ġgo ld
Ġas pect
Ġcon cent
Ġint ellect
Ġpl at
ĠB ill
ĠG DP
ĠE very
Ġcall s
ru pt
Ġpre vious
con nect
Ġposs ibility
Ġdist ance
Ġeas ier
Ġfail ed
Ġcy cle
Ġneg ative
Ġinsect s
Ġcogn itive
m on
u ild
v al
Ġw ond
ct ions
ur ies
Ġgen ome
Ġexper ts
Ġsim pl
Ġinv isible
Ġart ific
ific ation
Ġcor por
Ġdisco very
Ġadv antage
Ġfigure d
Ġdi et
Ġfre qu
Ġlim ited
Ġvers us
ĠSw ed
Ġeffic ient
Ġquot e
Ġbrill iant
h ab
re g
Ġb illions
Ġh idden
Ġwe ird
Ġu nd
Ġnot ion
Ġr ound
ĠA re
Ġint u
pp ed
Ġdes ire
Ġlet ter
Ġhelp s
Ġinst all
Ġent er
Ġlead s
Ġlangu ages
Ġwatch ed
Ġinvest ment
Ġant ib
Ġess ential
Ġdou ble
Ġfair ly
Ġequip ment
a u
r ict
Ġt un
Ġc red
ap ed
Ġf ol
Ġf resh
Ġd ue
Ġn ames
Ġst im
Ġsh ut
Ġsh el
ck et
ĠM o
Ġevery day
Ġun ex
Ġpart ners
ĠJ ust
Ġsub st
Ġterr or
Ġfeed back
imens ional
Ġnecess arily
Ġbom b
Se cond
gy pt
Ġconcent r
I T
R e
h old
m y
Ġt our
in c
Ġc ateg
as on
Ġhe ll
ul pt
Ġch ann
Ġr iver
ate ll
app ing
ĠD an
Ġem pt
Ġfact s
Ġsc ulpt
Ġbr idge
Ġexper t
Ġstud ied
Ġcre ation
Ġop in
Ġsuc ceed
Ġhold ing
Ġda ily
Ġmot or
ipp ing
ĠChr is
Ġinflu ence
O ver
i us
Ġw ire
Ġm others
Ġh omes
Ġin cent
ot ic
Ġr at
ok ing
ĠG u
Ġmo ves
Ġdesign er
Ġplan ning
Ġplan ets
Ġed ge
Ġlead er
Ġdoll ar
Ġbusiness es
Ġneur os
Ġcirc um
Ġlea ving
Ġhous es
H is
O h
c les
d imensional
l in
in ally
ro gen
th rop
ort ex
Ġdis c
Ġcomm it
Ġopen ed
Ġkeep ing
Ġdep ression
Ġinvest ig
Ġsurpr ise
Ġarg ue
Ġstrugg le
kn own
c op
m e
m ber
Ġt ick
Ġs ister
Ġs atell
it ute
Ġm ill
Ġm ouse
ap se
Ġwe aring
ow ing
ent ally
Ġme at
Ġcomp are
ĠG reat
ĠE d
ĠE gypt
Ġcl ick
ĠN e
Ġpre cise
Ġapp reci
Ġinv ited
Ġent ertain
Ġfollow ed
Ġrad ical
Ġdam age
Ġincreasing ly
Ġelectr ical
Ġplat form
A ctually
Ġ iron
is co
en er
Ġl osing
ar a
om y
Ġli ked
ĠM ay
ĠB ig
Ġun iversity
Ġdis p
ĠF ran
Ġsur ge
Ġhigh est
pr int
Ġacc om
Ġcap able
Ġbeg ins
Ġvacc ine
ĠMexic o
Ġmetaph or
A gain
p id
Ġ ur
in stein
Ġo dd
Ġm aster
Ġg ar
Ġg lo
ant ed
ess ed
Ġres ource
Ġprot oty
Ġmark ets
Ġ15 0
Ġconst antly
Ġsurpr ised
Ġsurv ival
Ġhar m
Ġexperien ced
Ġprin cip
Ġunivers al
Ġsepar ate
Ġcomfort able
Ġnut r
Ġmagaz ine
O nce
e f
i j
Ġs orry
am i
Ġr ural
ĠA b
ĠS chool
act ers
ib ilities
Ġmo on
ĠL ook
Ġfin ished
Ġchar acters
Ġcompet ition
Somet imes
ĠAustr alia
v ention
Ġb attle
an es
Ġg ather
id ents
ill ed
Ġsu gar
Ġworld wide
ĠW ashing
fore st
Ġbelie ved
oc ol
iss ions
Ġgra d
Ġcou nter
Ġkill ing
Ġsuggest s
Ġprofess ional
Ġdescrib ed
Ġhor r
Ġult imately
Ġassoci ated
Ġphenomen on
Ġdimens ions
Ġweap ons
Ġairpl ane
ĠTw itter
2 0
Ġt it
Ġt on
in ist
Ġp urs
Ġd ry
Ġg ap
Ġg ard
ent y
ce ler
Ġk ing
Ġsh apes
ck ed
Ġint r
Ġexp ression
Ġno ise
ĠE n
ĠP aul
Ġad vert
Ġbr ight
Ġlet ters
Ġval u
Ġchar ge
Ġele ments
Ġdeg ree
Ġconcer ned
l s
r um
Ġd ial
od es
ul s
ess ion
ĠB ang
Ġper ce
Ġper ception
Ġag re
ĠG ra
Ġher o
Ġbel ong
ub lic
Ġhard er
Ġcou rage
Ġnorm ally
Ġident ify
Ġast ron
Ġvirt ual
Ġorg ans
ĠWashing ton
a el
b ble
d o
Ġb and
Ġh oles
Ġma int
ĠS un
Ġfe llow
Ġro ot
ĠF l
ak ed
Ġput s
Ġfact ory
Ġgen e
Ġfin ish
Ġeconom ics
ĠEng land
ĠWh o
Ġmultip le
Ġartific ial
U n
us hing
ir ation
ol ves
ĠN ot
Ġind ic
lic ation
Ġtrans p
Ġtrans formation
Ġgener ations
rib ute
Ġtrain ed
Ġconst ruction
Ġoper ating
Ġpoll ut
Ġslow ly
Ġsold iers
Ġlea ves
ĠKen ya
Ġexh ib
3 0
u ous
re te
at ures
Ġd ots
Ġd iction
om p
ul ated
Ġus er
Ġhas n
Ġar ms
Ġco ast
Ġac adem
Ġad op
Ġacc ording
Ġcur ious
Ġengine ers
Ġaw esome
ĠCan ada
Ġmarr iage
Ġdetail s
Ġcart oon
Ġunex pected
Ġvalu able
i ors
r is
t ies
Ġa x
Ġthe ater
Ġto w
Ġp ow
Ġin form
Ġwh om
Ġst ation
Ġr om
ci pl
Ġta il
Ġfe ll
Ġag ing
ĠG reen
ber g
Ġdes ert
Ġorgan ic
Ġhead s
iqu es
Ġsaf ety
Ġanal ysis
Ġcaus ed
Ġfac ing
Ġcurrent ly
Ġpassion ate
Ġkil omet
Ġdistribut ion
Ġord inary
Ġconsid ered
A udience
G o
g ment
w ood
it als
Ġh un
Ġto ile
Ġd ate
Ġg rain
ce nd
ad s
Ġex ch
Ġqu iet
Ġgr id
Ġsc ene
Ġinter p
Ġext ract
Ġgra de
ograph ic
Ġwonder ing
Ġtest ing
Ġpay ing
Ġchem istry
Ġrelig ious
Ġlif et
Ġproper ty
Ġemploy ees
Ġsym pt
Ġoffic ial
ĠFran c
E ach
T ake
c ers
p rof
z ing
Ġ These
Ġc ow
Ġn an
Ġwe ather
Ġre form
Ġre cy
ul a
ild ren
ĠN iger
Ġsm ile
Ġmus ical
Ġequ ival
Ġcollect ion
Ġlaw y
Ġstep s
ony m
Ġserious ly
Ġunf ortunately
Ġconsequ ences
c ut
l ation
m as
n s
r ight
u h
u its
Ġs ight
it ness
os is
Ġp al
Ġl at
om as
as ion
ol f
Ġch art
um e
ĠM IT
Ġother wise
Ġcl osed
Ġimp l
Ġpart ner
Ġac celer
ne ath
Ġask s
Ġfeel ings
Ġart icle
Ġinter face
Ġatt ach
Ġstu pid
Ġelect ion
Ġcult ures
Ġref uge
Ġcut ting
Ġple asure
Ġsent ence
Ġaw ful
Ġcivil ization
Ġwall s
Ġhur t
Ġmosqu it
Ġempt y
P S
m ar
m et
y e
Ġ era
Ġc os
Ġp ages
Ġp ounds
Ġfr ustr
ĠC o
Ġhad n
Ġbu bble
Ġph ones
Ġpol ic
Ġplan e
Ġset ting
Ġvide os
Ġtreat ed
Ġca ught
Ġlim it
Ġphotograph s
Ġfill ed
Ġmal aria
Ġpengu ins
M ore
W ould
m aking
Ġre pl
ra ft
Ġli qu
Ġsh ad
Ġso il
Ġpe ak
Ġv es
Ġv ibr
Ġwhen ever
ag r
ĠT ur
Ġun less
ĠW ik
Ġhum or
ĠJ e
ĠSt reet
Ġspec ifically
Ġsign al
Ġconst ruct
Ġappro pr
Ġhor se
ĠPh il
Ġswe et
Ġclin ical
Ġshark s
Ġveh icle
Ġtom orrow
Ġconvin ced
c are
p s
Ġt all
Ġc rop
Ġm igr
Ġp il
Ġf al
Ġin ner
ir m
Ġch ain
Ġcon cl
est s
ĠS ch
ĠT imes
ens ion
ak istan
Ġpre gn
Ġfew er
ĠIn st
Ġopen ing
Ġ200 8
Ġemp athy
Ġexpect ed
Ġsend ing
Ġprofess or
Ġneg ot
Ġentreprene urs
Ġing red
& #
f ather
l ife
l ands
m in
r s
v ard
Ġp ure
Ġf le
Ġn erv
Ġre in
ent ed
ur ally
Ġmy th
Ġte les
Ġsp oke
ie nd
ĠE x
ens ity
Ġunder neath
Ġres c
ĠW ith
Ġfour th
Ġsol id
Ġwar m
Ġpolit icians
Ġdeep er
Ġengine er
Ġrev iew
Ġdemoc ratic
Ġpract ical
Ġrele ased
Ġaffect ed
Ġpoll en
Ġarr ived
Ġreact ion
Ġencou rage
Ġdispl ay
Ġequival ent
A r
Y et
c il
s et
u ary
z a
Ã ©
Ġs an
Ġs ources
Ġc up
Ġf ed
Ġe ld
ur ance
Ġst ood
ill ing
Ġr ide
Ġmy st
ĠC O
Ġsa ved
Ġen em
ĠE l
ĠW ill
Ġpre fer
ĠO b
Ġsc en
Ġtechn iques
Ġimport ance
Ġthought s
Ġdr iver
Ġhope fully
eng th
Ġloc ation
Ġmic ros
Ġhon or
Ġmolec ular
Ġlaunch ed
Ġalgorith ms
Ġgrandm other
Ġves sel
H ave
g ra
u x
Ġc ere
or ation
Ġn ur
Ġwe ak
se mb
Ġdo gs
Ġab st
ad d
Ġj u
ate ful
ĠG PS
ang ers
Ġbr ief
Ġrem o
Ġcol on
ĠK ing
Ġplay ers
Ġsing ing
Ġorgan ized
Ġwar ming
Ġdef ine
Ġblo cks
Ġcond uct
Ġpsych ology
Ġabsolut e
Ġge nder
Ġprom ise
Ġdeb ate
Ġrelative ly
Ġgentle men
Ġbatter y
Ġcircum st
Ġliqu id
T alk
a ving
re l
Ġs oph
it arian
le ase
ur d
Ġst aff
Ġfor ced
Ġli br
Ġwor ried
Ġr ational
ĠA pp
Ġsp l
ci ple
ĠC am
Ġman ip
ĠP akistan
ĠD ar
Ġco vered
Ġcont ract
Ġph r
Ġem issions
Ġgr ass
ĠO n
Ġinv ention
Ġmus h
Ġ4 5
Ġprocess es
ogr ap
ĠV al
Ġcir cle
Ġpick ed
Ġhosp itals
Ġbirth day
Ġprint ing
Ġnerv ous
d own
h am
l ines
z ed
Ġl apt
Ġg ain
le ment
Ġn ations
Ġn urs
Ġst ock
Ġse vere
The ir
Ġpro ve
ĠB ro
Ġqu al
Ġun cle
Ġbu ying
Ġdis h
ĠR es
ĠR ep
Ġgood s
Ġtrans ition
Ġart s
Ġmet al
ĠWe b
Ġconnect ions
Ġrequ ires
Ġanal og
Ġconsum ption
Ġemerg ing
Ġvict ims
Ġlifet ime
Ġfal se
R I
c raft
Ġs ides
Ġto ward
or gan
Ġl ect
Ġbe ar
am ent
Ġgo d
Ġsh ame
Ġnot es
ĠB ar
Ġev il
ĠE instein
Ġcall ing
Ġpo em
ĠR ob
Ġ3 5
Ġdesign ers
Ġorgan isms
Ġimpro v
Ġmarket ing
Every body
Ġstrong er
Ġstat us
Ġprin ciple
Ġnarr ative
ĠHar vard
Ġvulner able
Ġindepend ent
Ġdyn amic
Ġepide mic
Ġfol ks
I nd
O K
T ube
o v
o ons
Ġa th
in ations
Ġb ath
Ġl ic
Ġis land
ir ty
Ġan x
Ġli e
ter day
um an
Ġv an
Wh ile
ĠB en
Ġun s
ang ing
ac le
Ġro of
Ġac qu
Ġide al
be ing
Ġtechn ical
Ġfound ation
old s
az z
Ġeng aged
Ġtop ic
Ġsign als
Ġris ks
Ġconv ention
Ġrele ase
Ġintellig ent
Ġinfect ed
Ġmist akes
for ce
Ġheav y
Ġnewsp aper
Ġbud get
Ġmort ality
Ġintellect ual
a j
b ur
u gg
Ġ ille
Ġs am
at in
Ġf iction
Ġn orth
ro ph
Ġdo lp
Ġex tend
are n
Ġun us
ĠL a
Ġcont ain
ath ers
Ġsc ar
Ġgen et
ĠK ore
Ġbit s
Ġmin im
Ġless ons
Ġmem ories
Ġeffect ively
Ġmot ion
Ġcop y
Ġtrial s
Ġlad y
ĠCent er
Ġrestaur ant
Ġcla im
Ġdolp h
h i
t a
at o
it z
Ġto x
Ġin it
Ġn ose
Ġis ol
ent ure
am in
ol ving
Ġli es
Ġhe ight
Ġj ail
Ġex ists
Ġr ig
Ġr ates
um ber
ab ol
Ġco al
ĠJ an
Ġrem ain
Ġfl at
Ġpat ent
Ġser ve
Ġposs ibilities
Ġbott le
Ġrele vant
Ġsil ence
Ġdefin itely
Ġsat is
Ġmanage ment
Ġspect rum
ĠCong ress
Ġrough ly
ĠiP h
S ee
Ġs outh
en ced
Ġh orm
al t
ly ing
Ġre ven
Ġfor mer
ĠA c
Ġact ions
ĠT e
ĠT alk
ĠP er
Ġperson ally
Ġfl ower
Ġtrans pl
Ġprodu cing
Ġmed ium
Ġcare fully
Ġele ph
Ġfall ing
Ġgrand father
Ġprotect ion
Ġer ror
Ġmicro b
Ġlay er
Ġintrodu ced
ĠGerman y
Ġcand id
Ġdram atic
Ġpoet ry
Ġaltern ative
Ġexer cise
Ġprincip les
Ġkilomet ers
Ġsoph istic
b re
er ves
Ġc ave
Ġc ortex
Ġb ow
Ġb ill
al ed
ĠI I
Ġn av
Ġse at
Ġse es
ul ating
est ic
ich ard
Ġ2 000
ac les
ĠYou Tube
Ġexplain s
Ġamount s
Ġocc up
Ġmeaning ful
Ġprofess ion
Ġlif est
Ġdepe nds
Ġ201 0
Ġfort un
Ġforg ot
Ġchick en
Ġcred it
S ince
V ery
c ast
g ets
p oint
u el
Ġt en
Ġw ars
Ġs ke
Ġp ip
al u
Ġin ev
ic ip
Ġsh r
ĠS u
Ġpl ans
em p
Ġen s
ĠB er
ĠP ark
ĠN A
Ġsc ared
Ġstud io
con t
Ġdesign ing
Ġinterest s
Ġpartic les
Ġgener ate
Ġadd ed
less ly
Ġz o
Ġant i
Ġexist ing
Ġest ab
Ġprote ins
Ġdisapp ear
ĠIsl am
Ġmention ed
Ġframe work
Ġcompon ents
Ġinterp ret
Ġcircumst ances
Ġmush room
c est
i h
o ly
y m
Ġw ine
Ġin equ
Ġit em
st ers
Ġsh all
Ġfr ight
Ġch a
Ġch ose
Ġr ow
Ġma k
ie l
ĠB ank
ĠG en
ĠP e
Ġpo ore
Ġgr ateful
Ġrep rodu
Ġbi ke
Ġdef ined
Ġenviron ments
Ġsit es
Ġadv ice
Ġdeal ing
Ġtyp ically
Ġfield s
Ġmult i
Ġintern al
por ary
Ġsubject s
ĠAn ge
Ġtrack ing
Ġparticip ate
Ġintrodu ce
Ġign or
ĠGe orge
Ġsequ ence
Ġmathemat ics
Ġdoub t
Ġrapid ly
ĠHa iti
Ġopin ion
A meric
D id
D oes
e y
r ont
it ual
Ġe nds
ent ic
im er
Ġgo als
Ġme l
ĠC E
Ġworld s
ag o
Ġun it
ĠE m
Ġbo at
te ch
Ġpercent age
Ġpol io
Ġgra vity
Ġrep air
wh el
Ġsol ving
Ġconst ant
Ġsens es
Ġast on
Ġfundam entally
ĠFr ank
Ġaware ness
Ġinnov ative
Ġinstr ument
Ġvari ety
Ġaccur ate
Ġhyd rogen
hy th
Ġunus ual
P er
a it
o ch
u ff
Ġt ons
Ġw itness
nd ed
Ġl ength
Ġre verse
Ġan cest
Ġr ing
ok en
ĠA nt
Ġint ense
el ine
ab led
ĠG ree
Ġover whel
Ġdis aster
ĠL os
Ġfact or
tern al
Ġplay er
Ġcons ist
Ġeconom ies
Ġrun s
Ġlab el
Ġref r
ret ch
ien cy
Ġmess ages
ĠAr t
Every thing
Ġoper ate
Ġpriv ile
Ġmov ies
Ġest im
Ġprim ary
Ġrid ic
Ġmount ains
Ġauthor ity
Ġforest s
Ġswim ming
Ġearth qu
Ġgala xy
ĠChar les
Ġappl ied
Ġwond ered
Ġchann el
Ġexch ange
prof it
Ġabst ract
Ġsam ple
c al
r i
re ts
Ġo ption
at ers
nd ing
it a
Ġb arr
Ġh ide
Ġp un
Ġp ump
Ġl ung
Ġst ro
Ġhe m
Ġat oms
Ġr ot
Ġsp in
Ġsu it
Ġcl ock
ĠJ ew
Ġeconom ists
Ġexpl an
Ġreg ions
Ġconf idence
Ġconf ront
Ġaut on
Ġmem ber
Ġfil ms
Ġteam s
Ġjo ined
Ġfund ing
Ġcomb ine
Ġcrit ic
Ġsell ing
Ġencou ra
Ġcarry ing
Ġconc rete
Ġhop ing
Ġgradu ate
Ġphilosoph y
Ġmanufact uring
Ġpassword s
Ġtum or
ĠSwed en
Ġnav ig
b el
h ol
s ource
u ce
it ure
os ition
Ġf ake
Ġd ot
il ed
Ġr itual
um s
Ġte eth
all ed
em oc
Ġhow ever
Ġcomp ar
ĠT om
Ġpr ay
ak ers
Ġfact ors
Ġstr ing
Ġcent uries
Ġanim ation
Ġ7 5
Ġincre ased
Ġsun light
Ġcam er
Ġtravel ing
Ġoce ans
oll y
ĠBrit ain
Ġcollabor ation
Ġchemical s
Ġdiscuss ion
fr iend
Ġsou l
Ġsport s
Ġaccom pl
g in
l om
Ġt ap
Ġw ake
os a
Ġm ere
ed y
if ting
ol a
ol ar
Ġch ocol
Ġv oc
Ġsa cr
ĠM art
ab et
ĠG ood
Ġcont rast
Ġmove ments
Ġreg ard
wh at
Ġsol ved
Ġproduct ive
Ġbehavior al
Ġoper ation
Ġwin ter
Ġobs er
Ġcomb ination
Ġyes terday
Ġhar vest
Ġconvers ations
Ġfa cial
Ġvacc ines
Ġcook ing
Ġtransport ation
Ġresist ance
Ġantib iot
P M
b ors
m ers
n am
Ġth ick
Ġa ck
Ġw ave
Ġh ung
al d
Ġl as
Ġl ift
qu e
ig m
op her
res ident
ĠT o
Ġres il
ĠR ev
Ġad j
Ġbo ld
ĠJ ul
Ġapp lications
ĠY our
Ġcomput ing
Ġsk ill
Ġass ign
Ġmil k
Ġbehav iors
Ġcoll apse
Ġinclud e
itch en
Ġcy ber
Ġconsum er
Ġdest ruction
Ġste el
Ġchalleng ing
Ġcloud s
Ġprep ared
ĠPar is
ograp her
ĠiPh one
E x
a e
Ġt ank
Ġo ught
er ge
Ġh unt
Ġp in
Ġf lex
Ġd ip
Ġin put
as ters
ll y
Ġbe e
Ġcom ment
Ġfr ank
Ġpro ced
Ġact ing
ab ilities
ĠG ulf
ĠF e
Ġoff ers
Ġwr iter
Ġfl ash
Ġinst inct
Ġ19 4
Ġcent ers
Ġgener ally
Ġbus y
arr ass
Ġele v
Ġrepres ents
Ġconv ince
ĠTh omas
Ġhor iz
Ġmechan ism
Ġbom bs
Ġmir ror
ĠMus lim
Ġagricult ure
ĠMich ael
ĠSm ith
Ġegg s
Ġlifest yle
C ould
f oot
Ġs amples
nd a
Ġc ure
Ġc ents
Ġb are
Ġm aps
Ġh ip
Ġl oud
as tern
ic ing
im inal
im eter
Ġst ands
Ġor ch
Ġpl us
ĠM on
are t
ĠP eople
ĠD ay
Ġdes k
chn ology
Ġown ers
Ġdr iven
Ġmet abol
Ġcle ver
ĠTED Talk
Ġ200 7
Ġpar king
Ġ9 9
Ġconst rain
Ġdep artment
Ġrad iation
Ġliter ature
Ġfear s
Ġstay ed
Ġinsp iration
Ġsitu ations
Ġcirc uit
Ġsustain ability
Ġtransform ed
Ġsn ow
Ġmist ake
Ġentreprene ur
Ġtherap y
Ġhyp othes
ĠFranc isco
ĠInst itute
Ġille gal
Ġsophistic ated
Ġcamer as
o ver
o ice
Ġ 0
Ġb es
Ġb orders
Ġh its
Ġp ian
Ġf an
Ġre ject
Th ree
ch air
ce l
if th
Ġan onym
st and
ol i
ad ic
Ġte a
ĠS at
Ġsome what
pp ing
Ġthan ks
ĠP resident
ip edia
ĠL atin
ell y
ĠF ound
Ġpre m
ĠU S
Ġapp arent
Ġtechn ique
Ġfl ag
Ġob st
Ġstory t
Ġwalk s
Ġsign s
Ġdev ast
Ġpot entially
Ġident ical
Ġemb arrass
Ġbox es
Ġopt ions
Ġfoot print
Ġpull ed
Ġneigh bors
Ġlabor atory
Ġdeterm ine
ĠIsl amic
Ġlad ies
Ġcontroll ed
ĠRuss ia
Ġfab ric
Ġsatell ite
Ġhun ger
ĠOb ama
Ġearthqu ake
B as
x ide
in ate
Ġs en
Ġs ets
Ġm ad
es ity
Ġd ict
Ġd edic
Ġwh ist
Ġst ere
ere k
st ream
Ġhe l
ear ch
Ġsu ic
res p
Ġun known
ĠP ole
Ġar rest
Ġ2 2
Ġ2 3
Ġshe ll
Ġinst ruct
Ġplay s
Ġprocess ing
Ġallow ing
Ġphys ically
bo x
Ġmem or
Ġequ ally
Ġtest s
Ġadv anced
Ġcollect ed
Ġclose ly
Ġexist ence
Ġbro ke
Ġimm une
Ġproper ties
Ġbur ning
Ġult imate
Ġflow ers
Ġspirit ual
Ġveh icles
Ġpuzz le
Ġsurve y
Ġembra ce
Ġdan cing
connect ed
Ġglo be
Ġhorr ible
Ġton ight
Ġgard en
i at
n ic
p et
r at
u a
x ies
Ġth in
Ġm ales
Ġp itch
Ġf urn
Ġd ense
as ks
Ġwe l
Ġbe ach
ct ic
ro g
ke ep
Ġwas h
Ġlo op
Ġout c
Ġact s
ĠC op
ĠM useum
Ġcomp l
Ġimp lications
Ġimp lement
Ġover all
Ġdis s
Ġph ase
Ġdes per
ĠJ er
ons cious
Ġgu ide
ub es
oc in
Ġform ed
Ġelect ro
Ġkeep s
Ġdist inct
Ġpain ful
Ġpar al
Ġcollect ing
Ġjo ke
att an
Ġinteract ive
Ġarg uments
Ġspread ing
Ġmain ly
Ġactiv ities
Ġadm it
Al so
Ġ199 0
Ġrom antic
Ġsympt oms
ĠWik ipedia
Ġappropr iate
Ġtranspl ant
Ġchocol ate
Ġack now
L ast
h our
m it
t ocin
v an
v iol
Ġt ape
Ġb icy
on ed
Ġf oss
Ġf ert
ar ant
le te
Ġk itchen
Ġex ec
Ġr u
Ġcon vert
Ġkn ock
ĠA h
app y
Ġun com
pt ember
Ġdis cipl
Ġpo ol
Ġpo cket
Ġunder water
ĠK h
ob el
Ġhealth care
Ġhand le
Ġcontro vers
Ġ200 9
end ed
Ġwa ves
Ġcontin ent
Ġadv ance
Ġemp ower
Ġill usion
Ġsens itive
Ġroad s
Ġconflict s
Ġattack s
Ġdiv ide
Ġvirus es
Ġ197 0
Ġwheel chair
Ġmeas uring
Ġentertain ment
ĠNiger ia
Ġconcl usion
Ġpregn ant
ĠDar win
ĠNA SA
Ġestab lish
Per haps
P A
W omen
h attan
s pe
in o
er r
Ġb order
Ġm ent
Ġp ill
or ter
Ġg olf
us es
us ive
Ġbe et
od ing
od ed
ill y
ant a
Ġr ush
Ġtr ig
Ġup per
em en
ĠM ark
ĠM ont
Ġper man
Ġfe ature
ĠG h
Ġcont em
Ġcomm and
Ġbr ib
Ġbr others
he imer
Ġob esity
Ġdesign s
ĠSt ate
Ġreg ener
Ġclass es
de f
Ġlarge ly
Ġprov iding
Ġexplain ed
Ġrecord s
Ġreach ed
Ġrequ ired
Ġsuff er
go ing
ĠAm az
Ġdro pped
Ġsurround ed
Ġgala xies
sc ale
Ġincent ives
Ġprototy pe
Ġadvert ising
Ġpollut ion
ĠJan uary
Ġaston ishing
ĠRev olution
d r
g ent
i ety
n el
o or
v as
w r
is ters
Ġb oring
Ġm im
Ġp ushing
Ġg est
Ġst orm
Ġli ver
Ġsp here
ĠM al
ĠE ve
Ġher oes
ĠJ ames
Ġrem em
Thank s
Ġins urance
Ġtrans fer
ĠSt an
Ġreg ret
Ġpres ence
Ġyoung er
Ġgreen house
Ġdig it
Ġauth entic
Ġcaus ing
Ġmechan ical
ĠSe ptember
Ġassum e
Ġjud ge
ĠChrist mas
Ġang ry
ĠMan hattan
Ġmathemat ical
Ġunc ertain
ĠRo bert
Ġtoile t
Ġphr ase
Ġconvention al
Ġfrank ly
O s
d en
i am
v able
z heimer
Ġc ous
Ġc ord
it ers
Ġp apers
Ġd ress
Ġl ying
Ġe ars
am ing
Ġse m
Ġse ason
Ġk ick
Ġas p
Ġr ating
Ġr ub
ĠA ct
Ġout come
el a
ĠH er
Ġag encies
ĠG ab
ĠD ep
ĠN obel
Ġshe ep
ak s
Ġdown load
Ġdec l
Ġlet s
Ġrem ove
Ġstr angers
Ġfin ance
Ġcare ful
Ġnat urally
Ġbi as
Ġvis ible
Ġeduc ational
Ġref er
Ġcontin ued
Ġcoll aps
Ġdeath s
Ġfac ed
Ġsong s
Ġrelig ions
Ġbreat he
Ġapart ment
Ġaf tern
Ġmethod s
Ġtrib e
Ġhous ing
Ġdiagn osed
Ġfing ers
ĠPal est
Ġlat est
Ġeld er
Ġmyst ery
Ġnurs es
Ġath let
Ġantibiot ics
Bas ically
b l
c red
r ary
x im
Ġt ack
Ġw ise
Ġc ast
ing u
en ger
Ġp ed
Ġin ject
ed ing
Ġwh ales
ol it
th ink
Ġli kes
Ġat tend
ter y
ĠA lex
Ġsp oken
Ġpl ate
og ue
Ġwhere ver
ĠT or
ĠE astern
Ġcl othes
Ġad oles
ict ed
Ġoff ered
Ġra w
Ġbl ank
ĠSt ar
Ġgra b
pr ing
gg ed
Ġcap t
Ġheart s
Ġclass ic
Ġinteract ions
Ġsens ors
ĠAl zheimer
Ġviol ent
Ġstru ck
ĠAt l
Ġoxy tocin
Ġfascin ated
Ġengage ment
Ġeffic iency
Ġir r
Ġcustom ers
ios ity
Ġreb uild
Ġtast e
Ġmaint ain
Ġacadem ic
Ġrecy c
Ġoutc omes
a ves
c ase
o ft
r ors
u pp
Ġc ards
ot a
ic ian
ow ered
us ions
ly n
ion e
Ġse ction
Ġsh ake
Ġbut ton
rou s
Ġsp ring
Ġthem e
ĠM a
Ġwhere as
ĠG l
Ġpr ost
ĠD erek
Ġcont ribute
Ġph arm
Ġgr ay
ĠJ ack
Ġcr iminal
Ġ3 6
Ġdr ives
Ġdat ab
Ġel imin
wh ile
Ġfun ctions
Ġcor al
Ġdef end
Ġsign ed
Ġfig ures
Ġret ire
Ġemb edd
Ġrecord ed
Ġreach ing
Ġobs essed
Ġconcept s
Ġport ra
Ġvulner ability
Ġselect ion
ĠSte ve
Ġteen agers
Ġcompon ent
Ġdiction ary
Ġshad ow
ĠRep ublic
hyth m
Ġrefr iger
Ġfurn iture
A b
c ar
f ish
k a
m ates
y ard
Ġt ight
os ter
Ġb en
es ter
Ġg ut
ig gs
op ath
st age
Ġch ip
Ġch rom
Ġch urch
Ġkn ee
ĠC om
ost on
ĠT al
Ġhapp ier
Ġtw e
ĠD emoc
Ġ2 7
Ġsur f
Ġapp lication
Ġtechn ological
Ġgu arant
Ġrel ate
Ġcons erv
Ġbeh ave
Ġexpl os
Ġequ ation
Ġdep loy
Ġwind ows
Ġexist ed
Ġlim its
Ġtre nd
Ġtravel ed
Ġhot el
Ġevolution ary
Ġtransl ate
for ward
iven ess
Ġscr atch
Ġdistribut ed
Ġhistor ical
Ġfro zen
ĠPro ject
Ġvolunte ers
Ġintu itive
Ġcommit ment
Ġprecise ly
Ġingred ients
Ġlibr ary
aren cy
Ġpoore st
ĠAnge les
Ġignor ance
ĠMart in
Ġdip lom
ĠFound ation
Ġaftern oon
O ther
p es
u ity
u nder
Ġt ube
Ġw ings
is her
it ors
Ġp our
Ġin iti
Ġy ield
ic ago
Ġst retch
Ġne ut
ind er
ĠS am
Ġpl enty
ĠC ount
ĠC omm
ĠM and
Ġle ap
ĠB oston
Ġev alu
Ġnow here
ĠG ates
Ġcl us
Ġcl ub
ep h
ac ing
olog ically
ĠR w
Ġeven ing
ĠF in
Ġpre tend
Ġbr an
Ġcr ash
Ġpol ar
Ġinter f
Ġinf in
Ġpop ulations
Ġdist urb
Ġdist rict
Ġcur ve
Ġair port
Ġche aper
Ġstate ment
ane ously
Ġdep th
Ġpract ices
Ġrobot ic
Ġcomb ined
Ġvol ume
Ġtouch ed
Ġachie ved
Ġrece ive
ĠFr ance
Ġarm y
Ġfix ed
Ġtrib es
Ġdram atically
Ġjournal ist
Ġcapture d
Ġseed s
Ġappreci ate
Ġcos m
Ġspl it
Ġlic ense
Ġinequ ality
ĠAmaz on
Ġembedd ed
Ġchrom os
C om
M e
b al
c ity
f ortunately
m ble
n ight
w ich
Ġ vert
Ġa im
in ated
in ction
or us
om an
ic ious
Ġwh ale
id ay
Ġst ack
ere nces
Ġdo zen
Ġat e
Ġpro port
Ġlo ad
ĠS ome
Ġtr illion
Ġwork er
Ġwant ing
ĠH aw
ĠH iggs
Ġneed le
Ġco ck
Ġdis order
ĠR ichard
Ġher self
ĠF re
ĠW ow
ĠW all
ath an
Ġsm oke
ĠCh icago
Ġcol um
ph ere
Ġext ent
ah ar
hip s
ĠUn ion
Ġelect ions
Ġroom s
Ġtest ed
Ġsure ly
Ġpar as
Ġsuccess fully
Ġ6 00
Ġincre ases
Ġspeak er
Ġabs or
Ġaccess ible
Ġphotograph y
yr ight
Ġfra g
Ġoptim istic
Ġang le
ĠAd am
Ġoccur red
Ġdestroy ed
cript ion
Ġenem y
Ġhung ry
Ġfoss il
2 00
R em
b an
i as
p ro
at a
os en
Ġto ler
or king
le vel
ve y
ly mp
id a
Ġst ations
op ard
Ġab and
Ġu g
Ġch ap
ive red
Ġint ention
ĠS ec
ĠB ab
ĠH is
Ġag es
ĠP ac
Ġspe ll
ne w
Ġra ising
Ġinv ite
Ġrem ains
Ġfl ies
Ġcons ervation
Ġimag ing
Ġimag ined
Ġext inct
Ġold est
Ġeng aging
Ġ200 5
Ġstand ards
Ġchar ity
ĠHe alth
Ġref erence
Ġass ist
Ġadv oc
Ġhouse hold
Ġmeet ings
Ġexpect ations
Ġprotect ed
Ġant icip
Ġocc asion
Ġ25 0
Ġvill ages
iet nam
Ġer adic
ĠPr ize
Ġappear s
here nt
ĠArab ic
Any way
Ġaspect s
Ġsurge on
Ġremo ved
ĠApp le
Ġlapt op
ĠAnt ar
Ġexec ut
M T
b ed
c ence
m aker
w ell
Ġ icon
ing ly
Ġm er
Ġm arch
en ess
Ġg on
Ġwe igh
ro b
Ġab und
Ġch amp
Ġpro of
Ġsp inal
Ġtr ies
og en
Ġqu arter
Ġev olve
ĠG r
ĠD id
Ġbu ll
Ġph osph
ĠO lymp
Ġsc ore
Ġdec line
Ġinst ant
Ġexpl oration
air s
gg ing
Ġsub s
ĠV ietnam
Ġprot o
Ġbre aking
Ġprof it
Ġdire ctor
Ġfeed ing
Ġconsum e
Ġsil ent
Ġbank s
Ġpros per
Ġcelebr ate
Ġinstr uments
oun ced
Ġunlike ly
Ġ196 0
Ġzo om
osa urs
Ġpian o
Ġbicy cle
F inally
H er
e al
l ims
o nds
o oth
w ar
at to
nd r
Ġp ace
Ġf ifth
or g
or an
Ġg all
Ġre ly
Ġan ts
Ġu b
Ġk iss
Ġch osen
Ġr ising
ain t
ĠM RI
ĠB ur
ĠB ible
ĠH ave
ĠG and
Ġcl ip
ĠP ort
Ġimp er
Ġimp ress
ĠN G
Ġpo ly
ĠR os
Ġsc ary
Ġgen ius
Ġdec re
Ġbl ow
Ġcour t
Ġstr i
Ġlove ly
Ġbi om
Ġmor ality
Ġage nda
Ġclass ical
Ġspeak ers
Ġprov ided
Ġmiss ed
Ġdel ivered
Ġpresent ed
cl ass
Ġdescrib es
Ġbreat hing
Ġdiv ided
Ġconc lud
Ġeffort s
Ġcry ing
Ġsaving s
Ġdemonstr ate
Ġpainting s
Ġ198 0
Ġreve al
Ġappe ared
Ġteles cope
Ġlas er
Ġsuic ide
5 00
c alled
e ast
p arent
w orth
ou nce
Ġb ones
al ian
ot ion
us ing
Ġch est
Ġmy ster
Ġor bit
Ġint ent
un ning
Ġpl aced
Ġcomp rom
ĠB udd
Ġ2 6
Ġshe et
ĠJ oe
Ġfind s
Ġfl our
Ġinst antly
Ġcar r
Ġexpl oring
Ġacc um
Ġconnect ing
Ġhy per
Ġperform ing
Ġmeasure d
Ġorig ami
Ġpriv acy
Ġfem ales
Ġproper ly
Ġamong st
Ġflu id
Ġparticip ants
Ġcart oons
Ġrain forest
Ġadm inist
Ġsand wich
Ġign ore
Ġdeb t
Ġconc ert
ĠCar ol
Ġthr own
Ġbelief s
Ġinj ury
Ġfing er
Ġut ter
Ġreco very
Ġneuros cience
Ġintr ig
Ġagre ed
Un fortunately
Ġscen ar
ĠVal ley
Ġsatis f
Ġhem is
Ġorch est
A d
G irl
T e
g a
r as
Ġ id
Ġs ed
Ġc ens
Ġc ake
or al
Ġl ens
le ts
Ġyou th
Ġbe er
et r
qu are
if ts
Ġan ger
th rough
Ġne ither
ul se
Ġex ternal
Ġma il
ĠM ad
Ġun its
Ġco ach
ĠL ad
ĠL ove
Ġfo ol
Ġres on
co hol
Ġgr anted
lic ate
Ġdr one
Ġdr ones
Ġimag ery
Ġgrow s
Ġgener ated
Ġsupp l
Ġmusic ians
Ġcur iosity
Ġrob ust
Ġcra ck
Ġfail ing
Ġsens ory
Ġpresent ation
Ġz one
Ġple as
Ġess ence
On ly
Ġinsp iring
Ġconsum ers
Ġcomb at
Ġrepresent ed
Ġfunction al
Ġinstitut ion
Ġpu pp
Ġsurprising ly
Ġdepend ing
Ġsus pe
Ġhall uc
imin als
ĠCong o
Ġrecon st
Ġcooper ation
Ġbound aries
Ġnor thern
Ġtal ent
Ġcorpor ate
Ġsculpt ure
Ġtit le
Ġpil ot
Ġresc ue
Ġmicros cope
Ġuncle ar
Ġanx iety
Ġexplan ation
S W
a ci
a gh
b its
e ared
g ers
p ower
w l
re ct
Ġc ats
Ġh at
Ġp ione
Ġd ung
Ġg lob
ic her
ut ch
Ġre cip
ul um
ck ets
ok ed
Ġv ital
Ġsp ark
ĠS ing
ĠS il
ĠS cience
Ġqu ad
ĠP ol
ia c
Ġco ord
ang ible
ĠL aw
ĠR ed
Ġcomm itted
Ġapp le
Ġlet ting
Ġinv olves
lic it
Ġdr ill
Ġsl ides
Ġmin or
Ġmin ister
Ġ19 50
ins on
Ġrest ore
up s
Ġ9 5
ĠBr own
Ġrecogn ition
Ġflo ating
Ġcop yright
Ġmis er
Ġdin osaurs
Ġstick s
Ġreturn ed
Ġrock et
Ġafford able
Ġstrugg ling
Ġneighborhood s
Ġmotiv ation
fl ies
Ġhack ers
Ġparad igm
Ġadop t
Ġax is
Ġpolic ies
Ġfle w
Ġvessel s
Ġeleph ant
Ġcha os
ĠRw anda
P h
S ahar
h ear
m m
o ol
w art
Ġt ent
Ġt ill
Ġt asks
Ġt atto
Ġs ales
at ar
it ory
Ġb on
Ġb oss
Ġf irm
Ġd ign
as y
Ġbe ars
ur ation
Ġst able
Ġst ages
Ġan throp
Ġr icher
Ġlo cked
Ġsee k
Ġact or
ĠC ome
iz oph
ag ue
ĠH igh
Ġfe atures
pt ions
Ġcont ains
Ġunder ground
ĠO x
ĠJ on
Ġtra um
con f
Ġperson ality
Ġfl ip
Ġcar ried
az e
ph ones
Ġfood s
Ġcou n
Ġcor resp
Ġresearch er
Ġdep ressed
Ġexpect ancy
Every one
Ġfall s
Ġprotect ing
Ġtre nds
Ġrecogn ized
yr us
Ġball oon
Ġreport ed
Ġcharacter istics
Ġsepar ated
Ġsyn thes
fr ont
Ġprep are
Be fore
Ġautom atically
Ġlog ic
Ġbase ball
Ġcru cial
Ġcrop s
Ġlect ure
Ġtox ic
Ġridic ulous
Ġstro ke
bel ie
Ġadj ust
Ġapparent ly
Ġuncom fort
Ab out
Ġug ly
Sahar an
D an
b les
b ered
c an
g l
g ic
u k
y an
Ġt ied
Ġt ears
Ġw ip
Ġs le
Ġh oney
Ġh ook
Ġp ra
Ġf athers
Ġd iverse
Ġd ensity
ar p
Ġg re
ĠI ce
Ġn ets
qu ar
ro l
if ice
if orm
st ate
ad ays
Ġus ual
Ġor ange
ĠA ir
Ġal cohol
Ġsp r
Ġtr ash
Ġpl ain
Ġyour s
ĠC A
ĠM or
ag ger
ach e
Ġun belie
Ġover come
Ġbu bb
Ġdis rupt
ĠF irst
ĠO f
Ġcol ony
lic ity
Ġafter wards
Ġprodu ces
Ġmus cles
Ġrec omm
Ġorgan ize
ĠV an
Ġdist ant
io xide
Ġdef ense
Ġ200 3
Ġ200 4
ĠIs land
Ġche ese
Ġpar aly
Ġcontin ues
br idge
Ġhold s
Ġinteract ing
Ġimpro ved
Ġimpact s
Ġarchitect s
Ġdirect ions
Ġsleep ing
Ġfoot ball
Ġtext book
yr am
Ġstrateg ies
Ġlink ed
Ġsch izoph
Ġcry st
Ġshop ping
ĠMus lims
Ġagricult ural
Ġdomin ant
Ġtransp arency
Ġdolph ins
Ġens ure
ĠPe ace
abet es
Ġbare ly
Ġparal le
Ġperman ent
ĠGab by
ĠDep artment
Ġuncomfort able
P l
U s
b ru
c apes
f ast
k in
er ation
Ġm ile
en ry
ap ing
Ġf ishing
Ġd er
Ġd ump
Ġd ioxide
Ġin h
Ġl amp
om b
Ġg ro
ic ros
Ġst one
Ġab use
Ġas ide
Ġch im
ĠC r
ast ics
Ġen able
Ġper m
Ġag ency
ĠT es
ĠT as
Ġbu g
cent ury
ĠL ife
ĠJ es
Ġcreat ure
Ġent ered
arch y
Ġlight ing
ird s
Ġvis ited
Ġsupp ose
Ġsub tle
Ġcor n
Ġcap ita
Ġmusic ian
Ġcur ric
Ġ200 6
Ġprot est
Ġequ ality
Ġcontrol s
Ġfil ter
Ġsec ure
Ġprov ides
Ġcra ft
Ġexplain ing
Ġdel ight
ĠThank s
ĠYork er
Ġes cape
Ġpsych ological
Ġpredict ions
ĠBe ij
Ġsearch ing
Ġimprove ment
Ġemerg ency
Ġprint ed
Ġnarr ow
Ġdisapp oint
Ġcalcul ate
Ġmix ed
Ġcontroll ing
Ġelectron ic
Ġhom eless
Ġrepe at
Ġwire less
Ġastron om
Ġlawy ers
Ġattach ed
semb ly
Ġstere oty
Ġgon na
Ġproto cell
Ġadminist r
A R
W ill
d ing
Ġt ired
Ġa es
Ġc ig
Ġm ice
Ġto y
or a
or ous
Ġin k
Ġn a
Ġe ast
Ġre hab
Ġre new
Ġst yle
ch e
se mble
ra de
Ġhe lic
Ġne ural
Ġj azz
Ġout put
all ow
un ction
and em
ĠS a
Ġpl ot
ĠM other
ĠM oon
Ġexp lo
ĠH ouse
ĠT ake
ĠT ony
ĠG al
ĠD et
ĠD el
ell o
ĠR io
Ġpre c
ĠJ une
Ġbr own
Ġmin ing
Ġser ved
Ġop ens
ĠTED x
Ġdef e
Ġstop s
Ġpain ted
Ġproduct ivity
Ġtreat ing
Ġ6 5
Ġview s
Ġdi am
Ġve ter
Ġident ified
Ġsens or
Ġtem pt
Ġleg is
Ġorig in
Ġpur ch
Ġbur st
Ġest imate
Ġencou nter
Ġassum ptions
Ġvirt ually
Ġcolleag ue
Ġdemonstr ation
Ġtrick s
Ġchair s
Ġdyn am
Ġelectron ics
Ġfro g
Ġreco ver
li ament
Ġrepe ated
agr am
ih ad
ĠStan ford
Ġuncertain ty
Ġelder ly
ĠPac ific
Ġglob ally
Q u
S im
b age
i ang
i ated
i ance
l ie
l ings
p art
s es
Ġth umb
it ous
Ġm atr
en h
en ly
Ġh ol
Ġp iz
Ġf et
an throp
Ġd ive
om ic
om ous
Ġg am
le ar
et te
ct ica
Ġst ores
se y
se ction
Ġme al
ge nd
Ġex cell
ist en
Ġlo ves
og ether
ab in
ĠB al
Ġcl osing
Ġpr ime
Ġdis m
ib an
Ġbo om
ĠW omen
Ġem ph
Ġpers u
Ġtra ged
Ġdr ivers
Ġent h
Ġhigh light
Ġla id
Ġfar mer
Ġacc idents
end ing
Ġass ets
ĠIntern ational
Ġdra g
Ġdi abetes
att ered
Ġstay ing
Ġrecord ing
Ġstrong ly
Ġsuggest ing
Ġdark ness
Ġredu ced
put er
Ġtransl ation
Ġther m
Ġcollabor ative
Ġdisapp eared
Ġsou p
Ġsus p
Ġpros thetic
Ġvict im
Ġshock ing
Somet hing
Ġdrink ing
Ġrare ly
Ġmanufact ure
Ġtor ture
ĠMin ister
Ġquant um
Ġveget ables
Ġtruck s
Ġnutr ition
ĠKore a
Ġinev itable
Ġresil ience
Ġinstruct ions
Ġphosph orus
Ġhemis phere
Ġschizoph ren
ĠTas man
Ġhelic op
O b
i xt
k ward
t es
u um
Ġt ong
Ġw arr
Ġs its
Ġs ession
er d
is ons
it ud
os al
os ure
Ġb orrow
en a
Ġh itting
on ing
on ia
Ġp icking
Ġf usion
Ġf ulf
Ġl ions
om o
Ġre def
Ġdo ors
ra ction
Ġsh aped
Ġme lt
Ġne at
Ġpe er
um in
Ġout er
ĠS und
ĠM ah
are s
Ġcomp elling
Ġexp osed
ĠB ush
Ġqu e
Ġun p
Ġun pre
Ġcl ar
Ġpr ices
ĠD is
Ġ2 8
Ġpart ies
Ġro ots
ell er
ĠF ellow
Ġpre f
Ġsc ores
Ġshould er
Ġend ing
Ġob l
Ġent rop
ĠY emen
Ġ19 5
Ġmon itor
Ġpass enger
Ġbeg un
Ġmag ical
Ġadv enture
ĠAr ctic
Ġ12 0
Ġsent ences
No body
Ġaffect s
Ġaw kward
Ġredu ction
Ġlif es
Ġdetail ed
Ġactiv ist
pan z
Ġpush ed
Ġinflu enced
Ġlink s
Ġsch em
ĠChrist ian
Ġeth nic
Ġdro ve
Ġlaugh ing
Ġliber al
Ġscan ner
Ġinsight s
Ġphysic ist
Ġcateg ory
ĠCam bridge
Ġinit ial
Ġsen ior
Ġdedic ated
Ġfert il
parent s
Ġparalle l
bru ary
N ext
a ult
g u
h op
i very
k ins
t op
t wo
z an
Ġw ing
Ġw ound
Ġh ill
Ġh ier
Ġp yram
Ġd ust
Ġd irty
ar re
ĠI m
ow ers
et ers
Th rough
Ġha m
ch ildren
Ġan es
ill a
Ġch ief
Ġcon ver
ĠS ir
ĠS yr
ĠS pan
Ġsa uce
ĠM il
Ġen h
Ġle ather
Ġpr ize
ĠP art
ĠL ong
Ġunder lying
ĠF ord
Ġpers ist
ren cy
Ġ3 2
Ġrel ax
Ġmus cle
Ġrec ru
Ġhealth ier
Ġsk ull
Ġopen ness
Ġconf ident
Ġprob ability
ĠV en
Ġgovern ance
Ġdist ract
Ġelse where
Ġca f
Ġdra wn
Ġfund ed
Ġimpro ving
Ġleg it
Ġphotograph ed
Ġrequ est
Ġspread s
Ġsuggest ed
Ġfac ility
Ġste al
ann ed
Ġfoot age
Ġtele phone
Ġimm un
Ġult ra
Ġcross ing
Ġce iling
Ġdepend ent
Ġdeterm ined
Ġphilos opher
Ġodd s
Ġdial ogue
Ġpow ers
Ind eed
Ġreven ue
Ġprofession als
Ġprivile ge
Ġanonym ous
Ġwel come
ĠAntar ctica
Ġub iqu
Ġdign ity
ĠOx ford
icros oft
Ġcurric ulum
Ġentrop y
D avid
M ar
S S
c lock
f all
f ield
l ong
m akers
o ber
Ġt ro
Ġw ider
Ġs illy
on ge
Ġp ink
es h
Ġin herent
Ġl ux
ar ah
Ġre cept
Ġre ef
Ġon going
se e
th et
Ġj ihad
Ġch ances
Ġr ats
Ġcon ven
ck ing
Ġv ent
our nal
Ġsa v
ĠG ive
ĠG old
Ġun h
ĠE ric
Ġcl ients
Ġback wards
ac ular
ick s
Ġgr at
ĠO ct
ĠU g
Ġsc ream
Ġbr ut
Ġra il
ĠK oran
Ġdr um
Ġmon key
Ġhard ly
Ġsk et
Ġpass ing
ĠSo v
Ġadd ing
Ġlab s
eng ine
Ġpos ter
Ġfocus ing
Ġsimp licity
Ġnon viol
Ġsupport ed
Ġsuper mark
Ġlim b
vent ions
Ġbreak through
Ġkey board
Ġarr ive
Ġlay ers
Ch ar
Ġtransl ated
Ġcitiz en
Ġgraph ic
Ġwhe at
Ġ201 1
Ġjud gment
Ġoptim ism
Ġexpress ions
Ġir re
Ġaddition al
ĠRuss ian
Ġparad ox
cop es
Ġgather ing
Ġperce ive
ĠGra nd
Ġlawy er
Ġmosquit o
min ute
Ġcolon ies
rel ated
Ġmicrob es
emp loy
ĠGen eral
Ġancest ors
Ġsacr ifice
Ġhypothes is
ĠTal iban
Ġpiz za
P r
P lease
l ist
r id
r ans
x ual
Ġt rop
Ġw edd
er oid
Ġc ath
Ġb at
Ġm all
Ġto ys
Ġd ies
Ġd ough
Ġd uck
Ġl un
Ġwe e
im ent
Ġst ab
ce mber
th al
od s
Ġcom edy
ok es
ist ot
Ġsp ots
ĠS quare
ĠM ed
ĠM ove
Ġen ables
ĠB o
ĠH ans
ĠP at
ĠD en
ĠN an
ĠN ord
Ġdis ag
Ġdis orders
ĠL ED
ĠW ould
Ġpre cious
Ġsm arter
Ġsm ooth
Ġtra its
Ġrem ained
ĠK e
Ġhelp ful
Ġser ving
Ġear n
Ġorgan ism
Ġansw ered
Ġset tle
Ġcho osing
Ġgl ad
Ġass ess
vious ly
Ġinno cent
Ġneur on
ĠAr my
Ġdel ivery
Ġeat en
Ġpsych opath
gen cy
Ġinclud es
Ġspecial ized
Ġwin ning
Ġobs erv
Ġorig inally
Ġfast est
Ġindust ries
Ġcirc uits
Ġstat ist
Ġtext ing
Ġpull ing
oll ar
Ġsil ver
Ġrepresent ation
Ġsold ier
Ġfu els
Ġtar gets
Ġphil anthrop
ĠDe cember
Ġsyn thetic
Ġaccept ed
Ġdoc uments
Ġconcer n
Ġcat ast
Ġeth ical
Ġremind ed
Ġintegr ated
Ġalgorith m
Ġattract ive
ĠTr ans
Ġrestaur ants
Ġshoot ing
Ġfrequ ency
Ġcateg ories
Ġimpl ant
Ġrefuge es
Ġnur se
Ġgenet ically
Ġforgot ten
Ġitem s
Ġowners hip
ĠGh ana
Ġsuspe nded
Ġmiser able
Ġchim panz
ĠBeij ing
Ġcig aret
itud es
ĠSund ay
1 0
A m
a uc
d ig
f ly
k et
m ony
s hip
w alk
Ġ x
Ġt ubes
Ġa in
Ġw id
Ġs ink
Ġc ash
it ate
Ġb iz
Ġb ars
Ġm ur
Ġh ire
Ġp ause
Ġp andem
Ġf ires
Ġf ought
or ida
Ġg ear
Ġn it
ut ical
Ġan no
ol ic
Ġfr uit
Ġch ips
um es
Ġma xim
Ġbut t
ĠA ug
Ġup load
Ġpl astics
Wh ether
ĠM om
ĠM ac
ĠM icrosoft
Ġexp ed
ag en
ff ect
ĠP eter
ĠP lease
ep s
ĠL ike
Ġem erge
ĠO ur
Ġoff ices
Ġinc ident
ord s
Ġinv olve
ious ly
Ġins ist
Ġcons ult
Ġfound ed
Ġsl a
Ġext ension
Ġatt itude
Ġed ges
Ġeng ines
Ġconf used
Ġpub l
Ġwar ning
Ġphot ographer
Ġwo ke
Ġopp osed
Ġglobal ization
Ġkill er
Ġgl aci
Ġexperim ental
Ġprogram ming
ĠHow ard
Ġview er
Ġjo int
Ġobject ive
ming ly
Ġdifficult y
Ġele g
Ġoper ations
Ġnon profit
Ġbreak fast
Ġfac ilities
Ġredu cing
Ġhar ness
Ġprop osed
Ġprom ote
Ġpeace ful
Ġsuff ered
Ġbed room
Ġbur den
Ġprim arily
Ġimmedi ate
Ġdom estic
Ġinfect ion
Ġunivers ities
Ġclin ic
Ġtiss ues
Ġsus pect
Ġdiagn osis
ĠBl ue
Ġanaly ze
ĠCent ral
Ġpig e
Ġfort une
Ġrout ine
Ġhabit at
Ġsubst ance
Ġking dom
ĠFl orida
Ġtransp arent
Ġrefuge e
Ġfrustr ated
Ġfed eral
Ġmak ers
ĠCE O
Ġmere ly
Ġproced ure
ĠFe bruary
keep ers
Rem ember
ĠSpan ish
Ġwee ke
Ġbiz arre
1 8
B M
F our
G ood
N umber
S pe
V oice
f ree
g reg
m ill
p en
r ich
t ical
v is
z ens
Ġw ired
Ġs in
Ġs isters
at ural
Ġc ute
Ġm ate
ed a
ar i
as m
Ġn odes
Ġn aked
Ġbe ll
Ġre think
Ġdo zens
st one
ol ars
Ġsh ine
Ġsh ifting
Ġwhat so
Ġlo b
Ġour s
Ġte ch
Ġact ors
ment al
ard o
ĠB on
ĠB ol
Ġman ager
Ġman agers
Ġqu it
ace utical
ĠH enry
ĠT ex
Ġun employ
Ġpo ison
ire ct
ĠJ o
ĠJ im
Ġsm iling
Ġinc or
Ġfact ories
Ġart work
Ġpoint ing
oc a
Ġcomple ted
Ġcre w
Ġmon it
ced ented
Ġgener ous
Ġreg ime
Ġfun g
Ġhead lines
ĠV ir
Ġpres erve
Ġ200 1
ught ers
ott ed
Ġret ina
Ġtrain s
ien ces
aw s
Ġinvest ors
Ġland ed
Ġgrand parents
Ġleg acy
Ġdraw ings
Ġinsp ire
itut ion
Ġarr ay
Ġmar ath
Ġfu nds
Ġmob ility
ĠIsl ands
Ġsou thern
Ġmagn etic
Ġprep aring
Ġspect acular
Ġweap on
Ġhang ing
Ġpengu in
Ġtun nel
Ġgar age
Ġpurs uit
Ġisol ated
Americ an
olly wood
Ġaccompl ish
Ġremem bered
Ġpharm aceutical
Ġretire ment
Ġproport ion
Ġprosper ity
Ġconclud e
Ġparaly zed
Ġemph as
Ġunpre cedented
Ġwhatso ever
L ad
j o
t ail
y al
Ġt ear
Ġt ip
Ġth rew
in i
Ġw aters
Ġc as
is y
Ġh o
on ic
Ġf ib
es ters
an cing
Ġd iver
Ġd ressed
Ġl one
Ġg ig
Ġg ang
Ġn om
Ġn ative
Ġn erve
Ġwh is
ow nt
Ġre cess
Ġon stage
id ers
Ġst rain
ke ys
th ur
Ġsh arp
Ġhe aling
Ġme als
ul in
ust ed
Ġde ce
ĠS im
Ġup set
ĠM iss
Ġcomp os
ab ul
Ġexp ans
ĠH y
ĠT an
ĠT wo
Ġcl ay
ĠD V
ĠD ad
Ġar med
ĠL ib
Ġdes cription
Ġgr as
Ġcomm od
Ġwr iters
ars h
Ġbl ame
Ġrem aining
Ġ3 3
Ġart icles
Ġinter rupt
Ġinter vention
Ġatt ribut
Ġeconom ist
Ġhome work
Ġbi ote
Ġval id
Ġeduc ated
Ġair craft
Ġfig uring
Ġgl imp
Ġfree ly
Ġsec rets
Ġdel ay
vent h
Ġcal ories
Ġge ek
Ġobs erve
Ġobs ervation
Ġrespons es
asc ular
Ġfa vel
Ġprin ter
Ġlea f
Ġaccount s
With in
Ġminds et
Ġpan els
Ġcapital ism
Ġstraight forward
ĠSc ott
Ġwide ly
Ġvot ing
Ġmamm als
Ġfab ulous
Ġphysic ian
Ġrout e
Ġprevious ly
Ġintu ition
Ġenter pr
ĠNe ander
ĠAb ra
Ġbrief ly
ĠBro ok
Ġske pt
Ġconserv ative
Ġinfin ite
Ġbubb les
Ġmatr ix
Ġtong ue
Ġubiqu itous
ĠOct ober
ĠUg anda
ĠSov iet
ĠTex as
S te
c reat
d ollar
h alf
i ology
p ass
r ian
w ind
Ġa ward
in arily
er ved
os aur
Ġh iding
Ġp ile
Ġp unch
Ġf iring
Ġin ches
ic ial
le ge
ĠI nt
Ġn erd
Ġwe t
Ġbe ating
ig ation
Ġst ability
am as
Ġch ron
Ġout s
Ġal ien
Ġtr iang
Ġup d
el f
ĠM ount
ag on
Ġdon or
Ġnow adays
ĠD esign
Ġar row
Ġdis abled
Ġmo od
Ġgot ta
Ġam ate
ĠW ol
ick ed
Ġtrans cend
ob ile
Ġsl ums
Ġhard ware
Ġel ite
Ġform ula
Ġelect ed
Ġcur rency
Ġdev il
Ġexc it
Ġ8 5
Ġbott les
Ġdel iber
Ġgrand children
Ġarg uing
Ġpersonal ized
ĠWh ich
Ġperform ed
Ġterr ifying
Ġsmart phone
Ġpredict ed
Ġimm igr
ĠFr iday
Ġmechan isms
Ġemerg ed
Ġign ored
Ġclin ics
Ġmir acle
Ġheav en
Ġdesp air
ĠSp ace
udd enly
Ġwealth y
ĠBl ack
ĠQ u
ĠQ ue
Ġprofound ly
Ġann ounced
adem y
Ġbroad cast
Ġunc onscious
Ġamb ig
Ġcla ims
ĠNor way
Ġnewsp apers
Ġecosystem s
roll ed
Ġexpand ing
Ġillustr ate
Ġshel ter
Second ly
Ġqual ities
ĠRes earch
Ġbath room
Ġhorm one
ĠPalest in
Ġdatab ase
Ġvert ical
Ġfrag ile
ndr ome
Ġrehab il
Ġtraged y
Ob viously
ĠAug ust
1 2
B ack
C ome
D A
E C
E s
I nt
L e
O L
T urn
f our
f old
p y
p rodu
Ġ Then
Ġa er
in ter
re y
ou g
ou nder
it age
it ating
Ġb att
Ġm urd
en cing
on a
Ġto oth
Ġd ose
ed ay
Ġl in
le ton
ut her
ct u
id i
Ġha bits
ur t
ce an
am ine
ra cies
Ġas h
Ġcom ments
il ize
il ty
Ġj unk
Ġch op
Ġde lic
Ġr ice
Ġmy cel
Ġcon ce
ate ver
nt il
Ġal ph
Ġint im
Ġint ro
and ering
ĠS l
Ġpl ug
ĠC D
ĠM ill
iz ers
ĠB y
Ġper cept
Ġag ent
Ġag gress
Ġun iform
Ġpart ly
ĠN ations
Ġac id
Ġad s
Ġreal izing
ath ered
per cent
ĠCh urch
Ġsim ult
Ġgu ard
Ġbas ket
Ġbelie ves
Ġcar ing
Ġinter connected
Ġ20 50
Ġcare g
Ġrec all
Ġdem o
Ġbi ologists
ĠInd ones
ash ed
Ġloc ated
Ġpos itions
Ġtreat ments
Ġspeak s
Ġaud io
Ġda ughters
Ġvar iation
ĠWh ite
Ġtem porary
Ġsupport ing
Ġcommunic ations
Ġrobot ics
Ġnear by
Ġge omet
by e
Ġbene ath
Ġcirc les
Ġexperien cing
Ġbra ve
Ġdeg rad
Ġer rors
Ġexcept ion
Ġthreat ened
yl ac
Ġglass es
ĠIran ian
ĠIsrael i
Ġsal t
Ġsurround ing
Ġpuzz les
Ġden ial
ĠPl ay
ĠNor thern
Ġstim ul
Ġneuros cient
Ġrein vent
Ġcere mony
ĠAc ademy
Ġcandid ate
Ġfortun ate
Ġauton omous
Ġnavig ate
Ġcompar ison
Ġflex ible
Ġstoryt elling
Ġdevast ating
Ġcollaps ed
Ġathlet es
Ġguarant ee
ĠMand ela
ĠJes us
Lad ies
Ġexcit ement
1 9
C l
C omp
N one
S ix
S uddenly
b ra
d es
f in
g rad
h h
l ves
m ade
p ace
y o
Ġt act
Ġt une
re h
Ġo d
Ġc ree
Ġc ert
os n
Ġb ite
Ġb ored
Ġh ub
om a
Ġg ate
im ination
Ġst ored
Ġwas hing
th ree
Ġse lves
Ġas leep
Ġsh ipping
il a
Ġj elly
ess or
ess ions
est ed
Ġlo ck
Ġbut ter
Ġte nds
ĠS en
ĠC or
ĠC ath
ĠM arch
ĠM edic
Ġta g
ĠB ron
Ġcl ot
ĠP an
ĠD a
Ġ2 9
ĠN ic
Ġback yard
ĠR ay
ĠW alk
ne g
Ġbr ush
Ġcr imes
Ġcr ows
Ġgu err
ren ce
Ġins ulin
Ġend ang
Ġsci ences
ĠIt aly
Ġart istic
Ġkid ney
ĠSt age
ph ony
Ġdem ands
Ġcap s
Ġpres ents
Ġmem br
Ġchar ming
rem e
Ġdi agram
Ġsex y
Ġstruct ural
Ġlisten ed
Ġrad ically
omet own
Ġdemoc racies
Ġhy br
Ġcy l
Ġauth ors
Ġarr ange
Ġmar ine
ĠLe go
ĠLe ban
Ġflow ing
Ġtend ency
Ch ina
Ġactiv ate
Ġthreat s
Ġprison ers
Ġdam n
Ġsignific antly
Ġroll ing
Ġinnov ations
Ġremind s
orge ous
Ġver b
Ġconsequ ence
ĠCol lege
Ġreve als
Ġburn ed
Ġbag s
Ġtransm it
Ġrat io
Ġgar bage
Ġgrad ually
Ġperce ived
Ġexhib ition
ĠTur key
Ġgenet ics
Ġpun ish
ĠJew ish
Ġritual s
Ġbes ides
Ġobst acles
Ġtack le
Ġscenar io
ĠDet ro
Ġschizophren ia
Ġwedd ing
istot le
ĠNord en
A M
E n
F ive
J ohn
M A
M an
a ired
c re
d is
g ments
h ist
n et
u ilt
w est
Ġt one
Ġo y
at i
er ry
ou st
is c
Ġb in
Ġb ind
Ġb ump
ing er
ap or
ap ore
Ġd ent
Ġd il
Ġl it
Ġl es
ot o
Ġg h
Ġg ases
Ġre ci
ch er
ere n
ad ing
Ġme g
Ġde als
Ġv it
Ġv ia
ĠA p
ĠA ny
Ġsp ill
Ġsp ons
Ġsp ont
Ġyour selves
ĠC amb
ast y
gh ai
ans as
ĠB ay
ĠT y
ĠG ore
Ġun able
Ġtw ist
Ġco vers
Ġdis cr
ound ing
Ġro pe
Ġro cks
Ġcont ag
Ġlot tery
Ġres olve
ĠF rom
Ġsm oking
Ġbr ows
Ġgen u
Ġtra gic
Ġcour ses
Ġ3 1
Ġpoint ed
Ġmon keys
cy cl
Ġmet er
Ġsoci ally
ogr am
Ġset t
Ġmark er
Ġnight s
Ġcontin uing
Ġ7 00
Ġ8 00
ats on
Ġfail ures
ĠBr ian
Ġoper a
Ġsaf er
Ġtrad itions
Ġemb od
Ġsurv ived
Ġapproach es
Ġarchitect ural
ug al
Ġmain stream
Ġpost ed
Ġast eroid
ĠZ eal
Ġcompet e
Ġbur ied
Ġreact ions
Ġdiv or
Ġwhe els
Ġmathem atic
Ġhop es
Ġpurp oses
Ġthrow ing
ĠOr gan
Ġgradu ated
Ġdimens ion
iber ia
Ġsymbol s
Ġclimb ing
Ġvolunte er
Ġcorpor ations
Ġexpert ise
Ġtick et
Ġsatell ites
Ġnutr ients
Ġagre ement
Ġmosquit os
Ġimprov is
Ġshr imp
ĠSu per
Ġbarr ier
Ġbarr iers
Ġconstrain ts
Ġcous in
Ġsurf aces
eph en
Ġcolum n
ĠNG Os
Ġcomprom ise
Ġreconst ruct
Ġgro cer
ĠIndones ia
Ġreci pe
ĠCamb od
C L
G e
G lobal
b ling
c ol
i ating
t ra
v a
v ille
w orking
Ġth ylac
Ġs ulf
os ity
Ġh al
Ġf ile
an ghai
Ġd ownt
Ġin n
ed s
ed ge
Ġl anes
ve mber
ut an
qu is
id ges
Ġst atic
ro ad
if er
if ty
se ll
ad ed
Ġr ivers
Ġsp ider
ĠS ou
Ġtr iv
ĠC ould
ĠC yrus
ĠM od
Ġsu ck
iz z
ĠB el
Ġman if
ĠH ill
ĠT it
ĠT el
ĠG et
Ġcl ue
Ġpr ide
ĠD utch
ĠN et
ĠN ature
ass es
ep her
ĠL ab
ĠR iver
ict or
ĠW al
Ġoff ering
Ġwr ap
Ġtra ject
Ġown er
Ġown ed
Ġins ane
pe are
Ġdr own
Ġinter ventions
Ġ19 30
Ġpat ents
Ġpartic le
Ġcou p
Ġform al
bo o
Ġrest rict
Ġprof ile
Ġkill s
Ġcond oms
uck s
ane ous
Ġinvest ing
ĠNo vember
Ġaud iences
els on
Ġbreak s
Ġinclud ed
Ġciv ic
Ġaffect ing
ug ment
ev in
Ġimm ense
Ġsil k
Ġdiv ision
akes peare
ĠSw iss
Ġstrateg ic
Ġdom ain
Ġpack ed
Ġpack age
Ġcalcul ations
Ġmagn ific
Ġinterview s
Ġoffic er
Ġapply ing
Ġhistor ic
Ġfold ing
Ġteen ager
Ġcand y
ett i
Ġindepend ence
Ġmeas ures
Ġpair s
Ġterror ism
Ġdiction aries
Ġtow er
Ar t
Ġanalog y
bur gh
Ġhorm ones
Ġhunt ing
Ġwhist le
Ġarrest ed
Ġcontem porary
Ġadoles cent
Ġprost ate
ĠCount y
Ġclus ters
Ġchap ter
ĠRos ling
ĠCarol ina
Ġunbelie vable
Ġrecomm end
Ġenth us
dig it
Ġpandem ic
ĠVir gin
ĠDV D
ĠBron x
Ġendang ered
Ġgenu ine
ĠZeal and
L ife
a ware
i op
l aw
n ut
p ress
Ġt ale
Ġth resh
re al
Ġo ct
Ġs co
Ġc ub
Ġh ors
Ġh ometown
Ġp ir
Ġf iber
Ġd rought
Ġin her
Ġin hab
ot ed
Ġg ained
Th ird
im al
Ġst amp
Ġan at
Ġdo od
out s
ill ance
Ġne ck
Ġne oc
Ġso ap
Ġor ient
Ġal b
Ġsp o
Ġsp ray
ĠS om
ĠS anta
ĠC our
Ġsa ke
Ġsa cred
iz er
reat ing
Ġle an
Ġper pet
Ġman ual
ach ing
Ġhapp ily
ĠE s
Ġpr isons
ĠP rof
Ġover l
Ġbu cks
ep ing
ens es
Ġshe ets
Ġpo ckets
ĠR ome
ĠR oy
Ġdes erve
co ver
ĠF ar
ĠF our
Ġsy ndrome
ĠO cean
ĠJ ose
ĠJ ud
ĠJ osh
Ġsc aff
Ġmay or
Ġgen oc
ĠCh ile
Ġob t
ob s
Ġfound ations
Ġstr ip
Ġstr ict
Ġmin i
Ġread ers
Ġed itor
Ġter rain
Ġdem os
Ġsub way
Ġinf ant
Ġcap abilities
Ġform ing
Ġhead ed
Ġaut istic
Ġconnect s
Ġtop ics
Ġeduc ate
Ġcult iv
ĠInd ustrial
Ġloc ations
Ġbeautif ully
Ġcollect ively
Ġparent ing
Ġda wn
Ġtyp ing
Ġfall en
ĠSh anghai
Ġdest iny
Ġblind ness
Ġreport s
Ġec ological
Ġsch olars
la im
Ġmagn et
Ġrespond ing
Ġclassroom s
Ġteen age
Ġpig s
Ġgun s
Ġcooper ate
Ġbul let
Ġelement ary
Ġtransm ission
Ġsimpl est
Ġinstall ed
Ġofficial s
Ġpal m
Ġju ice
Ġgod s
itz er
Ġfortun ately
Ġestim ates
ĠTEDTalk s
iat ric
Ġdesper ately
Ġacknow led
Ġtrig ger
Ġexplos ion
Ġcorresp ond
ĠIce land
Ġexcell ent
Ġlifes pan
Ġpyram id
Ġmarath on
Ġglimp se
Ġmycel ium
cycl op
B A
B C
B I
C ar
N e
T ED
a way
b orn
e ffic
g ence
g ression
l usive
n es
u ke
v ia
Ġt ies
Ġa ugment
Ġw ires
Ġs ib
Ġc abin
Ġf ate
Ġf its
Ġd op
Ġd ys
Ġd umb
or ic
ar ry
Ġg athered
Ġg orgeous
Ġn est
ur ger
se c
se en
ir ts
Ġse w
Ġsh o
Ġsh y
Ġhe al
Ġj ew
Ġch ess
Ġde ar
Ġr ape
Ġpro ven
Ġcon vey
Ġal le
Ġal ign
ĠC oll
ĠC oke
Ġsa il
ĠM el
Ġexp licit
ĠB ob
ĠH i
ĠH ong
Ġun st
ĠE th
Ġcl iff
Ġco inc
ang ed
ber ry
Ġam bit
ĠR ock
ĠW atson
int erest
ĠJ uly
ne ys
Ġtra ce
Ġtra il
Ġsim ulation
Ġra cing
Ġcr iter
Ġrel iable
Ġstr anger
ĠSt ud
conom ic
Ġ5 5
Ġdem ographic
Ġsub t
ĠV ictor
Ġsign ature
ott on
Ġadv ent
Ġinvest ed
Ġpsych ologist
Ġfriend ly
Ġsurv iv
Ġcy cles
Ġdead ly
Ġsum m
Ġcamp s
Ġste pped
ĠAs ian
Ġworth y
Ġtransform ing
Ġrepresent ative
Ġmar ry
Ġmar vel
Ġchalleng ed
Ġmedic ation
Ġmechan ics
Ġprim itive
Ġbacter ial
Ġrid ing
Ġgraph ics
Ġswe at
Ġpan el
Ġsmell s
Ġdeterm ines
Ġlands capes
Ġport ion
Ġachieve ment
Where as
Ġhonest ly
Ġcover ing
Ġnut s
Ġshock ed
Ġsexual ity
Ġing en
Sh ould
Ġairpl anes
ĠSc ot
Ġban king
Ġexer c
Ġsimpl er
Ġconcentr ation
Ġsurge ons
forest ation
uls es
ĠTur k
Ġteles copes
ĠWill iam
Ġinit ially
Ġcandid ates
Ġcyber cr
Ġelectro des
Ġdiscipl ine
Ġgest ure
ĠAtl antic
Ġportra it
Ġaband oned
Ġoccasion ally
Ġmyster ious
Ġorchest ra
ras ound
Ġhalluc inations
quar ters
Ġsupermark et
Ġlun gs
Ġexpans ion
Ġlin ear
Ġaggress ive
ĠCath olic
epher d
A f
D e
a eda
c ost
o ir
r hythm
s pring
u an
u ber
Ġthe ore
Ġs ir
Ġs ons
Ġs lic
er on
it ated
os c
Ġm apping
or age
us al
us iness
ut y
Ġre ass
Ġre wards
Ġst om
Ġst ake
Ġst ead
ch ing
ch anging
if ul
am med
Ġab ilities
Ġse al
Ġsh it
Ġwor ms
il ized
Ġsom eday
Ġcon qu
Ġlo ving
Ġint ensive
ĠS and
ort ed
el p
ĠM ag
Ġwork force
Ġcomp reh
Ġle verage
ĠB re
ĠH ollywood
Ġag ents
ĠG lobal
Ġcl ues
ĠP ower
ĠD oes
lo oking
Ġcont rary
ĠR am
Ġbo ost
Ġbo ots
ĠW ait
other ap
ĠJ ac
Ġwr apped
Ġfind ings
we ight
Ġra ises
Ġbuild s
Ġob ese
Ġbelie ving
Ġke ys
Ġcar ries
Ġinter ven
Ġstr ike
pl us
Ġmod e
Ġmin es
Ġgra ve
Ġgra ce
Ġla ke
Ġbus h
Ġbi o
Ġvis ually
Ġpass es
rib ly
Ġmoment um
Ġinteresting ly
Ġstop ping
Ġbad ly
Ġbre eding
Ġprof its
Ġche at
Ġdeep est
ush ed
Ġengine ered
omet er
ĠSh akespeare
Ġred esign
Ġsuper st
Ġpsych ologists
Ġsuggest ion
Ġprop ag
Ġprop osal
Ġbra nds
Ġimm ort
Ġmar g
Ġcompet ing
Ġcompet itive
Not hing
ĠLe on
Ġinstitut ional
Ġparticip ation
Ġdam aged
Ġappear ance
Ġwild life
Ġenj o
Ġfra ction
Ġjump ed
Ġdiscover ing
Ġcorru pt
Ġinterview ed
Ġhistor ically
ĠSte wart
Ġinj ured
Ġgentle man
ĠCon f
thes ia
Ġtum ors
Ġcontribut ion
Ġtal ents
ĠEvery body
Ġchann els
Ġpurs ue
Ġcourage ous
Ġexhib it
Ġmanip ulate
Ġmushroom s
Ġhoriz ont
Ġbombs ight
stand ing
Ġembarrass ing
Ġmim ic
Ġrecyc led
Ġneut ral
Ġdisturb ing
Ġintrig uing
Ġlegis lation
ĠTasman ian
Ġhelicop ter
Ġlux ury
Ġunh appy
Ġpige on
ĠAbra ham
Ġsimult aneously
ĠDetro it
Ġmagnific ent
Ġambit ious
Ġcriter ia
C H
K e
N C
S ame
T w
U ntil
a o
c ation
k ind
m un
r it
r ats
s ized
Ġt ie
Ġa we
Ġthe ories
Ġs ne
Ġs ale
er als
Ġb ills
Ġh ated
Ġp ills
Ġf ancy
Ġf isher
Ġg aps
ic it
ic ient
ĠI BM
ut s
Ġre nder
ur able
Ġst aring
Ġst unning
th eless
ust ing
Ġch am
Ġde cent
Ġde af
Ġr ose
Ġcon gest
ĠA v
Ġsee king
Ġup side
ĠC ont
ĠM ur
ĠM aybe
ag os
ĠB ell
ach er
ĠT ib
Ġimp ression
Ġbu ff
lo ved
ĠL ou
Ġsy ring
Ġreal m
Ġpre vention
Ġoff spring
Ġgen omes
Ġhuman itarian
Ġtra cks
Ġsystem atically
av a
Ġgu ilty
Ġcol ored
Ġfl avor
Ġfl ows
Ġ3 7
Ġinst ruction
Ġ19 00
Ġgra bb
Ġla wn
Ġrec laim
Ġrep licate
Ġhard est
Ġ4 6
Ġcap ability
ier ra
Ġreason able
Ġ200 2
ĠNew s
ĠNew ton
Ġanswer ing
Ġfree zing
Ġvir al
Ġmess y
cc oli
Ġdemoc rat
unt ing
Ġvers ions
com puter
Ġstat istic
Ġhar bor
Ġfire flies
Ġvac uum
Ġtruth s
Ġimm ers
ĠZ imb
Ġstra w
Ġdefin ing
Ġconscious ly
Ġep is
Ġauthor ities
Ġwebs ites
Ġdetect ion
Ġconcer ns
ĠGe ographic
ĠAm y
Ġfra gment
imp s
Ġenjoy ed
Ġann ual
Ġcustom er
Ġresist ant
Ġsurve illance
Ġcru el
Ġbatter ies
Ġphysic ists
Ġregular ly
Ġshel f
Re ally
Ġsucceed ed
Ġastron aut
Ġgrain s
Ġlimit ations
Ġrepl aced
ĠJe ff
Ġconduct ed
Ġextend ed
Ġminim um
Ġdolph in
Ġfright ening
Ġoverwhel med
Ġlabel ed
ĠSat urn
Ġacknow ledge
Ġcontrovers ial
Ġbeet les
ĠMont ana
Ġabsor b
ĠLad en
ĠSing apore
Ġcoun sel
Ġperm ission
Ġaes thetic
Ġtro ops
Ġexped ition
ĠTan zan
Ġgras p
ĠQue en
Ġhybr id
Ġcyl inder
Ġdownt own
ĠSou thern
Ġtraject ory
Ġthresh old
Ġgenoc ide
1 00
B ill
B oth
D r
M S
N ever
c a
c in
f ire
h al
l an
l ers
r ist
w orld
Ã ¡
Ġ +
Ġa unt
in em
Ġw ard
Ġc ube
Ġb ure
Ġb lob
Ġh ired
Ġd irt
or ious
Ġin ex
Ġin mates
ar ge
Ġg el
Ġn erves
Ġbe nd
Ġbe ef
Ġre vel
im a
im ag
Ġst orage
ere nt
Ġsh out
Ġsh aking
ter ing
ul es
um ble
Ġv enture
ĠA lp
ĠA udience
Ġout rage
It s
ie ce
ĠS er
ĠS pe
ĠS ee
Ġsee mingly
Ġact ively
ĠC ur
ĠM at
ĠM ary
ĠM ike
act ive
ĠB oy
ĠT un
ĠT ime
Ġtw ins
Ġpr ose
Ġover se
Ġdis asters
Ġpo le
ĠL ee
Ġac ids
Ġres olution
Ġher itage
ĠW il
Ġshow er
Ġgr amm
ak en
ĠO l
ĠU SA
Ġcount ing
Ġsc ales
ons ider
Ġsystem atic
Ġtechn ically
ĠK y
ail s
Ġhelp less
Ġunderstand s
Ġrel ation
Ġcell ular
Ġmod est
Ġmin us
Ġplan ned
Ġcomput ational
Ġproject ions
vers ion
Ġbi ologist
Ġinf l
Ġinf lation
Ġhead ing
Ġphys icians
Ġche ating
Ġcontin uous
bs olut
Ġca ves
Ġfund ra
Ġexpect ing
Ġinvest ments
ĠAr istotle
Ġill usions
Ġpred iction
Ġtem por
Ġterr ified
Ġcal c
Ġsum mar
ann a
Ġcivil izations
Ġprop ose
Ġvol can
Ġplant ed
Ġperiod s
Ġmicro phone
Ġmedic ines
Ġmeth ane
Ġcompassion ate
Ġextraord inarily
Ġauthor itarian
Al though
Ġassum ed
Ġassum ption
Ġearl iest
Ġrap ed
Ġjud gments
Ġreflect ion
Ġscr ipt
Ġrandom ly
fact ion
Ġlog ical
Ġdoub led
Ġtherap ies
Ġvot ed
li hood
Ġepide m
uild ing
Ġsubst ant
Ġsculpt ures
Ġopin ions
Ġincent ive
Ġconstruct ed
Ġinev it
Ġmak er
Ġoverwhel ming
Ġencoura ged
Ġencoura ging
Ġhoriz on
Ġbrib e
dr iven
Ġben ch
Ġicon ic
Ġabund ance
Ġstri king
Ġsuppl ies
agh etti
ĠSil icon
Ġdynam ics
Ġhier archy
onge vity
Ġlone ly
Ġrecess ion
Ġrehabil itation
Ġclot hing
ĠCour t
Ġdop amine
otherap y
B J
G et
W K
i atr
p erson
t ent
u ction
v iron
z ler
Ġa h
Ġw ins
re tty
at ics
at ts
it ative
Ġh ob
or r
Ġin du
Ġl ongevity
ar l
ar ians
ic an
ay ing
ur day
ig ma
Ġst air
Ġfor b
am il
ol en
Ġsh ips
ad ian
Ġj aw
Ġlike lihood
Ġv en
Ġv ivid
ind a
ink ing
Ġsp an
Ġsp are
Ġsp aghetti
ie ve
her om
Ġcomp ound
Ġen zy
ĠB u
ach el
Ġcl ient
ĠP op
Ġar bit
Ġdis ability
Ġkind ness
ru ption
ell ed
ĠR em
Ġher d
ĠW atch
ĠW right
Ġreal istic
Ġpre v
ath em
Ġapp s
Ġinv olving
Ġcr iminals
ĠK ir
ew is
Ġhigh way
az a
Ġmed itation
Ġcare s
Ġrec re
Ġcomput ation
Ġfar ms
pr il
Ġvis cer
Ġeas iest
ograph ical
Ġamaz ed
Ġself ish
Ġadv ances
Ġsec ular
Ġappro ved
Ġname ly
Ġemp owered
Ġwind s
Ġmot ors
Ġcut s
Ġsaf ely
Ġcal m
Ġcool ing
Ġsqu ee
Ġapproach ing
Ġcamp us
Ġfavor ites
Ġvac ation
Ġprop osition
Ġtouch ing
Ġrece iving
Ġult rasound
Ġattack ed
St ud
With out
amm ad
ĠDe velop
Ġremark ably
Ġ199 9
Ġdetect or
Ġunivers es
Ġtemper atures
enn is
Ġcalcul ated
Ġdiscover ies
Ġassoci ate
Any one
Ġphenomen a
Ġwood en
Ġmotiv ated
Ġinj uries
Ġdocument ary
Ġfat al
ĠMexic an
Ġswitch ed
Ġcorrect ly
Ġreplace ment
Ġfrequ ently
Ġinstall ation
ĠMo ore
Ġpartners hip
Ġmill enn
Ġaccom pan
Ġintr ins
do or
Ġinform ed
Ġtoile ts
ĠCo ast
Ġingred ient
Ġenem ies
Ġscen es
Ġlect ures
bur g
ĠPark inson
Ġreprodu ce
ĠGree k
Ġvoc al
Ġregard less
Ġobser ved
Ġassign ment
Ġreject ed
oli ath
ĠSat urday
Ġestablish ed
Ġbeet le
Ġtwe et
ĠHaw ai
Ġtoler ance
ĠGand hi
Ġimpress ive
Ġtatto o
ĠTes zler
ĠDel hi
Ġnonviol ent
Ġcatast roph
Ġchimpanz ees
Ġmur der
Ġincor por
Ġmonit oring
abul ary
ĠBrook lyn
Ġimprovis ation
ĠVirgin ia
Ġstom ach
C A
H uman
M us
M ark
P T
R ather
T S
a ire
i ologist
j a
n ie
n ik
o en
r r
u ously
y er
Ġt urb
Ġt angible
Ġth us
in come
re ens
Ġo ven
Ġb am
Ġb ang
Ġb other
Ġm ast
Ġm ask
Ġh int
Ġto ast
Ġp herom
ot ing
ot ect
Ġy east
as king
Ġn ode
Ġbe loved
ent er
Ġst olen
op us
ol um
th als
Ġse as
Ġsh red
Ġsh ifts
Ġsh epherd
ad ium
ill as
ul ance
il ation
Ġfr ames
Ġj an
Ġr ip
Ġus eless
Ġor ang
Ġlo ose
Ġkn ife
Ġv ary
Ġtr apped
ĠC amp
og y
ast e
Ġwork place
iz a
Ġexp osure
ĠB osn
ĠH uman
ach es
ach ine
ĠT re
ĠT im
ĠT ah
Ġco verage
Ġover head
Ġdis g
ens us
Ġro les
ĠL in
ult y
ĠR and
Ġbo nd
ĠW o
Ġreal ization
Ġide ology
Ġpre par
ĠJ ord
Ġapp les
Ġ3 50
Ġart ic
Ġent ry
Ġent ering
Ġstr ings
Ġatt itudes
Ġgener osity
Ġ4 4
Ġbi od
Ġpass ive
Ġinf er
Ġform at
ogr ams
Ġval ley
Ġpolit ician
Ġnight m
Ġfollow s
Ġprogram mers
Ġemp ath
ĠAr gent
Ġbro ccoli
Ġfilm maker
Ġwin ner
Ġap olog
Ġorig ins
Ġprofess ors
Ġpredict able
Ġlif el
Ġcross ed
ĠSw itzer
Ġfant asy
Ġinfect ions
Ġnarr atives
Ġsignific ance
Ġ201 2
fr am
Ġcorre l
yl on
Ġtrib al
Ġ198 4
Ġpen is
Ġworry ing
ĠSp ain
Ġdestro ying
ĠCl int
Ġoccur ring
Ġblog s
ĠChar lie
Ġscan ning
ĠMin istry
cop ic
Ġbelong s
Ġresc ued
gra du
Ġconfront ed
Ġauton omy
Ġaccompl ished
Ġvoc abulary
Ġelimin ate
Ġrefriger ator
Ġchromos omes
ĠFre edom
Ad am
Ġpleas ant
Ġinh ib
ĠDis ney
Ġglaci er
Ġeleg ant
ĠWol fram
Ġjelly fish
Ġgrocer y
ĠProf essor
cyclop edia
ĠTun is
Ġoverse as
ĠSwitzer land
A cc
D uring
H alf
N ew
R es
T en
U nder
g ian
l or
m ate
m ind
p os
p age
r in
in th
Ġw rest
Ġc ope
Ġm ild
Ġm apped
Ġm esh
Ġh ut
Ġp ad
Ġd ens
Ġd ile
or ough
Ġin ch
Ġl ists
ar on
ot on
ĠI re
Ġe co
Ġis lands
Ġre nt
ct ive
Ġha mb
ur ning
ch ron
ro ve
se x
Ġwas ted
am an
st orm
Ġcan cers
Ġcan vas
Ġsh ore
Ġsh ots
ul ative
il ated
Ġj e
Ġj et
Ġch ains
Ġde forestation
Ġr h
um bs
Ġlo go
Ġkn ees
Ġint act
Ġint ended
ĠS ierra
ort ion
Ġpl ates
Wh atever
ĠM et
ĠM ond
iz ab
are st
act ic
ack s
Ġen abled
Ġta bles
Ġle ver
ĠB h
Ġman ner
Ġman aging
ud i
ĠH all
Ġun le
ĠD es
ry pt
ĠN elson
Ġshe er
ĠL ine
Ġac cent
ĠJ ones
ful ness
ĠU s
Ġsc rew
Ġbr idges
Ġ3 8
Ġob so
ĠIt alian
Ġbas king
Ġcons p
erg y
Ġsmall est
Ġreg ulations
Ġvis ions
Ġpass ions
Ġconf ig
Ġcor ners
ĠV ery
ĠAfric ans
ĠTED Global
Ġresearch ing
Ġadd iction
Ġequ ations
Ġcond om
Ġamazing ly
Ġret ail
Ġdep os
ĠAr thur
Ġnorm s
Ġliter acy
Ġmic r
Ġz ones
Ġpract icing
Ġsqu ared
Ġocc urs
ustain able
Ġconv icted
Ġmeasure ments
Ġobs c
Ġobs ession
Ġdest ination
Ġtext ure
Ġpath s
Ġfem inist
Ġunf air
Ġpan ic
Ġpan creat
Ġsch ed
Ġreflect ed
Ġthr ive
Ġrespond ed
Ġpark s
Ġdiagn ost
Ġhonest y
Be ing
Ġautom obile
Ġblock ing
Ġintegr ate
ĠCol umb
Ġjournal ists
Ġtens ion
Ġphilosoph ical
Ġattract ed
Ġaccur acy
Ġbound ary
Ġembra cing
Ġquant ities
Ġdomin ated
Ġalt ered
Ġund erest
ĠEgypt ian
Ġur ge
Ġadop ted
Ġsympt om
uh ammad
Ġsan itation
gra de
Ġlapt ops
Ġisol ation
Ġinterpret ation
Ġconsist ent
Ġestim ated
Ġspin ning
Ġproced ures
Ġelev ator
Ġmetabol ism
Ġment or
Ġregener ate
vas ive
Ġped est
Ġbran ches
Ġchromos ome
opard y
Ġpupp et
Sim ilar
enh agen
thet ics
ĠNeander thals
ĠPalestin ian
EC D
Turn s
Ġod or
ĠLeban on
ĠCambod ia
Ġmanif est
Ġoct opus
Ġsib lings
Ġjew el
ĠEth iop
Ġcongest ion
ĠTanzan ia
bsolut ely
Ġcalc ulation
Ġprepar ation
Ġdile m
izab eth
Ġpancreat ic
C ola
D esign
d a
e ffect
r ip
t z
x imately
Ġt s
Ġt iger
in ent
in ity
in ery
Ġs ands
Ġs izes
at ical
Ġc age
Ġc able
Ġc ale
is a
Ġm entally
Ġp orn
Ġp ulse
Ġf ounder
Ġd are
Ġd ating
Ġd rew
or ient
or ters
al i
Ġy ards
Ġwe lf
Ġst adium
ere r
ro id
if act
Ġan ge
Ġan ten
Ġse venth
Ġsh irt
ad o
Ġcom ic
Ġfr uits
Ġex cess
Ġpro ph
est one
Ġlo yal
ĠA gain
ĠA pril
Ġsp erm
ĠS ub
ĠS ky
ain e
em an
ĠM er
ose xual
Ġcomp aring
ab we
ĠB ern
Ġdon ors
ĠH on
ĠH ad
Ġun w
ĠE v
red ict
ĠN az
ass ive
ac re
rain ed
ĠL ak
ĠL isten
ple te
Ġunder m
Ġam pl
Ġres ur
ĠR oss
Ġdes cend
Ġbo ats
ĠF ed
Ġcomm ission
Ġinc om
Ġcount ed
Ġsc ans
igh th
Ġbl ur
Ġbl ess
Ġlong est
Ġend e
Ġrel ief
Ġprodu cers
Ġart ifact
Ġfam ously
Ġ20 30
Ġext inction
Ġplan es
Ġread er
Ġcare d
Ġexpl ores
Ġteach es
Ġrep ut
Ġreg rets
Ġ4 8
Ġcou ch
Ġsub m
Ġchar ged
Ġfriends hip
Ġpay s
Ġabs ence
Ġmass es
Ġmass ively
Ġarch ive
Ġvar iable
ĠSh ow
Ġlow est
Ġcommunic ating
Some one
Ġconsum ed
sh ah
Ġaw ake
Ġpath ways
Ġtele com
ĠPh ot
Ġrich est
Ġactiv ists
Ġexcept ions
Ġapart ments
Ġgraph s
Ġmagic ian
ĠDe f
Ġcollabor ate
Ġperspect ives
Ġdiscuss ions
yl via
Ġ13 0
Ġreflect s
Ġhur d
Ġsquare s
Ġroll ed
Ġjump ing
Ġsym p
Ġeth ic
Ġcelebr ity
Ġshift ed
Ġwood s
Ġelectr ons
Ġmut ations
Ġlaugh ed
ĠPar liament
Ġemotion ally
Ġbeat en
Ġaccur ately
Ġforg ive
Ġhack ing
Ġmuseum s
ĠNor we
Ġstream s
Ġbud gets
Ġillustr ates
cript ions
Ġprior it
Ġveget able
Ġtal ented
Ġalt ru
Ġalt itude
Ġtow el
Ġpow ered
Ġcos mic
ĠBro ad
Ġeleph ants
Ġpip eline
ĠGree ce
Ġprivile ged
Ġmetabol ic
Ġentrepreneur ial
Ġhel met
ĠCop enhagen
ĠJer usal
Ġauthentic ity
ingu ish
ĠAlex ander
Ġirr ational
Ġdiplom acy
Ġastronom ers
Ġstereoty pes
ĠSyr ia
Ġobserv ations
Ġpubl ishing
Ġmembr ane
Ġdiscr imination
Ġembod ied
ĠOrgan ization
Ġtriv ial
ĠJosh ua
Ġscaff old
ĠZimb abwe
oen ix
Ġbiod iversity
ĠClint on
Ġobso lete
Ġcale nd
ĠJerusal em
C on
J H
P ut
P aul
a que
b ar
b ul
f unction
m es
p ers
p read
p owered
r ane
u per
Ġt id
Ġth read
in ating
in ational
re p
at ories
er os
er ving
Ġc ows
it u
Ġb ats
Ġb inary
Ġh eter
Ġto ll
Ġp atch
Ġp iles
Ġp estic
Ġf ract
Ġd y
or se
or ph
Ġl oses
Ġl ingu
ot es
Ġy og
Ġg er
Ġn u
Ġn ap
ut en
ver ts
ch ed
ro c
op les
ol ine
Ġse ats
Ġsh ops
ad el
Ġso vere
Ġj ar
Ġex otic
Ġex agger
Ġex quis
Ġch at
Ġr ib
Ġr ank
Ġus age
Ġpro ceed
ear t
Ġor ph
ĠA ge
Ġint ric
ĠS k
ĠS al
Ġthink ers
iv a
ĠM uhammad
og er
ous es
Ġen vel
Ġen light
Ġle x
Ġexp on
ĠB i
ĠB ud
res ist
ĠH an
ĠH ir
ĠH ol
iff erent
ĠT ed
Ġun ve
Ġpr imate
ĠD i
Ġar ter
Ġar ise
Ġco at
Ġbu gs
orm al
ang le
Ġmo ld
olog ic
ĠL ord
ĠL ester
ĠF ree
Ġgr oss
ĠO ut
ĠO oh
ĠO ECD
ĠJ ill
ĠJ ane
ors hip
per form
Ġdec ides
te en
Ġtra ces
Ġind ex
ian a
Ġrem itt
Ġshould ers
ub a
Ġfl aw
Ġtrans it
Ġrel ates
Ġdr unk
Ġcar p
Ġinter ior
ĠAnd rew
ween ey
Ġ19 2
ific ations
Ġfar ming
Ġter ribly
Ġdem ograph
Ġreg ist
Ġ4 2
Ġprocess ed
Ġconnect ivity
io v
Ġdef ault
Ġreason ing
Ġcur ves
Ġcho ir
Ġside walk
Ġgirl friend
Ġpos ters
Ġsw allow
Ġpar ach
Ġpast e
Ġ9 6
Ġhuge ly
Ġmust ache
Ġsex ually
Ġcra cks
Ġsens ing
Ġarg ued
Ġtem ple
Ġemb ry
Ġmult inational
Ġrele ases
com ing
Ġpur ple
Ġer otic
Ġtrust ed
Is n
ĠLe one
Ġball s
Ġmarr ow
Ġvisual ize
Ġest ate
Ch ris
Ġclean ing
Al most
Ġvirt ue
ĠJohn ny
Ġinfect ious
Ġclos est
Ġluck ily
Ġhop eless
ĠChrist ians
Ġmir acles
ĠRe ally
Ġdrop s
Ġprevent ing
Ġexh a
Ġselect ed
Ġintegr ation
Ġmut ual
Ġdocument ed
Ġtax es
Ġamb ulance
Ġtom ato
Ġvot ers
Ġremote ly
Ġdan cers
Ġcontribut ed
Ġgold en
Ġstim ulation
ĠMo z
Ġterror ists
Ġconcentr ated
Ġmill imeter
Ġplatform s
Ġmaster y
Ġrom ance
Ġreform s
Ġnegot iate
Ġnur ture
Ġweak ness
Ġanx ious
Ġacqu ired
bre ak
cont rolled
Ġfright ened
Ġmel ting
Ġcontrovers y
Ġcous ins
Ġasp ir
olit an
Ġrecyc ling
Ġportra its
ĠSec ret
ĠOlymp ic
Ġminor ity
Ġadministr ation
Ġna ive
Ġveter ans
Ġunp redict
engine ering
Ġcas ual
Ġfavel as
Ġgeomet ry
Ġinhab it
effic ient
ĠLeon ardo
Ġenjo ying
ĠTib et
Ġinevit ably
Ġstair case
Ġviscer al
ĠIre land
Ġts un
Ġwelf are
shah idi
Ġenvel ope
A K
A S
B et
C ol
F G
e lect
g on
i ations
l ow
l og
l ades
m atic
r ays
t t
w andering
Ġt iles
in able
Ġo l
Ġo oh
Ġs od
ou red
Ġc otton
it ic
Ġb ore
Ġm ater
Ġm erg
Ġh ipp
Ġto es
Ġf er
Ġf is
Ġf ence
Ġl ump
ot ter
le vant
ll i
Ġn ud
Ġe ats
Ġbe lly
ur a
ig en
Ġst igma
ke ley
if ies
op a
ol n
th irds
ra h
ra w
Ġas semble
Ġsh ining
Ġsh oe
Ġhe y
Ġme ets
Ġat om
Ġj am
Ġj ung
Ġr ays
Ġr hythm
Ġpro l
Ġpe ers
Ġpe oples
art en
um or
Ġlo an
Ġma c
Ġint ensity
un es
ĠS MS
ĠS weeney
ci ety
Ġby pass
ĠC ons
ĠC oun
ĠC oca
em on
em ical
ĠM ir
ĠM any
Ġcomp ounds
Ġle opard
ĠB as
ĠB ert
ĠH omo
ĠG oliath
ĠE mp
Ġcl ips
Ġpr on
ĠD al
ĠD ub
ĠN ether
Ġbu zz
olog ies
ĠL ang
ĠL ake
ĠL ama
Ġac oust
Ġunder gradu
Ġres idents
ĠR on
ĠR ad
Ġdes erves
ĠF ive
ĠW ater
ank ton
ĠU N
Ġsc reens
be es
ĠCh e
ĠCh ildren
Ġbl owing
Ġrem ix
Ġcreat or
Ġend less
ail and
Ġrel atives
Ġnever theless
Ġcons cience
Ġfam ine
oc ative
ĠSt one
Ġsl ip
Ġgra v
Ġla und
Ġbeh alf
Ġed it
Ġgener ic
Ġexpl ored
Ġproject ion
Ġear ning
Ġreg ul
Ġbi olum
Ġsk i
Ġpass age
Ġsub mit
Ġsol o
Ġhead line
Ġdist ances
Ġeas tern
Ġref use
Ġpublic ly
ĠâĢ ¦
cul osis
Ġdep art
Ġexpect ation
Ġris es
Ġfail s
Ġland ing
Ġill um
Ġalong side
Ġrev olutions
Ġsens ation
Ġdream ed
ides pread
Ġstay s
Some body
gen er
Ġexperiment ing
Ġwin ners
Ġfeed s
Ġrisk y
Ġopt ical
Ġfem in
Ġsuff icient
Not ice
ĠPh oenix
Ġvisual ization
Ġaccount ing
Ġsea f
Ġintrodu ction
ĠSe a
ĠSe cond
umb ling
Ġec ology
Ġdetect ed
soci ation
Ġ14 0
Ġsyn chron
ĠCar l
Ġsurger ies
Ġhop ed
Ġdemonstr ated
Ġinnov ate
Ġdro pping
Ġoppos ition
Ġfold ed
ĠQ atar
Ġtarget ed
Ġcatch ing
Ġadapt ation
Ġanaly zed
Ġblog ging
Ġorg asm
Ġappe al
Ġprior ity
Ġpresident ial
Ġantib odies
inc oln
ĠDan iel
Ġharm ony
Ġgrad es
ĠBang lades
ĠGreen land
Ġscar ce
Ġsatis faction
ĠBer keley
ĠJew s
Ġobser ving
Ġlift ed
Ex cept
Ġcontem pl
Ġstorm s
ĠEve rest
Ġadoles cence
Ġdeploy ed
Ġpour ing
Ġiniti ative
Ġparas ite
ĠSec urity
ĠBab ylon
Ġsle pt
Ġtextbook s
Us ing
Ġdefe at
Ġdism iss
Ġsusp icious
Ġwarr ior
Ġclar ity
Ġanes thesia
Ġrecru it
Ġbrut al
Ġcath ed
Ġphilanthrop y
Ġcigaret te
Ġweeke nd
Ġfung i
Ġdelic ious
Ġbrows er
Ġalb um
uber culosis
Ġbure auc
PT CH
mind ed
ĠMond ay
ĠCoun cil
ĠNether lands
Ġbiolum ines
C C
F r
G u
G ive
H C
M ich
S m
U p
b ow
b ie
b led
b ucks
c ons
e u
f ive
i ro
j ud
p iece
s p
y on
Ġt ut
Ġt ide
Ġt uberculosis
Ġth y
in burgh
Ġw est
Ġw idespread
Ġo v
at oes
er k
Ġm it
Ġm ud
Ġm ature
Ġp ound
Ġf ans
Ġd ome
Ġl os
om in
ĠI g
Ġe go
ur os
Ġst ressed
am ie
Ġan ec
Ġse nds
Ġse ctions
ation ally
Ġli ps
Ġsh aping
Ġhe ating
Ġj ack
Ġch ase
Ġcon j
ok yo
ist ory
Ġv ag
Ġv ice
ĠA fter
Ġal ert
Ġal ike
Ġal arm
Ġint imate
Ġsp at
ĠS us
ĠS ur
ĠS pring
iv il
our ced
ĠM all
iz ational
Ġexp ort
Ġexp ressed
Ġper se
Ġman kind
ĠH am
ĠH ung
ĠT en
ĠT emp
ĠG il
ĠE conom
ĠP ers
ip ts
Ġro d
Ġro de
ĠL uther
ĠL incoln
Ġcont amin
ber ty
ĠF ore
ĠF ort
ĠW ay
int u
ĠO s
Ġinc ar
ĠU p
Ġcount s
Ġtra it
Ġlet hal
Ġcr ank
Ġbl ah
ĠK ong
ĠK evin
he ld
ob i
Ġkid ding
Ġcons ensus
Ġent r
Ġimag ining
oc racy
ĠIn ter
Ġdevelop ers
Ġsl ower
ph ia
Ġpat ience
Ġser ves
Ġmet als
Ġgener ates
Ġcomput e
ĠSo cial
Ġenv ision
Ġdist inction
bo y
Ġscient ifically
Ġchar ities
Ġchar ges
Ġbre ed
Ġref used
Ġmach inery
Ġblo ody
Ġexc use
Ġnet working
Ġcontin uously
Ġconst itut
Ġ8 6
ĠAr ch
Ġcir cul
Ġoper ates
Ġes c
Ġterr itory
Ġple ased
Ġchem ist
Ġviol in
Ġpick s
rom agn
Ġge ography
Ġapproach ed
sh aped
ĠTh ose
ĠTh ailand
Ġice berg
Ġinvent or
Ġpost c
vert ed
Ġcop ies
Ġsubject ive
Ġflu ctu
Ġneg lect
ĠBe ach
ned y
Ġimprove ments
Ġemerg ence
Ġparticip ating
Ġpu berty
Ġassum ing
Ġdiscuss ing
Ġfill ing
Ġstress ful
ĠCar neg
Ġcalcul ating
Ġkil os
Ġheav ily
omm od
ĠKen nedy
Ġpen cil
Ġmatch ed
Ġsal ary
Ġcelebr ated
Ġmix ing
Ġemail s
Ġhall s
off s
Ġtransport ed
Ġann ounce
ĠMc C
ĠCol omb
Ġdispl ays
Ġphilosoph ers
ĠPl an
Ġvot es
Ġhyp oth
Ġbul b
Ġprior ities
mon th
ĠSwed ish
Ġacceler ate
ĠJe opardy
ĠPhil adel
Ġmyth s
Ġcup s
Ġdish es
Ġpoem s
Ġcontain er
Ġreven ues
bre aking
Americ ans
Ġwitness ed
Ġsacr ific
Ġprem ise
Ġdict ators
ĠCop ern
Ġimplement ed
Ġrub ber
ĠStar bucks
Ġcapt ain
ĠDemoc ratic
Ġbran ch
Ġanticip ate
Ġabund ant
Ġdecre ase
Ġutter ly
aze era
Ġdisrupt ive
ĠSa udi
Ġschem e
ĠPart y
Ġdisag ree
Ġstatist ical
Ġattribut es
Ġintim acy
Ge orge
Ġhors es
ĠSom alia
ĠJose ph
Af ric
Ġsyring e
Ġgramm ar
Ġbam boo
Acc ording
ĠDal ai
Ġanec d
ĠTemp est
ĠCarneg ie
ĠPhiladel phia
7 0
G reat
H i
M G
S ure
S upp
T ime
W as
c ou
c onscious
e em
f ig
f und
g os
j amin
l ar
m assive
p ack
r ition
z es
Ġth orough
Ġw ives
Ġw estern
Ġc um
Ġc oding
it ar
Ġb anned
ing ing
Ġm ixt
Ġm arsh
Ġp it
Ġp ants
es cope
an i
an as
an while
Ġd iving
om ed
as a
as ive
as sembly
Ġn ic
Ġbe am
Ġre ck
Ġre un
qu ality
ver b
Th irty
ur f
ig an
ch ild
ro v
op y
op atch
Ġk it
Ġwor m
Ġch imps
Ġde ck
Ġde br
Ġpro ved
Ġpro be
Ġpe an
ĠA ctually
Ġal umin
ĠS ud
ĠS omet
ĠS put
Ġtr ips
el ing
ĠC ap
our se
Ġtim ing
Ġle gend
ĠB lo
Ġper f
Ġman eu
Ġev apor
ĠH ot
ĠH ind
ĠH osp
ĠT okyo
Ġcl itor
ĠP o
ĠP enn
ĠN ike
ep r
ĠL ewis
Ġres ident
ĠF il
Ġgood bye
ĠJ ay
ĠJ up
ĠJ ournal
ĠJ azeera
ress ing
ĠU shahidi
Ġcount less
Ġdec or
Ġgreat ly
be an
Ġra c
Ġgu ards
Ġins ert
Ġtrans ist
Ġdr ama
pl ed
ĠSt ephen
Ġnum er
Ġsl ope
Ġmin erals
Ġel abor
Ġreg ional
gr aph
Ġprocess or
Ġhand y
Ġspace craft
Ġsecond ary
Ġelect romagn
Ġpop s
arr he
arr iage
irl ing
Ġpres um
Ġval ve
ĠTED sters
Ġadd ict
Ġeduc ating
Ġyoung est
bo ards
Ġequ ity
less ness
Ġfil med
Ġgl ow
Ġcontin ents
Ġret rof
br ush
Ġ7 2
Ġappro ximately
aw ater
ĠNo body
Ġoper ated
Ġfre ak
Ġdig ging
Ġexist ential
ĠAl bert
Ġpsych iatr
Ġrecogn izing
Ġste aling
Ġcrit ically
Ġdescrib ing
Ġbenef icial
ĠCan adian
Ġconcept ual
Ġprom ised
Ġsil icon
Ġachie ving
Ġfunction ing
ĠFr ied
Ġfair ness
Ġaccount ability
Ġrevolution ary
Ch ildren
Ġscreen ing
Ġmis under
ĠSe attle
ĠJohn son
Ġ199 8
Ġreturn s
Ġdiscuss ed
Ġnucle us
Ġaccept ance
Ġemploy ment
Ġlad der
Ġreflect ive
Ġcheck ing
Ġdemonstr ates
Ġpen etr
Ġcard iac
Ġmatch es
Ġaddress ing
Ġfold s
Ġmultip ly
af e
Ġmotiv ate
Ġadapt ive
Ġloss es
Ġstrength s
Ġreve aled
Ġnovel ty
Ġnote book
Ġrequire ments
Don ald
Ġcooper ative
Ġble w
Ġmamm ography
Ġexpand ed
Ġtast es
Ġwond ers
Ġfol k
Ġshel ves
Ġtick ets
ĠEd inburgh
Ġappreci ation
Ġinform al
ĠFranc is
Ġcere br
Ind ia
force ment
ĠKore an
Ġrig id
Ġbow l
Ġbes ide
Ġru ins
Ġgest ures
ĠPalest ine
ĠAtl anta
Ġcock ro
Ġadvoc ate
Ġmer it
Ġstri kes
Ġtraum a
conf lict
front al
Ġdisappoint ed
Ġrenew able
Ġexplo it
Ġprec ision
Ġfet us
Ġscream ing
Char les
Ġtrop ical
ĠNan opatch
Ġanno ying
Ġbutt ons
Ġlob by
Ġfib ers
Ġenterpr ise
Ġchron ic
Int erest
Ġash amed
Ġpercept ions
Ġoy ster
Ġcontag ious
Ġdivor ce
Ġanat omy
Ġneoc ortex
Ġexerc ises
Ġtheore tical
Ġstead y
Ġhorizont al
Tw enty
Ġcham ber
ĠAlp ha
Ġfundra ising
Ġepidem ics
Ġcatastroph ic
ĠBosn ia
Ġnightm are
ĠEthiop ia
Ġanten na
Ġparach ute
Ġtsun ami
ĠJup iter
1 3
9 9
A O
B en
D es
F ortunately
J e
M ake
P art
P oint
R A
T ell
b ing
d ed
d am
f i
g ical
h r
h ot
i kes
l ined
s ize
w en
Ġt in
Ġa ort
Ġw are
er ness
Ġc attle
Ġm ating
ap agos
Ġp ose
Ġp ne
Ġp iss
Ġf les
Ġd ivid
Ġin sec
ar in
om ics
Ġg erm
le an
ĠI M
Ġn ail
Ġn asty
Ġe ase
ut es
Ġre vers
ct ar
ig g
ol as
ra ce
Ġab road
Ġas semb
Ġsh ed
ad or
Ġne ctar
ul u
Ġpe cul
Ġlo ads
all ing
Ġint angible
ĠS up
ĠS arah
Ġtr ap
Ġwho ever
ĠM ap
ĠM ot
ĠM ore
ĠM ama
ine a
Ġcomp ens
Ġworld view
Ġexp ense
pp er
Ġev olving
ĠH ead
ĠH ello
itt y
ĠT ell
ĠG ar
ĠG all
ĠG ard
Ġno isy
ff ice
Ġsomet ime
Ġhapp iest
Ġun iqu
Ġun seen
Ġun imag
ĠP ost
Ġimp ulse
ĠN ick
Ġover night
Ġdis cl
ount ered
ult ural
co al
Ġbo ards
ĠW i
Ġgood ness
du cation
Ġhum ility
int egr
There fore
Ġpre frontal
ĠO d
Ġinc ub
Ġdec iding
Ġind irect
Ġcr ushed
ĠK im
ĠK am
ĠK ansas
Ġthought ful
Ġproblem atic
Ġplay ful
Ġplay ground
Ġinter connect
Ġcons ent
Ġcons ol
erg arten
Ġsl ice
Ġ19 3
Ġrec ur
Ġgener ating
Ġreg ulation
Ġreg ister
Ġresp onds
Ġsing ers
Ġhand ful
Ġform ation
ĠSo ciety
Ġpolit ically
ĠInd ians
Ġlab els
Ġglobal ized
Ġequ als
Ġloc om
Ġloc ally
Ġsix th
Ġgl ue
Ġtreat y
Ġmust ard
sy cho
Ġve lo
Ġneur ological
Ġes cal
ĠSh ir
Ġdraw s
crib ed
Ġenc ountered
Ġocc as
ĠAs sociation
Ġpull s
Ġinvent ors
Ġsustain ed
Ġhor ror
Ġpost ure
Ġast h
Ġactiv ated
cient ists
Ġprim ates
Ġunf old
Ġunf ortun
Ġrain s
Ġreport ing
Ġadm ire
Ġprison er
Ġstick y
Ġcharacter istic
Ġspeed s
Ġlabor atories
Ġcorre lation
Ġthr illed
Ġmir rors
Ġoptim al
Ġang les
Ġpros pect
Ġeth ics
Ġalg ae
Any body
Ġvict ory
Ġann ivers
Ġintegr ity
Ġinj ust
Ġsad ness
Ġanaly t
Ġanaly zing
Ġmut ation
ĠiP ad
Ġtherap ist
Ġsurve ys
Ġconsid ering
Ġmagaz ines
Ġattempt s
Ġconvin cing
Ġconcentr ate
Re cent
Ġinvestig ation
Ġiron y
Ġiron ic
Ġpow der
Ġrepl acing
Ġshad ows
ĠKing dom
Ġtox ins
Ġoccup y
Ġske leton
ĠBer lin
ĠJul ia
Ġinstinct s
Ġmemor ial
Ġcompl ain
Ġempower ment
spe ed
Ġsem i
Ġrating s
Ġathlet ic
ĠGl ass
Me anwhile
Ġchamp ions
Ġsubs id
Ġintent ions
ĠBudd hist
Ġcens orship
Ġwip ed
ĠGal apagos
Ġrepeated ly
Ġtherm al
Ġenh ance
ĠVen ice
Ġlegit imate
Ġinherent ly
Ġirre levant
ĠMove mber
ĠSim on
Ġvit amin
Ġsett led
ĠTel escope
Ġcoup les
Ġenthus i
ĠScot land
Ġcybercr iminals
Ġepis ode
Ġarbit rary
ĠHawai i
Ġapolog ize
ĠColumb ia
Similar ly
Ġreput ation
ĠNorwe gian
Ġdemograph ics
iov ascular
Ġunpredict able
Ġincar cer
ĠColomb ia
ĠSput nik
ĠHosp ital
Ġclitor is
Ġcerebr al
Ġpne um
Ġfles h
Ġpecul iar
2 5
3 00
6 00
C lear
E ight
M en
O X
P retty
R N
R ichard
S ad
T r
T ry
c cer
h ar
h uman
i king
i ately
j u
m ail
n i
p it
r un
s ight
s um
y re
y les
Ġa rous
in ators
Ġo we
er ies
ou b
Ġb ay
Ġb ip
Ġm at
Ġm und
Ġh oly
Ġp ix
Ġp ulses
Ġf ame
Ġf ier
Ġf ired
al ities
Ġl ately
Ġl yr
Ġg ains
Ġg ym
Ġg ifts
Ġe ighth
Ġre nd
Ġre per
ver bal
ay er
im eters
Ġst er
Ġst are
Ġst icking
ere nd
ro pr
ir a
th ood
Ġgo at
Ġse ctors
ad ow
Ġhe h
od er
Ġat omic
Ġso ccer
Ġch ord
Ġch asing
Ġlo ans
Ġma nd
Ġv iable
ind ing
ink er
ĠS ol
ĠS ystem
ĠS ylvia
our cing
ĠM R
ĠM ake
ĠM edia
og ens
iz ona
Ġen cyclopedia
ab y
Ġle ak
Ġexp ose
ĠB ot
Ġqu ar
ĠH el
ĠH imal
ĠT ay
ĠG irl
Ġcl im
ĠP en
ip h
Ġimp aired
ĠN ep
Ġco h
Ġover lo
Ġdis par
ign ant
ĠL en
ĠL esters
Ġcont ained
Ġph thal
ial s
Ġad vers
Ġbo nds
ĠF ire
ĠF OX
ĠW ind
Ġgr ant
Ġpre val
ĠO p
ĠO ak
Ġoff sh
lect ion
Ġsc al
Ġsc roll
Ġapp et
Ġcr ap
Ġbl u
Ġbl own
ĠK u
Ġdr illing
Ġkid n
Ġexam ine
Ġsl og
Ġser ver
Ġbeh old
Ġvis iting
Ġsk ys
Ġsk illed
Ġhand ed
Ġacc ommod
aut h
Ġconf using
Ġcor rid
Ġhead quarters
Ġdist inguish
io let
Ġstand point
Ġchar coal
Ġmark s
Ġtest oster
Ġpar liament
Ġass et
Ġret urning
Ġ9 7
Ġ9 8
Ġview ed
Ġ7 4
Ġemp ire
ĠAr izona
Ġident ities
Ġpred ator
Ġarg ues
Ġtem p
Ġtrad ing
Ġsupport ive
vent ually
Ġmult iverse
Ġreach es
Ġtravel s
ĠTh ree
Ġste am
Ġste ep
Ġnice ly
ai ro
Ġcolor ful
Ġslow ing
iet ies
oll o
Ġtransform ative
Ġcop ying
Ġrepresent ing
ĠAn as
Ġsn ake
pan ies
Ġtransl ator
umb led
Ġsociet al
Ġcollabor ators
Ġ199 5
Ġrock ets
Ġbal anced
Ġsepar ation
enn ifer
Ġaccept ing
Ġjud ges
ĠArab ia
Ġstrugg led
Ġdeterm ination
Ġhur ts
Ġcheck list
Ġroll s
Ġmagn ets
Ġmagn itude
Ġinnov ators
Ġsym met
Ġsym phony
Ġremind er
Ġcard iovascular
Ġsequ ences
Ġphenomen al
Ġcampaign s
Ġenorm ously
ĠCl oud
Ġord ered
Ġvari ables
Ġbroad er
Ġban jo
Ġcrowd s
Ġmouth s
Ġpet als
ĠMich igan
Ġclimb ed
Ġappe aling
Ġcontribut ions
Ġfrequ encies
Ġstim ulate
Ġinvestig ate
Ġdisp ers
Ġprototy pes
Ġharm ful
Ġhero ic
ĠNot hing
Ġimpl anted
Ġacceler ating
agr aph
Ġpregn ancy
Ġsan itary
ugg ing
ym ph
Ġreprodu ction
Ġdict ator
Ġhel ium
Ġconvert ed
ĠKh an
Ġempower ing
Ġdecl ining
Ġtight ly
Ġinterf aces
Ġcolum ns
Ġweigh s
Ġchamp ion
ĠOlymp ics
Ġgall ery
Ġimper ative
Ġbiom aterial
Ġaccum ulate
Ġsatisf ying
Ġtatto os
Ġtorture d
Ġcaf e
Ġlegit im
Ġconven ient
Ġgrat itude
Ġassess ment
Ġho llow
Ġbiote chnology
Ġalph abet
Ġbasket ball
Ġneuroscient ist
Ġguerr illas
Ġpunish ment
Ġthylac ine
Ġadolescent s
Ġobt ained
ĠPower Point
Ġinterven e
Ġpropag anda
inem a
Ġprose cut
Ġhob by
ĠDevelop ment
ĠArgent ina
Ġhamb urger
effect ive
ĠLak ota
Ġjung le
intu itive
Ġdebr is
Ġalumin um
ĠSud an
ĠSup reme
Ġunfortun ate
Ġannivers ary
Clear ly
Ġmund ane
ĠHimal ay
Ġtestoster one
A h
B ig
C ont
J oe
M ay
O thers
O PA
P at
P rob
R S
Y R
a wn
b us
b ian
b ule
c or
e en
g reat
g roup
g aret
i ens
i ots
l come
n ob
o ors
o ven
p at
r ish
s aving
t uring
u f
u gs
u ctor
v y
v ol
v iolet
w w
z er
Ġ ion
Ġ 93
Ġt oss
Ġth umbs
Ġa ph
Ġw al
Ġw ow
Ġw olves
Ġs amp
at ible
at ivity
er ate
Ġc ass
Ġc av
Ġc ement
ing o
Ġp a
Ġf t
Ġd read
Ġd uty
Ġl ion
Ġl ymph
ar c
ot er
Ġg reet
Ġg aining
as ant
le g
le m
ĠI van
ut on
et on
Ġre ct
Th ings
Ġst ir
Ġst ones
ere rs
Ġfor cing
st op
st ory
st airs
th at
ra ig
ra ine
Ġse am
Ġse als
Ġas sembly
Ġsh orter
Ġne arest
Ġj okes
Ġde ception
um ental
ist ically
Ġlo be
ĠA sh
Ġal ar
ĠS her
ĠS ix
ĠS cr
ĠS orry
el and
ĠC ru
ĠC old
ĠM en
ĠM id
Ġcomp osition
ard ed
Ġper ip
ĠH as
ĠH arr
ĠT ower
ff iti
Ġdiff er
ĠE st
Ġcl oth
ĠP ap
ip e
ĠD ie
so cial
Ġimp r
Ġimp ose
Ġco in
Ġco ch
Ġbu cket
ib ati
Ġnew ly
ĠL abor
ĠL OL
Ġkind ergarten
ĠR ose
ĠF ood
ĠF ox
Ġhum il
ick en
Ġreal ities
Ġide als
Ġgr an
Ġpre ced
Ġpre cip
Ġwr ink
ons ense
Ġsur gical
Ġind oor
Ġind oors
Ġra bb
Ġinv itation
av ors
Ġcr ied
Ġbl ink
ĠK elly
Ġmean ings
Ġcour ts
Ġdr ift
ob ic
When ever
ĠIn formation
Ġquestion ing
Ġcre am
Ġ19 0
Ġmon ster
Ġgra ffiti
Ġmom s
Ġexpl ode
Ġrep orter
Ġfar ther
Ġreg ulate
Ġbi ased
Ġfun eral
Ġsub urb
Ġconf ined
Ġanim ations
ĠV e
Ġsound ed
Ġeduc ators
Ġprot ocol
Ġprot ests
Ġhope ful
Ġprof itable
Ġfil ters
de velop
Ġgl orious
Ġpay ments
Ġfront ier
Ġappro val
Ġjo ining
Ġdi arrhe
ĠAr k
Ġliter al
Ġident ifying
Ġshort ly
Ġdream ing
Ġfight s
Ġpract ically
ĠAl ice
ĠAl ask
Ġterr ific
Ġsuper ior
Ġsurv iving
Ġ18 0
Ġ18 5
itch ell
Ġsqu id
Ġpoor ly
Ġmeasure ment
Ġsum s
Ġflo at
Ġfac il
Ġste ak
Ġste pping
Ġtext s
Ġpath way
ai rob
Ġintern et
Ġprom ising
Ġprom ises
Ġcop per
Ġrepresent atives
Ġstra nd
ĠAn n
cuss ion
Ġemerg es
Ġtransl ating
Ġmis ery
Ġintrodu cing
umb ai
Ġdin osaur
ĠPr inc
Ġswe eping
Ġrespect ed
Ġwilling ness
Ġport ray
Ġcat aly
Se ven
Ġtrick y
ĠIran ians
Ġcard board
Ġsequ encing
Ġdocument ing
Ġvari ations
Ġjournal ism
Ġut il
Ġdispl aced
Ġdeliver ing
Ġavoid ing
Ġden ied
Ġappl ies
Ġble nd
Ġpet ition
Ġflight s
Ġaltern atives
Ġillness es
Ġattempt ed
Ġhost ile
Ġdan cer
Ġtun a
ĠJust ice
Ġgard ens
uls ion
ĠGra ce
Ġindic ate
Ġcoast al
Ġcartoon ist
Ġax es
Go ogle
Ġquiet ly
Ġnan o
Ġrecy cle
Ġvibr ating
Ġmigr ation
Ġpil ots
Ġeld ers
gra nd
Ġju ven
Ġphr ases
Ġimprov ise
Ġath lete
Ġacqu ire
ugg ed
Ġscar city
Ġconsist ently
Ġresil ient
Ġtank s
Ġflex ibility
Ġbee keepers
Ġconstrain ed
Ġdesper ate
ĠCount ry
Com panies
Ġcock tail
Ġparas ites
pro of
Ġhousehold s
Ġeradic ation
ogen ic
Ġflour ish
Ġcarr ot
Te chnology
Ġreson ance
Ġprotocell s
Ġdiam eter
Ġtempt ation
Ġpurch ase
Ġredef ine
Ġultra violet
Ġmaxim um
Ġunemploy ed
Ġamate urs
Ġbatt les
Ġles bian
Ġgh ost
nut rition
Ġingen uity
Ġgrabb ed
ĠJeff erson
ĠJord an
pos itive
Ġrh et
Ġdiagnost ic
Ġpedest rian
Ġdilem ma
Ġende avor
ĠDef ense
resist ant
Ġarter ies
Ġremitt ances
ĠBanglades h
Mich ael
Ġhypoth et
Ġelabor ate
Ġvelo city
Ġinjust ice
ĠNep al
Ġperip her
airob i
ĠPrinc eton
8 0
B oy
C O
E A
E instein
E ventually
G G
I S
J ul
K ids
N N
P H
P ar
S R
T ogether
U lt
a ver
b one
c ore
c ific
d og
f e
f ight
i y
i ages
m od
m ile
m etic
n atural
p ite
p ox
r ation
v ance
w an
w all
y ou
Ġt read
Ġa irl
in ch
Ġo m
Ġc od
Ġc ul
Ġc ort
Ġc ues
Ġc odes
is an
Ġb ust
Ġm as
Ġm ant
Ġm um
Ġm asters
Ġp ity
an o
Ġd rain
Ġd ates
Ġd oses
Ġd uration
Ġin ade
Ġl ap
Ġg osh
ic ations
ĠI P
Ġbe ats
id ance
Ġst ew
Ġst airs
ro ots
ro gram
ir ms
ir atory
op oly
st yle
Ġse awater
Ġcom a
ant ing
Ġde er
Ġde pr
Ġor b
Ġor th
Ġv ig
Ġv icious
ĠA ur
ĠA st
ie nds
ie val
ĠS erv
ci um
ĠC her
ĠC la
ĠC airo
ĠM P
ĠM ost
ĠM ass
ĠM att
ĠM umbai
Ġsu cks
are r
ab ad
ag an
ĠB a
ĠB et
Ġdon ated
ĠH op
Ġag greg
itt ee
ĠT am
ĠT rade
Ġno ises
Ġdiff usion
Ġun ite
ĠE S
ĠE mb
Ġcl ich
ĠP ass
ĠN athan
ĠN airobi
Ġdis connect
ang es
ib bean
ac ent
Ġpo ets
ĠL ear
Ġcont est
Ġcont rad
Ġac res
Ġunder t
Ġam y
Ġam ino
Ġres id
ĠR od
ĠR ick
Ġdes ires
Ġad equ
Ġpre jud
ĠU k
ile y
Ġbrain storm
ĠCh ild
Ġown s
ian ces
Ġgu idance
Ġbl essed
ĠK ib
Ġins ur
Ġins ult
Ġafter ward
Ġtrans act
Ġbas ement
Ġcar pet
Ġcar cin
Ġinter rog
Ġinter section
Ġschool ing
ĠSt ation
ĠSt ock
Ġdevelop ments
Ġnum b
Ġmod ified
Ġsl um
az y
cy cle
Ġser oton
Ġcare ers
ah ara
ger ia
Ġ5 2
Ġ5 8
Ġear ned
Ġ4 3
Ġbi kes
Ġbi osphere
Ġbi och
Ġbi ologically
Ġsing er
ins ky
ruct ive
Ġconf irm
Ġorgan izing
Ġenerg etic
vern ment
angu age
Ġdef icit
Ġmor ally
Ġmodel ing
ott o
Ġcertain ty
Ġpos ed
Ġsw ing
Ġsw am
Ġche f
Ġpar agraph
Ġremember ing
Ġass ure
uck ily
Ġwa king
Ġwa ited
Ġ6 4
Ġview ing
Ġfront al
Ġprov ocative
Ġve il
Ġve nding
Ġmarket place
Ġpred ators
Ġfre ed
ium ph
Ġpersonal ities
Ġfight ers
Ġsuper computer
Ġsuper massive
Ġchem otherapy
Ġ18 00
Ġcal cium
Ġspecial ist
Ġspecial ists
Ġrecogn izes
Ġflo od
Ġcomb inations
Ġcirc ulation
Ġfac ulty
Ġhot ter
Ġconcept ion
Ġtransform ations
Ġplant ing
Ġball ot
Ġperiod ic
Ġmarr iages
head s
Ġarm or
Ġprim al
Ġintrodu ces
eth eless
eth oven
Ġinflu ences
Ġ16 0
Ġpack aging
ĠCar ibbean
Ġwild erness
Ġemploy ee
Ġheav ens
Ġassoci ation
Ġstar vation
Ġautom atic
ĠQ aeda
Ġ197 5
iot ic
Ġcand le
Ġadapt ed
Ġbreast s
Ġtown s
ĠiP od
Ġnovel s
Ġfro gs
Ġliber als
ĠBrazil ian
Ġrecon cil
Ġhack er
Ġreco vered
irt ual
Ġsymbol ic
Ġble eding
Ġreward ed
Ġshut tle
Ġpartners hips
hold ers
Ġmill ise
cipl inary
ĠNiger ian
Ġchart s
Ġfrustr ation
Ġsetting s
ĠJe an
Ġappropr iately
Ġmigr ate
Ġpure ly
Ġsan ct
ĠEl izabeth
ĠCam eron
ĠOn ly
Ġqual ified
Ġroof s
Ġacqu is
Ġminim al
ĠEm ma
friend ly
Ġhypothes es
Ġobst acle
Ġstoryt eller
Ġembarrass ed
Ġwash ed
ĠJer sey
spe cific
Ġrush ed
wr iting
ĠJack son
Ġdatab ases
Ġben ign
Ġevalu ate
Ġclub s
Ġimper fect
Ġrainforest s
Ġadopt ion
agger ing
Ġcraft s
Ġrecept or
Ġreef s
Ġsket ch
ĠDen mark
Ġstatist ically
Ġunemploy ment
Ġgeek s
Ġamate ur
Ġambig uity
Ġcareg ivers
Ġcree py
Ġspont aneously
Ġmathematic ians
Ġdood ling
Ġcoinc idence
Ġsurviv ors
Ġcompreh ensive
ĠConf erence
Ġrender ing
ĠKir ibati
Ġaccompan ied
Ġjan itor
ĠBh utan
Ġconsp ir
orient ed
ĠSky pe
Ġincom plete
ĠLester land
ĠSecret ary
Ġgrav it
Ġlaund ry
Ġcathed ral
PTCH A
Ġspat ial
Ġentr ance
fund ed
Ġmixt ure
Sad ly
Prob ably
Ġinade qu
9 0
A A
A V
A dd
C onsider
G ra
G od
H ope
L uckily
M uch
M ED
R o
R ives
S cientists
T ext
W ow
X L
b ut
b ast
b ag
d epend
e or
f are
i ological
i ams
m art
n ormal
r ir
r ated
r ange
r ise
s entially
t w
t ain
u ation
u ana
y d
Ã Ń
Ġ -
Ġt ips
Ġth ro
Ġa the
Ġw re
Ġo w
Ġo ve
Ġs essions
at al
at us
Ġc inema
is ive
Ġb ent
Ġb ru
Ġb unk
Ġb aker
en ment
Ġp ies
Ġp iv
Ġp ension
Ġp sycho
Ġd im
Ġd ash
Ġd angers
al one
Ġl emon
ot al
ot ent
le nd
Ġe cho
Ġe ternal
Ġe rect
Ġbe ast
im ore
im ents
Ġst arch
Ġst aggering
ke l
Ġfor ger
se a
op ed
ra vel
Ġab alone
Ġcan n
Ġwor ship
So on
Ġcom ed
Ġnot icing
ul ed
ul ously
ust y
Ġall ies
Ġj ury
Ġch ore
Ġch unk
Ġde ment
Ġpro gression
art ed
est y
Ġte nder
ĠA ch
ĠA ra
ĠA ng
Ġal ter
ie ge
ĠS cient
ĠS iberia
Ġtr iumph
ci le
ĠC NN
ĠM t
ĠM as
ĠM athem
Ġen ab
Ġen forcement
app iness
Ġdon ation
Ġman g
Ġman ages
Ġfe ver
ach ed
ach ers
Ġun ity
Ġun int
Ġun equ
Ġun cover
ĠE c
ĠE lect
Ġcl icking
ĠP re
ĠD ig
ĠD oug
Ġimp ressed
Ġstart ling
Ġar c
ass y
Ġback s
ac on
Ġspe nds
ĠL ess
ult ure
Ġres erves
ĠR omo
ĠR oger
ict ions
ĠF all
ĠF red
ĠF DA
Ġhum p
Ġhum ble
Ġgr im
Ġgr ip
Ġgr ape
ĠO ld
ĠO reg
ark s
ĠU CL
Ġdec omp
Ġsur plus
Ġind ul
Ġind igen
Ġgu itar
ric ane
ĠK now
Ġ3 4
Ġimag inary
Ġlearn s
Ġbit ter
ĠAnd erson
Ġstr ang
ĠSt op
uc ose
Ġext r
Ġfin ishing
Ġmet ric
cept ible
Ġread s
Ġsmall pox
Ġed itors
Ġbus es
Ġ5 4
Ġreg ain
ont o
Ġconf usion
Ġorgan izational
ĠV ol
ĠV irtual
Ġrese mb
Ġval ued
Ġcult urally
Ġhalf way
Ġmor ph
Ġlist ed
end ers
Ġbre w
Ġequ ipped
Ġwonder fully
ĠIs n
rop olitan
Ġexc l
uck y
Ġret ired
Ġemp ir
Ġabs urd
Ġrad i
Ġrad ius
Ġsurpr ises
Ġpot ent
Ġpot ato
Ġoil ed
ĠEur opa
Ġprotect ive
Ġvar ieties
Ġarg u
ĠSh ould
Ġ12 5
Ġperform s
Ġlim estone
Ġexperiment ation
Ġrequ ests
Ġge o
Ġconsum ing
sh aring
Ġrele asing
Ġrespons ibilities
ĠTh ink
Ġpress ing
Ġaren a
Ġsoon er
Ġlay ing
Ġwish es
ĠBe ethoven
St ill
Ġclean er
Ġprogress ive
Ġep ic
Ġdin ing
Ġthreat ening
Ġvirt ues
Ġcollabor ator
Ġdepend ence
Ġdisapp ears
Ġaccept able
Ġemploy ed
Ġsch olar
Ġcalcul us
ĠWar ren
Ġgas oline
Ġmal nutrition
Ġkil ograms
ĠKen yan
Ġpark ed
Ġmatch ing
Ġdiagn ose
Ġsequ enced
the on
rad ition
Ġexh ilar
Ġamb ition
Ġvisit ors
Ġden y
Ġrequire ment
Ġbackground s
Ġchick ens
Ġmamm ogram
Ġtor n
Ġmort g
Ġmid st
ĠCon st
erson al
Ġrout es
Ġcontribut ing
Ġalt ogether
Ġtun ed
Ġcateg or
ĠGu ard
ĠGu inea
Ġentertain ing
Ġur gent
Ġprincip al
ĠAb u
ĠEn viron
Ġastron omy
onym ous
Ġattach ment
Ġpolic ing
Ġtall er
Ġnegot iation
Ġnegot iating
Ġfle et
ĠWill iams
Ġmicros copic
Ġlibr aries
organ ic
ĠBen jamin
ĠLa ure
Ġshall ow
Ġcha otic
Ġmel ody
ĠCE Os
ĠGree ks
Ġsuit case
Ġpray ing
ĠJer ry
Ġknock ed
Ġdiscipl ines
Ġremem bers
Ġrefer red
Ġinject ion
ĠTor onto
ĠRepublic ans
ĠDemoc rats
ĠHaw king
Ġaband on
Ġassist ance
ĠNG O
Ġmyster ies
ĠBudd ha
Ġrecip es
ĠPol and
Ġcoord ination
Ġbon us
Ġtraum atic
ĠTes la
Ġfulf illing
Ġque en
Ġpref erence
Ġpref erences
Through out
ĠMil ky
Ġdistract ed
Ġsket ches
Ġcigaret tes
Ġstrain s
Ġdece ased
ĠScott ish
Ġimmigr ants
Ġtact ics
Ġcert ific
ĠAp ollo
ĠTy pe
Ġinher ited
ĠRoy al
Ġaugment ed
Ġdys function
Ġunst able
Ġsumm ary
Ġmarg ins
Ġastronaut s
Ġinex p
ĠMat th
Ġtempor al
Ġsummar ize
Ġconfig uration
Ġjewel ry
Ġartifact s
Ġcalend ar
Ġexquis ite
Ġintric ate
Ġswallow ed
Ġfis cal
ĠEmp ire
ĠDub ai
Ġseaf ood
Interest ingly
Des pite
Ġassemb led
ĠGard en
Ġuniqu ely
Recent ly
ĠTay lor
Ġskys cr
ĠScr atch
ĠDie go
Ġhypothet ical
Ġprejud ice
Ġseroton in
ĠOreg on
Ġindigen ous
A G
A round
C E
G M
G en
H aving
L ess
P eter
R C
R G
R ob
R SW
S M
S c
T M
a cious
b ro
c ap
c orn
d ad
f ill
f ashion
h ou
h ran
h ole
l as
l ad
l ene
l ived
m al
m illion
n els
p ot
p ical
p ound
r us
r ics
s chool
v in
w a
z one
z zy
z uel
Ġt ales
Ġth under
in er
in as
in ety
Ġw ages
Ġo x
Ġo xide
Ġs ang
is er
it ivity
Ġh unch
Ġto aster
Ġp oured
Ġf est
Ġf use
Ġf ade
Ġf oster
Ġf aint
an ing
al ore
Ġin organic
Ġl ou
Ġl azy
ar n
ar ly
om er
Ġg al
Ġg ru
ĠI d
Ġn ick
ow itz
Ġha unt
im agine
ur ge
se cond
ir al
ir able
am ous
ith metic
Ġan om
Ġdo ct
st ep
ra ged
Ġab used
Ġk ite
Ġsh a
Ġwor ries
Ġcom ics
Ġso le
Ġfr ugal
Ġall oc
Ġex it
Ġde ple
Ġde cept
Ġr ings
Ġthere by
ĠA w
Ġout door
Ġint end
un ter
Ġjust ify
Ġsp ear
Ġsp ills
ĠS in
iv able
ĠC reat
ĠC ase
ĠC ivil
em ents
ĠM ell
ĠM achine
ĠM itchell
ast ing
Ġcomp ressed
Ġta gs
ĠB and
ĠB ook
ĠB alt
Ġqu o
Ġfe e
Ġfe as
ĠT oday
ĠG aza
Ġno ble
Ġun ne
Ġun lock
ĠE r
ĠE xt
ĠE ven
ĠP ear
ĠD ra
ĠD oh
ĠD AR
ĠN ative
ĠN ever
Ġco ined
Ġover t
Ġover weight
Ġdis connected
Ġback up
ign ed
ib l
ens ively
Ġpo nd
ru ce
ĠR h
ĠR NA
ict ional
ĠF ly
ĠF ull
ĠF ield
ĠF GM
ank ind
Ġpre con
ĠO k
ĠO per
ĠJ ama
Ġwr ites
Ġcount y
Ġgen ital
Ġhuman ities
Ġtra ff
we et
be at
ĠCh ad
Ġra ces
ĠK le
Ġbas ics
Ġrel uct
Ġprodu cer
Ġinter sect
Ġcons ists
Ġent ers
ven ue
oc ke
ĠY ellow
ĠSt irling
alth y
iss ance
Ġ20 20
Ġatt or
Ġatt ribute
Ġatt raction
Ġlight ning
Ġla ure
Ġla ughter
Ġeconom ically
Ġrep et
Ġ5 3
Ġproject ed
Ġdem ol
Ġ4 7
Ġ4 50
Ġsk ip
Ġsupp ress
Ġpass port
aut ion
Ġcompan ion
ues day
ĠV ene
ĠTED MED
Ġreason ably
Ġadd ressed
Ġdet er
Ġmen u
man uel
Ġwatch es
Ġref ined
iter ate
eng ers
Ġfore cast
Ġfil ming
Ġgl ory
Ġgl ucose
uck ed
Ġsuccess es
Ġret reat
Ġ9 00
Ġconst itu
Ġdra gged
Ġplanet ary
Ġcra cked
row ing
Ġrad ar
Ġpot atoes
Ġcoll ision
ĠBr other
Ġpresent ing
ran ny
ĠGo og
Ġred isco
Ġmult im
Ġsurv ives
Ġcool er
Ġcy m
Ġenc rypt
Ġflo ors
Ġprofess ions
ann ah
Ġinvent ions
Ġpath ology
Ġpoll s
Ġtradition ally
Ġhon ored
Ġstra nds
Ġlay s
Ġflu ores
Ġmedic ations
Ġaccount able
Ġbacter ium
Ġadm itted
ĠDe ath
Ġ199 2
Ġ199 4
Ġ199 6
Ġdetect ing
Ġnucle i
Ġcook ies
Ġreflect ing
Ġexplore rs
Ġcheck ed
Ġlaunch ing
Ġquot es
Ġstrange ly
Ġcat al
ĠHar ry
Ġurban ization
Ġsal ad
Ġhistor ian
Ġblock ed
Ġmultip l
Ġdrink s
Ġsad ly
Ġord ers
Ġanaly st
cell ular
Ġver ge
Ġver bal
ax is
Ġfing ert
ĠMc Donald
Ġban anas
Ġcrowd ed
atr ina
sc ar
sc reen
osh op
Ġappl ause
Ġindustrial ized
Ġparad ise
Ġmamm al
Ġgrandm others
ha ired
Ġhabit ats
Ġefficient ly
Ġinstall ations
ĠMo MA
ĠDan ish
Ġglo ves
ij uana
vention al
Ġbattle field
Ġadvert is
ĠBang alore
Ġroot ed
Ġfrustr ating
Would n
ĠWik i
Ġconcl usions
Ġentrepreneurs hip
Ġreview s
add y
Ġgrass roots
Ġminim ize
ĠPer u
Ġoccup ation
Ġpip e
Ġpoore r
Ġignor ant
ĠEm ily
ĠFrank lin
Ġring ing
Ġexplan ations
Ġcomment ary
Ġelev ated
Ġcircuit ry
wr iter
Ġtransfer red
Ġdigit ally
Ġkick ed
Ġrebuild ing
Other wise
Ġevalu ation
ĠFin ance
Ġcosm os
Ġeradic ate
Ġexecut ive
ĠVietnam ese
worth y
Ġflour ishing
Ġintrig ued
Ġsatisf y
Ġpione ers
ĠLaw rence
hear t
Ġwip e
Ġhook ed
Ġpra ise
ĠVan cou
Ġcryst al
Qu ite
Ġmanufacture rs
Ġfulf ill
Ġrelax ed
ĠVen us
Ġconven ience
ĠMed ical
Ġanno y
Ġupload ed
Ġroutine ly
Ġweeke nds
Spe ech
Ġemphas is
Ġcommod ities
Ġbiote ch
Ġskept ical
Ġtriang le
Ġupd ate
Ġdeliber ate
Ġambig uous
Ġmurd ered
Ġdegrad ed
ĠMedic ine
ĠWalk er
Ġbump s
Ġmathematic ian
ĠMod ern
Ġorient ation
Ġcultiv ate
Ġscholars hip
Ġacknowled ged
Ġexplicit ly
Ġtrail er
Ġimmort ality
ĠMur ray
ĠOl iver
ĠKy oto
Ġpherom ones
ĠTre asure
ĠWo nder
Ġartic ulate
Ġange ls
Ġsymp athy
Ġpestic ides
Ġol ive
Ġbore al
ĠBert ie
cons um
Ġlos er
Ġcum ulative
Ġmaneu ver
Ġelectromagn etic
Ġanalyt ics
Ġpneum onia
ĠFOX O
ĠOak land
Ġoffsh ore
Ġwal let
Ġdiarrhe a
ĠAlask a
Ġreconcil iation
Ġinadequ ate
ĠBalt imore
Ġunne cess
ĠDoh a
ĠVene zuel
ĠVancou ver
8 00
E S
E d
E ric
H ello
I A
J ames
K en
L isten
O ut
O pen
S uch
S orry
T y
T om
b lo
b ell
c ular
c aine
e er
f an
g reen
h ops
h ouses
k er
m ia
m ond
m oud
p res
r ig
r ust
r ical
s or
w ear
z ero
Ã §
Ġt roll
Ġa qu
in ci
Ġw ore
Ġw iring
Ġw ander
Ġc ables
Ġb os
Ġm attered
Ġh ilar
on ies
on ac
Ġp ul
Ġp ale
an ic
Ġd ivers
Ġd well
Ġin qu
Ġin ert
ed uc
Ġy ard
Ġg or
le ys
ĠI ll
ĠI mp
ld er
id al
Th omas
ur p
Ġst ole
Ġst agn
op ening
Ġdo d
st an
Ġse ize
Ġcan e
Ġsh atter
Ġhe ck
il ot
il ia
Ġj un
Ġch er
Ġch ew
Ġde let
Ġpe l
um en
um ans
Ġlo ver
ind ustrial
ĠA ward
un a
and al
Ġthem es
ĠS n
ĠS ay
ĠS um
ĠS aul
ĠS ara
her ic
el ig
Ġpl ankton
ĠC ape
ĠC apt
Ġsa bb
ĠM BA
Ġtim ber
Ġtim eline
Ġsu its
Ġsu ey
Ġcomp act
Ġcomp lim
ous ands
Ġexp ands
ag a
ĠB M
ĠB or
ĠB ir
ĠB ah
ĠB uilding
app ropr
age ment
Ġdon ate
Ġdon ations
res pect
ĠH istory
Ġfe es
ĠT enn
ĠT reating
ĠT uesday
ĠG ay
ĠG ene
ĠG erm
Ġany time
ĠE ll
ĠP C
ĠP et
ĠP eps
ĠP otter
ĠD un
ĠD av
ĠD ec
ĠD iet
Ġar tery
ĠN orm
Ġco caine
Ġdis ad
Ġback ed
Ġback ward
ib o
ib les
ib onac
ound ed
Ġfirst hand
ac ities
ĠL o
ĠL ight
ĠL ittle
ĠL uc
ĠL ev
Ġcont ents
ple x
Ġac ute
Ġam put
ĠR ou
ĠR ic
ĠR ead
ĠR oman
Ġad ul
ĠF BI
ĠW in
ĠW as
Ġem body
Ġreal izes
Ġide ological
Ġpre y
Ġcomm ands
ĠO ver
ĠO nce
Ġsm ugg
Ġinc lusive
Ġsc rib
Ġsc aling
Ġsc anned
be y
ĠCh icken
Ġra ft
av en
av il
ub ble
he el
Ġkid neys
Ġent ities
Ġcommun al
ĠY ale
ĠSt and
Ġcell o
Ġdevelop er
Ġext ensive
Ġgra bs
ĠYou ng
Ġfin ite
ah a
Ġed iting
Ġexpl oded
Ġrep lic
Ġ5 7
Ġbi ode
cer pt
ract able
ED I
Ġsub sequ
Ġsub conscious
Ġsecond ly
Ġanim ated
Ġpop ped
Ġpop ping
ĠV oy
Ġenv y
Ġaut obi
ĠTED Women
Ġcur ator
Ġphys iology
lf red
ime e
Ġenvironment ally
Ġpublic ation
As k
Ġtest im
Ġpos es
Ġindivid ually
Ġche ated
Ġexc lud
Ġpast ed
Ġadv ant
Ġret ain
Ġfollow ers
Ġprogram mer
Ġprogram med
Ġview ers
Ġ7 7
Ġ7 8
Ġ8 2
sy l
Ġprov iders
Ġav atar
aw att
Ġland m
Ġdel ivers
Ġident ification
Ġpred atory
Ġoper ator
Ġcommon ly
Ġ40 4
Ġbreak down
Ġtre k
Ġleg ally
gen eration
unt u
crib e
Ġcam els
Ġge ographic
Ġdirect ors
Ġflo oding
Ġap oc
ĠTh ings
Ġeye br
Ġaffect ion
Ġredu ces
Ġcivil ians
Ġworth while
Ġdevelopment al
Ġfa ult
Ġvol umes
Ġbed s
chan ical
Ġtrack ed
Ġsn akes
Ġreact or
Ġ11 0
Ġfu zzy
Ch rist
Ġcross es
Ġdiv ine
Ġep iph
Ġmeant ime
Ġ199 7
Ġdetect ors
Ġbank ers
Ġpack aged
ĠCal tech
Ġmir ac
Ġfra ud
Ġtrib ute
omm y
Ġassoci ations
Ġexpress ing
Ġexpress ive
Ġoffic ers
ĠRight s
Ġcondition ing
Ġsurround ings
Ġprevent able
udd y
uct ive
Ġindepend ently
Ġtax i
Ġban ana
Ġvolunt ary
Ġliber ty
Ġrecon nect
Ġrecon cile
Ġcommercial s
ĠPl ato
oun cing
ĠMe yer
Ġmetaph ors
Ġdemand ing
win ning
Ġaccident ally
ĠCon nect
Ġembra ced
ĠPal m
Ġveget arian
Ġtransm itted
ĠEvery one
ĠEvery thing
Ġcorpor ation
Ġfrequ ent
Ġconcentr ations
ĠWho a
Ġindic ators
Ġpollut ants
Ġrepl ied
Ġvibr ant
Ġmanip ulation
Ġclaim ed
Ġrig orous
ĠTe hran
ĠTalk s
Ġmicrob ial
Ġmicrob log
Ġpip es
Ġpump s
Ġharvest ing
Ġadj acent
ĠJul ian
Ġ194 5
Ġprem ature
Ġparal ysis
Ġpill ars
Ġmim ics
Ġdecl ared
olit ical
Ġelimin ating
ĠRepublic an
Ġneut r
ĠSam uel
ĠComm and
Ġdistrict s
Ġairport s
Ġload ed
ĠSome body
Ġassist ant
ĠGand o
Ġscenar ios
Ġpione er
Ġrecip ro
ĠJon as
conf idence
Ġcorresp onds
Dan iel
ĠCA D
Ġcryst all
Ġcryst als
Qu est
ĠBal i
Ġham mer
Ġpersist ent
Ġrecept ors
Ġstab ilize
Ġdisag re
ĠKe ith
Ġnit ric
Ġnit rogen
Ġsla very
Ġsla ughter
ĠJo el
Ġfung us
Es sentially
Ġguerr illa
Ġspont aneous
Ġsulf ide
Ġinn ate
ĠTit us
Ġdrown ing
Ġpir ate
Ġoverl ap
ĠStud io
Ġsuperst ar
Ke ep
mun ications
Ġrevel ation
Ġforb id
Ġprev ail
Ġsquee ze
Stud ents
Ġseas ons
Ġdisg usting
ĠTunis ia
Ġobsc ure
Ġpriorit ize
Ġorph an
ĠBi osphere
Ġmac ro
Ġdepart ments
ĠGil bert
Supp ose
Ġmarsh m
ĠSomet imes
Ġcockro ach
Ġaort a
Ġunimag inable
ĠOd ys
erend ip
Ġphthal ates
ĠOp rah
nob yl
Ult imately
Ġconspir acy
Ġgravit ational
Ġunequ al
ĠUCL A
fashion ed
Ġsabb atical
ibonac ci
1 4
B el
D R
E G
F i
F ifty
H ans
I PA
J im
N ature
O ft
P o
S how
a us
a im
b ot
b et
b uilt
c up
f eed
g ered
g iving
h all
h ry
i ability
j ev
k ers
k now
m ala
n ational
p ay
r am
s ens
u ci
v oc
w ired
z s
Ġ =
Ġt ennis
Ġa wards
in ished
Ġthe ft
Ġo wl
Ġs ane
at is
ou x
is ual
it ra
it les
os oph
Ġb ail
Ġb ands
Ġm un
Ġh ind
Ġh ats
Ġh ills
Ġp est
Ġp up
Ġf og
Ġf ictional
es is
es see
an cial
Ġd u
Ġd orm
Ġd ental
Ġd ude
Ġd azz
Ġl ane
Ġl akes
ot ive
Ġg a
as so
ic us
Ġn inth
Ġn onsense
Ġwe ts
Ġe B
Ġbe ans
ut ing
Ġre n
qu es
Ġha z
ig inal
Ġst ated
Ġst oring
ro cess
if teen
ir med
st ar
st ru
ol er
ol by
th en
ra red
Ġli ed
Ġhe ated
ge bra
ul ates
Ġso y
Ġfr iction
Ġj ur
Ġex ceed
Ġex cerpt
Ġde lete
Ġr ows
Ġr hyth
art s
ok o
est eem
Ġlo ops
Ġv ascular
ĠA ust
ĠA ye
ĠA gency
ĠA bsolutely
Ġout l
Ġout break
un s
un ned
Ġsp ores
ĠS ure
ĠS ave
ĠS ex
ĠS leep
ĠS now
ĠS ahara
Ġtr unk
Ġpl um
ĠC S
ĠC ross
ĠC ode
ĠC raig
Ġsa ves
Ġsu ed
Ġcomp r
Ġcomp osed
Ġta gged
Ġper vasive
Ġqu iz
ud ge
ĠH al
ĠH oll
ĠT urn
ĠG it
ĠG ord
Ġun in
Ġun he
ĠP oll
ĠD ave
ĠD iana
ĠD olby
Ġar ose
Ġar rog
Ġar ithmetic
Ġpart ially
ĠN I
ĠN O
ĠN av
ĠN atural
ĠN BA
pt ic
Ġbu ys
Ġdis ruption
ens ed
Ġmo ist
Ġmo cking
ĠL ast
ĠL iberia
ber y
Ġfo cal
ell ers
Ġres ort
Ġres olved
Ġres erv
Ġres erve
ĠR yan
ict ure
Ġbo oth
ĠF er
ĠF und
ĠF ibonacci
Ġhum ankind
ick et
ĠO pen
ĠJ en
Ġsm iles
Ġinc on
Ġinc omes
ĠU h
ĠU r
Ġsc ope
Ġsc aled
ne c
Ġbr ow
Ġbr ick
Ġbr icks
Ġdec ode
Ġsim ulate
Ġinv iting
Ġgu ilt
Ġins pect
Ġfl ed
Ġlast s
Ġinst ances
Ġrel ie
ob y
Ġinter gal
oc ratic
Ġcommun ist
pl ay
ĠY ear
ĠIn stead
Ġmin isters
ph al
Ġext ro
Ġlight er
Ġmed al
ative ly
Ġbeh aving
Ġcent imeter
Ġgener ator
Ġposs ess
Ġrep ly
Ġresp iratory
Ġbi of
Ġpass engers
Ġsub mar
Ġhand ling
Ġacc used
Ġconf erences
Ġform ats
ĠUn cle
Ġdist ribute
Ġdef ines
Ġopp on
ĠInd ex
Ġsign ing
Ġmem e
man n
Ġchar ism
ilt on
Ġref ers
Ġref erences
Ġeffect iveness
Ġfil es
Ġiss ued
Ġche er
Ġpar am
undred s
Ġgl owing
Ġexc lusive
Ġcontin ually
Ġ6 8
Ġfree way
Ġconst itution
ret t
Ġ8 4
Ġdra ft
Ġincre mental
aster y
Ġfocus es
Ġvir gin
Ġprov ider
Ġthird s
Ġimpro b
Ġliter ary
Ġsens ible
Ġdig est
ĠWh it
Ġtem pl
Ġsuper power
ĠEurope ans
Ġlim itation
Ġpsych iatric
sh irt
Ġrele vance
itut es
Ġstructure d
apt op
Ġstat ue
Ġste er
Ġste ering
Ġpress ures
Ġfire fight
Ġsmart est
Ġpoll ination
Ġpost s
Ġslow ed
Ġpredict ing
Ġcop ied
Ġavail ability
Ġmar king
Ġsn aps
Ġfunction ality
Ġrece ives
Ġrich ness
light s
Ġrevolution ize
str ong
yn th
Ġsearch es
Ġcris es
Ġrain fall
Ġmis con
Ġconsider ation
ĠPr ime
ĠDe ep
Ġmethod ology
Ġclos et
Ġsupposed ly
Ġsyn c
ĠGe or
ĠGe hry
Ġthr illing
Ġexplore r
Ġcitizens hip
ĠRe g
Ġfra gr
ĠHar lem
Ġspeech es
ĠIsrael is
Ġcelebr ation
Ġcelebr ating
Ġautom ated
ĠMar garet
Ġselect ive
ĠAustr alian
Ġhusb ands
ĠMc G
Ġvari ability
ĠCol or
Ġut ility
Ġrough ness
Ġjoy ful
Ġliber ation
Ġforg iveness
ĠTr ust
amb ling
Ġburn s
Ġpet ro
Ġbul bs
Ġmosqu e
mark s
Ġgift ed
Ġsimpl istic
Ġmotor cycle
Ġinvestig ating
Ġur gency
ef in
Ġcounter part
Ġhorr ific
Ġtit les
Ġpurs uing
uls ive
Ġmaint aining
Un like
Ġdesert s
Ġkilomet er
Ġextract ed
Ġnan ot
Ġnan osc
ĠCo ch
ĠPhil ip
ĠPhil ipp
Ġrein for
Ġnur turing
Ġremo ving
Ġstock s
Ġbill board
Ġreprodu ctive
Ġancest or
Ġstro kes
Ġcritic ized
Ġcritic ism
hol m
Ġcompar able
Ġpray er
Ġlas ers
Ġpin point
Ġdevast ated
Ġmemor able
Ġdistinct ive
ĠAh med
Ġregener ative
Ġdigit ize
bl owing
Ġelimin ated
Ġtwe ets
Ġclus ter
Ġinterf ere
Ġdepth s
Ġcosm ology
Ġanticip ated
Ġeradic ated
Ġexecut ed
ĠPort ugal
Ġfinger print
Ġsatisf ied
hear ted
ĠJon athan
Us ually
Ġdelight ed
Ġveter an
Ġlegis l
part y
Ġhol iday
Ġobl ig
Ġobl iv
ĠIm agine
ĠSyr ian
Ġcaf eter
Ġbreakthrough s
Ġtrop ics
Ġmaxim ize
Ġinvolve ment
Ġinsist ed
Ġpubl isher
Ġgang s
Ġcommod ity
osaur us
Ġarrow s
Ġintro verts
Ġstimul us
Ġbutter flies
ĠSen ate
Ġarrange ment
Ġspo of
Ġstrict ly
ĠVictor ian
Ġadvent ures
Ġimmort al
ĠLou is
Ġfragment ed
Ġoutrage ous
ĠMary land
Ġsubstant ial
amil iar
Ġenzy me
Ġrecre ate
Ġmillenn ia
Ġintrins ic
ĠTah rir
Ġlifel ike
Res earch
ĠPhot oshop
Ġsovere ign
ĠFree Speech
Ġregist ered
ĠLang ley
Ġillum ination
Ġjack et
Ġvag ina
ĠSus an
Ġpostc ards
Afric a
epr int
Ġasth ma
Ġgym n
Ġster ile
Ġblu eprint
Ġslog an
ĠHimalay as
Ġjuven ile
Ġrhet oric
Ġairl ine
Ġmant ra
ĠHop kins
Ġadequ ate
Ro bert
bast ian
Ġdement ia
Ġnick n
ĠVenezuel a
ĠTenn essee
Ġintergal actic
4 5
A pp
B ab
C S
C ur
C ertain
E T
H undreds
I Y
J o
J on
K now
L ittle
L ee
M RI
N T
O S
P P
S B
S er
T rans
W r
Z K
c am
c use
d ro
d est
d iving
f it
f ting
f ty
g i
g ill
h ind
i oux
k ill
l ies
l ishing
m o
m eter
o cial
t i
w id
w atch
w aves
z o
Ġt ilt
Ġt oug
in ates
in ator
Ġw att
re ction
Ġs ought
Ġs erendip
at z
Ġc roc
is ure
Ġb ounce
Ġm our
Ġm ates
Ġh orn
Ġh iring
Ġp ess
Ġp ets
Ġp avil
an ch
an th
Ġd imin
Ġd ye
or ity
Ġof tent
Ġl ent
Ġl ag
ar atus
Ġy o
om i
Ġg ir
Ġg ad
Ġg oss
as er
ic ut
ic ill
le ans
Ġwh ip
Ġe ager
us sell
Ġre use
id ote
ur bs
ig rade
Ġst ain
Ġst umbled
ch ar
ro ck
ir ational
am ble
Ġdo o
ol is
Ġli vel
Ġwor n
So cial
Ġhe el
Ġhe ars
ul ent
il ibr
Ġso ber
Ġex ile
Ġr ipp
Ġr ipped
Ġr anging
Ġpro geria
ess age
ate mala
um ara
ist ance
Ġlo gging
Ġma j
Ġv ow
ĠA D
ĠA ut
ĠA aron
ĠA lfred
ĠA imee
Ġout d
Ġout ward
Ġal gebra
Ġint est
Ġint ractable
ide o
Ġsp iders
ĠS ioux
Ġup grade
ich olas
Ġpl aque
Ġact ed
iv als
ĠC y
ĠC arr
ĠM T
ĠM oh
ĠM oses
Ġtheir s
ast ically
iz able
Ġcomp ress
Ġen rich
Ġle isure
ĠB P
ĠB art
Ġqu art
Ġev olves
ĠH ome
ĠH ell
ĠH oly
ĠH appy
Ġfe ared
Ġag rees
ĠT er
ĠT ar
ĠT op
ĠT arah
Ġun ion
Ġun ch
Ġun ple
Ġun con
Ġun ited
Ġun think
Ġun aware
ĠE at
Ġcl ash
Ġcl apping
Ġcl oned
ĠP ic
ĠP ent
ĠD ick
ĠD IY
Ġimp lication
ĠN ext
ĠN ik
Ġover d
Ġbu nd
own ed
Ġright ly
Ġdis in
Ġdis sect
Ġdis abilities
ass ador
ign ific
ep ler
cent ric
ĠL HC
Ġkind ly
Ġunder p
Ġunder cover
ĠR om
ĠR ow
ĠF air
ĠO w
ĠO tt
ĠO ffice
form ed
Ġdown stairs
Ġwr ist
xt apos
Ġsc our
Ġsc are
ne e
Ġhuman e
Ġhuman oid
be e
Ġapp rent
Ġapp oint
Ġapp aratus
Ġcr ow
Ġcr ust
Ġcr ude
Ġbl ows
Ġbel t
Ġcreat ors
ĠK ar
ĠK atrina
Ġend ow
Ġfl ipping
Ġmean while
Ġlast ed
Ġrel ational
Ġrel ativity
Ġke en
Ġcar bs
ob ia
Ġinter depend
Ġfound ing
Ġbit es
oc al
oc amp
Ġstr at
ĠY et
Ġcell ul
Ġcell phone
uc cess
Ġexam s
Ġquestion ed
Ġsl ing
Ġsl ate
Ġmon k
Ġmed ieval
ĠWe ibo
Ġcountry side
Ġel ites
Ġreg imes
Ġlar v
Ġ4 1
gg y
Ġsub urbs
Ġinf rared
Ġsoci oe
ĠSo bule
Ġdist orted
Ġadd icted
aps es
Ġhist ories
Ġey ew
bo at
Ġprot esters
ortun e
Ġrest or
Ġrest oration
Ġpain ts
Ġmark ed
most at
Ġequ ator
ape ut
Ġworks hop
Ġcond uctor
Ġche ek
Ġche cks
rop he
uck ing
Ġtool box
ock s
Ġcollect ions
Ġstate ments
Ġpay ment
Ġprogram m
Ġfree ze
Ġ9 4
Ġdra gging
Ġjo ins
Ġdi ary
Ġfund ers
Ġprov in
Ġcra w
Ġcra ving
aw i
Ġaud ition
Ġaud itor
ĠAr chie
urs day
Ġdeal t
Ġmiss ions
Ġda f
Ġwind mill
Ġsens itivity
Ġshort age
Ġz oning
Ġvar ied
Ġpract iced
Ġtrad ed
vent y
Ġbeginning s
Ġemb ro
Ġmult it
Ġconv iction
Ġcirc ular
Ġinvent ing
Ġpoll inators
Ġcivil ian
ai wan
Ġtele phones
ĠCan cer
ĠCan yon
lu id
Ġguess es
Ġbra kes
ĠWorld W
Ġprom pt
Ġprom oting
oll en
Ġarr ives
Ġcompet itors
Ġcarbon ate
Ġrece iver
put ers
Ġfair y
ĠBe fore
Ġce ase
St ep
St ories
Ġclean ed
Ġparticip ated
Ġunf inished
Ġneighbor ing
Ġconsider ably
Ġther mostat
Ġcollabor ating
Ġswe ats
Ġfinan cially
Ġbal con
Ġbal ancing
Ġsecret ly
Ġcalcul ators
ster dam
ĠWestern ers
Ġrespect s
ĠBra d
ĠBra nd
Ġsus pected
Ġsus ceptible
Ġmal ware
Ġoptim ize
Ġ198 9
Ġpen icill
Ġstandard ized
Ġoffic ially
ĠOr leans
eral d
Ġemail ed
Ġsurround s
Ġspaces hip
Ġprevent ed
ĠMar io
ĠSp ider
Ġhall way
ĠSte ven
Ġver bs
Ġfat ty
Ġvast ly
Ġreve aling
ĠFor ce
ĠMr s
ĠTr uth
Ġtremend ously
Ġchick s
Ġhyd ro
ĠMich el
Ġbul lets
Ġmid night
Ġillustr ation
Ġquant itative
Ġterror ist
Ġtour s
Ġhell o
Ġinvestig ative
ĠEd ward
Ġappreci ated
Ġiron ically
Ġcounter intuitive
ĠGra ham
Ġtransformation al
Ġacadem ics
Ġhun ter
Ġsight ed
Ġimpl ants
Ġacceler ated
Ġvibr ate
Ġvibr ations
agr ams
ĠSch war
Ġnegot iations
Ġju xtapos
ograp hing
Ġstock p
Ġsevere ly
Ġuns ustainable
Ġoccup ied
Ġshr ink
ĠJul ie
Ġassign ed
Ġinstinct ively
Ġdesk top
ĠUS DA
Ġfootprint s
Ġstere o
van ia
Ġfert ility
ĠKh mer
Ġsem ester
ĠTor aj
Ġpharm ac
Ġ36 0
car bon
Ġguarant eed
Ġconserv atives
ĠMand arin
Ġvert ically
Ġintention al
ĠLad y
Ġfool ed
Ġreson ate
Ġhat red
ĠBrown e
Ġfirm ly
Ġanthrop ology
Ġanthrop ologist
Ġcoun cil
Ġsynthes is
Ġpra g
ĠCA PTCHA
Ġdump ed
Ġastronom ical
Ġaes thetics
Ġna ught
Ġdiam ond
Ġpersu ade
Ġfertil izer
ournal ist
Ġnonviol ence
ĠMove ment
Ġsettle ment
Ġsin ister
Ġfavel a
Ġtriang les
Ġupd ated
Ġdeliber ately
Ġbroadcast ing
Es pecially
Ġtooth brush
ĠMill er
Ġneuroscient ists
ĠPan theon
Ġthylac ines
Ġinn oc
Ġrestrict ed
Ġcub ic
ĠEs sex
Ġcabin et
ĠMel inda
Ġsurviv or
Ġblob s
ĠWil son
Ġvolcan o
Ġenzy mes
ĠBu y
Ġintrins ically
Ġincorpor ate
Ġinfer ior
Ġdens er
Ġje ans
Ġsched ule
Ġunderest imate
Ġlex ic
ĠMoz art
Ġhipp ocamp
Ġundergradu ate
Ġperse ver
ĠEconom ist
ĠPenn syl
Ġrac ism
Ġware house
Ġrend ered
Ġoverlo oked
Ġimpr ison
Ġcoch lear
ĠArk ansas
Ġcataly st
Ġtread mill
Ġom n
Ġstew ards
ĠCher nobyl
ĠKib era
Ġmillise conds
Ġacquis ition
ĠAch ill
Ġenab ling
Ġexhilar ating
Ġlou der
Ġcym atics
Ġcatal og
Ġfingert ips
Ġbos on
Ġhilar ious
ĠSara jev
ĠCapt ain
ĠGerm ans
ĠPeps i
ĠNorm an
ĠRou ge
ĠVoy ager
Ġadvant ages
ĠConnect icut
Ġmarshm allow
Ġimprob able
Ġtoug her
Ġpess im
Ġoftent imes
ilibr ium
ĠTarah umara
Ġunple asant
Ġsocioe conomic
Ġpenicill in
ĠPennsyl vania
ĠSarajev o
6 0
C P
C he
E l
E ng
F e
F re
F ort
G reen
H ar
H as
L ater
M M
M art
N inety
O C
P ro
P ublic
Q aeda
S cience
S pace
T D
W atch
W orking
a ise
b and
b ound
b rew
c ats
d i
d esign
e ye
f ur
g as
g ically
h ome
h ib
h av
h orn
i ary
i hood
k o
m at
m el
m oor
n ity
n als
p ically
r ate
r ine
t r
t ion
t les
t rov
u j
w ith
w ild
w heel
y our
Ã ¨
Ġ %
Ġ ic
Ġ 00
Ġt il
Ġt ense
Ġa is
Ġa ims
in ese
Ġw ounds
at an
at ile
at ma
at ops
Ġc el
Ġc ush
Ġc asc
it ives
os ion
Ġb a
Ġm ash
Ġm ites
Ġh ood
Ġh ug
Ġh uh
Ġp ist
Ġf irms
Ġf MRI
an c
an ium
Ġd eng
Ġd up
Ġd ug
Ġd unes
al in
Ġl atter
Ġl ined
ot te
Ġy elling
Ġg y
Ġg ur
le ments
ve t
Ġwe aker
Ġbe ep
ut ure
et ary
Ġre h
Ġre imagine
im ated
ig ers
ro y
Ġfor age
Ġfor ged
Ġwas ting
op t
ith a
st ick
st ood
ol ate
ol ia
ol era
th ird
th ony
ra it
Ġgo ats
Ġcan opy
Ġk in
Ġli king
Ġli vest
Ġsh ade
Ġsh ipped
ad ores
Ġhe ct
od d
Ġnot ions
ul ator
il b
Ġr app
Ġr amp
Ġpro ving
ear ing
art ing
um ann
ist ine
Ġv ague
ĠA R
ĠA x
ĠA ud
Ġout we
ink ering
Ġsp ite
Ġsp ouse
Ġsp ike
ĠS co
ĠS ty
ĠS ri
ĠS OPA
Ġtr ump
ci a
Ġup s
Ġup t
el ines
Ġpl otted
iv ation
iv ate
ĠC uba
ĠM ister
Ġsu g
Ġcomp ost
act ly
ous y
ab b
Ġle aks
Ġexp osing
ag u
ĠB est
ĠB usiness
ĠB ruce
age ye
Ġqu ir
Ġfe at
Ġag ed
ĠT est
ĠT so
ĠT ry
ĠT umor
ĠT aiwan
ĠG G
ĠG ill
ĠG roup
Ġun e
Ġun m
ĠE D
ĠE ar
Ġpr ince
ĠP y
ĠP itt
ĠP oint
ĠP ublic
ĠP IPA
ĠD J
ĠD iver
ĠD iam
Ġimp osing
Ġpart ial
Ġco co
Ġdis k
Ġdis integr
Ġpo nds
Ġmo ck
Ġro yal
ĠL i
ĠL ank
ĠL imb
Ġunder way
Ġam ph
Ġfo nd
ĠR ich
ĠR ain
ĠR ec
ĠR ivers
ĠR edd
Ġdes criptions
Ġad ap
Ġbo iling
ĠF a
ire ction
ire trov
du cer
Ġhum id
int end
Ġpre view
Ġcomm ons
Ġcomm ute
Ġcomm ander
ĠO scar
Ġsm ashed
Ġsur re
Ġsur rog
Ġwell s
be c
ĠCh oir
Ġsystem ic
Ġlet t
Ġinv asion
Ġrem ed
ĠK al
ĠK ent
ĠK ay
Ġend uring
Ġend lessly
Ġfl ap
Ġfl ick
Ġfl ipped
Ġfl aws
Ġlast ing
Ġtrans national
Ġinst itute
Ġpower less
Ġpol ite
Ġinter pre
Ġent ity
Ġstr ive
Ġstr ipped
ĠY o
ĠIn fin
Ġdevelop s
Ġmod ify
Ġsl ave
Ġsl ime
Ġsl aves
Ġcre ations
Ġplace bo
Ġ19 93
Ġmon ument
Ġgra vel
Ġser ial
Ġser vers
Ġplan ner
cond ition
Ġed ited
Ġcent r
Ġrep orters
Ġproject or
air y
wh ite
Ġcou pled
gr ow
Ġsing ular
ruct ures
ĠV iv
irl wind
Ġpres cription
cus es
Ġmonth ly
Ġroom mate
Ġgovern ed
Ġwar mer
Ġwar fare
Ġadd s
Ġphys iological
ead ers
Ġpain ter
Ġref ine
Ġequ ilibrium
ash y
no vation
Ġkill ings
Ġfore ns
Ġfil ed
Ġcond em
rop ortion
Ġtreat ies
Ġass ault
Ġwa ist
atic a
ĠâĢ ĵ
Ġ6 7
Ġve ins
Ġcra wl
Ġemp lo
Ġdep ict
Ġlisten er
aw a
Ġthird ly
Ġaud itory
Ġneur ologic
Ġbott lene
Ġz oo
Ġextra ction
Ġprotect s
Ġant idote
Ġant iretrov
Ġnon etheless
ĠAl i
ĠAl t
Ġperform er
Ġperform ances
Ġsupport s
Ġsuper f
Ġsuper her
Some how
Ġ18 7
Ġground ed
Ġexperiment er
Ġess ay
Ġinsp irational
sh ine
sh ire
Ġmeaning less
Ġdest ructive
Ġflo ck
Ġsuggest ions
Ġrespons ive
ĠTh ird
ĠTh ula
ĠTh ursday
Ġrul ed
Ġpredict ive
Ġcop s
Ġtrust ing
Ġmar ries
Ġsimilar ly
Ġdefin itions
Ġsell s
Ġball oons
Ġsn ap
Ġattack ing
Ġactiv ism
Ġpassion ately
Ġmechan ically
Ġexcept ional
pan y
St ephen
Ġtransl ates
Ġprogress ively
ĠPr ot
ĠPr otect
Ġassum es
Ġvirt uous
Ġswe ep
ĠJohn s
Ġbom bers
enn ium
Ġcook ed
Ġdeterm ining
ĠAm sterdam
Ġrespect ful
Ġquot ed
Ġrandom ness
Ġstar ving
Ġachieve ments
Ġinterview ing
Ġsal mon
Ġgradu ates
Ġselect ively
Ġcampaign ing
ibr ary
ĠAustr ia
ĠCl ub
Ġinstr umental
Ġtens ions
fl ix
ĠChar l
ĠRuss ians
amb ia
Ġhom osexual
ĠNor se
Ġcheap ly
Ġstream ing
Ġble ed
Ġble nded
Ġaccident al
Ġreward ing
Ġtrip le
Ġattempt ing
Ġveget ation
Ġdomin ance
Ġcognitive ly
Ġtun nels
Ġbomb ing
hold er
Ġsucceed ing
ĠGu atemala
Ġdisc ou
ĠEgypt ians
Ġclick s
ĠAb out
Ġbelong ing
ris k
Ġtow ers
Go vern
cut ting
Ġpeak s
Ġmigr ant
Ġmyth ology
Ġdisplay ed
urd y
Ġmanip ulated
ĠOn line
ĠBar ack
Ġcontain ers
Ġheight s
Ġrig ged
Ġflat ten
cont roll
Ġgrateful ness
retch ed
Ġnavig ation
Ġreject ion
Ġshell s
keep er
Ġcompl ained
Ġguide lines
Ġru in
ĠDarwin ian
Ġperman ently
Ġsem inal
Ġrub ble
Ġcollaps es
Ġped iatric
olit ics
Ġattend ance
Ġdefend ing
Ġexplos ions
Ġintuitive ly
Ġiniti atives
Ġstretch ed
ĠFin land
ias m
Ġchap ters
ĠBab y
Ġanticip ation
Ġgall ons
Ġid iot
Ġpupp ets
Ġreconst ruction
ĠPol ice
Ph ot
Ph il
Ph ys
Ġsynthes ize
Ġgre ed
ĠAir port
ĠMor ning
Ġder ived
Ġgam ma
ĠTasman ia
Ġhelicop ters
ĠMah moud
Ġfertil izers
Ġconver ting
Ġimmun ity
Mar co
Ġgrat ification
ĠDen is
ĠLED s
Ġcatast rophe
ĠTrans ition
Ġchimpanz ee
Ġglaci ers
Ġgig antic
Ġcompos er
Ġinterrupt ed
Ġenterpr ises
Ġskept ic
ĠInt el
Ġnerd y
Ġintim id
ĠPlay er
Ġreinvent ing
Ġcert ified
ĠNic o
ĠBay es
Ġcontag ion
Ġasteroid s
col m
tra ck
Ġsulf ur
ĠWal mart
Ġenthus iasm
Ġinher it
Ġslic es
Ġmarg inal
Ġfisher men
Ã¡ n
Ġshout ing
Ġsubstant ially
Ġprev ents
Ġhint s
ĠCamp aign
Ġlifel ong
da ughter
ĠNaz i
Ġresur rect
Ġsubm itted
Ġtelecom munications
ĠBroad moor
Ġnu anced
Ġexpon entially
ĠHir osh
Ġcasual ties
Ġmater nal
Ġbiolumines cent
Sm all
Ġtut or
ĠHung arian
ĠCopern icus
Ġthorough ly
Ġreun ion
Ġpean ut
ĠHind u
Ġresident ial
Ġpsychiatr ist
Ġtin iest
Ġlocom otion
Ġbip olar
Ġlyr ics
Ġquar ters
Ġcorrid ors
Ġbiomaterial s
pat tern
ĠLabor atory
Ġsuburb ia
ĠAur ora
ĠUk raine
ĠStock holm
Ġbioch em
Ġwre ck
ĠMathem atica
ĠDig ital
ĠGuard ian
Ġattor ney
Ġencrypt ed
appropr iate
Ġunhe althy
Ġmocking b
Ġbrow se
Ġnanosc ale
Ġobliv ious
Ġgoss ip
Ġlivel ihood
Ġoutd ated
Ġunthink able
Ġlarv ae
Ġauditor ium
Ġmultit asking
ĠWorldW ide
Ġhippocamp us
Fort y
Ġdeng ue
Ġlivest ock
1 1
1 5
A T
A bsolutely
B ob
B usiness
C T
C al
C am
D ay
E ur
F ur
F ast
F ifteen
H ad
H umans
K B
L anguage
P sych
R ad
S am
T im
V o
a omi
b es
b ly
b urn
c ur
c ling
d s
e id
e ight
g ard
h ed
h as
i oc
l ink
l av
m ath
m inder
n ish
o xy
p se
p able
r ant
r iel
s is
t rans
t itles
u ble
v ably
Ġ iv
Ġt ang
Ġt ire
Ġt ipping
Ġa pe
in ative
in vasive
Ġw and
re f
re str
Ġs ings
at ized
er atops
ou l
Ġc ab
Ġc ue
Ġc ater
it ler
os ov
Ġb ot
Ġb id
Ġb ass
Ġb umble
Ġb ibl
ing ton
Ġm ans
en za
ap ot
ap minder
Ġh ust
Ġh atch
Ġh ives
Ġh arsh
on al
on st
Ġp ic
Ġp ly
Ġp ore
Ġp ac
Ġf itting
Ġf ills
Ġd airy
or able
al o
Ġin ability
Ġl ining
ar o
ar se
ar ity
ar ak
ot ics
Ġg aming
Ġg aze
ic ides
ĠI K
ĠI T
ll ip
Ġn od
Ġn ich
ow an
us et
ut ter
Ġre ar
Th ousands
im et
im ental
Ġst ink
Ġst akes
ch emical
ere y
ro Ã§
Ġfor aging
if lu
se us
am ination
op ran
op edic
Ġan ch
th em
Ġab normal
Ġse men
Ġse aled
Ġli bert
Ġsh ook
Ġsh attered
ad er
ad der
Ġwhat not
ould er
ge nder
ter ior
ant astic
ul ence
il age
Ġfr idge
Ġj ars
Ġex cuses
Ġch k
Ġch olera
Ġde licate
Ġpro ves
Ġcon cussion
um atic
Ġlo vers
Ġkn ives
Ġv on
Ġv apor
ĠA cc
ĠA mb
ĠA ges
Ġint oler
un ks
ide l
Ġsp ine
Ġsp onge
Ġsp otted
Ġsp ikes
ĠS ac
ĠS pl
ĠS elf
Ġthink er
el ve
Ġby produ
Ġpl ut
iv ated
ĠC art
ĠC oh
ĠC IA
em in
em ing
ĠM s
ĠM ub
ĠM ull
ĠM aps
ĠM osc
ose vel
ose conds
ous ing
ab el
Ġle vers
Ġle aked
ag ne
ĠB at
ĠB erg
ĠB ax
ĠB ageye
Ġper me
Ġev ident
res olution
ĠH az
ĠH oney
ĠH uck
ĠH unt
ĠH mm
ĠH eart
ĠH unter
ach uset
Ġwhere by
ĠT reat
ĠT own
ĠG ame
ĠG reg
ĠG wen
Ġneed ing
Ġneed les
Ġun ac
Ġun ified
ĠE nd
ĠE ffect
Ġtw in
Ġpr izes
ĠP ut
ĠP ur
ĠP ier
ĠP rodu
ip car
ip otent
ĠD D
ĠD M
Ġimp ulses
ry st
ĠN ation
ĠN aj
Ġco ins
Ġdis son
Ġmo ons
ater al
cent ure
lo c
ĠL unch
ĠL aptop
ĠL ibrary
Ġunder go
Ġbet ting
ru g
ĠR un
ĠR ussell
Ġdifferent iate
ĠW ide
ĠW ales
ĠW oo
Ġem an
Ġgr am
Ġgr ief
ak i
ĠJ ennifer
Ġoff ensive
ord ial
Ġsc ru
Ġpers ons
Ġdec isive
Ġdec onst
ĠCh op
Ġra cial
Ġinv is
Ġinv aded
Ġinv asive
av ored
Ġcr ater
Ġcr unch
Ġwom b
Ġgu est
Ġbl iss
Ġbl ues
ric eratops
ĠK arl
ĠK epler
ty pe
Ġins ignific
Ġfl own
Ġtrans f
Ġbas eline
Ġinst ability
Ġrel ies
Ġmight y
Ġpol es
Ġent it
Ġimag inations
Ġstr ips
pl an
ĠY ves
ĠSt ay
Ġmod erate
ork ers
Ġ19 91
Ġmon sters
Ġgra ves
Ġmet ropolitan
Ġmet rics
Ġwater fall
Ġdem oral
ote chnology
Ġbi ases
Ġeng ulf
Ġsub d
Ġopen ly
Ġconf use
Ġcor als
Ġsol ves
Ġhead ache
Ġcle ared
ĠV ill
ĠV isual
arr ow
ever ly
Ġval ves
ĠTED ster
Ġtop s
idd ing
Ġcur tain
Ġdet erg
Ġstuff ed
Ġrest ored
Ġrest oring
Ġref lex
Ġdev ised
arth eid
ĠIs a
Ġworks hops
Ġsw ap
Ġcost ly
Ġass ert
Ġpast ing
Ġwa ving
Ġcontin uum
Ġcollect s
to ire
Ġpay off
Ġpay load
Ġresult ed
Ġsec re
Ġ7 6
Ġ8 3
Ġ8 9
Ġfront iers
Ġvo ic
Ġav iation
Ġneur ot
ĠAr m
ĠAr ts
Ġmiss ile
ider y
Ġland fill
omet ers
Ġill iterate
Ġtyp ed
Ġcoll ar
ĠBr others
Ġjour nals
Ġshort cut
Ġpresent ations
Ġz ip
Ġz eros
Ġextra cellular
ĠAl an
Ġlim bs
osp heric
Ġpsych otic
Ġemb ark
Ġviol ation
Ġviol ated
Ġextrem ists
ipp er
Ġmult id
Ġphotograph ic
Ġcal ibr
Ġground s
Ġground breaking
Ġfilm makers
Ġenc oded
Ġcam el
Ġge ck
Ġconsum es
sh ot
sh ifting
Ġdest ined
Ġflo ods
Ġap es
Ġcomb ining
ann es
Ġfire fly
asc al
Ġsmart phones
Ġtext ile
Ġpoll inate
Ġsustain ing
ai res
ĠCan al
Ġintern ationally
ik ed
lu x
Ġguess ed
Ġpredict s
Ġprop osing
Ġtechnolog ists
Ġprom otion
Ġtransform s
Ġpeace keepers
Ġer osion
Ġarr iving
Ġarr anged
ĠZ e
Is rael
Ġtouch es
ĠLe ague
ĠLe gos
Ġball ast
Ġsn iff
Ġvisual s
Ġvision ary
Ġest rogen
Ġboy friend
ĠBe at
Ġsearch ed
Ġclean ers
Ġprim ordial
Ġcart ilage
Ġunf amiliar
Ġrain bow
Ġmis c
Ġep it
Ġvacc inated
Al ready
ĠDe an
Ġther apeut
Ġbar rel
Ġfix ing
Ġdam aging
Ġpush es
Ġappear ing
Ġspeed ing
Ġsyn apses
enn ett
Ġ201 3
ĠCar ter
Ġpublish ers
Ġtrou bling
ĠChrist opher
Ġcalcul ator
Ġslight est
ĠGe org
Ġsou ls
unk y
back s
Ġdemonstr ating
Ġport able
Ġthrow s
Ġ198 6
Ġ198 8
Ġdro ple
Ġautom otive
af a
Ġmotiv ations
Ġmotiv ates
ĠIraq i
Ġintegr ating
Ġlaws uit
ĠCl ay
Ġcustom ization
Ġterm inal
Ġblog ger
ĠIndian a
Ġcontroll er
Ġbroad ly
Ġhang s
Ġpuzz ling
Ġrecon fig
ĠTr ue
gn es
Ġcru x
hand ed
Ġhair s
Ġmeas urable
Ġhom em
ĠPro gress
ĠMe et
Ġdemand ed
Ġcontact s
Ġbul k
verse ly
Ġrepe ating
Ġtough est
Ġwear able
ĠBill y
Ġwond rous
Ġsimpl ify
Ġshel ters
ĠJust in
Ġbomb ed
Ġwire lessly
ĠEd en
Ġdisp roportion
Ġur ges
Ġprototy ping
Ġnutr ient
Ġdial s
Ġfellow s
Ġadop ting
Ġgrid lock
prof its
Ġacceler ation
ĠCo oper
ĠWith out
Ġreview ed
Ar thur
Ġcere al
Ġconduct ive
Ġcontract s
ĠRep ort
Ġanalog ies
ĠBar b
ĠRob inson
Ġille g
Ġscar f
ĠAc centure
ĠTe le
Ġestab lishing
ĠIslam ist
Ġrot ating
Ġencoura ges
Ġanonym ity
Ġflag s
Ġdevast ation
Ġmad ness
Ġwhist ling
Ġdiss ent
Ġelectro de
Ġtrig gers
ĠMont erey
Ġbrib es
Ġdigit ized
Ġattend ed
Ġblank et
Ġirr igation
ĠGl ad
Ġrefriger ators
Ġgut s
ĠCom pany
Ġyield s
Ġleap f
ĠFin ancial
Ġcrash es
bal ance
Ġtoler ate
ĠGr ant
Ġdecre ased
Ġconcert s
Te acher
Ġsed uction
Ġfool ish
Ġpleas ures
Ġtent h
Ġspr int
Ġunbelie vably
ĠCr itic
Ġrenew ables
Ġhol istic
Ġgam ers
Ġmanufacture r
ixt y
ĠMah atma
Ġobl igation
Ġ195 7
gu ard
Pr ince
Ġpsychopath s
Ġwid ow
Ġincident ally
ĠBon net
Ġaccomplish ment
Ġemphas ize
Ġtear ing
Ġwhis per
ĠLib ya
ĠNeander thal
ĠMount ain
Ġaer ial
Ġalph a
ĠMill ennium
Ġpercept ual
Ġcareg iver
Ġarrange ments
Ġoy sters
tra umatic
ĠNet flix
Ġdrown ed
Ġgenuine ly
Ġsco oped
Ġdrought s
Ġmini ature
Ġsew age
ĠColl ider
Ġingen ious
ĠTurk ish
Ġslic ed
NC RA
Ġsne ak
Ġimmers ed
orr h
Ġvivid ly
Mus ic
Ġshred ded
Ġorang utan
ĠLin ux
Ġcorrel ated
Ġunle ash
ĠDes ert
Ġproph et
ĠHad ron
Ġunderm ine
Ġaltru ism
Ġheter osexual
ĠHir sh
Ġcarp enter
Ġexha usted
Ġinhabit ants
Bet ween
Ġfemin ism
Fr ank
ĠArch itect
Ġanecd ote
Ġlegend ary
ĠBlo om
ĠFil m
Ġtransist or
Ġnumer ous
Ġpiss ed
Ġinsec ure
ĠMot or
Ġenthusi astic
Ġincarcer ation
Eight y
Ġpix els
Ġfier ce
Ġreper toire
Ġscal able
Ġaccommod ate
Ġlegitim acy
Ġalar ming
ĠPap ua
Ġwrink les
Ġperipher y
Ġorb iting
ĠServ ice
ĠCla us
ĠMass achuset
ĠTam iflu
Ġsanct uary
Ġthro at
ĠAra bs
radition al
Ġcertific ate
Ġinexp ensive
ĠMatth ew
ĠMell on
ĠField s
Ġreluct ant
Ġdeter ior
Ġredisco ver
Ġunnecess ary
Ġjun ior
ĠBah amas
Ġadul thood
Ġtestim ony
Ġmirac ulous
ĠCommand ments
Oft en
zs child
Ġmun icip
Ġdazz ling
Ġwets uit
ĠeB ay
Ġjur is
ĠHoll and
ynth ia
Ġnanot ubes
ĠCoch rane
ĠPhilipp ines
Know ing
dro pping
Ġembro idery
ĠSchwar zschild
Ġreh ears
Ġoutwe igh
ĠSco op
ĠGill ian
Ġadap ting
Fur ther
Ġbyprodu ct
ĠMub arak
ĠMosc ow
osevel t
ĠBax ter
ĠMassachuset ts
2 9
4 0
4 00
A C
A c
A lex
B r
C omm
D is
D ifferent
E ither
F L
G iven
I de
I ran
L a
L ots
M et
N orm
R ep
R ead
R achel
S il
S ec
T B
Y ves
a a
b ish
b order
c ourse
d ies
f a
f ound
f elt
f illed
g ot
g ue
i ants
k i
l usion
l apse
m i
n ical
n ters
o cho
p op
r d
r ase
r ified
s a
s ix
s olving
s burgh
u is
u ated
u ces
w as
w ire
w ick
w right
w oman
Ã ³
Ġ 91
Ġa irst
Ġa pt
in n
Ġw andering
Ġw atts
re ll
re ls
Ġo zone
Ġs opran
at able
ou fl
Ġc er
Ġc uc
Ġc ada
is ol
it is
it ations
it ious
os ia
Ġb ark
Ġb atch
Ġm uff
Ġm asks
en ance
en ny
Ġh i
Ġh es
Ġh ay
Ġh id
on el
Ġp od
Ġp ots
Ġp ads
Ġp aj
Ġf ences
Ġd um
Ġd ated
Ġd une
Ġd anced
or ia
Ġin efficient
Ġin effective
ar g
ar ial
Ġg ently
Ġg ears
Ġg yrus
as is
as semb
ic ated
Ġn our
Ġn ost
Ġn ests
Ġn arc
Ġwh aling
us ively
Ġbe nding
ut t
et to
Ġre ception
Ġre organ
Ġre lying
ent iful
id ays
And rew
ur g
ur k
ur ated
ig ate
Ġst itch
Ġst unned
ch em
ch ange
if eration
ir cle
am y
am ents
op ing
st on
st ore
st eps
ol s
Ġwith d
th s
th on
ra nd
ra wl
Ġab d
Ġu h
Ġu mb
Ġk ings
Ġas yl
Ġas cend
Ġme ga
Ġme erk
Ġme adow
ge l
ant om
Ġso cks
ust ion
Ġj ets
Ġj ams
Ġj eal
Ġr iot
Ġr hy
ear ning
Ġcon form
Ġcon gr
um i
ure ka
ok er
est ial
Ġma id
Ġte apot
ĠA g
Ġsp am
Ġsp ong
ie u
ie ces
ĠS W
ĠS ide
ĠS add
Ġup wards
Ġpl acing
Ġpl entiful
ĠC ou
ĠC ultural
ĠM O
og g
og h
ast rous
iz ens
are foot
Ġcomp ass
Ġen act
Ġen for
Ġta boo
ab a
ab s
Ġle ash
Ġexp o
ag asc
ĠB an
ĠB ow
ĠB ach
ĠB uff
ĠB agh
ĠB BC
ĠH ur
ĠH ard
ĠH amp
ĠH alf
ĠH elp
Ġag gression
ĠT oy
ĠT riceratops
ĠG ot
ĠG ary
ĠG ener
ĠG apminder
Ġdiff use
Ġun co
Ġun ravel
ĠE ducation
ĠE EG
Ġpr one
ĠP ants
ĠD am
ĠD ire
ĠD ead
Ġimp osed
Ġimp licit
Ġdis eng
Ġdis put
Ġdis cont
Ġdis section
Ġdis astrous
Ġback pack
ib i
Ġpo etic
Ġro oft
ĠL es
ĠL ion
ĠL arry
Ġcont aining
ru p
Ġam en
ell ar
ell ows
ĠR ub
ĠR achel
ĠR iley
Ġdes al
Ġdes ks
Ġbo il
Ġbo ils
ĠF ight
ĠF arm
Ġdifferent ial
ĠW ild
ĠW ang
ĠW ars
ĠW ood
Ġsy ll
ick r
ick y
ak u
ak ery
Ġpre hist
ĠO ther
ĠJ u
ĠJ oh
ĠJ ava
Ġoff enders
Ġdown stream
ress ive
Ġinc ons
Ġinc omp
ĠU t
ĠU nder
Ġbr ink
ile o
Ġgreat ness
te xt
we ek
ĠCh ap
ĠCh all
Ġapp alling
Ġtechn ician
Ġind efin
Ġra v
Ġra ge
Ġra ging
Ġcr ay
Ġcr ipp
Ġbl ast
Ġbl amed
Ġbl adder
Ġcreat ively
Ġlong ing
ĠK a
ĠK as
ĠK id
ĠK ate
ĠK ite
ĠK night
ĠK iva
pe ople
Ġfl ute
Ġfl ashing
Ġfl utes
he im
Ġunderstand able
Ġtrans ducer
Ġbas es
Ġpower fully
ob iles
Ġinter tw
Ġcons erve
oc ation
pl aces
ĠSt at
Ġdat as
oth y
ĠIn v
ĠIn side
ĠIn uit
ĠIn vest
Ġexam ining
Ġcre st
iss ors
Ġ10 1
Ġ19 18
Ġmon opoly
ph em
Ġpat r
Ġpat ron
Ġgrow ers
Ġlight weight
Ġlight bul
Ġfin est
Ġwater front
Ġread ily
Ġless er
Ġexpl oding
Ġposs essions
Ġel usive
Ġstu nt
Ġbi ography
Ġsk ies
gr own
gr ass
ins p
Ġsub urban
Ġsub mers
Ġacc ord
Ġconf ession
Ġconf irmed
sw ana
Ġcap acities
Ġsol itary
Ġelect oral
ĠSo lly
ĠV er
ĠV iking
ĠV inci
Ġpres ervation
Ġpres erved
Ġpres erving
Ġspec ulation
Ġgovern ors
Ġwar n
Ġdist ill
Ġdist ort
Ġdist ress
Ġdef ect
Ġphot ographing
Ġeduc ator
Ġyoung sters
Ġopp ression
work s
Ġweek ly
ograph ically
Ġsuc c
ĠHe brew
Ġheart beat
Ġboth ered
Ġfore most
Ġfore head
Ġdev otion
Ġclass ification
rop rocess
Ġpar an
Ġgl uten
ex p
Ġcost ing
Ġass ured
Ġwa x
Ġcontin uity
Ġadv is
Ġret r
Ġret inal
Ġcollect or
Ġresult ing
Ġ7 50
ush room
Ġprov ince
Ġprov oke
Ġvo y
Ġve t
Ġdep ressing
Ġhold ers
Ġneur o
Ġda unting
Ġarch ety
Ġmic row
Ġmic roprocess
Ġpred omin
Ġfear less
Ġfre aking
Ġhands ome
ĠSh ar
ĠSh ake
Ġpract ition
oph ys
Ġsuper p
Ġlim iting
Ġcommon place
Ġsun shine
Ġple a
Ġ40 1
Ġchem ists
Ġstrong est
Ġextrem es
ook s
ook ie
Ġphotograph ers
Ġ18 8
Ġcool est
Ġcy bor
Ġcy cl
Ġimpact ing
Ġimpact ed
Ġvers a
bor ne
Ġdirect ed
erm at
ĠAs s
Ġhar ass
Ġfire men
To o
Ġvac ant
chie f
Ġpost ing
ik a
Ġguess ing
Ġlif ts
Ġer u
Ġer ase
book s
ĠZ et
ĠZ ero
Ġsimilar ities
Ġcompet itions
Ġconflict ing
Ġtable t
Ġson ic
Ġvisual izing
head ed
Ġreact ing
Ġflu ent
Ġattack er
St art
Ġemerg ent
Ġblind ly
Ġparticip atory
Ġencou nters
ĠTV s
Ġthreat ens
Ġadm ired
Al ong
Ġpositive ly
Ġbar b
ucle ar
Ġinflu enza
Ġunivers ally
ros pect
Ġpan cre
Ġdepend ed
Ġmist aken
Ġclin ically
Ġpack ing
Ġ201 5
Ġwild ly
Ġtrou bled
Ġjud ging
Ġcook ie
Ġsmell ed
Ġconcer ning
Ġthr iving
Ġhur ry
ĠRe zero
Ġscr ut
Ġscr ipts
Ġjump s
Ġ198 5
Ġpros thes
Ġcust oms
Ġpen ny
Ġaddress es
Ġsal aries
Ġenjoy ment
Ġautom ation
Ġautom obiles
Ġhistor ians
ĠMar ia
ĠMar co
Ġir reg
Ġwealth ier
Ġgradu ation
owd en
ĠDon ald
Ġ197 3
Ġ197 9
Ġlaws uits
Ġanaly tical
Ġver ify
Ġmut ant
ĠMc K
Ġstrength en
Ġatm ospheric
Sh ame
Ġlack ing
Like wise
fl ow
Ġbrand ed
Ġliber ated
Ġreb el
Ġcru ise
Ġcogn ition
Ġbrill iance
ĠMe chanical
Ġ196 2
Ġ196 5
Ġcontact ed
Ġship yard
ĠSm all
Ġillustr ated
Ġhost s
ĠRo osevelt
Ġdomin ate
Ġartific ially
ĠSwed es
Ġantib ody
Ġstim ulated
Ġbomb ard
Ġtour ist
Ġrat ios
Ġdisc rete
Ġdisc arded
ĠNe umann
ĠMay an
Ġdisp ute
Ġdisp osal
Ġtit led
Ġperce iving
ĠFl ickr
Ġindic ation
Ġindic ating
Ġindic ates
Ġexhib itions
Ġcartoon ists
Ġhun ters
Ġextract s
Ġextract ing
Ġrecy cl
Ġsight s
Ġpal ette
Ġmosquit oes
Ġconstruct ive
Ġfle e
Ġrein force
Ġconduct ing
Ġmanip ulating
ĠPakistan i
Ġnurs ing
ĠRob b
Ġimprov ising
Ġuns afe
roph obic
ĠTe chnology
Ġske let
Ġpip elines
Ġdisappear ing
Ġinterpret ed
Does n
Ġwitness ing
Ġrot ate
emoc racy
ĠTom orrow
Ġcyber att
erge y
Ġ194 0
Ġwhist les
Ġsuic idal
Ġmemor ize
Ġspiritual ity
iat ry
Ġdesper ation
Ġru pe
Ġknock ing
Ġpool s
ino is
Ġment ality
Ġtrig gered
ĠMal ays
ĠStan ley
Ġasp ire
Ġdownload ed
cred it
xim ity
Ġtack ling
Ġcast ing
Ġprost itution
Ġdefend ers
ĠCom puter
Ġdeploy ment
Ġcrash ed
Ġinterf erence
Ġinfin itely
Ġdisturb ed
Ġstack s
Ġcock pit
Ġintention ally
Ġspell s
Ġadvoc ating
Ġadvoc acy
ĠAntar ctic
Ġexecut ion
Ġexecut ives
Ġmarch ed
Ġchamp agne
Ġkiss ing
Ġpoly mer
Ġsandwich es
Ġcrack ers
hear d
Ġbon ob
Ġhoney bees
quar ium
Ġder ive
Ġdelight ful
ĠThanks giving
che ck
Ġprec urs
Ġdefe ated
Ġnutrition al
Ġredef ining
Ġmelt ed
Ġclar ify
Ġwound ed
see able
Ġvent ilation
ĠBo ys
ĠKe ep
Ġsettle ments
Ġpsychopath ic
ĠTrans cript
Ġjoint s
Ġsuspect s
Ġlob es
ĠBon nie
Ġincor rect
oca ust
Ġmonit ored
Ġcas ually
Ġdelay ed
ĠMount ains
Ġunconscious ly
ĠPalestin ians
Ġtooth p
Ġdegrad ation
Comp assion
Ġbutter fly
dis ciplinary
Ġdent ist
Ġspons ored
Art ist
ĠJud y
Ne ither
Ġdys lex
Ġsho ved
Ġsho ots
Ġconqu er
ĠCont rol
Ġgrabb ing
Ġrevel ations
Ġindu ced
Ġforb idden
Ġturb ines
otect ed
Ġwrest le
ĠUs ing
Ġmanifest ation
Ġloyal ty
ĠAgain st
ĠSub titles
ĠHon or
Ġbless ing
Ġyog a
Ġyog urt
Ġrib bon
Ġlex icon
Ġexpon ential
perform ance
Ġembry onic
Ġfer ment
Ġprol iferation
Ġacoust ic
ĠRad io
Ġrecruit ment
Ġbiolumines cence
Gu ess
Ġthy roid
Ġesc aped
Ġdictators hip
urf ing
ĠFried man
Ġantenna e
Ġdivid ing
ĠIM F
ĠGall ery
Ġincub ator
Ġindirect ly
Ġoccas ional
ĠWind ows
Ġappet ite
Ġsymmet ry
uf us
Ġrect angle
Ġseam lessly
ĠMid west
Ġcort isol
Ġdepr ivation
Ġorth opedic
ĠES G
Ġstrang eness
Ġempir ical
Ġmortg age
Ġdysfunction al
ĠAw esome
ĠCase y
ĠPear l
ĠDAR PA
ĠJama ican
Ġtraff icked
ĠKle in
Ġmultim edia
ĠIll inois
Ġepiph any
Ġdisagre ement
ĠOdys seus
Ġrhyth ms
Ġplum met
Ġcompr ised
ĠGord on
ĠNI H
Ġmoist ure
Ġnickn ame
Certain ly
wid th
Ġcroc od
ĠOtt oman
Ġstrat osphere
Ġrestor ative
Ġpessim istic
design ed
Ġic ons
Ġcel estial
ilb ao
ĠPitt sburgh
ĠDiam ond
ĠRivers ide
ĠRedd it
Ġsurrog ate
Ġantiretrov iral
ĠHirosh ima
Eur ope
osov o
Ġply wood
ĠIK EA
ĠSpl ashy
ĠCoh en
Ġgeck o
ĠBarb ara
ocho ndr
Ġmeerk ats
Ġcongr at
agasc ar
ĠHamp shire
ĠToy ota
Ġpancre as
. -
6 4
6 5
A nt
A my
B rian
C or
C ities
D J
D ar
E v
E xt
E ducation
E arly
G r
H P
H elp
J ay
J ose
J ack
L ight
M al
M att
M illions
N ine
N athan
O V
P L
R ed
R ory
R ock
S ounds
S imp
T ra
W ar
a ism
b a
b illion
c ount
c ert
d y
d rop
d ala
d irection
e conomic
f ed
g urdy
g dala
i ag
i ologists
j an
l it
l am
l ider
m om
m ons
m aster
m udd
n ick
o ac
p ill
r ome
s im
u z
u ate
v ana
w rest
x on
y ll
z i
Ġ @
Ġt an
Ġt ub
Ġt ucked
Ġt igers
Ġth orn
in id
in sey
Ġw ob
Ġw akes
Ġo bey
Ġs ap
Ġs cent
Ġs orrow
Ġs iege
at om
at ra
is en
Ġb un
Ġb ise
Ġb ait
ing e
ing le
Ġm es
Ġm oth
Ġm ism
Ġm erge
Ġm otto
Ġh ers
Ġh ive
Ġh ull
Ġh oc
Ġh over
on ie
Ġto ken
Ġp ave
Ġp ork
Ġp ier
Ġf ount
Ġf aked
Ġf ifty
es y
es ar
an j
Ġd ub
Ġd ull
Ġd ances
al m
al an
al am
al ians
ed ical
Ġl atr
Ġl ava
ot ional
om atic
ic se
ĠI D
Ġn oun
Ġwh oles
Ġe tern
Ġe uros
Ġe ureka
Ġbe ard
ut ans
et ically
Ġre ver
Ġre pt
Ġre ign
Ġre arr
Ġre ju
im i
im en
im ation
ur ches
ig nt
Ġst ark
Ġst ats
Ġst igm
ch est
ere my
ce ived
if iable
ir vana
am ily
am eless
op sy
Ġdo ve
Ġdo ck
st ock
ol ith
ol io
th est
th reat
ra ck
Ġgo gg
Ġse greg
Ġcan s
Ġk ar
Ġk its
Ġk ett
ht aking
Ġli p
Ġsh ores
ter ity
Ġnot ed
Ġnot ation
il st
il itating
ore n
Ġch alk
Ġch atter
Ġch urches
Ġr ation
Ġr ider
Ġr ushing
Ġr iots
Ġpro cl
Ġpro long
Ġpro hib
Ġpro ximity
Ġpe nd
Ġor al
ess ica
Ġcon gress
um n
Ġma ze
Ġkn ot
Ġv ic
Ġte ens
ĠA th
ĠA ctor
ĠA bor
ĠA venue
Ġint imately
un al
un ed
un ci
ide press
Ġsp okes
Ġsp rawl
ie ber
ĠS I
ĠS ag
ĠS af
ĠS olar
ĠS earch
ĠS ending
Ġtr illions
Ġsee ks
ci er
ci ating
ci ences
Ġpl ur
Ġpl ural
Ġpl ung
Ġact ress
ĠC ass
ĠC level
Ġim itate
em s
em or
em pl
our i
Ġsa us
ĠM un
ĠM ard
ĠM ong
ĠM ak
ĠM oney
ĠM ax
ĠM BI
ĠM essage
og ical
Ġsu ited
Ġsu cked
Ġcomp elled
Ġcomp atible
ack ing
Ġen list
Ġle nd
Ġexp end
ag ic
ĠB ion
ĠB ear
ĠB alk
ĠB arefoot
ĠB ilbao
Ġman us
Ġman ia
ĠH or
ĠH itler
Ġag on
ĠT rib
ĠT erence
ĠT weet
ĠG ranny
Ġun lim
Ġun related
ĠE t
ĠE van
Ġcl oning
Ġpr iest
ĠP a
ĠP u
ĠP ope
ĠP sych
ĠP ran
ĠP ool
ĠD u
ĠD or
ĠD em
ĠD elt
Ġimp at
Ġar k
Ġar ises
ry n
ĠN ight
ĠN ice
ĠN ev
ĠN SA
Ġco er
Ġco herent
Ġdis se
Ġdis place
Ġdis bel
ass um
ib a
Ġnew est
ac er
ac ies
ens ible
lo ok
ĠL as
ĠL and
ĠL uke
Ġunder going
Ġunder sea
Ġbet ray
ody nam
ru ciating
ell s
ĠR ena
In ter
In side
Ġday light
Ġday care
Ġdes irable
co ck
Ġad age
Ġad ren
ĠF ah
ĠF ortune
ĠW ired
ank s
ick ets
Ġem ulate
Ġem itted
Ġgr app
Ġgr ams
other mal
ak a
ak h
Ġcomm ittee
ish es
ĠJ ason
ĠJ uan
ath etic
Ġwr apping
Ġinc ap
Ġinc idence
Ġinc idents
Ġsc attered
Ġsc ares
Ġsc andal
Ġsc issors
Ġbr on
Ġbr ig
Ġbr iqu
ys on
per or
te nds
be cc
ĠCh en
Ġsim ulated
Ġra b
Ġcr ammed
Ġcr icket
Ġgu ides
Ġbl unt
Ġbl aming
ĠK n
ĠK ap
ĠK abul
ĠK osovo
Ġafter math
he w
ft s
ew orm
Ġlast ly
Ġdr ank
Ġdr ied
Ġdr ifting
Ġcar c
Ġcar n
Ġinter medi
Ġfound ers
Ġimag inative
ĠSt r
uc ed
Ġexam ined
Ġsl ot
Ġsl ows
az ing
az ine
iss ipp
Ġ19 20
Ġpat ri
aph or
Ġmet ast
cept ions
Ġop aque
ĠWe lcome
Ġed ition
Ġcent ered
Ġcent igrade
Ġrep os
Ġrep licated
Ġrep ublic
Ġbook store
Ġ5 6
Ġrun ners
Ġsk ier
Ġcou mar
Ġsupp ressed
gr owing
aut iful
vern mental
Ġhead phones
Ġhead aches
Ġpop ulated
Ġcle arer
ĠV el
ĠV enter
ever al
Ġset up
Ġval leys
der abad
Ġprot ons
Ġrest ing
Ġrest rain
Ġpain s
Ġmark ers
Ġheart felt
Ġpicture d
no va
Ġdev oted
Ġsw ord
Ġsw ollen
Ġmag ically
Ġpar abol
ene gal
Ġgl am
Ġgl ands
Ġass ass
Ġexc av
Ġexc ruciating
Ġaff irm
Ġaff airs
Ġpay check
Ġorder ing
Ġ6 6
Ġview point
Ġcomplex ities
icult ural
Ġcra b
Ġcra ve
Ġmess aging
aw atts
Ġdifficult ies
Ġaud acious
Ġinteract ed
Ġarch ives
Ġarch ae
Ġcoll agen
ĠEng ine
Ġblack board
Ġfear ful
Ġant ique
Ġant idepress
ĠWh ile
Ġnon profits
ĠSh ah
Ġhy ena
Ġperform ers
oph obia
Ġsun ny
Ġsun set
Ġpsych e
Ġcommunic ates
Ġextrem ist
Ġperfect ion
Ġenc ode
Ġenc oder
Ġge ological
Ġge ographical
sh ed
cl air
Ġflo oded
Ġap athy
Ġopt ic
Ġopt ics
com ed
Ġfac ade
ann ers
Ġaw ak
ouch ed
Ġfoot steps
Ġfire man
Ġpoll ing
Ġcivil ized
Ġtype writer
Ġprop he
Ġprop oses
Ġsuff ers
Ġsil ently
Ġtrust worthy
Ġarr ival
Ġast ounding
ĠZ ipcar
Ġserious ness
ĠAn other
ĠLe g
Ġdefin itive
Ġevolution arily
yr ne
Ġsn ip
Ġsn ob
Ġdanger ously
Ġmicro RN
Ġnecess ity
Ġwish ed
Ġbreat htaking
Ġreact ed
light enment
Ch ryst
Ġcross word
ĠBe au
Ġarm ies
yn thetic
St op
Ġrain water
Ġcontext s
Ġdin er
Ġthreat en
Ġec st
Ġswe pt
Ġspir al
Ġinflu ential
Ġposition ing
Ġclos es
Ġtemper ate
Ġdeb ates
Ġ201 4
ĠAt t
Ġstrugg les
Ġsmell y
Ġsmell ing
Ġcapital ist
Ġeffic acy
Ġ17 0
Ġgenetic ist
ĠAll en
ĠRe agan
Ġcat adores
Se venty
bb ing
Ġ198 2
Ġstar ve
iling ual
ĠHar bor
Ġenjoy able
Ġweb cam
ĠMar x
Ġforget ting
ĠBl air
Ġphoto j
Ġlog istics
ĠAd vent
ĠCl imate
ĠCl onie
Ġcustom ized
Ġterm ites
Ġsymb ios
Ġver se
Ġmut ilation
Ġfat ig
Ġalgorith mic
Ġut er
Ġut ilize
edd y
Sh ort
Ġinfrast ructures
Look ing
Ġliber ating
Ġpuzz led
Ġappl iances
Ġreb uilt
lim inary
ĠPro gram
ĠMars hall
Ġhost ility
ĠMin nes
Ġintellect ually
Ġdiet ing
Ġbrilliant ly
Ġund ers
Ġround ed
Ġcred ible
Ġstim ulating
Ġsubst ances
Re al
Ġmotor b
Ġincent iv
lin ear
Ġdisc ount
Ġinvestig ated
Ġinvestig ations
Ġmill imeters
Ġclick ed
ĠNe il
ĠMay a
Ġodd ly
Ġgard ening
ĠPaul o
Ġdial ect
Ġhero in
Ġbelong ed
Ġax e
Go ing
Ġsmile y
Ġpal ms
Ġpolic emen
Ġpolic eman
More over
Ġvibr ation
Ġconstruct ions
Ġtall est
Ġmigr ants
ĠEx xon
Ġwarm th
Ġmyst ic
ĠEl vis
ĠDar fur
organ isms
ĠRob icse
ĠPer ry
Ġflower ing
cast le
Ġshr inking
Americ a
Ġmel ts
ĠCE RN
Ġconsist ency
Ġrot ates
Ġconfront ation
Ġobser ver
Ġassign ments
Ġflash es
Ġ194 9
ĠMon key
Ġprem ium
Ġstoryt ellers
Ġembarrass ment
Ġsen iors
resp ons
Ġthin ner
Ġwel comed
Ġbeach es
Ġcompl aining
Ġimplement ation
viol ent
Ġru ined
Ġestablish ment
Ġment oring
Ġpill ow
Ġfeature d
Ġcord s
Ġasp iration
Ġrub bish
Ġdecl ined
Ġcollaps ing
Ġcast le
Ġped al
Ġcapt uring
Ġ36 5
Ġrefriger ation
ĠComm un
ĠComm ission
Ġpretend ing
pro v
Ġtoler ant
Ġspell ed
Ġprosper ous
Ġgall eries
Ġaccum ulated
Ġcens us
Ġlens es
ĠMad agascar
Ġhalluc ination
Ġspark ed
Ġanthrop ologists
Ġsle e
Ġgre edy
Ġstereoty pe
Ġadministr ators
Ġdiam onds
Ġpurch ases
Ġpurch asing
Ġdynam ically
Ġfet uses
Ġdrag on
Ġtherm o
Ġwarr ant
Ġborrow ed
umin ous
Ġque ue
ĠYemen i
Ġhier arch
Ġpyram ids
Ġconver ts
Ġenh ances
Ġenh anced
Ġimmun ization
Ġvent ilated
Ġsav anna
Ġrail way
Ġsupermark ets
Char lie
ĠBo ard
ĠPat ent
Ġbell s
ĠBon o
tail ed
ĠMiss ouri
Ġcompos ite
ĠHy derabad
Ġwet lands
Ġmurd erer
ĠCD C
Ġinterconnected ness
Comp are
fin ance
ĠMedic ines
ĠNic ole
Ġmembr anes
Ġspons or
Ġbrows ing
Ġdivor ced
Ġwhistle bl
aware ness
Ġspo il
Ġspray ing
Ġperpet ual
ĠJud aism
Ġalign ment
ĠColl ins
Ġreass uring
Ġstake holders
ĠSand y
ĠMag ic
Ġlawn s
Ġdemocrat ization
Ġimmers ion
Ġgel atin
ĠSer ra
Ġtempor arily
Ġsummar ized
tent h
ĠRem ember
Ġpherom one
ĠLin us
Ġempath ize
ĠFed eral
Ġhurd le
Ġlingu istic
Ġsovere ignt
Ġjar gon
Ġenlight ened
perform ing
Ġflaw ed
ĠMoz amb
Ġaspir ations
Bet ter
Ġsod a
Ġundergradu ates
Ġregul atory
Ġski ing
gener ated
Ġfemin ine
ĠHam let
Ġcontamin ated
ĠOs ama
ĠPlan et
Ġsacrific es
ĠCopern ican
Ġtransist ors
Ġpresum ably
Ġpenetr ate
Je ff
Ġdivid es
Ġconsol ation
Ġrecur rent
Ġoccas ions
ĠBot swana
ĠHel en
Ġdispar ate
Ġpreval ent
oter ic
ĠHarr is
Ġcourts hip
Ġutil itarian
Ġaggreg ate
Ġamy gdala
Ġcarcin ogens
Ġfreed oms
Hope fully
Ġove rest
Ġerect us
Ġcann ib
Ġcomed ian
Ġtender ness
Ġunint ended
Ġfest ival
Ġhaunt ed
ĠSin clair
Ġfulfill ment
Ġannoy ed
urp ose
ĠGay la
ĠDav is
Ġbiode grad
Ġsubsequ ently
Ġapoc aly
Ġrecipro city
Bel ieve
sens itive
Ġhaz ard
Ġreserv ations
Ġtempl ate
Ġfragr ance
ĠColor ado
Ġcafeter ia
gi ene
Ġpavil ion
Ġgir aff
Ġsober ing
Ġuncon ventional
ĠPic asso
Ġcellul ose
Ġeyew itness
Ġprogramm able
Ġpersever ance
hav ior
ĠAx is
Ġsug ars
ĠED I
ĠLank a
ĠKent ucky
ĠInfin ity
ĠViv ian
Ġemplo ying
ĠCharl otte
Govern ments
ĠDenis ov
Ġcater pill
idel ity
Ġdeconst ruct
Ġneurot rans
ĠArm strong
ĠGeorg ia
Ġjuris d
Ġsopran o
Ġcuc umber
Ġasyl um
Ġincons ist
Ġsuperp owers
ĠZet as
Ġirreg ular
Ġrupe es
ĠMalays ia
mudd in
Ġbise xual
Ġreju ven
chest ra
Ġgogg les
ĠClevel and
ĠMong olia
Ġunlim ited
ĠDelt a
Ġdisbel ief
odynam ics
ĠRena issance
becc a
issipp i
Ġcoumar in
ĠmicroRN As
Ġsymbios is
ĠMinnes ota
ĠRobicse k
7 5
7 00
B R
B o
B on
B ring
C ity
C ount
D emocracy
E L
E R
E m
E lect
G B
G rowing
J K
L M
L P
L arry
L ocal
L earning
M at
M on
M ur
P R
P ower
P oor
R on
S everal
T H
U se
b ac
b irth
b imet
c atch
d in
e nds
f its
f athers
f eller
g ate
g ie
g ium
h ard
h ov
i ates
i ably
j ac
k ar
k irts
l est
m outh
o llow
p arency
r ates
s aw
s quare
t ouch
u y
v o
w ed
w estern
Ã ¼
Ġ icy
Ġt ides
Ġt icking
Ġth irty
Ġa us
Ġa ver
Ġa ur
Ġa ids
in et
Ġw age
Ġw igg
Ġw retched
Ġthe or
re ach
re port
Ġs ank
Ġs eren
at ization
er art
Ġc ed
Ġc ro
Ġc ured
Ġc ubes
Ġc oded
is p
it an
os y
os cope
os copic
Ġb ol
Ġb ury
Ġb leep
Ġb ounds
Ġb usted
Ġb idding
Ġm art
ap le
Ġh ence
Ġh itch
Ġh oo
Ġto dd
Ġto bac
Ġp or
Ġp ine
Ġp ater
Ġp orous
Ġp ounding
an imate
Ġd ing
Ġd ere
Ġd ermat
or um
or iously
Ġin ad
Ġin ward
Ġin version
Ġin appropriate
Ġl ith
Ġl ust
Ġl onel
om ers
Ġg um
Ġg ast
Ġg room
as semble
ic ion
ic ist
ĠI Q
ĠI de
ĠI rish
ĠI stan
Ġn ugg
Ġe u
us se
Ġbe an
ut er
Ġit er
Ġit eration
et ry
Ġre int
Ġon set
ay a
Th ough
Ġha il
im port
ur pr
ur ga
Ġst if
Ġst ance
Ġst ared
Ġst yles
ch i
ro ads
ir y
am ation
am ics
ol o
ol ph
ol ingo
th an
ra cept
Ġab usive
Ġgo ose
Ġu l
Ġse mic
Ġk m
Ġk r
Ġk ites
Ġas ph
Ġas ym
ht ub
Ġsh ack
Ġsh ave
Ġsh ield
Ġsh iny
Ġsh irts
od ox
ill ary
ant ically
Ġso ar
Ġso ils
Ġfr ater
ust ered
Ġall iance
Ġex acer
Ġr ay
Ġr ally
Ġr ud
Ġr ang
Ġr idd
Ġr ival
Ġus able
Ġpro verb
Ġpe e
Ġpe el
Ġpe ek
Ġpe pper
We lcome
Ġcon ve
Ġcon co
ck er
um bo
est ant
Ġlo bb
Ġma f
Ġkn it
Ġkn ob
Ġv iv
Ġv antage
ind ers
ĠA uth
ĠA BC
ĠA gnes
Ġout let
Ġout lines
Ġout lets
Ġal be
Ġal iens
ink y
Ġint ra
Ġint ens
Ġsp y
ie ly
ĠS T
ĠS it
ĠS ant
ĠS oph
ĠS imp
ĠS enegal
Ġup ward
Ġup right
el i
el le
el ope
ain ted
Ġpl ed
Ġpl umb
Ġpl umes
Ġpl ugged
ĠC L
ĠC ub
ĠC ash
Ġ1 000
Ġim balance
em ple
Ġsa ils
ĠM os
ĠM ission
ĠM au
ĠM organ
ĠM olly
ĠM ommy
ĠM ushroom
og ene
ine e
Ġwork places
Ġsu p
Ġsu ite
are rs
act or
reat ed
ack er
Ġen l
Ġta ils
Ġle aking
Ġle ague
You ng
Ġexp enses
ag ging
ĠB C
ĠB it
ĠB all
ĠB urn
ĠB ond
ĠB lock
ĠB irds
ĠB yrne
Ġdon key
Ġqu arks
ud son
ĠH ope
ĠH ipp
ĠH ills
ĠH off
ĠH usse
Ġfe athers
Now adays
ach t
iff el
iff ords
ĠT B
ĠT il
ĠT ide
ĠT oo
ĠT ulu
ĠT roy
ĠG rey
ĠG owan
ĠG ogh
ĠG iffords
ff e
ff y
ĠE nce
ĠE aster
ĠE li
ĠE iffel
Ġtw enty
Ġpr icing
ĠP as
ĠP ra
ĠP ine
ĠP ach
ĠP av
ĠP olar
ip ur
ĠD ear
ĠD ist
ĠD ry
ĠD own
ĠD ark
ĠD ays
ĠD olly
ĠD ata
ĠD uke
ry ption
ĠN ie
ĠN icholas
ĠN aomi
Ġco il
Ġover board
Ġbu ck
Ġdis com
sel s
Ġpo ke
Ġpo op
Ġpo ignant
cent imeter
Ġro oster
ĠL ar
ĠL ow
ĠL ive
ĠL ist
ĠL ower
ĠL ock
ĠL yn
ĠL arge
Ġcont r
Ġcont ing
Ġcont empt
Ġcont amination
Ġcont racept
ult s
Ġac umen
Ġunder dog
Ġunder lies
Ġph ases
Ġres h
Ġres et
Ġres erved
ĠR et
ĠR ail
ĠR anger
ĠR oll
ĠR ocke
ĠR ufus
In vest
Ġdes olate
Ġbo ot
Ġbo oming
ĠF est
ĠF old
ĠW olf
ĠW inter
ĠW isc
Ġhum bling
Ġem ission
Ġgr apes
Ġgr illed
ak y
ak able
Ġpre st
Ġpre oc
Ġpre acher
Ġpre liminary
Ġcomm itting
ĠO z
ĠO ops
ĠJ R
ĠJ et
Ġdown s
Ġsm ack
Ġsm ash
Ġsm iled
Ġinc lusion
ject ed
Ġsc ars
Ġbr ine
ys es
ons in
Ġsur pass
chn ya
Ġtra gically
we y
we ed
nds on
ĠCh air
Ġapp la
Ġsim ulator
Ġinv ade
Ġinv ites
av in
Ġcr ush
Ġcr ashing
Ġbuild ers
ren he
ĠK ind
ĠK end
ĠK alu
Thank fully
Ġperson nel
pe er
amp s
Ġ3 9
Ġrel ay
Ġdr ums
Ġcar ved
Ġplay wright
und ers
Ġent ries
ven ient
oc us
oc co
ĠAnd y
Ġstr aps
Ġstr apped
ĠSt ill
Ġcomple ment
Ġmod ules
Ġsl ap
Ġsl ang
Ġmon ks
Ġser mons
Ġmed it
Ġmet a
Ġmet eor
ced es
ĠAmeric as
ah n
Ġbeh aves
Ġrec line
Ġposs ession
Ġ5 9
Ġdem ob
pr otected
Ġsk ins
ident ally
Ġsub set
Ġhand led
Ġfut ures
Ġinf ring
Ġinf amous
Ġconf er
Ġorgan izers
Ġenerg ies
Ġsoci able
Ġsoci ologist
ĠV on
ĠV erm
ĠV oice
ts on
Ġaut o
Ġgovern or
Ġwar ps
Ġdist raction
Ġdef y
Ġphot ons
Ġcur led
Ġwo o
Ġdet r
ĠInd epend
Ġcho oses
Ġvide ot
Ġmem es
Ġchar ter
Ġchar itable
ĠNew castle
ĠHe ather
ilt ered
For get
Ġprof iles
Ġloc ate
Ġkill ers
Ġfore ground
Ġdev ise
Ġclass ified
Ġblo op
Ġsw ings
Ġexc ites
uck er
get own
Ġadv ancing
Ġret rospect
Ġ6 3
Ġ9 2
bers pace
Ġ7 1
Ġ7 3
Ġ8 8
Ġquick er
Ġincre ments
Ġteam work
Ġteam mates
Ġjo ys
Ġdi ets
Ġdi agrams
Ġvir g
.. .
cul us
Ġvo id
Ġve ctor
Ġve iled
Ġcra z
Ġabs ent
Ġneur op
ĠAr iely
Ġimpro ves
omet ric
Ġill umin
Ġarch e
Ġcoll ide
Ġdel ta
Ġmarket ed
Ġfre aked
Ġgrand ma
Ġes oteric
ĠWh ole
ĠWh atever
Ġnon verb
Ġcolle ges
Ġhy giene
Ġred ist
Ġsuper nova
Ġsun s
Ġsun fl
Ġpsych otherapy
Ġemb assy
Ġextrem ism
ipp ers
cr ipts
ĠOh io
Ġexperiment ed
Ġspecial ize
Ġsqu ir
Ġcy nical
Ġenc ryption
Ġge op
Ġsitu ated
sh ell
sh mi
Ġsum med
Ġsum mon
Ġap artheid
Ġcomb ines
erm aid
ĠTh ai
Ġsoft ly
ann el
ann ica
Ġdark est
Ġredu nd
Ġpath ogens
ai k
Ġhot els
Ġbenef ited
Ġrul ing
Ġworth less
Ġvill agers
let t
let ter
Ġprop ulsion
Ġfa ulty
go vernmental
Ġbed side
ĠAn thony
ĠSouth east
Ġcompet ence
ĠPh D
Ġsn ipp
Ġmicro credit
Ġmicro finance
Ġsat urated
Ġtend ed
Ġtend encies
Ġprin ters
Ġreact ive
Ġaccount ed
cuss ions
Ġactiv ation
yn man
Ġparticip ant
Ġrid ge
Ġmis use
ĠSe an
ĠSe ven
Ġcontext ual
Ġconsider able
ĠPr ay
Ġadm iration
Ġvacc ination
Ġcloud y
ĠBrit annica
Ġbar bed
Ġbar bec
Ġfant as
Ġfix ated
Ġinflu encing
Ġcharacter ized
Ġign oring
Ġbal d
Ġbal let
Ġdeb ating
Ġdeb ilitating
Ġsyn ag
Ġpack s
Ġsecret ary
ĠCar gill
Ġlink ing
Ġmathem atically
Ġtrou bles
Ġjud ged
Ġemploy er
Ġcorre ction
ĠGe off
Ġthr ust
la cier
Ġroll er
Ġboard ing
Ġscr ip
Ġrandom ized
Ġport s
Ġoptim ist
Se bastian
Ġ198 3
Ġ198 7
Ġran ch
Ġexpress es
Ġbread win
reprene urs
ĠDo ctor
Ġeth ically
Ġpen al
Ġfit ness
Ġshock s
Ġmotiv ating
Ġlog ically
Ġtransport ing
Ġann ouncing
Ġtarget ing
Ġwis er
Ġmut ually
ĠMc Chryst
ett es
Ġdoub ts
ĠiP ods
Ġunc les
Ġswitch ing
Ġhang ers
ĠFor get
ricult ure
ches ter
Ġfuel ed
Ġreb ell
Ġhack ed
Ġcorrect ness
ĠPro v
Ġ196 8
Ġlunch es
ĠMich oac
Ġgrandm aster
Ġmosqu es
Ġproud ly
Ġspot light
Ġquant ify
Ġtast ed
Ġund oub
Ġintu itions
Ġfresh water
Ġsubst itute
ĠDan ny
Ġcircum c
Ġdisc ourse
cop y
me ister
Ġmetaphor ical
ĠEn lightenment
Ġdial ed
Ġband width
Ġmaint ained
Ġmaint enance
Ġtow els
Ġdesert ification
Ġexch anging
Ġlifet imes
Ġcow boy
Ġlat itude
Ġfrustr ations
ĠPhil ips
ĠEx pl
ĠEx cuse
Ġmyst ical
Ġprefer red
Ġabst raction
Ġbath e
Ġextend ing
ĠKore ans
Ġjail s
ĠiPh ones
Ġreven ge
Ġformer ly
Ġtranspl ants
Ġsophistic ation
Did n
Ġpun ished
Ġpun ctu
Ġclock s
Ġcritic ize
Ġnavig ating
Ġdot com
Ġregard ed
Ġantibiot ic
Ġ194 8
Ġbare foot
Ġpian ist
Ġinstruct or
Ġmemor ized
Ġwel coming
keep ing
viol ence
Ġadvance ment
spe aking
Ġbrib ery
Ġregener ation
Ġastonishing ly
wr itten
Ġmim icking
Ġsphere s
ĠMal awi
ĠGab riel
Ġrefer ring
bl own
Ġinject ing
Ġinject ed
Ġattend ing
ĠMa o
ĠDemoc rat
Ġscratch ing
Com puters
Ġaim ed
Ġstack ing
Ġproport ional
ĠFre ud
ĠFre eman
Ġfrag ments
ĠHis pan
Ġmer ch
Ġweigh ed
Ġbull ying
Ġbull do
Ġub untu
Ġkiss es
Ġbiom ass
ĠJoe y
Ġaccum ulating
Ġid le
Ġcoach es
Ġpione ering
Ġrecip ient
Ġcoord inated
gl asses
Ġspr ink
ĠMor occo
Ġdump ing
Ġprotest ing
Ġdisappoint ing
AR S
ĠSa unders
Ġexplo itation
ĠGal ileo
Ġtempt ing
Ġtempt ed
Ġburst s
Sim ple
Ġgam ble
Ġenth r
Ġhighlight s
Ġborrow ing
Ġawkward ness
Ġhill side
Ġconver gence
Ġrecru ited
Ġdistract ions
Ġspreads he
ĠGold en
Ġbrut ality
engine ered
Ġlimb ic
Ġbat htub
ĠNan o
Ġphilanthrop ic
Am ong
fly er
Ġexped itions
Ġconsult ants
Ġpige ons
Ġtunnel ing
Ġpharmaceutical s
Ġnom inate
Ġwhis key
Ġdece ive
ĠMiss issippi
ĠLib by
Ġattribut ed
ĠBrook s
Ġskept ics
Ġaward ed
Ġouts kirts
Ġtranscend ence
Ġimmigr ation
Ġimmigr ant
Ġconce ivable
ĠCD s
Ġuniform s
Ġstimul i
Ġhub ris
ĠLeban ese
cre ation
Ġdent ists
Ġdil ig
Ġles ion
Ġdiscr imin
Ġsett ling
Ġembod iment
sell ing
ĠBel gium
Ġrestrict ions
Ġimmense ly
real istic
Ġstamp s
Ġdood le
ĠFar mer
Ġeditor ial
Ġmagnet ism
urger y
Ġalle v
Ġalign ed
Ġsumm aries
Ġmarvel ous
Ġexerc ising
ĠMag azine
ĠJac ob
ĠJac ques
Ġhorizont ally
ĠAv iv
Ġcounsel ing
Ġinfl ate
Ġven om
Ġjan itors
Ġorang utans
ĠHuman ity
Ġempath ic
Ġdens ities
tz mann
Ġange l
Ġexcess ive
ĠEv il
ĠNaz is
Ġunderm ining
ĠRoss y
Ġcommission ed
ĠBroad way
rane an
Ġger ms
Ġexagger ation
Ġexagger ated
Ġorph ans
ĠBud rus
ĠHol ocaust
Ġunve il
Ġunve ils
Ġembry o
Ġpron ounced
ĠChe chnya
Ġdismiss ed
Ġov arian
Ġconj ure
Ġconstitut ional
Ġfluctu ations
Ġannounce ment
Ġpean uts
Ġevapor ate
ĠHot el
Ġpsychiatr ists
Ġmisunder stood
Ġcompens ate
ĠShir ley
Ġarous al
Ġarous ed
ĠGirl s
Ġcoh es
Ġpreval ence
auth or
Ġdispers ed
Ġsamp ling
Ġcass ette
Ġdread ful
Ġstir ring
Ġdrift ed
ĠPass age
Ġtransact ions
Ġdash board
Ġbeast s
ĠPre go
Ġexcl usively
Ġargu ably
Ġskyscr aper
lad us
Ġanom aly
Ġdoct rine
ĠCreat ive
Ġfeas ible
Ġprecon ceived
Ġfluores cent
Ġinqu iry
Ġcher ish
Ġdelet ed
Ġcomplim ent
Ġreplic ating
Ġautobi ographical
Ġexclud ed
Ġlandm ines
Ġcharism atic
Ġparam eters
ĠWhit acre
Ġsnaps hot
ĠGeor getown
Ġcounterpart s
Jon athan
ĠNik ola
ĠOw ens
Ġapprent ice
Ġcraw ling
Ġjuxtapos ition
Ġstewards hip
ĠAchill es
Mart in
Ġais le
Ġgur u
Ġupt ake
ĠAlt os
Ġmockingb ird
Ġlibert ies
Ġunac cept
ĠEffect s
ĠNaj muddin
Ġdisson ance
Ġinvis ibility
Ġsubd iv
Ġdeterg ent
Ġsecre cy
Ġmisc arriage
Ġhomem ade
ĠHirsh horn
Norm ally
Ġnost al
Ġabd omen
ĠSadd am
ĠBagh dad
Ġdesal ination
ĠKite flyer
Ġintertw ined
Ġdatas et
ĠInv isible
Ġmicrow ave
Ġscrut iny
Ġrecycl able
Ġcyberatt acks
Ġtoothp aste
Jose ph
Ġwholes ale
Ġrever ber
threat ening
ĠAbor iginal
ĠSag meister
ĠCass ini
ĠDu olingo
ĠFah renhe
Ġprophe cy
ĠMozamb ique
erart u
Ġtobac co
Ġinad vert
Ġlonel iness
ĠIstan bul
Ġreint rodu
Ġasph alt
Ġexacer b
Ġalbe it
ĠHusse in
ĠGowan us
ĠEnce ladus
Ġdiscom fort
ĠRocke feller
ĠWisc onsin
Ġpreoc cup
Ġappla ud
ĠKalu za
Ġnonverb als
ĠMcChryst al
ĠFahrenhe it
0 5
3 3
4 8
9 5
A L
A id
A st
B S
B l
B re
B ased
B rit
C ons
D i
D am
E P
E ver
E conom
F ind
F ree
H O
H ome
H old
H eart
I d
J E
J M
J an
J osh
J ennifer
K evin
L o
L ong
M W
M o
M r
N E
O cc
P op
P arent
P ros
R ich
R NA
S E
S p
S her
S chool
T ony
T ech
U E
U S
W ere
W orld
W ait
a cial
a ways
b i
b ach
b ene
b uilding
c ord
c ale
c ils
c ifically
c uff
c ultural
c orrh
d ough
d oc
d ream
d istance
e ers
f irst
f ishing
g one
g ath
g irl
g aly
h od
h ill
h ift
h elp
i ard
l os
l on
l age
l ass
l iness
l iving
l ankton
m ad
m ies
m other
m aterial
n ost
n ered
o it
o ard
o be
p o
p ost
p its
p hew
s m
s ome
s ourced
t own
t able
u ffic
v ens
v old
v antage
w aters
x ic
z n
z ers
£ o
Ã ¶
Ã £o
Ġ Â
Ġt rench
Ġt roph
Ġt inker
Ġth irst
Ġth igh
Ġa version
Ġa quarium
in os
in ja
Ġw iz
Ġthe aters
Ġthe sis
re qu
Ġo un
Ġo ily
Ġo min
Ġs our
at on
er ting
ou p
ou nces
Ġc ough
Ġc erv
Ġc ores
Ġc unning
Ġc aution
it ant
it ories
os lav
Ġb ake
Ġb anging
Ġb acon
Ġb uddy
Ġb ilingual
ing es
en os
en stein
Ġh ic
Ġh ott
Ġh ides
Ġh ij
on i
on ig
on est
on ary
on ics
on ian
Ġto e
Ġto mb
Ġp se
Ġp enn
Ġp ests
Ġf ont
Ġf uss
Ġf ission
Ġf itted
es ium
an ny
an za
Ġd ess
Ġd ual
Ġd uct
al er
Ġin a
Ġin oc
ed nes
Ġl ure
Ġl bs
Ġl att
Ġl umber
Ġl iters
Ġl ousy
ar ke
ar ms
ar rett
ot or
Ġy awn
om on
Ġg ates
Ġg iants
as ia
as ma
le able
ĠI C
ĠI V
ĠI ron
ĠI NCRA
Ġwe ars
Ġwe ave
ow ler
Ġe ag
Ġe uth
Ġe aves
Ġe gos
us er
Ġbe aring
Ġbe gging
ut u
ut ers
et ed
et ah
Ġre integr
ent h
Ġon c
im m
im ic
im age
im mer
ur o
ig ms
Ġst ub
Ġst ung
ch a
ch oma
ch arge
ro ves
ro lux
Ġfor k
Ġfor ge
Ġfor um
Ġfor wards
Ġfor ums
se ven
Ġwas p
am er
am en
am el
am ish
op es
op athy
op py
Ġan th
st art
Ġwith stand
th rit
ra wn
Ġab ol
Ġab ortion
Ġse ct
Ġse iz
Ġse ized
Ġse gment
Ġk ang
Ġli ars
Ġsh alt
ad ise
Ġhe x
Ġhe els
od ied
od ka
ill iant
Ġne c
Ġne phew
Ġat roph
ter ol
il i
Ġso ot
Ġso cket
Ġfr own
Ġfr ied
Ġfr amed
Ġj og
Ġex tern
Ġch oles
Ġde x
Ġr ug
Ġr Ã©
Ġr usty
Ġpro xy
ear ly
art ic
Ġcon not
Ġcon ventions
ate au
um ed
est ing
ist ical
Ġlo llip
Ġma im
Ġma ize
Ġv ine
ect ion
ĠA id
ĠA irst
ĠA ires
Ġout raged
un ge
and an
Ġsp ins
ie v
ĠS ach
ĠS ony
ĠS ym
ĠS isy
ĠS ciences
Ġtr ance
Ġup l
Ġpl aster
Ġpl ague
Ġpl aus
iv ia
iv ism
ĠC ut
ĠC ost
ĠC orn
ĠC up
Ġsome place
Ġim itation
our s
ĠM ust
ĠM ain
ĠM ead
ĠM aking
ĠM aur
ĠM ermaid
og s
Ġsu itable
Ġen rolled
Ġta bo
ab ian
ab ric
ab ama
Ġle aps
ans w
ans hip
ĠB in
ĠB rain
ĠB eth
ĠB uild
Ġhas s
alk ing
Ġman ic
Ġman ure
Ġqu ake
Ġev ils
ud s
res ent
Ġwill ful
ĠH u
ĠH ay
ĠH ear
ĠH um
ĠH ob
ĠH ole
ĠH uh
ĠH urt
ĠH udson
Ġfe ather
Ġother ness
ach ines
Ġag nost
ĠT ob
ĠT uc
ĠT ech
ĠT ox
ĠT NC
ĠT ijuana
ĠG ould
ĠG round
ĠG ib
ĠG ala
Ġno b
Ġno od
Ġmake up
Ġneed less
Ġun ions
Ġun pl
ĠE p
ĠE nt
ĠE ames
ĠE dd
Ġtw ists
Ġcl ap
Ġcl aws
ĠP in
ĠP or
ĠP ot
ĠP age
ĠP ia
ĠP rad
ĠP oor
ĠP eters
ĠP retty
ĠP inker
ĠP ilot
ĠP ET
ĠP ascal
ĠD iv
ĠD ance
ĠD iction
ĠD ev
ĠD yson
Ġimp ed
Ġimp ending
Ġar ist
ĠN am
ĠN one
pt a
Ġco ating
Ġco con
Ġco bb
Ġdis like
Ġdis gu
Ġback stage
Ġnew born
Ġpo o
lo id
ĠL im
ĠL ind
ĠL aur
ĠL agos
Ġkind er
Ġac ron
Ġac rome
vel ength
Ġunder wear
Ġbet a
ody n
ber to
Ġph antom
Ġres ide
Ġres ervation
ĠR idge
ĠR aj
In cre
Ġday time
Ġdes erved
Ġad ore
ict ures
Ġbo oms
Ġbo nding
ĠF I
ĠF le
ĠF orm
ĠF owler
ĠW y
ĠW ant
ĠW ork
ank ed
Ġem erald
Ġem peror
Ġgr ind
Ġpre re
ĠO ffic
ĠO la
ĠO MG
ĠJ ur
ĠJ ake
ĠJ oy
ĠJ obs
ĠJ amie
Ġoff line
Ġwr it
ne x
Ġbr ute
Ġgen omic
Ġsur real
Ġwell ness
we il
Ġchild ish
ĠCh and
ĠCh ev
Ġsim ulations
Ġinv itations
Ġcr ies
Ġbuild er
Ġgu ided
Ġgu ests
Ġbl oss
ĠK w
ĠK ur
ĠK ids
ĠK urd
ĠK aren
ĠK nee
Ġins an
Ġins ulation
Ġend ure
lic able
pe ace
Ġfl ame
Ġfl ush
Ġfl ips
he av
Ġrel ent
Ġpol itely
Ġinter state
Ġinter play
Ġturn over
Ġpoint less
Ġimag ines
ert s
oc y
ĠAnd roid
ix on
Ġcommun ism
atch ed
pl ing
ĠY ah
ĠY ug
uc us
Ġexam ination
Ġhigh ways
Ġsl ed
Ġsl ash
Ġsl ammed
Ġcre ase
Ġmon ot
Ġmon uments
Ġgra ndson
Ġatt ain
Ġmed iated
Ġrec ap
Ġcent imeters
Ġeconom ical
Ġposs essed
Ġrep lication
Ġhard wired
Ġmind ful
Ġhealth iest
Ġ4 9
Ġrun way
pr om
Ġvis its
gg ie
Ġsk ied
Ġsupp ression
Ġsupp lement
ins ula
Ġsub ord
Ġhand held
Ġinf ants
Ġinf used
Ġanim ate
Ġform ulation
ĠUn ivers
Ġsoci ologists
Ġsol itude
Ġsol uble
ĠV as
ĠV ila
arr ot
arr ied
Ġpres idents
Ġrese mble
Ġmoment ous
Ġspec imen
Ġmakes hift
Ġdef ic
Ġdef enses
Ġcur l
Ġcur ved
Ġcur sor
Ġey el
Ġwo ven
ĠInd ust
Ġmen stru
ortun ity
Ġchar ging
Ġlab ore
Ġref res
iter ranean
ott a
Ġdev ote
Ġdev oid
Ġclass ify
Ġclass mates
Ġpos ing
Ġmaterial istic
Ġunt old
Ġsw ear
Ġsw ims
Ġpar aph
de ath
de af
Ġgl aze
Ġwa velength
Ġcollect ors
Ġ6 2
Ġfree zes
Ġca ffe
br ight
Ġteam ed
Ġprov oked
icult ure
Ġve nd
Ġemp ires
Ġdep icted
Ġdep uty
Ġmess ing
Ġmess enger
Ġris king
Ġdeal er
Ġnetwork ed
Ġmiss es
Ġdel usion
Ġrev is
Ġrev ol
Ġdeath bed
Ġjour neys
Ġpred isp
Ġz e
ĠEur o
ĠYork ers
Ġeat ers
fect ed
Ġpaper work
Ġfre aks
Ġprotect ions
Ġhands h
Ġsaf est
ĠGo vern
ĠGo vernment
Ġnon verbal
ĠSh ack
ĠSh aw
Ġhy pe
ĠAl abama
Ġsuper intend
Ġpsych iatry
Ġrecord ers
Ġtre asure
Ġviol ate
Ġsent enced
Ġsent iments
Ġrequ iring
Ġsqu e
Ġsqu ish
Ġpick le
ole cular
Ġcy cling
Ġcy berspace
Ġcam oufl
Ġbuy er
Ġge ographically
Ġanal yses
Ġknowledge able
bor ough
Ġobs ess
Ġsum mit
Ġcaus ality
Ġcomb ustion
Ġfavor able
Ġcirc led
An ge
Ġdark er
Ġhar p
Ġcrit ics
Ġpost p
Ġconvers ion
Ġbenef iting
Ġtele graph
Ġrul er
ik h
ik i
Ġprop os
Ġdeg rade
Ġprom inent
ellig ent
Ġsounds capes
Ġvol atile
ĠZ one
Ġmar ijuana
ĠAn ne
Ġcompet ed
Ġbur nt
Ġbur ial
ĠLe o
ĠLe an
Ġsell er
ĠPh ys
Ġsn uck
Ġrece ivers
Ġgeneral ize
Ġbirth place
oid s
Ġflu ids
Ġactiv ates
Ġarm pits
ask et
cient ist
ted ly
Ġblind ed
Ġcart s
view ed
Ġrain y
Ġtransl ations
Ġmount ed
Ġadm ission
eth ical
Al right
Ġbar ric
Ġbar rels
Ġposition ed
Ġfasc ination
Ġunivers als
Ġunivers ality
Ġbom ber
Ġbank er
Ġbank rupt
ĠNorth west
Ġstress es
Ġdeb ut
ĠShe ila
ror ism
Ġmist rust
Ġsyn es
Ġeffort lessly
Ġpack ets
fr ame
fr iends
Ġcook s
Ġemploy ers
Ġfundamental ists
Ġ17 5
Ġswim mer
ĠAll o
Ġrespect able
Ġhur ting
Ġhur ricane
ĠWar ner
Ġscr ap
Ġtur tle
Ġtur tles
Ġport f
Ġdrop out
Ġang st
Ġran king
Ġcelebr ates
Ġsequ el
Be yond
Be hind
igr uten
Ġmix es
Ġsky ro
Ġsky diving
ĠMar c
Ġir respect
Ġvulner abilities
udd le
af i
Ġgradu al
Ġgradu ating
Ġ197 6
Ġ197 8
Ġann ih
Ġintegr al
ĠAd m
Ġmut ilated
ĠMexic ans
ze iro
Ġut op
Ġtax pay
Ġdoub ling
Ġforeign er
Ġbroad band
Ġswitch es
Ġfashion able
atr ick
Ġamb assador
Ġconsid ers
Ġhom eland
Ġparad igms
ĠMe g
Ġcheap est
Ġ196 3
Ġshoot er
hy dr
Ġtor ch
Ġsport ing
Ġmort al
thes is
erson ally
Ġillustr ations
ĠPal in
Ġvolunte ered
Ġvolunte ering
hab ited
Ġund o
au x
Ġcred ibility
Ġsculpt ural
ĠGu pta
Ġneuros urge
Ġcommit ments
Ġtick le
ĠNe uros
Ġmaster piece
Ġglo ve
Ġpurs ued
ĠPaul ing
Ġbright est
Ġagre ements
Ġfellow ship
Ġfinish es
Ġindic ated
Ġpollut ed
Ġacadem y
Ġinterp ersonal
Ġcow orkers
Ġnan otechnology
uh an
asion ally
Ġacceler ometer
Ġlimit less
Ġhumor ous
Ġmigr ated
ĠSch wart
ĠInst agram
ĠEx cell
ĠEx actly
Ġencourage ment
Ġprefer ably
Ġmicros copes
Ġremo ves
Ġcolon ial
Ġspl itting
ĠVal ent
Ġanalog ous
organ ized
ĠBar n
ĠBar bie
bre aks
Ġoccup ying
Ġlifest yles
ĠSu fi
Ġinequ ity
ĠEm manuel
Ġwitness es
Ġlength s
Ġancest ral
Ġoverwhel mingly
Ġridic ule
Ġridic ulously
Ġabstract ions
Ġpump ed
Ġrot ten
Ġcompar isons
ĠGood bye
Ġharvest ed
Ġthick ness
ĠJul iet
Ġinstinct ive
Ġelev ators
Ġanonym ously
Ġdedic ation
Ġhel ix
Ġsurvey ed
iat ur
Ġimplement ing
Ġknock s
Ġment ors
Ġcommand ment
ĠEve lyn
Ġdress ing
Ġseason al
Ġkick s
cred ible
Ġwise ly
Ġprost itutes
ĠCom edy
Ġdiplom ats
under ing
Ġstretch ing
ĠComm ittee
Ġevalu ating
Ġaim ing
Ġfrag ility
Ġmarch ing
ĠGand h
Ġimpress ions
Ġconclud ed
Ġcarr ier
Ġcarr ots
Ġaccum ulation
Ġsed uctive
Ġmail box
Ġcoach ing
Ġsuppl iers
Ġpione ered
ĠSil ver
Ġcoord inate
Ġcoord inates
Ġgre ens
Ġbubb ling
ĠJes se
Ġburst ing
Ġrecover ing
gend ered
ĠBal let
Ġdism ant
Ġpersu aded
Ġpersu asive
Ġhemisphere s
Ġfulf illed
Ġneat ly
Ġque ens
Ġethnic ity
Ġpersist ence
Ġsav vy
Ġrail road
ĠMed iterranean
ĠHans en
Ġconsult ing
Ġconsult ant
Ġsla ught
Ġharness ing
ĠBol t
irect ed
ĠJim my
ĠHy per
Ġvalid ated
Ġgeek y
Ste ve
Ġarrow heads
produ cing
Ġbatt ling
ĠSl ow
Ġsalt water
Cl ay
grad ers
Ġtact ile
ĠCor por
ĠDa isy
En viron
Ġbind s
ĠAny body
Ġreconstruct ed
Ġhal ved
Ġtriv ia
Ġperpet r
Ġoverl apping
Ġobt ain
Ġacknowled ging
Ġcorrespond ing
ĠIceland ic
Ġalle ged
Ġconqu ered
Ġcompreh ension
Ġgrace ful
Ġredesign ing
Ġdemocrat ized
Ġepis odes
Ġcounsel or
Ġvolcan ic
Ġbench mark
Get ting
Ġven ue
ĠBu enos
rr rr
Ġrip e
ĠRand olph
ĠJord ans
ĠTunis ian
Ġwrest ling
Ġmicr oseconds
Ġsched uled
Ġunderest imated
Ġhurd y
Ġscaffold ing
Ġcalend ars
Ġpestic ide
Ġnap kin
Ġchat ting
Ġrank s
ĠSk id
Ġsidewalk s
Ġweakness es
Ġhipp ie
Ġcontempl ating
Ġbureauc racy
Ġbureauc ratic
Ġmit igate
Ġmit ochondr
Ġconj unction
ĠSur vey
Ġexport ing
ĠPers ian
Ġconstitut es
Ġesc aping
Ġneglect ed
pack ed
Ġnic er
Ġreck less
Ġperf ume
hr vold
lean or
Ġrevers ed
Ġcompens ation
Ġdiscl osure
ĠWi i
Ġconsol id
ĠShir ky
Ġchampions hips
Ġsubsid ies
sum Ã©
Ġfier y
Ġmand ate
Ġdispar ity
Ġadvers ity
Ġ74 7
Ġsamp led
ĠSix th
ĠCru zeiro
ĠEst onia
ĠLOL cats
Ġhumil iation
Ġgran ular
Ġrabb i
ĠVe gas
Jul ian
Ġclich e
Ġamy loid
Ġresid ue
Ġbrainstorm s
Ġinsur gency
bag s
Ġathe ist
Ġpsycho an
lend e
Ġforger y
ĠMas low
ĠElect rolux
Ġresemb les
ĠConst itution
Ġskyscr apers
Ġdecept ive
ĠBand ura
ĠDra gon
Ġintersect ions
Ġrepet ition
Ġrepet itive
consum ing
consum ption
Ty pically
educ ated
Ġdod ge
ĠSn owden
Ġdisad vantage
ĠLuc y
Ġeyebr ows
Christ opher
bet a
osoph ist
Ġga uge
Ġoutl iers
Ġarrog ant
Ġsubmar ines
Ġoppon ents
Ġmarking s
Ġmiscon ception
ĠMcG onig
Ġspoof er
Ġgymn osophist
Bab ies
Ġmour n
Ġlent ils
Ġintest ine
Ġunch anged
Ġinterdepend ence
Ġprovin ces
Ġbalcon y
Ġprag matic
El izabeth
ĠDiver gence
Ġsurre nder
Ġlett uce
Ġinterpre ting
Ġforens ic
Ġsuperf icial
ĠProtect ion
Ġskeptic ism
Rad io
Ġape x
restr ial
Ġbumble bees
Ġbibl ical
Ġpic nic
ĠDD T
Ġinsignific ant
Ġentit led
ĠVill age
ĠBeat les
ĠGlad well
ĠArchitect ure
Met aphor
Ã³ n
Ġpod ium
Ġpaj amas
Ġumb rell
ĠBow l
ĠHur ricane
ĠGener ation
ĠDire ctor
Ġdisput es
Ġdiscont in
ĠUt ah
Ġvoy age
Ġpractition ers
Ġprosthes es
Ġbonob os
Ġprecurs or
Ġdyslex ic
Dar win
wrest ling
Ġsap iens
Ġmism atch
Ġetern ity
Ġsegreg ated
Ġprocl aim
Ġplur ipotent
Ġplung ed
Ġexpend iture
ĠBalk ans
ĠNev ada
Ġbriqu ettes
Ġrab bit
ĠKap lan
Ġintermedi ate
Ġglam orous
Ġfatig ue
Short ly
prov oking
Ġwhistlebl owers
tenth s
Ġsovereignt y
Ġseren ity
Ġtodd ler
Ġpater nity
import ant
urpr ising
Ġmaf ia
ĠSimp son
ĠBit co
ĠDist rict
ĠLar amie
Ġcontracept ives
Ġprest ig
Ġvirg ins
Ġsynag ogue
Ġundoub tedly
Occ asionally
hod ops
Ġomin ous
Ġhott est
Ġpse ud
ednes day
Ġcholes terol
ĠrÃ© sumÃ©
ĠAirst ream
ĠSym phony
ĠSisy ph
Ġtabo os
ĠHurt igruten
ĠTob ago
ĠTuc son
ĠGala xy
ĠPeters burg
Ġacron ym
Ġacrome galy
ĠYug oslav
Ġsuperintend ent
Ġirrespect ive
Ġtaxpay ers
ĠSchwart z
ĠMcGonig al
1 6
1 7
2 4
3 8
B ar
B ra
B uild
C R
C o
C op
C ard
C ong
C oll
C ynthia
D F
E ve
F C
F ace
G ab
H enry
I CE
I PP
J apan
J ournalist
K ir
L B
L S
L ove
L eaders
L uhan
M ove
N on
N orth
N elson
O ffice
P es
P rof
P ersonally
S un
S phere
S arah
S uccess
T O
T aking
T unes
U N
W ater
W ork
Y ears
a ic
a fter
a vers
b our
b ons
b ai
c as
c ro
c iful
d em
d ense
d ale
d irected
e at
e ous
e lebr
e astern
f iction
f ires
g ree
g ated
g ulation
h an
h ak
h igh
h asa
j ad
k ut
l ap
l ance
l ah
m ets
n an
n ote
n arr
n acle
p ret
p sy
r ising
s en
s ub
s upp
s ustainable
t ic
t ically
t aking
u i
w ent
w ives
w ait
y k
z u
z ka
à ¸
Ġ Ã
Ġ ib
Ġ urch
Ġt ed
Ġt ad
Ġt ant
Ġt ires
Ġt apes
Ġt aped
Ġa kin
Ġa uction
in is
in ence
in cent
in ning
in ition
in ement
Ġw i
Ġw ack
Ġw olf
Ġw icked
Ġw itty
re a
re z
re viewed
Ġo o
Ġo t
Ġs or
Ġs ine
Ġs ins
Ġs ush
Ġs aint
Ġs arg
at re
Ġc ad
Ġc ited
is ch
is el
is ciplinary
it o
it ized
it iba
os o
Ġb um
Ġb red
Ġb ree
Ġb aking
Ġb ows
Ġb akery
Ġm op
Ġm ars
en ch
en berg
ap a
ap est
Ġh ast
Ġh edge
Ġp ap
Ġp als
Ġp ins
Ġp ony
Ġp ores
Ġp unk
Ġp uls
Ġp aren
Ġp ups
Ġf are
Ġf iddle
Ġf ats
Ġf used
Ġf idelity
es ame
an im
an ol
Ġd ed
Ġd ared
Ġd aring
Ġd war
Ġd otted
Ġd wind
or ical
al ine
Ġin und
Ġin ks
Ġl ing
Ġl ur
Ġy um
Ġg le
Ġg our
Ġg ee
Ġg inger
Ġg asses
Ġg yre
ic ular
ĠI ow
ll er
Ġwh ims
Ġwh ilst
Ġe er
Ġe gal
Ġe phem
Ġe jac
us c
et ics
et erm
Ġre imag
Ġre wild
qu o
ay an
Ġha w
Ġha cks
Ġha unting
im bor
ur i
ur ich
ur ous
ur ities
ur man
ig ible
ig ator
Ġst y
Ġst roll
if ier
se cut
Ġwas tes
ir ming
Ġdo able
st icks
ol unt
ol ulu
ra ging
Ġab ys
Ġgo dd
Ġse vent
Ġcan ce
Ġcan oe
Ġk icking
Ġsh ines
Ġsh ove
Ġsh aman
Ġsh aky
ad ers
ad ors
ad ows
od or
od eling
Ġcom et
ill ings
Ġne o
ant e
Ġnot able
il izing
il ocks
Ġso ck
Ġso fa
Ġfr ies
Ġfr aming
Ġfr anch
ust omed
Ġall iances
Ġj oking
Ġj aws
Ġex empl
Ġch ir
Ġch urn
Ġch ops
Ġde leg
Ġr uth
Ġr ude
Ġr ationally
Ġr ivals
ight s
Ġpro pr
Ġpe ar
Ġpe ac
Ġcon secut
ate l
ure au
Ġlo af
ind uced
Ġbut ch
ect ed
ĠA K
ĠA ung
ĠA the
ĠA TM
Ġout do
Ġout source
Ġout breaks
Ġal ibi
all ows
un ger
and y
and ing
Ġsp it
Ġsp lend
Ġsp arse
ĠS C
ĠS on
ĠS ar
ĠS el
ĠS ue
ĠS ting
ĠS pr
ĠS aint
ĠS uther
ĠS ergey
Ġtr u
Ġtr aps
Ġtr uce
Ġwho a
Ġwho lly
Ġup grad
Ġup rising
ich a
Ġby e
Ġpl ugging
ĠC at
ĠC it
ĠC as
ĠC ars
ĠC ave
ĠC eline
Ġim b
Ġyear ning
em ed
em ic
Ġsa iling
Ġsa iled
ĠM i
ĠM ade
ĠM atch
ĠM alth
ĠM ills
ĠM add
ĠM AS
og ged
ment ally
Ġwork ings
Ġcomp iling
Ġcomp lications
Ġcomp uls
act ion
act ivated
Ġen velop
ans on
Ġexp os
ong s
ong ru
ĠB R
ĠB og
ĠB ose
ĠB ue
ĠB rent
ĠB everly
ĠB ureau
Ġper t
Ġqu ads
Ġev ac
Ġev ange
ĠH om
ĠH od
ĠH ers
ĠH ab
ĠH annah
ĠH AL
ach i
ĠT se
ĠT ree
ĠT able
ĠT iger
ĠT ogether
ĠG ut
ĠG ell
ĠG ross
ĠG lacier
Ġno zz
Ġun l
Ġun natural
Ġun answ
Ġun ethical
ĠE qu
ĠE ight
ĠE bert
Ġtw ent
Ġcl utch
Ġpr istine
ĠP R
ĠP ay
ĠP orter
ĠP TS
ĠP icture
ĠP atel
ĠD ou
ĠD od
ĠD ak
ĠD yn
ĠD ror
ĠD amas
ĠD ennis
ĠD har
ĠD addy
ĠD erartu
Ġimp over
Ġstart up
Ġar thrit
Ġ2 20
red dies
ĠN R
ĠN Y
ĠN ap
ĠN ad
ĠN eed
ĠN FL
ĠN ixon
Ġco b
Ġco y
Ġco ated
Ġover c
Ġover coming
Ġover fishing
Ġbu lly
Ġdis cer
Ġdis fig
ass is
ang led
Ġfirst ly
ac c
ens ing
rain ing
Ġpo nder
Ġpo inter
ĠL y
ĠL iber
Ġunder went
Ġbet s
ber ries
Ġam use
Ġam mon
Ġres ign
Ġres igned
Ġday dream
Ġdes ired
co ll
Ġad verse
Ġbo o
ĠF E
ĠF at
ĠF ear
ĠF ind
ĠF ine
ĠF err
ĠW ag
ĠW ong
ĠW alt
ĠW ednesday
du c
Ġhum ming
ick lider
Ġem its
Ġide ally
Ġpre tz
ĠJ ans
ĠJ aw
ĠJ eremy
ĠJ essica
form s
Ġoff ense
Ġsm ok
ark o
Ġinc ont
Ġinc ongru
Ġfact ual
ĠU V
ĠU se
ĠU lt
ĠU top
Ġsc um
Ġsc anners
Ġbr ass
ile ver
Ġgen omics
per ial
te acher
Ġtra choma
Ġbrain waves
ĠCh a
ĠCh am
ĠCh ief
Ġapp end
Ġra ced
Ġinv ading
Ġinv olunt
Ġcr ate
Ġcr ony
Ġcr appy
Ġbl ade
Ġbl ades
ric ity
Ġrem ake
Ġrem edy
Ġrem orse
ĠK ant
ĠK ick
ĠK ros
ĠK rish
He y
He alth
Ġend urance
lic king
Ġfl oss
Ġfl avors
Ġtrans gender
Ġtrans gendered
Ġrel iability
Ġbefore hand
Ġbelie ver
Ġcar bo
Ġpol ish
Ġinter v
Ġlearn er
oc used
oc zka
ĠAnd es
ix ote
ather ine
pl aying
ĠY or
ĠY ep
ĠSt range
ĠSt alin
ĠIn novation
Ġquestion able
Ġsl ipped
az o
az ar
Ġ10 3
Ġmin eral
Ġmin istry
Ġmin iatur
Ġmon archy
Ġmon olith
Ġfour s
Ġext ensively
Ġgra ft
Ġatt en
Ġplan ners
Ġmed ian
Ġmed ina
Ġrec omb
Ġrec onsider
ale y
Ġhard working
Ġproject ing
Ġrun ner
Ġbi enn
Ġbi opsy
wh ich
Ġeng ra
Ġvis ibility
Ġfun n
Ġfun nel
Ġsupp orters
Ġpass ively
ins ic
Ġhand writing
Ġhand cuff
Ġacc ustomed
Ġinf ilt
Ġcor ros
Ġcompan ions
Ġshare holders
Ġfuture less
Ġform ulate
ĠUn ilever
Ġhead wind
ĠV ent
ĠV ideo
Ġval uing
Ġaut umn
Ġspec imens
Ġsound track
Ġwar p
Ġwar med
Ġopp osing
Ġopp ressed
Ġprot agon
Ġmor als
Ġmodel ed
Ġmem oir
Ġbad ge
Ġchar m
iter ally
Ġbillion th
Ġbillion aire
Ġrob bery
no v
arth a
Ġfil ing
Ġunt o
rem ely
Ġblo om
Ġsw o
Ġsw ine
Ġsw amp
Ġsw arm
Ġsw arms
Ġpar ody
Ġpar able
de z
Ġfriends hips
Ġwa iter
to o
Ġpay back
Ġ15 00
Ġgovernment al
Ġ6 50
ret ion
Ġ7 9
Ġmust aches
Ġmil estone
Ġdi apers
Ġcancer ous
Ġsex es
Ġbab ys
Ġve g
Ġcra bs
Ġav ian
ĠThat cher
Ġmess ed
Ġclear ance
Ġobject ives
ute es
ming ham
ĠNo ah
ator ium
Ġmass age
Ġpot tery
Ġdel uge
Ġmarket er
Ġmarket ers
Ġrev olving
ĠBr ing
ĠBr its
Ġsens ations
Ġsens ual
Every where
Ġshort est
Ġoper ational
Ġmot el
Ġmot ives
Ġpaper cutting
Ġfre es
Ġgrand fathers
Ġant ic
Ġant elope
ĠWh irlwind
Ġlow ered
Ġhy ster
year s
ĠAl ban
oph ony
Ġsuper v
Ġsuper natural
Ġrecord ings
Ġmult icultural
Ġdraw er
Ġdraw ers
Ġ18 6
Ġspecial ization
lt on
lt an
Ġcool ed
port s
port rait
Ġsqu irt
Ġpick y
Ġtravel ers
oy le
Ġbuy ers
rent ly
ribut ion
cl ick
com pet
com mun
Ġhosp ice
Ġmodern ity
Ġblue grass
Ġeye ball
Ġpriv atization
ug a
Ġaw ry
Ġpress ed
asc a
Ġtext ed
Ġtext ures
lict ed
Ġthank fully
Ġconvers ational
Ġtele v
ik er
Ġpredict ability
Ġprop ensity
Ġlif ting
iet h
Ġprom oted
Ġprom otes
ellig ence
Ġcurrent s
Ġmar gin
Ġsimilar ity
ĠAn imal
Ġtable ts
Ġmicro f
Ġmicro RNA
Ġbirth s
ĠMy hrvold
ĠFr iend
Ġaccount ants
str ing
Ch ild
uit ous
Ġdiv inity
Ġmob ilize
St at
St ay
Ġblind fold
Ġtransl ators
ĠSe venth
Ġep ile
Ġcontent ious
Ġmount ing
ĠPr ince
ĠPr ison
Ġdoor step
Ġsafe guard
Ġhospital ity
Ġvacc inate
Ġec ologically
Ġbar ren
Ġbar bar
Ġswe ating
ĠAfgh ans
Ġspir its
Ġskin ny
Ġrock ing
Ġsepar ating
Ġsepar ately
Ġpan icked
Ġdepend ency
Ġclin icians
ĠAt kins
Ġrap ing
Ġweight s
Ġafford ed
Ġafford ability
Ġpolicy makers
Ġcapital ists
Ġfamiliar ity
Ġi Tunes
Ġplastic ity
Ġcold er
ĠRe al
Ġmagn esium
Ġtur mo
Ġdemonstr ations
Ġmal leable
Ġkil o
Ġkil ow
Ġkil ogram
Ġ198 1
ĠX ia
ĠX DR
Ġstar light
ĠHar vey
Ġpros thetics
Ġeth anol
Ġdad dy
ulner ability
Ġdiagn oses
Ġ21 00
Ġcelebr ities
son ian
ĠOr nish
ĠOr chestra
Ġnut shell
Ġemail ing
Ġcoffee house
Ġprevent ive
ĠMar ine
Ġir respons
udd led
Ġcentral ized
Ġradio active
rench ed
Ġselect ing
ĠSte in
Ġ197 2
Ġ197 4
Ġ197 7
Ġtrouble maker
ĠAd v
ĠAd ams
ĠAustr ian
Ġcand les
Ġcatch es
ĠMus ic
Ġsymb iotic
Ġresist ed
Ġdocument ation
ĠMc Luhan
Ġtraffic king
ructure d
Ġforeign ers
ĠFor bes
Ġbrand ing
atr ice
Ġseed ed
Ġliber ate
ĠTw in
ĠTr inid
amb led
Ġcooper ating
Ġ196 9
Ġpet rol
Ġmamm alian
li ance
Ġamp utees
Ġbreath ed
mark et
Ġbag g
Ġtrip led
Ġappe aled
Ġhost ing
Ġhost age
Ġhabit able
Ġtransm itting
ĠEvery where
Ġnegative ly
Ġfresh man
Ġshut s
ĠMo i
Ġunex pl
hold ing
Ġtour ing
inc ere
Ġsucceed s
ĠMay or
Ġdisp ens
Ġgar ment
Ġhorr ified
20 11
ĠEn cyclopedia
ĠEn ergy
ĠPaul a
Ġadvert ise
Ġbright er
do ch
Ġband ages
ĠFl ore
Un less
Ġindic ator
Ġacadem ia
Ġinform ative
Ġtail or
ĠGreen ville
Ġquiet er
Ġcow ard
Ġlat ent
Ġmigr ating
Ġpil ed
Ġpil gr
Ġrein ter
ĠEx per
Ġcircumst ance
Ġgrass es
ĠVal dez
Ġnurs ery
ĠRes nick
Ġtransition al
organ ism
ĠRob in
Ġbath ed
Ġlic enses
Ġlic ensed
Ġacqu iring
Ġintellectual s
Ġminim ally
Ġisol ate
Ġheight ened
Ġcoal ition
ĠJan ine
ĠTe chn
ĠPer cy
Ġbill boards
ĠSu u
oly n
ey ed
Ġrepair ability
Ġaston ished
ĠAnt on
Ġrefr ame
Ġrot ation
Ġrot ting
Ġtap eworm
Ġvoc ational
Ġhunt ed
Ġinput s
Ġcomment ing
ĠFe z
ĠFe ynman
Ġ194 7
Ġelev ate
Ġclever ly
Ġsnow fl
ĠUS C
Ġdict ate
Ġdict ated
Ġdedic ate
Ġpitch es
Ġdiss olve
Ġdiss atis
Ġtransplant ation
mit ters
Ġbicy cles
Ġfoss ils
Ġexec ute
Ġuncom mon
Ġdiscipl ined
ĠMark et
Ġcommand ers
Ġcommand ments
dr iving
ĠMal aria
ĠMal colm
ĠHer itage
ĠTor osaurus
Ġblank ets
Ġcapt ures
opath ic
ĠDemoc racy
Ġexplos ives
Ġdiplom at
Ġdiplom atic
Ġwings uit
Ġiniti ate
Ġiniti ated
Ġclus tering
Ġabsor bs
Ġabsor bed
200 8
Ġadvoc ates
ĠGr iff
ĠBur ma
Ġimper ial
Ġpoly mers
Ġgenius es
Ġdecre asing
Ġbiom edical
Ġcomprom ised
Ġfluid ity
Ġcens ored
Ġexternal ities
Ġsuspe nd
Ġspark s
Ġspark ling
ĠPol ish
Ġtent acles
Ġbon uses
Ġboss y
Ġboss es
Ġadjust ed
Ġpra ir
Ġspr ings
ĠCA T
Ġrecomm ended
Pl ay
Ġder iv
Ġlamp s
Ġprec aution
enh ancing
Ġhol idays
Ġexcell ence
Ġpersu ading
Ġtraged ies
Ġhighlight ed
Ġtherm odynamics
Ġsusp ense
Ġsusp icion
Ġschizophren ic
Ġredef ined
zan ne
ĠIm perial
Ġanes thet
Ġchief s
ĠMil k
Ġrecru iting
Ġskull s
ĠGold ilocks
Ġunh appiness
Ġbrut ally
Ġcath eter
Ġstab ilized
Ġobserv able
Ġwid th
Ġsink ing
Ġmur m
Ġupload ing
Ġharness ed
Four th
Spe aking
Spe cifically
vis ual
ĠBol tzmann
Ġaccomplish ments
Ġdiver gence
Ġnom adic
Ġdece ived
Ste ven
Ste fan
ĠBlack berry
ĠQu ixote
Ġaer odyn
Ġintro verted
Ġacid ification
Cl imate
Ġhub s
ĠPan el
oust on
Ġdil ute
Ġmeg afa
Ġspider we
ĠMod el
ĠHill ary
ĠTit anic
Ġrecommend ations
ĠDVD s
Ġcub s
Ġpir ates
Ġlean ing
Ġscaff olds
Ġstrip es
Ġcabin ets
sec urity
Ġalle g
ĠRock ett
Ġsubt ract
ĠVictor ia
Ġadvent urous
Ġstead ily
ĠBre ak
ĠDoes n
ĠJac obs
ĠConf uci
Ġsne akers
Ġbuff alo
Ġsyring es
Ġdemocrat ize
Ġabsorb ing
ĠKy i
Ġinfl amm
Ġvolcan oes
Ġven ues
Ġmillenn ium
ĠHawai ian
Ġturb ulence
Ġmast ered
ĠTah ltan
ĠArgent ine
Ġcorrel ations
Ġinhib ited
Ġrent ed
Ġunle ashed
Ġdepos it
Ġdepos iting
Ġdiagnost ics
Ġdilem mas
Ġporn ography
ĠBern ers
ĠHon olulu
Ġunw anted
ĠEv ans
Ġdescend ed
Ġdescend ants
Ġhurd les
Ġtid y
Ġdy st
orph ic
Ġlingu ists
Ġexquis itely
Ġenlight enment
ĠBud apest
Ġhopeless ness
Ġexha ust
Ġmerg ing
Ġmerg ed
Ġnud ge
Ġprol ifer
Ġpron unci
ĠBabylon ian
Ġthy self
Ġrod ent
Ġrode o
Ġcircul atory
Ġpostc ard
ĠMcC ain
Ġanecd otes
Sure ly
lar ation
Ġreck lessness
Ġdecor ated
Ġinsert ed
Ġaddict ive
Ġretrof itting
ĠAlbert a
Ġnotebook s
Ġmerit ocratic
Ġinterconnect ions
Ġrecur ring
Ġunfold ing
Ġincarcer ated
Ġlyr ical
aby te
ĠPen insula
Ġkidn apped
Ġcorrid or
Ġsymmet rical
bus ter
zer bai
Ġgreet ed
Ġpreced ing
Ġprotocol s
develop ed
Ġ185 8
Ġperipher al
Ġcul pr
Ġmas se
ĠIP CC
Ġvig il
ĠEmb assy
Ġcontrad ictions
Ġresid ual
ĠRod rig
Ġtransact ion
Ġathe ists
Ġow ning
Ġbru ises
Ġpiv otal
Ġhump back
Ġindul ge
Ġbrew ing
ĠEnviron mental
Ġfleet ing
Ġanom al
Ġsha ved
Ġalloc ate
Ġfeas ibility
ĠRh ode
ĠYellow stone
Ġlaure ate
Ġdemol ition
Ġfluores cence
Ġmultipl ied
Ġmultipl ayer
ĠWiki Le
Ġinert ia
Ġgor o
Ġpel lets
ĠBir mingham
ĠGene va
ĠEll en
ĠDec laration
Ġdisad vant
Ġscrib ble
Ġeyebr ow
Ġneutr ality
feed ing
know ledge
ĠAust in
ĠCS F
ĠPoll ock
ĠNav y
Ġextro verts
Ġblueprint s
Ser iously
Trans parency
Ġserendip ity
char ged
ĠPent agon
Ġbund le
Ġappoint ment
Ġnaught y
Ġinnoc ence
di agn
your self
ĠEar le
Ġamph ib
ĠRich ards
Ġhumid ity
Ġcentr if
grow th
Ġcondem ned
Ġbottlene ck
Ġhomosexual ity
Ġmarginal ized
Ġlivelihood s
Ġiv ory
Ġbot an
Ġplut ocracy
ĠBerg en
ĠChop in
ĠIsa ac
Ġmultid isciplinary
Ġcalibr ated
Israel i
Ġtherapeut ic
Ġdrople t
Ġilleg ally
Ġrehears al
Ġcada ver
Ġmuff in
Ġnarc iss
ĠMO OC
Ġunco vered
Ġsyll ab
ĠChall enge
Ġindefin itely
ĠKa aba
Ġsubmers ible
Ġparan oid
Ġpredomin antly
Ġcybor g
ĠRobb ins
Simp ly
iag ra
mom ent
sim pl
Ġhoc key
Ġhover ing
ĠMard uk
ĠMak oko
Ġagon izing
ĠPran av
Ġimpat ient
Ġdisse min
Ġdisplace ment
Ġadren aline
Ġbron ze
Ġcarc asses
Ġrepos itory
Ġrestrain ts
Ġantidepress ants
Ġuter us
Ġunders ide
Ġslee ve
ĠDenisov ans
Ġneurotrans mitters
Ġrejuven ation
bimet al
Ġlith ium
Ġfrater nal
Ġplumb ing
ĠCub an
ĠHoff man
Ġconting ent
ĠRail way
Ġmeteor ite
ĠIndepend ence
Ġillumin ating
Ġsquir rel
Ġbreadwin ners
Ġallev iate
Ġunaccept able
Ġinadvert ently
Parent s
bene fit
corrh iza
Ġlatt ice
imic ry
ĠSach s
Ġplaus ible
Incre asing
Ġwrit ings
Ġparaph rase
Ġcaffe ine
Ġhandsh ake
ĠAllo Sphere
Ġportf olio
Ġskyro cket
Ġslaught ered
Ġumbrell a
ICE F
Ġtad p
Ġsush i
Ġsarg assum
ĠIow a
Ġegal itarian
imbor azo
Ġoutdo ors
ĠSuther land
ĠMalth us
ĠPTS D
ĠDror i
Ġammon ia
Ġpretz els
ĠKros oczka
Ġturmo il
ĠTrinid ad
Ġaerodyn amic
zerbai jan
2 6
3 7
7 7
7 8
A W
A ut
A uth
A uton
B O
B ath
B ern
B acter
B ees
C M
C r
C all
C reat
C ivil
D ue
D NA
D erek
D ata
D ennis
E r
E ll
F in
F ore
F em
F red
F ire
F und
F ood
F antastic
G ot
G ener
H ence
H istory
I M
I ron
I gn
J O
J ane
L ewis
M L
M a
M em
M ars
M ike
M akers
M athem
M astery
N or
N atural
P re
P al
R oger
R elig
S K
S us
S ort
S ub
S ense
S ex
S outh
S eth
S cript
S elf
S uper
S ixty
V ideo
W ent
W estern
b id
b ear
b art
b rain
b ase
b read
b untu
b odied
c ion
c art
c led
c ott
c ulture
e b
e ur
e enth
f at
f ied
f illing
f uel
g ame
h em
i ose
i arch
j in
j oy
k il
k ley
k ina
k ids
l en
m achine
m anship
n as
n ith
o ices
o ided
p ent
p ans
p aper
p ipe
p urpose
r il
r ians
r ique
r ma
r arian
r iend
r hodops
s ong
s pect
s hips
t ale
t orn
t asking
t rained
u ates
u ities
u els
v ar
v ian
w In
x ious
y en
y ans
z weil
Ã ¤
Ġ il
Ġt et
Ġt aps
Ġt eth
Ġt apping
Ġt inkering
Ġt eddy
Ġa ah
Ġa venue
in ck
in av
in vas
Ġw it
Ġw ig
Ġw ield
Ġw ww
Ġthe e
Ġo ops
Ġo asis
Ġs incere
at ered
at izing
er inck
ou lt
ou lli
Ġc ures
Ġc uring
Ġc ott
is k
it ates
Ġb aff
Ġm ig
Ġm ite
Ġm ama
Ġm ason
en etr
en burg
Ġh ib
Ġh olog
Ġh ike
on te
Ġp ing
Ġp ens
Ġp und
Ġp ouch
Ġp arrot
Ġf ist
Ġf idd
Ġf erry
Ġf aded
Ġf avors
Ġf udge
Ġf ucking
an cies
Ġd os
Ġd ut
Ġd ur
Ġd ice
or p
or ously
or fer
al ry
al ysis
Ġl id
Ġl ig
Ġl uc
Ġl itter
Ġl apse
Ġl amin
ar ound
ar io
ar ium
ar oo
Ġy a
Ġy aw
Ġg ulf
Ġg aga
Ġg ambling
ic ke
le v
le um
le gged
ĠI l
ĠI an
ĠI ng
Ġn oses
Ġn ails
Ġn agging
Ġwe ed
Ġwh iz
Ġe ul
Ġe lo
Ġe uro
us k
us sels
Ġbe ers
Ġbe nds
Ġbe ams
ut ion
ut ilized
et e
Ġre ared
Ġre vered
Ġre using
Ġre loc
ent ity
qu et
Ġon ion
Ġon eness
ld ed
ld om
ld iers
im als
ur ia
ur ious
ur gers
Ġst ret
Ġst ump
Ġst ool
Ġst ares
Ġst eroid
Ġst ellar
Ġst aple
ch el
ere ck
ro ids
Ġfor agers
ce nds
am ins
op o
op ards
op olitan
Ġdo om
Ġdo omed
st ro
st ill
st ated
ra x
ra il
ra ble
Ġse ab
Ġse ating
Ġse ism
Ġse ams
Ġcan als
Ġk ines
Ġli ken
ad ij
Ġhe als
Ġhe ats
od iac
ill o
ill ips
Ġne on
Ġat roc
ant i
Ġnot ices
Ġnot with
ul g
ul k
ul as
ul ite
ul ars
ul atory
il ian
il ization
ore cept
ust ible
Ġall igator
Ġj ig
Ġex ert
Ġex terior
Ġch in
Ġch imp
Ġch oking
Ġch oked
Ġch lor
Ġch assis
Ġde w
Ġde emed
Ġr ust
Ġr um
Ġr att
Ġr ides
Ġr apt
Ġr ounds
Ġr ipping
Ġr anges
Ġpe pp
Ġpe aked
ear th
art isan
est yle
ist ence
Ġkn ots
Ġkn uck
Ġv om
Ġv as
Ġv est
Ġv int
Ġv ouch
Ġte ase
ĠA T
ĠA z
ĠA ld
ĠA ction
ĠA dd
ĠA gar
ĠA zerbaijan
Ġout going
Ġout law
Ġout standing
Ġout look
Ġout reach
all s
and el
and inav
Ġsp or
Ġsp ook
Ġsp ears
ie ving
ĠS qu
ĠS ame
ĠS ivers
ĠS pect
ĠS elig
ĠS ARS
ĠS esame
Ġtr i
ort ical
Ġup ro
el ah
Ġpl ow
Ġpl ag
Ġpl ots
iv ist
iv ores
ĠC re
ĠC le
ĠC ro
ĠC all
ĠC age
ĠC ree
ĠC ities
ĠC ond
ĠC els
ĠC ole
ĠC auc
ĠC urt
ĠC lean
Ġyear ly
ĠM es
ĠM ind
ĠM em
ĠM ob
ĠM aster
ĠM istry
ĠM aker
ĠM illy
ĠM izz
ĠM aine
ĠM itra
ĠM artha
og ues
ast s
Ġsu e
Ġcomp ression
Ġcomp artment
ard in
Ġen ch
ab out
ab etic
Ġtime ly
ĠB ess
ĠB ass
ĠB ody
ĠB ull
ĠB und
ĠB io
ĠB orn
ĠB ee
ĠB irth
ĠB ox
ĠB ye
ĠB ubble
pp ortunity
Ġper cussion
app er
app ers
Ġqu as
Ġqu ery
Ġev id
Ġev oke
ud er
ud ed
Ġwill power
ild es
ĠH art
ĠH em
ĠH ood
ĠH ands
ĠH aid
ĠH utch
ĠH orse
ĠH appiness
ĠH ubble
ĠH atz
ĠH ouston
Ġfe ud
Ġag ile
Ġag rarian
iff e
ĠT ul
ĠT ab
ĠT aj
ĠG N
ĠG i
ĠG s
ĠG er
Ġun ic
Ġun ites
Ġun rel
Ġun realistic
Ġthan king
ĠE b
ĠE is
ĠE ach
ĠE co
ĠE nter
ĠE asy
ĠE leanor
Ġtw ink
Ġtw itch
Ġtw elve
Ġcl ones
Ġcl inging
ĠP ow
ĠP ink
ĠP ick
ĠP imp
ĠP SA
ĠP RI
ĠP ione
ĠP MT
ĠD all
ĠD ise
ĠD oc
ĠD ream
ĠD isco
ĠD ennett
ĠD oyle
so le
Ġimp oss
Ġimp erson
ia h
Ġar ctic
Ġpart isan
ry ing
ĠN ope
ĠN ash
Ġover ly
Ġover load
Ġdis qu
ount s
Ġback ing
ac qu
ac ency
Ġpo ised
Ġpo achers
lo cks
lo cation
Ġro ost
Ġro ast
ĠL ars
ĠL inda
ĠL isa
ĠL uton
ĠL ocke
ĠL oren
ĠL GB
Ġcont ested
Ġcont ours
ult ures
Ġac ry
Ġunder b
Ġunder utilized
ru bs
Ġph oned
Ġam ber
ĠR en
ĠR as
ĠR id
ĠR out
ĠR est
ĠR el
ĠR ag
ĠR ace
ĠR ory
ĠR ee
ĠR ives
ĠR ica
ĠR aise
ĠR agu
ĠR umi
ĠR OV
In st
In sp
Ġeven ly
co c
Ġad h
Ġbo iled
ĠF as
ĠF ek
ĠF ern
ĠF light
ĠF oot
ĠF oster
ĠF isher
ĠF emin
ĠF amily
Ġdifferent iated
ĠW r
ĠW ave
ĠW oman
ĠW HO
ire n
Ġhum bled
ick ly
ick ers
Ġem it
Ġgr ump
Ġgr ipped
Ġgr izz
int ed
int ention
int osh
cess ion
ak enly
Ġcomm uting
ish ment
ĠO kin
ĠJ a
ĠJ ob
ĠJ arrett
ress es
ject ion
ĠU C
ĠU K
ĠU nt
ĠU ntil
Ġsc atter
Ġpers ists
per a
urn ed
Ġhuman ize
Ġchild birth
ĠCh ange
ĠCh az
ĠCh oice
ian e
av i
av an
Ġcr an
Ġcr um
Ġcr own
Ġcr ane
Ġbl inking
Ġrem inis
ious ness
Ġcol oss
con venient
ĠK P
ĠK at
ĠK ings
ĠK oh
ĠK ev
ĠK ool
ĠK erry
ĠK obe
ĠK IPP
Ġperson a
Ġafter life
Ġafter gl
ail ing
ail ed
Ġfl apping
Ġtrans itions
Ġrel ating
Ġrel iably
Ġdr ip
Ġdr astically
Ġcar ve
Ġcar go
Ġpower ing
Ġinter lock
Ġpoint ill
Ġimag inable
ert o
Ġlearn ers
ĠThe ir
ĠY R
ĠSt ore
ĠSt ep
ĠIn convenient
uc et
Ġcomple ting
Ġquestion na
Ġhigh s
Ġmod ular
Ġsl id
Ġsort ed
az ed
iss ue
Ġ19 10
Ġmon o
Ġmon og
Ġmon etary
ph onies
Ġpat ented
Ġla undering
Ġwater col
Ġwater proof
Ġread ings
Ġop ium
Ġlive ly
Ġed ible
Ġrec l
Ġrec al
Ġrec uper
ale en
Ġgener ators
Ġteach ings
Ġrep rogram
Ġfar thest
Ġter restrial
Ġbook sh
Ġdem e
Ġel ation
Ġel astic
Ġel bow
Ġmind fulness
Ġreg ulated
vers ive
Ġbi oc
Ġbi ologic
Ġeng ages
ont ology
ract ical
Ġfun erals
gr as
gr id
Ġsub mer
Ġopen ings
Ġinf erence
aut s
aut y
Ġcor onary
Ġcap illary
Ġenerg ized
Ġprob able
Ġsoci o
Ġhead rest
How ard
Ġcle ans
ĠV ien
ĠV eter
ĠV ibr
ĠV iagra
arr ing
Ġpres cribed
Ġsound ing
Ġphot orecept
Ġty ranny
Ġcur se
Ġcur able
Ġwo ol
Ġdet ached
bo le
Ġside ways
der ived
Ġlist ing
Ġlater al
ograph ers
Ġrest less
ĠHe idi
Ġgirl friends
arent ly
Ġsit com
Ġheart break
Ġheart breaking
Ġlevel ed
Ġboth ers
Ġfore seeable
Ġdev al
Ġdev ils
up rof
Ġpos itives
Ġunt apped
Ġunt ouched
Ġcond ensed
Ġsw ell
Ġsw ift
Ġche etah
Ġindividual ity
Ġgl ows
Ġcost umes
Ġtreat s
Ġtreat able
Ġaff il
Ġaff air
Ġaff lu
Ġwa its
Ġadv ised
to le
Ġconst itute
Ġappro xim
Ġdi abetic
Ġhouse work
Ġprov isions
ron ics
Ġav oided
Ġdep ress
Ġlisten ers
Ġclear ing
Ġobject ion
ĠNo v
Ġaud ible
Ġaud acity
Ġneur ologist
ĠAr n
Ġland mark
omet eor
Ġnorm ality
Ġcir cus
ĠBr in
ĠBr un
ĠBr illiant
ĠBr ussels
ump s
Ġsens ibility
Ġshort com
Ġz inc
Ġmot ions
Ġgreen er
Ġfall ibility
Ġfall acy
Ġgrand daughter
Ġvar iant
jor ity
Ġes p
Ġant ith
Ġant agon
Ġmath s
Ġpersonal ization
Ġeyes ight
ĠGo als
ĠSh eph
ĠSh elf
ĠAl lende
Ġtrad em
Ġsuper b
Ġsuper vision
vent ing
Ġsun k
Ġpsych ic
Ġpsych ologically
Ġserv ant
Ġchem ically
Ġtre as
Ġtre nding
orth and
Ġviol inist
Ġsent encing
cr ast
cr ates
Ġmult if
unt a
Ġperfect ed
Ġcal am
Ġsqu at
Ġenc l
Ġenc omp
At t
Ġmorning s
Ġge ologists
On line
Ġdead line
Ġinsp ires
Ġconv ictions
Ġrisk ed
sh it
sh oo
Ġsum mers
Ġsleep s
Ġcamp ing
cl iffe
Ġcaus al
Ġflo ats
Ġopt ed
Ġorig inated
apt ist
apt ree
ĠTh rough
Ġmodern ism
Ġcirc ling
loy d
ĠAs pen
An n
ann on
ug ata
ev alu
Ġhar med
Ġhar ming
Ġtext iles
Ġcrit ique
Ġthank ed
of i
Ġpur ity
Ġpath ogenic
Ġpoll ute
ister ing
Ġblood stream
Ġblood shed
ik rma
Ġprop eller
Ġbra king
Ġtechnolog ist
Ġtechnolog ically
Ġprom isc
por a
Ġpeace fully
Ġimm oral
Ġfa ucet
Ġer asing
Ġsounds cape
erv ative
Ġarr ays
Ġast roph
go vernment
ĠZ en
ĠZ ambia
ĠZ urich
Ġmar ital
Ġplant ation
Ġbed rock
Ġbur row
Ġbur gl
ĠLe ft
Ġtrack er
Ġball room
ĠPh illips
Ġintellig ently
oid al
iar ies
arily n
Ġaccount ant
Do ctors
Ch inese
Ġactiv ating
ĠBe ck
Ġsearch able
Ġdiv isions
St r
St age
Ġcris p
Ġwaste ful
Ġcart el
Ġunf olds
Ġminds ets
Ġprint s
Ġscreen ed
Ġfurther more
Ġmis f
Ġmis diagn
Ġpu ff
Ġprogress ing
Ġprogress ed
ĠYes terday
ala am
Ġep oxy
ĠPr int
ĠPr uss
Ġdoor way
Ġadm itting
Al an
Ġsand stone
Ġec ologist
ĠSw aptree
Ġstick er
Ġdom ains
Ġdiscuss es
Ġ16 00
Im p
Ġsepar ates
Ġdepend encies
Ġmist akenly
Ġspecific ity
Ġsyn onymous
aid an
ĠAt ala
Ġaccept s
Ġwild est
Ġthousand th
Ġjud icial
Ġcook book
Ġdeterm in
Ġcry pt
Ġcold est
Ġthr ill
Ġthr ived
la ug
unk er
Ġquot ing
Ġquot ation
ĠRe becca
Ġboard room
Ġscr aping
Ġscr ambled
Ġport al
Ġcat ap
Ġmal ign
Ġinnov ating
Ġsym phonies
Ġbread th
Ġcomfort ing
Ġcomfort ably
ugh ar
Ġnation ally
Ġurban ism
Ġchair man
ĠMan ju
Ġsal ute
Ġtrade offs
Any thing
Ġsequ ester
ĠOr ange
ĠOr kut
Ġweb page
Ġsummer time
Ġspect ros
Ġsky line
the y
Ġir red
Ġmultip lication
ĠBl og
ĠBl ank
Ġdestro ys
oe ing
Ġdog mas
ĠSte fan
ĠDon na
Ġmotiv ators
ĠIraq is
off ord
Ġ24 0
ste au
Ġteen y
ĠAustr alians
ĠCl arke
Ġgent ler
Ġord inarily
Ġadapt able
Ġadapt ations
Ġtrem or
adem a
cell ed
Ġmut ates
Ġlaugh s
ĠMc Ke
ĠMc Mur
ĠPar adise
ĠPar ikrma
Ġvari ants
na issance
Ġblog gers
Ġcommer cially
Ġut ero
Ġmembers hip
Ġlack ed
Ġphotos yn
Ġnovel ist
ĠSc ots
ĠSc andinav
Ġavoid ance
Ġban al
Ġmission ary
Ġamb ient
Ġden omin
Ġmanufact ured
Ġtherap ists
ĠTr ip
Ġcru cially
ĠPl at
Ġhom age
Ġhyp not
Ġble nder
Ġble nding
Ġhyd r
Ġmamm ograms
Ġshoot ings
Ġtor t
Ġtor ment
Ġtor que
ĠSm art
Ġhost ed
ĠMin ority
Ġquant ity
ĠPal mer
ĠRo ad
Ġcontribut es
Ġdomin ating
Ġreplace ments
Ġalt itudes
Ġpaint brush
val ds
Ġinstall ing
Ġtun ing
Ġfresh men
Ġshut ter
Ġbomb ings
IT NE
Ġtour ism
Ġempt ied
Ġdisc ard
me g
me aning
ĠEd wards
ĠEd ison
Ġentertain ed
Ġmetaphor ically
Ġharm less
Ġnutr itious
Ġcounter act
20 10
Ġtit ans
ĠEn ron
ĠEn gel
ĠEn rique
ls en
ĠGra il
do ing
Ġgene al
ris is
Ġheads et
Ġinterp enetr
Ġacceler ator
met ry
Ġvibr ational
Ġconstruct ing
ĠPhil osoph
Ġsweet ness
ĠSch ul
Ġnegot iated
Ġsolid arity
Ġreview ing
Ġdisplay ing
Ar istotle
Ġsan ity
Ġcere mon
Ġju icy
Ġcolon ized
Ġconduct s
Ġlibr arians
Ġqual ify
craft ed
organ ization
organ izing
ĠBar cel
Ġimprov ised
Ġideal ism
Ġideal istic
Ġsam eness
Ġclaim ing
ĠTe aching
ĠPer cent
ĠPer fect
Ġens uring
ĠBer ry
ĠNA TO
cont rol
ĠIslam ism
ĠGen ome
ĠGen omics
Ġrepair ing
ĠFrank ie
ĠFrank enstein
och s
Ġancest ry
Ġintense ly
Ġconsist ed
Ġestim ation
Ġridic uled
Ġearthqu akes
Ġchannel rhodops
Ġpump ing
Ġpray ers
Ġregard ing
Ġobser vers
Ġthick er
Ex pl
Ġbee h
Ġhoriz ons
ĠSmith sonian
Ġloud ly
Ġorch id
ĠMon ster
Ġconstrain t
Ġprem i
ĠUS B
Ġmad ly
Ġwash es
Ġdiss olved
Ġtransplant ing
ĠAh mad
Ġpill ar
wr ite
Ġdigit ization
ĠHer oes
ĠDep ression
ĠAlex is
ĠMa jor
Ġtwe ak
Ġdiplom a
Ġwings pan
Ġyield ed
ĠComm ons
Ġpolar ization
Ġinfin ity
Ġcosm opolitan
Com b
Ġproport ions
Ġparas itic
Ġfossil ized
pro cess
Ġmarch es
rob ot
ĠBur kina
ĠPort land
ĠBudd has
Ġcarr iage
Ġhyper bole
Ġorchest ras
Ġsed iment
Ġcens or
ĠMad ison
ĠMad rid
Ġfool ing
Ġcrack ing
Ġpleas urable
Ġrecip ients
mm m
conf ident
Ġsynthes ized
Ġspr inter
Ġstereoty pical
Will iam
Ġexplo iting
Sim on
Ġgam er
gend orfer
ĠBal inese
Ġdism ay
Ġpersu asion
Ġsusp ension
Ġwarr iors
Ġmelt down
ĠDis order
Ġschem a
Ġschem es
ĠChristian ity
Ġfertil ize
Ġanes thes
ĠSir i
ĠMil an
ĠPart ners
Ġcaf es
Ġimmun ized
see king
Ġrail ways
Ġirre ve
ĠGrand ma
Ġbat hing
Ġmall s
Ġdies el
iment ary
Ġsmooth ly
Ġx en
ĠMac intosh
Ġinsist ing
Four teen
mill imeter
Ġrethink ing
ĠJo an
Ġmarath ons
Ġwhis pers
Ġupset ting
Ġcompos ers
ĠAbra h
Ste wart
ĠInt elligence
Ġnerd s
Ġchron ically
Ġouts ourcing
ĠQu est
Ġbathroom s
Ġbatt al
Ġmurd ers
Ġchop ped
Ġdelic acy
Ġconce ive
Ġcareg iving
Ġgeomet ric
Ġtact ical
Ġcree p
Ġbored om
Ġgate way
ĠSen ior
ĠSen ator
ĠDa ily
neg ative
Ġcaps ule
dis cipl
Ġbind ing
cher i
eren cing
ĠAny way
Ġspons ors
Ġreconstruct ing
ĠTit an
ĠNet work
Ġanat om
Ġneoc ortical
Ġorient ed
ĠJud ge
Ne il
nes ian
uke mia
Ġaugment ation
Ġsho vel
Ġcoinc identally
Ġsubt ly
Ġcybercr ime
De an
De velop
Ġreass ure
ĠSand berg
Ġgrace fully
Ġbush es
Ġenjo ys
Ġfisher man
Ġcham bers
Ġbuff er
Ġreclaim ed
ĠNewton ian
unting ton
Ġstatistic ian
Ġimmers ive
Ġstraw s
Ġstraw berry
Ġcruel ty
ĠLaden ism
ĠCur rent
Ġscript ures
orr idge
Ġindu ce
Ġrecre ation
Ġrecre ational
Ġsquee zing
ĠDevelop ing
Ġtweet ing
Ġincorpor ating
Human ity
Ġshred der
Ġorang es
Ġloose ly
ĠRand i
Ġmild ly
Ġhamb urgers
Ġshore line
Ġretail ers
Ġmicr ometeor
Design er
ĠBern ard
plete ly
Ġampl ify
Ġresur rection
ĠFed eration
Ġcommission er
Ġblur ry
Ġaltru ist
Con versely
Ġfract al
Ġdy stop
Ġrank ed
Ġproceed s
ĠHol iness
Ġmold ing
ĠJane iro
Ġnurture d
Ġaspir ational
elect rified
Ġfis cheri
Ġnud ges
ĠCons ervation
ĠMany a
Ġbuzz ing
ĠRon ald
ĠRad cliffe
ĠUN ES
gener ating
Ġsufficient ly
Ġcontempl ate
Ġtut oring
Ġlos ers
ĠIg bo
Ġperse cut
ĠFore ign
Ġbreed ers
Ġfluctu ation
Ġsacrific ed
Ġperf um
ĠHot mail
Ġmisunder stand
Ġmisunder standing
Ġcockro aches
Ġlobby ists
Je an
Ġinsec urity
Ġnail ed
ĠMot ors
ĠHead s
ĠHead waters
ĠGall up
ĠKam en
Ġasth matic
Ġcomplain ts
Tr uth
sight ed
Ġbip artisan
Ġreper cussions
Ġcoh ort
Ġoverlo ok
ĠKu wait
Ġdistinguish es
Ġtemp o
Ġtemp les
Ġsteep ed
Ġconvenient ly
Ġhollow ed
cor rect
pat ient
Ġtoss ed
Ġcass ava
Ġgreet ing
ĠHas bro
ĠFood s
Ġprecip ice
Ġfacil itate
core x
mod ern
mod els
ĠServ ices
ĠCla es
ĠBet ter
ĠES P
ĠNathan iel
ĠLear n
ĠLear ning
Ġcontrad iction
Ġsanct ity
atal ie
Ġbunk er
Ġlemon ade
Ġcomed ians
Ġmang rove
Ġmang roves
ĠEc u
Ġradi ologists
Ġmortg ages
ĠEnviron ment
Sc ott
cap acity
pot ting
Ġgru eling
ĠId ol
Ġsole ly
Ġdeple ted
Ġdecept ively
Ġprecon ceptions
ĠOper ations
Ġlaure ates
Ġconstitu ency
ĠGoog lers
Ġadmitted ly
Ġadvertis ement
blo od
Ġaqu atic
ĠSum mer
ĠBM W
ĠDiet rich
Ġamput ation
ĠRead er
Ġsmugg led
Ġautobi ography
Ġexclud e
ĠMeyer owitz
Ġmicroblog ging
Quest ion
Ġprevail ing
Ġbail out
Ġren amed
Ġarrog ance
ĠFer ris
Ġincon ven
Ġrelie ved
Ġextro vert
Ġbiof abric
Ġbiof uels
Ġsubmar ine
Ġoppon ent
Ġpetro chemical
Ġpetro leum
Ġreinfor ces
ĠAhmed abad
Ġoblig ed
Ġhorn s
Ġgad get
Ġgad gets
ĠKar achi
Ġcheek s
ĠBrad ley
ĠToraj a
Ġlexic ographer
Ġimprison ed
Ġimprison ment
mat ism
mel on
uj ah
Ġcush ions
Ġcasc ade
Ġgy nec
Ġkin etic
Ġhect ares
ĠAR ES
Ġquir ky
Ġfeat uring
ĠPy thon
ĠRain forest
ĠFa iza
Ġsuperher o
Ġsuperher oes
ĠProt estant
Ġpediatric ian
Ġbiochem istry
trans cend
Ġtire lessly
Ġnich e
roÃ§ as
ĠBat man
ĠPier re
ĠDM CA
Ġtransf ers
Ġassert ive
Ġvoic em
Ġleapf ro
Ġfierce ly
Ġmunicip al
Ġbyproduct s
Rep orter
Read ing
Sil ence
Sec ret
Ġairst rip
Ġcer amics
urk heim
Ġwithd raw
Ġascend ing
Ġrhy me
Ġspong y
ĠCou steau
Ġenfor ced
ĠBuff ett
Ġrooft ops
Ġprehist oric
ĠJoh annes
ĠJava Script
Ġincomp atible
Ġcray ons
Ġsucc umb
Ġarchety pe
Ġbarb aria
Ġcrocod ile
Ġcongrat ulations
Ev olution
Ġpave ment
Ġfount ains
Ġdub ious
Ġprolong ed
Ġpend ulum
Ġvic inity
Ġmanus cript
Ġcoer cion
Ġincap able
Ġbrig ade
Ġpatri arch
ĠVel cro
Ġecst asy
Ġgiraff e
havior al
Ġcaterpill ar
Ġaur ochs
Ġtheor ist
report ed
Ġgast ric
Ġeu ph
Ġul cer
Ġsemic ond
Ġkr ill
Ġridd led
Ġproverb ial
Ġlobb ied
Ġpled ged
Ġcontr apt
ĠFest ival
Ġgeop olitical
Ġbarbec ue
Ġfantas ies
Ġrebell ion
ĠMichoac Ã¡n
ĠHispan ic
Ast ron
Josh ua
Mo ving
Sher yl
Ġcerv ical
Ġhic c
Ġstub born
Ġseiz ures
Ġnec roph
Ġlollip op
ĠCost a
Ġagnost ic
ĠTNC s
ĠDiction ary
ĠNam ib
Ġcocon ut
Ġprere quis
ĠChand ler
ĠKur zweil
ĠYah oo
ĠUnivers al
Ġdefic its
ĠIndust ry
Ġrevis it
ĠMeg gendorfer
ĠExcell ent
ĠCorpor ation
Ġpsychoan aly
urprising ly
ĠSisyph us
Coll abor
Pes a
Ġib uprof
Ġot aku
Ġmars up
Ġdwar f
Ġinund ated
Ġgour met
Ġephem eral
Ġfranch ise
Ġconsecut ive
Ġunansw ered
Ġimpover ished
ĠNR K
Ġinvolunt ary
Ġbienn ial
Ġtelev isions
Ġmicrof luid
Ġepile psy
Ġpilgr image
Ġmegafa una
ĠWikiLe aks
Ġnarciss istic
ĠMOOC s
Increasing ly
invas ively
Ġeul ogy
Ġelo qu
Ġstret ches
adij a
Ġatroc ities
Ġnotwith standing
ĠSelig man
ĠCree k
ĠCels ius
ĠMizz one
ĠHaid t
Ġunrel iable
ĠPMT CT
ĠDise ase
ĠLGB T
ĠFek i
Ġgrump y
intention ed
Ġaftergl ow
Ġquestionna ire
ĠVien na
ĠVeter ans
ĠVibr io
Ġapproxim ation
Ġshortcom ings
ĠSheph elah
Ġastroph ys
ĠMcMur do
ITNE SS
ĠBarcel ona
ĠUNES CO
Ġibuprof en
2 3
4 2
4 9
5 3
9 7
9 8
A g
A p
A ct
A llow
A ustr
B ot
B ro
B est
B rain
B uilding
C y
C ell
C oming
D D
D U
D ad
D own
D ec
D oh
D oug
E E
E qu
E st
E th
E mb
F N
F O
F ar
F orm
F air
G F
G h
G iving
G reg
H D
H ard
H igh
H ub
H any
H uh
H ollywood
I I
I raq
J B
J N
J S
J Y
J ill
J ake
K hal
L ive
L yn
L arge
M c
M od
M ind
M el
M ah
M aking
M others
M oral
N G
N ic
N ugg
N early
O R
O W
O ld
O il
O xy
O ops
O lder
P ain
P ick
P olitical
P icture
P olitics
R P
R a
R ule
R oy
R aise
S al
S om
S ay
S ound
S oph
S ylvia
T radition
T raditional
V M
V ol
W ant
W oman
W ords
Z e
b os
b ure
b ies
b ard
b ab
b irds
b ogg
c if
c ard
c ode
d ec
d epr
e ating
f ar
f el
f ull
f ood
f uge
f ounder
f ocused
g ow
g un
g ia
g rain
g ians
g lom
g eren
h o
h im
h ots
h aul
i ken
i ks
i Vo
j ord
j ah
k w
k it
k im
k owitz
l ore
l ate
l ia
l ier
l asting
m ight
m ount
m achines
n ine
n ial
n umb
n esty
o ose
o nder
p a
p our
p ens
p ered
p sych
p ressed
p oke
p olar
r ia
r ue
r als
r ings
r idge
r idden
r ament
r ika
s s
s ler
s ustain
s urfing
t age
t ension
t ested
t uned
u ating
v ag
v ases
w ing
w al
w ig
w ife
w elling
w itz
y ce
y ons
y ards
y top
z ac
Ã ¸
Ġ #
Ġ vel
Ġ erg
Ġt ile
Ġt ier
Ġt ying
Ġt ux
Ġt andem
Ġt ainted
Ġa while
in ology
in formation
Ġw ines
Ġw rench
Ġw oken
re ne
re ctions
Ġo re
Ġo sc
Ġo culus
Ġs ult
Ġs ourced
Ġs ourcing
Ġs izable
nd e
nd t
nd as
er ick
er ala
er idge
Ġc res
Ġc aut
is se
is cus
it ol
it ters
os ke
os cop
Ġb if
Ġb out
Ġb ast
Ġb udd
Ġb aked
Ġb achel
Ġb ouncing
Ġb ounces
Ġm ul
Ġm itt
Ġm ish
Ġm ute
Ġm ucus
en as
en abled
en ergy
en cia
Ġh ose
Ġh ates
Ġh arr
Ġh alt
Ġh iking
Ġh uddled
on ial
Ġto re
Ġto en
Ġto pp
Ġp ard
Ġp ious
Ġp anda
Ġp add
Ġp aired
Ġp oker
Ġp orridge
Ġf ren
Ġf ates
Ġf ash
Ġf avored
Ġf iltered
es on
an ning
Ġd ar
Ġd ived
Ġd izz
Ġd urable
Ġd arn
Ġd usk
or o
or ie
or io
al op
al ie
al ach
al ph
al ah
al ism
Ġin ac
Ġin cess
Ġin box
ed ron
Ġl am
Ġl um
Ġl av
Ġl uminous
ar med
ar ayan
ot ally
ot ers
ot ine
Ġy ang
Ġy ell
Ġy elled
om ore
om pe
om bo
om ously
Ġg n
Ġg em
Ġg az
Ġg athers
Ġg ait
as per
as than
as pora
as gow
ic ity
ic ide
le ading
ĠI gn
ĠI GF
ve tson
Ġn ause
Ġn ifty
Ġn inja
Ġwe eds
Ġwe eping
Ġwh irlwind
Ġe el
Ġe ud
Ġe cl
us i
us on
us ch
Ġbe ads
Ġbe aver
ut o
ut ed
Ġit ch
et ric
et ime
et ooth
Ġre el
Ġre app
Ġre de
Ġre wind
Ġre forestation
Ġre develop
Ġre nov
ent in
ct ed
ct ure
ver ning
Ġha ul
Ġha voc
im ating
im ming
ur an
ur ations
ur ably
ur istic
ig o
ig mas
ig uel
Ġst ing
Ġst ove
Ġst utter
ch t
ch itect
ro e
ro ir
Ġfor ging
if l
if s
se xual
Ġwas ps
ir us
op ia
op lin
op pable
op rene
Ġan k
Ġan ew
st ic
st ation
st ates
st ones
st ery
st arted
ol an
ol ese
ol vable
ol ocation
th ere
ra f
ra ib
ra ising
ra zy
Ġab uses
Ġgo verning
Ġse min
Ġse ldom
Ġcan t
Ġcan al
Ġcan oes
Ġcan vases
Ġk ios
Ġk ooks
Ġli ar
Ġli ability
Ġli vable
Ġsh ades
Ġsh uff
Ġsh orthand
ad ians
ad apt
So bule
od ic
Ġme adows
ill ery
ge ant
ge nds
ge ls
Ġnot oriously
ul ifl
il ight
il ating
il ogy
il ateral
Ġso ak
Ġso ckets
ore actor
Ġfr ost
Ġfr antic
Ġfr inges
Ġall y
Ġj ammed
Ġex empt
Ġex tends
Ġex oske
Ġch uck
Ġch ased
Ġch illing
Ġch orus
Ġch unks
Ġde form
Ġde cks
Ġde cip
Ġde human
Ġde generation
Ġr if
Ġr ive
Ġr ans
Ġr ick
ight ed
Ġpro c
Ġpro crast
Ġpe bble
Ġpe arl
Ġpe asant
Ġor nith
Ġthere in
Ġthere after
Ġcon e
Ġcon sole
ate board
Ġlike wise
est a
ist a
ist or
ist ed
Ġlo cks
Ġlo fty
Ġma x
Ġma cr
Ġma iling
Ġv ain
Ġv ib
Ġv ial
Ġv ents
Ġv ene
Ġv ora
Ġte ct
Ġte eming
ĠA k
ĠA in
ĠA bb
ĠA che
ĠA icha
ĠA usch
Ġout f
Ġal ley
Ġal tering
Ġal mond
all ax
all otta
Ġint ake
un us
un king
Ġjust ified
and on
and ro
Ġsp her
Ġsp acing
ie m
ĠS A
ĠS y
ĠS ally
ĠS ad
ĠS ong
ĠS lo
ĠS tern
ĠS av
ĠS end
ĠS eth
ĠS val
ĠS kin
ĠS OL
ĠS ustainable
ĠS afe
ĠS yd
ĠS AT
ĠS Ã£o
ĠS ardin
ĠS alaam
ĠS ughar
Ġtr ay
ort ing
ort ure
ort ium
ci ble
Ġup ris
Ġup stairs
el ian
el br
Ġby catch
ain ts
Ġpl ight
Ġpl ast
[...]
