#version: 0.2 - Trained by `huggingface/tokenizers`
Ġ t
Ġt h
Ġ a
i n
Ġ ,
Ġ w
Ġth e
r e
Ġ .
Ġ o
Ġ s
a t
n d
e r
o u
Ġ c
i s
i t
Ġ &
o s
Ġ b
in g
Ġ m
e n
a p
Ġ h
o n
Ġt o
Ġ p
Ġ f
e s
a n
ap os
Ġ d
o r
Ġo f
a l
Ġ in
Ġa nd
e d
Ġ l
a r
o t
Ġ y
Ġth at
o m
Ġ g
a s
i c
l e
Ġ I
v e
Ġy ou
l l
Ġ n
Ġw e
Ġw h
o w
Ġ e
u s
Ġ is
l y
Ġb e
u t
i on
Ġ it
e t
Ġ re
en t
q u
c t
Ġo n
l d
v er
a y
i d
T h
A nd
Ġh a
i m
Ġth is
u r
i g
Ġs t
c h
e re
qu ot
r o
k e
Ġf or
c e
i f
s e
Ġw as
a m
i r
o p
it h
Ġa n
Ġd o
s t
Ġa re
o l
al ly
Ġw ith
t h
Ġha ve
r a
Ġa b
Ġg o
Ġ u
Ġthe y
Ġs e
Ġc an
Ġ k
at ion
ou t
Ġa s
- -
h t
Ġ --
Ġl i
Ġs h
Ġw or
a d
S o
Ġwh at
Ġ ?
Ġh e
o d
Ġc om
ou ld
Ġm e
i ll
ver y
Ġn e
Ġab out
Ġa t
g e
t er
an t
Ġn ot
u l
i l
Ġs o
o re
Th e
Ġf r
Ġa ll
us t
er s
Ġ j
Ġe x
Ġc h
Ġd e
Ġ r
Ġ us
Ġm y
ig ht
Ġs om
Ġp ro
Ġp e
e ar
ar t
Ġo r
op le
es s
W e
Ġthe re
Ġc on
c k
Ġpe ople
at e
Ġli ke
u m
u re
i es
o k
i ve
Ġon e
Ġfr om
is t
es t
it y
n t
Ġl o
b le
Ġm a
Ġk n
Ġo ur
us e
Ġbe c
Ġ v
Ġb ut
in d
Ġt e
Ġo ut
e ct
r ou
Ġ A
in k
Ġa l
al l
Ġ :
u n
Ġin t
a use
Ġj ust
I t
id e
a nd
Ġkn ow
Ġs p
Ġth ing
Ġthe m
i e
Ġt r
Ġ S
B ut
h er
Ġthe se
Ġse e
Ġ if
or t
c i
Ġu p
Ġwh o
Ġth ink
Ġ very
Ġg et
e l
ic h
Ġb y
on e
Ġwh en
a in
Ġp l
Ġa ct
Ġm ore
Ġyou r
i v
Ġ C
Ġsom e
W h
Ġgo ing
Ġ 1
Ġ im
Ġy ear
Ġbec ause
e m
Ġha d
ou r
Ġs a
Ġw ould
Ġwe re
Ġ M
o g
os t
am e
Ġh ow
in e
Ġthe ir
Ġt im
os e
as t
m ent
Ġwh ich
Ġwor k
Ġs u
Ġw ant
Ġre ally
Ġlo ok
u ally
i z
a re
Ġcom p
0 0
g h
a ct
ar d
re at
ou s
Ġw ay
a ck
Ġ en
Ġt a
Ġwor ld
h ing
a b
Ġl e
Y ou
an s
a g
Ġex p
th er
Ġh ere
Ġtim e
on g
Ġthe n
Ġ B
p p
Ġh as
Th is
Ġe very
ion s
Ġs ay
Ġp er
ap p
al k
Ġact ually
Ġd on
a ge
Ġm an
Ġ qu
Ġint o
Ġe v
Ġc ould
u d
a ce
en ce
re s
Ġw ill
i ld
Ġf e
Ġ H
Ġyear s
Ġd id
Ġn ow
N ow
Ġo ther
Ġthing s
a ch
it t
Ġa g
Ġwh ere
if f
nd er
Ġ T
Ġ G
Ġsom et
The y
Ġn o
ic al
f f
ic e
Ġma ke
Ġd iff
Ġh app
Ġne ed
Ġu n
Ġan y
Ġth an
Ġt w
Ġ E
Ġc l
Ġp r
Ġbe en
Ġ P
p t
Ġ D
s o
Ġim p
Ġsa id
ir st
om e
Ġst art
i a
Ġ 2
Ġa r
Ġp art
re d
if e
or y
r y
re e
Ġ N
i p
Ġo ver
Ġsomet hing
Ġc o
Ġtw o
Ġb u
it e
or m
Ġr ight
u ch
ow n
Ġd is
ou nt
an g
as s
rou nd
Ġb ack
Ġm uch
ig n
e p
Ġdiff ere
i b
ou nd
Ġf irst
Ġsh e
Ġne w
se l
Ġc all
en s
Ġt alk
a c
Ġth ose
u e
Ġp o
Ġal so
ra in
ol og
Ġm o
Ġsp e
Ġg ot
at er
v es
c ent
l o
Ġ ro
Ġ L
g ht
Ġl ife
p le
k ing
ul t
Ġcon t
itt le
Ġl ot
Ġk ind
Ġl ittle
Ġa c
ve l
w ay
Ġbe t
Ġu nder
od y
Ġh is
Th at
b er
os s
Ġm ost
Ġp h
r u
v ing
Ġa m
Ġf o
I n
e ll
Ġre s
Ġd ay
Ġ R
at ed
Ġon ly
Ġh er
a ble
Ġev en
ation s
Wh at
i al
Ġd es
c o
Ġa d
ic t
Ġb o
Ġman y
Ġta ke
Ġdiffere nt
Ġ F
rou gh
Ġ ;
Ġgo od
Ġ W
Ġs y
an k
i re
d u
ic k
Ġsh ow
Ġre al
Ġh um
Ġe m
Ġ ide
an ce
as e
Ġa round
Ġth rough
ot her
c ess
in t
Ġg r
Ġdo es
Ġcom m
a k
n ing
Th ere
Ġp re
is h
Ġ O
ent s
Ġte ll
f orm
Ġ J
Ġof f
Ġd own
m s
an ge
Ġbe ing
at h
Ġp ut
res s
Ġw r
Ġus e
Ġpro ble
ad e
i ble
Ġth ou
f ul
w n
Ġhapp en
Ġs m
or s
et her
x t
ar y
Ġin c
l es
ar k
Ġf act
j ect
Ġs ame
d ay
u al
Ġ U
Ġc ount
We ll
le ct
or d
i ver
Ġs c
n e
Ġb r
ow er
Ġcom e
Ġtr y
c es
Ġm ay
st em
Ġb ig
y s
t ing
Ġg en
i le
ur n
Ġp ers
Ġth ree
ar s
ter n
p er
Ġdo ing
Ġde c
v ed
Ġf ind
ch n
Ġg reat
on s
Ġs ur
Ġexp er
ic ally
t e
sel f
Ġper cent
Ġhum an
f ter
ci al
nd s
Ġqu est
Ġwe ll
Ġch ild
b e
f ore
Ġt ra
Ġb rain
Ġsy stem
w e
ic s
i ed
Ġa pp
ĠC h
Ġl ear
Ġl et
Ġte chn
b ody
Ġo wn
Ġst ud
Ġcall ed
Ġwh y
Ġs im
at ing
Ġin d
th ing
i an
Ġ ra
it ion
ig h
Ġc r
Ġm ade
ill ion
olog y
Ġin v
Ġb l
a v
Ġbu ild
Ġbe l
re n
Ġg u
Ġw om
Ġag ain
at es
Ġre m
r ic
Ġsh ould
i ous
Ġc ol
Ġimp ort
m er
Ġunder st
Ġas k
I f
Ġc reat
Ġl ong
c on
l p
iz e
Th ank
Ġ K
it ies
ol ut
Ġch ange
H e
t y
Ġto day
Ġe nd
Ġpers on
Ġin s
p e
Ġfe el
u b
l ic
Ġdid n
ch o
Ġthou ght
Ġimport ant
Ġa fter
a il
h e
Ġide a
Ġme an
Ġf l
am p
Ġc our
is e
e w
f t
Ġs ci
Ġo b
Ġ 3
Ġl ast
Ġhe lp
Ġstart ed
cho ol
ere st
Ġunderst and
Ġtr ans
Ġw ent
Ġb as
ĠI t
u ll
Ġit s
Ġin st
op e
Ġproble m
Ġbel ie
Ġst ory
i ly
es e
Ġ ke
Ġbe fore
k es
Ġm ight
Ġre l
Ġc ar
Ġdes ign
Ġd r
ou gh
g an
a ve
al s
Ġp ower
o b
Ġpl ay
Ġne ver
Ġpro du
Ġint erest
Ġp ol
Ġh im
e c
00 0
Ġbet ter
ul ar
Ġcour se
Ġin ter
Ġg ive
Ġar t
u nd
Ġst ill
Ġt urn
Ġab le
Ġk id
Ġs chool
Ġcon s
Ġf am
Ġf ound
o ld
ist s
ct ion
Ġpo int
er t
il ity
Ġ ent
Ġfe w
Ġim ag
Ġlear n
Ġb it
Ġcomm un
Wh en
v en
i ence
Ġc ame
o c
i x
Ġ And
Ġne xt
vel op
Ġ& #
Ġto g
Ġtog ether
we en
at her
Ġst r
at ch
Ġ The
Ġan other
n g
Ġ Y
Ġe ach
p l
n ess
ot h
ĠS t
Ġex am
er g
Ġc ell
ĠI n
Ġd at
Ġcomp le
Ġlo ve
Ġquest ion
Ġbet ween
u c
it ed
en se
al th
re ad
Ġde velop
iz ed
Ġh igh
Ġn um
Ġag o
Ġs l
Ġs ort
Ġm od
ar ch
a z
w ard
Ġc re
Ġ1 0
Ġpl ace
is s
Ġwor d
Ġus ed
or k
Ġm in
Ġm on
Ġ1 9
in ess
Ġp at
Ġdat a
c y
ing s
mer ic
p h
Ġf our
ure s
way s
Ġg ra
Ġ2 0
Ġex t
Ġgr ow
Ġs er
one y
Ġto o
Ġexam ple
Ġm ed
Ġm om
Ġat t
Ġwom en
Ġpl an
ap h
form ation
Ġf in
Ġl ight
Ġ You
Ġl a
o od
ec ause
ere d
c ed
if ic
Ġo ld
Ġm et
Ġo p
Ġw ater
Ġd one
con om
Ġre ad
ce pt
Ġtechn ology
Ġli ve
Ġc are
Ġdoes n
Ġ We
Ġsm all
Ġl ess
Ġwant ed
co nd
ĠA meric
et s
at ive
a h
Ġm us
g er
Ġch ang
Ġlook ing
Ġbelie ve
Ġal ways
Ġbe h
Ġre c
ab ly
al e
sel ves
Ġc ent
Ġ ed
Ġm oney
Ġpart ic
Ġchild ren
Ġe ff
Ġe ver
and s
Ġg iv
Ġe conom
ĠA f
Ġgen er
Ġcomp ut
Ġwork ing
Ġp oss
Ġexp l
Ġre p
Ġre as
Ġwho le
Ġte ach
Ġb us
Ġf ar
Ġbo ok
Ġ 5
Ġt er
Ġa way
Ġin formation
Ġpro ject
Ġh ard
Ġe ar
Ġcount ry
ation al
Ġh ome
Ġmo ve
Ġtry ing
l ed
B ecause
Ġn at
Ġde m
Ġkid s
Ġcre ate
n ce
Ġe l
Ġ 4
Ġm ind
ver s
Ġhe alth
Ġr un
Ġl ar
Ġfo od
Ġres p
a ir
Ġre g
ur al
r ies
h ip
ot e
Ġst u
olut ion
Ġb i
c er
Ġfr ie
ir d
Ġm illion
is m
Ġme ans
Ġus ing
Ġen g
n ect
w h
Ġle ad
Ġf ive
at ter
ment s
g r
E D
on t
ra ct
id ent
Ġpro cess
p r
Ġsu pp
Ġs ing
Ġc ou
Ġp ict
Ġha nd
Ġbec ome
Ġsu b
g g
Ġs k
Ġf un
in es
Ġv is
Ġp ass
Ġop en
in s
it s
or ies
ru ct
Ġmay be
Ġf ut
Ġcon f
Ġto ok
Ġsp ace
Ġac c
Ġdo ll
a ut
Ġin f
t en
Ġse cond
Ġthink ing
ver n
ir on
Ġp ub
Ġevery thing
Ġsh are
Ġc or
Ġan im
Ġw alk
Ġcomp an
ac es
Ġfut ure
r ib
Ġc ap
Ġor gan
o nd
Ġb est
Ġfor m
s w
Ġen erg
Ġsay s
Ġqu ite
u es
rou p
ent ion
Ġpro b
ie w
ĠU n
Ġ !
og r
iver s
Ġcont ro
Ġso cial
Ġnum ber
Ġso ci
it ing
a ke
Ġs ol
al f
Ġe lect
e k
Ġen ough
Ġle ft
Ġli ves
Ġan sw
Ġhe ad
lo b
Ġp op
Ġcom es
ert ain
H ow
Ġget ting
Ġ So
et y
n er
ou se
Ġc le
Wh y
Ġbe g
k ay
Ġma king
Ġenerg y
ar r
Ġg roup
Ġ V
Ġgo vern
Ġp res
ic es
Th ese
ir l
ĠAf ric
it al
Ġb ody
Ġtim es
c us
e ver
i er
Ġmon th
Ġs et
Ġhappen ed
Ġro om
Ġen v
Ġs ense
y ing
Ġmom ent
Ġre se
Ġv al
Ġa ut
re en
Ġma kes
Ġspe c
Ġwith out
Ġprob ably
Ġs ound
Ġj ob
Ġtalk ing
Ġcount ries
Ġch o
t ty
im es
Ġcon nect
ĠCh in
r oss
Ġinterest ing
Ġp ie
ĠT ED
Ġke ep
Ġbus iness
Ġdoll ars
Ġ What
t s
Ġto p
ur ing
Ġbe aut
Ġph ot
Ġde f
i or
Ġw ar
id d
Ġmus ic
Ġto ld
Ġrese arch
Ġd ist
Ġexper ience
ang u
Ġreas on
ap s
i o
Ġt y
Ġh ist
Ġad d
Ġpre tty
Ġenv iron
Ġsim ple
Ġyou ng
Ġmin ut
O ne
Ġc ur
lob al
Ġel se
Ġed uc
M y
Ġc ult
Ġph ys
i ent
Ġo pp
Ġe y
Ġsa w
Ġac ross
Ġsci ence
Ġall ow
Ġv ide
Ġsu ch
Ġ2 00
id ed
Ġst and
Ġpol it
Ġw o
ate ly
Ġcell s
Ġd et
ĠI nd
9 3
Ġm atter
e ad
Ġm en
Ġh alf
Ġl angu
Ġask ed
Ġc ase
Ġs ign
Ġe as
Ġstu ff
9 1
Ġs ide
Ġst op
Ġli ving
Ġway s
b o
d er
em ber
Ġpr ot
Ġfam ily
Ġins ide
Ġm or
Ġsci ent
Ġh our
Ġany thing
Ġwe ek
Ġh ope
Ġl ist
Ġbuild ing
Ġmod el
w ork
m an
ll ow
ort un
Ġhapp ens
ogr aph
Ġme m
Ġbr ing
g s
Ġl ater
Ġb ad
al ity
Ġgo es
Ġcom ing
in ce
u ght
Ġwr ong
wh ere
e nd
Ġwh ile
ul ation
Ġre st
im e
Ġpartic ular
Ġch ar
Ġsing le
l f
re am
Ġsu c
Ġp ain
ĠN ew
S he
Ġw atch
Ġl ab
ĠH e
Ġm ark
Ġy et
Ġg lobal
Ġre f
il t
Ġproble ms
ot t
Ġenviron ment
m ost
Ġa ir
Ġb re
F or
u ge
it er
iv id
Ġf ig
Ġg irl
Ġday s
Ġa ge
Ġha ving
Ġpro f
or n
Ġe qu
Ġbeg in
are nt
Ġwo nder
Ġs it
Ġhe art
Ġcomple te
Ġword s
Ġcontro l
Ġth ous
Ġmy self
Ġma ch
Ġb illion
Ġse en
Ġsome one
l ess
Ġc ertain
Ġeff ect
Ġle vel
Ġansw er
ap e
as h
Ġpub lic
ater ial
ot s
Ġwith in
en g
iz ation
A s
Ġof ten
Ġlook ed
Ġam az
Ġhe ar
Ġsay ing
Ġlo c
Ġs ix
n o
Ġpict ure
Ġide as
Ġro b
i ke
it ive
Ġcommun ity
Ġc ity
Ġb oth
Ġs ure
Ġt est
Ġwh ether
Ġse lf
Ġprodu ct
Ġposs ible
Ġk ill
Ġvide o
ter s
m ed
Ġnot hing
Ġcomput er
Ġf ore
gr am
Ġde v
l ing
ar th
Ġon ce
l ish
Ġb lo
iver se
Ġlangu age
Ġex act
Ġma g
u p
Ġtr ue
s ide
Ġcl ass
ant s
Ġp os
un ch
Ġdis e
ĠI s
Ġu nt
Ġ3 0
L et
Ġind ivid
ap er
Ġf il
ro p
H ere
Ġm aterial
e e
Ġal most
re m
Ġp ar
Ġn ight
Ġco nd
er ing
Ġwork s
Ġis s
Ġnew s
p ect
as es
Ġent ire
Ġch e
Ġrem ember
read y
Ġamaz ing
Ġs w
ĠAfric a
Ġch all
Ġbeaut if
ur y
Ġgovern ment
Ġhe ard
en e
Ġbas ically
Ġindivid ual
Ġf ace
und red
idd le
w are
Ġinc red
Ġdis co
Ġspe nd
ĠE arth
d e
e x
Ġc ost
Ġdec ided
Ġhist ory
Ġg l
e ly
Ġal ready
Ġlook s
Ġimag ine
Ġt reat
Ġas s
g et
Ġex c
Ġa ff
Ġf ull
Ġto ol
Ġ5 0
Ġ Well
ĠIn tern
u ck
Ġgu y
Ġfrie nds
Ġp ast
ust r
iv es
im ate
ag es
Ġbu ilt
Ġexper im
o ck
Ġpro gram
Ġw a
os ed
Ġh undred
Ġcol lect
i red
Ġn et
Ġre t
Ġst ories
Ġcont in
Ġad v
Ġsuc cess
Ġpie ce
at ic
Ġd ire
k en
n y
v ious
Ġfo llow
Ġcou ple
ĠUn ited
Ġfig ure
Ġ 6
Ġp ay
Ġst ate
Ġwas n
Ġmonth s
Ġbeautif ul
Ġor der
ie ld
Ġ1 5
Ġres ult
t o
b s
c ing
â Ģ
Ġlar ge
Ġeduc ation
Ġ âĢ
Ġbec ame
Ġminut es
l and
Ġc a
ion al
Ġse c
Ġ 9
Ġh uge
Ġf ree
iv ity
Ġta king
Ġunt il
b ers
Ġt rain
Ġde ep
re t
Ġcon st
ĠH ow
Ġthou gh
in ed
Ġv iew
Ġsoci ety
is ing
Ġevery body
Ġun iverse
b r
Ġ This
Ġ 7
Ġinc re
Ġwom an
Ġlearn ed
Ġeng ine
am es
is ion
Ġthem selves
l ine
Ġm ust
Ġd ra
as ter
us h
Ġqu ick
Ġ 8
om es
et ic
Ġte am
Ġfr ont
Ġcomple x
Ġ They
Ġd i
Ġplan et
Ġexact ly
i ans
Ġj o
Ġget s
Ġapp ro
ent al
ĠIntern et
Ġ1 00
are d
Ġspe ak
a king
Ġcreat ed
ĠSt ates
Ġm il
Ġh ouse
Ġin no
Ġkn ew
Ġfo cus
Ġf und
Ġstud y
Ġcomplete ly
Ġcan cer
Ġhappen ing
s y
Ġv ir
Ġbeh av
ou th
Ġse x
ĠâĢ Ķ
Ġst ruct
Ġsome body
at s
an e
th ers
. .
A ll
Ġkind s
Ġhour s
Ġn ame
Ġquest ions
Ġit self
Ġv o
Ġpl aces
Ġla w
Ġis n
Ġpro v
Ġc ra
Ġagain st
Ġnat ure
d d
e ah
i en
c ul
ic ult
Ġour selves
ab ility
Ġlist en
Ġde p
i qu
r on
Ġa v
Ġem p
Ġb ab
Ġg ame
Ġshow s
Ġme et
itt ing
Ġ ve
Ġon es
Ġab s
Ġevery one
Ġs ince
Ġdiffere nce
c le
g est
Ġ That
a w
Ġ. ..
Ġm other
Th en
Ġm ess
Ġg ave
Ġopp ortun
on es
Ġo thers
og n
Ġsomet imes
ĠChin a
Ġcl ose
Ġob ject
Ġp arent
Ġwork ed
v ation
Ġcle ar
Ġh old
ut e
ist ic
r ow
Ġexp ect
Ġstud ents
pt ion
at t
Ġl ine
ol ved
act er
ĠN o
Ġexpl ain
Ġf ail
as ure
Ġr is
Ġinv est
i ents
m ing
Ġdiff icult
Ġrel ations
Ġcompan y
Ġw on
i ol
Ġth ird
Ġr ather
Ġa ud
at or
er n
Ġd ru
h aps
Ġcould n
Ġra d
at ure
Ġinter act
l ud
Ġb ott
Ġthous ands
Ġm ass
ct or
Ġne ur
ĠA r
Ġdise ase
Ġde al
Ġsur pr
in ation
Ġsim p
ur s
Ġst ep
Ġimp ro
Ġnet work
c c
ent ial
ib ly
Ġm iss
Ġp ot
Ġout side
Ġn orm
id er
ĠAmeric an
Ġty p
Ġ ill
om et
Ġd a
Ġhapp y
Ġam ount
Ġchang ed
ivers ity
k s
Ġ ident
Ġo il
ill ions
Ġal ong
Ġta kes
Ġl and
Ġlear ning
ar ing
Ġco ll
Ġl iter
Ġde ath
Ġpower ful
ĠAmeric a
Ġar ch
o h
Ġc ir
ĠE ng
Ġde l
um p
el t
Ġem ot
Ġsystem s
Ġear ly
Ġpop ulation
ĠInd ia
Ġmark et
Ġw ind
ĠB r
ĠG od
Ġturn s
Ġ But
Ġre v
Ġbl ack
Ġbehav ior
Ġs ens
Ġ Thank
Ġpres ent
Ġle ast
Ġlot s
n ot
Ġm ic
Ġd uring
Ġgu ys
Ġm ot
Ġinst ead
Ġgra nd
Ġspec ies
Ġcult ure
E very
Ġp red
Ġsh ort
Ġj our
Ġe le
if t
ĠE ur
Ġmach ine
Ġ z
Ġf ly
Ġf ear
Ġanim als
ward s
Ġm iddle
ith er
f ect
Ġreal ized
ve red
Ġgiv en
Ġp aper
as ed
Ġe at
Ġdem oc
Ġeas y
sy ch
Ġo per
Ġg reen
Ġha nds
Ġst re
ĠY ork
Ġext ra
Ġd ig
Ġre cent
Ġyour self
r an
Ġf re
Ġf all
Ġim age
ver age
Ġprot ect
Ġar g
j or
Ġ es
er y
Ġv ar
on y
O r
Ġbeh ind
Ġnat ural
Ġc ut
Ġd ream
Ġneed ed
id es
Ġsa f
ast ic
Ġmo le
ull y
Ġcol le
Ġsimp ly
le ep
Ġan t
i um
Ġm ath
o ve
Ġneed s
Ġ Wh
Ġf ight
Ġl ow
Ġf ather
Ġex ist
Ġperson al
Ġfin ally
Ġey es
er a
Ġp ract
Ġse ven
ĠG o
Ġrelations hip
y ear
Ġf elt
Ġn on
ro om
ĠS h
Ġh y
Ġf ield
od e
ĠA l
Ġle ave
f ace
Ġst ay
Ġcompan ies
Ġre d
Ġcent ury
Ġte m
Ġ1 2
led ge
Ġloc al
Ġb ro
Ġma jor
Ġtra d
Ġsupp ort
o es
op h
el s
Ġeconom ic
Ġter r
in ary
os p
Ġper form
Ġser v
it ions
Ġare a
Ġac cess
ne y
Ġmed ia
re w
Ġch em
Ġpolit ical
Ġob vious
Ġturn ed
is on
our ce
ĠEur ope
i ally
Ġcomm on
Ġs un
Ġp le
Ġcommun ic
S ome
Ġs ent
Ġl im
ro du
ci ous
Ġsu per
av or
Ġbegin ning
v ent
iv ed
Ġta ken
Ġper haps
Ġ4 0
Ġval ue
e ople
Ġsee ing
Ġfam il
Ġfrie nd
id ence
Ġcan not
olog ical
Ġphot ograph
Ġbre ak
Ġp sych
Ġsp ent
Ġem b
Ġrec ord
N A
Ġt re
ow s
Ġmo ving
Ġke y
Ġpat tern
Ġext rem
c r
or th
um ent
Ġv iol
Ġstr ong
i pp
o ok
Ġlong er
in al
Ġm ult
ill s
Ġpart s
Ġbe gan
rou ght
N o
Ġper fect
Ġlead ers
Ġle g
Ġe ight
Ġ1 8
Ġsur v
f ully
Ġwonder ful
Ġquick ly
g en
Ġspe cial
ĠO h
Ġdra w
u le
u nt
iv ing
Ġre ach
Ġinc lud
Ġgrow th
Ġc al
Ġg round
Ġev ent
l t
Ġs ize
our ces
Ġ Why
it ch
ut h
Ġexperim ent
Ġabs olut
Ġparent s
c rib
Ġre qu
Ġter ms
Ġfil m
m b
p ort
Ġ ess
Ġp ick
Ġwr ite
A t
h ood
o le
Ġl ost
Ġen c
Ġs qu
Ġc am
un g
Ġco ol
Ġto t
it ect
Ġse nd
Ġne ar
Ġrep res
Ġ vers
Ġw in
Ġc y
Ġimag es
Ġimp act
Ġbo x
Ġmor ning
o y
Ġbu y
Ġrob ot
Ġc ities
Ġtra vel
Ġtr ied
Ġan al
l er
Ġo ce
Ġg e
r om
ou d
Ġknow ledge
b y
il ar
ust ain
b or
re nt
Ġo cc
ci ally
Ġpo or
O n
Ġa verage
Ġc iv
is ed
Ġde ad
ive ly
Ġb ene
ate g
Ġsp read
Ġins p
rib ut
e ed
Ġrec ogn
Ġappro ach
al es
Ġcon v
Ġfe ed
Ġob s
Ġatt ention
Ġweek s
s h
Ġcons um
Ġsit u
Ġreal ity
Ġfeel ing
z y
Ġcom b
Ġme asure
Ġca us
Ġopportun ity
Ġris k
Ġarch itect
c l
Ġs itting
ard s
Ġmean ing
Ġs um
Ġs leep
Ġc amp
it ut
Ġre le
Ġchang es
Ġdire ct
Ġe ither
Ġwould n
ress ion
Ġa p
en ge
Ġy es
Ġwhat ever
ict ion
Ġaut h
Ġb orn
Ġf lo
Ġd est
iz ing
t on
Ġo pt
at ors
Ġb rought
ĠD NA
ĠEng lish
Ġf ast
Ġd ie
ck s
O kay
Ġh osp
ag ed
ac y
Ġgiv ing
gg est
or ld
Ġor ig
Ġsu ggest
ib ility
Ġbas ed
Ġeconom y
Ġresp ons
in y
ap t
ore d
ang er
Ġinterest ed
Ġphys ical
Ġstruct ure
an ces
Ġsee ms
Ġtool s
Ġvo ice
Ġ Th
er m
Ġgrow ing
Ġprof ess
c om
Ġst age
Ġanim al
dd en
e xt
Ġ ice
Ġg one
Ġab ility
Ġsu dden
Ġ2 5
Ġf avor
Ġst e
Ġst at
x y
lo y
Ġind ust
Ġdevelop ed
Ġmod ern
Ġbook s
Ġcir c
Ġp ress
Ġpr iv
Ġbl ue
Ġf ac
ra cy
Ġso ft
ĠA s
Ġknow n
Ġnum bers
Ġaff ect
ou ch
Ġf ire
Ġey e
A n
Ġd ark
Ġreal ize
Ġ /
an n
as c
Ġchall enge
e v
u g
Ġre du
Ġma in
Ġwr ote
P eople
Ġa w
Ġh ar
ur b
Ġte xt
ain s
g ed
Ġp ull
Ġfo ot
Ġsm art
Ġrun ning
Ġiss ue
T o
Ġv ac
Ġdes crib
Ġinv ent
Ġdevelop ing
Ġscient ists
Ġcr it
l ict
Ġthan k
Ġstart ing
Ġsc ale
Ġcreat ing
Ġincred ible
Ġbott om
it es
Ġsa ve
Ġcl imate
Ġunderstand ing
Ġaud ience
o f
Ġs ustain
amp les
Ġp ur
Ġn ice
Ġon line
Ġhum ans
Ġtrad ition
Ġp ost
Ġp ath
ch ie
Ġpo ll
Ġro ad
Ġwr iting
a i
r al
Ġh or
Ġare n
ĠCh r
Ġcol or
Ġciv il
o on
is ter
Ġknow s
O ur
b on
Ġm illions
ens ive
pe cially
Ġgirl s
Ġblo od
Ġal one
Ġplay ing
ver t
Ġne igh
Ġcon vers
Ġs olution
ĠI f
am ed
ĠChin ese
Ġbene f
Ġh ot
Ġsee m
ĠC an
Ġany one
Ġin tern
Ġte le
Ġliter ally
g ress
om en
Ġpat ients
Ġs ong
Ġare as
Ġtell ing
Ġrel ig
Ġsl ow
Ġr ul
Ġtr uth
Ġmo v
Ġgu ess
Ġdevelop ment
i k
ic y
Ġr ate
Ġcon cept
Ġgiv es
Ġty pe
Ġhundred s
Ġinno vation
l u
Ġh on
Ġf em
Ġas king
Ġpat ient
Ġbab y
Ġ There
Ġw all
Ġb ra
Ġfor ward
Ġso on
ist an
Ġpred ict
p or
p ar
ere nce
Ġwor th
Ġpro p
Ġpr om
Ġexper ien
Ġde g
Ġde pe
Ġv ill
Ġph one
ĠW orld
Ġtechn olog
Ġsol ve
i et
Ġ er
Ġl if
le t
Ġwh ite
Ġsu ff
Ġtrans form
iqu e
Ġav ail
Ġnorm al
o ll
Ġgener ation
Ġsound s
Ġes pecially
Ġthe ory
Ġs il
Ġc op
Ġtr ust
Ġim m
Ġshow ed
Ġdisco vered
er v
Ġm ar
ent ially
Ġfor ce
Ġpe ace
if ied
Ġar r
Ġrepres ent
os ing
Ġf a
ir th
ell ig
Ġprodu ce
Ġcent er
Ġpict ures
Ġa st
as ing
Ġev olution
Ġcur rent
bo ok
Ġv ol
Ġchang ing
Ġchall eng
en ces
us ion
Ġpro per
Ġfe et
Ġsub ject
Ġfund am
Ġindust ry
N ot
ĠS outh
Ġtalk ed
Ġsim ilar
Ġmove ment
I s
g o
Ġ Z
Ġst ra
Ġcho ice
y ond
Ġt ouch
is ions
Ġb ed
ĠA n
Ġpl ant
Ġincred ibly
Ġpot ential
Ġoce an
ch an
if y
Ġser ious
Ġmaterial s
Ġo kay
Ġc ars
Ġb ur
le y
Ġcomp et
ĠL e
i od
Ġg ames
Ġha ven
im ens
Ġteach ers
og le
Ġsur face
Ġabsolut ely
i ant
Ġs n
Ġch ance
Ġa chie
ab or
Ġres ources
Ġinv olved
Ġiss ues
Ġconf lict
il ities
Ġmed ic
Ġdef in
Ġb all
Ġu lt
Ġta ble
ass ion
Ġtra ck
in a
Ġse ll
iv al
Ġfun ction
Ġdet ail
Ġjour ney
Ġt iny
Ġm arr
Ġsh ape
Ġper iod
Ġhapp iness
ĠP h
Ġam ong
ĠF r
Ġavail able
y r
Ġs at
Ġbe yond
Ġschool s
Ġgener al
l ike
Ġs on
Ġl ay
Ġcar bon
Ġgroup s
oh n
Ġmic ro
b it
p re
Ġh it
Ġd anger
Ġne cess
Ġtechnolog ies
en cy
Ġre ce
Ġst ru
ad es
Ġlike ly
Ġint ellig
he ad
Ġatt ack
Ġvis ual
p ut
Ġb irth
or ing
Ġso ld
Ġpr in
Ġmess age
Ġ est
Ġb reat
Ġf ur
Ġproject s
Ġdev ice
Ġrecent ly
Ġsitu ation
Ġf u
Ġd ou
Ġte nd
Ġfl ow
Ġvis ion
Ġ6 0
Ġdemoc racy
Ġstre et
Ġrul es
o id
is hing
Ġr ich
ĠM y
D o
Ġc it
Ġfl u
Ġacc ount
Ġ8 0
B y
l ight
Ġw ish
Ġc ause
Ġre act
Ġbec omes
Ġmet h
Ġelect ric
Ġdig ital
J ust
Ġse a
Ġ1 1
Ġle a
Ġindividual s
i ar
Ġm ap
Ġf air
Ġd ied
ar ily
od ies
Ġne g
Ġtell s
Ġoff ice
Ġput ting
Ġwalk ing
cus s
Ġmil es
Ġrev olution
n ed
os ph
Ġem erg
Ġmed ical
st r
Ġbo y
Ġdr ive
Ġmem ory
C h
u it
Ġn ine
ay be
Ġact iv
ress ed
Ġbig ger
Ġcr oss
Ġcommun ities
ĠGo ogle
u ly
y n
ap an
Ġd iv
ĠB e
Ġev idence
Ġcreat ive
Ġpass ion
f ort
ed om
Ġme chan
ip s
ra ge
Ġpartic ip
Ġcit iz
g es
as k
am a
Ġex cept
Ġact ion
ous ly
Ġar m
Ġdesign ed
Ġreas ons
Ġcra zy
i res
m a
o ke
Ġc e
et er
Ġcomp assion
Ġmo b
Ġse arch
Ġread y
Ġresult s
ci ent
Ġstart s
ĠW est
ak es
Ġcr is
Ġimpro ve
S t
p an
Ġto wards
Ġl ose
ant ly
un e
Ġevery where
Ġbl ind
Ġinst itut
Ġcle an
Ġt ar
Ġa ware
Ġwas te
Ġli ved
ag n
Ġbas ic
Ġteach er
Ġdru g
m ore
Ġr id
ish ed
ĠJ apan
Ġcons cious
Ġfavor ite
Ġsoft ware
I V
h ow
Ġb acter
om ing
ore s
Ġpr im
Ġph il
ĠY es
Ġcomput ers
Ġcertain ly
med i
W ith
Ġm is
on se
Ġf aster
Ġta ught
Ġun f
Ġbig gest
t ed
Ġ rain
Ġc art
Ġb ird
Ġl ed
Ġon to
olut ions
Ġcho ose
Ġscient ific
Ġcam era
v iew
Ġl t
om s
Ġg t
ct ors
Ġex amples
Ġint rodu
ĠO kay
Ġdec isions
Ġc ode
Ġp u
Ġtr ial
ĠS e
Ġpr int
Ġsc reen
es tern
Ġse ver
ru ction
Ġmind s
Ġmag ic
Ġobvious ly
Ġhosp ital
Ġneigh bor
Ġ Now
Ġm ist
Ġe p
Ġme ant
Ġqu ality
ud e
Ġmo ved
Ġshow ing
Ġtrans l
Ġrep ort
Ġmor al
Ġparticular ly
Ġextra ord
Ġviol ence
Ġenc ou
Ġfur ther
e ch
Ġf ish
al a
ur ity
Ġpro gress
iz ations
Ġcont ent
Ġmole c
Ġap art
um b
ure d
Ġcont ext
Ġad m
Ġa f
Ġd in
ĠH IV
Ġgr aph
Ġcons ider
g round
o ot
Ġm ount
ra b
ĠT V
Ġstud ent
Ġind eed
Ġsaf e
Ġth reat
Ġn ational
Ġdo or
Ġresp onse
Ġchem ical
c ome
am m
ĠP r
Ġsol ar
Ġconnect ed
Ġsurpr ising
Ġsever al
A l
n ers
n ces
et h
Ġwor se
ĠS w
ĠE ast
Ġpr ison
Ġbrain s
Ġreg ion
Ġtot ally
Ġauth or
g ing
r ast
w o
Ġf ix
Ġwh e
Ġfore st
Ġdru gs
Ġvac c
A fter
Ġcl oud
Ġsoci et
Ġpos itive
n al
Ġs and
Ġg rew
im s
Ġno body
oth ers
Ġe c
ver ty
te nd
Ġwatch ing
Ġvir us
ĠBr it
Ġf ant
ĠD e
co nds
u ed
Ġb ar
Ġad ult
Ġrem ark
Ġstr ateg
Ġwa it
Ġvir t
Ġthe r
Ġs we
Ġd am
Ġwe bs
ĠJ ohn
uc le
Ġass um
Ġcoll abor
Ġm ine
Ġp ush
Ġf ill
Ġsh own
Ġim medi
Ġwant s
Ġpers pect
Ġdec ision
Ġcar ry
Ġ19 9
Ġfin an
Ġinf ect
Ġjob s
Ġallow ed
M aybe
at ory
Ġst ick
Ġsp ir
Ġdis cuss
pl ace
Ġchar acter
Ġinclud ing
Ġmeth od
Ġf asc
ay s
op s
Ġnot ice
Ġcon c
Ġany body
ĠAf gh
Ġdet ect
Ġobject s
d om
Ġb odies
Ġm ental
Ġd om
ie f
ag ine
Ġro ck
Ġapp ear
ĠY eah
Ġsk in
Ġinf lu
Ġret urn
Ġtrain ing
Ġtre es
p ed
Ġb ank
ig er
ol es
Ġcl os
Ġpo verty
Ġpos ition
Ġsudden ly
Ġmov ie
Ġvill age
C an
i ers
id ge
Ġ1 6
itt en
ff ic
Ġun ivers
Ġstud ies
Ġbuild ings
Ġcap t
Ġcontin ue
Ġfre edom
ou ght
Ġb al
Ġact ivity
so ci
lic ated
Ġlar gest
Ġminut e
ught er
Ġevent ually
5 0
I m
m en
Ġw ife
Ġc ases
Ġb om
Ġn amed
ur t
Ġj ud
ist ics
Ġtr uly
Ġ1 4
Ġfar m
Ġsupp osed
Ġcris is
r or
Ġ ign
in ct
Ġf ine
el ess
ĠN orth
Ġpolit ics
Ġconvers ation
E ven
Ġst ress
Ġse par
Ġproduct s
Ġtem per
Ġtradition al
Ġdepe nd
r os
in ing
er ve
Ġp an
Ġl uck
ic le
Ġfor ms
ĠS he
Ġany more
av id
Ġke pt
Ġkill ed
Ġexc ited
ĠAfgh an
r ing
er o
it ary
Ġn ucle
Ġde b
Ġpr ote
Ġac cept
Ġinc ome
Ġ20 1
Ġspec ific
Ġcond itions
f or
Ġs ource
Ġn arr
Ġpl ants
olog ist
Ġspe ed
oss ible
Ġsy n
Ġend ed
Ġeff ort
Ġextrem ely
Ġs olutions
Ġro le
Ġart ist
Ġpoint s
Ġsign ific
Ġ9 0
z z
en n
Ġh op
Ġp ack
od ay
ul ate
Ġcl in
Ġear l
ĠAfric an
Ġallow s
Ġlab or
Ġsec ret
Ġprov ide
Ġlisten ing
a id
c ise
ig her
Ġdo ctor
Ġgo al
Ġr ap
Ġal ive
ci p
ĠC al
Ġfind ing
Ġexc iting
M ost
a ur
Ġ i
se ct
ĠA t
Ġen j
Ġdis app
Ġsort s
Ġsk ills
Ġemp loy
Ġcolle ge
Ġsociet ies
h ere
u be
Ġt rou
Ġcolle ag
Ġextraord inary
Ġfasc in
Ġw ild
Ġo xy
Ġh igher
Ġl ate
Ġl ink
use um
ĠC ar
Ġsur ger
Ġpub lish
Ġthous and
Ġmath em
Ġserv ice
F irst
f r
Ġs ch
Ġwe ight
Ġab ove
Ġlo ved
ĠO K
Ġsuccess ful
c ape
i ation
Ġdo c
ĠA rab
Ġimp ossible
Ġco ok
Ġeng age
Ġaff ord
Ġpur p
Ġstru gg
Ġcitiz ens
e es
Ġb unch
an y
ies t
Ġ1 3
Ġsm ell
Ġread ing
Ġcor re
Ġmodel s
Ġfamil ies
ĠChr ist
c ies
Ġl ower
Ġany where
Ġdet erm
Ġcal cul
Ġfundam ental
y l
Ġl ands
st er
Ġus ually
Ġcon cer
Ġra nd
Ġpol icy
Ġsl ight
Ġlar ger
Ġmach ines
ĠIs l
Ġneur ons
iv en
Ġexp ensive
Ġcap ital
Ġrob ots
O f
Ġeff ic
Ġfamil iar
Ġstra ight
it i
Ġbec oming
ĠG e
ĠW estern
Ġpie ces
Ġ7 0
Ġtyp es
Ġcrit ical
Ġs ou
ain ed
Ġ1 7
Ġfam ous
Ġfun ny
osph ere
o int
Ġth r
Ġc ry
Ġl ad
Ġdo ctors
Ġup on
Ġpl astic
Ġact ual
Ġsome where
Ġsa ving
Ġwill ing
Ġco ld
Ġgen etic
Ġra ise
Ġser ies
Ġref lect
Ġsw im
cul es
Ġperspect ive
Ġrand om
Ġd rop
ar ies
le x
Ġse conds
ĠA m
ĠA ll
Ġsome how
Ġcomp licated
Ġtalk s
Ġdem on
Ġresp ect
ĠUn iversity
Ġche ck
Ġpattern s
Ġrecogn ize
Ġphil os
f er
l a
an a
Ġst ore
Ġj ump
un k
Ġro ll
ell ow
Ġwr itten
Ġgreat er
Ġear th
Ġmag n
Ġgl ass
Ġtreat ment
Ġm ir
ra el
ĠB ra
ĠR e
ĠW ar
Ġstr ange
Ġla unch
Ġexpl ore
ustr ial
Ġincre ase
Ġsqu are
Ġfinan cial
er man
is es
ic ed
Ġsh ap
Ġman age
Ġright s
ĠAmeric ans
Ġteach ing
Ġcho ices
T oday
e gr
f act
t ime
Ġ quot
Ġc ard
im b
ro f
Ġbo ard
Ġsc r
Ġshare d
Ġeffect ive
Ġvers ion
urb an
Ġspir it
b ack
Ġt iss
Ġp age
Ġf ra
am ic
Ġsh ark
Ġr ise
Ġtr ick
Ġmole cules
b all
v ision
Ġs ite
Ġp en
um ents
Ġle gs
Ġold er
Ġsmall er
Ġbeaut y
Ġsec urity
Ġbacter ia
Ġdemon str
Ġs us
Ġc at
Ġg as
ent ly
Ġtr ib
Ġpre p
Ġdec ades
Ġhuman ity
Ġstand ing
Ġpain ting
Ġcost s
Ġple ase
Ġopt im
Ġfem ale
b b
Ġth row
Ġm al
Ġh ous
Ġp ort
om m
Ġan g
Ġhe av
ĠL et
Ġhealth y
Ġresp ond
Ġconnect ion
ortun ately
Ġdisco ver
Ġincre asing
Ġwebs ite
Im agine
S e
ir ing
Ġk il
Ġas soci
Ġus es
ĠH ar
ĠD o
ep end
ound s
Ġbeing s
Ġgen es
Ġ19 8
Ġinno v
Ġachie ve
Ġ X
re st
us s
Ġst ar
ul f
il ing
Ġr an
ag ing
Ġexp ress
Ġorgan izations
Ġlevel s
Ġbab ies
Ġcom fort
Ġdes p
Ġsy m
Ġorgan ization
Ġengine ering
Ġserv ices
Ġess entially
a ff
it ation
im p
Ġfor th
Ġspe ech
Ġcreat ivity
ĠK en
Ġcor ru
Ġdist ribut
Ġpract ice
re pre
at ically
Ġb read
le br
ĠI ran
ac ity
Ġrem ind
Ġdanger ous
repre ne
Ġc ust
ab les
Ġpr os
Ġthrough out
Ġfin al
ĠAfghan istan
r ay
Ġf it
al y
Ġe th
ther n
Ġmob ile
Ġimmedi ately
Ġsurger y
a ign
p ing
u gh
Ġn ation
Ġal g
Ġev olved
Ġenvironment al
ĠIs rael
Ġelectric ity
Ġfant astic
Ġremark able
Ġm ention
Ġd ro
se qu
Ġse qu
Ġv ict
Wh ere
Ġbelie f
Ġpol ice
Ġbi ology
Ġwalk ed
Ġstand ard
Ġdi agn
Ġchalleng es
Ġearl ier
it ude
Ġp ark
Ġe t
im ately
Ġco ff
Ġoff ic
Ġblo ck
Ġarchitect ure
Ġmedic ine
n ter
Ġ urban
Ġm atch
Ġh ole
or row
ar ian
Ġwh ose
id s
Ġch air
Ġpop ular
Ġtele vision
w ord
it or
Ġd ad
ul ner
ĠM an
Ġun ique
Ġ2 1
Ġph en
Ġra ce
Ġprodu ction
Ġinter view
Ġopp os
Ġcond ition
Ġfollow ing
Ġclear ly
Ġintern ational
Ġhon est
Ġco ver
olog ists
ĠR ight
Ġapp ly
Ġunderst ood
Ġhelp ed
Ġadd ress
Ġce lebr
Ġenj oy
A ny
B e
s on
Ġt ur
Ġs al
ot y
ĠG erman
Ġpr ice
Ġtra de
Ġcare er
Ġwa iting
Ġpriv ate
a ul
er al
ow d
ig r
Ġst ars
Ġsh ock
Ġsh ift
em ent
ĠO r
Ġuse ful
Ġhim self
cept ion
Ġmil itary
Ġve h
att le
Ġmass ive
Ġemot ional
Ġperform ance
Ġt ask
Ġm ix
Ġn ut
id ing
Ġwor ry
ĠC ity
Ġspe aking
ber t
Ġsur round
Ġent reprene
Ġaut om
Ġsum mer
Ġcoff ee
Ġwe b
Ġfor get
th e
th ough
Ġthere fore
ist ry
res h
Ġem ail
Ġpre vent
Ġsk y
Ġhist or
Ġcomplex ity
Ġsex ual
Ġmot iv
Ġintellig ence
Ġphen omen
Ġ ir
Ġ When
Ġm ale
us ed
ra q
Ġsp ect
Ġsp aces
ĠM ar
ĠB l
ud d
Ġcreat es
bo ard
Ġclass room
Ġexperim ents
Ġmult ip
Ġneighbor hood
is ms
Ġh us
ra d
Ġex h
ci ence
Ġwere n
ĠF ace
Ġinst ance
Ġval ues
Ġphys ic
ash ion
Ġmeet ing
Ġslight ly
S omet
o e
Ġa head
Ġw ood
re es
Ġl ines
Th ose
im in
and a
Wh ich
ĠD avid
Ġfo ld
Ġdec ide
Ġgra du
Ġlight s
Ġident ity
u ing
Ġy eah
Ġwe alth
Ġse lect
Ġwor st
Ġv ulner
ĠS p
ĠS te
Ġsl ide
Ġcent ral
Ġphot o
Ġphys ics
Ġdire ction
Ġrad io
An other
a f
i ate
Ġin sect
Ġst ates
ĠD on
Ġ2 4
ren ch
Ġdr ink
Ġhigh ly
iss ion
Ġnetwork s
Ġdest ro
I D
R ight
Ġh all
Ġd ance
Ġdo g
ol ve
ĠL ond
Ġ19 7
Ġda ughter
Ġ Q
os es
al ing
ĠI raq
Ġe ating
ce ed
st ead
Ġen orm
Ġtrans port
Ġansw ers
Ġcult ural
Ġfocus ed
Ġnucle ar
Ġpurp ose
ĠLond on
i ot
o ff
y le
Ġ $
en ing
am s
Ġint egr
Ġdiffere nces
lic ations
Ġprof ound
Ġspend ing
Ġcamp aign
Ġinvent ed
Ġcust om
at ives
Ġb ase
Ġd ying
Ġin j
ce ll
Ġan n
Ġsh op
Ġor d
Ġlo g
ĠA ustr
Ġpart y
Ġbr ings
Ġdec ade
ex ic
Ġlaw s
Ġsurv ive
Ġtemper ature
Ġtrou ble
ĠFace book
r ied
u ct
Ġt ree
Ġo h
Ġsh ot
Ġnot iced
Ġr ange
ĠC l
app ed
ib r
lo ad
Ġbo ys
ord er
Ġgreat est
Ġdr iving
Ġstre ets
Ġvar ious
Ġinsp ired
Ġtar get
Ġbird s
r atic
Ġs ad
Ġc and
Ġc atch
en ed
st e
ra id
Ġcon sequ
Ġte en
ĠA d
Ġart ists
Ġshare s
Ġocc ur
Ġhus b
c ope
y stem
Ġt rem
Ġg ent
ĠM us
Ġad apt
Ġter m
Ġdise ases
Ġanal y
Ġaf raid
Ġi P
g th
Ġto wn
an cy
or ge
Ġst ren
op er
ad em
ant ic
ĠM iddle
Ġres ist
Ġsy mb
Ġinst r
Ġelect r
Ġstop ped
Ġbre ast
Ġprogram s
Ġterr ible
Ġcaus es
Ġdoc ument
Ġet c
o x
Ġm ut
Ġl oss
ar m
if orn
il es
Ġv ast
Ġcommunic ate
m ic
w ise
Ġ ver
Ġw is
Ġf ing
Ġd imens
or ith
Ġact ive
itt ed
Ġdr am
Ġla ugh
Ġ5 00
ĠInd ian
ĠCal iforn
Ġstren gth
y a
Ġf at
or ry
Ġwe ap
et t
ke y
Ġfr ame
Ġr ule
ĠM exic
ĠB ecause
Ġcap acity
Ġscient ist
Ġdirect ly
Ġcolleag ues
Ġpublish ed
Ġmathem at
a x
n a
z e
Ġp aid
Ġg ala
th etic
ĠM c
ĠP ar
Ġdis pl
Ġbl og
Ġrel ative
Ġvar i
Ġsustain able
Ġclos er
Ġalg orith
Ġ ing
al ia
il le
Ġknow ing
ĠC ong
Ġta x
Ġtw ice
Ġcomm er
Ġtra ffic
Ġcr owd
Ġmiss ing
Ġjour nal
Ġfly ing
Ġflo or
Ġexperien ces
ĠCaliforn ia
Ġ ut
ed ia
as hing
ĠC ent
ĠC ol
ĠM r
Ġmost ly
ĠO ne
ph one
Ġposs ibly
Ġsupp ly
Ġelect ron
Ġphot os
Ġbro ad
Ġleaders hip
Ġdou b
ed d
Ġbe at
Ġat m
em pt
Ġcomp on
Ġind epend
eng u
Ġfore ign
Ġinstitut ions
L ike
S h
g y
z il
Ġt ens
Ġa id
Ġre ve
ĠS c
Ġun c
Ġbel ow
Ġbas is
Ġconf erence
Ġmem bers
Ġdev ices
Ġjo in
Ġdel iver
Ġemot ion
Ġcommunic ation
Ġgent le
D P
g ain
i os
n ow
it ter
Ġd yn
Ġl ack
Ġfor ces
Ġr ough
Ġprodu ced
Ġmom ents
Ġcontro ll
Ġaut ism
idd en
Ġbring ing
Ġair pl
Ġopportun ities
Ġredu ce
Ġphilos oph
S A
f l
u fact
an ced
iz es
Ġz ero
Ġnear ly
Ġmolec ule
rast ruct
Ġwhe el
ID S
i pt
Ġb an
Ġp ig
Ġfor t
Ġno vel
Ġra re
Ġplay ed
Ġhear ing
Ġstruct ures
Ġav oid
Ġtiss ue
Ġcorru ption
Ġoppos ite
at r
Ġh ang
Ġf ro
Ġha ck
Ġsh aring
Ġnot e
Ġag ree
ĠCh ar
Ġfeel s
Ġhelp ing
Ġsw itch
i age
os h
Ġp engu
Ġf ashion
ib er
Ġpo et
ĠF or
ath y
oth es
Ġpass ed
Ġinf rastruct
Ġjo y
Ġmiss ion
Ġorig inal
Ġbra nd
Ġpu zz
s c
er vation
Ġg un
Ġre con
Wh o
Ġman ufact
ĠT w
ĠD r
ord ing
Ġstud ying
ric ult
Ġatt ract
Ġadd ition
Ġgrand m
Ġvol unt
ste in
Ġhusb and
L ook
Ġto m
Ġf aces
Ġst em
Ġse ed
Ġli ber
art ment
Ġam b
Ġsc an
Ġins ight
Ġvis it
Ġacc ur
Ġsignific ant
ĠBra zil
T wo
Ġb ought
Ġd en
ch es
Ġfor g
ant age
Ġor g
ĠR uss
Ġsur ve
Ġcol ors
Ġeas ily
Ġfore ver
Ġmag az
Ġfail ure
Ġemot ions
Ġrelationship s
Ġrelig ion
Ġdeg rees
Ġfu el
Ġconscious ness
Ġoxy gen
M any
ic king
ad a
il s
In stead
Ġapp l
Ġimportant ly
Ġpass word
Ġtot al
Ġnecess ary
Ġther ap
Ġcommer cial
Ġre b
Ġre co
ct ually
ĠT r
Ġany way
ac ed
ell ing
Ġimag ination
Ġgovern ments
Ġfull y
Ġrequ ire
Ġcorre ct
Ġtrem end
k y
o o
os qu
ar ia
Ġv ote
ĠA IDS
and er
ĠP l
Ġcr ime
Ġcons id
Ġentire ly
Ġarg ument
Ġbro ken
Ġbenef its
Ġluck y
Ġtur ning
Ġatm osphere
F rom
g n
h and
w ide
Ġw ide
ou n
Ġc ru
Ġc ogn
Ġm outh
am b
ear s
Ġal though
ag er
ud ience
ĠN ational
Ġdifferent ly
ak er
Ġ3 00
Ġless on
Ġhy d
Ġstat istics
Ġenorm ous
Ġwis dom
D on
l im
Ġs ick
Ġb atter
Ġm useum
Ġh om
ed ic
ic les
Ġha ir
Ġan cient
Ġme as
Ġv ot
ĠP ro
Ġback ground
Ġoff er
Ġbr ill
Ġind ustrial
Ġcor ner
Ġrest aur
pect ed
Ġdeep ly
Ġmajor ity
Y es
v est
z en
Ġc ore
os ystem
ap ers
ve re
Ġhe at
ĠM e
Ġev ents
Ġcl a
Ġgr own
Ġmatter s
Ġpar ad
Ġwind ow
Ġsymb ol
is ible
Th ink
ro ll
if ically
if ying
ir t
rou d
Ġjust ice
ain ing
Ġun like
ĠN or
Ġco oper
ĠF rench
ys is
Ġmet aph
Ġdem and
Ġlead ing
Ġequ al
Ġche ap
Ġrespons ible
Ġpress ure
Ġdescrib e
Ġsuff ering
Ġmount ain
Ġrap id
Ġfascin ating
b ased
g ar
re et
Ġb le
Ġb urn
Ġl unch
ic on
ur d
Ġst ream
Ġhe ld
Ġch ick
ĠC on
ag ers
ite ly
Ġ19 6
Ġnews p
Ġhy p
Ġec osystem
Ġlands cape
h ouse
Ġp et
Ġd iversity
Ġsh oot
ul ous
ĠM ich
Ġwork ers
Ġag ricult
Ġcont act
Ġam p
Ġfight ing
Ġbreat h
e qu
g al
h y
l i
v ant
v ity
w in
w ater
Ġb one
Ġb ud
Ġm amm
Ġn one
Ġre ward
ul ations
Ġal tern
ĠH ere
lo ck
Ġfl ight
Ġinteract ion
ĠWh ere
Ġextrem e
Ġbenef it
Ġrece ived
ĠBrit ish
Ġinfrastruct ure
Y eah
h a
t le
Ġt ast
Ġm id
Ġto r
Ġf ab
ic ians
Ġre pe
Ġsp ort
Ġexp and
Ġ4 00
Ġacc ident
Ġdream s
Ġemb ra
Ġdesp ite
Ġt ough
re ci
Ġc ateg
Ġb ul
Ġm ort
Ġm osqu
Ġp roud
Ġbe es
ver se
Ġsh ip
ers on
Ġus ers
Ġgot ten
ord ers
Ġchild hood
Ġshould n
Ġreg ular
How ever
Ġresearch ers
ograph y
ĠHe y
Ġvo ices
Ġill ustr
Ġrespons ibility
Ġadult s
Y our
m ark
it able
Ġb ag
Ġb ound
Ġp air
Ġg ift
Ġse ctor
Ġsh oes
Ġsp ot
Ġtr ip
Ġsee med
Ġrem ote
Ġeffect s
Ġtyp ical
Ġill ness
ipp ed
Ġleg al
Ġstrateg y
Ġbal ance
Ġdestro y
A re
k ed
en cies
ic a
Ġn or
th es
Ġr out
ĠS m
el lect
Ġcomp ared
Ġbr other
Ġcreat ures
Ġcollect ive
Ġperfect ly
Ġdefin ition
ĠJapan ese
f ord
k n
m p
Ġh ate
Ġg ay
Ġwe ar
Ġe gg
Ġha bit
ur ch
ter m
Ġex er
ĠS an
ĠM ars
Ġcl imb
Ġpr ior
Ġapp e
Ġatt empt
ĠEurope an
Ġprote in
Ġh ost
Ġpl at
ĠM in
Ġqu ant
ĠP al
Ġcont ribut
ĠR o
Ġra ised
con nect
Ġpres ident
Ġeas ier
Ġve get
ĠAs ia
Ġmarr ied
Ġep ide
Ġdin ner
Ġdom in
Ġt um
es ome
es ign
Ġd an
Ġg iant
Ġint ellect
Ġman aged
ĠH a
Ġun ex
ia ble
Ġrel ated
Ġmet ers
Ġstu ck
Ġele ment
Ġterr or
Ġdraw ing
Ġvers us
Ġconv in
Ġfa ith
Ġneg ative
Ġfarm ers
gy pt
Ġvolunt e
Ġt al
Ġy ellow
Ġwe ird
Ġre place
Ġcon cent
Ġal t
Ġtr uck
Ġthink s
ĠB ill
pp ed
ĠE very
ru pt
Ġexper ts
Ġtrans m
Ġposs ibility
Ġbi ological
Ġpain t
Ġequ ip
Ġfail ed
Ġant ib
Ġtremend ous
Ġcogn itive
O h
m y
Ġw ond
re g
Ġs ister
ar ter
ur ies
Ġgo ld
Ġas pect
ĠG DP
Ġcall s
Ġpre vious
ĠJ ust
Ġent er
Ġcor por
Ġdist ance
Ġadv antage
Ġfigure d
Ġcy cle
imens ional
ĠSw ed
Ġeffic ient
Ġinsect s
Ġbrill iant
O ver
m on
u ild
v al
Ġc red
Ġb illions
ct ions
Ġst im
Ġu nd
ĠA re
Ġint u
Ġevery day
Ġdes ire
Ġcomm it
Ġgen ome
Ġlet ter
Ġsim pl
Ġinv isible
Ġhelp s
Ġart ific
Ġplan ning
ific ation
Ġdisco very
Ġdi et
Ġfre qu
Ġlim ited
Ġdou ble
Ġquot e
R e
h ab
r ict
Ġh idden
Ġf ol
Ġd ue
Ġn ames
Ġsh el
Ġhe ll
Ġnot ion
Ġch ann
Ġr ound
ck et
ĠE gypt
Ġsur ge
Ġstud ied
Ġinst all
Ġop in
Ġlead s
Ġlead er
Ġlangu ages
Ġwatch ed
Ġhold ing
Ġinvest ment
Ġess ential
Ġnecess arily
Ġfair ly
Ġbom b
Se cond
Ġconcent r
Ġequip ment
a u
d imensional
h old
Ġt un
Ġt our
Ġw ire
Ġh omes
Ġf resh
as on
Ġsh ut
ĠM o
Ġpart ners
Ġem pt
Ġent ertain
Ġsub st
Ġsuc ceed
Ġda ily
ipp ing
Ġfeed back
I T
in c
ul pt
Ġr iver
ate ll
ok ing
app ing
ĠD an
Ġfact s
Ġsc ulpt
Ġbr idge
Ġexper t
Ġcre ation
Ġopen ed
Ġbusiness es
Ġfollow ed
Ġmot or
ĠChr is
Ġinflu ence
Ġhous es
Ġplat form
i us
Ġm others
Ġin cent
ot ic
ent ally
Ġr at
ĠG u
Ġmo ves
Ġdesign er
Ġplan ets
Ġed ge
Ġdoll ar
Ġinvest ig
Ġneur os
Ġcirc um
Ġult imately
Ġlea ving
Ġstrugg le
H is
c les
l in
p id
Ġt ick
in ally
it ute
Ġm ill
Ġl osing
ro gen
th rop
Ġme at
ort ex
Ġdis c
ib ilities
Ġapp reci
Ġinv ited
Ġbeg ins
Ġkeep ing
Ġdep ression
Ġsurpr ise
Ġarg ue
Ġdam age
Ġcomfort able
kn own
A ctually
c op
m e
m ber
Ġs atell
is co
Ġm ouse
ap se
om y
Ġg ar
Ġwe aring
ow ing
Ġcomp are
Ġfe llow
ĠG reat
ĠE d
Ġcl ick
ĠN e
Ġdis p
ĠL ook
ĠF ran
Ġpre cise
Ġhigh est
Ġfin ished
Ġacc om
Ġconst antly
Ġrad ical
Ġsurv ival
Ġincreasing ly
Ġelectr ical
Ġmagaz ine
e f
Ġ iron
re te
en er
ar a
Ġg lo
am i
Ġli ked
ant ed
ĠM ay
ĠB ig
Ġun iversity
pr int
Ġcap able
Ġexperien ced
Ġvacc ine
Somet imes
ĠMexic o
Ġmetaph or
A gain
Ġ ur
in stein
Ġo dd
Ġs orry
Ġm aster
an es
Ġr ural
ess ed
ess ion
ck ed
Ġres ource
Ġprot oty
Ġmark ets
Ġ15 0
Ġsurpr ised
Ġhar m
Ġprin cip
Ġunivers al
Ġsepar ate
Ġnut r
ĠAustr alia
ĠTw itter
O nce
i j
Ġb attle
Ġg ap
Ġg ather
id ents
ill ed
ĠA b
ĠS chool
act ers
Ġworld wide
Ġper ce
Ġno ise
Ġmo on
ĠW ashing
Ġbr ight
Ġlet ters
Ġbelie ved
oc ol
Ġgra d
Ġcou nter
Ġchar acters
Ġkill ing
Ġsuggest s
Ġdescrib ed
Ġcompet ition
Ġassoci ated
Ġphenomen on
v ention
in ist
ent y
ce ler
Ġsu gar
fore st
Ġbel ong
iss ions
Ġgener ations
iqu es
Ġprofess ional
Ġhor r
Ġdeg ree
Ġconcer ned
Ġshap es
Ġdimens ions
Ġweap ons
Ġairpl ane
Ġunex pected
2 0
n s
Ġt it
Ġt on
Ġp urs
Ġd ry
Ġg ard
Ġk ing
ul s
Ġint r
Ġexp ression
ĠP aul
Ġad vert
Ġput s
Ġcou rage
Ġval u
Ġchar ge
Ġnorm ally
Ġele ments
Ġmultip le
ĠWashing ton
a el
l s
r um
Ġh oles
Ġd ial
od es
ĠB ang
Ġper ception
Ġag re
ĠG ra
Ġher o
ub lic
lic ation
Ġhard er
Ġconst ruction
Ġident ify
ĠWh o
Ġcaus ed
Ġast ron
Ġdetail s
Ġlea ves
Ġmist akes
Ġvirt ual
Ġgrandm other
Ġorg ans
U n
b ble
o ch
Ġb and
Ġex ch
Ġma int
ĠS un
Ġro ot
Ġad op
ĠF l
ak ed
Ġfact ory
Ġgen e
Ġfin ish
Ġeconom ics
rib ute
Ġstep s
ĠEng land
Ġartific ial
u ous
Ġd ots
us hing
ir ation
ol ves
ul ated
Ġqu iet
ĠN ot
Ġco ast
Ġind ic
Ġtrans p
Ġtrans formation
Ġtrain ed
Ġengine ers
Ġoper ating
Ġphotograph s
Ġpoll ut
Ġslow ly
Ġmarr iage
Ġsold iers
Ġemploy ees
ĠKen ya
Ġexh ib
Ġconsequ ences
3 0
s et
Ġa x
at ures
Ġp ow
Ġd iction
Ġin form
om p
Ġwh om
Ġus er
Ġhas n
Ġar ms
Ġac adem
Ġdes ert
Ġacc ording
Ġcur ious
Ġpay ing
Ġca ught
Ġlaw y
ony m
Ġsaf ety
Ġanal ysis
Ġaw esome
ĠCan ada
Ġlif et
Ġcart oon
Ġoffic ial
Ġvalu able
G o
c ut
g ment
i ors
r is
t ies
u its
Ġthe ater
os is
Ġto w
Ġd ate
Ġst ation
Ġr om
ci pl
Ġta il
Ġfe ll
Ġag ing
ĠG reen
ĠE n
ber g
Ġsc ene
Ġinter p
Ġstu pid
Ġorgan ic
Ġvide os
ograph ic
Ġwonder ing
Ġcollect ion
Ġfac ing
Ġcurrent ly
Ġproper ty
Ġpassion ate
Ġfill ed
Ġkil omet
Ġsym pt
Ġdistribut ion
Ġord inary
Ġconsid ered
ĠFran c
A udience
E ach
T ake
p s
w ood
Ġ era
it als
Ġh un
Ġto ile
Ġg rain
ce nd
ad s
Ġch art
Ġimp l
Ġgr id
Ġsm ile
Ġgra de
Ġext ract
Ġref uge
Ġequ ival
Ġtest ing
Ġchem istry
Ġrelig ious
c ers
l ation
o or
p rof
r ight
u h
z ing
Ġ These
Ġs ight
Ġc ow
it ness
Ġp al
as ion
Ġn an
Ġwe ather
Ġre form
Ġre cy
ul a
Ġwhen ever
ild ren
Ġother wise
Ġcl osed
ĠN iger
Ġac celer
Ġtechn iques
Ġask s
Ġfeel ings
Ġtrans ition
Ġmus ical
Ġsent ence
Ġwall s
Ġserious ly
Ġunf ortunately
Ġempt y
P S
m as
y e
Ġh urt
Ġl at
om as
ol f
Ġfr ustr
um e
Ġhad n
ĠM IT
Ġpart ner
ne ath
Ġinter face
Ġart icle
Ġatt ach
Ġplan e
Ġelect ion
Ġcult ures
Ġcut ting
Ġple asure
Ġaw ful
Ġcivil ization
Ġprom ise
Ġtom orrow
Ġmosqu it
M ore
f ather
l ands
m ar
m et
Ġc os
Ġp ages
Ġp ounds
Ġn erv
Ġre pl
Ġab st
Ġsh ad
Ġcon cl
Ġv es
Ġbu bble
Ġph ones
Ġhum or
Ġpol ic
Ġset ting
Ġtreat ed
Ġconst ruct
Ġlim it
Ġsend ing
ĠPh il
Ġswe et
Ġmal aria
Ġdispl ay
Ġpengu ins
Ġconvin ced
W ould
m aking
v ard
Ġp il
Ġf al
ur ally
ra ft
Ġli qu
Ġso il
Ġpe ak
est s
Ġv ibr
Ġsp oke
ag r
Ġun less
ĠW ik
ĠJ e
ĠSt reet
ĠIn st
Ġfour th
Ġspec ifically
Ġsign al
Ġappro pr
Ġrele ased
Ġhor se
Ġclin ical
Ġshark s
Ġveh icle
Y et
c il
c are
Ġt ap
Ġt all
Ġs ources
Ġc up
Ġc rop
Ġm igr
Ġp ure
Ġf le
Ġin ner
Ġre in
ent ed
Ġst ood
Ġst aff
ir m
Ġch ain
ĠS ch
ĠT imes
ens ion
ak istan
Ġpre gn
Ġfew er
Ġopen ing
Ġwar m
Ġ200 8
Ġloc ation
Ġblo cks
Ġdeep er
Ġengine er
Ġemp athy
Ġexpect ed
Ġprofess or
Ġaffect ed
Ġarr ived
Ġreact ion
Ġneg ot
Ġencou rage
Ġentreprene urs
Ġing red
Ġequival ent
& #
c ap
l ife
m in
r s
u ary
Ġsh ame
ill ing
Ġmy th
Ġte les
ie nd
Ġsa ved
ĠE x
ens ity
Ġunder neath
Ġres c
ĠW ith
ĠW ill
Ġsol id
Ġhead s
Ġdef ine
Ġpolit icians
Ġhope fully
Ġrev iew
Ġmot ion
Ġdemoc ratic
Ġpract ical
Ġpick ed
Ġpoll en
Ġhon or
Ġnerv ous
Ġves sel
A r
H ave
T ube
u gg
z a
Ã ©
Ġs an
it arian
Ġf ed
Ġe ld
ur ance
se mb
Ġr ide
Ġmy st
ĠC O
Ġen em
ĠT ur
ĠG PS
ĠE l
Ġbo at
Ġpre fer
ĠO b
Ġsc en
Ġbr ief
Ġinv ention
Ġrem o
Ġimport ance
ĠK ing
Ġthought s
Ġdesign ers
Ġdr iver
az z
Ġeng aged
Ġorgan ized
eng th
Ġcond uct
Ġmic ros
Ġanal og
Ġmolec ular
Ġlaunch ed
Ġrelative ly
Ġalgorith ms
a ving
g ra
u x
re l
Ġs oph
Ġc ere
or ation
le ment
le ase
Ġwe ak
Ġst ock
Ġdo gs
Ġli br
Ġwor ried
ad d
Ġr ational
ate ful
Ġsp l
ĠC am
Ġman ip
Ġqu al
ĠD ar
Ġco vered
ang ers
Ġcol on
Ġplay ers
ĠWe b
Ġ4 5
Ġsing ing
Ġorgan isms
Ġwar ming
Ġpsych ology
Ġabsolut e
Ġge nder
Ġdeb ate
ĠGerman y
Ġgentle men
Ġbatter y
Ġcircum st
Ġlifet ime
Ġliqu id
T alk
l ines
Ġto ward
Ġg ain
Ġn urs
Ġfor ced
Ġse vere
Ġj ail
ĠA pp
ci ple
ĠP akistan
Ġbu ying
Ġcont ract
Ġph r
Ġem issions
Ġgr ass
ĠO n
Ġart s
Ġmus h
Ġprocess es
ogr ap
ĠV al
Ġconnect ions
Ġcir cle
Ġhosp itals
Ġbirth day
Ġprint ing
ĠHar vard
Ġfal se
d own
h am
z ed
Ġs ides
Ġl ect
Ġl apt
Ġn ations
Ġbe ar
ter day
Ġnot es
The ir
Ġpro ve
ĠB ro
Ġun s
Ġun cle
Ġdis h
ang ing
ĠR es
ĠR ep
Ġgood s
Ġ3 5
Ġmet al
Ġrequ ires
Ġconsum ption
Ġemerg ing
Ġnarr ative
Ġvict ims
Ġdyn amic
Ġfol ks
R I
c raft
o v
in ations
Ġs am
or gan
Ġn orth
Ġis land
am ent
Ġgo d
Ġli e
Ġr ates
ĠB en
ĠB ar
Ġev il
ĠE instein
Ġcall ing
Ġpo em
Ġac qu
ĠR ob
be ing
ĠYou Tube
Ġposs ibilities
Ġtop ic
Ġmem ories
Ġris ks
Ġimpro v
Ġmarket ing
Every body
Ġstrong er
Ġstat us
Ġprin ciple
Ġinfect ed
for ce
Ġvulner able
Ġindepend ent
Ġbud get
Ġepide mic
I nd
O K
a j
o ons
Ġ ille
Ġa th
Ġb ow
Ġb ath
Ġf iction
Ġl ic
Ġis ol
ent ure
ir ty
Ġan x
Ġj u
Ġex ists
Ġr ig
um an
Ġv an
Ġpl ans
Wh ile
ĠP ark
ac le
Ġro of
ĠL a
Ġcont ain
Ġide al
Ġsc ar
Ġgen et
Ġtechn ical
Ġfound ation
old s
Ġsign als
Ġeffect ively
Ġgrand father
Ġconv ention
Ġrele ase
Ġer ror
Ġsil ence
Ġintellig ent
Ġheav y
ĠiP h
Ġcla im
Ġnewsp aper
Ġmort ality
Ġintellect ual
b ur
at o
at in
al t
ro ph
Ġdo lp
ol ving
Ġhe ight
Ġex tend
are n
Ġun us
Ġ2 000
ĠJ an
ath ers
ĠK ore
Ġperson ally
Ġfl at
Ġprodu cing
Ġbit s
Ġmin im
Ġless ons
Ġbott le
Ġmult i
Ġcop y
Ġsat is
Ġlay er
Ġtrial s
Ġchemical s
Ġconc rete
Ġlad y
Ġdram atic
ĠCent er
Ġrestaur ant
Ġdolp h
h i
in ate
it z
en ced
Ġto x
Ġin it
ĠI I
Ġn ose
Ġn av
Ġli es
Ġr ow
um ber
ab ol
Ġco al
Ġrem ain
Ġfl ower
Ġpat ent
Ġser ve
Ġmed ium
Ġfall ing
Ġmeaning ful
Ġrele vant
Ġprofess ion
Ġdefin itely
Ġintrodu ced
Ġmanage ment
Ġspect rum
Ġcand id
ĠCong ress
Ġrough ly
Ġfort un
Ġaltern ative
Ġcred it
Ġsoph istic
A meric
S ee
c ast
Ġs outh
Ġh orm
Ġin ev
ly ing
Ġre ven
Ġfor mer
Ġsh r
ul ating
ĠA c
el ine
Ġact ions
ĠC E
em p
ĠT e
ĠT alk
ĠP er
Ġtrans pl
Ġcare fully
Ġadd ed
Ġele ph
Ġprotect ion
Ġdepe nds
Ġmicro b
Ġparticip ate
Ġ201 0
Ġpoet ry
Ġforg ot
Ġexer cise
Ġprincip les
Ġkilomet ers
V ery
b re
t a
er ves
Ġc ave
Ġc ortex
Ġb ill
al ed
Ġse at
Ġse es
est ic
ĠS u
ich ard
Ġen s
Ġun it
ac les
Ġdesign ing
Ġrep rodu
Ġbi ke
wh el
Ġdef ined
less ly
Ġexplain s
Ġdeal ing
Ġamount s
Ġz o
Ġocc up
Ġpriv ile
por ary
Ġlif est
Ġest ab
Ġintrodu ce
Ġmist ake
Ġmention ed
Ġchick en
Ġopin ion
Ġinterp ret
S ince
g ets
p oint
r ont
u el
y m
Ġt en
Ġw ine
Ġw ars
Ġs ke
Ġp ip
al u
Ġin equ
ic ip
ĠC o
Ġworld s
ĠB er
ĠG en
ĠP e
ĠN A
Ġover whel
ĠF e
Ġsc ared
Ġstud io
con t
Ġinterest s
Ġpartic les
Ġgener ate
Ġant i
Ġexist ing
Ġast on
Ġfundam entally
ĠAn ge
Ġprote ins
Ġdisapp ear
ĠIsl am
Ġframe work
Ġmathemat ics
Ġcompon ents
Ġabst ract
Ġcircumst ances
Ġmush room
c est
h ol
i h
o ly
it ual
Ġp un
Ġe nds
Ġit em
st ers
Ġsh all
Ġfr ight
Ġch a
Ġch ose
Ġma k
ie l
ag o
ĠB ank
ĠE m
Ġpo ore
Ġgr ateful
ak ers
Ġpercent age
Ġplay er
Ġenviron ments
Ġsit es
Ġadv ice
ĠAr t
Ġtyp ically
Ġfield s
Ġintern al
Ġsubject s
Ġtrack ing
Ġcapt ure
Ġign or
ĠGe orge
Ġsequ ence
Ġdoub t
Ġrapid ly
ĠHa iti
Ġsam ple
D id
D oes
u ff
Ġt ons
Ġw itness
Ġh ide
ent ic
im er
Ġgo als
Ġme l
ab led
ĠL os
te ch
Ġpol io
Ġgra vity
Ġrep air
Ġrun s
Ġconf ront
Ġsol ving
Ġlab el
Ġref r
Ġconst ant
Ġ7 5
Ġsens es
ĠFr ank
Ġest im
Ġaware ness
Ġinnov ative
Ġinstr ument
Ġgala xy
Ġvari ety
ĠChar les
Ġaccur ate
Ġhyd rogen
hy th
Ġwond ered
Ġchann el
Ġexch ange
Ġunus ual
Ġnav ig
P er
a it
s ource
Ġo ption
nd ed
Ġp ump
Ġl ung
Ġl ength
Ġre verse
Ġan cest
Ġr ing
Ġr ot
um s
ok en
ĠA nt
Ġint ense
ĠG ree
Ġdis aster
ĠJ ew
Ġfact or
tern al
Ġcons ist
Ġeconom ies
Ġconf idence
Ġanim ation
ret ch
ien cy
Ġmess ages
Every thing
Ġoper ate
Ġcam er
Ġobs er
Ġmov ies
Ġrid ic
Ġprim ary
Ġencou ra
Ġmount ains
Ġauthor ity
Ġforest s
Ġswim ming
Ġearth qu
Ġgradu ate
Ġphilosoph y
Ġappl ied
Ġpassword s
prof it
c al
g in
r i
u ce
Ġw ake
re ts
at ers
nd ing
it a
Ġb arr
Ġst ro
if ting
Ġhe m
Ġat oms
Ġr itual
all ed
Ġsp in
Ġsu it
Ġcl ock
Ġcont rast
Ġapp lications
Ġstr ing
Ġcent uries
Ġeconom ists
Ġexpl an
Ġreg ions
Ġaut on
Ġmem ber
Ġfil ms
Ġincre ased
Ġteam s
Ġjo ined
Ġfund ing
Ġdep artment
Ġcomb ine
Ġyes terday
Ġcrit ic
Ġsell ing
Ġcarry ing
Ġdiscuss ion
Ġhop ing
Ġtransport ation
Ġmanufact uring
Ġtum or
Ġantib iot
ĠSwed en
Ġaccom pl
b el
l om
Ġw ave
it ure
os a
os ition
Ġb are
Ġf ake
Ġd ot
al d
Ġin put
Ġl as
im inal
ol ar
il ed
Ġte eth
em oc
Ġhow ever
Ġcomp ar
ĠT om
Ġpr ay
Ġoff ers
Ġfact ors
Ġmove ments
Ġreg ard
Ġsun light
Ġrepres ents
Ġwin ter
Ġtravel ing
Ġoce ans
Ġcomb ination
Ġhor iz
oll y
Ġsn ow
ĠBrit ain
Ġcollabor ation
fr iend
Ġsou l
Ġresist ance
Ġsport s
ĠiPh one
Ġa ck
Ġm ere
Ġh ung
ed y
Ġl ift
qu e
ol a
Ġch ocol
Ġv oc
Ġsa cr
ĠM art
ab et
ĠG ood
Ġad j
Ġbus y
wh at
Ġsol ved
Ġproduct ive
Ġass ign
Ġbehavior al
Ġoper ation
Ġhar vest
Ġconvers ations
Ġfa cial
Ġchalleng ing
Ġvacc ines
Ġcloud s
Ġcook ing
E x
P M
b ors
m ers
n am
Ġth ick
Ġm aps
as tern
Th ree
ig m
op her
Ġcom ment
res ident
ĠT o
Ġres il
ĠR ev
Ġbo ld
ĠJ ul
Ġtechn ique
Ġinst ruct
ĠY our
Ġ19 4
Ġgener ally
Ġcomput ing
Ġsk ill
Ġmil k
Ġbehav iors
Ġcoll apse
Ġele v
Ġinclud e
itch en
Ġcy ber
Ġconsum er
Ġdest ruction
Ġste el
Ġjud ge
Ġprep ared
ĠPar is
ograp her
Ġcamer as
a e
e y
Ġt ank
in ated
Ġo ught
er ge
Ġb orders
Ġh unt
Ġp in
Ġf lex
Ġd ip
Ġl oud
as ters
ic ing
ll y
Ġbe e
Ġfr ank
Ġex ec
Ġpro ced
Ġout c
Ġact ing
ab ilities
pp ing
ĠG ulf
Ġwr iter
Ġown ers
Ġfl ash
Ġinst inct
Ġcent ers
Ġprocess ing
Ġhand le
arr ass
Ġmem or
Ġpar king
Ġjo ke
Ġstay ed
Ġconv ince
Ġopt ions
ĠTh omas
Ġtransform ed
Ġattack s
Ġmechan ism
Ġbom bs
Ġmir ror
ĠMus lim
Ġpuzz le
ĠMich ael
Ġagricult ure
ĠSm ith
Ġegg s
ĠFranc isco
ĠInst itute
Ġille gal
Ġsophistic ated
Ġlifest yle
C ould
f oot
Ġs amples
nd a
Ġc ure
Ġc ents
Ġh ip
Ġf an
as ks
im eter
Ġst ands
if th
Ġan onym
Ġor ch
Ġte a
ĠS at
Ġpl us
ĠM on
are t
ĠP eople
ĠD ay
Ġ2 2
Ġdes k
chn ology
Ġob st
Ġstory t
Ġdr iven
Ġmet abol
Ġwalk s
Ġcle ver
ĠTED Talk
Ġ200 7
Ġdev ast
Ġcollect ed
Ġ9 9
Ġconst rain
Ġrad iation
Ġinteract ive
Ġpot entially
Ġliter ature
Ġfear s
Ġexist ence
Ġbro ke
Ġinsp iration
Ġsitu ations
Ġcirc uit
Ġpull ed
Ġsustain ability
Ġadm it
Ġentreprene ur
Ġsurve y
Ġtherap y
Ġhyp othes
Ġembra ce
Ġentertain ment
o ver
o ice
Ġ 0
Ġb es
Ġm ad
Ġh its
Ġp ian
es ity
Ġd edic
Ġre ject
id ay
ch air
ce l
st and
ol i
Ġse m
ad ic
Ġat tend
Ġlo op
Ġsome what
Ġthan ks
ĠP resident
Ġ2 3
Ġar rest
ip edia
Ġshe ll
ĠL atin
ell y
ĠF ound
Ġpre m
ĠU S
Ġapp arent
Ġfl ag
Ġsign s
Ġident ical
Ġemb arrass
cr ipt
Ġbox es
Ġspread ing
Ġfoot print
Ġneigh bors
Ġbur ning
Ġdiv ide
Ġlabor atory
Ġdeterm ine
ĠIsl amic
Ġlad ies
Ġcontroll ed
ĠRuss ia
Ġfab ric
connect ed
Ġsatell ite
Ġglo be
Ġhun ger
ĠOb ama
Ġearthqu ake
B as
x ide
Ġs en
Ġs ets
Ġb icy
Ġf urn
Ġd ict
Ġwh ist
Ġst ere
ere k
st ream
Ġhe l
ear ch
Ġsu ic
Ġcomp l
res p
Ġun known
ĠP ole
Ġdis s
Ġunder water
Ġplay s
Ġform ed
Ġkeep s
Ġphys ically
Ġallow ing
bo x
Ġpain ful
Ġequ ally
Ġtest s
Ġpar al
de f
Ġcollect ing
Ġadv anced
Ġclose ly
Ġill usion
Ġcoll aps
Ġarg uments
Ġimm une
Ġproper ties
Ġult imate
Ġflow ers
Ġspirit ual
Ġveh icles
Ġdan cing
Ġhorr ible
Ġton ight
Ġgard en
Ġsympt oms
Ġconcl usion
Ġack now
L ast
h our
i at
n ic
p et
r at
u a
x ies
Ġth in
Ġm ales
on ed
Ġp itch
Ġd ense
ar ant
Ġwe l
Ġbe ach
ct ic
ro g
ke ep
Ġwas h
ill y
Ġtr ig
Ġact s
ĠC op
ĠM ont
ĠM useum
Ġper man
Ġun com
Ġimp lications
Ġimp lement
Ġover all
Ġpo cket
Ġcont em
Ġph ase
Ġdes per
ĠJ er
ons cious
Ġgu ide
ĠK h
ub es
oc in
ĠSt ate
Ġelect ro
Ġdist inct
end ed
Ġemp ower
att an
Ġmain ly
Ġconflict s
Ġactiv ities
Al so
Ġ199 0
Ġdro pped
sc ale
Ġrom antic
ĠWik ipedia
Ġappropr iate
ĠDar win
Ġtranspl ant
Ġestab lish
Ġaston ishing
Ġchocol ate
O s
t ocin
v an
v iol
w r
Ġt ape
Ġp apers
Ġf oss
Ġf ert
le te
Ġk itchen
od ed
Ġr u
Ġcon vert
Ġkn ock
ĠA h
Ġup per
ĠM a
app y
ĠT or
ĠG h
pt ember
Ġdis cipl
Ġpo ol
Ġoff ered
Ġob esity
ob el
Ġhealth care
Ġcontro vers
Ġyoung er
Ġ200 9
Ġref er
Ġwa ves
Ġcontin ent
Ġadv ance
Ġprov iding
Ġexplain ed
Ġsens itive
Ġroad s
Ġvirus es
Ġang ry
Ġsurround ed
Ġ197 0
Ġwheel chair
Ġmeas uring
ĠNiger ia
Ġpregn ant
ĠJan uary
ĠNA SA
Per haps
Ġoutc omes
P A
W omen
d r
h attan
m it
r ors
s pe
v as
in o
Ġc ous
Ġb oring
Ġb order
Ġm ent
Ġp ill
or ter
Ġg est
Ġg olf
us es
us ive
Ġbe et
Ġst orm
od ing
ant a
Ġr ush
em en
ĠM ark
ost on
Ġfe ature
Ġher oes
Ġcomm and
Ġbr ib
Ġbr others
Ġlet s
Ġcr iminal
he imer
Ġcour t
Ġdesign s
ĠSt an
Ġnat urally
Ġreg ener
Ġclass es
Ġlarge ly
Ġrecord s
Ġreach ed
Ġrequ ired
Ġcaus ing
Ġsuff er
go ing
Ġaf tern
Ġmethod s
ĠAm az
Ġgala xies
Ġincent ives
Ġprototy pe
Ġadvert ising
Ġpollut ion
ĠRev olution
d en
g ent
i ety
n el
is ters
Ġm im
Ġp ushing
am ing
Ġse ason
Ġas p
Ġli ver
ĠA ct
Ġsp here
ĠM al
ĠH er
ĠE ve
ĠE astern
ĠJ ames
Ġdown load
Ġrem em
Thank s
Ġins urance
Ġtrans fer
Ġreg ret
Ġbi as
Ġpres ence
Ġcontin ued
Ġgreen house
Ġdig it
Ġviol ent
Ġauth entic
Ġfac ed
Ġevolution ary
Ġbreat he
Ġmechan ical
ĠSe ptember
Ġassum e
ĠChrist mas
ĠMan hattan
Ġcustom ers
Ġfing ers
Ġmathemat ical
Ġunc ertain
ĠRo bert
Ġtoile t
Ġnurs es
Ġphr ase
Ġconvention al
Ġantibiot ics
Ġfrank ly
i am
u pp
v able
z heimer
Ġt ack
Ġc ord
it ers
ing u
Ġd ress
Ġl ying
Ġwh ales
Ġe ars
ol it
Ġk ick
ter y
Ġr ating
Ġr ub
Ġbut ton
Ġout come
el a
ĠB oston
Ġag encies
ĠG ab
Ġcl othes
ĠD ep
ĠN obel
Ġshe ep
ict ed
ak s
Ġdec l
Ġrem ove
Ġstr angers
ĠSt ar
Ġfin ance
Ġcare ful
pr ing
gg ed
Ġvis ible
Ġcor al
Ġcur ve
Ġeduc ational
Ġclass ic
Ġret ire
Ġinteract ions
Ġdeath s
Ġsens ors
Ġcomb ined
Ġsong s
Ġrelig ions
Ġstru ck
Ġapart ment
Ġcapt ured
Ġfascin ated
Ġtrib e
Ġhous ing
Ġdiagn osed
ĠPal est
Ġlat est
Ġeld er
Ġmyst ery
Ġath let
Bas ically
A b
b l
c red
o ft
r ary
x im
Ġw ise
er r
Ġc ast
is her
en ger
Ġh ur
Ġp ed
Ġin ject
ed ing
ic ian
th ink
Ġli kes
ĠA lex
Ġsp ring
Ġsp oken
Ġpl ate
ĠC om
og ue
Ġwhere as
Ġwhere ver
Ġtw e
Ġcont ribute
Ġad oles
Ġgr ay
Ġapp lication
Ġra w
Ġbl ank
Ġgra b
Ġexpl os
wh ile
Ġdef end
Ġsign ed
Ġheart s
ĠAl zheimer
Ġphotograph y
ĠAt l
Ġoxy tocin
Ġengage ment
Ġeffic iency
Ġir r
ios ity
Ġreb uild
Ġtast e
Ġcommit ment
Ġmaint ain
Ġacadem ic
Ġrecy c
Ġshad ow
Ġaftern oon
O ther
a ves
c ar
c ase
Ġt ight
Ġc ards
ot a
ow ered
us ions
ly n
ion e
st ruct
Ġse ction
Ġsh ake
ind er
rou s
Ġthem e
ĠM and
ĠG l
Ġpr ost
ĠD erek
Ġ2 7
ac ing
Ġph arm
ĠJ ack
Ġtechn ological
Ġgu arant
Ġ3 6
Ġrel ate
Ġdr ives
Ġdat ab
Ġel imin
Ġfun ctions
Ġfig ures
Ġ6 00
Ġaccess ible
Ġlim its
Ġemb edd
Ġrecord ed
Ġreach ing
Ġobs essed
Ġhot el
Ġconcept s
Ġtouch ed
Ġfix ed
Ġport ra
Ġselect ion
Ġvulner ability
ĠSte ve
Ġteen agers
Ġcompon ent
Ġfro zen
Ġintu itive
Ġsurge on
Ġdiction ary
Ġlibr ary
ĠRep ublic
ĠAnge les
Ġrefr iger
hyth m
Ġexec ut
Ġfurn iture
f ish
i ption
k a
m ates
n ight
y ard
it ors
os ter
Ġb en
es ter
Ġg ut
ic ago
us ing
ig gs
op ath
st age
Ġat e
Ġch ip
Ġch rom
Ġch urch
Ġkn ee
ĠS am
Ġpl enty
Ġle ap
Ġnow here
ĠT al
Ġhapp ier
ĠD emoc
ep h
ĠR w
ĠF in
Ġbr an
Ġsur f
Ġcr ash
Ġcons erv
Ġbeh ave
Ġair port
Ġequ ation
Ġche aper
Ġdep th
Ġdep loy
Ġwind ows
Ġprotect ed
Ġexist ed
Ġtre nd
cr iption
Ġtravel ed
Ġfeed ing
Ġtransl ate
for ward
iven ess
Ġsaving s
Ġscr atch
Ġdistribut ed
Ġhistor ical
ĠPro ject
Ġvolunte ers
Ġappreci ate
Ġprecise ly
Ġingred ients
Ġspl it
aren cy
Ġinequ ality
Ġpoore st
Ġignor ance
ĠMart in
Ġdip lom
ĠFound ation
M e
p es
u ity
u nder
Ġt ube
Ġw ings
Ġp our
Ġin iti
Ġy ield
om b
Ġst retch
ere nces
Ġdo zen
Ġne ut
Ġch ap
Ġlo ad
ĠC ount
ĠC omm
Ġwant ing
Ġev olve
Ġev alu
ĠG ates
Ġcl us
Ġcl ub
Ġco ck
olog ically
Ġeven ing
Ġpre tend
ĠCh icago
Ġpol ar
Ġinter f
Ġext ent
Ġinf in
Ġpop ulations
Ġroom s
Ġdist urb
Ġdist rict
Ġsure ly
Ġtest ed
Ġstate ment
Ġincre ases
ane ously
Ġabs or
Ġpract ices
Ġrobot ic
Ġvol ume
Ġachie ved
ĠFr ance
Ġrece ive
Ġarm y
Ġtrib es
Ġdram atically
Ġjournal ist
Ġseed s
Ġtor t
Ġcos m
Ġlic ense
ĠAmaz on
Ġembedd ed
Ġchrom os
H er
b an
b al
c ity
f ortunately
m m
m ble
w ich
Ġ vert
Ġa im
in ction
at a
os en
om an
ic ious
le vel
Ġwh ale
Ġbe er
Ġst ack
Ġst ations
Ġab und
Ġu g
Ġpro port
Ġint ention
Ġtr illion
ĠS ome
ĠS ec
Ġwork er
ĠH aw
ĠH iggs
Ġag es
Ġneed le
Ġdis order
ĠR ichard
Ġher self
ĠF re
ĠW ow
ĠW all
ath an
Ġsm oke
Ġcol um
Ġimag ined
ph ere
Ġext inct
ah ar
hip s
Ġeng aging
ĠUn ion
Ġelect ions
ĠHe alth
Ġpar as
Ġass ist
Ġsuccess fully
Ġspeak er
Ġhouse hold
Ġpresent ed
Ġocc asion
Ġ25 0
yr ight
Ġemerg ency
Ġfra g
Ġoptim istic
Ġang le
ĠAd am
Ġoccur red
Ġdestroy ed
Ġenem y
Ġremo ved
Ġhung ry
Ġbicy cle
Ġfoss il
2 00
R em
i as
p ro
ing ly
Ġto ler
or king
ve y
ly mp
id a
am in
op ard
Ġab and
Ġch est
ive red
ĠB ab
ĠH is
ĠH ave
ĠP ac
Ġspe ll
co hol
ne w
Ġdec line
Ġra ising
Ġinv ite
Ġrem ains
Ġfl ies
Ġcons ervation
Ġimag ing
Ġold est
Ġ200 5
Ġstand ards
Ġchar ity
Ġref erence
Ġadv oc
Ġmeet ings
Ġexpect ations
Ġmiss ed
Ġant icip
cl ass
Ġvill ages
iet nam
Ġer adic
Ġdiv ided
Ġinstitut ion
ĠPr ize
Ġappear s
here nt
ĠArab ic
Any way
oun ced
Ġunlike ly
Ġaspect s
ĠApp le
Ġlapt op
Ġzo om
ĠAnt ar
Ġlas er
M T
c ence
e ast
o nds
o oth
w ell
Ġ icon
Ġm er
Ġm arch
en ess
Ġf ifth
Ġg on
Ġwe igh
ro b
if ts
Ġu b
Ġch amp
Ġch osen
Ġpro of
un ning
Ġsp inal
Ġtr ies
og en
Ġqu arter
ĠG r
ĠD id
Ġbu ll
Ġph osph
ĠO lymp
Ġsc ore
Ġbl ow
Ġinst ant
Ġstr i
Ġexpl oration
air s
Ġsub s
gg ing
ĠV ietnam
Ġprot o
Ġbre aking
Ġprof it
Ġclass ical
Ġdire ctor
Ġcra ck
Ġconsum e
Ġconsum ers
Ġsil ent
Ġbreat hing
Ġbank s
Ġeffort s
Ġthr own
Ġ198 0
Ġpros per
Ġcelebr ate
imin als
Ġinstr uments
Ġreve al
Ġ196 0
osa urs
Ġpian o
F inally
b ed
c alled
e al
l ims
w ar
w orth
at to
nd r
Ġp ace
or g
or an
al ian
ot ion
Ġg all
Ġre ly
Ġan ts
Ġk iss
Ġne ither
ul se
Ġr ising
ain t
Ġpl aced
ĠM RI
Ġcomp rom
ĠB ible
ĠB udd
ĠG and
Ġcl ip
ĠP ort
Ġimp er
Ġimp ress
Ġ2 6
ĠN G
Ġshe et
Ġpo ly
ĠR os
Ġcomm itted
Ġsc ary
Ġgen ius
Ġdec re
Ġlove ly
Ġexpl oring
Ġbi om
Ġmor ality
Ġage nda
Ġspeak ers
Ġprov ided
Ġdel ivered
Ġinsp iring
Ġpriv acy
Ġdescrib es
Ġproper ly
Ġamong st
Ġflu id
Ġadm inist
Ġconc lud
Ġcry ing
Ġdemonstr ate
Ġpainting s
Ġbase ball
Ġfing er
Ġappe ared
Ġteles cope
Ġsatis f
Ġsuic ide
5 00
T e
g a
p arent
Ġt asks
Ġs ales
at ar
ou nce
Ġc ats
Ġb ones
or us
Ġyou th
ur se
Ġan ger
Ġmy ster
Ġor bit
Ġal cohol
Ġint ent
Ġqu ad
ia c
Ġgr anted
ĠJ oe
Ġfind s
Ġapp le
Ġfl our
Ġinst antly
Ġcar r
Ġcar ried
Ġimag ery
Ġgrow s
Ġacc um
Ġconnect ing
Ġfail ing
Ġpresent ation
Ġz one
Ġhy per
Ġperform ing
On ly
Ġmeasure d
Ġflo ating
Ġorig ami
Ġfem ales
Ġrepresent ed
Ġparticip ants
Ġrain forest
Ġcart oons
Ġsand wich
Ġconc ert
Ġign ore
Ġdeb t
ĠCar ol
Ġbelief s
Ġinj ury
Ġut ter
fl ies
Ġreco very
Ġcorpor ate
Ġneuros cience
Ġintr ig
Ġagre ed
Un fortunately
Ġadop t
Ġscen ar
ĠVal ley
Ġhem is
Ġbare ly
Ġorch est
A d
G irl
P h
c an
g ers
m aker
r as
r ation
Ġ id
Ġs ed
Ġc ens
Ġc ake
Ġf ishing
Ġd ign
or al
Ġl ens
le ts
ut ch
Ġre cip
qu are
th rough
Ġex ternal
Ġlo cked
Ġma il
Ġtr ash
ĠS il
ĠS cience
ĠC ome
ĠM ad
ag ue
ĠB ur
Ġun its
Ġco ach
ĠL ad
ĠL ove
Ġfo ol
Ġres on
ĠR ed
lic ate
Ġdr one
Ġdr ones
Ġsl ides
Ġgener ated
Ġsupp l
Ġmusic ians
Ġcur iosity
Ġrob ust
up s
Ġ9 5
Ġsens ory
Ġple as
Ġess ence
Ġcomb at
Ġfunction al
Ġmis er
Ġpu pp
Ġsurprising ly
Ġstick s
Ġcharacter istics
Ġdepend ing
Ġscr ipt
Ġsus pe
Ġvict im
Be fore
Ġhall uc
ĠCong o
Ġcooper ation
Ġbound aries
Ġnor thern
Ġtal ent
Ġsculpt ure
Ġtit le
Ġax is
Ġpil ot
Ġresc ue
Ġmicros cope
Ġuncle ar
Ġanx iety
Ġexplan ation
Ab out
ĠRw anda
S W
a ci
a gh
b its
d o
e ared
h ear
p ower
w l
w art
y an
Ġt ro
Ġt ired
re ct
Ġh at
Ġp ione
Ġd ung
Ġg ro
Ġg lob
as y
ic her
Ġbe ars
qu ar
Ġst able
ul um
ck ets
ok ed
Ġv ital
Ġsp r
Ġsp ark
ĠS ing
ĠP ol
pt ions
Ġco ord
ang ible
ĠL aw
Ġlet ting
Ġinv olves
lic it
Ġdr ill
Ġmin or
Ġmin ister
Ġ19 50
ph ones
Ġrec omm
Ġcou n
ins on
Ġcho osing
Ġrest ore
ĠBr own
Ġtre nds
Ġrecogn ition
Ġcop yright
Ġdin osaurs
Ġrock et
Ġreturn ed
Ġafford able
Ġstrugg ling
Ġprep are
Ġautom atically
Ġmotiv ation
Ġneighborhood s
Ġelectron ics
Ġhack ers
Ġparad igm
Ġpolic ies
Ġfle w
Ġvessel s
Ġeleph ant
Ġcha os
Ġadj ust
Ġuncom fort
Ġug ly
C om
S ahar
b ru
o ol
u k
Ġt ent
Ġt ill
Ġt ied
Ġt atto
Ġs le
it ory
Ġb on
Ġb oss
Ġf irm
ur ation
Ġst one
Ġst ages
if orm
Ġan throp
Ġab use
Ġr icher
Ġor ange
Ġsee k
Ġact or
Ġyour s
iz oph
Ġen able
Ġfe atures
ĠH igh
Ġover come
Ġcont ains
Ġunder ground
ĠF irst
ĠO x
ĠJ on
Ġtra um
con f
Ġperson ality
Ġfl ip
az e
Ġfood s
Ġcor resp
Ġresearch er
Ġprot est
Ġdep ressed
Ġhold s
Ġexpect ancy
Every one
Ġfall s
Ġprotect ing
Ġimpact s
Ġrecogn ized
Ġball oon
yr us
Ġreport ed
Ġsepar ated
Ġsyn thes
Ġcolleag ue
fr ont
Ġshap ed
Ġshop ping
Ġlog ic
Ġcru cial
Ġcrop s
Ġlect ure
Ġtox ic
ĠPe ace
Ġridic ulous
Ġstro ke
bel ie
Ġinstruct ions
Ġapparent ly
Ġparal le
Ġuncomfort able
Sahar an
D an
b les
b ered
g l
g ic
Ġt ears
Ġw ip
Ġs ession
Ġh oney
Ġh ook
Ġp ra
Ġf athers
Ġd er
Ġd iverse
Ġd ensity
ar p
Ġg re
ic ros
ĠI ce
Ġn ets
Ġn urse
if ice
st ate
ad ays
Ġus ual
ĠA ir
Ġpl ain
ĠC A
ĠM or
ag ger
Ġper m
ach e
ĠG al
Ġun belie
Ġbu bb
Ġdis rupt
ĠO f
Ġcol ony
Ġcreat ure
lic ity
Ġafter wards
Ġprodu ces
Ġmus cles
Ġsupp ose
Ġorgan ize
ĠV an
Ġdef ense
Ġdist ant
io xide
Ġ200 3
Ġ200 4
Ġcontrol s
ĠIs land
Ġpar aly
Ġche ese
Ġcontin ues
br idge
Ġprov ides
Ġinteract ing
Ġimpro ved
Ġes cape
Ġarchitect s
Ġsleep ing
Ġdirect ions
Ġtext book
Ġfoot ball
yr am
Ġimprove ment
Ġprint ed
Ġstrateg ies
Ġlink ed
Ġsch izoph
Ġcry st
Ġmix ed
ĠMus lims
Ġelectron ic
Ġagricult ural
Ġrepe at
Ġcateg ories
Ġdomin ant
Ġtransp arency
semb ly
Ġdolph ins
Ġens ure
abet es
Ġperman ent
ĠGab by
ĠDep artment
P l
U s
f ast
k in
er ation
Ġm ile
Ġm atr
en ry
Ġh itting
Ġd ump
Ġd ioxide
Ġin h
Ġl amp
Ġre def
Ġas ide
Ġne ural
ge nd
Ġch im
Ġout put
all ow
ĠS a
ĠC r
ast ics
Ġag ency
ĠT es
ĠT as
ĠD et
Ġbu g
cent ury
ĠL ife
ick s
ĠJ es
Ġent ered
arch y
Ġlight ing
Ġop ens
ird s
Ġsub tle
Ġvis ited
Ġcor n
Ġcap ita
Ġorgan ism
Ġmusic ian
Ġcur ric
Ġ200 6
Ġstop s
Ġequ ality
Ġfil ter
Ġtreat ing
Ġ6 5
Ġsec ure
Ġview s
Ġdra g
Ġcra ft
Ġexplain ing
Ġident ified
Ġdel ight
ĠThank s
ĠYork er
Ġpsych ological
Ġrecord ing
Ġpredict ions
ĠFr iday
put er
ĠBe ij
Ġsearch ing
Ġnarr ow
Ġdisapp oint
Ġcalcul ate
Ġtrick s
Ġchair s
Somet hing
Ġdyn am
Ġcontroll ing
Ġmanufact ure
Ġreco ver
Ġhom eless
Ġrepe ated
Ġwire less
Ġastron om
Ġlawy ers
Ġattach ed
cap es
Ġstere oty
ĠStan ford
Ġgon na
Ġproto cell
A R
W ill
a ult
b age
d ing
p art
Ġa es
Ġc ig
is ons
it ous
Ġb at
Ġm ice
Ġh ol
Ġto y
or a
or ous
Ġin k
Ġn a
Ġe ast
Ġre hab
Ġre new
Ġst ores
Ġst yle
ch e
se mble
Ġdo ors
ra ction
ra de
Ġhe lic
Ġj azz
Ġch ief
Ġpe er
un ction
and em
Ġpl ot
ĠM other
ĠM oon
are s
Ġexp lo
ĠH ouse
ĠT ake
ĠT ony
ĠG old
Ġpr ime
ĠD el
Ġ2 8
ell o
ĠR io
Ġpre c
ĠJ une
Ġbr own
Ġmin ing
Ġser ved
ĠTED x
Ġdef e
Ġpain ted
Ġproduct ivity
Ġmag ical
Ġdi am
Ġve ter
att ered
Ġsens or
Ġtem pt
Ġsent ences
Ġleg is
Ġorig in
Ġste al
Ġpur ch
Ġbur st
Ġest imate
Ġfu nds
Ġencou nter
Ġvirt ually
Ġassum ptions
Ġsou p
Ġdemonstr ation
Ġfro g
li ament
Ġcateg ory
Ġveget ables
agr am
Ġinev itable
ih ad
Ġuncertain ty
Ġelder ly
ĠPac ific
Ġglob ally
bru ary
Q u
S im
g u
i ang
i ated
i ance
i xt
l ie
l ings
s es
Ġth umb
Ġw arr
Ġc ab
en h
en ly
on ia
Ġp iz
Ġp icking
Ġf et
Ġf ulf
an throp
Ġd ive
om ic
om ous
Ġg am
le ar
et ers
et te
ct ica
se y
se ction
Ġme al
Ġex cell
ist en
Ġlo ves
ĠS und
ĠM ah
og ether
ĠB al
Ġcl osing
Ġpr ize
Ġdis m
ib an
Ġbo om
ĠW omen
Ġem ph
Ġpre f
Ġpers u
Ġtra ged
Ġend ing
Ġob l
Ġdr ivers
Ġent h
Ġhigh light
Ġla id
Ġmus cle
Ġfar mer
Ġconf ident
Ġacc idents
end ing
Ġass ets
ĠIntern ational
Ġadv enture
Ġdi abetes
Ġstay ing
Ġstrong ly
No body
Ġsuggest ing
Ġaffect s
Ġdark ness
Ġredu ced
Ġdetail ed
Ġactiv ist
Ġcitiz en
Ġtransl ation
Ġther m
Ġcollabor ative
Ġpush ed
Ġ201 1
Ġdisapp eared
Ġsch em
Ġsus p
Ġpros thetic
Ġshock ing
Ġdrink ing
Ġrare ly
ĠMin ister
Ġquant um
Ġtruck s
Ġnutr ition
Ġlawy er
ĠKore a
Ġprivile ge
Ġresil ience
Ġdedic ated
Ġphosph orus
Ġhemis phere
Ġdign ity
Ġparalle l
Ġschizoph ren
ĠTas man
Ġhelic op
O b
k ward
t es
u um
Ġt ong
Ġs its
er d
it ud
os al
os ure
Ġb orrow
en a
on ing
Ġp ink
Ġf usion
Ġl ions
om o
Ġg ear
Ġme lt
Ġne at
um in
Ġout er
Ġsa uce
Ġcomp elling
Ġexp osed
ĠB ush
Ġqu e
Ġun p
Ġun pre
Ġcl ar
Ġpr ices
ĠD is
Ġpart ies
Ġro ots
ell er
ĠF ellow
Ġsc ores
Ġshould er
Ġ3 2
Ġent rop
ĠY emen
Ġmon itor
Ġ19 5
Ġpass enger
Ġbeg un
eng ine
Ġinno cent
ĠAr ctic
Ġ12 0
Ġrequ est
Ġspread s
Ġredu ction
Ġaw kward
Ġlif es
Ġimm un
Ġlay ers
pan z
Ġinflu enced
Ġlink s
ĠChrist ian
Ġeth nic
Ġdro ve
Ġphysic ist
Ġlaugh ing
Ġliber al
Ġscan ner
Ġinsight s
Ġperce ive
ĠCam bridge
Ġinit ial
Ġprofession als
Ġanonym ous
Ġsen ior
Ġfert il
Ġub iqu
parent s
icros oft
N ext
P r
a uc
f ield
h op
i very
k ins
t op
t wo
z an
Ġw ing
Ġw ound
Ġs illy
Ġh ill
Ġh ier
Ġp yram
es h
Ġd ust
Ġd irty
ar re
ĠI m
Ġwe e
ow ers
et r
Ġre ef
Th rough
Ġha m
ch ildren
ro l
Ġan es
ill a
Ġcon ver
Ġv ent
ĠS ir
ĠS yr
ĠS pan
ĠM il
Ġen h
Ġen ables
Ġle ather
Ġcl ients
ĠP art
ĠL ong
Ġunder lying
ĠF ord
Ġpers ist
ren cy
Ġrel ax
Ġsl a
Ġmon key
Ġrec ru
Ġhealth ier
Ġsk et
Ġsk ull
Ġopen ness
Ġprob ability
ĠV en
Ġgovern ance
Ġdist ract
Ġadd ing
Ġelse where
Ġca f
Ġdra wn
Ġfund ed
Ġimpro ving
Ġphotograph ed
Ġleg it
Ġsuggest ed
Ġcirc uits
Ġfac ility
ann ed
Ġfoot age
Ġtele phone
Ġult ra
Ġcross ing
Ġce iling
Ġjud gment
Ġdepend ent
Ġdeterm ined
Ġphilos opher
Ġoptim ism
Ġir re
Ġphysic ian
Ġaddition al
Ġodd s
Ġgather ing
Ġdial ogue
Ġpow ers
rel ated
Ind eed
Ġreven ue
emp loy
ĠGen eral
Ġwel come
ĠAntar ctica
ĠOx ford
Ġcurric ulum
Ġentrop y
D avid
M ar
S S
c lock
f all
l ong
m akers
o ber
r id
w alk
Ġw ider
on ge
Ġin herent
Ġl un
Ġl ux
ar ah
Ġre cept
Ġon going
Ġst ab
se e
th et
Ġfr uit
Ġj ihad
Ġch ances
Ġr ats
Ġcon ven
ck ing
ok es
Ġup load
our nal
Ġsa v
Ġman ager
ĠG ive
Ġun h
ĠE ric
Ġback wards
ac ular
Ġgr at
ĠO ct
Ġsm ooth
Ġinc or
ĠU g
Ġsc ream
Ġbr ut
Ġtra its
Ġra il
Ġrem ained
ĠK oran
Ġdr um
Ġser ving
Ġhard ly
Ġpass ing
Ġconf used
ĠSo v
Ġset tle
Ġopp osed
Ġlab s
Ġpos ter
Ġfocus ing
Ġsimp licity
Ġeat en
Ġnon viol
Ġsupport ed
Ġlim b
Ġsuper mark
vent ions
Ġbreak through
Ġkey board
Ġspecial ized
Ġpull ing
Ġsil ver
Ġarr ive
Ch ar
Ġtransl ated
Ġgraph ic
Ġwhe at
Ġexpress ions
Ġremind ed
Ġdiagn osis
Ġintegr ated
ĠSc ott
ĠRuss ian
Ġparad ox
cop es
ĠGra nd
Ġrefuge e
Ġmosquit o
min ute
Ġcolon ies
Ġgenet ically
Americ an
Ġmicrob es
Ġforgot ten
ĠFe bruary
Ġancest ors
Ġsacr ifice
Ġowners hip
Ġhypothes is
ĠGh ana
ĠTal iban
Ġmiser able
Ġpiz za
Ġwee ke
A m
G ood
P lease
l ist
r ans
x ual
Ġt rop
Ġw edd
er oid
Ġc ath
Ġc ert
Ġc ash
Ġc ute
Ġm all
Ġto ys
Ġf ires
Ġd ies
Ġd ough
Ġd uck
Ġn urt
im ent
ce mber
th al
Ġsh ifting
Ġwhat so
od s
Ġcom edy
ist ot
Ġte ch
Ġsp ots
ĠS quare
ĠM ed
ĠM ove
ĠM icrosoft
ĠB o
ĠH ans
ĠP at
ĠP lease
ĠD en
ĠN an
ĠN ord
Ġdis ag
Ġdis orders
ĠL ED
ĠW ould
Ġpre cious
ish ment
ĠJ im
Ġsm arter
ord s
ĠK e
Ġhelp ful
Ġcons ult
Ġpoint ing
Ġed ges
Ġear n
Ġansw ered
ĠV ir
Ġwo ke
Ġkill er
Ġgl ad
Ġass ess
vious ly
Ġneur on
ĠAr my
Ġdel ivery
Ġoper ations
Ġpsych opath
gen cy
Ġinclud es
Ġwin ning
Ġobs erv
Ġfast est
Ġorig inally
Ġstat ist
Ġindust ries
Ġhar ness
Ġtext ing
Ġsuff ered
oll ar
Ġrepresent ation
Ġbur den
Ġsold ier
Ġprin ter
Ġfu els
Ġtar gets
Ġphil anthrop
ĠDe cember
Ġinfect ion
Ġunivers ities
Ġaccept ed
Ġsyn thetic
Ġdoc uments
Ġconcer n
Ġsus pect
Ġcat ast
Ġeth ical
ĠBl ack
Ġalgorith m
Ġattract ive
ĠTr ans
Ġrestaur ants
Ġshoot ing
Ġfrequ ency
Ġimpl ant
Ġrefuge es
Ġfrustr ated
ĠCE O
Ġitem s
Ġretire ment
Ġsuspe nded
Ġchim panz
ĠBeij ing
Ġcig aret
ĠSund ay
itud es
Ġwhatso ever
1 0
S pe
d ig
f ly
g reg
h h
i ology
k et
m ony
s hip
Ġ x
Ġt ubes
Ġa in
Ġw id
Ġs ink
it ate
Ġb iz
Ġb ars
Ġm ur
ap ed
Ġh ire
Ġp ause
Ġp andem
Ġf ought
or ida
ar i
Ġn it
ut ical
Ġan no
ol ic
ol ars
ust ed
Ġch ips
um es
Ġlo b
Ġma xim
Ġour s
Ġbut t
ĠA ug
Ġpl astics
Wh ether
ĠM om
ĠM ac
ag en
Ġexp ed
ĠT an
ff ect
Ġun employ
ĠP eter
ep s
Ġpo ison
ĠL ike
ire ct
Ġem erge
ĠO ur
Ġoff ices
Ġinc ident
Ġinv olve
ious ly
Ġins ist
Ġfound ed
Ġext ension
Ġatt itude
ced ented
Ġeng ines
Ġpub l
Ġelect ed
Ġphot ographer
Ġwar ning
ught ers
Ġglobal ization
Ġgl aci
Ġexperim ental
Ġprogram ming
ĠHow ard
Ġview er
Ġjo int
Ġobject ive
ming ly
Ġdifficult y
Ġland ed
Ġele g
Ġnon profit
Ġbreak fast
Ġge ek
Ġfac ilities
Ġredu cing
Ġbra ve
Ġprop osed
Ġprom ote
Ġer rors
Ġpeace ful
Ġbed room
Ġaccount s
Ġprim arily
Ġimmedi ate
Ġdom estic
Ġclin ic
Ġsou thern
Ġtiss ues
ĠBl ue
Ġanaly ze
ĠCent ral
Ġpig e
Ġfort une
Ġhang ing
Ġrout ine
Ġhabit at
Ġsubst ance
Ġking dom
ĠFl orida
Ġtransp arent
Ġfed eral
Ġisol ated
Ġmak ers
Ġmere ly
Ġproced ure
keep ers
Rem ember
ĠSpan ish
Ġbiz arre
1 8
B M
F our
N umber
V oice
f ree
m ill
p en
r ich
t ical
t ail
v is
z ens
Ġw ired
Ġs in
Ġs isters
at ural
Ġm ate
ed a
as m
Ġn odes
Ġn aked
Ġwh is
Ġbe ll
Ġre think
Ġst rain
Ġdo zens
st one
Ġsh ine
Ġj am
Ġup set
Ġact ors
ment al
ard o
ĠB on
ĠB ol
Ġman agers
Ġqu it
ace utical
ĠH enry
ĠT ex
Ġdes cription
ĠJ o
Ġsm iling
Ġfact ories
ars h
Ġ3 3
Ġart work
Ġart icles
oc a
Ġcomple ted
Ġcre w
Ġmon it
Ġgener ous
Ġreg ime
Ġfun g
Ġhead lines
Ġpres erve
Ġval id
Ġ200 1
ott ed
Ġret ina
Ġtrain s
ien ces
aw s
Ġinvest ors
Ġdel ay
Ġgrand parents
Ġleg acy
Ġdraw ings
Ġcal ories
Ġinsp ire
itut ion
Ġpredict ed
Ġmar ath
Ġarr ay
Ġmechan isms
Ġmob ility
With in
Ġpan els
ĠIsl ands
Ġmagn etic
Ġprep aring
Ġspect acular
Ġweap on
Ġbroad cast
Ġpengu in
Ġvot ing
Ġtun nel
Ġgar age
Ġpurs uit
olly wood
Ġremem bered
Ġpharm aceutical
Ġproport ion
Ġprosper ity
Ġconclud e
Ġparaly zed
Ġemph as
Ġunpre cedented
Ġubiqu itous
E C
E s
L ad
j o
p ass
y al
Ġt ear
Ġth rew
in i
Ġw aters
er ved
Ġc as
is y
Ġh o
on ic
Ġp unch
Ġf ib
es ters
an cing
Ġd iver
Ġd ressed
Ġl one
Ġg ig
Ġg ang
ic ial
Ġn om
Ġn ative
Ġn erve
ow nt
Ġre ci
Ġre cess
Ġon stage
id ers
ig ation
ke ys
th ur
Ġsh arp
Ġhe aling
Ġme als
ul in
Ġde ce
Ġout s
ĠS im
ĠM ount
ĠM iss
Ġcomp os
ab ul
Ġexp ans
ĠH y
ĠT wo
Ġcl ay
ĠD V
ĠD ad
Ġar med
ĠL ib
Ġgr as
Ġcomm od
ath ered
Ġwr iters
Ġcr imes
Ġbl ame
Ġrem aining
Ġinter rupt
Ġinter vention
Ġatt ribut
Ġeconom ist
Ġhome work
Ġbi ote
Ġeduc ated
Ġair craft
Ġfig uring
Ġgl imp
Ġsec rets
Ġfree ly
Ġlisten ed
Ġbott les
Ġdel iber
Ġarg uing
ĠWh ite
vent h
Ġobs erve
Ġobs ervation
Ġrespons es
asc ular
Ġpost ed
Ġimm igr
Ġmar ine
Ġfa vel
Ġlea f
Ġemerg ed
Ġminds et
Ġcapital ism
Ġstraight forward
Ġdesp air
Ġann ounced
Ġwide ly
roll ed
Ġmamm als
Ġfab ulous
Ġillustr ate
Ġrout e
Ġprevious ly
Ġenter pr
Ġintu ition
Second ly
ĠNe ander
ĠAb ra
Ġbrief ly
ĠBro ok
Ġske pt
Ġcollaps ed
Ġconserv ative
Ġinfin ite
Ġbubb les
Ġmatr ix
Ġtong ue
ĠOct ober
ĠUg anda
ĠSov iet
ĠTex as
Ġreci pe
B ack
I nt
L e
S te
T urn
c reat
d ollar
h alf
r ian
w ind
Ġa ward
in arily
os aur
Ġb att
Ġh iding
Ġp ile
Ġf iring
Ġin ches
le ge
ĠI nt
Ġn erd
Ġwe t
Ġbe ating
Ġst ability
am as
Ġas h
il ty
Ġch ron
Ġcon ce
Ġal ien
Ġtr iang
Ġup d
el f
ĠC D
ĠC or
Ġta g
ag on
Ġdon or
Ġnow adays
Ġun iform
ĠD esign
Ġar row
Ġdis abled
Ġmo od
Ġgot ta
Ġac id
Ġam ate
ĠW ol
ick ed
Ġtrans cend
Ġcar ing
ob ile
Ġkid ney
Ġsl ums
Ġrec all
Ġhard ware
Ġel ite
Ġform ula
Ġcur rency
Ġdev il
Ġexc it
Ġ8 5
Ġsex y
Ġda ughters
Ġgrand children
ĠWh ich
Ġpersonal ized
Ġterr ifying
Ġperform ed
by e
Ġsmart phone
Ġdeg rad
Ġign ored
Ġclin ics
Ġmir acle
Ġheav en
udd enly
Ġwealth y
ĠSp ace
ĠQ u
ĠQ ue
Ġprofound ly
adem y
Ġunc onscious
Ġamb ig
Ġden ial
Ġcla ims
ĠNor way
Ġnewsp apers
Ġecosystem s
Ġexpand ing
Ġshel ter
Ġqual ities
ĠRes earch
Ġbath room
Ġhorm one
Ġstoryt elling
ĠPalest in
Ġdatab ase
Ġvert ical
Ġfrag ile
ndr ome
Ġgro cer
Ġrehab il
Ġtraged y
Ob viously
ĠAug ust
1 2
C ome
D A
O L
f in
f our
f old
p y
p rodu
y o
Ġ Then
Ġt ip
Ġa er
in ter
re y
ou g
ou nder
it age
it ating
Ġm urd
en cing
Ġh ub
on a
Ġto oth
Ġd ose
ed ay
Ġl in
Ġg ate
le ton
ut her
ct u
id i
Ġha bits
im ination
ce an
am ine
ra cies
Ġas leep
Ġsh o
Ġcom ments
il ize
Ġj unk
Ġch op
Ġde lic
Ġr ice
Ġmy cel
ate ver
nt il
Ġal ph
Ġint im
Ġint ro
and ering
ĠS l
Ġpl ug
ĠM ill
ĠM edic
iz ers
ĠB y
ĠB ay
Ġper cept
Ġag ent
Ġag gress
Ġpart ly
ĠN ations
Ġdes erve
Ġad s
ĠW alk
Ġreal izing
Ġoff ering
per cent
ĠCh urch
Ġsim ult
Ġgu ard
Ġbas ket
Ġbelie ves
Ġinter connected
ph ony
Ġ20 50
Ġcare g
Ġdem o
Ġdem ands
Ġbi ologists
Ġset t
ĠInd ones
ash ed
Ġloc ated
Ġpos itions
Ġtreat ments
Ġspeak s
Ġaud io
ĠBr ian
Ġvar iation
Ġtem porary
Ġsupport ing
Ġcommunic ations
Ġnear by
Ġrobot ics
Ġge omet
Ġbene ath
Ġcirc les
Ġexperien cing
Ġexcept ion
Ġthreat ened
yl ac
Ġglass es
ĠIran ian
ĠIsrael i
Ġsal t
Ġsurround ing
Ġreve als
Ġpuzz les
ĠPl ay
ĠNor thern
Ġterror ism
Ġstim ul
Ġneuros cient
Ġgar bage
Ġperce ived
Ġgrad ually
Ġrein vent
Ġcere mony
Ġcandid ate
Ġfortun ate
ĠAc ademy
Ġnavig ate
ĠJew ish
Ġauton omous
Ġcompar ison
Ġflex ible
Ġdevast ating
Ġathlet es
ĠMand ela
Ġguarant ee
ĠJes us
Lad ies
Ġexcit ement
1 9
C l
C omp
N one
S ix
S uddenly
b ra
d es
g rad
h ist
l ves
m ade
p ace
w est
Ġt one
Ġt act
Ġt une
re h
Ġo d
Ġc ree
os n
Ġb ite
Ġb ored
Ġp ir
Ġd il
Ġl it
om a
id ges
Ġst atic
Ġst ored
Ġwas hing
th ree
Ġse lves
Ġsh ipping
il a
Ġj elly
Ġde als
Ġor ient
ess or
ess ions
est ed
Ġlo ck
Ġbut ter
Ġte nds
ĠA ny
Ġsp ons
ĠS en
ĠC ath
ĠM arch
ĠB ron
ĠT y
Ġtw ist
Ġcl ot
ĠP an
ĠD a
Ġ2 9
ĠN ic
Ġdis cr
Ġback yard
ĠL ab
Ġres olve
ĠR ay
Ġsm oking
ne g
Ġbr ush
Ġcr ows
ren ce
Ġgu err
Ġend ang
Ġins ulin
Ġsci ences
Ġ3 1
ĠIt aly
Ġart istic
Ġpoint ed
ĠSt age
Ġmet er
Ġcap s
Ġpres ents
Ġmem br
Ġchar ming
rem e
Ġnight s
Ġdi agram
Ġstruct ural
ane ous
Ġrad ically
omet own
Ġdemoc racies
Ġhy br
Ġsurv ived
Ġcy l
Ġauth ors
ug ment
Ġarr ange
Ġbur ied
ĠLe go
ĠLe ban
Ġtend ency
Ġflow ing
Ch ina
Ġactiv ate
Ġparticip ation
Ġthreat s
Ġprison ers
Ġdam n
Ġsignific antly
Ġpurp oses
Ġroll ing
Ġinnov ations
Ġremind s
Ġgradu ated
Ġconsequ ence
orge ous
Ġver b
ĠCol lege
Ġburn ed
Ġbag s
Ġtransm it
Ġrat io
Ġtick et
Ġexhib ition
ĠTur key
Ġgenet ics
Ġritual s
Ġobst acles
Ġbes ides
Ġcontem porary
Ġtack le
eph en
Ġchap ter
Ġcomprom ise
Ġscenar io
Ġrecomm end
ĠDet ro
Ġschizophren ia
Ġwedd ing
istot le
ĠNord en
ĠVir gin
A M
E n
F ive
J ohn
M A
M an
a ired
b ling
c re
d is
g ments
n et
u ilt
Ġo y
at i
er ry
ou st
is c
Ġb in
Ġb ind
Ġb ump
ing er
ap or
ap ore
Ġh al
Ġf ile
Ġd ent
Ġl es
ot o
Ġg h
Ġg ases
ut y
ch er
ere n
se ll
ad ing
Ġme g
Ġv it
Ġv ia
ĠA p
Ġsp ill
Ġsp ont
Ġyour selves
ĠC amb
ast y
gh ai
ans as
ĠG ore
Ġun able
Ġpr isons
ĠD utch
Ġco vers
ang ed
ound ing
Ġro pe
Ġro cks
Ġcont ag
Ġlot tery
ĠF rom
Ġreal istic
Ġbr ows
Ġgen u
Ġtra gic
Ġown ed
Ġcour ses
Ġdr own
Ġmon keys
cy cl
ogr am
Ġsoci ally
Ġrest rict
Ġmark er
Ġloc ations
Ġcontin uing
Ġ7 00
Ġ8 00
ats on
Ġfail ures
Ġoper a
Ġsaf er
Ġtrad itions
els on
Ġemb od
Ġciv ic
Ġapproach es
Ġarchitect ural
ev in
ug al
Ġmain stream
Ġast eroid
ĠZ eal
Ġcompet e
Ġreact ions
Ġdiv or
Ġdiv ision
Ġrid ing
ĠSw iss
Ġwhe els
Ġhop es
Ġpack ed
Ġmathem atic
Ġthrow ing
Ġoffic er
ĠOr gan
Ġdimens ion
ett i
iber ia
Ġrecon struct
Ġsymbol s
Ġpair s
Ġclimb ing
Ġvolunte er
Ġcorpor ations
Ġexpert ise
Ġsatell ites
Ġnutr ients
Ġagre ement
Ġmosquit os
Ġanalog y
Ġimprov is
Ġshr imp
ĠSu per
Ġbarr ier
Ġbarr iers
Ġconstrain ts
Ġtrig ger
Ġcous in
Ġexplos ion
Ġsurf aces
Ġcolum n
ĠNG Os
ĠIndones ia
ĠCamb od
C L
G e
G lobal
L ife
c ol
i op
i ating
t ra
v a
v ille
w orking
Ġth ylac
Ġa ugment
re al
Ġs ulf
os ity
an ghai
Ġd ownt
Ġin n
Ġin her
ed s
ed ge
Ġl anes
ot ed
Ġg athered
ve mber
ut an
qu is
Ġst ead
ro ad
if er
if ty
Ġan at
ad ed
Ġr ivers
Ġr ape
Ġlo ving
Ġsp ider
Ġtr iv
ĠS ou
ĠC ould
ĠC yrus
ĠM od
ĠM el
Ġsu ck
iz z
iz er
Ġle an
ĠB el
Ġman if
ĠH ill
ĠT it
ĠT el
ĠG et
Ġcl ue
Ġpr ide
ĠN et
ĠN ature
ass es
ep her
ens es
ĠR iver
ict or
int erest
Ġwr ap
Ġgen oc
Ġtra ject
Ġown er
Ġsim ulation
Ġins ane
pe are
Ġob t
Ġinter ventions
Ġstr ip
Ġ19 30
Ġpat ents
Ġread ers
Ġpartic le
Ġcou p
Ġform al
Ġconnect s
bo o
Ġprof ile
Ġkill s
Ġcond oms
uck s
ĠNo vember
Ġinvest ing
Ġaud iences
Ġda wn
Ġbreak s
Ġinclud ed
ĠAs ian
Ġaffect ing
Ġsil k
Ġimm ense
akes peare
Ġreport s
Ġstrateg ic
Ġdom ain
Ġpack age
Ġsch olars
Ġcalcul ations
Ġjump ed
Ġmagn ific
Ġinterview s
Ġapply ing
Ġhistor ic
Ġmotiv ated
Ġfold ing
Ġcand y
Ġteen ager
Ġindepend ence
Ġairpl anes
Ġban king
Ġmeas ures
Ġsurge ons
Ġdiction aries
Ġofficial s
Ġtow er
Ġpal m
Ar t
bur gh
Ġfortun ately
Ġhorm ones
Ġhunt ing
Ġarrest ed
Ġwhist le
Ġacknow led
Ġadoles cent
Ġprost ate
ĠCount y
Ġclus ters
ĠRos ling
ĠCarol ina
quar ters
Ġunbelie vable
Ġenth us
dig it
Ġpandem ic
ĠDV D
ĠBron x
Ġendang ered
Ġgenu ine
ĠZeal and
C ar
a ware
l aw
n ut
p ress
Ġt ale
Ġth resh
Ġo ct
Ġs ir
Ġs co
Ġc ub
Ġh ors
Ġh ometown
Ġf iber
Ġf isher
Ġd rought
or ic
Ġin hab
Ġg ained
Ġre ass
Th ird
im al
Ġst amp
Ġdo od
out s
ill ance
Ġne ck
Ġne oc
il ized
Ġso ap
Ġj ew
ĠA v
Ġal b
Ġsp o
Ġsp ray
ĠS om
ĠS anta
ort ed
ĠC our
Ġsa ke
Ġsa il
Ġsa cred
reat ing
Ġper pet
Ġman ual
ach ing
Ġhapp ily
ĠE s
ĠP rof
Ġover l
Ġbu cks
ep ing
Ġshe ets
Ġpo ckets
ĠR ome
ĠR oy
co ver
ĠF ar
ĠF our
ĠW al
Ġsy ndrome
ĠO cean
ĠJ ose
ĠJ ud
ĠJ osh
Ġsc aff
Ġmay or
Ġtra il
ĠCh ile
ob s
Ġfound ations
Ġstr ict
Ġmin i
Ġed itor
Ġter rain
Ġdem os
Ġdem ographic
Ġsub way
Ġinf ant
Ġcap abilities
Ġform ing
Ġhead ed
Ġaut istic
Ġtop ics
Ġeduc ate
Ġcult iv
ĠInd ustrial
Ġbeautif ully
Ġexc l
Ġcollect ively
Ġvir al
Ġparent ing
Ġtyp ing
Ġfall en
ĠSh anghai
Ġdest iny
Ġste pped
Ġmar g
Ġmedic ation
Ġblind ness
Ġprim itive
Ġec ological
Ġsmell s
Ġdrop s
la im
Ġmagn et
Ġrespond ing
Ġshock ed
Ġclassroom s
Ġteen age
Ġpig s
Ġgun s
Ġcooper ate
Ġbul let
Ġelement ary
Ġtransm ission
Ġsimpl est
Ġinstall ed
Ġgod s
Ġju ice
itz er
Ġoverwhel med
Ġestim ates
ĠTEDTalk s
iat ric
Ġdesper ately
Ġcorresp ond
ĠIce land
Ġexcell ent
Ġlifes pan
Ġpyram id
Ġlun gs
Ġmarath on
Ġglimp se
Ġmycel ium
cycl op
B A
B C
B I
D e
N e
T ED
a way
b orn
c ure
e ffic
g ence
g ression
n es
u ke
u ber
v ia
Ġt ies
Ġw ires
Ġs ib
er on
Ġb ure
Ġf ate
Ġf its
Ġd op
Ġd ys
Ġd umb
ar ry
Ġg orgeous
ic it
Ġn est
ur ger
Ġst om
Ġst aring
Ġst unning
se en
ir ts
st ar
Ġse w
Ġsh y
Ġhe al
Ġch ess
Ġde ar
Ġpro ven
Ġcon vey
Ġal le
Ġal ign
Ġint ensive
ĠC oll
ĠC oke
ag os
Ġexp licit
ĠB ob
ĠH i
ĠH ong
ĠE th
Ġcl iff
Ġpr ose
ĠD oes
Ġco inc
ber ry
Ġam bit
ĠR ock
ĠW atson
ĠJ uly
ne ys
Ġtra ce
Ġapp s
Ġra cing
Ġcr iter
Ġrel iable
Ġstr anger
ĠSt ud
Ġmod e
conom ic
Ġ5 5
Ġsub t
ĠV ictor
Ġsign ature
ott on
Ġprof its
Ġadv ent
Ġmess y
Ġinvest ed
Ġsaf ely
Ġfriend ly
Ġpsych ologist
Ġsurv iv
Ġcy cles
Ġdead ly
Ġsum m
Ġcamp s
Ġfire flies
Ġworth y
Ġtransform ing
Ġmar ry
Ġmar vel
Ġrepresent ative
Ġchalleng ed
Ġmechan ics
Ġbacter ial
Ġgraph ics
Ġswe at
Ġpan el
Ġdeterm ines
Ġlands capes
Ġport ion
Ġachieve ment
Where as
Ġhonest ly
Ġcover ing
Ġnut s
Ġhistor ically
Ġsexual ity
Ġing en
Sh ould
ĠSc ot
ĠCon f
Ġexer c
ĠEvery body
Ġsimpl er
Ġchann els
Ġconcentr ation
forest ation
uls es
Ġcourage ous
Ġteles copes
ĠWill iam
ĠTur k
Ġinit ially
Ġcandid ates
Ġcyber cr
Ġelectro des
Ġdiscipl ine
Ġgest ure
ĠAtl antic
Ġportra it
Ġoccasion ally
Ġaband oned
Ġmyster ious
Ġorchest ra
ras ound
Ġhalluc inations
Ġcab in
Ġsupermark et
Ġexpans ion
Ġlin ear
Ġaggress ive
ĠCath olic
epher d
A f
T w
a eda
c a
c ost
o ir
r hythm
s pring
u an
Ġthe ore
Ġthe ories
Ġs ons
Ġs lic
it ated
os c
Ġm apping
Ġp ills
Ġf ancy
or age
us al
us iness
Ġre wards
Ġst ake
ch ing
ch anging
if ul
Ġab ilities
Ġse al
Ġsh it
Ġwor ms
ul es
Ġch am
Ġsom eday
Ġcon qu
Ġcon gest
ĠS and
el p
ĠM ag
Ġwork force
Ġcomp reh
Ġle verage
ĠB re
ĠB ell
ĠH ollywood
Ġag ents
ĠG lobal
Ġcl ues
Ġcl ient
ĠP ower
Ġimp ression
lo oking
Ġcont rary
ĠR am
Ġbo ost
Ġbo ots
ĠW ait
Ġshow er
other ap
ĠJ ac
Ġwr apped
Ġsc ales
Ġfind ings
we ight
Ġra ises
Ġcr ush
Ġcr iminals
av a
Ġbuild s
Ġgu ilty
Ġob ese
Ġbelie ving
Ġke ys
Ġcar ries
Ġinter ven
Ġstr ike
pl us
Ġmin es
Ġgra ve
Ġgra ce
Ġgra bb
Ġla ke
Ġbus h
Ġ4 6
Ġbi o
Ġvis ually
Ġpass es
rib ly
Ġmoment um
Ġinteresting ly
Ġstop ping
Ġbad ly
Ġbre eding
Ġche at
Ġdeep est
Ġengine ered
omet er
ĠSh akespeare
Ġred esign
Ġpsych ologists
Ġsuggest ion
Ġbra nds
Ġprop ose
Ġprop ag
Ġprop osal
Ġimm ort
Not hing
Ġcompet ing
Ġcompet itive
ĠLe on
Ġinstitut ional
Ġdam aged
Ġappear ance
Ġenj o
Ġwild life
Ġfra ction
Ġdiscover ing
Ġcorru pt
Ġinterview ed
Ġphysic ians
ĠSte wart
Ġinj ured
Ġresist ant
Ġgentle man
Ġbatter ies
thes ia
Ġcontribut ion
Ġtum ors
Ġtal ents
Ġshel f
Ġpurs ue
Ġexhib it
Ġrepl aced
Ġmanip ulate
Ġmushroom s
Ġhoriz on
Ġhoriz ont
Ġbombs ight
stand ing
Ġembarrass ing
Ġmim ic
Ġrecyc led
Ġneut ral
Ġdisturb ing
Ġintrig uing
Ġcoun sel
Ġperm ission
Ġlegis lation
ĠTasman ian
Ġhelicop ter
Ġlux ury
Ġunh appy
Ġincor por
Ġpige on
ĠAbra ham
Ġsimult aneously
ĠDetro it
Ġgenoc ide
Ġmagnific ent
Ġambit ious
Ġcriter ia
C H
K e
N C
N ever
S ame
U ntil
a o
c ation
k ind
m un
r it
r ats
s ized
Ġt ie
Ġa we
Ġs ne
Ġs ale
er als
Ġb ills
Ġh ated
ar ge
Ġg aps
ic ient
ĠI BM
ut s
Ġre nder
ur able
th eless
ust ing
Ġj an
Ġj ar
Ġde cent
Ġde af
Ġr ose
Ġv en
Ġv enture
Ġout d
Ġout rage
ink ing
Ġsp an
ĠS er
Ġsee king
Ġup side
ĠC ont
ĠM at
ĠM aybe
are st
ach er
ĠT ib
Ġbu ff
lo ved
ĠL ou
Ġsy ring
Ġreal m
ak en
Ġpre vention
Ġoff spring
Ġgen omes
ons ider
Ġhuman itarian
Ġtra cks
Ġsystem atic
Ġsystem atically
Ġcol ored
Ġfl avor
Ġfl ows
Ġ3 7
Ġinst ruction
Ġmod est
Ġ19 00
Ġplan ned
Ġla wn
Ġrec re
Ġrec laim
Ġrep licate
Ġhard est
Ġcap ability
Ġhead ing
ier ra
Ġreason able
Ġ200 2
ĠNew s
ĠNew ton
Ġanswer ing
Ġfree zing
cc oli
Ġmot ors
Ġdemoc rat
Ġterr ified
unt ing
Ġvers ions
com puter
Ġstat istic
Ġhar bor
Ġvac uum
Ġtruth s
Ġimm ers
ĠZ imb
Ġstra w
Ġdefin ing
Ġmicro phone
Ġcompassion ate
Ġconscious ly
Ġep is
Ġauthor ities
Ġwebs ites
Ġdetect ion
Ġconcer ns
ĠGe ographic
ĠAm y
Ġfra gment
imp s
Ġenjoy ed
Ġphysic ists
Ġcustom er
Ġann ual
Ġdoub led
Ġsurve illance
Ġcru el
li hood
Ġregular ly
Re ally
Ġsucceed ed
Ġastron aut
Ġgrain s
Ġlimit ations
ĠJe ff
Ġconduct ed
Ġextend ed
Ġminim um
Ġdolph in
Ġinev it
Ġreprodu ce
Ġfright ening
Ġlabel ed
Ġobser ved
Ġencoura ged
ĠSat urn
Ġacknow ledge
ĠMont ana
Ġcontrovers ial
Ġbeet les
Ġtwe et
Ġabsor b
ĠLad en
Ġtro ops
ĠSing apore
Ġdynam ics
Ġaes thetic
Ġexped ition
ĠTan zan
Ġgras p
ĠQue en
Ġgrocer y
Ġhybr id
Ġcyl inder
ĠVirgin ia
Ġdownt own
ĠSou thern
Ġtraject ory
Ġthresh old
1 00
B ill
B oth
D r
M S
c in
f ire
h al
l an
l ers
p erson
r ist
w orld
y er
Ã ¡
Ġ +
Ġa unt
in em
Ġw ard
re tty
Ġc ube
it ative
Ġb lob
Ġh ired
Ġd irt
or ious
Ġin ex
Ġin mates
ot ing
Ġg el
Ġn erves
Ġbe nd
Ġbe ef
Ġre vel
im a
im ag
ur day
Ġst orage
ere nt
Ġsh out
Ġsh aking
ter ing
Ġus eless
Ġlike lihood
um ble
Ġv ary
Ġv ivid
ĠA lp
ĠA udience
It s
ie ve
ie ce
ĠS pe
ĠS ee
Ġsee mingly
Ġact ively
ĠC ur
ĠM ary
ĠM ike
act ive
ĠB oy
ĠT un
ĠT ime
Ġun st
Ġtw ins
Ġover se
Ġdis asters
Ġpo le
ĠL ee
Ġac ids
Ġres olution
Ġher itage
ĠW il
Ġgr amm
ĠO l
Ġinc l
ĠU SA
Ġcount ing
Ġtechn ically
ĠK y
ail s
Ġhelp less
Ġunderstand s
Ġrel ation
Ġcell ular
Ġmin us
Ġcomput ational
Ġfar ms
Ġproject ions
vers ion
Ġbi ologist
pr il
Ġinf l
Ġinf lation
Ġnight m
Ġche ating
Ġcontin uous
Ġadv ances
bs olut
Ġca ves
Ġfund ra
Ġexpect ing
Ġinvest ments
ĠAr istotle
Ġill usions
Ġpred iction
Ġtem por
Ġcal c
Ġsqu ee
Ġsum mar
ann a
Ġvac ation
Ġcivil izations
Ġvol can
Ġplant ed
Ġmedic ines
Ġperiod s
Ġmeth ane
Ġextraord inarily
Al though
Ġauthor itarian
Ġassum ed
Ġassum ption
Ġjud gments
Ġearl iest
Ġrap ed
Ġreflect ion
Ġrandom ly
fact ion
Ġdiscover ies
Ġlog ical
Ġtherap ies
Ġvot ed
Ġepide m
uild ing
ĠEgypt ian
Ġopin ions
Ġsubst ant
Ġsculpt ures
Ġincent ive
Ġconstruct ed
Ġlect ures
Ġoverwhel ming
Ġmak er
Ġencoura ging
Ġregard less
ĠSat urday
Ġestablish ed
dr iven
Ġbrib e
Ġben ch
Ġabund ance
Ġicon ic
Ġstri king
ĠSil icon
Ġsuppl ies
agh etti
Ġhier archy
onge vity
Ġlone ly
Ġrecess ion
Ġrehabil itation
Ġclot hing
ĠCour t
Ġdop amine
Ġstom ach
otherap y
B J
G et
W K
i ologist
i atr
l og
n ie
t ent
u ction
v iron
z ler
Ġa h
in th
in come
Ġw ins
at ics
at ts
Ġh ob
or r
Ġin du
Ġl ongevity
ar l
ar ians
ic an
ay ing
ig ma
Ġst air
Ġfor b
am il
ol en
Ġsh ips
Ġsh ifts
ad ian
ul ance
Ġj aw
Ġlo ose
ind a
Ġsp are
Ġsp aghetti
Ġtr apped
her om
Ġcomp ound
Ġen zy
ĠB u
ach el
ĠT im
ĠP op
Ġar bit
ry pt
Ġdis ability
Ġkind ness
ru ption
ell ed
ĠR em
Ġher d
ĠW atch
ĠW right
Ġpre v
ath em
Ġinc ar
Ġbr idges
Ġinv olving
ĠK ir
ew is
Ġhigh way
az a
Ġmed itation
Ġcare s
Ġcomput ation
Ġbi od
Ġvis ions
Ġvis cer
Ġcur ves
Ġeas iest
ograph ical
Ġamaz ed
Ġself ish
Ġret ail
Ġsec ular
Ġappro ved
Ġname ly
Ġemp owered
Ġwind s
Ġmic r
Ġcut s
Ġcal m
Ġcool ing
Ġapproach ing
Ġcamp us
Ġorig ins
Ġfavor ites
Ġprop osition
Ġtouch ing
Ġult rasound
Ġrece iving
Ġattack ed
St ud
With out
amm ad
Ġfant asy
ĠDe velop
Ġremark ably
Ġ199 9
Ġinfect ions
Ġdiscuss ions
Ġdetect or
Ġunivers es
Ġtemper atures
enn is
Ġcalcul ated
Ġassoci ate
Any one
Ġphenomen a
Ġwood en
Ġinj uries
Ġdocument ary
Ġfat al
ĠMexic an
Ġblog s
Ġswitch ed
Ġcorrect ly
Ġreplace ment
Ġfrequ ently
Ġinstall ation
ĠMo ore
Ġpartners hip
Ġmill enn
Ġaccom pan
Ġbelong s
Ġintr ins
Ġinform ed
Ġtoile ts
Ġingred ient
Ġenem ies
Ġscen es
ĠPark inson
bur g
ĠCo ast
ĠGree k
Ġvoc al
Ġassign ment
Ġreject ed
oli ath
Ġbeet le
ĠHaw ai
Ġtoler ance
ĠGand hi
Ġimpress ive
Ġtatto o
ĠTes zler
ĠDel hi
Ġnonviol ent
Ġcatast roph
Ġchimpanz ees
Ġmur der
Ġmonit oring
abul ary
ĠBrook lyn
Ġimprovis ation
C A
H uman
M us
M ark
P T
R ather
T S
a ire
j a
m ate
n ik
o en
p age
r r
u ously
Ġt s
Ġt urb
Ġt angible
Ġth us
in ery
re ens
Ġo ven
Ġb am
Ġb ang
Ġb other
Ġm ast
Ġm ask
Ġh int
Ġto ast
Ġp ulse
Ġp herom
or ough
Ġl ists
ot ect
Ġy east
as king
Ġn ode
Ġbe loved
ent er
Ġst olen
ro ve
op us
st orm
ol um
th als
Ġse as
Ġsh red
Ġsh epherd
ad ium
ill as
il ation
Ġfr ames
Ġch ains
Ġr h
Ġr ip
Ġor ang
Ġkn ife
ort ion
ĠC amp
ĠM ur
ĠM ama
og y
ast e
Ġwork place
iz a
Ġen abled
Ġexp osure
ĠB osn
Ġman ner
Ġman aging
ĠH all
ĠH uman
ach es
ach ine
ĠT re
ĠT ah
ĠN elson
Ġover head
Ġco verage
Ġdis g
ens us
Ġro les
ĠL in
ult y
ĠR and
Ġbo nd
ĠW o
Ġreal ization
Ġide ology
Ġpre par
ĠJ ord
Ġapp les
Ġbl ah
Ġ3 50
Ġart ic
Ġent ry
Ġent ering
Ġstr ings
Ġatt itudes
Ġsmall est
Ġgener osity
Ġ4 4
Ġsub m
Ġpass ive
Ġinf er
Ġform at
ogr ams
Ġval ley
Ġpolit ician
Ġprogram mers
Ġfollow s
Ġemp ath
ĠAr gent
Ġpract icing
Ġbro ccoli
Ġcommunic ating
Ġfilm maker
Ġwin ner
Ġconv icted
Ġap olog
Ġprofess ors
Ġpredict able
Ġlif el
Ġcross ed
Ġunf air
ĠSw itzer
Ġ201 2
Ġnarr atives
Ġsignific ance
Ġhop eless
fr am
Ġcorre l
yl on
Ġpen is
Ġtrib al
Ġ198 4
Ġworry ing
ĠSp ain
Ġdestro ying
Ġintegr ate
ĠCl int
Ġoccur ring
ĠiP ad
ĠChar lie
Ġscan ning
ĠMin istry
Ġdomin ated
Ġund erest
cop ic
Ġresc ued
gra du
Ġisol ation
Ġprivile ged
Ġconfront ed
Ġestim ated
Ġauton omy
Ġaccompl ish
Ġaccompl ished
Ġvoc abulary
Ġelev ator
vas ive
Ġelimin ate
Ġrefriger ator
Ġchromos omes
ĠFre edom
Ad am
Ġpleas ant
Ġinh ib
ĠDis ney
Ġglaci er
Ġeleg ant
ĠWol fram
Ġjelly fish
Ġjew el
ĠProf essor
cyclop edia
ĠTun is
Ġoverse as
ĠSwitzer land
A cc
D uring
H alf
N ew
R es
T en
U nder
g ian
l or
m ind
p os
r in
Ġw rest
Ġo l
Ġc able
Ġc ope
Ġb ats
Ġm ild
Ġm apped
Ġm esh
Ġh ut
Ġp ad
Ġd ens
Ġd ile
Ġd rew
Ġin ch
ar on
ot on
ĠI re
Ġe co
Ġis lands
Ġre nt
ct ive
Ġha mb
ur ning
ch ed
ch ron
se x
Ġwas ted
am an
Ġcan cers
Ġcan vas
Ġsh ore
Ġsh ots
ad o
ul ative
il ated
Ġfr uits
Ġj e
Ġj et
Ġde forestation
um bs
Ġlo go
Ġkn ees
ĠA pril
Ġint act
Ġint ended
ĠS ierra
Ġpl ates
Wh atever
ĠM et
ĠM ond
iz ab
Ġcomp aring
act ic
ack s
Ġta bles
Ġle ver
ĠB h
ud i
ĠH on
Ġun w
Ġun le
ĠD es
ĠN ether
Ġshe er
ĠL ine
Ġac cent
Ġam pl
ĠJ ones
ful ness
ĠU s
Ġsc rew
Ġob so
Ġ3 8
Ġbas king
ĠIt alian
Ġcons p
erg y
Ġplan es
Ġ4 8
Ġreg ulations
Ġpass ions
Ġconf ig
Ġcor ners
ĠV ery
ĠAfric ans
ĠTED Global
Ġdef ault
Ġresearch ing
Ġadd iction
Ġside walk
Ġequ ations
Ġcond om
Ġamazing ly
Ġdep os
ĠAr thur
Ġnorm s
Ġliter acy
Ġz ones
Some one
Ġsqu ared
ustain able
Ġocc urs
Ġobs ession
Ġmeasure ments
Ġdest ination
Ġaw ake
Ġtext ure
Ġpath s
Ġfem inist
Ġgraph s
Ġclos est
Ġpan ic
Ġpan creat
Ġsch ed
Ġthr ive
Ġreflect ed
Ġroll ed
Ġrespond ed
Ġdiagn ost
Ġpark s
Ġblock ing
Ġhonest y
Be ing
Ġshift ed
Ġautom obile
Ġwood s
Ġdocument ed
Ġmut ations
Ġjournal ists
ĠCol umb
Ġtens ion
Ġphilosoph ical
Ġattract ed
Ġaccur acy
Ġembra cing
Ġbound ary
Ġquant ities
Ġalt ered
Ġur ge
Ġadop ted
Ġsympt om
uh ammad
Ġsan itation
gra de
Ġlapt ops
Ġinterpret ation
Ġconsist ent
Ġspin ning
Ġproced ures
Ġmetabol ism
Ġcous ins
Ġment or
Ġregener ate
ingu ish
Ġped est
Ġbran ches
Ġchromos ome
opard y
Ġpupp et
Sim ilar
enh agen
thet ics
EC D
ĠNeander thals
Turn s
ĠPalestin ian
Ġod or
Ġdiscr imination
ĠLeban on
ĠCambod ia
Ġmanif est
Ġoct opus
Ġsib lings
Ġbure auc
ĠEth iop
Ġcongest ion
ĠTanzan ia
bsolut ely
Ġcalc ulation
Ġincar cer
Ġbiod iversity
Ġts un
Ġprepar ation
Ġdile m
izab eth
ĠNether lands
Ġpancreat ic
C ola
D esign
b ow
d a
e ffect
i kes
r ip
t z
x imately
Ġt iger
in ent
in ity
Ġs ands
Ġs izes
at ical
er k
Ġc age
Ġc ale
is a
Ġm entally
Ġh urd
Ġp orn
Ġp iles
Ġf ounder
Ġd are
Ġd ating
or ient
or ters
Ġy ards
Ġwe lf
Ġst adium
ere r
ro c
ro id
if act
am med
Ġan ge
Ġan ten
Ġse venth
Ġsh irt
ad el
Ġcom ic
Ġex cess
Ġch at
Ġpro ph
est one
Ġlo yal
ĠA gain
Ġsp erm
ĠS ub
ĠS ky
ain e
em an
ose xual
ab we
Ġexp on
ĠB ern
Ġdon ors
res ist
ĠH ad
ĠT ed
ĠE v
Ġar ter
red ict
ĠN az
ass ive
ac re
rain ed
olog ic
ĠL ak
ĠL isten
ple te
Ġunder m
Ġres ur
ĠR oss
Ġdes cend
Ġbo ats
ĠF ed
Ġgr oss
Ġcomm ission
Ġinc om
Ġcount ed
Ġsc ans
igh th
Ġbl ur
Ġbl ess
Ġrem ix
Ġlong est
Ġend e
Ġtrans ist
Ġrel ief
Ġprodu cers
Ġinter ior
Ġart ifact
Ġfam ously
Ġ20 30
Ġext inction
ific ations
Ġread er
Ġcare d
Ġexpl ores
Ġrep ut
Ġteach es
Ġreg rets
Ġcou ch
Ġchar ged
Ġsw allow
Ġfriends hip
Ġpay s
Ġabs ence
Ġmass es
Ġmass ively
Ġarch ive
Ġsens ation
Ġvar iable
Ġlow est
ĠSh ow
Ġtem ple
sh ah
Ġconsum ed
Ġpath ways
Ġtele com
ĠPh ot
Ġrich est
Ġactiv ists
Ġexcept ions
ĠSe a
Ġmagic ian
Ġapart ments
Al most
ĠDe f
Ġcollabor ate
Ġperspect ives
Ġ13 0
yl via
Ġreflect s
Ġjump ing
Ġsquare s
Ġsym p
Ġeth ic
Ġsequ ences
Ġcelebr ity
Ġexh a
Ġselect ed
Ġelectr ons
Ġlaugh ed
ĠPar liament
Ġtax es
Ġbeat en
Ġemotion ally
Ġhack ing
Ġtom ato
Ġamb ulance
Ġaccur ately
Ġforg ive
Ġmuseum s
ĠNor we
Ġstream s
Ġbud gets
Ġillustr ates
Ġprior it
Ġveget able
Ġtal ented
Ġalt ru
Ġalt itude
Ġstim ulation
Ġpow ered
Ġtow el
Ġcos mic
ĠBro ad
Ġeleph ants
Ġpip eline
ĠGree ce
Ġmetabol ic
Ġentrepreneur ial
cript ions
Ġhel met
ĠCop enhagen
ĠJer usal
Ġasp ir
Ġauthentic ity
ĠAlex ander
Ġirr ational
Ġdiplom acy
ĠSec ret
Ġadminist ration
Ġastronom ers
Ġstereoty pes
ĠSyr ia
Ġweeke nd
Ġobserv ations
Ġpubl ishing
Ġmembr ane
Ġembod ied
ĠOrgan ization
Ġtriv ial
ĠJosh ua
Ġscaff old
ĠZimb abwe
Ġinevit ably
oen ix
ĠClint on
Ġobso lete
Ġcale nd
ĠJerusal em
C on
J H
P ut
P aul
a que
b ar
b ul
f unction
l ow
m es
p ers
p read
p owered
r ane
t t
u per
Ġt id
Ġth read
in able
in ating
in ational
re p
at ories
er os
er ving
Ġc ows
it u
Ġb inary
Ġh eter
Ġto ll
Ġp atch
Ġp estic
Ġf er
Ġf ract
Ġd y
or se
or ph
Ġl oses
Ġl ingu
ot es
Ġy og
Ġg er
Ġn u
Ġn ap
ut en
ver ts
op les
ol ine
Ġse ats
Ġsh ops
Ġso vere
Ġex otic
Ġex agger
Ġex quis
Ġde br
Ġr ib
Ġr ank
Ġus age
Ġpro ceed
ear t
Ġor ph
ĠA ge
Ġint ric
ĠS k
ĠS al
Ġthink ers
Ġby pass
iv a
ĠM uhammad
og er
ous es
Ġen vel
Ġen light
Ġle x
ĠB ud
ĠH an
ĠH ir
ĠH ol
iff erent
Ġun ve
Ġpr imate
ĠD i
Ġar ise
Ġco at
Ġbu gs
Ġbu zz
orm al
ang le
Ġmo ld
ĠL ord
ĠL ester
Ġcont am
Ġres ident
ĠR ad
ĠF ree
ĠO ut
ĠO oh
ĠO ECD
ĠJ ill
ĠJ ane
ors hip
per form
Ġdec ides
te en
Ġtra ces
ĠCh e
Ġind ex
ian a
Ġrem itt
Ġshould ers
ub a
Ġfl aw
Ġtrans it
Ġrel ates
Ġrel atives
Ġcar p
Ġdr unk
ĠAnd rew
ween ey
Ġsl ower
Ġ19 2
Ġbeh alf
Ġfar ming
Ġter ribly
Ġdem ograph
Ġ4 2
Ġreg ist
Ġprocess ed
Ġsub mit
Ġpass age
Ġcho ir
Ġconnect ivity
Ġreason ing
io v
Ġgirl friend
Ġmach inery
Ġpos ters
Ġpar ach
Ġpast e
Ġ9 6
Ġhuge ly
Ġmust ache
Ġsex ually
Ġcra cks
Ġfail s
Ġill um
Ġsens ing
Ġarg ued
Ġstay s
Some body
Ġemb ry
Ġmult inational
Ġrele ases
com ing
Ġpur ple
Ġer otic
Ġtrust ed
Is n
ĠLe one
Ġball s
Ġmarr ow
Ġvisual ize
Ġest ate
Ch ris
Ġclean ing
Ġintrodu ction
Ġvirt ue
ĠJohn ny
Ġinfect ious
Ġluck ily
Ġhop ed
ĠChrist ians
Ġmir acles
ĠRe ally
Ġprevent ing
Ġintegr ation
Ġmut ual
Ġvot ers
Ġremote ly
Ġcontribut ed
Ġdan cers
Ġterror ists
Ġantib odies
Ġgold en
Ġconcentr ated
ĠMo z
Ġplatform s
Ġmill imeter
Ġmaster y
Ġrom ance
Ġreform s
Ġnegot iate
Ġweak ness
Ġacqu ired
Ġanx ious
bre ak
cont rolled
Ġfright ened
Ġmel ting
Ġobser ving
Ġlift ed
Ex cept
Ġsem i
Ġcontrovers y
olit an
Ġrecyc ling
Ġportra its
Ġtort ure
Ġabund ant
ĠOlymp ic
Ġminor ity
Ġsle pt
Ġna ive
Ġveter ans
Ġwarr ior
Ġunp redict
engine ering
Ġcas ual
Ġfavel as
Ġgeomet ry
Ġstead y
Ġinhab it
effic ient
ĠLeon ardo
Ġenjo ying
ĠTib et
Ġstair case
Ġviscer al
ĠIre land
Ġwelf are
shah idi
Ġenvel ope
A K
A S
B et
C ol
F G
M ich
b led
e lect
g on
i ations
l ades
m atic
r ays
w andering
Ġt iles
Ġo oh
Ġs od
ou red
Ġc otton
it ic
Ġb ore
Ġm it
Ġm ater
Ġm erg
Ġh ipp
Ġto es
Ġf is
Ġf ence
Ġin se
Ġl ump
ot ter
le vant
ll i
Ġn ic
Ġn ud
Ġe ats
Ġbe lly
ur a
ig en
Ġst igma
ke ley
if ies
op a
Ġan ec
ol n
th irds
ra h
ra w
Ġse nds
Ġas semble
Ġsh ining
Ġsh oe
Ġhe y
Ġme ets
Ġat om
Ġj ung
Ġr ays
Ġr hythm
Ġpro l
Ġpe ers
Ġpe oples
art en
um or
ok yo
Ġlo an
Ġma c
un es
Ġint ensity
ĠS pring
ĠS MS
ĠS weeney
ci ety
ĠC ons
ĠC oun
ĠC oca
em on
em ical
our ced
ĠM er
ĠM ir
ĠM any
Ġcomp ounds
Ġle opard
Ġexp ressed
ĠB i
ĠB as
ĠB ert
Ġper se
ĠH omo
ĠG oliath
ĠE mp
Ġcl ips
Ġpr on
ĠD al
ĠD ub
olog ies
ĠL ang
ĠL ake
ĠL ama
Ġac oust
Ġunder gradu
Ġres idents
ĠR on
Ġdes erves
ĠF ive
ĠW ater
ank ton
ĠU N
Ġsc reens
be es
ĠCh ildren
Ġbl owing
Ġcreat or
ĠK im
ĠK evin
Ġend less
ail and
Ġnever theless
Ġcons cience
Ġfam ine
Ġent r
oc ative
ĠSt one
Ġsl ip
ph ia
Ġgra v
Ġla und
Ġed it
Ġgener ic
Ġexpl ored
Ġproject ion
Ġear ning
Ġreg ul
Ġbi olum
Ġsk i
Ġsol o
Ġhead line
Ġdist ances
Ġeas tern
Ġref use
Ġpublic ly
ĠâĢ ¦
cul osis
Ġdep art
Ġexpect ation
Ġris es
Ġalong side
Ġland ing
Ġrev olutions
Ġdream ed
ides pread
gen er
Ġexperiment ing
Ġwin ners
Ġfeed s
Ġrisk y
Ġopt ical
Ġfem in
Ġsuff icient
Ġcop ies
Not ice
ĠPh oenix
Ġvisual ization
Ġaccount ing
Ġsea f
Ġneg lect
Ġparticip ating
ĠSe cond
umb ling
Ġec ology
Ġdetect ed
Ġcapt ain
soci ation
Ġ14 0
Ġsyn chron
ĠCar l
Ġsurger ies
Ġshap ing
Ġcard iac
Ġdemonstr ated
Ġheav ily
Ġinnov ate
Ġdro pping
Ġoppos ition
Ġfold ed
ĠQ atar
Ġtarget ed
Ġcatch ing
Ġadapt ation
Ġanaly zed
Ġdispl ays
Ġblog ging
Ġorg asm
Ġmagaz ines
Ġprior ity
Ġappe al
Ġpresident ial
ĠSwed ish
inc oln
ĠDan iel
Ġharm ony
Ġgrad es
ĠBang lades
ĠGreen land
ĠPhil adel
Ġscar ce
Ġsatis faction
Americ ans
ĠBer keley
ĠJew s
Ġcontem pl
Ġstorm s
ĠEve rest
Ġadoles cence
Ġbran ch
Ġdeploy ed
Ġpour ing
Ġiniti ative
ĠSec urity
Ġparas ite
ĠBab ylon
Ġtextbook s
Us ing
Ġdefe at
Ġdism iss
Ġschem e
Ġsusp icious
Ġclar ity
Ġanes thesia
Ġrecru it
Ġbrut al
Ġcath ed
Ġphilanthrop y
Ġcigaret te
Ġfung i
Ġdelic ious
Ġbrows er
Ġalb um
uber culosis
PT CH
mind ed
ĠMond ay
Ġtsun ami
Ġanec d
ĠCoun cil
Ġbiolum ines
ĠPhiladel phia
7 0
C C
F r
G u
G ive
H C
H i
M ake
S m
S upp
U p
b ie
b ucks
c ons
e u
f ive
i ro
j ud
m ail
p ack
p iece
s p
y on
Ġt ut
Ġt ide
Ġt uberculosis
Ġth y
Ġth ro
Ġth orough
in burgh
Ġw est
Ġw idespread
Ġo v
at oes
Ġc um
Ġm ud
Ġm ature
Ġm ixt
ap agos
Ġp it
Ġp ound
Ġf ans
an while
Ġd ome
al i
Ġl os
ar in
om in
ĠI g
Ġe go
ur os
Ġst ressed
am ie
Ġse ctions
ation ally
Ġli ps
Ġhe ating
Ġj ack
Ġch ase
Ġde ck
Ġcon j
ist ory
Ġv ag
Ġv ice
ĠA fter
Ġal ert
Ġal ike
Ġal arm
Ġint imate
Ġsp at
ĠS us
ĠS ur
iv il
our cing
ĠM all
iz ational
Ġle gend
Ġexp ort
Ġman kind
ĠH am
ĠH osp
ĠH ung
ĠT en
ĠT emp
ĠT okyo
ĠG il
ĠE conom
ĠP ers
ount ered
Ġro d
Ġro de
ĠL uther
ĠL incoln
ber ty
Ġbo nds
ĠF ore
ĠF ort
Ġgood bye
ĠW i
ĠW ay
int u
ĠO s
ĠU p
Ġcount s
Ġdec or
Ġtra it
Ġlet hal
Ġcr ank
ĠK ong
he ld
ob i
Ġkid ding
Ġcons ensus
Ġimag ining
oc racy
ĠSt ephen
ĠIn ter
Ġdevelop ers
Ġnum er
Ġpat ience
Ġser ves
Ġmet als
Ġgener ates
Ġcomput e
Ġreg ister
ĠSo cial
arr he
Ġpres um
Ġenv ision
Ġdist inction
Ġyoung est
bo y
Ġscient ifically
Ġchar ities
Ġchar ges
Ġref used
Ġbre ed
Ġequ ity
Ġblo ody
Ġexc use
Ġnet working
Ġcontin uously
Ġconst itut
Ġview ed
Ġ8 6
ĠAr ch
Ġcir cul
Ġoper ates
Ġdig ging
Ġsupport ive
Ġterr itory
Ġchem ist
Ġple ased
Ġviol in
Ġpick s
Ġenc ountered
Ġge ography
rom agn
Ġapproach ed
sh aped
ĠTh ose
ĠTh ailand
Ġice berg
Ġste aling
Ġdescrib ing
Ġinvent or
Ġpost c
vert ed
Ġsubject ive
Ġfunction ing
Ġflu ctu
ned y
Ġemerg ence
ĠBe ach
Ġimprove ments
Ġpu berty
ĠSe attle
Ġassum ing
Ġfill ing
Ġdiscuss ing
Ġstress ful
ĠCar neg
Ġcalcul ating
Ġpen cil
omm od
Ġkil os
ĠKen nedy
Ġmatch ed
Ġcelebr ated
Ġsal ary
Ġmix ing
Ġemail s
Ġhall s
Ġtransport ed
off s
Ġinj ust
Ġann ounce
ĠMc C
ĠCol omb
Ġphilosoph ers
Ġrequire ments
ĠPl an
Ġvot es
Ġhyp oth
Ġbul b
Ġprior ities
mon th
Ġacceler ate
ĠJe opardy
Ġcup s
Ġmyth s
Ġdish es
Ġpoem s
force ment
Ġcontain er
Ġreven ues
bre aking
Ġpun ishment
Ġwitness ed
Ġsacr ific
Ġprem ise
Ġdict ators
ĠCop ern
Ġimplement ed
Ġgest ures
Ġrub ber
ĠStar bucks
ĠDemoc ratic
Ġanticip ate
Ġstri kes
Ġdecre ase
Ġutter ly
aze era
ĠGal apagos
Ġdisrupt ive
ĠSa udi
ĠPart y
Ġdisag ree
Ġstatist ical
Ġattribut es
Ġash amed
Ġintim acy
Ġsett led
Ge orge
Ġanat omy
Ġhors es
ĠSom alia
ĠJose ph
Ġprose cut
Af ric
Ġsyring e
Ġgramm ar
Ġbam boo
Acc ording
Ġdebr is
ĠDal ai
ĠTemp est
ĠCarneg ie
G reat
M G
S ure
T ell
T ime
W as
c ou
c onscious
e em
f i
f ig
f und
g os
j amin
l ar
m assive
r ition
z es
Ġa ort
Ġw ives
Ġw estern
Ġc oding
it ar
Ġb anned
ing ing
Ġm arsh
Ġp ants
es cope
an i
an as
Ġd iving
om ed
as a
as ive
as sembly
Ġe ase
Ġbe am
Ġre ck
Ġre un
qu ality
ver b
Th irty
im eters
ur f
ig an
ch ild
ere nd
ro v
op y
op atch
Ġk it
Ġwor m
Ġne arest
ul u
Ġch imps
Ġpro ved
Ġpro be
Ġpe an
ĠA ctually
Ġal umin
Ġtr ips
ĠS ud
ĠS omet
ĠS put
Ġwho ever
el ing
ĠC ap
our se
Ġtim ing
ĠB lo
Ġper f
Ġman eu
Ġev olving
Ġev apor
ĠH ot
ĠH ind
ĠH ead
ĠT ell
ff ice
Ġcl itor
ĠP o
ĠP enn
ĠD ig
ĠN ike
ep r
ĠL ewis
Ġcont ained
ĠF il
Ġhum ility
ĠO p
ĠJ ay
ĠJ up
ĠJ ournal
ĠJ azeera
ress ing
ĠU shahidi
Ġcount less
Ġgreat ly
be an
Ġra c
Ġgu ards
ĠK am
Ġins ert
Ġdr ama
pl ed
Ġsl ope
Ġmin erals
Ġel abor
Ġresp onds
Ġreg ional
gr aph
Ġprocess or
Ġsing ers
Ġhand y
Ġconf using
Ġspace craft
Ġsecond ary
Ġelect romagn
Ġhead quarters
Ġpop s
arr iage
irl ing
Ġval ve
ĠTED sters
Ġadd ict
Ġeduc ating
Ġpolit ically
ĠInd ians
bo ards
less ness
Ġfil med
Ġgl ow
Ġret rof
Ġcontin ents
br ush
Ġ7 2
Ġappro ximately
aw ater
ĠNo body
Ġoper ated
Ġfre ak
Ġexist ential
ĠAl bert
Ġpsych iatr
Ġocc as
Ġrecogn izing
Ġpull s
Ġinvent ors
Ġcrit ically
Ġsustain ed
Ġhor ror
Ġbenef icial
ĠCan adian
Ġconcept ual
Ġprom ised
Ġsil icon
Ġachie ving
ĠFr ied
Ġaccount ability
Ġfair ness
Ġrevolution ary
Ch ildren
Ġmis under
Ġscreen ing
ĠJohn son
Ġ199 8
Ġdiscuss ed
Ġreturn s
Ġnucle us
Ġaccept ance
Ġemploy ment
Ġcorre lation
Ġlad der
Ġreflect ive
Ġcheck ing
Ġmagn itude
Ġdemonstr ates
Ġmatch es
Ġaddress ing
Ġmotiv ate
Ġmultip ly
Ġfold s
af e
Ġord ered
Ġadapt ive
Ġloss es
Ġstrength s
Ġreve aled
Ġnovel ty
Ġnote book
Ġsurve ys
Ġconsid ering
Don ald
Ġcooper ative
Ġble w
Ġmamm ography
Ġtast es
Ġexpand ed
Ġwond ers
Ġfol k
Ġshel ves
Ġconcentr ate
Ġtick ets
Ġappreci ation
ĠEd inburgh
Ġpow der
Ġinform al
ĠFranc is
Ġcere br
Ind ia
Ġbow l
Ġrig id
ĠKore an
Ġbes ide
Ġru ins
ĠPalest ine
ĠAtl anta
Me anwhile
Ġcock ro
Ġadvoc ate
Ġmer it
ĠBudd hist
Ġadminist r
Ġtraum a
conf lict
front al
Ġdisappoint ed
Ġrenew able
Ġexplo it
Ġprec ision
Ġfet us
Ġscream ing
Char les
Ġtrop ical
ĠNan opatch
Ġanno ying
Ġlob by
Ġbutt ons
Ġfib ers
Ġenterpr ise
Int erest
Ġchron ic
Ġpercept ions
Ġoy ster
Ġcontag ious
Ġdivor ce
Ġneoc ortex
Ġexerc ises
Tw enty
Ġtheore tical
Ġcham ber
Ġhorizont al
ĠAlp ha
Ġnightm are
Ġfundra ising
Ġepidem ics
Ġcatastroph ic
ĠBosn ia
ĠEthiop ia
Ġanten na
Ġparach ute
ĠHosp ital
ĠJup iter
1 3
9 9
A O
B en
D es
E ight
F ortunately
I S
J e
P art
P oint
P retty
R A
b ing
d ed
d am
g ical
h r
h ar
h ot
s ize
w w
w en
Ġt in
Ġw are
er ness
Ġc attle
Ġm at
Ġm ating
Ġp ose
Ġp ne
Ġp ix
Ġp iss
Ġf les
Ġd read
Ġd ivid
Ġl ately
om ics
Ġg erm
le an
ĠI M
Ġn ail
Ġn asty
ut es
Ġre vers
ct ar
ay er
Ġst er
ol as
ra ce
Ġab road
Ġas semb
Ġsh ed
ad or
Ġne ctar
Ġch ord
Ġch asing
Ġpe cul
Ġlo ads
ind ing
ink er
all ing
Ġint angible
Ġtr ap
ĠS up
ĠS arah
ĠM ap
ĠM ot
ĠM ore
ĠM ake
ĠM edia
ine a
Ġcomp ens
Ġworld view
Ġexp ense
pp er
ĠH ello
itt y
ĠG ar
ĠG all
ĠG ard
Ġsomet ime
Ġno isy
Ġhapp iest
Ġun iqu
Ġun seen
Ġun imag
ĠP ost
Ġimp ulse
ĠN ick
Ġover night
Ġdis cl
ult ural
co al
Ġbo ards
Ġgood ness
du cation
Ġreal ities
int egr
There fore
Ġpre frontal
ĠO d
Ġinc ub
Ġdec iding
Ġind irect
av ors
ĠK ansas
Ġthought ful
Ġproblem atic
Ġplay ful
Ġplay ground
Ġinter connect
Ġcons ent
Ġcons ol
erg arten
Ġsl ice
Ġ19 3
Ġext r
Ġrec ur
Ġgener ating
Ġreg ulation
ont o
Ġhand ful
Ġsub urb
Ġcor rid
Ġform ation
ĠSo ciety
Ġdist inguish
Ġhope ful
Ġlab els
Ġglobal ized
Ġequ als
Ġloc om
Ġloc ally
Ġsix th
Ġgl ue
Ġtreat y
Ġ7 4
Ġmust ard
sy cho
Ġve lo
Ġneur ological
Ġes cal
ĠSh ir
Ġdraw s
crib ed
ĠAs sociation
Ġpost ure
Ġcolor ful
Ġrepresent ing
Ġast h
Ġactiv ated
cient ists
Ġprim ates
Ġunf old
Ġunf ortun
Ġrain s
Ġreport ing
Ġadm ire
Ġprison er
Ġstick y
Ġcharacter istic
Ġbal anced
Ġaccept ing
Ġspeed s
Ġlabor atories
Ġthr illed
Ġmagn ets
Ġmir rors
Ġoptim al
Ġang les
Ġpros pect
Ġeth ics
Ġalg ae
Ġvict ory
Any body
Ġintegr ity
Ġann ivers
Ġsad ness
Ġanaly t
Ġanaly zing
Ġmut ation
Ġcrowd s
Ġtherap ist
Ġattempt s
Ġconvin cing
Re cent
Ġinvestig ation
Ġinvestig ate
Ġiron y
Ġiron ic
Ġacceler ating
Ġrepl acing
Ġshad ows
ugg ing
ĠKing dom
Ġtox ins
Ġoccup y
ym ph
Ġske leton
ĠBer lin
ĠJul ia
Ġinstinct s
Ġmemor ial
Ġcompl ain
Ġempower ing
Ġempower ment
ĠTor onto
spe ed
Ġrating s
Ġathlet ic
ĠGl ass
Ġchamp ions
Ġsubs id
Ġintent ions
Ġcens orship
Ġwip ed
Ġrepeated ly
Ġtherm al
Ġenh ance
ĠVen ice
Ġlegit imate
Ġirre levant
Ġinherent ly
Ġcert ific
ĠMove mber
ĠSim on
Ġvit amin
ĠTel escope
Ġobt ained
Ġcoup les
Ġenthus i
ĠScot land
Ġcybercr iminals
Ġcrush ed
Ġjan itor
Ġepis ode
Ġarbit rary
ĠHawai i
Ġapolog ize
ĠColumb ia
Similar ly
Ġreput ation
ĠNorwe gian
Ġdemograph ics
iov ascular
Ġunpredict able
Ġinjust ice
ĠColomb ia
ĠSput nik
Ġclitor is
Ġcerebr al
Ġpne um
Ġfles h
Ġpecul iar
2 5
3 00
6 00
C lear
M en
O X
O thers
R N
R ichard
S ad
T r
T ry
c cer
h uman
i king
i ately
j u
n i
p it
r un
s ight
s um
s aving
u gs
y re
y les
Ġa rous
in ators
Ġw ow
Ġo we
er ies
ou b
Ġc ement
Ġb ay
Ġb ip
Ġm und
Ġh oly
Ġp ulses
Ġf ame
Ġf ier
Ġf ired
Ġd uty
al ities
Ġl yr
Ġg ains
Ġg osh
Ġg ym
Ġg ifts
Ġe ighth
Ġre nd
Ġre per
ver bal
Th ings
ig g
Ġst are
Ġst ones
Ġst icking
ro pr
ir a
th ood
ra ine
Ġgo at
Ġse am
Ġse ctors
Ġas sembly
ad ow
Ġhe h
od er
Ġat omic
Ġso ccer
Ġde pr
Ġor th
Ġlo ans
Ġma nd
Ġv iable
ĠS ol
ĠS ystem
ĠS ylvia
ĠM R
ĠM id
og ens
iz ona
ard ed
Ġen cyclopedia
ab y
Ġle ak
Ġexp ose
ĠB ot
Ġqu ar
ĠH el
ĠH imal
ĠT ay
ĠG irl
ff iti
ĠE st
Ġcl im
ĠP en
Ġimp r
Ġimp ose
Ġimp aired
ĠN ep
ip h
Ġover lo
Ġco h
Ġdis par
Ġdis connect
ign ant
ĠL en
ĠL esters
Ġcont est
Ġph thal
ial s
Ġad vers
ĠF ire
ĠF OX
ĠW ind
Ġgr ant
Ġpre val
ĠO ak
Ġoff sh
lect ion
Ġsc al
Ġsc roll
Ġapp et
Ġcr ap
Ġbl u
Ġbl ink
Ġbl own
ĠK u
Ġdr illing
Ġkid n
Ġexam ine
Ġsl og
Ġgra ffiti
Ġser ver
Ġbeh old
Ġfar ther
Ġhand ed
Ġsk ys
Ġsk illed
Ġvis iting
Ġacc ommod
aut h
io let
Ġstand point
Ġprot ocol
Ġprot ests
Ġchar coal
Ġmark s
Ġtest oster
Ġpar liament
Ġass et
Ġret urning
Ġ9 7
Ġ9 8
Ġdi arrhe
Ġemp ire
ĠAr izona
Ġident ities
Ġpred ator
Ġarg ues
Ġdream ing
Ġtem p
Ġtrad ing
vent ually
Ġmult iverse
Ġreach es
Ġtravel s
Ġmeasure ment
ĠTh ree
Ġste am
Ġste ep
Ġnice ly
ai ro
Ġslow ing
iet ies
Ġtransform ative
oll o
Ġcop ying
Ġrepresent atives
ĠAn as
Ġsn ake
Ġmedic ations
pan ies
Ġtransl ator
umb led
Ġsociet al
Ġcollabor ators
Ġ199 5
Ġrock ets
Ġjud ges
Ġsepar ation
enn ifer
ĠArab ia
Ġstrugg led
Ġdeterm ination
Ġwilling ness
Ġrespect ed
Ġcheck list
Ġroll s
Ġcard board
Ġcard iovascular
Ġinnov ators
Ġsym met
Ġsym phony
Ġremind er
Ġphenomen al
Ġenorm ously
Ġcampaign s
ĠCl oud
Ġvari ables
Ġjournal ism
Ġbroad er
Ġban jo
Ġrecon cil
Ġmouth s
Ġble nd
Ġpet als
ĠMich igan
Ġreward ed
Ġaltern atives
Ġclimb ed
Ġappe aling
Ġcontribut ions
ĠJust ice
Ġstim ulate
Ġfrequ encies
Ġdisp ers
Ġprototy pes
Ġharm ful
Ġhero ic
Ġquiet ly
ĠNot hing
Ġimpl anted
agr aph
Ġpregn ancy
ugg ed
Ġsan itary
ĠCE Os
Ġreprodu ction
Ġdict ator
Ġhel ium
ĠKh an
Ġconvert ed
Ġdecl ining
Ġhur ts
Ġtight ly
Ġcock tail
Ġinterf aces
Ġtort ured
Ġcolum ns
Ġweigh s
Ġchamp ion
ĠOlymp ics
Ġgall ery
Ġimper ative
Ġbiom aterial
Ġsatisf ying
Ġaccum ulate
Ġtatto os
Ġcaf e
Ġlegit im
Ġconven ient
Ġgrat itude
Ġassess ment
Ġho llow
Ġbiote chnology
Ġalph abet
Ġbasket ball
Ġneuroscient ist
Ġguerr illas
Ġthylac ine
Ġadolescent s
ĠPower Point
Ġinterven e
Ġgrabb ed
Ġpropag anda
inem a
Ġhob by
ĠDevelop ment
Ġrh et
ĠArgent ina
Ġhamb urger
effect ive
Ġarter ies
ĠLak ota
Mich ael
Ġjung le
intu itive
Ġalumin um
ĠSud an
ĠSup reme
Ġunfortun ate
Ġannivers ary
Clear ly
Ġmund ane
ĠHimal ay
Ġtestoster one
8 0
A h
B ig
C ont
J oe
M ay
O PA
P at
P rob
R S
U lt
Y R
a wn
b us
b ian
b ule
c or
c ore
e en
g reat
g roup
g aret
i ens
i ots
l come
n ob
o ors
o ven
p at
r ish
s entially
u f
u ctor
v y
v ol
v iolet
z er
Ġ ion
Ġ 93
Ġt oss
Ġth umbs
Ġa ph
in ch
Ġw al
Ġw olves
Ġs amp
at ible
at ivity
er ate
Ġc ul
Ġc ass
Ġc av
ing o
Ġp a
Ġf t
Ġd rain
Ġl ion
Ġl ymph
ar c
ot er
Ġg aining
Ġg reet
as ant
le g
le m
ĠI van
ut on
et on
Ġre ct
Ġst ir
ere rs
Ġfor cing
st op
st ory
st airs
th at
ra ig
Ġse als
Ġsh orter
Ġj okes
Ġde ception
um ental
ist ically
Ġlo be
Ġte nder
Ġout l
ĠA sh
Ġal ar
ĠS her
ĠS ix
ĠS cr
ĠS erv
ĠS orry
el and
ĠC ru
ĠC old
ĠM en
Ġcomp osition
Ġper ip
ĠH as
ĠH arr
ĠT ower
Ġdiff er
Ġcl oth
ĠP ap
ĠD ie
so cial
ip e
Ġco in
Ġco ch
Ġbu cket
ib ati
Ġnew ly
ĠL abor
ĠL OL
Ġkind ergarten
ĠR ose
ĠF ood
ĠF ox
ick en
Ġhum il
Ġide als
Ġgr an
Ġpre ced
Ġpre cip
Ġwr ink
ĠU k
Ġbr icks
ons ense
Ġsur gical
Ġind oor
Ġind oors
Ġra bb
Ġcr ied
Ġinv itation
ĠK elly
Ġafter ward
he alth
Ġmean ings
Ġcour ts
Ġ3 4
Ġdr ift
ob ic
When ever
ĠIn formation
Ġquestion ing
Ġdevelop ments
Ġcre am
Ġmon ster
Ġ19 0
cy cle
Ġmom s
Ġexpl ode
Ġrep orter
Ġ5 2
Ġear ned
Ġreg ulate
Ġbi ased
Ġsing er
Ġfun eral
ins ky
Ġconf ined
Ġanim ations
ĠV e
Ġsound ed
Ġeduc ators
Ġprof itable
Ġfil ters
de velop
Ġgl orious
Ġwa king
Ġpay ments
Ġfront ier
Ġjo ining
Ġappro val
ĠAr k
Ġident ifying
Ġliter al
Ġshort ly
Ġes cap
Ġfight s
Ġpract ically
ĠAl ice
ĠAl ask
Ġterr ific
Ġsuper ior
Ġ18 0
Ġ18 5
Ġsurv iving
Ġspecial ists
itch ell
Ġsqu id
Ġpoor ly
Ġcomb inations
Ġsum s
Ġflo at
Ġste ak
Ġste pping
Ġfac il
Ġtext s
Ġpath way
ai rob
Ġintern et
Ġprom ising
Ġprom ises
Ġcop per
Ġstra nd
ĠAn n
cuss ion
Ġemerg es
Ġmis ery
Ġintrodu cing
Ġtransl ating
umb ai
Ġdin osaur
ĠPr inc
eth eless
Ġswe eping
Ġemploy ee
Ġtrick y
Ġcat aly
Ġport ray
Se ven
ĠIran ians
Ġsequ encing
cell ular
ĠiP od
Ġdocument ing
Ġdispl aced
Ġvari ations
Ġut il
ĠMr s
Ġdeliver ing
Ġavoid ing
Ġden ied
Ġappl ies
Ġreco vered
Ġpet ition
Ġflight s
Ġcateg or
Ġillness es
Ġattempt ed
Ġhost ile
Ġdan cer
Ġtun a
Ġmill ise
Ġgard ens
uls ion
ĠGra ce
Ġcoast al
Ġindic ate
Ġax es
onym ous
Ġcartoon ist
Go ogle
Ġnan o
Ġrecy cle
Ġpil ots
Ġvibr ating
Ġmigr ation
Ġeld ers
gra nd
ĠCam eron
Ġphr ases
Ġacqu ire
Ġimprov ise
Ġath lete
Ġju ven
Ġscar city
Ġconsist ently
Ġresil ient
Ġtank s
Ġflex ibility
Ġbee keepers
Ġconstrain ed
Ġdesper ate
ĠCount ry
Ġparas ites
Ġhousehold s
pro of
Ġeradic ation
ogen ic
Te chnology
Ġflour ish
Ġcarr ot
Ġreson ance
Com panies
Ġredef ine
Ġprotocell s
Ġdiam eter
Ġtempt ation
Ġpurch ase
Ġsket ch
Ġultra violet
Ġmaxim um
Ġunemploy ed
Ġunemploy ment
Ġgeek s
Ġbatt les
Ġamate urs
Ġorient ation
Ġles bian
Ġgh ost
Ġaugment ed
nut rition
Ġingen uity
ĠJeff erson
ĠJord an
pos itive
Ġol ive
Ġdiagnost ic
Ġpedest rian
Ġdilem ma
resist ant
Ġende avor
ĠDef ense
Ġremitt ances
Ġentr ance
ĠBanglades h
Ġmixt ure
Ġhypoth et
Ġelabor ate
Ġvelo city
ĠNep al
Ġperip her
airob i
ĠPrinc eton
A dd
B oy
C O
E A
E G
E instein
E ventually
G G
J ul
K ids
N N
P H
P ar
S R
T M
T ogether
a ver
b one
c ific
d og
f e
f ight
i y
i ages
i ams
m od
m art
m ile
m etic
n atural
p ite
p ox
v ance
w an
w all
y d
y ou
Ġt read
Ġt urt
Ġa irl
Ġo m
at us
Ġc od
Ġc ort
Ġc ues
Ġc odes
is an
Ġb ust
Ġm as
Ġm ant
Ġm um
Ġm asters
Ġh unch
Ġp ity
an o
Ġd im
Ġd ates
Ġd oses
Ġd uration
Ġin ade
Ġl ap
ic ations
ĠI P
Ġbe ats
id ance
im ore
Ġst ew
Ġst airs
ro ots
ro gram
ir ms
ir atory
op oly
st yle
Ġse awater
Ġcom a
Ġcom ed
ant ing
Ġde er
Ġor b
Ġv ig
Ġv icious
ĠA ur
ĠA st
ie nds
ie val
ci um
ĠC her
ĠC la
ĠC airo
ĠM P
ĠM ost
ĠM ass
ĠM att
ĠM umbai
ast s
Ġsu cks
are r
Ġen forcement
ab ad
ag an
ĠB a
ĠB et
Ġdon ated
Ġman g
ĠH op
itt ee
Ġag greg
ĠT am
ĠT rade
Ġno ises
Ġdiff usion
Ġun ity
Ġun ite
Ġun equ
ĠE S
ĠE mb
Ġcl ich
ĠP re
ĠP ass
Ġar c
ĠN athan
ĠN airobi
ang es
Ġback s
ib bean
ac ent
Ġpo ets
ĠL ear
Ġcont rad
Ġac res
Ġunder t
Ġam y
Ġam ino
Ġres id
ĠR od
ĠR ick
Ġdes ires
Ġad equ
Ġpre jud
ĠO ld
ile y
Ġbrain storm
ĠCh ild
Ġown s
ian ces
Ġbl essed
Ġgu idance
ĠK ib
Ġins ur
Ġins ult
Ġtrans act
Ġbas ement
Ġcar pet
Ġcar cin
Ġinter rog
Ġinter section
Ġschool ing
ĠAnd erson
ĠSt ation
ĠSt ock
Ġnum b
Ġsl um
Ġmod ified
az y
Ġser oton
Ġcare ers
ah ara
ger ia
Ġ5 8
Ġ4 3
Ġbi kes
Ġbi osphere
Ġbi och
Ġbi ologically
Ġsk ip
ruct ive
Ġconf irm
vern ment
Ġorgan izing
Ġenerg etic
Ġdef icit
angu age
Ġmor ally
Ġmodel ing
ott o
Ġcertain ty
Ġpos ed
Ġpar agraph
Ġche f
Ġremember ing
Ġsw ing
Ġsw am
Ġass ure
uck ily
Ġwa ited
Ġret reat
Ġ6 4
Ġview ing
Ġfront al
Ġprov ocative
Ġve il
Ġve nding
Ġmarket place
Ġpred ators
ium ph
Ġfight ers
Ġpersonal ities
ĠSh ould
Ġchem otherapy
Ġsuper computer
Ġsuper massive
Ġ18 00
Ġspecial ist
Ġcal cium
Ġenc rypt
Ġrecogn izes
Ġflo od
Ġcirc ulation
Ġfac ulty
Ġhot ter
Ġconcept ion
Ġtransform ations
Ġplant ing
Ġball ot
Ġmarr iages
Ġperiod ic
head s
Ġarm or
Ġprim al
Ġintrodu ces
Ġep ic
eth oven
Ġinflu ences
Ġ16 0
Ġpack aging
Ġwild erness
ĠCar ibbean
Ġheav ens
Ġassoci ation
Ġstar vation
Ġmatch ing
Ġautom atic
Ġ197 5
ĠQ aeda
iot ic
Ġcand le
Ġadapt ed
Ġtown s
Ġbreast s
Ġnovel s
Ġfro gs
Ġhack er
Ġliber als
ĠBrazil ian
Ġsymbol ic
irt ual
Ġble eding
ĠCon nect
hold ers
Ġshut tle
Ġpartners hips
cipl inary
Ġchart s
ĠNiger ian
Ġfrustr ation
Ġsetting s
ĠJe an
Ġappropr iately
Ġmigr ate
Ġpure ly
Ġfle et
ĠWill iams
Ġsan ct
ĠEl izabeth
Ġqual ified
ĠOn ly
Ġacqu is
Ġroof s
Ġminim al
ĠEm ma
friend ly
Ġobst acle
Ġstoryt eller
Ġhypothes es
Ġembarrass ed
Ġwash ed
ĠJer sey
wr iting
wr iter
Ġrefer red
spe cific
Ġrush ed
ĠJack son
Ġdatab ases
Ġben ign
Ġevalu ate
Ġclub s
Ġimper fect
Ġrainforest s
Ġadopt ion
Ġrecip es
agger ing
Ġcraft s
Ġpref erences
Ġreef s
Ġsla very
Ġrecept or
Ġupload ed
Ġnurt ure
ĠDen mark
Ġstatist ically
Ġimmigr ants
Ġamate ur
Ġambig uity
Ġcareg ivers
Ġcree py
Ġspont aneously
Ġmathematic ians
Ġdood ling
Ġcoinc idence
Ġsurviv ors
ĠConf erence
Ġcompreh ensive
Ġrender ing
ĠMat th
ĠKir ibati
Ġaccompan ied
Ġjewel ry
ĠBh utan
Ġconsp ir
orient ed
ĠSky pe
Ġincom plete
ĠSecret ary
ĠLester land
Ġgrav it
Ġlaund ry
Ġcathed ral
PTCH A
Ġspat ial
fund ed
Sad ly
Ġreconcil iation
Prob ably
Ġinade qu
9 0
A A
A V
C onsider
G ra
G od
H ope
L uckily
M uch
M ED
R o
R ives
S cientists
T ext
W ow
X L
b ut
b ast
b ag
d epend
e or
f are
i ological
l ad
n ormal
r ir
r ated
r ange
r ise
t w
t ain
u ation
u ana
v in
Ã Ń
Ġ -
Ġt ips
Ġa the
Ġw re
Ġo w
Ġo ve
Ġs essions
at al
Ġc inema
is ive
Ġb ent
Ġb ru
Ġb unk
Ġb aker
en ment
ap es
Ġp ies
Ġp iv
Ġp ension
Ġp sycho
Ġd ash
Ġd angers
al one
Ġl emon
ot al
ot ent
Ġg ru
le nd
Ġe cho
Ġe ternal
Ġe rect
im ents
Ġst arch
Ġst aggering
ke l
Ġfor ger
se a
op ed
ra vel
ra ged
Ġab alone
Ġcan n
Ġwor ship
So on
Ġnot icing
ul ed
ul ously
Ġall ies
Ġall oc
ust y
Ġj ury
Ġch ore
Ġch unk
Ġde ment
Ġpro gression
art ed
est y
ĠA ch
ĠA ra
ĠA ng
Ġal ter
ie ge
Ġtr iumph
ĠS cient
ĠS iberia
ci le
iv able
ĠC ase
ĠC ode
ĠC NN
ĠM t
ĠM as
ĠM athem
Ġen ab
ĠB alt
app iness
Ġdon ation
Ġman ages
Ġfe ver
ach ed
ach ers
Ġun int
Ġun cover
ĠE c
ĠE r
ĠE lect
Ġcl icking
ĠD ra
ĠD oug
Ġimp ressed
Ġstart ling
Ġdis connected
ass y
ign ed
ac on
Ġspe nds
ĠL ess
ult ure
Ġres erves
ĠR NA
ĠR omo
ĠR oger
ict ions
ĠF all
ĠF red
ĠF DA
Ġhum p
Ġhum ble
Ġgr im
Ġgr ip
Ġgr ape
ĠO reg
ark s
ĠU CL
Ġcount y
Ġbr ick
Ġdec omp
Ġsur plus
Ġind ul
Ġind igen
Ġgu itar
ric ane
ĠK now
Ġbas ics
Ġimag inary
Ġlearn s
Ġbit ter
Ġstr ang
ĠSt op
uc ose
Ġfin ishing
Ġmet ric
Ġread s
cept ible
Ġsmall pox
Ġed itors
Ġbus es
Ġ5 4
Ġreg ain
Ġconf usion
Ġorgan izational
ĠV ol
ĠV irtual
Ġrese mb
Ġval ued
Ġadd ressed
Ġcult urally
Ġhalf way
Ġmor ph
Ġlist ed
end ers
Ġwatch es
Ġbre w
Ġequ ipped
Ġwonder fully
ĠIs n
rop olitan
uck y
Ġret ired
Ġemp ir
Ġabs urd
Ġrad i
Ġrad ius
Ġsurpr ises
Ġpot ent
Ġpot ato
Ġoil ed
Ġpresent ing
ĠEur opa
Ġprotect ive
Ġarg u
Ġvar ieties
Ġ12 5
Ġperform s
Ġlim estone
Ġmult im
Ġexperiment ation
Ġrequ ests
Ġge o
Ġobs cure
sh aring
Ġconsum ing
Ġrele asing
Ġrespons ibilities
ĠTh ink
Ġpress ing
Ġaren a
Ġsoon er
Ġlay ing
Ġwish es
ĠBe ethoven
St ill
Ġclean er
Ġprogress ive
Ġdin ing
Ġthreat ening
Ġvirt ues
Ġcollabor ator
Ġdepend ence
Ġaccept able
Ġdisapp ears
Ġemploy ed
Ġsch olar
Ġcalcul us
ĠWar ren
Ġpen etr
Ġgas oline
Ġmal nutrition
Ġkil ograms
ĠKen yan
Ġsequ enced
Ġdiagn ose
Ġpark ed
the on
rad ition
Ġexh ilar
Ġord ers
Ġamb ition
Ġvisit ors
Ġden y
Ġrequire ment
Ġbackground s
Ġchick ens
ĠCon st
Ġmamm ogram
Ġmid st
Ġtor n
Ġmort g
erson al
Ġrout es
Ġcontribut ing
Ġalt ogether
Ġtun ed
Ġentertain ing
ĠGu ard
ĠGu inea
Ġur gent
Ġprincip al
ĠAb u
Ġastron omy
ĠEn viron
Ġattach ment
Ġpolic ing
Ġtall er
Ġnegot iation
Ġnegot iating
Ġmicros copic
Ġlibr aries
organ ic
ĠBen jamin
ĠLa ure
Ġshall ow
Ġcha otic
Ġmel ody
ĠGree ks
Ġsuit case
Ġpray ing
ĠJer ry
Ġknock ed
Ġdiscipl ines
Ġremem bers
Ġinject ion
Other wise
ĠRepublic ans
Ġexecut ive
ĠDemoc rats
ĠHaw king
Ġassist ance
Ġaband on
worth y
ĠBudd ha
ĠNG O
Ġmyster ies
hear t
ĠPol and
Ġcoord ination
Ġbon us
Ġtraum atic
ĠTes la
Ġfulf ill
Ġfulf illing
Ġpref erence
Ġque en
Through out
ĠMil ky
Ġsket ches
Ġdistract ed
ĠScott ish
Ġcigaret tes
Ġstrain s
Es sentially
Ġdece ased
Ġdeliber ate
ĠMedic ine
Ġtact ics
ĠTy pe
ĠAp ollo
Ġinher ited
ĠRoy al
Ġmarg ins
Ġdys function
Ġsumm ary
Ġastronaut s
Ġinex p
Ġunst able
Ġtempor al
Ġsummar ize
Ġconfig uration
Ġartifact s
Ġswallow ed
Ġcalend ar
Ġexquis ite
Ġintric ate
Ġfis cal
ĠEmp ire
ĠDub ai
Ġseaf ood
Ġthro at
Interest ingly
Des pite
Ġassemb led
ĠGard en
Ġuniqu ely
Recent ly
ĠTay lor
Ġskys cr
Ġdiarrhe a
ĠScr atch
ĠDie go
Ġhypothet ical
Ġprejud ice
Ġseroton in
ĠBalt imore
ĠOreg on
Ġindigen ous
A G
A round
C E
F i
G M
G en
H aving
J im
L ess
P eter
R C
R G
R ob
R SW
S M
S c
a cious
b ro
c ular
c orn
c urity
d ad
f ill
f ashion
h ou
h ran
h ole
l as
l ene
m al
m illion
n els
p ot
p ical
p ound
r us
r ant
r ics
s chool
u ci
w a
z one
z zy
z uel
Ġt il
Ġt ales
Ġth under
Ġa is
in er
in as
in ety
Ġw ages
Ġo x
Ġo xide
Ġs ang
is er
it ivity
Ġm attered
Ġto aster
Ġp oured
Ġf est
Ġf use
Ġf ade
Ġf oster
Ġf aint
an ing
al ore
Ġin organic
Ġl ou
Ġl ane
Ġl azy
ar n
ar ly
om er
Ġg al
ic ill
ĠI d
Ġn ick
Ġn inth
ow itz
Ġha unt
im agine
ur ge
ro cess
se cond
am ous
ir al
ir able
ith metic
Ġan om
Ġdo ct
st ep
Ġab used
Ġk ite
Ġsh a
Ġwor ries
Ġcom ics
Ġso le
Ġfr ugal
Ġex it
Ġde ple
Ġde cept
Ġr ings
Ġthere by
ĠA w
un a
un ter
Ġint end
Ġjust ify
Ġsp ear
Ġsp ills
ĠS in
ĠC reat
ĠC arr
ĠC apt
ĠC ivil
em ents
ĠM s
ĠM ell
ĠM achine
ĠM itchell
ast ing
Ġcomp osed
Ġcomp ressed
Ġta gs
ĠB and
ĠB ook
Ġqu o
Ġfe e
Ġfe as
ĠT oday
ĠG aza
Ġno ble
Ġun ne
Ġun lock
ĠE xt
ĠE ven
ĠP C
ĠP ear
ĠD oh
ĠD AR
Ġar tery
ĠN ative
ĠN ever
Ġover t
Ġover weight
Ġco ined
Ġdis ad
Ġback ward
Ġback up
ib l
ens ively
Ġpo nd
ru ce
ĠR h
ict ional
ĠF ly
ĠF ull
ĠF ield
ĠF GM
ank ind
Ġide ological
Ġpre con
ĠO k
ĠO per
ĠJ ama
Ġwr ites
Ġgen ital
Ġhuman ities
be at
Ġtra ff
we et
ĠCh ad
Ġra ces
ĠK le
Ġbas eline
Ġrel uct
Ġprodu cer
Ġinter sect
Ġcons ists
Ġent ers
ven ue
oc ke
ĠY ellow
ĠSt irling
Ġdevelop er
iss ance
Ġ20 20
Ġatt or
Ġatt ribute
Ġatt raction
Ġlight ning
Ġla ure
Ġla ughter
Ġeconom ically
Ġrep et
Ġ5 3
Ġproject ed
Ġdem ol
Ġ4 7
Ġ4 50
Ġsupp ress
Ġhand ling
Ġpass port
aut ion
Ġanim ated
Ġcompan ion
ues day
ĠV ene
ĠTED MED
Ġreason ably
Ġdet er
Ġmen u
man uel
lf red
Ġref ined
iter ate
eng ers
Ġfore cast
Ġfil ming
Ġgl ory
Ġgl ucose
uck ed
Ġsuccess es
Ġfollow ers
Ġ9 00
Ġconst itu
Ġdra gged
Ġplanet ary
Ġcra cked
row ing
Ġrad ar
Ġpot atoes
Ġcoll ision
ĠBr other
Ġpred atory
ran ny
ĠGo og
Ġred isco
Some how
Ġsurv ives
Ġcool er
Ġcy m
Ġflo ors
Ġprofess ions
ann ah
Ġinvent ions
Ġtradition ally
Ġpath ology
Ġpoll s
Ġhon ored
Ġstra nds
Ġlay s
Ġflu ores
Ġaccount able
Ġbacter ium
Ġadm itted
ĠDe ath
Ġ199 2
Ġ199 4
Ġ199 6
Ġdetect ing
Ġnucle i
Ġcook ies
Ġreflect ing
Ġcheck ed
Ġstrange ly
Ġlaunch ing
Ġexplore rs
Ġquot es
Ġpen al
Ġpen icill
Ġcat al
ĠHar ry
Ġblock ed
Ġurban ization
ĠRight s
Ġsal ad
Ġprevent able
Ġhistor ian
udd y
Ġmultip l
Ġdrink s
Ġsad ly
Ġanaly st
Ġver ge
Ġver bal
Ġfing ert
ax is
ĠMc Donald
Ġtax i
Ġcrowd ed
Ġban anas
atr ina
osh op
sc ar
sc reen
Ġrecon st
Ġgrandm others
Ġappl ause
Ġindustrial ized
Ġparad ise
Ġmamm al
ha ired
Ġhabit ats
Ġefficient ly
Ġinstall ations
ĠMo MA
ĠDan ish
Ġfellow s
Ġglo ves
ij uana
Ġbattle field
vention al
Ġadvert is
ĠBang alore
Un like
Ġroot ed
Ġfrustr ating
Ġconcl usions
Would n
ĠWik i
Ġentrepreneurs hip
Ġreview s
add y
Ġgrass roots
Ġminim ize
ĠPer u
Ġoccup ation
Ġpip e
ĠEm ily
Ġpoore r
Ġignor ant
ĠFrank lin
Ġring ing
Ġexplan ations
Ġcomment ary
Ġelev ated
Ġcircuit ry
Ġtransfer red
Ġdigit ally
Ġkick ed
Ġrebuild ing
ĠFin ance
Ġairport s
Ġevalu ation
Ġcosm os
Ġassist ant
Ġeradic ate
ĠVietnam ese
Ġsatisf y
Ġflour ishing
Ġintrig ued
Ġpione ers
ĠLaw rence
Ġwip e
Ġhook ed
Ġpra ise
ĠVan cou
Ġcryst al
Ġmanufacture rs
Qu ite
Ġrelax ed
ĠVen us
Ġconven ience
Ġweeke nds
ĠMed ical
Spe ech
Ġanno y
Ġroutine ly
Ġemphas is
Ġcommod ities
Ġbiote ch
Ġskept ical
Ġtriang le
Ġupd ate
Ġdegrad ed
Ġambig uous
Ġmurd ered
ĠWalk er
Ġbump s
Ġmathematic ian
ĠMod ern
Ġscholars hip
Ġacknowled ged
Ġtrail er
Ġcultiv ate
Ġexplicit ly
Ġimmort ality
Ġoutd oor
Ġrecre ate
ĠOl iver
ĠKy oto
Ġsquee ze
Ġpherom ones
ĠMur ray
ĠTre asure
ĠWo nder
Ġartic ulate
Ġincarcer ation
Ġange ls
Ġsymp athy
Ġpestic ides
Ġbore al
ĠBert ie
Supp ose
cons um
Ġcum ulative
Ġlos er
Ġaort a
Ġmaneu ver
Ġelectromagn etic
Ġanalyt ics
Ġpneum onia
ĠFOX O
ĠOak land
Ġoffsh ore
Ult imately
Ġwal let
ĠAlask a
Ġunequ al
Ġinadequ ate
Ġunne cess
ĠDoh a
ĠVene zuel
Ġpenicill in
ĠVancou ver
8 00
E S
E d
E ric
H ello
I A
J ames
K en
L isten
O ut
O pen
S uch
S orry
T y
T om
a us
b lo
b ell
c ur
c aine
e er
f an
f eed
g reen
h ops
h ouses
k er
l ined
m el
m ia
m ond
m oud
p ay
p res
r ig
r ust
r ical
s or
s ens
v oc
w ear
z ero
Ã §
Ġt roll
Ġa qu
in ci
Ġw ore
Ġw iring
Ġw ander
Ġc ables
Ġb os
Ġh ilar
on ies
on ac
Ġp ul
Ġp ale
Ġp up
an ic
an cial
Ġd ivers
Ġd azz
Ġd well
Ġin qu
Ġin ert
ed uc
Ġl ag
Ġy ard
Ġg or
le ys
ĠI ll
ĠI mp
ld er
id al
Th omas
ur p
Ġst ole
Ġst agn
op ening
Ġdo d
st an
Ġse ize
Ġcan e
Ġsh atter
Ġhe ck
il ot
il ia
Ġfr iction
Ġj un
Ġch er
Ġch ew
Ġde let
Ġpe l
ck er
um en
um ans
Ġlo ver
ind ustrial
ĠA ward
and al
Ġthem es
ĠS n
ĠS ay
ĠS um
ĠS ure
ĠS aul
ĠS ara
her ic
el ig
Ġpl ankton
ĠC ape
Ġsa bb
ĠM BA
Ġtim ber
Ġtim eline
Ġsu ed
Ġsu its
Ġsu ey
Ġcomp act
Ġcomp lim
ous ands
ag a
Ġexp ands
ĠB M
ĠB or
ĠB ir
ĠB ah
ĠB uilding
Ġper vasive
app ropr
Ġdon ate
Ġdon ations
age ment
res pect
Ġfe es
ĠH istory
ĠT enn
ĠT reating
ĠT uesday
ĠG ay
ĠG ene
ĠG erm
Ġany time
ĠE ll
ĠP et
ĠP eps
ĠP otter
ĠD un
ĠD av
ĠD ec
ĠD iet
ĠN orm
Ġco caine
Ġback ed
ib o
ib les
ib onac
ound ed
Ġfirst hand
ac ities
Ġmo ist
ĠL o
ĠL ight
ĠL ittle
ĠL uc
ĠL ev
ple x
Ġcont ents
Ġac ute
Ġam put
ĠR ou
ĠR ic
ĠR ead
ĠR oman
Ġad ul
Ġbo oth
ĠF BI
ĠW in
ĠW as
Ġreal izes
Ġem body
Ġcomm ands
Ġpre y
ĠO ver
ĠO nce
Ġsm ugg
Ġinc on
ĠU r
Ġsc rib
Ġsc aling
Ġsc anned
be y
ĠCh icken
Ġra ft
av en
av il
ub ble
he el
Ġkid neys
Ġent ities
Ġcommun al
Ġcommun ist
ĠY ale
ĠSt and
Ġcell o
Ġcell phone
Ġmon k
Ġgra bs
Ġext ensive
Ġfin ite
ĠYou ng
ah a
Ġed iting
Ġexpl oded
Ġrep lic
Ġ5 7
Ġbi ode
cer pt
ED I
ract able
Ġsub sequ
Ġsub conscious
Ġsecond ly
Ġpop ped
Ġpop ping
ĠV oy
Ġenv y
Ġaut obi
ĠTED Women
Ġdef ines
Ġcur ator
Ġphys iology
ime e
Ġref ers
Ġenvironment ally
Ġpublic ation
As k
Ġtest im
Ġpos es
Ġindivid ually
Ġfil es
Ġche ated
Ġexc lud
Ġpast ed
Ġprogram mer
Ġprogram med
Ġret ain
Ġadv ant
Ġview ers
Ġ7 7
Ġ7 8
Ġ8 2
sy l
Ġprov iders
Ġav atar
aw att
Ġident ification
Ġland m
Ġdel ivers
Ġsens ible
Ġoper ator
Ġcommon ly
Ġsuper star
Ġ40 4
Ġbreak down
Ġtre k
Ġleg ally
gen eration
unt u
crib e
Ġcam els
Ġge ographic
Ġconv iction
Ġcomb ining
Ġdirect ors
Ġap oc
Ġflo oding
ĠTh ings
Ġaffect ion
Ġeye br
Ġredu ces
Ġcivil ians
Ġdevelopment al
Ġworth while
Ġcop ied
Ġfa ult
Ġvol umes
Ġbed s
chan ical
Ġsn akes
Ġtrack ed
Ġfu zzy
Ġreact or
Ġ11 0
Ch rist
Ġcross es
Ġdiv ine
Ġep iph
Ġmeant ime
Ġ199 7
Ġdetect ors
Ġbank ers
Ġpack aged
ĠCal tech
Ġcitizens hip
Ġmir ac
Ġfra ud
Ġtrib ute
omm y
Ġassoci ations
Ġexpress ing
Ġexpress ive
Ġspeech es
Ġoffic ers
Ġcondition ing
Ġsurround ings
ĠAustr alian
uct ive
Ġindepend ently
Ġban ana
Ġrecon nect
Ġrecon cile
Ġvolunt ary
Ġliber ty
Ġcommercial s
ĠPl ato
oun cing
ĠMe yer
Ġmetaph ors
Ġdemand ing
win ning
Ġaccident ally
Ġembra ced
ĠPal m
Ġveget arian
ĠEvery one
ĠEvery thing
Ġtransm itted
Ġcorpor ation
Ġfrequ ent
Ġconcentr ations
Ġcounter part
uls ive
ĠWho a
Ġindic ators
Ġpollut ants
Ġrepl ied
Ġvibr ant
Ġrein for
Ġstock s
Ġmanip ulation
Ġrig orous
Ġclaim ed
ĠTe hran
ĠTalk s
Ġmicrob ial
Ġmicrob log
Ġpip es
Ġpun ish
Ġpump s
Ġadj acent
Ġharvest ing
ĠJul ian
Ġ194 5
Ġdevast ated
Ġattend ing
Ġprem ature
Ġparal ysis
Ġpill ars
Ġmim ics
olit ical
Ġdecl ared
ĠMand arin
Ġelimin ating
ĠRepublic an
Ġexecut ed
ĠSam uel
Ġneut r
Ġload ed
ĠComm and
Ġdistrict s
ĠSome body
ĠGand o
Ġsatisf ied
Ġscenar ios
Ġrecip ro
Ġpione er
ĠJon as
conf idence
Ġcorresp onds
Dan iel
ĠCA D
Ġcryst all
Ġcryst als
Ġhol iday
Qu est
ĠBal i
Ġobl iv
Ġham mer
Ġpersist ent
Ġsla ughter
Ġrecept ors
Ġstab ilize
Ġdisag re
ĠKe ith
Ġnit ric
Ġnit rogen
ĠJo el
Ġfung us
Ġpir ate
Ġguerr illa
Ġspont aneous
Ġdrown ing
Ġsulf ide
Ġinn ate
ĠTit us
Ġoverl ap
ĠStud io
Ke ep
mun ications
Ġrevel ation
Ġincl usive
Ġforb id
Ġprev ail
Stud ents
Ġseas ons
Ġdisg usting
ĠTunis ia
Ġtransist or
Ġpriorit ize
Ġorph an
Ġmac ro
ĠBi osphere
Ġdepart ments
ĠGil bert
Ġmarsh m
erend ip
ĠSomet imes
ĠOp rah
Ġcockro ach
Ġster ile
Ġunimag inable
ĠOd ys
Ġphthal ates
Ġrhet oric
nob yl
health y
Ġconspir acy
Ġgravit ational
ĠUCL A
fashion ed
Ġsabb atical
ibonac ci
1 4
B el
D R
F ifty
H ans
I PA
L ittle
N ature
O ft
P o
S how
W r
a im
b ot
b et
b uilt
c up
g ered
g iving
h all
h ry
i ability
j ev
k ers
k now
l ived
m ala
n ational
r am
w ired
z s
Ġ =
Ġt ilt
Ġt ennis
Ġa wards
in ished
Ġthe ft
Ġo wl
Ġs ane
Ġs ought
at is
ou x
is ual
it ra
it les
os oph
Ġb ail
Ġb ands
Ġm un
Ġh ind
Ġh ats
Ġh ills
Ġp est
Ġf og
Ġf ictional
es is
es see
Ġd u
Ġd orm
Ġd ental
Ġd ude
or ity
Ġl akes
ar atus
ot ive
Ġg a
as so
ic us
Ġn onsense
Ġwe ts
Ġe B
Ġbe ans
ut ing
Ġre n
qu es
Ġha z
ur bs
ig inal
Ġst ated
Ġst oring
if teen
am ble
ir med
Ġdo o
st ru
ol er
ol by
th en
ra red
Ġli ed
Ġhe ated
ge bra
ul ates
Ġso y
Ġj ur
Ġex ceed
Ġex cerpt
Ġde lete
Ġr ows
Ġr hyth
art s
ok o
est eem
Ġlo ops
Ġv ascular
Ġout break
ĠA ut
ĠA ust
ĠA ye
ĠA gency
ĠA bsolutely
ĠA lfred
un s
un ned
Ġsp ores
Ġtr unk
ĠS ave
ĠS ex
ĠS leep
ĠS now
ĠS ahara
Ġpl um
iv ation
ĠC S
ĠC ross
ĠC och
ĠC raig
Ġsa ves
Ġcomp r
Ġta gged
Ġqu iz
ud ge
ĠH al
ĠH oll
ĠT urn
ĠG it
ĠG ord
Ġun in
Ġun healthy
ĠP oll
pt ic
ĠD ave
ĠD iana
ĠD olby
Ġar ose
Ġar rog
Ġar ithmetic
Ġpart ially
ĠN I
ĠN O
ĠN av
ĠN atural
ĠN BA
Ġbu ys
Ġdis ruption
ens ed
Ġmo cking
ĠL ast
ĠL iberia
ber y
Ġfo cal
ell ers
Ġres ort
Ġres olved
Ġres erv
Ġres erve
ĠR ain
ĠR yan
ict ure
ĠF er
ĠF und
ĠF ibonacci
ick et
Ġhum ankind
ĠO pen
ĠO ffice
ĠJ en
Ġsm iles
Ġinc omes
ĠU h
Ġsc ope
Ġsc aled
ne c
Ġbr ow
Ġdec ode
Ġapp oint
Ġapp aratus
Ġsim ulate
Ġinv iting
Ġgu ilt
Ġcreat ors
Ġins pect
Ġfl ed
Ġlast s
Ġinst ances
Ġrel ie
ob y
Ġinter gal
Ġent it
oc ratic
ĠY ear
pl ay
ĠIn stead
Ġmin isters
ph al
Ġext ro
Ġmed al
Ġlight er
ative ly
Ġbeh aving
Ġcent imeter
Ġgener ator
Ġposs ess
Ġrep ly
Ġresp iratory
Ġbi of
Ġsub mar
Ġsub urbs
Ġpass engers
Ġconf erences
Ġacc used
Ġform ats
ĠUn cle
Ġdist ribute
Ġdist orted
Ġopp on
ĠInd ex
Ġsign ing
man n
Ġmem e
Ġchar ism
Ġref erences
ilt on
Ġeffect iveness
Ġpar am
Ġiss ued
Ġche er
undred s
Ġgl owing
Ġwa ist
Ġcollect ions
Ġcontin ually
Ġ6 8
Ġfree way
ret t
Ġconst itution
Ġincre mental
Ġdra ft
aster y
Ġ8 4
Ġfocus es
Ġvir gin
Ġprov ider
Ġthird s
Ġimpro b
Ġliter ary
Ġdig est
Ġvar ied
ĠWh it
Ġtem pl
ĠEurope ans
Ġlim itation
Ġsuper power
Ġpsych iatric
sh irt
itut es
Ġrele vance
apt op
Ġstructure d
Ġste er
Ġste ering
Ġstat ue
Ġpress ures
Ġfire fight
Ġsmart est
Ġinvent ing
Ġpost s
Ġpoll ination
Ġslow ed
Ġpredict ing
Ġavail ability
Ġmar king
Ġcompet itors
Ġsn ap
Ġsn aps
Ġfunction ality
Ġrece ives
Ġrich ness
light s
Ġrevolution ize
str ong
yn th
Ġsearch es
Ġcris es
Ġmis con
Ġrain fall
Ġconsider ation
ĠPr ime
ĠDe ep
Ġmethod ology
Ġclos et
Ġsupposed ly
Ġsyn c
ĠGe or
ĠGe hry
Ġthr illing
ĠRe g
Ġexplore r
Ġscr ap
Ġfra gr
ĠHar lem
ĠIsrael is
Ġcelebr ation
Ġcelebr ating
Ġautom ated
ĠMar garet
Ġselect ive
Ġhusb ands
ĠMc G
Ġvari ability
Ġut ility
ĠCol or
Ġrough ness
Ġjoy ful
Ġliber ation
Ġforg iveness
ĠTr ust
Ġtremend ously
amb ling
Ġburn s
Ġpet ro
Ġmid night
Ġbul bs
Ġmosqu e
mark s
Ġgift ed
Ġsimpl istic
Ġmotor cycle
Ġinvestig ating
ef in
Ġur gency
Ġhorr ific
Ġtit les
Ġpurs uing
Ġmaint aining
Ġdesert s
Ġkilomet er
Ġextract ed
Ġnan ot
Ġnan osc
ĠPhil ip
ĠPhil ipp
Ġremo ving
Ġbill board
Ġreprodu ctive
hol m
Ġnavig ation
Ġancest or
Ġstro kes
Ġcritic ized
Ġcritic ism
Ġlas ers
Ġcompar able
Ġpray er
Ġassign ed
Ġpin point
Ġmemor able
Ġcollaps es
Ġperman ently
Ġdistinct ive
ĠAh med
Ġregener ative
Ġdigit ize
bl owing
Ġtwe ets
Ġelimin ated
Ġdepth s
Ġclus ter
Ġinterf ere
Ġcosm ology
Ġintention al
Ġanticip ated
Ġeradic ated
ĠPort ugal
Ġfinger print
Ph ot
hear ted
ĠJon athan
Us ually
Ġdelight ed
part y
Ġveter an
Ġlegis l
Ġobl ig
ĠIm agine
ĠSyr ian
Ġcaf eter
Ġbreakthrough s
Ġtrop ics
Ġcert ified
Ġnurt uring
Ġmaxim ize
Ġinvolve ment
Ġinsist ed
Ġpubl isher
Ġbroadcast ing
Ġgang s
Ġcommod ity
osaur us
Ġarrow s
Ġintro verts
Ġstimul us
Ġbutter flies
ĠSen ate
Ġarrange ment
Ġspo of
Ġstrict ly
Ġexcl usive
Ġmarg inal
ĠVictor ian
Ġadvent ures
Ġimmort al
Ġincorpor ate
Ġoutrage ous
ĠLou is
Ġfragment ed
ĠMary land
Ġsubstant ial
amil iar
Ġenzy me
Ġmillenn ia
Ġintrins ic
ĠTah rir
Ġsubm itted
Ġlifel ike
Res earch
ĠPhot oshop
Ġsovere ign
ĠFree Speech
Ġregist ered
Ġillum ination
ĠLang ley
Ġjack et
Ġvag ina
ĠSus an
Ġpostc ards
Afric a
epr int
Ġasth ma
Ġgym n
Ġimpr ison
Ġblu eprint
Ġslog an
ĠHimalay as
Ġmillise conds
Ġjuven ile
Ġairl ine
Ġmant ra
ĠHop kins
Ġadequ ate
Ġencrypt ed
Ro bert
bast ian
Ġdement ia
Ġnick n
ĠCapt ain
ĠVenezuel a
ĠTenn essee
Ġintergal actic
4 5
A pp
B ab
C S
C ur
C ertain
E T
E ng
G reen
H undreds
I Y
J o
J on
K now
L ee
M RI
N T
O S
P P
S B
S er
T rans
Z K
b urn
c am
c use
d ro
d est
d iving
e id
e ye
f it
f ting
f ty
g i
g ill
g ically
h ind
h ib
i oux
j an
k ill
l ies
l ishing
m o
m eter
o cial
s aw
t i
w id
w atch
w aves
z o
Ġt oug
in ates
in ator
Ġw att
re ction
Ġs erendip
at z
Ġc roc
is ure
Ġb ounce
Ġm our
Ġm ates
Ġh orn
Ġh iring
Ġp ess
Ġp ets
Ġp avil
an ch
an th
Ġd imin
Ġd ye
Ġof tent
Ġl ent
Ġy o
om i
Ġg ir
Ġg ad
Ġg oss
as er
ic ut
le ans
Ġwh ip
Ġe ager
us sell
Ġre use
id ote
ig rade
Ġst ain
Ġst umbled
ch ar
ro ck
ir ational
op edic
st ick
ol is
ol ate
Ġli vel
Ġwor n
So cial
Ġhe el
Ġhe ars
ul ent
il ibr
Ġso ber
Ġex ile
Ġr ipp
Ġr ipped
Ġr anging
Ġpro geria
ess age
ate mala
um ara
ist ine
ist ance
Ġlo gging
Ġma j
Ġv ow
Ġout ward
ĠA D
ĠA aron
ĠA imee
Ġal gebra
Ġint est
Ġint ractable
ide o
Ġsp iders
ĠS ioux
Ġup grade
ich olas
Ġpl aque
Ġact ed
iv als
ĠC y
ĠM T
ĠM oh
ĠM oses
Ġtheir s
ast ically
iz ens
iz able
Ġcomp ress
ous y
Ġen rich
Ġle isure
ĠB P
ĠB art
Ġqu art
Ġev olves
Ġfe ared
ĠH ome
ĠH ell
ĠH oly
ĠH appy
Ġag rees
ĠT er
ĠT ar
ĠT op
ĠT arah
ĠG ary
Ġun ion
Ġun ch
Ġun ple
Ġun con
Ġun ited
Ġun think
Ġun aware
ĠE at
Ġcl ash
Ġcl apping
Ġcl oned
Ġpr ince
ĠP ic
ĠP ent
ĠD ick
ĠD IY
Ġimp osing
Ġimp lication
ĠN ext
ĠN ik
Ġover d
Ġbu nd
Ġright ly
own ed
Ġdis in
Ġdis sect
Ġdis abilities
ass ador
ign ific
ep ler
cent ric
ĠL HC
Ġkind ly
Ġunder p
Ġunder cover
ĠR om
ĠR ow
ĠF air
ĠO w
ĠO tt
form ed
Ġdown stairs
Ġwr ist
xt apos
Ġsc our
Ġsc are
ne e
Ġhuman e
Ġhuman oid
be e
Ġapp rent
Ġcr ow
Ġcr ust
Ġcr ude
Ġbl ows
Ġbel t
ĠK ar
ĠK atrina
Ġend ow
Ġmean while
Ġfl ipping
Ġlast ed
Ġke en
Ġrel ational
Ġrel ativity
Ġcar bs
ob ia
Ġinter depend
Ġfound ing
Ġbit es
oc al
oc amp
Ġstr at
Ġstr ive
ĠY et
Ġexam s
Ġcell ul
Ġquestion ed
uc cess
Ġsl ing
Ġsl ate
Ġmed ieval
ĠWe ibo
Ġcountry side
Ġel ites
Ġ4 1
Ġlar v
Ġreg imes
gg y
Ġinf rared
Ġsoci oe
ĠSo bule
Ġpres cription
aps es
Ġhist ories
Ġadd icted
Ġey ew
bo at
Ġprot esters
ortun e
Ġrest or
Ġrest oration
Ġpain ts
Ġmark ed
most at
Ġequ ator
ape ut
no vation
arth eid
rop he
rop ortion
Ġcond em
Ġcond uctor
Ġworks hop
Ġche ek
Ġche cks
Ġass ault
Ġtool box
uck ing
ock s
Ġprogram m
Ġpay ment
Ġstate ments
Ġ9 4
Ġfree ze
Ġdra gging
Ġdi ary
Ġjo ins
Ġfund ers
Ġprov in
Ġcra w
Ġcra ving
aw i
Ġaud ition
Ġaud itor
ĠAr chie
Ġdeal t
urs day
Ġmiss ions
Ġda f
Ġwind mill
Ġsens itivity
Ġshort age
Ġz oning
Ġpract iced
Ġnon etheless
ĠAl i
Ġtrad ed
Ġbeginning s
vent y
Ġemb ro
Ġmult it
ĠTh ird
Ġcirc ular
Ġpoll inators
ai res
ai wan
Ġcivil ian
ĠCan cer
ĠCan yon
Ġtele phones
Ġguess es
lu id
Ġbra kes
Ġprom pt
Ġprom oting
ĠWorld W
oll en
Ġarr ives
ĠLe ague
Ġcarbon ate
Ġrece iver
put ers
Ġfair y
ĠBe fore
Ġparticip ated
Ġce ase
St ep
St ories
Ġclean ed
Ġunf inished
Ġneighbor ing
Ġconsider ably
Ġfix ing
Ġvirt uous
Ġther mostat
Ġswe ats
Ġcollabor ating
Ġfinan cially
Ġbal con
Ġbal ancing
Ġsecret ly
Ġcalcul ators
ster dam
ĠWestern ers
Ġrespect s
ĠBra d
ĠBra nd
Ġsus pected
Ġsus ceptible
Ġoptim ize
Ġmal ware
Ġ198 9
Ġstandard ized
Ġoffic ially
eral d
ĠOr leans
Ġsurround s
Ġemail ed
Ġprevent ed
Ġspaces hip
ĠMar io
ĠSp ider
ĠSte ven
Ġhall way
Ġvast ly
Ġver bs
Ġfat ty
Ġtens ions
Ġreve aling
ĠFor ce
ĠTr uth
Ġhyd ro
Ġchick s
ĠMich el
Ġbul lets
Ġillustr ation
Ġquant itative
Ġterror ist
Ġhell o
Ġtour s
Ġinvestig ative
Ġappreci ated
ĠEd ward
Ġiron ically
Ġcounter intuitive
ĠGra ham
Ġtransformation al
Ġacadem ics
Ġhun ter
Ġimpl ants
Ġsight ed
Ġacceler ated
Ġvibr ate
Ġvibr ations
agr ams
ĠSch war
Ġnegot iations
Ġstock p
Ġmanip ulated
Ġsevere ly
ograp hing
Ġuns ustainable
Ġju xtapos
Ġshr ink
Ġoccup ied
ĠJul ie
Ġinstinct ively
Ġdesk top
Ġsem ester
Ġshell s
ĠUS DA
Ġfootprint s
Ġstere o
ĠKh mer
van ia
Ġfert ility
ĠTor aj
olit ics
car bon
Ġpharm ac
Ġguarant eed
Ġ36 0
Ġconserv atives
Ġvert ically
ĠLad y
Ġfool ed
Ġreson ate
Ġhat red
Ġcoun cil
ĠBrown e
Ġfirm ly
Ġanthrop ology
Ġanthrop ologist
Ġsynthes is
Ġpra g
ĠCA PTCHA
Ġdump ed
Ġmanufacture r
Ġastronom ical
Ġaes thetics
Ġna ught
Ġdiam ond
Ġpersu ade
Ġfertil izer
ournal ist
Ġsettle ment
Ġnonviol ence
ĠMove ment
Ġsin ister
Es pecially
Ġdeliber ately
Ġfavel a
Ġtriang les
Ġupd ated
Ġtooth brush
ĠMill er
Ġneuroscient ists
ĠPan theon
Ġrestrict ed
Ġthylac ines
Ġinn oc
Ġinher it
ĠMel inda
Ġcub ic
ĠEs sex
ĠWal mart
Ġsurviv or
Ġcabin et
Ġblob s
ĠWil son
Ġvolcan o
Ġenzy mes
ĠBu y
Ġintrins ically
Ġinfer ior
Ġunderest im
Ġunderest imate
Ġdens er
Ġje ans
Ġsched ule
Ġlex ic
ĠMoz art
Ġhipp ocamp
Ġperse ver
Ġundergradu ate
Ġthorough ly
ĠEconom ist
ĠPenn syl
Ġrac ism
Ġware house
Ġrend ered
Ġoverlo oked
Ġcoch lear
ĠUk raine
ĠArk ansas
Ġcataly st
Ġtread mill
Ġom n
Ġstew ards
ĠCher nobyl
ĠKib era
ĠConnect icut
Ġacquis ition
ĠAch ill
Ġenab ling
Ġexhilar ating
Ġlou der
Ġcym atics
Ġcatal og
Ġfingert ips
Ġreconst ruction
Ġbos on
Ġhilar ious
ĠSara jev
ĠGerm ans
ĠPeps i
ĠNorm an
ĠRou ge
ĠVoy ager
Ġadvant ages
Ġobliv ious
Ġmarshm allow
Ġimprob able
Ġtoug her
Ġpess im
Ġoftent imes
ilibr ium
ĠTarah umara
Ġunple asant
Ġsocioe conomic
ĠPennsyl vania
ĠSarajev o
6 0
C P
C he
E l
F e
F re
F ort
G iven
H ar
H as
L ater
M M
M art
N inety
O C
P ro
P ublic
Q aeda
S cience
S pace
T D
W atch
W orking
a ise
b and
b ound
b rew
c ats
d i
d esign
f ur
g as
g ars
h ome
h av
h orn
i ary
i hood
k o
l av
m at
m oor
n ity
n als
p ically
r ate
r ine
t r
t ion
t rov
u j
w ith
w ild
w heel
y our
Ã ¨
Ġ %
Ġ ic
Ġ 00
Ġt ense
Ġa ims
in et
in ese
Ġw ounds
at an
at ile
at ma
at ops
Ġc el
Ġc ush
Ġc asc
it ives
os ion
Ġb a
Ġm ash
Ġm ites
Ġh ood
Ġh ug
Ġh uh
Ġh arsh
Ġp ist
Ġf irms
Ġf MRI
an c
an ium
Ġd eng
Ġd up
Ġd ug
Ġd unes
al in
Ġl atter
Ġl ined
ot te
Ġy elling
Ġg y
Ġg ur
Ġg aming
le ments
ĠI T
ve t
Ġwe aker
Ġbe ep
ut ure
et ary
Ġre h
Ġre imagine
ig ers
ro y
Ġfor age
Ġfor ged
Ġwas ting
op t
ith a
st ood
ol ia
ol era
th ird
th ony
ra it
Ġgo ats
Ġcan opy
Ġli king
Ġli vest
Ġsh ade
Ġsh ipped
ad ores
Ġhe ct
od d
ter ior
Ġnot ions
ul ator
il b
Ġr app
Ġr amp
Ġpro ving
ear ing
art ing
um ann
Ġkn ob
Ġv ague
Ġout we
ĠA R
ĠA x
ĠA ud
ink ering
Ġsp ite
Ġsp ouse
Ġsp ike
Ġsp ikes
Ġtr ump
ĠS co
ĠS ty
ĠS ri
ĠS OPA
ci a
Ġup s
Ġup t
el ines
Ġpl otted
iv ate
iv ated
ĠC uba
ĠM ister
ose conds
Ġcomp ost
act ly
ab b
Ġle aks
ag u
Ġexp osing
ĠB ear
ĠB est
ĠB ry
ĠB usiness
ĠB ruce
age ye
Ġqu ir
Ġfe at
Ġag ed
ĠT est
ĠT so
ĠT ry
ĠT umor
ĠT aiwan
ĠG G
ĠG ill
ĠG roup
Ġun e
Ġun m
ĠE D
ĠE ar
ĠP y
ĠP itt
ĠP oint
ĠP ublic
ĠP IPA
ĠD J
ĠD M
ĠD ur
ĠD iver
ĠD iam
Ġpart ial
Ġco co
Ġdis k
Ġdis integr
Ġpo nds
Ġmo ck
lo c
Ġro yal
ĠL i
ĠL ank
ĠL imb
Ġunder way
Ġam ph
Ġfo nd
ĠR ich
ĠR ec
ĠR ivers
ĠR edd
Ġdes criptions
Ġad ap
Ġbo iling
Ġdifferent ial
ĠF a
ire ction
ire trov
du cer
Ġhum id
int end
Ġcomm ons
Ġcomm ute
Ġcomm ander
Ġpre view
ĠO scar
Ġsm ashed
Ġsur re
Ġsur rog
Ġwell s
be c
Ġsystem ic
ĠCh oir
Ġlet t
Ġra cial
Ġinv asion
av ored
Ġrem ed
ĠK al
ĠK ent
ĠK ay
Ġend uring
Ġend lessly
Ġfl ap
Ġfl ick
Ġfl ush
Ġfl ipped
Ġfl aws
Ġlast ing
Ġtrans national
Ġinst itute
Ġpower less
Ġpol ite
Ġinter pre
Ġent ity
Ġstr ipped
ĠY o
ĠIn fin
Ġdevelop s
Ġsl ave
Ġsl ime
Ġsl aves
Ġmod ify
Ġcre ations
Ġplace bo
Ġmon ument
Ġ19 93
Ġgra vel
Ġser ial
Ġser vers
Ġplan ner
cond ition
Ġcent r
Ġed ited
Ġrep orters
Ġ5 6
Ġproject or
air y
Ġbi ases
wh ite
gr ow
Ġsing ular
Ġcou pled
ĠV iv
Ġgovern ed
irl wind
cus es
Ġmonth ly
Ġroom mate
Ġwar mer
Ġwar fare
Ġadd s
Ġphys iological
ead ers
Ġpain ter
Ġref ine
Ġequ ilibrium
ash y
Ġkill ings
Ġfore ns
Ġfil ed
rop rocess
Ġtreat ies
atic a
Ġ6 7
ĠâĢ ĵ
Ġfront iers
Ġcra wl
Ġlisten er
Ġdep ict
Ġav iation
Ġemp lo
Ġve ins
aw a
Ġthird ly
Ġaud itory
Ġbott lene
Ġneur ologic
Ġpresent ations
Ġmic roprocess
Ġz oo
Ġextra ction
Ġprotect s
Ġant idote
Ġant iretrov
Ġpract ition
ĠAl t
Ġsupport s
Ġperform er
Ġperform ances
Ġsuper f
Ġsuper her
Ġ40 1
Ġphotograph ic
Ġ18 7
Ġground ed
Ġexperiment er
Ġess ay
Ġinsp irational
sh ine
sh ire
Ġmeaning less
Ġflo ck
Ġdest ructive
Ġsuggest ions
Ġrespons ive
ĠTh ula
ĠTh ursday
Ġrul ed
Ġpredict ive
Ġcop s
Ġtrust ing
Ġmar ries
Ġarr anged
Ġsimilar ly
Ġdefin itions
Ġball oons
Ġsell s
Ġattack ing
Ġactiv ism
Ġpassion ately
Ġmechan ically
Ġexcept ional
St ephen
pan y
Ġrain bow
Ġtransl ates
Ġprogress ively
ĠPr ot
ĠPr otect
Ġswe ep
ĠJohn s
Ġassum es
Ġcapt uring
Ġbom bers
enn ium
Ġtrou bling
Ġcook ed
Ġdeterm ining
Ġrandom ness
ĠAm sterdam
Ġrespect ful
Ġquot ed
Ġachieve ments
Ġstar ving
Ġinterview ing
Ġsal mon
Ġgradu ates
Ġselect ively
Ġcampaign ing
ĠAustr ia
ĠCl ub
ibr ary
Ġinstr umental
Ġbroad ly
fl ix
ĠChar l
ĠRuss ians
amb ia
Ġhom osexual
ĠNor se
Ġcheap ly
Ġble ed
Ġble nded
urd y
Ġstream ing
Ġreward ing
Ġaccident al
Ġtrip le
Ġattempt ing
Ġveget ation
Ġdomin ance
Ġcognitive ly
ĠJust in
ĠEgypt ians
Ġbomb ing
Ġbomb ed
hold er
Ġtun nels
Ġsucceed ing
ĠGu atemala
Ġdisc ou
Ġclick s
Ġdisp roportion
ĠAb out
Ġbelong ing
Go vern
cut ting
ris k
Ġtow ers
Ġdisplay ed
Ġpeak s
Ġmigr ant
Ġmyth ology
ĠOn line
ĠBar ack
Ġrig ged
Ġcontain ers
Ġheight s
Ġflat ten
cont roll
Ġgrateful ness
retch ed
Ġreject ion
Ġsem inal
Ġattend ance
Ġcompl ained
keep er
Ġguide lines
ĠDarwin ian
Ġru in
Ġrub ble
Ġped iatric
ĠCom puter
Ġexplos ions
Ġdefend ing
Ġintuitive ly
ĠFin land
ĠFin ancial
Ġiniti atives
Ġstretch ed
Ġchap ters
ias m
ĠBab y
Ġanticip ation
Ġgall ons
Ph il
Ph ys
Ġid iot
Ġpupp ets
ĠPol ice
Ġsynthes ize
Ġder ived
Ġgre ed
ĠAir port
ĠMor ning
Ġgam ma
ĠMah moud
ĠTasman ia
Ġhelicop ters
Ġimmun ity
Ġfertil izers
Ġconver ting
Mar co
Ġgrat ification
ĠDen is
ĠLED s
Ġcatast rophe
ĠTrans ition
Ġchimpanz ee
Ġglaci ers
Ġgig antic
ĠMount ain
Ġcompos er
Ġinterrupt ed
Ġenterpr ises
Ġskept ic
ĠInt el
Ġnerd y
Ġintim id
ĠBay es
ĠPlay er
Ġreinvent ing
ĠNic o
Ġcontag ion
Ġdrown ed
Ġasteroid s
col m
tra ck
Ġsulf ur
Ġenthus iasm
Ġfisher men
Ġslic es
Ġoutd ated
Ã¡ n
Ġshout ing
Ġsubstant ially
Ġprev ents
Ġhint s
ĠCamp aign
Ġlifel ong
da ughter
Ġexpon entially
ĠNaz i
Ġresur rect
Ġtelecom munications
Ġexha usted
ĠBroad moor
Ġnu anced
ĠHir osh
Ġresident ial
Ġcasual ties
Ġmater nal
Ġanecd ote
Ġbiolumines cent
Sm all
Ġtut or
Ġlegend ary
ĠHung arian
Ġnumer ous
ĠCopern icus
Ġreun ion
Ġpean ut
ĠHind u
ĠDig ital
Ġpsychiatr ist
Ġtin iest
Ġsuburb ia
Ġcorrid ors
Ġlocom otion
Ġcertific ate
Ġbip olar
Ġlyr ics
Ġdepr ivation
Ġorth opedic
Ġquar ters
Ġbiomaterial s
pat tern
ĠServ ice
ĠLabor atory
ĠAur ora
ĠStock holm
Ġbioch em
ĠMatth ew
Ġwre ck
ĠMathem atica
ĠGuard ian
Ġattor ney
Ġpenal ty
appropr iate
Ġmocking b
Ġbrow se
Ġnanosc ale
Ġgoss ip
Ġlivel ihood
Ġunthink able
Ġlarv ae
Ġauditor ium
Ġmultit asking
ĠWorldW ide
Ġhippocamp us
Fort y
Ġdeng ue
Ġlivest ock
1 1
1 5
4 0
4 00
A T
A bsolutely
B ob
B usiness
C T
C al
C am
D ay
E ur
E ither
F ur
F ast
F ifteen
H ad
H umans
K B
L anguage
P sych
R ad
S am
T im
V o
a omi
b es
b ly
c ling
d s
d oor
e ight
g ot
g ard
g ue
h ed
h as
i oc
l ink
m ath
m inder
n ish
o xy
p se
p able
r iel
s is
t rans
t itles
u ble
v ably
w right
Ġ iv
Ġ 91
Ġt ang
Ġt ire
Ġt ipping
Ġa pe
in ative
in vasive
Ġw and
re f
re str
Ġs ings
at ized
er atops
ou l
Ġc ue
Ġc ater
it is
it ler
os y
os ov
Ġb ot
Ġb id
Ġb ass
Ġb ark
Ġb umble
Ġb ibl
ing ton
Ġm ans
en za
ap ot
ap minder
Ġh ust
Ġh atch
Ġh ives
on al
Ġp ic
Ġp ly
Ġp ore
Ġp ac
Ġf itting
Ġf ills
an im
Ġd airy
or able
al o
Ġin ability
Ġl am
Ġl ining
ar o
ar se
ar ity
ar ak
ot ics
Ġg aze
ic ides
ĠI K
ll ip
Ġn od
Ġn ich
ow an
us et
ut ter
Ġre ar
id ays
Th ousands
im et
im ental
ur ated
Ġst ink
Ġst akes
ch emical
ere y
ro Ã§
Ġfor aging
if lu
se us
op ran
Ġan ch
th em
Ġab normal
Ġse men
Ġse aled
Ġk in
Ġli bert
Ġsh ook
Ġsh attered
ad er
ad der
Ġwhat not
ould er
ge nder
ant astic
ul ence
il age
Ġfr idge
Ġj ars
Ġj ams
Ġex cuses
Ġch k
Ġch olera
Ġde licate
Ġr iot
Ġpro ves
Ġcon cussion
um atic
Ġlo vers
Ġkn ives
Ġv on
Ġv apor
ĠA cc
ĠA mb
ĠA ges
un ks
Ġint oler
ide l
Ġsp ine
Ġsp ong
Ġsp onge
Ġsp otted
ĠS ac
ĠS pl
ĠS elf
Ġthink er
el ve
Ġby produ
Ġpl ut
ĠC art
ĠC oh
ĠC IA
em in
em ing
ĠM ub
ĠM ull
ĠM aps
ĠM osc
ose vel
ous ing
ab el
Ġle vers
Ġle aked
ag ne
ĠB at
ĠB erg
ĠB ax
ĠB ageye
Ġper me
Ġev ident
res olution
ĠH az
ĠH oney
ĠH uck
ĠH unt
ĠH mm
ĠH eart
ĠH unter
ach uset
Ġwhere by
ĠT reat
ĠT own
ĠG ame
ĠG reg
ĠG wen
Ġneed ing
Ġneed les
Ġun ac
Ġun ified
Ġtw in
ĠE nd
ĠE ffect
Ġcl ap
Ġpr izes
ĠP ut
ĠP ur
ĠP ier
ĠP rodu
ĠD D
Ġimp ulses
ry st
ĠN ation
ĠN aj
ip car
ip otent
Ġco ins
Ġdis son
Ġmo ons
ater al
cent ure
ĠL unch
ĠL aptop
ĠL ibrary
Ġcont empt
Ġbet ting
Ġunder go
ru g
ĠR un
ĠR ussell
Ġdifferent iate
ĠW ide
ĠW ales
ĠW oo
Ġem an
Ġgr am
Ġgr ief
ak i
ĠJ ava
ĠJ ennifer
Ġoff ensive
ord ial
Ġsc ru
Ġpers ons
Ġdec on
Ġdec isive
be cc
ĠCh op
Ġcr ater
Ġcr unch
Ġinv is
Ġinv aded
Ġinv asive
Ġbl iss
Ġbl ues
Ġgu est
Ġwom b
ric eratops
Ġcreat ively
ĠK arl
ĠK epler
ty pe
Ġins ignific
Ġfl own
Ġtrans f
Ġinst ability
Ġmight y
Ġrel ies
Ġpol es
Ġimag inations
Ġstr ips
ĠY ves
pl an
ĠSt ay
Ġmod erate
ork ers
Ġmon sters
Ġ19 91
Ġgra ves
Ġmet ropolitan
Ġmet rics
Ġwater fall
Ġdem oral
ote chnology
Ġeng ulf
Ġsub d
Ġsk ies
Ġopen ly
Ġconf use
Ġcor als
Ġsol ves
Ġhead ache
Ġcle ared
arr ow
ĠV ill
ĠV isual
ever ly
Ġval ves
ĠTED ster
Ġtop s
Ġdef ect
Ġwar n
idd ing
Ġdist ort
Ġcur tain
Ġopp ression
Ġdet erg
Ġstuff ed
Ġrest ored
Ġrest oring
Ġref lex
Ġdev ised
ĠIs a
Ġworks hops
Ġsw ap
ex p
Ġcost ly
Ġass ert
Ġass ured
Ġpast ing
Ġwa ving
Ġcollect s
Ġcontin uum
Ġpay off
Ġpay load
Ġresult ed
to ire
Ġsec re
Ġ7 6
Ġ8 3
Ġ8 9
Ġvo ic
Ġprov ince
Ġneur ot
ĠAr m
ĠAr ts
Ġmiss ile
ider y
Ġtyp ed
Ġill iterate
omet ers
Ġland fill
Ġcoll ar
ĠBr others
Ġshort cut
Ġjour nals
Ġz ip
Ġz eros
Ġextra cellular
ĠAl an
osp heric
Ġlim bs
Ġpsych otic
Ġemb ark
Ġextrem es
Ġextrem ists
Ġviol ation
Ġviol ated
ipp er
Ġmult id
Ġcal ibr
Ġground s
Ġground breaking
Ġfilm makers
Ġenc oded
Ġcam el
Ġge ck
sh ot
sh ifting
Ġconsum es
Ġap es
Ġflo ods
Ġdest ined
Ġfire fly
ann es
asc al
Ġtext ile
Ġsmart phones
Ġsustain ing
Ġpoll inate
ĠCan al
Ġintern ationally
Ġguess ed
ik ed
Ġtype writer
lu x
Ġpredict s
Ġprop osing
Ġprom otion
Ġtechnolog ists
Ġer ase
Ġer osion
Ġtransform s
Ġpeace keepers
Ġarr iving
Is rael
ĠZ e
Ġtouch es
ĠLe gos
Ġsn iff
Ġball ast
Ġvisual s
Ġest rogen
Ġvision ary
Ġboy friend
ĠBe at
Ġsearch ed
Ġblind ly
Ġclean ers
Ġprim ordial
Ġmis c
Ġunf amiliar
Ġcart ilage
Ġep it
Al ready
Ġvacc inated
ĠDe an
Ġbar rel
Ġther apeut
Ġdam aging
Ġpush es
Ġappear ing
Ġjud ged
Ġdepend ed
Ġ201 3
Ġspeed ing
Ġsyn apses
enn ett
Ġtrou bled
ĠCar ter
Ġpublish ers
ĠChrist opher
Ġcalcul ator
Ġslight est
ĠGe org
Ġsou ls
Ġjump s
unk y
back s
Ġdemonstr ating
Ġthrow s
Ġport able
Ġ198 6
Ġ198 8
Ġdro ple
Ġautom otive
Ġmotiv ations
Ġmotiv ates
af a
ĠIraq i
Ġintegr ating
Ġcustom ization
Ġlaws uit
ĠCl ay
Ġterm inal
ĠIndian a
Ġstrength en
Ġblog ger
Ġlack ing
Ġcontroll er
Ġhang s
Ġpuzz ling
Ġrecon fig
ĠTr ue
gn es
hand ed
Ġcru x
Ġhom em
Ġhair s
Ġmeas urable
ĠPro gress
ĠMe et
Ġdemand ed
Ġcontact s
Ġtast ed
Ġrepe ating
Ġtough est
Ġbul k
verse ly
Ġwear able
ĠBill y
Ġwond rous
Ġsimpl ify
Ġshel ters
Ġwire lessly
ĠEd en
Ġur ges
Ġprototy ping
Ġnutr ient
Ġdial s
Ġadop ting
Ġgrid lock
prof its
Ġacceler ation
ĠWith out
Ġreview ed
Ar thur
Ġconduct ive
Ġanalog ies
Ġcere al
Ġcontract s
ĠRep ort
ĠBar b
ĠRob inson
Ġille g
Ġscar f
ĠAc centure
ĠTe le
Ġestab lishing
ĠCo oper
ĠIslam ist
Ġrot ating
Ġencoura ges
Ġaccompl ishment
Ġmemor ized
Ġanonym ity
Ġdevast ation
Ġmad ness
Ġattend ed
Ġflag s
Ġwhist ling
Ġdiss ent
Ġtrig gers
ĠMont erey
Ġelectro de
Ġbrib es
ĠMal ays
Ġdigit ized
Ġtack ling
Ġhur ry
ĠCom pany
Ġblank et
Ġirr igation
ĠGl ad
Ġrefriger ators
Ġgut s
Ġleap f
Ġcrash es
Ġyield s
bal ance
Ġtoler ate
ĠGr ant
Ġdecre ased
Te acher
Ġconcert s
Ġsed uction
Ġfool ish
Ġpleas ures
Ġscript s
Ġspr int
Ġtent h
Ġunbelie vably
ĠCr itic
Ġhol istic
Ġrenew ables
gu ard
ixt y
Ġgam ers
ĠMah atma
Ġobl igation
Ġ195 7
Pr ince
Ġpsychopath s
Ġwid ow
Ġincident ally
Ġwhis per
ĠBon net
Ġemphas ize
Ġtear ing
ĠLib ya
ĠNeander thal
Ġdegrad ation
Ġaer ial
Ġalph a
ĠMill ennium
Ġpercept ual
Ġcareg iver
Ġarrange ments
Ġoy sters
tra umatic
ĠNet flix
Ġgenuine ly
Ġsco oped
Ġdrought s
Ġmini ature
Ġsew age
ĠColl ider
Ġingen ious
ĠTurk ish
Ġslic ed
NC RA
Ġsne ak
Ġimmers ed
Ġvivid ly
orr h
Mus ic
Ġshred ded
Ġorang utan
ĠLin ux
Ġcorrel ated
Ġunle ash
ĠDes ert
Ġproph et
Ġexpon ential
ĠHad ron
Ġunderm ine
Ġaltru ism
Ġheter osexual
ĠHir sh
Ġcarp enter
Ġinhabit ants
Bet ween
Ġmit ig
Ġinse cure
Ġfemin ism
Fr ank
ĠArch itect
ĠBlo om
Ġoccas ional
Eight y
Ġpix els
Ġpiss ed
ĠMot or
Ġenthusi astic
Ġfier ce
Ġreper toire
ĠMid west
Ġscal able
Ġaccommod ate
Ġlegitim acy
Ġtender ness
Ġalar ming
ĠPap ua
Ġwrink les
Ġperipher y
Ġorb iting
ĠCla us
ĠMass achuset
ĠTam iflu
Ġsanct uary
ĠAra bs
ĠCase y
radition al
Ġinexp ensive
Ġais le
ĠMell on
ĠField s
Ġreluct ant
Ġdeter ior
Ġredisco ver
Ġunnecess ary
Ġdazz ling
Ġjun ior
ĠBah amas
Ġadul thood
Ġtestim ony
Ġmirac ulous
ĠCommand ments
Oft en
zs child
Ġmun icip
Ġwets uit
ĠeB ay
Ġjur is
ĠCoch rane
ĠHoll and
ynth ia
Ġnanot ubes
ĠPhilipp ines
Know ing
dro pping
Ġembro idery
ĠSchwar zschild
Ġreh ears
Ġoutwe igh
ĠSco op
ĠGill ian
Ġadap ting
Fur ther
Ġbyprodu ct
ĠMub arak
ĠMosc ow
osevel t
ĠBax ter
becc a
ĠMassachuset ts
2 9
6 4
A C
A c
A lex
B r
B its
C omm
D is
D ifferent
F L
G r
I de
I ran
L a
L ight
L ots
M et
N orm
R ep
R ead
R achel
S il
S ec
T B
Y ves
a a
b ish
b order
c ourse
d ies
f a
f ound
f elt
f illed
i ants
k i
l apse
m i
n ical
n ters
o cho
p op
r d
r ase
r ified
s a
s ix
s olving
s burgh
u is
u ated
u ces
v ens
w as
w ire
w ick
w oman
z i
Ã ³
Ġt ub
Ġa pt
Ġa irst
in n
Ġw andering
Ġw atts
re ll
re ls
Ġo zone
Ġs opran
at able
ou fl
Ġc er
Ġc uc
Ġc ada
is ol
it ations
it ious
os ia
Ġb atch
Ġm uff
Ġm asks
en ance
en ny
Ġh i
Ġh es
Ġh ay
Ġh id
on el
Ġp od
Ġp ots
Ġp ads
Ġp aj
Ġf ences
Ġd um
Ġd ated
Ġd une
Ġd anced
or ia
Ġin efficient
Ġin effective
ar g
ar ial
om atic
Ġg ently
Ġg ears
Ġg yrus
as is
as semb
ic ated
Ġn our
Ġn ost
Ġn ests
Ġn arc
Ġwh aling
us ively
Ġbe nding
ut t
et to
Ġre ception
Ġre organ
Ġre lying
ent iful
And rew
ur g
Ġst itch
Ġst unned
ch em
ch ange
if eration
am y
am ents
ir cle
op ing
st on
st ore
st eps
ol s
Ġwith d
th s
th on
th reat
ra nd
ra wl
Ġab d
Ġu h
Ġu mb
Ġse greg
Ġk ings
Ġas yl
Ġas cend
Ġsh ores
Ġme ga
Ġme erk
Ġme adow
ge l
ant om
Ġso cks
ust ion
Ġj ig
Ġj ets
Ġj eal
Ġr hy
Ġpro hib
ear ning
Ġcon form
Ġcon gr
um i
ure ka
ok er
est ial
Ġma id
Ġte apot
ĠA g
Ġsp am
ie u
ie ber
ie ces
ĠS W
ĠS ide
ĠS add
Ġup wards
Ġpl acing
Ġpl entiful
ĠC ou
ĠC ultural
ĠM O
ĠM oney
og g
og h
ast rous
are foot
Ġcomp ass
Ġen act
Ġen for
Ġta boo
ab a
ab s
Ġle ash
ag asc
Ġexp o
ĠB an
ĠB ow
ĠB ach
ĠB uff
ĠB agh
ĠB BC
ĠH ur
ĠH ard
ĠH amp
ĠH alf
ĠH elp
Ġag gression
ĠT oy
ĠT riceratops
ĠG ot
ĠG ener
ĠG apminder
Ġdiff use
Ġun co
Ġun ravel
ĠE ducation
ĠE EG
Ġpr one
ĠP ants
ĠD am
ĠD ire
ĠD ead
Ġimp osed
Ġimp licit
Ġover load
Ġdis eng
Ġdis put
Ġdis cont
Ġdis section
Ġdis astrous
Ġback pack
ib i
Ġpo etic
Ġro oft
ĠL es
ĠL ion
ĠL arry
Ġcont aining
Ġbet ray
ru p
Ġam en
ell ar
ell ows
ĠR ub
ĠR achel
ĠR iley
Ġdes al
Ġdes ks
Ġbo il
Ġbo ils
ĠF ight
ĠF arm
ĠW ild
ĠW ang
ĠW ars
ĠW ood
Ġsy ll
ick r
ak u
ak ery
Ġpre hist
ĠO ther
ĠJ u
ĠJ oh
Ġoff enders
Ġdown stream
ress ive
Ġinc ons
Ġinc omp
ĠU t
ĠU nder
Ġbr ink
ile o
Ġgreat ness
te xt
we ek
Ġapp alling
ĠCh ap
ĠCh all
Ġtechn ician
Ġind efin
Ġra ge
Ġra ging
Ġcr ay
Ġcr ipp
Ġbl amed
Ġbl adder
Ġgu ides
Ġlong ing
ĠK a
ĠK as
ĠK id
ĠK ate
ĠK ite
ĠK night
ĠK iva
pe ople
he im
Ġfl ute
Ġfl ashing
Ġfl utes
Ġunderstand able
Ġtrans ducer
Ġbas es
Ġpower fully
ob iles
Ġinter tw
Ġcons erve
oc ation
pl aces
oth y
ĠSt at
Ġexam ining
ĠIn v
ĠIn side
ĠIn uit
ĠIn vest
Ġdat as
Ġmod ules
az ing
Ġcre st
Ġ10 1
iss ors
Ġmon opoly
Ġ19 18
Ġpat r
Ġpat ron
ph em
Ġgrow ers
Ġfin est
Ġlight weight
Ġlight bul
Ġwater front
Ġread ily
Ġless er
Ġposs essions
Ġexpl oding
Ġel usive
Ġstu nt
Ġbi ography
gr own
gr ass
Ġsub urban
Ġsub mers
ins p
Ġconf ession
Ġconf irmed
Ġacc ord
Ġcap acities
sw ana
Ġsol itary
Ġelect oral
ĠSo lly
ĠV er
ĠV iking
ĠV inci
Ġgovern ors
Ġpres ervation
Ġpres erved
Ġpres erving
Ġspec ulation
Ġphot ographing
Ġdist ill
Ġdist ress
Ġyoung sters
Ġeduc ator
Ġweek ly
work s
ograph ically
Ġsuc c
ĠHe brew
Ġheart beat
Ġboth ered
Ġfore most
Ġfore head
Ġdev otion
Ġclass ification
Ġpar an
Ġcost ing
Ġgl uten
Ġwa x
Ġcollect or
Ġret r
Ġret inal
Ġcontin uity
Ġadv is
Ġresult ing
Ġ7 50
ush room
Ġvo y
Ġprov oke
Ġdep uty
Ġdep ressing
Ġve t
Ġhold ers
Ġneur o
Ġda unting
Ġarch ety
Ġmic row
Ġpred omin
Ġfear less
Ġhands ome
Ġfre aking
ĠSh ar
ĠSh ake
oph ys
Ġchem ists
Ġcommon place
Ġsun set
Ġsun shine
Ġple a
Ġlim iting
Ġsuper p
Ġsuper st
Ġphotograph ers
Ġstrong est
ook s
ook ie
Ġ18 8
Ġcool est
Ġvers a
Ġcy bor
Ġcy cl
Ġimpact ing
Ġimpact ed
bor ne
Ġdirect ed
Ġap artheid
erm at
ĠAs s
ouch ed
Ġfire men
Ġhar ass
To o
Ġvac ant
Ġpost ing
chie f
Ġguess ing
ik a
Ġer u
Ġlif ts
Ġsil ently
Ġtrust worthy
Ġarr ival
Ġevolution arily
book s
Ġsimilar ities
ĠZ et
ĠZ ero
Ġcompet itions
Ġconflict ing
Ġtable t
Ġson ic
head ed
Ġattack er
Ġvisual izing
Ġflu ent
Ġreact ing
Ġemerg ent
Ġparticip atory
St art
Ġmist aken
Ġencou nters
Ġadm ired
ĠTV s
Ġthreat ens
Al ong
Ġpositive ly
Ġbar b
ucle ar
Ġinflu enza
Ġunivers ally
Ġjud ging
ros pect
Ġpan cre
Ġ201 5
Ġpack ing
Ġclin ically
Ġwild ly
Ġcook ie
Ġsmell ed
Ġconcer ning
Ġthr iving
ĠRe zero
Ġscr ut
Ġpen ny
Ġ198 5
Ġcust oms
Ġpros thes
Ġaddress es
Ġenjoy ment
Ġsal aries
owd en
Ġautom ation
Ġautom obiles
Ġhistor ians
Ġir reg
ĠMar ia
ĠMar co
Ġgradu ation
Ġwealth ier
ĠDon ald
Ġ197 3
Ġ197 9
Ġlaws uits
Ġanaly tical
Ġmut ant
Ġver ify
ĠMc K
Ġatm ospheric
Like wise
Sh ame
fl ow
Ġhack ed
Ġbrand ed
Ġliber ated
Ġreb el
Ġcru ise
Ġcogn ition
Ġbrill iance
ĠMe chanical
Ġ196 2
Ġ196 5
Ġcontact ed
Ġship yard
Ġillustr ated
ĠSm all
Ġhost s
ĠRo osevelt
Ġdomin ate
Ġantib ody
ĠSwed es
Ġstim ulated
Ġstim ulating
Ġartific ially
Ġbomb ard
Ġtour ist
Ġrat ios
Ġdisc rete
Ġdisc arded
ĠNe umann
Ġdisp ute
Ġdisp osal
ĠMay an
Ġperce iving
Ġtit led
Ġexch anging
ĠFl ickr
Ġindic ation
Ġindic ating
Ġindic ates
Ġexhib itions
Ġcartoon ists
Ġhun ters
Ġextract s
Ġextract ing
Ġsight s
Ġpal ette
Ġrecy cl
Ġmosquit oes
Ġabst raction
Ġconstruct ive
Ġfle e
Ġrein force
Ġconduct ing
Ġmanip ulating
Ġnurs ing
Ġjail s
ĠPakistan i
Ġuns afe
ĠRob b
Ġimprov ising
roph obic
Ġshr inking
ĠTe chnology
Ġinterpret ed
Ġske let
Ġpip elines
Ġdisappear ing
Does n
Ġwitness ing
Ġrot ate
emoc racy
ĠTom orrow
Ġ194 0
Ġcyber att
erge y
Ġmemor ize
Ġwhist les
Ġsuic idal
Ġcompl aining
Ġcollaps ing
Ġspiritual ity
iat ry
Ġtrig gered
Ġdesper ation
Ġru pe
Ġknock ing
Ġpool s
ino is
Ġment ality
ĠStan ley
Ġasp ire
Ġdownload ed
cred it
xim ity
Ġcast ing
Ġdefend ers
Ġprost itution
Ġexecut ion
Ġexecut ives
Ġcrash ed
Ġdeploy ment
Ġcock pit
Ġinterf erence
Ġinfin itely
Ġdisturb ed
Ġstack s
Ġintention ally
Ġspell s
Ġadvoc ating
Ġadvoc acy
ĠAntar ctic
Ġmarch ed
Ġchamp agne
Ġcrack ers
Ġkiss ing
Ġpoly mer
Ġsandwich es
hear d
quar ium
Ġbon ob
Ġhoney bees
Ġder ive
Ġredef ining
Ġdelight ful
ĠThanks giving
che ck
Ġprec urs
Ġdefe ated
Ġnutrition al
Ġmelt ed
Ġclar ify
Ġwound ed
Ġvent ilation
see able
Ġincor rect
Ġsettle ments
ĠBo ys
ĠKe ep
Ġpsychopath ic
Ġsuspect s
ĠTrans cript
Ġlob es
Ġjoint s
ĠBon nie
oca ust
Ġmonit ored
Ġdelay ed
Ġcas ually
ĠMount ains
Ġunconscious ly
ĠPalestin ians
Ġtooth p
Ġsho vel
Ġsho ved
Ġsho ots
Comp assion
Ġbutter fly
Ġspons ored
dis ciplinary
Ġdent ist
Art ist
ĠJud y
Ne ither
Ġdys lex
Ġconqu er
Ġgrabb ing
ĠCont rol
Ġrevel ations
Ġindu ced
Ġforb idden
Ġturb ines
otect ed
Ġwrest le
ĠHon or
ĠUs ing
Ġmanifest ation
Ġloyal ty
ĠAgain st
ĠSub titles
Ġbless ing
Ġfer ment
Ġyog a
Ġyog urt
Ġrib bon
Ġlex icon
ĠRad io
perform ance
Ġembry onic
Ġprol iferation
Ġacoust ic
Ġrecruit ment
Ġbiolumines cence
Gu ess
Ġthy roid
Ġdictators hip
urf ing
ĠFil m
ĠFried man
Ġantenna e
Ġdivid ing
ĠIM F
ĠGall ery
Ġincub ator
Ġindirect ly
Ġseam lessly
ĠWind ows
Ġappet ite
Ġsymmet ry
uf us
Ġrect angle
Ġescap ed
Ġcort isol
ĠES G
Ġstrang eness
Ġempir ical
Ġmultim edia
Ġmortg age
Ġdysfunction al
ĠAw esome
ĠPear l
ĠDAR PA
ĠJama ican
Ġtraff icked
ĠKle in
ĠIll inois
Ġmoist ure
Ġepiph any
Ġdisagre ement
ĠOdys seus
Ġrhyth ms
Ġplum met
Ġcompr ised
ĠGord on
ĠNI H
Ġnickn ame
Certain ly
wid th
Ġcroc od
ĠOtt oman
Ġstrat osphere
Ġrestor ative
Ġpessim istic
design ed
Ġic ons
Ġcel estial
ilb ao
ĠPitt sburgh
ĠDiam ond
ĠRivers ide
ĠRedd it
Ġsurrog ate
Ġantiretrov iral
ĠHirosh ima
Eur ope
osov o
Ġply wood
ĠIK EA
ĠSpl ashy
ĠCoh en
Ġgeck o
ĠBarb ara
ocho ndr
Ġmeerk ats
Ġcongr at
agasc ar
ĠHamp shire
ĠToy ota
Ġpancre as
. -
6 5
A nt
A my
B rian
C or
C ities
D J
D ar
E R
E v
E xt
E ducation
E arly
H P
H elp
J ay
J ose
J ack
M al
M att
M illions
N ine
N athan
O V
P L
R ed
R ory
R ock
S ounds
S imp
T ra
W ar
a ism
b a
b illion
c ount
c ert
d y
d rop
d ala
d irection
e nds
e conomic
f ed
g urdy
g dala
i ag
i ologists
l it
l am
l ider
m om
m ons
m aster
m udd
n ick
o ac
p ill
r ome
s im
u z
u ate
v ana
w rest
x on
Ġ @
Ġt an
Ġt ucked
Ġt igers
Ġth orn
in id
in sey
Ġw ob
Ġw akes
Ġo bey
Ġs ap
Ġs cent
Ġs orrow
Ġs iege
at om
at ra
is en
os cope
Ġb un
Ġb ise
Ġb ait
Ġb usted
ing e
ing le
Ġm es
Ġm oth
Ġm ism
Ġm erge
Ġm otto
Ġh ers
Ġh ive
Ġh ence
Ġh ull
Ġh oc
Ġh over
on ie
Ġto ken
Ġp ave
Ġp ork
Ġp ier
Ġf ount
Ġf aked
Ġf ifty
es y
es ar
an j
Ġd ub
Ġd ull
Ġd ances
al m
al an
al am
al ians
ed ical
Ġl atr
Ġl ava
ot ional
ic se
ĠI D
Ġn oun
Ġwh oles
Ġe tern
Ġe uros
Ġe ureka
us cript
Ġbe ard
ut ans
et ically
Ġre ver
Ġre pt
Ġre ign
Ġre arr
Ġre ju
im i
im en
ur ches
ig nt
Ġst ark
Ġst ats
Ġst igm
ch est
ere my
ce ived
if iable
am ily
am eless
ir vana
op sy
Ġdo ve
Ġdo ck
st ock
ol ith
ol io
th an
th est
Ġgo gg
Ġcan s
Ġk ar
Ġk its
Ġk ett
ht aking
Ġli p
ter ity
Ġnot ed
Ġnot ation
il st
il itating
ore n
Ġch alk
Ġch atter
Ġch urches
Ġr ation
Ġr ider
Ġr ushing
Ġr iots
Ġpro cl
Ġpro long
Ġpro ximity
Ġpe e
Ġpe nd
art u
Ġor al
ess ica
Ġcon gress
um n
Ġma ze
Ġkn ot
Ġv ic
Ġv ine
Ġte ens
ĠA th
ĠA ED
ĠA ctor
ĠA uth
ĠA bor
ĠA venue
un al
un ed
un ci
Ġint ra
Ġint imately
ide press
Ġsp okes
Ġsp rawl
Ġtr illions
ĠS I
ĠS ag
ĠS af
ĠS olar
ĠS earch
ĠS ending
Ġsee ks
ci er
ci ating
ci ences
ain ted
Ġpl ur
Ġpl ural
Ġpl ung
Ġact ress
ĠC at
ĠC it
ĠC ut
ĠC ass
ĠC level
Ġim itate
em s
em or
em pl
our i
Ġsa us
ĠM un
ĠM ard
ĠM ong
ĠM ak
ĠM ax
ĠM BI
ĠM essage
og ical
ast ric
Ġsu ited
Ġsu cked
Ġsu gars
Ġcomp elled
Ġcomp atible
ack ing
Ġen list
ab in
ab ama
Ġle nd
ag ic
Ġexp end
ĠB ion
ĠB alk
ĠB arefoot
ĠB ilbao
Ġman ia
Ġman uscript
ĠH or
ĠH itler
Ġag on
ĠT rib
ĠT erence
ĠT weet
ĠG ranny
Ġun lim
Ġun related
ĠE t
ĠE van
Ġcl oning
Ġpr iest
ĠP a
ĠP u
ĠP ope
ĠP sych
ĠP ran
ĠP ool
ĠD u
ĠD or
ĠD em
ĠD elt
Ġimp at
Ġar k
Ġar ises
ĠN ight
ĠN ice
ĠN ev
ĠN SA
Ġco er
Ġco herent
Ġdis se
Ġdis place
Ġdis bel
ass um
ib a
Ġnew est
ens ible
ac er
ac ies
lo ok
ĠL as
ĠL ist
ĠL and
ĠL uke
Ġunder going
Ġunder sea
ody nam
ru ciating
In ter
In side
ell s
Ġres et
Ġres erved
Ġday light
Ġday care
ĠR ena
Ġdes irable
co ck
Ġad age
Ġad ren
ĠF ah
ĠF ortune
ĠW ired
ank s
ick y
ick ets
Ġem ulate
Ġem itted
other mal
Ġgr app
Ġgr ams
Ġcomm ittee
ak a
ak h
Ġpre st
ish es
ĠJ ason
ĠJ uan
ath etic
Ġwr apping
Ġinc ap
Ġinc idence
Ġinc idents
Ġsc ares
Ġsc attered
Ġsc andal
Ġsc issors
Ġbr on
Ġbr ig
Ġbr iqu
ys on
per or
te nds
Ġtra gically
Ġapp end
ĠCh en
Ġsim ulated
Ġra b
Ġra v
Ġcr ammed
Ġcr icket
Ġbl unt
Ġbl aming
ĠK n
ĠK ap
ĠK abul
ĠK osovo
Ġafter math
he w
ew orm
ft s
Ġlast ly
Ġcar c
Ġcar n
Ġdr ank
Ġdr ied
Ġdr ifting
Ġplay wright
Ġinter medi
Ġfound ers
Ġimag inative
ĠSt r
Ġexam ined
uc ed
Ġsl ot
Ġsl ows
az ine
iss ipp
Ġ19 20
Ġpat ri
aph or
Ġmet ast
Ġop aque
cept ions
ĠWe lcome
Ġcent ered
Ġcent imeters
Ġcent igrade
Ġed ition
Ġrep os
Ġrep licated
Ġrep ublic
Ġbook store
Ġ5 9
Ġrun ners
gr owing
Ġsupp ressed
Ġcou mar
Ġsk ier
aut iful
vern mental
Ġhead phones
Ġhead aches
Ġpop ulated
Ġcle arer
ĠV el
ĠV enter
ever al
Ġset up
Ġval leys
Ġvide ot
der abad
Ġprot ons
Ġrest ing
Ġrest rain
Ġpain s
Ġmark ers
Ġheart felt
no va
Ġpicture d
Ġdev oted
Ġmag ically
Ġpar abol
Ġsw ord
Ġsw ollen
ene gal
Ġgl am
Ġgl ands
Ġass ass
Ġexc av
Ġexc ruciating
Ġaff irm
Ġaff airs
Ġ6 6
Ġpay check
Ġorder ing
Ġview point
Ġ7 1
Ġcomplex ities
.. .
Ġcra b
Ġcra z
Ġcra ve
icult ural
aw atts
Ġmess aging
Ġdifficult ies
Ġaud acious
Ġinteract ed
Ġcoll agen
Ġarch ives
Ġarch ae
ĠEng ine
Ġblack board
Ġfear ful
Ġant ique
Ġant idepress
ĠWh ile
Ġnon profits
ĠSh ah
Ġhy ena
ĠAl abama
oph obia
Ġperform ers
Ġsun ny
Ġcommunic ates
Ġpsych e
Ġextrem ist
Ġperfect ion
Ġenc ode
Ġenc oder
Ġge ological
Ġge ographical
sh ed
cl air
Ġap athy
Ġflo oded
Ġopt ic
Ġopt ics
com ed
Ġfac ade
Ġfire man
ann ers
Ġredu nd
Ġaw ak
Ġfoot steps
Ġpoll ing
Ġcivil ized
Ġprop he
Ġprop oses
Ġsuff ers
Ġast ounding
ĠSouth east
ĠZ ipcar
ĠAn other
Ġserious ness
ĠLe g
Ġsn ip
Ġsn ob
Ġsn ipp
Ġdefin itive
yr ne
Ġmicro RN
Ġdanger ously
Ġnecess ity
Ġbreat htaking
Ġtend ed
light enment
Ġwish ed
Ġreact ed
Ch ryst
Ġcross word
yn thetic
ĠBe au
ask et
Ġarm ies
St op
Ġrain water
Ġcontext s
Ġdin er
Ġthreat en
Ġcloud y
Ġec st
Ġswe pt
Ġspir al
Ġinflu ential
Ġclos es
Ġposition ing
Ġfreedom s
Ġtemper ate
Ġdeb ates
Ġ201 4
ĠAt t
Ġlink ing
Ġstrugg les
Ġsmell y
Ġsmell ing
Ġcapital ist
Ġeffic acy
Ġ17 0
Ġgenetic ist
ĠAll en
Ġroll er
ĠRe agan
Ġcat adores
Ġoptim ist
bb ing
Se venty
ĠHar bor
Ġ198 2
Ġstar ve
iling ual
Ġenjoy able
Ġweb cam
Ġforget ting
ĠMar x
ĠBl air
Ġphoto j
Ġcustom ized
Ġlog istics
ĠCl imate
ĠCl onie
ĠAd vent
Ġterm ites
Ġsymb ios
Ġmut ilation
Ġver se
Ġfat ig
Ġalgorith mic
Ġut er
Ġut ilize
edd y
Sh ort
Ġunc les
Ġinfrastruct ures
Ġpuzz led
Look ing
Ġliber ating
Ġfuel ed
Ġappl iances
Ġreb uilt
lim inary
ĠPro gram
ĠMars hall
Ġhost ility
ĠMin nes
Ġintellect ually
Ġbrilliant ly
Ġcred ible
Ġund ers
Ġdiet ing
Re al
Ġround ed
Ġsubst ances
Ġmotor b
Ġincent iv
Ġinvestig ated
Ġinvestig ations
lin ear
Ġmill imeters
Ġdisc ount
Ġclick ed
ĠNe il
ĠMay a
Ġodd ly
Ġbelong ed
Ġgard ening
ĠPaul o
Ġdial ect
Ġhero in
Ġax e
Go ing
Ġsmile y
Ġpal ms
More over
Ġpolic emen
Ġpolic eman
Ġconstruct ions
Ġvibr ation
Ġtall est
Ġmigr ants
Ġwarm th
ĠEx xon
Ġmyst ic
ĠEl vis
Ġanalog ous
ĠDar fur
organ isms
ĠRob icse
Ġflower ing
Americ a
cast le
ĠCE RN
ĠPer ry
Ġmel ts
Ġconfront ation
Ġrot ates
Ġconsist ency
Ġobser ver
Ġantibiot ic
Ġassign ments
Ġ194 9
Ġflash es
ĠMon key
Ġstoryt ellers
Ġprem ium
Ġembarrass ment
Ġsen iors
resp ons
Ġthin ner
Ġwel comed
Ġbeach es
Ġimplement ation
Ġestablish ment
viol ent
Ġru ined
Ġment oring
Ġpill ow
Ġfeature d
Ġasp iration
Ġcord s
Ġrub bish
Ġdecl ined
Ġcast le
Ġped al
Ġ36 5
Ġrefriger ation
ĠComm un
ĠComm ission
Ġpretend ing
pro v
Ġtoler ant
Ġspell ed
Ġprosper ous
Ġgall eries
Ġaccum ulated
Ġcens us
Ġlens es
ĠMad agascar
Ġhalluc ination
Ġspark ed
Ġsle e
Ġanthrop ologists
Ġprotest ing
Ġgre edy
Ġredef ined
Ġdrag on
Ġdynam ically
Ġstereoty pe
ĠGold en
Ġdiam onds
Ġpurch ases
Ġpurch asing
Ġwarr ant
Ġfet uses
Ġtherm o
Ġborrow ed
umin ous
Ġque ue
ĠYemen i
engine ered
Ġimmun ization
Ġhier arch
Ġpyram ids
Ġconver ts
Ġvent ilated
Ġenh ances
Ġenh anced
Ġsav anna
Ġrail way
Ġsupermark ets
Char lie
Am ong
ĠBo ard
ĠPat ent
ĠJim my
tail ed
Ġbell s
ĠBon o
ĠMiss ouri
Ġcompos ite
ĠHy derabad
Ġwet lands
ĠCD C
fin ance
Ġmurd erer
ĠMedic ines
Ġinterconnected ness
Comp are
Ġpir ates
Ġspons or
ĠNic ole
Ġmembr anes
sell ing
Ġbrows ing
Ġdivor ced
Ġwhistle bl
aware ness
Ġreass uring
Ġspo il
Ġspray ing
Ġperpet ual
ĠJud aism
Ġalign ment
ĠColl ins
Ġstake holders
ĠSand y
ĠMag ic
Ġjar gon
ĠSer ra
Ġlawn s
Ġdemocrat ization
Ġimmers ion
Ġgel atin
Ġtempor arily
Ġsummar ized
tent h
ĠRem ember
Ġpherom one
ĠLin us
Ġempath ize
Ġsidewalk s
Ġbureauc racy
Ġhurd le
ĠFed eral
Ġtransist ors
Ġaspir ations
Ġlingu istic
Ġsovere ignt
Ġenlight ened
Ġcontam inated
perform ing
Ġflaw ed
ĠMoz amb
Bet ter
Ġsod a
Ġundergradu ates
Ġregul atory
Ġski ing
gener ated
Ġfemin ine
ĠHam let
ĠOs ama
Ġpresum ably
ĠPlan et
Ġsacrific es
ĠCopern ican
Ġoccas ions
Ġadministr ators
Je ff
Ġdivid es
Ġconsol ation
Ġrecur rent
ĠBot swana
ĠHel en
Ġdispar ate
Ġpreval ent
oter ic
ĠHarr is
Ġcourts hip
Ġutil itarian
Ġcomed ian
Ġaggreg ate
Ġamy gdala
Ġcarcin ogens
Hope fully
Ġove rest
Ġerect us
Ġcann ib
Ġunint ended
Ġpenetr ate
Ġfulfill ment
Ġfest ival
Ġhaunt ed
ĠSin clair
Ġannoy ed
sens itive
urp ose
ĠGay la
ĠDav is
Ġbiode grad
Ġsubsequ ently
Ġapoc aly
Ġcounterpart s
Ġrecipro city
Bel ieve
Ġhaz ard
Ġreserv ations
Ġtempl ate
Ġfragr ance
ĠColor ado
Ġcafeter ia
gi ene
Ġpavil ion
Ġgir aff
Ġsober ing
Ġuncon ventional
ĠPic asso
Ġcellul ose
Ġeyew itness
Ġprogramm able
Ġpersever ance
hav ior
ĠAx is
ĠED I
ĠLank a
ĠKent ucky
ĠInfin ity
ĠViv ian
Ġemplo ying
ĠCharl otte
Govern ments
ĠDenis ov
Ġcater pill
idel ity
Ġdecon struct
Ġneurot rans
ĠArm strong
ĠGeorg ia
ĠMalays ia
Ġjuris d
Ġsopran o
Ġcuc umber
threat ening
Ġasyl um
Ġincons ist
Ġsuperp owers
ĠZet as
Ġirreg ular
Ġrupe es
mudd in
Ġbise xual
Ġreju ven
chest ra
Ġgogg les
ĠClevel and
ĠMong olia
Ġunlim ited
ĠDelt a
Ġdisbel ief
odynam ics
ĠRena issance
issipp i
Ġcoumar in
ĠmicroRN As
Ġsymbios is
ĠMinnes ota
ĠRobicse k
7 5
7 00
B R
B o
B on
B ring
C ity
C ount
D emocracy
E L
E m
E lect
G B
G rowing
J K
L M
L P
L arry
L ocal
L earning
M r
M at
M on
P R
P ower
P oor
R on
S everal
T H
U S
U se
b our
b ac
b irth
b imet
c atch
d in
d ough
f its
f athers
f eller
g ate
g ie
g ium
h ard
h ov
i ates
i ably
j ac
k ar
k irts
l est
m outh
o be
o llow
p arency
r ates
s m
s quare
t ouch
u y
v o
w ed
w estern
y ll
Ã ¼
Ġ icy
Ġt ides
Ġt icking
Ġth irst
Ġth irty
Ġa us
Ġa ver
Ġa ur
Ġa ids
Ġw iz
Ġw age
Ġw igg
Ġw retched
Ġthe or
re ach
re port
Ġs ank
Ġs eren
at ization
er artu
Ġc ed
Ġc ro
Ġc ured
Ġc ubes
Ġc oded
is p
it an
os copic
Ġb ol
Ġb ury
Ġb leep
Ġb ounds
Ġb idding
Ġm art
ap le
Ġh itch
Ġh oo
on ary
Ġto dd
Ġto bac
Ġp or
Ġp ine
Ġp ater
Ġp enn
Ġp orous
Ġp ounding
Ġf uss
an imate
Ġd ing
Ġd ere
Ġd ermat
or um
or iously
Ġin ad
Ġin ward
Ġin version
Ġin appropriate
Ġl ith
Ġl ust
Ġl ousy
Ġl onel
om ers
Ġg um
Ġg room
as semble
ic ion
ic ist
ĠI Q
ĠI de
ĠI rish
ĠI stan
Ġn ugg
Ġe u
us se
Ġbe an
Ġbe asts
ut er
Ġit er
Ġit eration
et ry
Ġre int
Ġon set
ay a
Th ough
Ġha il
im port
ur pr
Ġst if
Ġst ance
Ġst ared
Ġst yles
ch a
ch i
ch arge
ro ads
am ation
am ics
ir y
ol o
ol ph
ol ingo
ra ck
ra cept
Ġab usive
Ġgo ose
Ġu l
Ġse mic
Ġk m
Ġk r
Ġk ites
Ġas ph
Ġas ym
ht ub
Ġsh ack
Ġsh ave
Ġsh ield
Ġsh iny
Ġsh irts
od ox
ill ary
ant ically
Ġso ar
Ġso ils
Ġfr ater
Ġall iance
ust ered
Ġex acer
Ġr ay
Ġr ally
Ġr ud
Ġr ang
Ġr idd
Ġr ival
Ġus able
Ġpro verb
Ġpe el
Ġpe ek
Ġpe pper
We lcome
Ġcon ve
Ġcon co
um bo
est ant
Ġlo bb
Ġma f
Ġkn it
Ġv iv
Ġv antage
ind ers
Ġout let
Ġout lines
Ġout lets
Ġout raged
ĠA BC
ĠA TM
ĠA gnes
ink y
Ġal be
Ġal iens
Ġint ens
Ġsp y
ie v
ie ly
ĠS T
ĠS it
ĠS ant
ĠS oph
ĠS imp
ĠS enegal
Ġup ward
Ġup right
el i
el le
el ope
Ġpl ed
Ġpl umb
Ġpl umes
Ġpl ugged
Ġpl aus
ĠC L
ĠC ub
ĠC ash
Ġ1 000
Ġim balance
em ple
Ġsa ils
ĠM os
ĠM ission
ĠM au
ĠM organ
ĠM olly
ĠM ommy
ĠM ushroom
og ene
og ged
ine e
Ġwork places
Ġsu p
Ġsu ite
are rs
act or
reat ed
ack er
Ġen l
Ġen rolled
Ġta ils
Ġle aking
Ġle ague
You ng
ag ging
Ġexp enses
ĠB C
ĠB it
ĠB all
ĠB urn
ĠB ond
ĠB lock
ĠB irds
ĠB yrne
Ġdon key
Ġqu arks
ud son
Ġfe athers
ĠH ope
ĠH ipp
ĠH ills
ĠH off
ĠH usse
Now adays
ach t
ach ines
iff el
iff ords
ĠT B
ĠT il
ĠT ide
ĠT oo
ĠT ulu
ĠT roy
ĠG rey
ĠG owan
ĠG ogh
ĠG iffords
ff e
ff y
Ġtw enty
ĠE nce
ĠE aster
ĠE li
ĠE iffel
Ġpr icing
ĠP as
ĠP ra
ĠP ine
ĠP ach
ĠP av
ĠP olar
ĠD ou
ĠD ear
ĠD ist
ĠD ry
ĠD own
ĠD ru
ĠD ark
ĠD ays
ĠD olly
ĠD ata
ĠD uke
ry ption
ĠN ie
ĠN icholas
ĠN aomi
ip ur
Ġover board
Ġco il
Ġbu ck
Ġdis com
Ġdis gu
sel s
Ġpo ke
Ġpo op
Ġpo ignant
cent imeter
Ġro oster
ĠL ar
ĠL ow
ĠL ive
ĠL ower
ĠL ock
ĠL yn
ĠL arge
ult s
Ġcont r
Ġcont ing
Ġcont racept
Ġlittle Bits
Ġac umen
Ġunder dog
Ġunder lies
Ġph ases
Ġam use
In vest
Ġres h
ĠR et
ĠR ail
ĠR anger
ĠR oll
ĠR aj
ĠR ocke
ĠR ufus
Ġdes olate
Ġbo ot
Ġbo oming
ĠF I
ĠF est
ĠF old
ĠW olf
ĠW inter
ĠW isc
Ġhum bling
Ġem ission
Ġgr illed
Ġgr apes
Ġcomm itting
ak y
ak able
Ġpre oc
Ġpre acher
Ġpre liminary
ĠO z
ĠO ops
ĠJ R
ĠJ et
Ġdown s
Ġsm ack
Ġsm ash
Ġsm iled
ject ed
Ġsc ars
Ġbr ine
ys es
chn ya
ons in
Ġsur pass
nds on
we y
we ed
Ġapp la
ĠCh air
Ġsim ulator
Ġcr ashing
Ġinv ade
Ġinv ites
Ġbl ast
av in
Ġbuild ers
ren he
Thank fully
ĠK ind
ĠK end
ĠK alu
Ġperson nel
pe er
Ġfl avors
amp s
Ġ3 9
Ġrel ent
Ġrel ay
Ġcar ved
Ġdr ums
und ers
Ġent ries
ven ient
oc us
oc co
ĠAnd y
Ġstr aps
Ġstr apped
ĠSt ill
Ġcomple ment
Ġsl ap
Ġsl ang
Ġmon ks
Ġser mons
Ġmed it
ced es
Ġmet a
Ġmet eor
ĠAmeric as
ah n
Ġbeh aves
Ġrec l
Ġrec ap
Ġrec line
Ġposs ession
Ġdem ob
ident ally
pr otected
Ġhand led
Ġsub ord
Ġsub set
Ġsk ins
Ġfut ures
Ġconf er
Ġinf ring
Ġinf amous
Ġorgan izers
Ġenerg ies
Ġsoci able
Ġsoci ologist
ĠV on
ĠV as
ĠV erm
ĠV oice
Ġgovern or
Ġaut o
Ġcho oses
ts on
Ġphot ons
Ġdef y
Ġwar ps
Ġdist raction
Ġcur led
Ġwo o
Ġdet r
ĠInd epend
Ġmem es
Ġchar ter
Ġchar itable
ĠNew castle
ĠHe ather
ilt ered
ott a
For get
Ġprof iles
Ġloc ate
Ġkill ers
Ġfore ground
Ġdev ise
Ġblo op
Ġclass ified
Ġclass ify
Ġsw ings
get own
Ġexc ites
uck er
Ġret rospect
Ġadv ancing
Ġ6 3
Ġ9 2
bers pace
Ġ7 3
Ġincre ments
Ġquick er
Ġ8 8
Ġteam work
Ġteam mates
Ġdi ets
Ġdi agrams
Ġjo ys
Ġvir g
Ġvo id
cul us
Ġve ctor
Ġve iled
Ġabs ent
Ġneur op
ĠAr iely
Ġimpro ves
Ġill umin
omet ric
Ġcoll ide
Ġarch e
Ġdel ta
Ġmarket ed
Ġgrand ma
Ġfre aked
Ġes oteric
Ġcolle ges
ĠWh ole
ĠWh atever
Ġnon verb
Ġhy giene
Ġred ist
Ġsun s
Ġsun fl
Ġsent enced
Ġsuper nova
Ġpsych otherapy
Ġemb assy
Ġextrem ism
ipp ers
Ġspecial ize
ĠOh io
Ġexperiment ed
Ġenc ryption
Ġsqu ir
Ġcy nical
Ġge op
Ġobs ess
sh ell
sh mi
Ġsitu ated
Ġcomb ines
Ġsum med
Ġsum mon
ĠTh ai
erm aid
Ġsoft ly
Ġdark est
ann el
ann ica
Ġpath ogens
ai k
Ġbenef ited
Ġhot els
Ġrul ing
Ġworth less
Ġprop ulsion
Ġvill agers
let t
let ter
Ġfa ulty
go vernmental
Ġbed side
ĠAn thony
Ġcompet ence
ĠPh D
Ġsat urated
Ġgeneral ize
Ġmicro credit
Ġmicro finance
Ġprin ters
Ġtend encies
Ġflu ids
Ġaccount ed
Ġreact ive
cuss ions
Ġactiv ation
yn man
Ġparticip ant
Ġrid ge
Ġmis use
ĠSe an
ĠSe ven
Ġcontext ual
Ġadm iration
Ġconsider able
ĠPr ay
Ġfix ated
Ġvacc ination
ĠBrit annica
Ġfant as
Ġbar bed
Ġbar bec
Ġcharacter ized
Ġinflu encing
Ġbank rupt
Ġbal d
Ġbal let
Ġign oring
Ġdeb ating
Ġdeb ilitating
Ġsyn ag
Ġpack s
Ġsecret ary
Ġemploy er
Ġtrou bles
ĠCar gill
Ġmathem atically
Ġcorre ction
ĠGe off
Ġthr ust
Ġrandom ized
la cier
Ġboard ing
Ġport s
Se bastian
ĠDo ctor
Ġ198 3
Ġ198 7
Ġran ch
Ġexpress es
Ġbread win
reprene urs
Ġfit ness
Ġeth ically
Ġshock s
Ġmotiv ating
Ġtransport ing
Ġann ouncing
Ġlog ically
Ġtarget ing
ĠiP ods
Ġmut ually
Ġwis er
ett es
ĠMc Chryst
Ġtax pay
Ġdoub ts
Ġdoub ling
Ġhang ers
Ġswitch ing
ĠFor get
ricult ure
Ġgrandm aster
ches ter
Ġreb ell
Ġcorrect ness
ĠPro v
Ġlunch es
Ġ196 8
ĠMich oac
hy dr
Ġmosqu es
Ġproud ly
Ġspot light
Ġquant ify
Ġund oub
Ġintu itions
Ġfresh water
Ġsubst itute
ĠDan ny
Ġcircum c
Ġdisc ourse
cop y
me ister
Ġmetaphor ical
Ġdial ed
Ġband width
Ġmaint ained
Ġmaint enance
Ġdesert ification
Ġlifet imes
Ġtow els
ĠEn lightenment
Ġcow boy
Ġlat itude
Ġfrustr ations
Ġhumor ous
ĠPhil ips
ĠEx pl
ĠEx cuse
Ġmyst ical
Ġprefer red
Ġbath e
ĠiPh ones
Ġextend ing
ĠKore ans
Ġsophistic ation
Ġreven ge
Ġformer ly
Ġtranspl ants
ĠSu fi
Ġpun ished
Ġpun ctu
Did n
Ġnavig ating
Ġclock s
Ġcritic ize
Ġbare foot
Ġdot com
Ġregard ed
Ġinstruct or
Ġ194 8
Ġpian ist
Ġwel coming
keep ing
Ġastonishing ly
viol ence
wr itten
ĠMa o
Ġrefer ring
Ġadvance ment
spe aking
Ġbrib ery
Ġregener ation
Ġmim icking
Ġsphere s
ĠMal awi
ĠGab riel
bl own
Ġinject ing
Ġinject ed
ĠDemoc rat
Ġscratch ing
Ġaim ed
Ġstack ing
Ġproport ional
ĠFre ud
ĠFre eman
Ġfrag ments
ĠHis pan
Ġmer ch
Ġweigh ed
Ġub untu
Ġbull ying
Ġbull do
Ġkiss es
Ġbiom ass
ĠJoe y
Ġaccum ulating
Ġid le
Ġrecip ient
ĠSil ver
Ġcoach es
Ġpione ering
Ġspr ink
Ġcoord inated
Com puters
gl asses
ĠMor occo
ĠGal ileo
Ġdump ing
ĠSa unders
Ġdisappoint ing
AR S
Ġbat htub
Ġexplo itation
Ġtempt ing
Ġtempt ed
Ġburst s
Sim ple
Ġgam ble
Ġenth r
Ġhighlight s
Ġborrow ing
Ġspreads he
Ġawkward ness
Ġhill side
Ġconver gence
Ġrecru ited
Ġdistract ions
Ġbrut ality
Ġlimb ic
ĠNan o
Ġconsult ants
Ġharness ing
Ġphilanthrop ic
fly er
Ġexped itions
Ġgeek y
Ġpige ons
Ġwhis key
Ġtunnel ing
Ġpharmaceutical s
Ġnom inate
Ġdece ive
Ġouts kirts
ĠMiss issippi
ĠLib by
Ġattribut ed
Ġimmigr ation
Ġimmigr ant
ĠBrook s
Ġskept ics
Ġaward ed
Ġconce ivable
ĠCD s
ĠCor por
Ġuniform s
Ġtranscend ence
Ġhub ris
Ġsett ling
Ġstimul i
Ġdil ig
ĠAny body
Ġdiscr imin
ĠLeban ese
cre ation
Ġdent ists
Ġles ion
Ġrestrict ions
Ġembod iment
real istic
ĠBel gium
Ġimmense ly
Ġstamp s
Ġdood le
ĠAv iv
ĠFar mer
Ġeditor ial
Ġexcl usively
Ġmagnet ism
urger y
Ġalle v
Ġalign ed
Ġsumm aries
Ġmarvel ous
Ġexerc ising
ĠMag azine
ĠJac ob
ĠJac ques
Ġhorizont ally
Ġcounsel ing
Ġjan itors
Ġven om
Ġven ues
Ġincl usion
Ġinfl ate
Ġmicr oseconds
Ġorang utans
ĠHuman ity
Ġempath ic
Ġhopeless ness
Ġdens ities
tz mann
Ġange l
Ġexcess ive
ĠEv il
ĠNaz is
Ġunderm ining
ĠRoss y
Ġcommission ed
ĠBroad way
rane an
Ġger ms
Ġexagger ation
Ġexagger ated
Ġorph ans
ĠBud rus
ĠHol ocaust
Ġunve il
Ġunve ils
Ġcontam ination
ĠChe chnya
Ġembry o
Ġpron ounced
Ġdismiss ed
Ġov arian
Ġconj ure
Ġconstitut ional
Ġfluctu ations
Ġannounce ment
Ġpean uts
Ġevapor ate
ĠHot el
Ġpsychiatr ists
Ġmisunder stood
Ġdread ful
Ġcompens ate
Ġ74 7
ĠShir ley
Ġarous al
Ġarous ed
ĠGirl s
ĠEst onia
Ġcoh es
Ġpreval ence
auth or
Ġdispers ed
Ġsamp ling
Ġcass ette
Ġstir ring
Ġdrift ed
Ġturt le
ĠPre go
ĠPass age
Ġtransact ions
lad us
Ġdash board
Ġargu ably
Ġskyscr aper
Ġanom aly
Ġdoct rine
ĠCreat ive
Ġfeas ible
Ġprecon ceived
Ġfluores cent
Ġinqu iry
Ġcher ish
Ġdelet ed
Ġcomplim ent
Ġreplic ating
Ġautobi ographical
Ġexclud ed
Ġlandm ines
Ġentit led
Ġcharism atic
Ġparam eters
ĠWhit acre
Ġsnaps hot
ĠGeor getown
Jon athan
ĠNik ola
ĠOw ens
Ġapprent ice
Ġcraw ling
Ġjuxtapos ition
Ġstewards hip
ĠAchill es
Mart in
Ġgur u
Ġupt ake
ĠAlt os
Ġmockingb ird
Ġlibert ies
Ġunac cept
ĠEffect s
ĠNaj muddin
Ġdisson ance
Ġinvis ibility
Ġsubd iv
Ġdeterg ent
Ġsecre cy
Ġmisc arriage
Ġhomem ade
ĠHirsh horn
Norm ally
Ġnost al
Ġabd omen
ĠSadd am
ĠBagh dad
Ġdesal ination
ĠKite flyer
Ġintertw ined
ĠInv isible
Ġdatas et
Ġmicrow ave
Ġscrut iny
Ġrecycl able
Ġcyberatt acks
Ġtoothp aste
Jose ph
Ġwholes ale
Ġrever ber
ĠAbor iginal
ĠSag meister
ĠCass ini
ĠDu olingo
ĠFah renhe
Ġprest ig
Ġprophe cy
ĠMozamb ique
Ġtobac co
Ġinad vert
Ġlonel iness
ĠIstan bul
Ġreint rodu
Ġasph alt
Ġexacer b
Ġalbe it
ĠHusse in
ĠGowan us
ĠEnce ladus
Ġdiscom fort
ĠRocke feller
ĠWisc onsin
Ġpreoc cup
Ġappla ud
ĠKalu za
Ġnonverb als
ĠMcChryst al
Ġtaxpay ers
ĠFahrenhe it
0 5
3 3
4 8
9 5
A L
A id
A st
B S
B l
B re
B ased
B rit
C ons
D i
D am
E P
E ver
E conom
F ind
F ree
H O
H ome
H old
H eart
I d
J E
J M
J an
J osh
J ennifer
K evin
L o
L ong
M W
M o
N E
O cc
P op
P arent
P ros
R ich
R NA
S E
S p
S her
S chool
T ony
T ech
U E
W ere
W orld
W ait
a fter
a cial
a ways
b i
b ach
b ene
b uilding
c ion
c ord
c ale
c ils
c ifically
c uff
c ultural
c orrh
d oc
d ream
d istance
e at
e ers
f irst
f ishing
g one
g ath
g irl
g aly
h od
h ill
h ift
h elp
i ard
i arch
k ids
l os
l on
l ig
l age
l iness
l iving
l ankton
m ad
m ies
m ans
m other
m aterial
n ost
n ered
o it
o ard
p o
p ost
p its
p hew
s ome
s ourced
t ic
t own
t able
u ffic
v old
v antage
w aters
x ic
z n
z ers
£ o
Ã ¶
Ã £o
Ġ Â
Ġt rench
Ġt roph
Ġt inker
Ġth igh
Ġa version
Ġa quarium
in os
in ja
Ġthe aters
Ġthe sis
re qu
Ġo un
Ġo ily
Ġo min
Ġs our
Ġs ine
at on
er ting
ou p
ou nces
Ġc ough
Ġc erv
Ġc ores
Ġc unning
Ġc aution
it ant
it ories
os lav
Ġb ake
Ġb anging
Ġb acon
Ġb uddy
Ġb ilingual
ing es
en os
en stein
Ġh ic
Ġh ott
Ġh ides
Ġh ij
on i
on ig
on est
on ics
on ian
Ġto e
Ġto mb
Ġp se
Ġp ests
Ġf ont
Ġf ission
Ġf itted
es ium
an ny
an za
Ġd ess
Ġd ual
Ġd aring
Ġd uct
al er
Ġin a
Ġin oc
ed nes
Ġl ure
Ġl bs
Ġl att
Ġl umber
Ġl iters
ar ke
ar ms
ar rett
ot or
Ġy awn
om on
Ġg ates
Ġg iants
as ia
as ma
le able
ĠI C
ĠI V
ĠI ron
ĠI NCRA
Ġwe ed
Ġwe ars
Ġwe ave
ow ler
Ġe ag
Ġe uth
Ġe aves
Ġe gos
us er
Ġbe ast
Ġbe aring
Ġbe gging
ut u
ut ers
et ed
et ah
Ġre integr
ent h
Ġon c
im m
im ic
im age
im mer
ur k
ur o
ig ms
Ġst ub
Ġst ung
ch oma
ro ves
ro lux
Ġfor k
Ġfor ge
Ġfor um
Ġfor wards
Ġfor ums
se ven
Ġwas p
am er
am en
am el
am ish
op es
op athy
op py
Ġan th
st art
ol ulu
Ġwith stand
th rit
ra wn
Ġab ol
Ġab ortion
Ġse ct
Ġse iz
Ġse ized
Ġse gment
Ġk ang
Ġli ars
Ġsh alt
ad ise
Ġhe x
Ġhe els
od ied
od ka
ill iant
Ġne c
Ġne phew
Ġat roph
ter ol
il i
Ġso ot
Ġso cket
Ġfr own
Ġfr ied
Ġfr amed
Ġex tern
Ġex ert
Ġch oles
Ġde x
Ġr ug
Ġr Ã©
Ġr usty
Ġpro xy
ear ly
art ic
Ġcon not
Ġcon ventions
ate au
um ed
ist ical
est ing
Ġlo llip
Ġma im
Ġma ize
ect ion
ĠA id
ĠA irst
ĠA ires
un ge
and an
Ġsp ins
Ġtr ance
ĠS ach
ĠS ony
ĠS ym
ĠS isy
ĠS ciences
Ġup l
Ġpl aster
Ġpl ague
iv ia
iv ism
ĠC ost
ĠC orn
ĠC up
Ġsome place
Ġim itation
our s
Ġsa iling
ĠM ust
ĠM ain
ĠM ead
ĠM aking
ĠM aur
ĠM ermaid
og s
Ġsu itable
act ivated
Ġta bo
ab ian
ab ric
Ġle aps
ans w
ĠB in
ĠB rain
ĠB eth
ĠB uild
Ġhas s
alk ing
Ġman ic
Ġman ure
Ġqu ake
Ġev ils
ud s
res ent
Ġwill ful
Ġfe ather
ĠH u
ĠH ay
ĠH ear
ĠH um
ĠH ob
ĠH ole
ĠH urt
ĠH uh
ĠH udson
Ġother ness
Ġag nost
ĠT ob
ĠT uc
ĠT ech
ĠT ox
ĠT NC
ĠT ijuana
ĠG ould
ĠG round
ĠG ib
ĠG ala
Ġno b
Ġno od
Ġmake up
Ġneed less
Ġun ions
Ġun pl
Ġtw ists
ĠE p
ĠE qu
ĠE nt
ĠE ames
ĠE dd
Ġcl aws
Ġpr istine
ĠP in
ĠP or
ĠP ot
ĠP age
ĠP ia
ĠP rad
ĠP oor
ĠP eters
ĠP retty
ĠP inker
ĠP ilot
ĠP ET
ĠP ascal
pt a
ĠD iv
ĠD ance
ĠD iction
ĠD ev
ĠD yson
Ġimp ed
Ġimp ending
Ġstart up
Ġar ist
ĠN am
ĠN one
Ġco ating
Ġco con
Ġco bb
Ġdis like
Ġback stage
Ġnew born
Ġpo o
lo id
ĠL im
ĠL ind
ĠL aur
ĠL agos
Ġkind er
Ġac ron
Ġac rome
vel ength
Ġbet a
Ġunder wear
ody n
ber to
Ġph antom
In cre
Ġres ide
Ġres ervation
Ġres igned
Ġday time
ĠR idge
Ġdes erved
Ġad ore
ict ures
Ġbo oms
Ġbo nding
ĠF le
ĠF orm
ĠF owler
ĠW y
ĠW ant
ĠW ork
ank ed
Ġem erald
Ġem peror
Ġgr ind
Ġpre re
ĠO ffic
ĠO la
ĠO MG
ĠJ ur
ĠJ ake
ĠJ oy
ĠJ obs
ĠJ amie
Ġoff line
Ġwr it
ne x
Ġbr ute
Ġgen omic
Ġsur real
Ġwell ness
Ġchild ish
we il
ĠCh and
ĠCh ev
Ġsim ulations
Ġcr ies
Ġinv itations
Ġbl oss
Ġbuild er
Ġgu ided
Ġgu ests
ĠK w
ĠK ur
ĠK ids
ĠK urd
ĠK aren
ĠK nee
He y
He alth
Ġend ure
Ġins an
Ġins ulation
pe ace
lic able
he av
Ġfl ame
Ġfl ips
Ġpol itely
Ġinter state
Ġinter play
Ġturn over
Ġpoint less
Ġimag ines
Ġcommun ism
oc y
ix on
ĠAnd roid
atch ed
ĠY ep
ĠY ah
ĠY ug
pl ing
Ġexam ination
uc us
Ġhigh ways
Ġsl ed
Ġsl ash
Ġsl ipped
Ġsl ammed
Ġcre ase
Ġmon ot
Ġmon uments
Ġgra ndson
Ġmed iated
Ġatt ain
Ġrec omb
Ġrec onsider
Ġeconom ical
Ġposs essed
Ġrep lication
Ġproject ing
Ġhard wired
Ġ4 9
Ġmind ful
Ġhealth iest
Ġrun way
Ġrun ner
pr om
Ġsupp ression
Ġsupp lement
Ġhand held
gg ie
Ġsk ied
Ġvis its
ins ula
Ġinf ants
Ġinf used
Ġanim ate
Ġform ulation
ĠUn ivers
Ġsoci ologists
Ġsol itude
Ġsol uble
arr ot
arr ied
ĠV ila
Ġpres idents
Ġmoment ous
Ġrese mble
Ġmakes hift
Ġspec imen
Ġdef ic
Ġdef enses
Ġcur l
Ġcur ved
Ġcur sor
Ġey el
Ġwo ven
ĠInd ust
Ġmen stru
ortun ity
Ġchar ging
Ġlab ore
Ġref res
iter ranean
Ġdev ote
Ġdev oid
Ġclass mates
Ġpos ing
Ġunt old
Ġmaterial istic
Ġpar ody
Ġpar aph
Ġsw ear
Ġsw ims
de ath
de af
Ġgl aze
Ġwa velength
Ġcollect ors
Ġ6 2
Ġ6 50
Ġca ffe
Ġfree zes
br ight
Ġteam ed
Ġprov oked
icult ure
Ġdep icted
Ġemp ires
Ġve nd
Ġmess ing
Ġmess enger
Ġris king
Ġdeal er
Ġnetwork ed
Ġmiss es
Ġdeath bed
Ġdel usion
Ġrev is
Ġrev ol
Ġmot ives
Ġpred isp
Ġjour neys
ĠEur o
Ġz e
fect ed
Ġpaper work
Ġeat ers
Ġhands h
ĠYork ers
Ġfre ed
Ġfre aks
Ġprotect ions
Ġsaf est
ĠGo vern
ĠGo vernment
Ġnon verbal
ĠSh ack
ĠSh aw
Ġhy pe
Ġsent iments
Ġsuper intend
Ġpsych iatry
Ġrecord ers
Ġtre asure
Ġviol ate
Ġ18 6
Ġrequ iring
Ġpick le
ole cular
Ġsqu e
Ġsqu ish
Ġcam oufl
Ġcy cling
Ġcy berspace
Ġbuy er
Ġanal yses
Ġge ographically
Ġknowledge able
bor ough
Ġobs c
Ġcomb ustion
Ġcaus ality
Ġsum mit
Ġfavor able
Ġcirc led
An ge
Ġdark er
Ġhar p
Ġcrit ics
Ġpost p
Ġconvers ion
Ġbenef iting
Ġtele graph
Ġrul er
ik h
ik i
Ġprop os
Ġprom inent
Ġdeg rade
Ġsounds capes
Ġmar ijuana
ellig ent
Ġvol atile
ĠZ one
ĠAn im
ĠAn ne
Ġbur nt
Ġbur ial
Ġcompet ed
ĠLe o
ĠLe an
Ġsn uck
Ġsell er
ĠPh ys
Ġrece ivers
Ġbirth place
oid s
Ġactiv ates
Ġarm pits
cient ist
Ġblind ed
ted ly
Ġrain y
Ġcart s
view ed
Ġmist rust
Ġtransl ations
Ġadm ission
Ġmount ed
Al right
eth ical
Ġbar ric
Ġbar rels
Ġfasc ination
Ġbank er
Ġposition ed
Ġunivers als
Ġunivers ality
Ġbom ber
ror ism
ĠNorth west
Ġstress es
ĠShe ila
Ġdeb ut
Ġsyn es
Ġeffort lessly
Ġpack ets
Ġemploy ers
fr ame
fr iends
Ġcook s
Ġfundamental ists
Ġ17 5
Ġswim mer
Ġdrop out
ĠAll o
Ġrespect able
ĠWar ner
Ġport f
Ġang st
Ġran king
Ġsequ el
Ġdiagn oses
Ġcelebr ates
Ġcelebr ities
Be yond
Be hind
igr uten
Ġmix es
Ġsky ro
Ġsky diving
Ġir respect
ĠMar c
udd le
udd led
Ġgradu al
Ġgradu ating
Ġvulner abilities
af i
Ġ197 2
Ġ197 6
Ġ197 8
Ġintegr al
cell ed
Ġann ih
ĠAd m
Ġmut ilated
ĠMexic ans
ze iro
ĠMc M
Ġut op
Ġbroad band
Ġforeign er
atr ick
Ġswitch es
Ġfashion able
Ġamb assador
Ġconsid ers
Ġhyd r
Ġhom eland
ĠMe g
Ġparad igms
Ġcheap est
Ġ196 3
Ġshoot er
Ġtor ch
Ġsport ing
Ġmort al
erson ally
Ġillustr ations
thes is
ĠPal in
Ġvolunte ered
Ġvolunte ering
Ġcred ibility
Ġund o
Ġcommit ments
hab ited
au x
Ġsculpt ural
ĠGu pta
Ġneuros urge
Ġtick le
Ġfellow ship
ĠNe uros
Ġglo ve
Ġmaster piece
Ġbright est
Ġpurs ued
ĠPaul ing
Ġagre ements
Ġfinish es
Ġindic ated
Ġpollut ed
Ġacadem y
Ġinterp ersonal
uh an
Ġcow orkers
asion ally
Ġnan otechnology
Ġacceler ometer
Ġlimit less
Ġpil ed
ĠInst agram
Ġmigr ated
ĠSch wart
Ġencourage ment
ĠEx cell
ĠEx actly
Ġprefer ably
Ġremo ves
Ġmicros copes
Ġspl itting
Ġcolon ial
ĠVal ent
organ ized
ĠBar n
ĠBar bie
bre aks
Ġoccup ying
Ġlifest yles
Ġinequ ity
Ġoverwhel mingly
Ġabstract ions
ĠEm manuel
Ġwitness es
Ġrefr ame
Ġpump ed
Ġlength s
Ġancest ral
Ġrot ation
Ġrot ten
Ġridic ule
Ġridic ulously
Ġcompar isons
ĠGood bye
Ġharvest ed
Ġthick ness
ĠJul iet
Ġ194 7
Ġelev ators
Ġexec ute
Ġinstinct ive
Ġanonym ously
Ġsurvey ed
Ġdedic ation
Ġhel ix
iat ur
Ġimplement ing
Ġknock s
ĠMa jor
Ġment ors
Ġcommand ment
Ġseason al
ĠEve lyn
Ġdress ing
Ġkick s
cred ible
Ġwise ly
Ġhur ting
Ġhur ricane
ĠCom edy
Ġprost itutes
Ġdiplom ats
under ing
Ġstretch ing
ĠComm ittee
Ġevalu ating
Ġabsor bed
Ġaim ing
Ġfrag ility
Ġmarch ing
ĠGand h
Ġimpress ions
Ġconclud ed
Ġcarr ier
Ġcarr ots
Ġaccum ulation
Ġsed uctive
Ġmail box
Ġcoach ing
Ġsuppl iers
Ġpione ered
Ġcoord inate
Ġcoord inates
Ġgre ens
Ġbubb ling
gend ered
ĠJes se
Ġrecover ing
Ġburst ing
Ġfulf illed
ĠBal let
Ġdism ant
Ġpersu aded
Ġpersu asive
Ġhemisphere s
Ġneat ly
Ġque ens
Ġethnic ity
Ġpersist ence
Ġsla ught
Ġstab ilized
Ġsav vy
Ġrail road
ĠMed iterranean
ĠHans en
Ġconsult ing
Ġconsult ant
Spe aking
irect ed
ĠBol t
Ġvalid ated
ĠHy per
Ste ve
Ġbatt ling
Ġarrow heads
produ cing
ĠSl ow
Ġsalt water
Cl ay
grad ers
Ġtact ile
ĠDa isy
En viron
Ġbind s
Ġhal ved
Ġreconstruct ed
Ġtriv ia
Ġobt ain
Ġacknowled ging
Ġperpet r
Ġoverl apping
Ġcorrespond ing
ĠIceland ic
Ġalle ged
ĠDoes n
ĠConf uci
Ġconqu ered
Ġcompreh ension
Ġgrace ful
Ġredesign ing
Ġcounsel or
Ġven ue
Ġdemocrat ized
Ġepis odes
Ġvolcan ic
Ġbench mark
Get ting
ĠBu enos
rr rr
Ġrip e
ĠRand olph
ĠJord ans
ĠTunis ian
Ġwrest ling
ĠHon olulu
Ġsched uled
Ġbureauc ratic
Ġincarcer ated
Ġhurd y
Ġchat ting
Ġscaffold ing
Ġcalend ars
Ġpestic ide
Ġnap kin
Ġrank s
ĠSk id
Ġweakness es
Ġmit ochondr
Ġhipp ie
Ġnic er
Ġneglect ed
Ġcontempl ating
pack ed
Ġconj unction
ĠSur vey
Ġexport ing
ĠPers ian
ĠWi i
Ġconstitut es
Ġreck less
Ġperf ume
hr vold
lean or
Ġrevers ed
Ġcompens ation
Ġdiscl osure
Ġconsol id
Ġcorrid or
ĠShir ky
Ġchampions hips
Ġsubsid ies
sum Ã©
Ġfier y
Ġmand ate
Ġdispar ity
Ġadvers ity
Ġprotocol s
Ġsamp led
Ġoutl iers
ĠSix th
ĠCru zeiro
ĠLOL cats
Ġhumil iation
Ġgran ular
Ġrabb i
ĠVe gas
Ġescap ing
Jul ian
Ġturt les
Ġclich e
Ġamy loid
Ġresid ue
Ġbrainstorm s
Ġinsur gency
bag s
Ġathe ist
Ġpsycho an
lend e
Ġforger y
ĠMas low
ĠElect rolux
ĠDra gon
Ġresemb les
ĠConst itution
Ġskyscr apers
Ġdecept ive
ĠBand ura
Ġdisad vant
Ġdisad vantage
Ġintersect ions
Ġrepet ition
Ġrepet itive
consum ing
consum ption
Ty pically
feed ing
educ ated
Ġdod ge
ĠSn owden
ĠLuc y
Ġeyebr ows
Christ opher
bet a
osoph ist
Ġga uge
Ġarrog ant
Ġsubmar ines
Ġoppon ents
Ġmarking s
Ġmiscon ception
ĠMcG onig
Ġspoof er
Ġmarginal ized
Ġgymn osophist
Bab ies
Ġmour n
Ġlent ils
Ġintest ine
Ġunch anged
Ġinterdepend ence
Ġcondem ned
Ġprovin ces
Ġbalcon y
Ġprag matic
Ġunderestim ated
El izabeth
ĠBry an
ĠDiver gence
Ġsurre nder
Ġlett uce
Ġinterpre ting
Ġforens ic
Ġpractition ers
Ġsuperf icial
ĠProtect ion
Ġskeptic ism
Rad io
Ġape x
restr ial
Ġbumble bees
Ġbibl ical
Ġpic nic
ĠDD T
Ġinsignific ant
ĠVill age
ĠBeat les
ĠGlad well
Ġmitig ate
ĠArchitect ure
Met aphor
Ã³ n
Ġpod ium
Ġpaj amas
Ġumb rell
Ġsegreg ated
ĠBow l
ĠHur ricane
ĠGener ation
ĠDire ctor
Ġdisput es
Ġdiscont in
ĠUt ah
Ġvoy age
Ġprosthes es
Ġbonob os
Ġprecurs or
Ġdyslex ic
Dar win
wrest ling
Ġsap iens
Ġmism atch
Ġetern ity
Ġprocl aim
Ġplur ipotent
Ġplung ed
Ġexpend iture
ĠBalk ans
ĠNev ada
Ġbriqu ettes
Ġrab bit
ĠKap lan
Ġintermedi ate
Ġglam orous
Ġfatig ue
Short ly
prov oking
Ġwhistlebl owers
tenth s
Ġsovereignt y
Ġseren ity
Ġtodd ler
Ġpater nity
import ant
urpr ising
Ġmaf ia
ĠSimp son
Ġplaus ible
ĠBit co
ĠDist rict
ĠLar amie
Ġcontracept ives
Ġvirg ins
Ġsynag ogue
Ġundoub tedly
Occ asionally
hod ops
Ġomin ous
Ġhott est
Ġpse ud
Ġdess ert
ednes day
Ġcholes terol
ĠrÃ© sumÃ©
ĠAirst ream
ĠSym phony
ĠSisy ph
Ġtabo os
ĠHurt igruten
ĠTob ago
ĠTuc son
ĠGala xy
ĠPeters burg
Ġacron ym
Ġacrome galy
ĠYug oslav
Ġsuperintend ent
Ġirrespect ive
ĠSchwart z
ĠMcGonig al
1 6
1 7
2 4
3 8
B ar
B ra
B uild
C R
C o
C op
C ard
C ong
C oll
C ynthia
D F
E ve
F C
F ace
G ab
H enry
I CE
I PP
J apan
J ournalist
K ir
L B
L S
L ove
L eaders
L uhan
M ove
N G
N on
N orth
N elson
O ffice
P es
P rof
P ersonally
S ay
S un
S cript
S phere
S arah
S uccess
T O
T aking
T unes
U N
W ater
W ork
Y ears
a ic
a vers
b ons
b ai
c as
c ro
c ott
c iful
d em
d ense
d ale
d irected
e ous
e lebr
e astern
f iction
f ires
g ree
g ated
g ulation
h an
h ak
h igh
h asa
j ad
k ut
l ap
l ass
l ance
l ah
m ets
n an
n ote
n arr
n acle
p ret
p sy
r als
r ising
s s
s ub
s upp
s ustainable
t ically
t aking
u i
w ent
w ives
w ait
y k
z u
z ka
à ¸
Ġ Ã
Ġ ib
Ġ urch
Ġt ed
Ġt ad
Ġt ant
Ġt ires
Ġa kin
Ġa uction
in is
in ence
in cent
in ning
in ition
in ement
Ġw i
Ġw ack
Ġw olf
Ġw icked
Ġw itty
re a
re z
re viewed
Ġo o
Ġo t
Ġs or
Ġs ins
Ġs ush
Ġs aint
Ġs arg
at re
Ġc ad
Ġc ited
is ch
is el
is ciplinary
it o
it ized
it iba
os o
Ġb um
Ġb red
Ġb ree
Ġb aking
Ġb ows
Ġb akery
Ġm op
Ġm ars
en ch
en berg
ap a
ap ing
ap est
Ġh ast
Ġh edge
Ġp ap
Ġp als
Ġp ins
Ġp ony
Ġp ores
Ġp unk
Ġp uls
Ġp aren
Ġp ups
Ġf are
Ġf iddle
Ġf ats
Ġf used
Ġf idelity
es ame
an ol
Ġd os
Ġd ed
Ġd ared
Ġd war
Ġd otted
Ġd wind
or ical
al ine
Ġin und
Ġin ks
Ġl ing
Ġl ur
Ġl itter
Ġy um
Ġg n
Ġg le
Ġg our
Ġg ee
Ġg inger
Ġg asses
Ġg yre
ic ular
ĠI ow
ll er
Ġwh ims
Ġwh ilst
Ġe er
Ġe gal
Ġe phem
Ġe jac
us c
Ġbe nds
et ics
et erm
Ġre imag
Ġre wild
Ġre loc
qu o
ay an
Ġha w
Ġha cks
Ġha unting
im bor
ur i
ur ich
ur ous
ur man
ig ator
Ġst y
Ġst roll
if ier
se cut
se curity
Ġwas tes
ir ming
Ġdo able
st icks
ol unt
th ouse
ra ging
Ġab ys
Ġgo dd
Ġse vent
Ġcan ce
Ġcan oe
Ġk icking
Ġsh ines
Ġsh ove
Ġsh aman
Ġsh aky
ad ers
ad ors
ad ows
od or
od eling
Ġcom et
ill ings
Ġne o
ant e
Ġnot able
il izing
il ocks
Ġso ck
Ġso fa
Ġfr ies
Ġfr aming
Ġfr anch
Ġall iances
ust omed
Ġj og
Ġj oking
Ġj aws
Ġex terior
Ġex empl
Ġch ir
Ġch urn
Ġch ops
Ġde leg
Ġr uth
Ġr ude
Ġr ationally
Ġr ivals
ight s
Ġpro pr
Ġpe ar
Ġpe ac
Ġcon secut
ate l
ure au
Ġlo af
Ġbut ch
ind uced
Ġout source
Ġout do
Ġout breaks
ect ed
ĠA K
ĠA ld
ĠA ung
ĠA the
Ġal ibi
all ows
un ger
and y
and ing
Ġsp it
Ġsp lend
Ġsp arse
Ġtr u
Ġtr aps
Ġtr uce
ĠS C
ĠS on
ĠS ar
ĠS el
ĠS ue
ĠS ting
ĠS pr
ĠS aint
ĠS uther
ĠS ergey
Ġup grad
Ġup rising
Ġwho a
Ġwho lly
ich a
Ġby e
Ġpl ugging
ĠC as
ĠC ars
ĠC ave
ĠC ond
ĠC eline
Ġim b
Ġyear ning
em ed
em ic
Ġsa iled
ĠM i
ĠM ade
ĠM atch
ĠM alth
ĠM ills
ĠM add
ĠM AS
ment ally
Ġwork ings
Ġcomp iling
Ġcomp lications
Ġcomp uls
act ion
Ġen velop
ans on
Ġexp os
ong s
ong ru
ĠB R
ĠB og
ĠB ose
ĠB ue
ĠB rent
ĠB everly
ĠB ureau
Ġper t
Ġqu ads
Ġev ac
Ġev ange
ĠH om
ĠH od
ĠH ers
ĠH ab
ĠH annah
ĠH AL
ach i
ĠT se
ĠT ra
ĠT ree
ĠT able
ĠT iger
ĠT ogether
ĠG ut
ĠG ell
ĠG ross
ĠG lacier
Ġno zz
Ġun l
Ġun natural
Ġun answ
Ġun ethical
Ġtw ent
ĠE ight
ĠE bert
Ġcl utch
ĠP R
ĠP ay
ĠP orter
ĠP TS
ĠP icture
ĠP atel
ĠD od
ĠD ak
ĠD yn
ĠD ror
ĠD amas
ĠD ennis
ĠD har
ĠD addy
ĠD erartu
Ġimp over
Ġ2 20
Ġar thrit
red dies
ĠN R
ĠN Y
ĠN ap
ĠN ad
ĠN eed
ĠN FL
ĠN ixon
Ġover c
Ġover coming
Ġover fishing
Ġco b
Ġco y
Ġco ated
Ġbu lly
Ġdis cer
Ġdis fig
ang led
ass is
Ġfirst ly
ens ing
ac c
ac qu
Ġpo nder
Ġpo inter
rain ing
ĠL y
ĠL iber
Ġcont amin
Ġbet s
Ġunder went
ber ries
Ġph oned
Ġam mon
Ġfo x
Ġres ign
Ġday dream
ĠR IS
Ġdes ired
co ll
Ġad verse
Ġbo o
ĠF E
ĠF at
ĠF ear
ĠF ind
ĠF ine
ĠF err
ĠW ag
ĠW ong
ĠW alt
ĠW ednesday
du c
ick lider
Ġhum ming
Ġem its
Ġide ally
Ġpre tz
form s
ĠJ ans
ĠJ aw
ĠJ eremy
ĠJ essica
Ġoff ense
Ġsm ok
Ġinc ont
Ġinc ongru
ark o
Ġfact ual
ĠU V
ĠU se
ĠU lt
ĠU top
Ġsc um
Ġsc anners
Ġbr ass
Ġgen omics
ile ver
per t
per ial
te acher
Ġtra choma
Ġbrain waves
ĠCh a
ĠCh am
ĠCh ief
Ġra ced
Ġcr ate
Ġcr ony
Ġcr appy
Ġinv ading
Ġinv olunt
Ġbl ade
Ġbl ades
Ġrem ake
Ġrem edy
Ġrem orse
ric ity
ĠK ant
ĠK ick
ĠK ros
ĠK rish
Ġend urance
lic king
Ġfl oss
Ġtrans cript
Ġtrans gender
Ġtrans gendered
Ġbelie ver
Ġbefore hand
Ġrel iability
Ġcar bo
Ġpol ish
Ġinter v
Ġimag inable
Ġlearn er
oc used
oc zka
ix ote
ĠAnd es
ather ine
ĠY or
pl aying
ĠSt range
ĠSt alin
ĠIn novation
Ġquestion able
Ġsort ed
az o
az ar
Ġ10 3
Ġmin eral
Ġmin istry
Ġmin iatur
Ġmon archy
Ġmon olith
Ġfour s
Ġgra ft
Ġext ensively
Ġmed ian
Ġmed ina
Ġatt en
Ġplan ners
ale y
Ġhard working
Ġbi enn
Ġbi opsy
Ġeng ra
wh ich
Ġsupp orters
Ġhand writing
Ġhand cuff
Ġfun n
Ġfun nel
Ġvis ibility
Ġpass ively
ins ic
Ġacc ustomed
Ġinf ilt
Ġshare holders
Ġcor ros
Ġcor onary
Ġcompan ions
Ġfuture less
Ġform ulate
ĠUn ilever
Ġhead wind
Ġcle ans
ĠV ent
ĠV ideo
Ġval uing
Ġaut umn
Ġspec imens
Ġsound track
Ġwar p
Ġwar med
Ġopp osing
Ġopp ressed
Ġprot agon
Ġmor als
Ġmodel ed
Ġmem oir
Ġbad ge
Ġchar m
iter ally
Ġbillion th
Ġbillion aire
no v
Ġrob bery
arth a
Ġblo om
Ġunt o
Ġunt ouched
Ġfil ing
rem ely
Ġpar able
Ġsw o
Ġsw ine
Ġsw amp
Ġsw arm
Ġsw arms
Ġgovernment al
de z
Ġgl ows
Ġtreat s
Ġfriends hips
Ġwa iter
Ġpay back
Ġ15 00
to o
ret ion
Ġ7 9
Ġmust aches
Ġdi apers
Ġmil estone
Ġcancer ous
Ġsex es
Ġcra bs
Ġav ian
Ġbab ys
Ġve g
ĠThat cher
Ġmess ed
Ġobject ives
Ġclear ance
ute es
ĠNo ah
ming ham
ator ium
Ġmass age
Ġpot tery
Ġdel uge
Ġmarket er
Ġmarket ers
ĠBr ing
ĠBr its
Ġrev olving
Ġsens ations
Ġsens ual
Ġmot el
Ġgrand fathers
Ġgrand kids
Every where
Ġshort est
Ġpaper cutting
Ġoper ational
Ġfre es
Ġant ic
Ġant elope
ĠWh irlwind
Ġlow ered
year s
Ġhy ster
ĠAl ban
oph ony
Ġsuper v
Ġsuper natural
Ġrecord ings
cr ast
Ġmult icultural
Ġspecial ization
Ġdraw er
Ġdraw ers
lt on
lt an
port s
port rait
Ġpick y
Ġsqu irt
Ġcool ed
oy le
Ġbuy ers
Ġtravel ers
rent ly
ribut ion
cl ick
Ġhosp ice
com pet
com mun
Ġmodern ity
Ġpress ed
Ġpriv atization
Ġblue grass
Ġeye ball
asc a
ug a
Ġaw ry
Ġtext ed
Ġtext ures
lict ed
Ġthank fully
Ġconvers ational
Ġtele v
ik er
Ġpredict ability
Ġprop ensity
Ġprom oted
Ġprom otes
iet h
Ġlif ting
Ġmar ble
Ġmar gin
ellig ence
Ġcurrent s
Ġsimilar ity
ĠAn imal
ĠAn onymous
Ġtable ts
ĠFr iend
Ġmicro f
Ġmicro RNA
Ġattack ers
Ġbirth s
ĠMy hrvold
Ġaccount ants
str ing
Ch ild
uit ous
Ġdiv inity
Ġmob ilize
St at
St ay
Ġblind fold
ĠSe venth
Ġhospital ity
Ġep ile
Ġtransl ators
Ġcontent ious
Ġmount ing
Ġsafe guard
Ġdoor step
ĠPr ince
ĠPr ison
Ġvacc inate
Ġec ologically
Ġbar ren
Ġbar bar
Ġswe ating
Ġspir its
ĠAfgh ans
Ġrock ing
Ġskin ny
Ġcapt ures
Ġjud icial
Ġsepar ating
Ġsepar ately
Ġdepend ency
Ġpan icked
Ġaccept s
Ġclin icians
Ġrap ing
Ġi Tunes
ĠAt kins
Ġweight s
Ġafford ed
Ġafford ability
Ġlower ing
Ġpolicy makers
Ġcapital ists
Ġfamiliar ity
Ġplastic ity
Ġcold er
Ġmagn esium
ĠRe al
ĠRe becca
Ġdemonstr ations
Ġcat ap
Ġmal leable
Ġkil o
Ġkil ow
Ġkil ogram
ĠHar vey
Ġ198 1
ĠX ia
ĠX DR
Ġstar light
Ġpros thetics
Ġeth anol
Ġdad dy
ulner ability
Ġ21 00
son ian
Ġtur mo
ĠOr nish
ĠOr chestra
Ġnut shell
Ġcoffee house
Ġemail ing
Ġprevent ive
Ġir respons
ĠMar ine
oe ing
Ġselect ing
ĠSte in
Ġcentral ized
Ġradio active
rench ed
Ġ197 4
Ġ197 7
ĠAustr ian
Ġtrouble maker
Ġcand les
Ġcatch es
ĠAd v
ĠAd ams
ĠMus ic
Ġresist ed
Ġsymb iotic
Ġdocument ation
Ġlaugh s
ĠMc Luhan
Ġtraffic king
Ġforeign ers
atr ice
ĠFor bes
Ġbrand ing
Ġmanufact ured
ĠTw in
Ġseed ed
Ġliber ate
ĠTr inid
amb led
Ġcooper ating
Ġ196 9
Ġpet rol
Ġamp utees
Ġbreath ed
li ance
Ġmamm alian
mark et
Ġbag g
Ġtrip led
Ġhabit able
Ġappe aled
Ġhost ing
Ġhost age
Ġunex pl
Ġnegative ly
ĠEvery where
Ġtransm itting
hold ing
Ġtour ing
Ġfresh man
Ġshut s
ĠMo i
Ġsucceed s
inc ere
Ġgar ment
Ġdisp ens
ĠMay or
Ġbright er
Ġhorr ified
20 11
ĠPaul a
Ġadvert ise
Un less
Ġband ages
ĠFl ore
Ġquiet er
Ġindic ator
Ġinform ative
Ġacadem ia
Ġtail or
ĠGreen ville
ĠEn cyclopedia
ĠEn ergy
Ġcow ard
Ġtransition al
Ġlat ent
Ġconstruct ing
Ġpil gr
Ġtap es
Ġtap ed
Ġtap eworm
Ġmigr ating
Ġrein ter
ĠEx per
Ġcircumst ance
Ġnurs ery
Ġgrass es
ĠVal dez
ĠRes nick
organ ism
Ġacqu iring
ĠRob in
Ġbath ed
Ġlic enses
Ġlic ensed
Ġisol ate
Ġintellectual s
Ġheight ened
ĠJan ine
Ġminim ally
Ġcoal ition
ĠTe chn
ĠPer cy
Ġbill boards
ĠSu u
ĠFe z
ĠFe ynman
Ġaston ished
oly n
Ġrepair ability
Ġrot ting
ĠAnt on
Ġinput s
Ġhoriz ons
Ġsnow fl
Ġvoc ational
Ġcomment ing
Ġelev ate
ey ed
Ġhunt ed
Ġclever ly
Ġdedic ate
ĠUS C
Ġbicy cles
Ġdict ate
Ġdict ated
Ġdiss olve
Ġdiss atis
Ġpitch es
Ġuncom mon
Ġtransplant ation
Ġfoss ils
ĠTor osaurus
Ġdiscipl ined
dr iving
mit ters
ĠMark et
Ġcommand ers
Ġcommand ments
Ġcourt room
ĠMal aria
ĠMal colm
ĠHer itage
Ġblank ets
Ġexplos ives
struct ured
opath ic
ĠDemoc racy
Ġdiplom at
Ġdiplom atic
Ġwings uit
Ġiniti ate
Ġiniti ated
Ġclus tering
Ġabsor bs
200 8
Ġadvoc ates
ĠGr iff
Ġcomprom ised
Ġimper ial
Ġpoly mers
Ġgenius es
Ġdecre asing
Ġbiom edical
Ġfluid ity
Ġcens ored
Ġexternal ities
ĠBur ma
Ġsuspe nd
Ġspr ings
Ġspark s
Ġspark ling
ĠPol ish
Ġrecomm ended
Ġadjust ed
Ġtent acles
Ġbon uses
Ġboss y
Ġboss es
Ġpra ir
Ġder iv
ĠCA T
Pl ay
Ġmatr iarch
Ġlamp s
Ġhol idays
Ġchief s
ĠGold man
ĠGold ilocks
Ġprec aution
enh ancing
Ġexcell ence
Ġpersu ading
Ġtraged ies
Ġhighlight ed
Ġtherm odynamics
Ġsusp ense
Ġsusp icion
Ġschizophren ic
zan ne
ĠIm perial
Ġanes thet
ĠMil k
Ġrecru iting
Ġskull s
Ġupload ing
Ġunh appiness
Ġbrut ally
Ġcath eter
Ġobserv able
Ġharness ed
ĠBlack berry
Spe cifically
Ġwid th
Ġsink ing
Ġmur m
Four th
vis ual
ĠBol tzmann
Ġdiver gence
Ġnom adic
Ġdece ived
Ste ven
Ste fan
Ġconce ive
Ġacid ification
ĠQu ixote
Ġaer odyn
Ġhub s
Ġgate way
Ġintro verted
Cl imate
Ġdil ute
Ġspons ors
ĠPan el
Ġrecommend ations
oust on
Ġmeg afa
Ġstead ily
Ġspider we
ĠMod el
Ġlean ing
ĠHill ary
ĠTit anic
Ġstrip es
ĠDVD s
Ġcub s
ĠAv atar
Ġscaff olds
Ġalle g
ĠRock ett
Ġsubt ract
ĠVictor ia
Ġadvent urous
Ġcabin ets
Ġcham bers
ĠBre ak
ĠJac obs
Ġincorpor ating
Ġsne akers
Ġbuff alo
Ġsyring es
Ġdemocrat ize
Ġtweet ing
Ġabsorb ing
ĠKy i
Ġinfl amm
Ġnightm ares
Ġvolcan oes
Ġmillenn ium
ĠHawai ian
Ġturb ulence
Ġmast ered
ĠTah ltan
ĠArgent ine
Ġcorrel ations
Ġaccomplish ments
Ġinhib ited
Ġrent ed
Ġunw anted
Ġunle ashed
Ġdepos it
Ġdepos iting
Ġdiagnost ics
Ġdilem mas
Ġhurd les
Ġporn ography
ĠBern ers
ĠEv ans
Ġdescend ed
Ġdescend ants
Ġexha ust
Ġtid y
Ġdy st
orph ic
Ġlingu ists
Ġexquis itely
Ġenlight enment
ĠBud apest
Ġmerg ing
Ġmerg ed
Ġnud ge
Ġprol ifer
Ġpron unci
ĠBabylon ian
Ġanecd otes
Ġthy self
Ġrod ent
Ġrode o
Ġdecor ated
Ġcircul atory
Ġpostc ard
ĠMcC ain
Sure ly
lar ation
Ġreck lessness
ĠKam en
Ġinsert ed
Ġaddict ive
Ġretrof itting
ĠAlbert a
Ġnotebook s
Ġmerit ocratic
Ġinterconnect ions
Ġrecur ring
Ġunfold ing
Ġcertific ates
Ġlyr ical
aby te
ĠPen insula
Ġkidn apped
Ġsymmet rical
bus ter
zer bai
Ġcul pr
Ġgreet ed
Ġpreced ing
develop ed
Ġ185 8
Ġperipher al
Ġmas se
ĠIP CC
Ġcomed ians
Ġvig il
Ġmang rove
ĠEmb assy
Ġcontrad ictions
Ġresid ual
ĠRod rig
Ġtransact ion
Ġfleet ing
Ġathe ists
Ġow ning
Ġbru ises
Ġpiv otal
Ġalloc ate
Ġhump back
Ġindul ge
Ġbrew ing
ĠEnviron mental
Ġanom al
Ġsha ved
Ġfeas ibility
ĠRh ode
ĠYellow stone
Ġlaure ate
Ġdemol ition
Ġfluores cence
Ġmultipl ied
Ġmultipl ayer
ĠWiki Le
Ġinert ia
Ġgor o
Ġpel lets
ĠBir mingham
ĠGene va
ĠEll en
ĠDec laration
Ġscrib ble
Ġeyebr ow
Ġreinfor ces
Ġneutr ality
know ledge
ĠAust in
ĠCS F
ĠPoll ock
ĠNav y
Ġappoint ment
Ġextro verts
Ġimprison ment
Ġblueprint s
Ser iously
Trans parency
Ġserendip ity
char ged
ĠPent agon
Ġbund le
Ġnaught y
Ġinnoc ence
di agn
your self
ĠEar le
Ġamph ib
ĠRich ards
Ġhumid ity
Ġcentr if
grow th
Ġbottlene ck
Ġhomosexual ity
Ġlivelihood s
Ġiv ory
Ġbot an
Ġplut ocracy
ĠBerg en
ĠChop in
ĠIsa ac
Ġmultid isciplinary
Ġcalibr ated
Israel i
Ġtherapeut ic
Ġdrople t
Ġilleg ally
Ġrehears al
Ġcada ver
Ġmuff in
Ġnarc iss
Ġjig saw
ĠMO OC
Ġunco vered
Ġsyll ab
ĠChall enge
Ġindefin itely
ĠKa aba
Ġsubmers ible
Ġparan oid
Ġpredomin antly
Ġcybor g
ĠRobb ins
Simp ly
iag ra
mom ent
sim pl
Ġhoc key
Ġhover ing
ĠMard uk
ĠMak oko
Ġagon izing
ĠPran av
Ġimpat ient
Ġdisse min
Ġdisplace ment
Ġadren aline
Ġbron ze
Ġcarc asses
Ġrepos itory
Ġrestrain ts
Ġantidepress ants
Ġuter us
Ġunders ide
Ġslee ve
ĠDenisov ans
Ġneurotrans mitters
Ġrejuven ation
bimet al
Ġlith ium
Ġfrater nal
Ġplumb ing
ĠCub an
ĠHoff man
Ġconting ent
Ġamuse ment
ĠRail way
Ġmeteor ite
ĠIndepend ence
Ġillumin ating
Ġsquir rel
Ġbreadwin ners
ĠCorpor ation
Ġallev iate
Ġunaccept able
Ġinadvert ently
Parent s
bene fit
corrh iza
Ġlatt ice
imic ry
ĠSach s
Incre asing
Ġwrit ings
Ġparaph rase
Ġcaffe ine
Ġhandsh ake
ĠAllo Sphere
Ġportf olio
Ġskyro cket
Ġslaught ered
Ġumbrell a
ICE F
Ġtad p
Ġsush i
Ġsarg assum
ĠIow a
Ġegal itarian
imbor azo
Ġoutdo ors
ĠSuther land
ĠMalth us
ĠPTS D
ĠDror i
Ġammon ia
Ġpretz els
ĠKros oczka
Ġturmo il
ĠTrinid ad
Ġaerodyn amic
zerbai jan
2 6
3 7
7 7
7 8
A W
A ut
A uth
A uton
B O
B ath
B acter
B ern
B ees
C M
C r
C all
C reat
C omb
C ivil
D ue
D NA
D erek
D ata
D ennis
E r
E ll
F in
F ore
F em
F red
F ire
F und
F ood
F antastic
G ot
G ener
H ence
H uh
H istory
I M
I ron
I gn
J O
J ane
L ewis
M L
M a
M em
M ars
M ike
M akers
M athem
M astery
N or
N atural
P re
P al
P olitics
R oger
R elig
S K
S us
S ort
S ub
S ense
S ex
S outh
S eth
S elf
S uper
S ixty
V ideo
W ent
W estern
W ords
b id
b ear
b art
b rain
b ase
b read
b untu
b odied
c art
c led
c ulture
e b
e ur
e enth
f at
f ied
f illing
f uel
g ame
h em
i ose
j in
j oy
k il
k ina
l en
m achine
n as
n ith
o ices
o ided
p ent
p ans
p ered
p aper
p ipe
p urpose
r il
r ians
r ique
r ma
r arian
r iend
r hodops
s en
s ong
s pect
s hips
s ourcing
t ale
t orn
t asking
t rained
u ates
u ities
u els
v ar
v ian
w In
x ious
y en
y ans
z weil
Ã ¤
Ġ il
Ġt et
Ġt aps
Ġt eth
Ġt apping
Ġt inkering
Ġt eddy
Ġa ah
Ġa venue
in ck
in av
in vas
Ġw it
Ġw ig
Ġw ield
Ġw ww
Ġthe e
Ġo ops
Ġo asis
Ġs ire
Ġs incere
at ered
at izing
er inck
ou lt
ou lli
Ġc ures
Ġc uring
Ġc ott
is k
it ates
os em
Ġb aff
Ġm ig
Ġm ite
Ġm ama
Ġm ason
en burg
Ġh ib
Ġh olog
Ġh ike
Ġh uddled
on te
Ġp ing
Ġp ens
Ġp und
Ġp ouch
Ġp arrot
Ġf ist
Ġf idd
Ġf erry
Ġf aded
Ġf avors
Ġf udge
Ġf ucking
Ġf avored
an cies
Ġd ut
Ġd ur
Ġd ice
or p
or ously
or fer
al ry
al ysis
Ġl id
Ġl ig
Ġl uc
Ġl yn
Ġl apse
ar as
ar ound
ar io
ar ium
ar oo
Ġy a
Ġy aw
Ġg ulf
Ġg aga
Ġg ambling
Ġg astric
as than
ic ke
ic ide
le v
le um
le gged
ĠI l
ĠI an
ĠI ng
Ġn oses
Ġn ails
Ġn agging
Ġwh iz
Ġe ul
Ġe lo
Ġe uro
us k
us sels
Ġbe ers
Ġbe ams
ut ion
ut ilized
et e
et ration
Ġre ared
Ġre vered
Ġre using
ent ity
qu et
Ġon ion
Ġon eness
ld ed
ld om
ld iers
Ġha voc
im als
ur ia
ur ious
ur gers
Ġst ret
Ġst ump
Ġst ool
Ġst ares
Ġst eroid
Ġst ellar
Ġst aple
ch el
ere ck
ro ids
Ġfor agers
ce nds
am ins
op o
op ards
op olitan
Ġan k
Ġdo om
Ġdo omed
st ro
st ill
st ated
st ery
ra x
ra ble
Ġse ab
Ġse ating
Ġse ism
Ġse ams
Ġcan als
Ġk ines
Ġli ar
Ġli ken
ad ians
ad ij
Ġhe als
Ġhe ats
od iac
ill o
ill ips
Ġne on
Ġat roc
ant i
Ġnot ices
Ġnot with
ul g
ul k
ul as
ul ite
ul ars
ul atory
il ian
il ization
ore cept
Ġall igator
ust ible
Ġch in
Ġch or
Ġch imp
Ġch oking
Ġch oked
Ġch lor
Ġch assis
Ġde w
Ġde emed
Ġr ust
Ġr um
Ġr att
Ġr ides
Ġr apt
Ġr ounds
Ġr ipping
Ġr anges
Ġpro crast
Ġpe pp
Ġpe aked
ear th
art isan
ist ence
est yle
Ġkn ots
Ġkn uck
Ġv om
Ġv as
Ġv est
Ġv ain
Ġv int
Ġv ouch
Ġte ase
Ġout going
Ġout law
Ġout standing
Ġout look
Ġout reach
ĠA T
ĠA z
ĠA ction
ĠA dd
ĠA gar
ĠA zerbaijan
all s
and ro
and el
and inav
Ġsp or
Ġsp ook
Ġsp ears
ie ving
Ġtr i
ĠS S
ĠS qu
ĠS ame
ĠS ivers
ĠS pect
ĠS yd
ĠS elig
ĠS ARS
ĠS esame
ort ical
Ġup ro
el ah
Ġpl ow
Ġpl ag
Ġpl ots
iv ist
iv ores
ĠC re
ĠC le
ĠC ro
ĠC all
ĠC age
ĠC ree
ĠC ities
ĠC els
ĠC ole
ĠC urt
ĠC auc
ĠC lean
Ġyear ly
ĠM es
ĠM ind
ĠM em
ĠM ob
ĠM aster
ĠM istry
ĠM aker
ĠM illy
ĠM mm
ĠM izz
ĠM aine
ĠM itra
ĠM artha
og ues
Ġsu e
Ġcomp ression
Ġcomp artment
ard in
Ġen ch
ab out
ab etic
Ġtime ly
ĠB j
ĠB ess
ĠB ass
ĠB ody
ĠB ull
ĠB und
ĠB io
ĠB orn
ĠB ee
ĠB irth
ĠB ox
ĠB ye
ĠB ubble
ĠB ieber
pp ortunity
Ġper cussion
app er
app ers
Ġqu as
Ġqu ery
Ġev id
Ġev oke
ud er
ud ed
Ġwill power
ild es
Ġfe ud
ĠH art
ĠH em
ĠH ood
ĠH ands
ĠH aid
ĠH utch
ĠH orse
ĠH appiness
ĠH ubble
ĠH atz
ĠH ouston
Ġag ile
Ġag rarian
iff e
ĠT ul
ĠT ab
ĠT aj
ĠG N
ĠG i
ĠG s
ĠG er
ĠG ol
ĠG mail
ĠG amble
Ġun ic
Ġun ites
Ġun rel
Ġun realistic
Ġthan king
Ġtw ink
Ġtw itch
Ġtw elve
ĠE b
ĠE is
ĠE ach
ĠE co
ĠE nter
ĠE asy
ĠE leanor
Ġcl ones
Ġcl inging
ĠP ow
ĠP ink
ĠP ick
ĠP imp
ĠP SA
ĠP RI
ĠP ione
ĠP MT
ĠD all
ĠD ise
ĠD oc
ĠD ream
ĠD isco
ĠD ennett
ĠD oyle
so le
Ġimp oss
Ġimp erson
ia h
Ġar ctic
Ġpart isan
ry n
ry ing
ĠN ope
ĠN ash
Ġover ly
Ġdis qu
ount s
ass ing
Ġback ing
ac ency
Ġpo ised
Ġpo achers
lo cks
lo cation
Ġro ost
Ġro ast
Ġro gue
ĠL ars
ĠL iving
ĠL inda
ĠL isa
ĠL uton
ĠL ocke
ĠL oren
ĠL GB
ult ures
Ġcont ested
Ġcont ours
Ġac ry
Ġunder b
Ġunder utilized
ru bs
Ġam ber
In st
In sp
ĠR en
ĠR as
ĠR id
ĠR out
ĠR est
ĠR el
ĠR ag
ĠR ace
ĠR ory
ĠR ee
ĠR ives
ĠR ica
ĠR aise
ĠR agu
ĠR umi
ĠR OV
Ġeven ly
co c
Ġad h
Ġad ored
Ġbo iled
Ġdifferent iated
ĠF as
ĠF ek
ĠF ern
ĠF light
ĠF oot
ĠF isher
ĠF oster
ĠF emin
ĠF amily
ĠW r
ĠW ave
ĠW oman
ĠW HO
ick ly
ick ers
Ġhum bled
Ġem it
cess ion
int ed
int ention
int osh
Ġgr ump
Ġgr ipped
Ġgr izz
Ġcomm uting
ak enly
ĠO kin
ĠJ a
ĠJ ob
ĠJ azz
ĠJ arrett
ress es
ject ion
ĠU C
ĠU K
ĠU nt
ĠU ntil
Ġsc atter
urn ed
Ġpers ists
per a
Ġhuman ize
Ġchild birth
Ġtra w
ĠCh ange
ĠCh az
ĠCh oice
ian e
Ġcr an
Ġcr um
Ġcr own
Ġcr ane
Ġbl inking
av i
av an
Ġrem inis
ious ness
Ġcol oss
con venient
ĠK P
ĠK at
ĠK ings
ĠK oh
ĠK ev
ĠK ool
ĠK erry
ĠK obe
ĠK iev
ĠK IPP
Ġperson a
Ġafter life
Ġafter gl
ail ing
ail ed
he ated
Ġfl apping
Ġtrans itions
Ġrel ating
Ġrel iably
Ġcar ve
Ġcar go
Ġdr ip
Ġdr ills
Ġdr astically
Ġpower ing
Ġinter cept
Ġinter lock
Ġpoint ill
ert o
Ġlearn ers
ĠThe ir
ĠY R
ĠY osem
ĠSt ore
ĠSt ep
Ġcell phones
ĠIn convenient
Ġcomple ting
Ġquestion na
uc et
Ġhigh s
Ġsl id
Ġmod ular
az ed
iss ue
Ġmon o
Ġmon og
Ġmon etary
Ġ19 10
Ġpat ented
ph onies
Ġla undering
Ġop ium
Ġwater col
Ġwater proof
Ġread ings
Ġlive ly
cond uct
Ġrec al
Ġrec uper
ale en
Ġed ible
Ġgener ators
Ġrep rogram
Ġteach ings
Ġfar thest
Ġbook sh
Ġter restrial
Ġdem e
Ġel ation
Ġel astic
Ġel bow
Ġmind fulness
vers ive
Ġreg ulated
Ġbi oc
Ġbi ologic
Ġeng ages
gr as
gr id
ont ology
ract ical
Ġsub mer
Ġfun erals
Ġopen ings
aut s
aut y
Ġinf erence
Ġcap illary
Ġorgan ically
Ġenerg ized
Ġprob able
Ġsoci o
Ġhead rest
Ġhead set
How ard
arr ing
ĠV ien
ĠV eter
ĠV ibr
ĠV iagra
Ġpres cribed
Ġsound ing
Ġphot orecept
Ġty ranny
Ġcur se
Ġcur able
Ġwo ol
Ġdet ached
Ġside ways
bo le
der ived
Ġlist ing
ograph ers
Ġlater al
Ġrest less
ĠHe idi
Ġref erend
Ġgirl friends
arent ly
Ġsit com
Ġheart break
Ġheart breaking
Ġlevel ed
Ġboth ers
Ġfore seeable
Ġdev al
Ġdev ils
up rof
Ġpos itives
Ġunt apped
Ġcond ensed
Ġche etah
Ġsw ell
Ġsw ift
Ġindividual ity
Ġcost umes
Ġtreat able
Ġaff il
Ġaff air
Ġaff lu
Ġwa its
Ġret aining
Ġadv ised
Ġsuccess ion
to le
Ġconst itute
Ġdi abetic
Ġappro xim
Ġhouse work
Ġprov isions
Ġlisten ers
Ġdep ress
ron ics
Ġav oided
Ġobject ion
Ġobject ively
Ġclear ing
ĠNo v
Ġaud ible
Ġaud acity
Ġbott led
Ġneur ologist
ĠAr n
Ġnorm ality
omet eor
Ġland mark
Ġcir cus
ump s
ĠBr in
ĠBr un
ĠBr illiant
ĠBr ussels
Ġsens ibility
Ġmot ions
Ġgrand daughter
Ġshort com
Ġz inc
Ġgreen er
Ġfall acy
Ġfall ibility
jor ity
Ġes p
Ġvar iant
Ġant ith
Ġant agon
Ġmath s
Ġpersonal ization
Ġeyes ight
ĠGo als
ĠSh eph
ĠSh elf
ĠAl lende
Ġtrad em
Ġserv ant
Ġchem ically
Ġsun k
Ġsent encing
Ġsuper b
Ġsuper vision
vent ing
Ġpsych ic
Ġpsych ologically
Ġtre as
Ġtre nding
cr ates
orth and
Ġviol inist
Ġmult if
Ġperfect ed
unt a
Ġcal am
At t
Ġenc l
Ġenc omp
Ġsqu at
Ġmorning s
Ġge ologists
On line
Ġdead line
Ġinsp ires
Ġconv ictions
sh it
sh oo
Ġcaus al
Ġrisk ed
cl iffe
Ġsum mers
Ġsleep s
Ġcamp ing
Ġflo ats
Ġopt ed
Ġorig inated
apt ist
apt ree
ĠTh rough
loy d
Ġmodern ism
Ġcirc ling
ĠAs pen
An n
ann on
ev alu
ug ata
Ġhar med
Ġhar ming
Ġtext iles
Ġcrit ique
Ġthank ed
of i
Ġpur ity
Ġpath ogenic
Ġpoll ute
ister ing
Ġblood stream
Ġblood shed
ĠCan adians
ik rma
Ġbra king
por a
Ġprop eller
Ġprom isc
Ġtechnolog ist
Ġtechnolog ically
Ġer asing
Ġsounds cape
Ġimm oral
erv ative
Ġmar ital
Ġpeace fully
Ġarr ays
Ġfa ucet
Ġast roph
go vernment
ĠZ en
ĠZ ambia
ĠZ urich
Ġbed rock
Ġplant ation
Ġbur row
Ġbur gl
ĠLe ft
Ġball room
Ġtrack er
ĠPh illips
Ġintellig ently
oid al
Do ctors
Ġaccount ant
iar ies
arily n
Ch inese
Ġactiv ating
Ġdiv isions
ĠBe ck
Ġsearch able
Ġcris p
St r
St age
Ġwaste ful
ĠYes terday
Ġmis f
Ġmis diagn
Ġunf olds
Ġcart el
Ġpu ff
Ġprint s
Ġscreen ed
Ġminds ets
Ġmist akenly
Ġep oxy
Ġfurther more
ala am
Ġprogress ing
Ġprogress ed
Ġadm itting
Ġdoor way
ĠPr int
ĠPr uss
Al an
ĠSw aptree
Ġsand stone
Ġec ologist
Ġbar gain
Ġstick er
Ġdiscuss es
Ġdom ains
Ġ16 00
Im p
Ġsepar ates
Ġdepend encies
Ġspecific ity
Ġsyn onymous
aid an
ĠAt ala
Ġwild est
Ġthousand th
Ġcook book
Ġdeterm in
iti ative
Ġthr ill
Ġthr ived
Ġcry pt
Ġcold est
la ug
unk er
Ġquot ing
Ġquot ation
Ġboard room
Ġscr ambled
Ġmal ign
Ġport al
Ġinnov ating
Ġcomfort ing
Ġcomfort ably
Ġsym phonies
Ġbread th
ugh ar
Ġnation ally
Ġsequ ester
Ġurban ism
Ġchair man
ĠMan ju
Any thing
Ġsal ute
Ġtrade offs
ĠOr ange
ĠOr kut
Ġsummer time
Ġweb page
the y
Ġsky line
Ġmotiv ators
Ġir red
Ġir resist
Ġspect ros
ĠBl og
ĠBl ank
Ġmultip lication
ĠSte fan
ĠSte vens
ĠDon na
Ġ24 0
Ġdestro ys
Ġdog mas
ĠIraq is
off ord
Ġord inarily
ĠAustr alians
ĠCl arke
ste au
Ġconsequ ential
Ġteen y
Ġtrem or
Ġgent ler
Ġadapt able
Ġadapt ations
adem a
Ġmut ates
na issance
ĠMc Ke
ĠPar adise
ĠPar ikrma
Ġblog gers
Ġvari ants
Ġcommer cially
Ġut ero
Ġphotos yn
ĠSc ots
ĠSc andinav
Ġmembers hip
Ġlack ed
Ġban al
Ġnovel ist
Ġavoid ance
Ġmission ary
Ġamb ient
Ġden omin
Ġtherap ists
ĠTr ip
oo o
ĠPl at
Ġcru cially
Ġhyd rant
Ġhom age
Ġoffer ings
Ġble nder
Ġble nding
urd o
Ġhyp not
Ġshoot ings
Ġmamm ograms
Ġaltern ate
Ġtor ment
Ġtor que
ĠSm art
Ġhost ed
ĠMin ority
Ġquant ity
ĠPal mer
Ġcontribut es
ĠRo ad
Ġdomin ating
Ġreplace ments
Ġalt itudes
Ġpaint brush
val ds
Ġinstall ing
Ġbomb ings
Ġtun ing
Ġtour ism
Ġfresh men
Ġshut ter
Ġempt ied
Ġentertain ed
IT NE
Ġdisc ard
me g
me aning
ĠEd wards
ĠEd ison
Ġmetaphor ically
Ġharm less
Ġnutr itious
Ġcounter act
20 10
Ġtit ans
ls en
ĠGra il
och s
Ġgene al
Ġinform ing
ris is
ĠEn ron
ĠEn gel
ĠEn rique
Ġinterp en
Ġacceler ator
met ry
ĠPhil osoph
Ġsweet ness
Ġdisplay ing
Ġvibr ational
ĠSch ul
Ġnegot iated
cap acity
Ġsolid arity
Ġreview ing
Ar istotle
Ġsan ity
Ġconduct s
Ġcere mon
Ġlibr arians
Ġqual ify
Ġqual itative
Ġqual ifications
Ġcolon ized
craft ed
Ġsam eness
organ ization
organ izing
Ġnorth east
ĠBar cel
Ġimprov ised
Ġju icy
Ġideal ism
Ġideal istic
Ġclaim ing
Ġshr unk
ĠTe aching
ĠPer cent
ĠPer fect
Ġens uring
ĠBer ry
ĠGen ome
ĠGen omics
ĠNA TO
cont rol
ĠIslam ism
Ġrepair ing
ĠFrank ie
ĠFrank enstein
Ġestim ation
Ġchannel rhodops
Ġpump ing
Ġancest ry
Ġintense ly
Ġconsist ed
Ġobser vers
Ġridic uled
Ġearthqu akes
Ġpray ers
Ġregard ing
que z
Ex pl
Ġthick er
Ġloud ly
Ġbee h
ĠSmith sonian
Ġorch id
ĠMon ster
Ġconstrain t
Ġmad ly
Ġprem i
ĠUS B
Ġdiss olved
Ġwash es
Ġtransplant ing
wr ite
ĠAh mad
Ġpill ar
ĠHer oes
Ġdigit ization
ĠDep ression
ĠAlex is
Ġtwe ak
Ġguarant ees
Ġdiplom a
Ġwings pan
Ġyield ed
ĠComm ons
Ġpolar ization
Ġinfin ity
Ġcosm opolitan
mm m
Ġproport ions
Ġparas itic
Ġfossil ized
pro cess
Ġmarch es
rob ot
Ġcrack ing
ĠBudd has
ĠPort land
Ġcarr iage
Ġhyper bole
Ġorchest ras
Ġsed iment
Ġcens or
Ġrecip ients
ĠMad ison
ĠMad rid
ĠBur kina
Ġfool ing
Ġpleas urable
Ġscript ures
do ing
Ġspr out
Ġspr inter
conf ident
Ġsynthes ized
gend orfer
Ġstereoty pical
Will iam
Ġbat hing
Ġbat ting
Ġexplo iting
Sim on
gu ided
Ġwarr iors
Ġgam er
ĠMah ab
ĠBal inese
Ġdism ay
Ġpersu asion
Ġschem a
Ġschem es
Ġsusp ension
Ġmelt down
ĠDis order
Ġimmun ized
ĠChristian ity
Ġfertil ize
Ġanes thes
ĠSir i
ĠMil an
ĠPart ners
Ġcaf es
Ġirre ve
see king
Ġsmooth ly
Ġrail ways
ĠGrand ma
Ġmall s
Ġdies el
Ġnurt ured
iment ary
Ġx en
ĠMac intosh
Ġinsist ing
Four teen
mill imeter
Ġwhis pers
Ġwhis pered
Ġrethink ing
Ġupset ting
ĠJo an
Ġmarath ons
Ġouts ourcing
Ġcompos ers
ĠAbra h
Ste wart
Ġbatt al
ĠInt elligence
Ġnerd s
Ġchron ically
ĠQu est
Ġbathroom s
Ġmurd ers
Ġchop ped
Ġdelic acy
Ġcareg iving
Ġgeomet ric
Ġtact ical
Ġcree p
Ġbored om
Ġlit igation
Ġorient ed
ĠAny way
ĠSen ior
ĠSen ator
ĠDa ily
neg ative
Ġcaps ule
dis cipl
Ġbind ing
cher i
eren cing
Ġreconstruct ing
Ġaugment ation
Ġanat om
ĠMel bour
Ġlean ed
ĠTit an
ĠNet work
Ġfisher y
Ġfisher ies
Ġfisher man
Ġreass ure
Ġneoc ortical
ĠJud ge
De an
De velop
Ne il
nes ian
uke mia
Ġcoinc identally
Ġsubt ly
Ġcybercr ime
ĠSand berg
Ġgrace fully
Ġbush es
Ġenjo ys
Ġbuff er
Ġrecre ation
Ġrecre ational
Ġreclaim ed
ĠNewton ian
unting ton
Ġstatistic ian
Ġimmers ive
Ġstraw s
Ġstraw berry
Ġcruel ty
ĠLaden ism
ĠCur rent
Ġsquee zing
orr idge
Ġindu ce
Ġloose ly
Ġretail ers
Ġmicr ometeor
ĠDevelop ing
Human ity
Ġshred der
Ġorang es
ĠRand i
Ġmild ly
Ġhamb urgers
Ġshore line
Ġampl ify
Design er
ĠBern ard
plete ly
Ġresur rection
ĠFed eration
Ġcommission er
Ġblur ry
Ġaltru ist
Ġaspir ational
Con versely
Ġfract al
Ġdy stop
Ġrank ed
Ġproceed s
ĠHol iness
Ġbuzz ing
Ġmold ing
ĠRad cliffe
ĠJane iro
Ġillum inate
elect rified
Ġfis cheri
Ġinse curity
Ġnic est
Ġnud ges
ĠCons ervation
ĠMany a
Ġperse cut
ĠRon ald
ĠUN ES
gener ating
Ġsufficient ly
Ġcontempl ate
Ġtut oring
Ġlos ers
ĠIg bo
ĠFore ign
ĠWi Fi
Ġbreed ers
Ġfluctu ation
Ġsacrific ed
Ġperf um
ĠHot mail
ĠHead s
ĠHead waters
Ġmisunder stand
Ġmisunder standing
Ġcockro aches
Ġlobby ists
Je an
Ġnail ed
ĠMot ors
ĠGall up
Ġextr ap
Ġdistinguish es
Ġasth matic
Ġcomplain ts
Tr uth
sight ed
Ġbip artisan
Ġreper cussions
Ġoverlo ok
Ġcoh ort
ĠKu wait
Ġtemp o
Ġtemp les
Ġsteep ed
Ġconvenient ly
Ġhollow ed
cor rect
core x
pat ient
Ġtoss ed
Ġcass ava
Ġgreet ing
ĠServ ices
ĠHas bro
ĠFood s
Ġprecip ice
Ġfacil itate
mod ern
mod els
ĠCla es
ĠBet ter
Ġmang roves
ĠES P
ĠNathan iel
ĠLear n
ĠLear ning
Ġcontrad iction
Ġsanct ity
atal ie
Ġbunk er
Ġlemon ade
Ġgru eling
ĠEc u
ĠEr ik
Ġradi ologists
Ġmortg ages
ĠEnviron ment
Jim my
Sc ott
pot ting
ĠId ol
Ġsole ly
Ġdeple ted
Ġdecept ively
Ġprecon ceptions
ĠOper ations
Ġlaure ates
Ġconstitu ency
ĠGoog lers
Ġadmitted ly
Ġadvertis ement
blo od
mel on
Ġaqu atic
ĠSum mer
ĠBM W
ĠDiet rich
Ġamput ation
ĠRead er
Ġsmugg led
Ġincon ven
Ġautobi ography
Ġexclud e
ĠMeyer owitz
Ġmicroblog ging
Quest ion
Ġprevail ing
Ġbail out
Ġren amed
Ġarrog ance
ĠRain forest
ĠFer ris
Ġrelie ved
Ġextro vert
Ġbiof abric
Ġbiof uels
Ġsubmar ine
Ġoppon ent
Ġscrap ing
Ġpetro chemical
Ġpetro leum
ĠAhmed abad
Ġoblig ed
Ġimprison ed
Ġhorn s
Ġgad get
Ġgad gets
ĠKar achi
Ġcheek s
ĠBrad ley
ĠToraj a
Ġlexic ographer
mat ism
uj ah
Ġcush ions
Ġcasc ade
Ġgy nec
Ġhect ares
ĠAR ES
Ġquir ky
Ġfeat uring
ĠPy thon
ĠDM CA
ĠFa iza
Ġmicroprocess or
Ġmicroprocess ors
Ġsuperher o
Ġsuperher oes
ĠProt estant
Ġpediatric ian
Ġbiochem istry
trans cend
Ġtire lessly
Ġnich e
roÃ§ as
Ġkin etic
Ġspong y
ĠBat man
ĠPier re
ĠJava Script
Ġtransf ers
Ġassert ive
Ġvoic em
Ġleapf ro
Ġfierce ly
Ġmunicip al
Ġbyproduct s
Rep orter
Read ing
Sil ence
Sec ret
Ġairst rip
Ġcer amics
Ġwithd raw
Ġascend ing
Ġrhy me
ĠCou steau
Ġenfor ced
ĠBuff ett
Ġrooft ops
Ġprehist oric
ĠJoh annes
Ġincomp atible
Ġcray ons
Ġsucc umb
Ġarchety pe
Ġbarb aria
Ġcrocod ile
Ġcongrat ulations
Ev olution
Ġpave ment
Ġfount ains
Ġdub ious
Ġprolong ed
Ġpend ulum
Ġvic inity
Ġcoer cion
Ġincap able
Ġbrig ade
Ġpatri arch
ĠVel cro
Ġecst asy
Ġgiraff e
havior al
Ġcaterpill ar
Ġaur ochs
Ġtheor ist
report ed
Ġeu ph
Ġul cer
Ġsemic ond
Ġkr ill
Ġridd led
Ġproverb ial
Ġlobb ied
Ġpled ged
Ġcontr apt
ĠRaj asthan
ĠFest ival
Ġgeop olitical
Ġfantas ies
Ġbarbec ue
Ġrebell ion
ĠMichoac Ã¡n
ĠHispan ic
Ast ron
Josh ua
Mo ving
Sher yl
mans hip
Ġcerv ical
Ġhic c
Ġstub born
Ġseiz ures
Ġnec roph
Ġlollip op
ĠCost a
Ġagnost ic
ĠTNC s
ĠDiction ary
ĠNam ib
Ġcocon ut
Ġprere quis
ĠChand ler
ĠKur zweil
ĠYah oo
ĠUnivers al
Ġdefic its
ĠIndust ry
Ġrevis it
ĠMcM urdo
ĠMeg gendorfer
ĠExcell ent
Ġpsychoan aly
Ġdisadvant aged
urprising ly
ĠSisyph us
Coll abor
Pes a
Ġib uprof
Ġot aku
Ġmars up
Ġdwar f
Ġinund ated
Ġgour met
Ġephem eral
Ġfranch ise
Ġconsecut ive
Ġunansw ered
Ġimpover ished
ĠNR K
ĠRIS D
Ġinvolunt ary
Ġbienn ial
Ġtelev isions
Ġmicrof luid
Ġepile psy
Ġpilgr image
Ġmegafa una
ĠWikiLe aks
Ġnarciss istic
ĠMOOC s
Increasing ly
invas ively
Ġeul ogy
Ġelo qu
Ġstret ches
adij a
Ġatroc ities
Ġnotwith standing
ĠSyd ney
ĠSelig man
ĠCree k
ĠCels ius
ĠMizz one
ĠHaid t
Ġunrel iable
ĠPMT CT
ĠDise ase
ĠLGB T
ĠFek i
intention ed
Ġgrump y
Ġaftergl ow
ĠYosem ite
Ġquestionna ire
ĠVien na
ĠVeter ans
ĠVibr io
Ġreferend um
Ġapproxim ation
Ġshortcom ings
ĠSheph elah
Ġastroph ys
Ġirresist ible
ITNE SS
ĠBarcel ona
ĠMelbour ne
ĠUNES CO
Ġibuprof en
2 3
4 2
4 9
5 3
9 7
9 8
A g
A p
A ct
A llow
A ustr
B ot
B ro
B est
B rain
B uilding
C y
C ent
C ell
C oming
D D
D U
D ad
D own
D ec
D oh
D oug
E E
E qu
E st
E th
E mb
F N
F O
F ar
F orm
F air
G F
G h
G iving
G reg
H D
H ard
H igh
H ub
H any
H ollywood
I I
I raq
J B
J N
J S
J Y
J ill
J ake
K hal
L ive
L yn
L arge
M c
M od
M ind
M el
M aking
M others
M oral
N ic
N ugg
N early
O R
O W
O ld
O il
O xy
O ops
O lder
P ain
P ick
P olitical
P icture
R P
R a
R ule
R oy
R aise
S al
S om
S ound
S leep
S oph
S ylvia
T radition
T raditional
V M
V ol
W ant
W oman
Z e
b os
b ure
b ies
b ard
b ab
b irds
b ogg
c if
c ard
c ode
d ec
d epr
e ating
f ar
f el
f ull
f ood
f uge
f ran
f ounder
f ocused
g ow
g un
g ia
g rain
g ians
g lom
g eren
h o
h im
h ots
h aul
i ken
i ks
i Vo
j ord
j ah
k w
k it
k im
k owitz
l ore
l ate
l ast
l ia
l ier
l asting
m ight
m ount
m achines
n ine
n ial
n umb
n esty
o ose
o nder
o vers
p a
p our
p ens
p sych
p ressed
p oke
p olar
r ia
r ue
r ings
r idge
r idden
r ament
r ika
s ustain
s urfing
t age
t ested
t uned
u ating
u ition
v ag
v ases
w ing
w al
w ig
w ife
w elling
w itz
y ce
y ons
y ards
y top
z ac
Ã ¸
Ġ #
Ġ vel
Ġ erg
Ġt ile
Ġt ier
Ġt ying
Ġt ones
Ġt ux
Ġt andem
Ġt ainted
Ġa while
in ology
in formation
Ġw ines
Ġw rench
Ġw oken
re ne
re ctions
Ġo re
Ġo sc
Ġo culus
Ġs ult
Ġs ourced
Ġs ourcing
Ġs izable
nd e
nd t
nd as
er ick
er ala
er idge
Ġc res
Ġc aut
is se
is cus
it ol
it ters
os ke
os cop
Ġb if
Ġb out
Ġb ast
Ġb udd
Ġb aked
Ġb achel
Ġb ouncing
Ġb ounces
Ġm ul
Ġm itt
Ġm ish
Ġm ute
Ġm ucus
en as
en abled
en ergy
en cia
ap ia
Ġh ose
Ġh ates
Ġh arr
Ġh alt
Ġh iking
Ġh ugs
Ġh ugged
on ial
Ġto re
Ġto en
Ġto pp
Ġp ard
Ġp ious
Ġp anda
Ġp add
Ġp aired
Ġp oker
Ġp orridge
Ġf ren
Ġf ates
Ġf ash
Ġf iltered
es on
an ning
Ġd ar
Ġd ived
Ġd izz
Ġd urable
Ġd arn
Ġd usk
or o
or ie
or io
al op
al ie
al ach
al ph
al ah
al ism
Ġin ac
Ġin cess
Ġin box
ed ron
Ġl um
Ġl av
Ġl uminous
ar med
ar ayan
ot ally
ot ers
ot ine
Ġy ang
Ġy ell
Ġy elled
om ore
om pe
om bo
om ously
Ġg em
Ġg az
Ġg athers
Ġg ait
as per
as pora
as gow
ic ity
le ading
ĠI gn
ĠI GF
ve tson
Ġn ause
Ġn ifty
Ġn inja
Ġwe eds
Ġwe eping
Ġwh irlwind
Ġe el
Ġe ud
Ġe cl
Ġe got
us i
us on
us ch
Ġbe ads
Ġbe aver
ut o
ut ed
Ġit ch
et ric
et ime
et ooth
Ġre el
Ġre app
Ġre de
Ġre wind
Ġre forestation
Ġre develop
Ġre nov
ent in
ct ed
ct ure
ver ning
Ġha ul
im ming
ur ations
ur ably
ur istic
ur ga
ig o
ig mas
ig uel
Ġst ing
Ġst iff
Ġst ove
Ġst utter
ch t
ch itect
ro e
ro ir
Ġfor ging
if l
if s
se xual
Ġwas ps
ir us
op ia
op lin
op pable
op rene
Ġan ew
st ic
st ation
st ates
st ones
st arted
ol an
ol ese
ol vable
ol ocation
th ere
ra il
ra ib
ra ising
ra zy
Ġab uses
Ġgo verning
Ġse min
Ġse ldom
Ġcan t
Ġcan on
Ġcan al
Ġcan oes
Ġcan ned
Ġcan vases
Ġk ios
Ġk ooks
Ġli ability
[...]
